#version: 0.2
c h
o s</w>
a n
t i
ʼ a
e s
e l</w>
e r
e n
t a
q u
l a
d e</w>
ʼ o
l i
t a</w>
e n</w>
a r
l a</w>
o n
c i
qu e</w>
e s</w>
i n
t e</w>
m a
ʼ u
l i</w>
a n</w>
u n
r e
a s</w>
l e
t o
r i
s i
l e</w>
c o
b a
d o</w>
t u
m i
d i
r a
y a
s a
ʼ i
c u
j a
@ -
@- @</w>
p o
b i
o ʼo
n a
ti k</w>
e m
l o</w>
h o
l os</w>
u n</w>
r i</w>
p a
t r
ó n</w>
c a
ch i
J e
c h</w>
v i
t o</w>
s e</w>
e ʼ</w>
a l</w>
k ʼa
s o
a l
D i
k ʼ
t z
a b
y u
Je ho
ch a
d e
t e
m u
Jeho v
l o
c on
k i
p r
y a</w>
p ar
Jehov á</w>
s e
i n</w>
t i</w>
b e
d a
p er
Di os</w>
s u
ci ón</w>
j i
p u
k u
la l</w>
r e</w>
k a
á a
ʼ n</w>
m o</w>
m an
oʼo b</w>
k ʼu
o r
la s</w>
t s
d a</w>
í a</w>
i k</w>
j o
j e
m e
la j</w>
n o</w>
h a
k o
y o
t u</w>
par a</w>
qu i
t en
é e
J es
n i
b ʼ
b li
j un</w>
g u
r u
co n</w>
m os</w>
y i
s u</w>
k ʼo
po r</w>
m o
ti ʼ</w>
t el</w>
n u
ʼa l</w>
j un
n o
á s</w>
l u
a j</w>
k e</w>
m en
ʼa n</w>
e r</w>
m a</w>
b ʼ</w>
k u</w>
s i</w>
p i
o n</w>
b a</w>
j u
em os</w>
Jes ú
d os</w>
o ʼ</w>
n os</w>
Jesú s</w>
ʼu n</w>
B i
e l
r a</w>
i l</w>
m e</w>
pr o
x u
ʼi l</w>
un a</w>
m i</w>
a r</w>
k ʼ</w>
ba ʼa
d el</w>
an do</w>
e x</w>
da d</w>
Bi bli
m in
p e
x i
f i
ch e</w>
ta l</w>
es tr
t ra
t an
a j
o r</w>
b u
yu ʼun</w>
l el</w>
ch i</w>
k y
d es
l es</w>
Bibli a</w>
q a
c a</w>
b ʌ</w>
v er
b re</w>
on es</w>
ʼ j</w>
1 0</w>
j o</w>
er a</w>
t os</w>
e c
h i
y ée
v a
li k</w>
g o</w>
p re
en ta</w>
em p
y e
ja ʼ</w>
u t</w>
1 5</w>
b r
es ta
w a
yée tel</w>
m ás</w>
ʼu k</w>
tu ʼn</w>
h ab
t er
Q u
ji ñ
k e
su s</w>
b ʼa
s a</w>
w i
f u
e j
be e
r es
ú u
r o
x chi
ma ʼ</w>
s o</w>
1 1</w>
c ri
jiñ i</w>
ha c
1 2</w>
á n</w>
pu e
s to
é n</w>
g a
ch u
nu estr
x a
ti ke</w>
t es</w>
p a</w>
a mi
qu é</w>
co mo</w>
ya ʼa
k ʼi
per o</w>
po r
s ti
m áa
to j</w>
d r
xchi ʼuk</w>
an i
en te</w>
d u
a c
k a</w>
a s
1 4</w>
1 3</w>
b ʼil</w>
t es
qu e
l ta
er man
Qu é</w>
J u
sa ʼ</w>
M a
d o
es t
ó mo</w>
u ti
í as</w>
ta n</w>
x i</w>
c o</w>
ʼ el</w>
ó o
es i
g un
ta s</w>
v o
t si
r u</w>
cha ʼan</w>
le ʼ</w>
t z</w>
a yu
b e</w>
ch o
mi ʼ</w>
e x
cu ando</w>
l oʼob</w>
baʼa x</w>
ci a</w>
mu ch
1 7</w>
ch an
1 6</w>
p ʼ
m bi
u s
bʼ an
i m
ar i
n e
q a</w>
é l</w>
ʼ an
ch eʼ</w>
i s
ci ones</w>
s on
h e
p á
s er
o tr
o s
li l</w>
gu i
er o</w>
pa s
y e</w>
na q</w>
v e
oʼo b
g i
ma l</w>
co m
c e</w>
h erman
ch ʼu
ma s</w>
ch ʼ
T i
n a</w>
ba l</w>
d es</w>
ch ʼa
m en</w>
v enta</w>
ti ʼj</w>
q ʼa
d as</w>
kʼu si</w>
per son
é s</w>
x a</w>
c ˈ
R e
bi n</w>
s ta
ja l</w>
1 9</w>
p on
er on</w>
w a</w>
á an
1 8</w>
l le
c ar
a ʼal</w>
ki l</w>
j el</w>
men te</w>
h a</w>
x o
q ʼu
q ʼ
s kʼo
t on
kʼa lal</w>
v a</w>
a li
bi l</w>
a ñ
d em
kʼa n</w>
in o</w>
f or
tz i
b o
s ta</w>
s venta</w>
í an</w>
ya an</w>
k oʼob</w>
h u
an te</w>
2 0</w>
di s
b ʼi
ta j</w>
uti aʼal</w>
oʼo n
ta q</w>
min s</w>
w in
g ra
so bre</w>
la c</w>
B a
S a
O S</w>
ta r
e li
Ju an</w>
d ar
de ci
ʼo b</w>
z a</w>
j e</w>
ch ʼ</w>
o ra
g o
b an</w>
J ée
Jée o
ja ch</w>
s to</w>
t en</w>
es ta</w>
ß a
t eʼ</w>
ya j
ti en
na k</w>
q ʼo
ta r</w>
so k</w>
ts ʼ
kʼ o</w>
mbi én</w>
g r
se r</w>
ʼ n
a d
v o</w>
E S
mi en
o b</w>
vi da</w>
emp lo</w>
C ómo</w>
ya l</w>
K ʼ
P ab
te o</w>
p en
oʼob oʼ</w>
un i
t s</w>
lo ʼ</w>
P or</w>
ma j</w>
e tik</w>
2 1</w>
m bre</w>
a la
ta mbién</w>
ch ʼo
s en
po d
lo b</w>
re ga
se ñ
g os</w>
a vi
s as</w>
c re
di o</w>
ma n</w>
w o
hac er</w>
to do</w>
ma ʼa
ti emp
le k</w>
H e
l áa
la n</w>
o y</w>
c ción</w>
skʼo p
x oʼob</w>
chi k</w>
Je o
ku x
S al
v en
y an
2 2</w>
A N
r o</w>
es te</w>
c ʼo
ts ʼo
t so
en do</w>
ch ë</w>
sa l
pue de</w>
a mos</w>
tz aj</w>
2 4</w>
g a</w>
p e</w>
pá r
es tu
qu i</w>
cu r
T I
est á</w>
s kʼan</w>
p li
je ch</w>
L a</w>
ti ʼ
a do</w>
ʼ ex</w>
ˈ n</w>
q i
s ko
je ʼel</w>
x an</w>
be y</w>
b ʼal</w>
yu k</w>
di jo</w>
Jes u
E s
j os</w>
j a</w>
es o</w>
ta k</w>
tiemp o</w>
ʼu n
p ri
li a</w>
Pab lo</w>
í i
J a
ch o</w>
jo l</w>
tu men</w>
g rega
er ra</w>
L I
k an
L i</w>
b er
b le
to dos</w>
b í
on i
tr os</w>
person as</w>
u e
co r
á n
w e
mi n</w>
xu ʼ</w>
é el</w>
oʼo x</w>
Di o
ji l</w>
m u</w>
por que</w>
skʼop lal</w>
S an
mu y</w>
tsʼo ʼo
di ce</w>
f ami
ar on</w>
P e
pʼ éel</w>
c as</w>
k al</w>
con grega
to ʼo
é en</w>
en tr
la ʼ</w>
l an
l u</w>
de r</w>
cu i
2 3</w>
as í</w>
en cia</w>
c la
x na
an os</w>
a t</w>
c er
cri sti
a k</w>
a m
g ar</w>
k yi
mu ʼ
so n</w>
C H
da r</w>
ʼ e
pr en
tes ti
d on
ej emplo</w>
bee tik</w>
j u</w>
L u
x e
Ba ʼa
bí bli
ci on
2 0
d er
t úu
c es</w>
ci as</w>
a p
w u
c ßa
co sas</w>
al es</w>
z o</w>
a y</w>
nuestr a</w>
y o</w>
t sa
ba j
ñ i
el los</w>
l tik</w>
ch ʼi
c ʼ
con tr
á an</w>
bu en
so tros</w>
x jal</w>
3 0</w>
hab ía</w>
mi s
b an
ra z
c an
sa ß</w>
q e</w>
t em
con o
c e
or es</w>
pro f
ri ʼ</w>
B I
c os</w>
sa r</w>
si k</w>
t ri
herman os</w>
si ón</w>
congrega ción</w>
ka ʼa
o l</w>
dr o</w>
b en
w an
p í
de o</w>
o k</w>
b en</w>
d ía</w>
q ʼi
p an</w>
mi l</w>
es ti
t saʼ</w>
cʼo t</w>
c ómo</w>
ku bʼ</w>
j lel</w>
Ma teo</w>
fu e</w>
c an</w>
bi en</w>
al gun
J er
ar e</w>
tzi j</w>
p as</w>
D avi
si n</w>
o b
1 9
kʼa ʼa
ts ʼa
us te
en señ
2 5</w>
c ʌ
k ya
y ʌ
es to</w>
d en</w>
e b</w>
to n</w>
k an</w>
k ˈ
ß u
da des</w>
ji ch</w>
L e
to k</w>
an a</w>
n i</w>
p o</w>
0 0</w>
R o
n ec
w ä
l la
kʼ an
m un
I s
a u
cha ʼ
C u
en tes</w>
ti l</w>
tsi ʼ</w>
oʼo lal</w>
pre gun
ar á</w>
pod emos</w>
a ʼ
Jéeo ba</w>
s ba
a e</w>
pa la
pu és</w>
a ción</w>
yi cʼot</w>
otr os</w>
Dio se</w>
q ˈ
x chan
dem ás</w>
a q</w>
C h
cu a
x ye</w>
le tik</w>
le c
b le</w>
V i
m el</w>
áa j
añ os</w>
pr es
t ʼa
t x
y an</w>
ca r</w>
P ro
v an</w>
li x</w>
s an
2 8</w>
br as</w>
y óo
v os</w>
es e</w>
e bʼ</w>
t l</w>
Is ra
ch k
b ˈ
L e</w>
muʼ yuk</w>
ú n</w>
tu k
es per
an tes</w>
E L</w>
kʼ áa
Sal mo</w>
si g
K ʼu
f e</w>
l en</w>
in a</w>
Davi d</w>
t ó</w>
k en</w>
kʼ e
ñ u
ri j</w>
oʼon ton
D E</w>
C ri
ci o</w>
t í
a mo
pas el</w>
Re ino</w>
bi x</w>
h an</w>
pre di
n oʼox</w>
M ar
im por
si tik</w>
des pués</w>
ve z</w>
C an
fami lia</w>
se gui
wä ch</w>
in i
tien e</w>
b emos</w>
2 6</w>
k oʼo
va e</w>
Isra el</w>
un aj</w>
w e</w>
a m</w>
q an
t áan</w>
2 7</w>
no sotros</w>
pr e</w>
k ri
l ti
R I
b ʼan</w>
re y</w>
ya ʼ</w>
v e</w>
túu l</w>
Pe dro</w>
v er</w>
ke ʼ
vi deo</w>
e m</w>
aj u</w>
yo l</w>
ab a</w>
es pi
M A
y el</w>
cu lo</w>
re ci
se gu
a ma
w i</w>
Jeo vae</w>
2 9</w>
em pre</w>
ho ra</w>
to q</w>
b ra
kʼi n</w>
k eʼ</w>
ha y</w>
T A
ji k</w>
f er
or a</w>
espi ri
V I
kʼo t</w>
nuestr o</w>
é n
M o
sen ti
a ʼ</w>
v u
ta c</w>
ni m</w>
tsʼ áa
ten er</w>
a qu
b re
la r</w>
kʼu sitik</w>
yaʼa lik</w>
ja ʼ
amo r</w>
si empre</w>
bʼ e
yo ʼ
na ʼ
jo ʼ</w>
fu er
to ri
ora ción</w>
E l</w>
wi ʼ</w>
man os</w>
ca j</w>
máa xoʼob</w>
x ik</w>
b ar
ch a</w>
t ʼil</w>
mun do</w>
si l</w>
ter i
L A</w>
raz ón</w>
mien to</w>
ch rij</w>
s pa
ap ó
qu er
much o</w>
pár r</w>
ʌ ch</w>
K ʼa
chk ë</w>
q ßu
L A
y áan
que ß
jun pʼéel</w>
â n
R E
hi jos</w>
li br
qui l</w>
bʼ a</w>
k x</w>
p áaj
ʼ es
c lu
so lo</w>
E n</w>
I sa
s tr
J o
po si
l en
esta ba</w>
ch an</w>
ver dad</w>
m ar
chi x
qʼo ʼn</w>
a pren
t h</w>
ʼi n</w>
ky e</w>
t un
qʼ tz
du r
oʼon ton</w>
v an
ca da</w>
on o
nec esi
j eʼ</w>
apó sto
c er</w>
espiri tu
tu láa
ku ʼun
in ti
uste d</w>
u k</w>
vo l
ch éen</w>
Jéeo ba
impor tan
B LI
sto jo
xchan o
mu er
xna qʼtz
men to</w>
s em
j lu</w>
Vi v
ton ces</w>
ñ ob</w>
k yu
ʼ A
si gui
ayu dar
pí ri
mi l
es a</w>
máa k</w>
sa j</w>
g ente</w>
ser vi
ä n</w>
ma as</w>
j in</w>
3 1</w>
ch e
qʼa ma
wa ch</w>
re ch</w>
b ra</w>
S e
vi vi
bʼa ʼn</w>
en es</w>
le bʼ</w>
ma r</w>
c í
ho mbre</w>
el la</w>
cu er
k in
ta a
con fi
s ba</w>
men os</w>
ha sta</w>
is ra
ä l</w>
ar a</w>
n ya</w>
ta je</w>
cristi anos</w>
b ée
a oʼ</w>
an ci
ja ku</w>
tsʼoʼo k</w>
tu ʼn
o j
Cri sto</w>
w il</w>
res u
ch al</w>
es cu
re uni
no p
er an</w>
vi si
hi zo</w>
r á</w>
m br
q il</w>
V e
di ó</w>
píri tu</w>
i lel</w>
T E
n in
in ci
me yaj
esta s</w>
an za</w>
ayu da</w>
Baʼa x</w>
mis mo</w>
he cho</w>
chi l</w>
Can ción</w>
baj cheʼ</w>
pri m
Jer u
ka ʼan
bi os</w>
s es</w>
li n</w>
ya l
w en</w>
ñ o</w>
ba ʼ</w>
g ún</w>
ba t</w>
nu e
Sa tan
f ec
kʼ u</w>
ch os</w>
da do</w>
kyi ʼj</w>
BI BLI
algun os</w>
Jeru sal
cu enta</w>
ta ʼa
me di
ca ción</w>
ya kʼ</w>
li ʼ</w>
tuláa kal</w>
me jo
nuestr os</w>
a t
r as</w>
ca sa</w>
s í</w>
chi c</w>
ʼo b
e tike</w>
x bʼa
i s</w>
si s</w>
tz e
lu gar</w>
de bemos</w>
ch q
C o
tu ra</w>
con se
baʼa leʼ</w>
t â
re li
3 3</w>
1 0
he b</w>
much os</w>
f r
ko lta
res pon
o j</w>
a bi
un que</w>
qʼama ʼn</w>
P ero</w>
ti n</w>
ca do</w>
s w
pue b
C or
yi chʼ</w>
es cri
ko ʼ</w>
ma a
D I
f eli
T e</w>
v al
f o
k un</w>
est án</w>
kri xchano
N o</w>
pue den</w>
o k
q e
maʼa lob</w>
chi ʼ</w>
ta ʼal</w>
Jeho bʼa</w>
ti n
ri x</w>
contr a</w>
en tonces</w>
A po
ʼi k</w>
E N
c en
toʼo n</w>
d í
ma ch</w>
co razón</w>
T A</w>
ci e
oʼob eʼ</w>
je ʼex</w>
pala bras</w>
estu di
to das</w>
le b</w>
3 2</w>
la r
Jeo va</w>
kʼ e</w>
b in
a ß
ka a
Mo is
bʼan t</w>
g ar
ya j</w>
cha ʼal</w>
x in
par te</w>
hac e</w>
a a
no mbre</w>
O N
pr inci
Ma t</w>
n e</w>
pro ble
Jesu se</w>
te j</w>
J ob</w>
b u</w>
ma j
es tos</w>
kʼa ʼ</w>
cu m
Pro ver
n ar
r chë</w>
e go</w>
a hora</w>
Prover bios</w>
e j</w>
F i
es píritu</w>
pueb lo</w>
i j</w>
lle v
BIBLI A</w>
entr e</w>
ca mbi
qui er
man ta
es po
con tra
mbr es</w>
R u
M i</w>
y oʼolal</w>
d or</w>
z ar
al go</w>
A n
3 5</w>
cˈ a</w>
con ver
bʼa j</w>
páaj tal</w>
re la
O R
0 00</w>
in ter
ʌ l</w>
3 4</w>
man tal</w>
ñi c</w>
ʼa j
tra ba
chi n</w>
wi tz</w>
baʼa xoʼob</w>
j on
me jlel</w>
x t
qʼi j</w>
x ta
ten ía</w>
mejo r</w>
3 7</w>
w al</w>
I n
o l
e t</w>
stojo lal</w>
jun túul</w>
i r</w>
va li
Jerusal én</w>
a do
p le
an eʼ</w>
testi gos</w>
cu an
ä q</w>
ʼ e</w>
chu qui</w>
chi ru</w>
pu bli
T u
L E
b ta
ar tí
tan to</w>
ku tik</w>
jo b</w>
chq ä</w>
hi jo</w>
d re</w>
to da</w>
a ʼin</w>
N o
M i
kʼi in
kʼu chaʼal</w>
pu es</w>
herman o</w>
isra eli
yaʼa laj</w>
a ʼa
y oʼonton</w>
si er
a ʼan</w>
mu ʼ</w>
dem os
Isa ías</w>
k ß
s pi
re ʼ</w>
ten ami
sa l</w>
dis cí
discí pu
s pas</w>
le tiʼ
ra r</w>
a gu
un o</w>
Satan ás</w>
des e
B in</w>
VI D
tsi l</w>
ta do</w>
Lu cas</w>
Ti erra</w>
m on
bee t
much as</w>
y ik</w>
sw enta</w>
z ar</w>
J os
la le</w>
kux le
na x
a kʼo</w>
e le</w>
d ó</w>
d ías</w>
S al</w>
c ti
f í
man era</w>
ono jel</w>
yo b</w>
Ti mo
mi x</w>
i l
ES T
qui enes</w>
Jéeoba eʼ</w>
gr an</w>
in i</w>
person a</w>
ne keʼ
Bibli aoʼ</w>
t ʼan</w>
f ri
tz un</w>
ʼ än</w>
Kʼu si</w>
chʼu tik</w>
an o</w>
x ju
estu dio</w>
C I
L os</w>
bʼan ik</w>
ec es</w>
ri a</w>
qu jeʼ</w>
c ʼu
tu ʼu
tenami t</w>
s tu
h e</w>
l â
h er
tien en</w>
z e
ʼ I
o be
esta r</w>
te x
a unque</w>
ti erra</w>
pʼ ej
ari o</w>
se a</w>
kʼ el</w>
yaʼa b</w>
ab ʼ</w>
le a</w>
L I</w>
n qa
reli gi
N a
ko l</w>
be tik</w>
d an</w>
Mois és</w>
apósto l</w>
me lel</w>
j ta
fi ci
ali dad</w>
bu chʼutik</w>
gui en</w>
o f
ʼ tan
libr o</w>
qu ʼn</w>
kʼa j</w>
s ino</w>
pe j
xu qujeʼ</w>
kʼa l</w>
al guien</w>
ten emos</w>
v in
d en
yo m</w>
ta d</w>
bʼi j</w>
bʼ in
a x</w>
ja w</w>
s na
des de</w>
Q U
segui r</w>
ru mal</w>
deci r</w>
s le
po co</w>
reci bi
f al
B e
po l</w>
de j
4 0</w>
ac e
sko j</w>
pa ci
P ala
f ru
to ʼob</w>
d ores</w>
wan k</w>
yi l</w>
U t</w>
Timo teo</w>
ta l
inti os</w>
artí culo</w>
j pas
b el</w>
P A
ju dí
dr es</w>
ki ʼi
li p
kʼ a</w>
q o</w>
am bʼil</w>
tz a
otr as</w>
ba tel</w>
sem ana</w>
u l</w>
ta j
co men
u ku
z as</w>
ye lan</w>
so ʼ</w>
kʼáa t</w>
sa bi
ya abi
kʼ in
min is
ra j</w>
xi x</w>
kaʼa ch</w>
em pe
ci er
kʼ ë</w>
a v
kʼaʼa bée
U N
cha q</w>
la j
ti c</w>
te ch</w>
w an</w>
v en</w>
tʼa an</w>
S i
A l
ki k</w>
i do</w>
importan te</w>
p un
c to</w>
xju ʼ</w>
a dos</w>
el es</w>
chʼo ol</w>
ʌ n
s os</w>
pá g
ta mos</w>
lu k</w>
po dr
ä j</w>
cu an</w>
tr as</w>
par ec
ja a
T E</w>
ho mbres</w>
al l
ci endo</w>
ts ʼ</w>
in ten
li dad</w>
discípu los</w>
án g
cum pli
yo ʼ</w>
s t
p an
c ä
r ma</w>
ki x
x al</w>
A bra
in kʼaʼ</w>
pro pi
s in
ñ o
T a
máa x</w>
er os</w>
ʼ O
otr o</w>
bu s
ts ʼi
ñ a</w>
D e
B A
ch ß
E R
lo m</w>
ta la
ʼo j</w>
x ki
pr ue
ó n
T o
li ae</w>
c ó</w>
S A
x b
g en
bíbli co</w>
tz ʼa
cßa ß</w>
z ó</w>
mi k</w>
buen as</w>
sto jol</w>
ri ˈ</w>
D ani
ʼ i</w>
chʼ u</w>
cʼ ʌ
ʼi j</w>
kya qil</w>
Jos é</w>
ba uti
t ú
chix jun
cua ß</w>
v eces</w>
xnaqʼtz bʼil</w>
Cor intios</w>
T ES
re mos</w>
láa kʼ</w>
for ma
t na
com pa
ta je
a ba
pa dres</w>
un os</w>
qui en</w>
T yol</w>
cui ß</w>
on la</w>
mu kʼ</w>
or g
pa j</w>
j ba
ʼn e</w>
que b</w>
res pe
in clu
ch ˈ
ch ki
chi rix</w>
kʼa x</w>
k ex</w>
koʼo n</w>
ar se</w>
ci u
mi s</w>
x ka
Viv liae</w>
un ca</w>
a le
min tiʼ</w>
co lta
- -</w>
baʼa loʼob</w>
C ha
A demás</w>
1 4
be r</w>
m â
t qʼamaʼn</w>
dur ante</w>
San til</w>
to l</w>
ma l
su j
tu d</w>
di do</w>
bi j</w>
a po
S I
bʼ en</w>
pa l</w>
di o
tu ˈn</w>
co b</w>
princi pi
l í
a chi
a gra
Qu i
yoʼ tan</w>
k ki
R i</w>
ca min
ex pli
C RI
muer te</w>
ac ti
nuestr as</w>
es pe
su per
tso ts</w>
g an</w>
ma g
k oʼonton
te ʼ
qˈ u
lec tura</w>
don de</w>
T esti
M u
bi tʼil</w>
to ʼ</w>
ye ʼes
kʼo p</w>
ʼ x</w>
prof e
ju m
k o</w>
k ab
pa z</w>
ca b
He chos</w>
ja r</w>
r es</w>
aß an</w>
C hu
proble mas</w>
na ʼa
si ones</w>
t bʼan
r ía</w>
str u
bi l
k al
p ʌ
pʼej l</w>
o cu
f in</w>
pregun tas</w>
quier e</w>
a da</w>
ni fi
u láakʼ</w>
a h</w>
x ten</w>
K â
he bʼ</w>
sa do</w>
Y os</w>
sier vos</w>
be ik</w>
Ve a</w>
tsʼáa ik</w>
bʼ e</w>
i chil</w>
j w
tr o
ver da
maʼa ñic</w>
H u</w>
s me
xbʼa an
tori o</w>
prof ec
x el</w>
esi s</w>
win aq</w>
for ma</w>
taje k</w>
ac er
ni x</w>
e k</w>
j la
lip sis</w>
org ani
e p</w>
x ban</w>
k un
J A
yóo l</w>
ber n
jo j</w>
óo l</w>
per mi
lla ma
ra ción</w>
otr a</w>
bu chʼu</w>
or g</w>
re g
su kuʼun
cʌ n
r onojel</w>
d emos</w>
w ä</w>
S i</w>
t emplo</w>
3 8</w>
ci l</w>
al mente</w>
t witz</w>
Jesu cri
ma k</w>
kʼo l</w>
kʼ el
er o
ts ʼu
n unca</w>
le laʼ</w>
q ʼ</w>
ñ aʼ
n or
cha kʼ</w>
jun tl</w>
l oʼoboʼ</w>
teri o</w>
ru kʼ</w>
a si
Dani el</w>
en contra
le cción</w>
israeli tas</w>
m oni
tz ʼo
sko lta
sigui ente</w>
kux tal</w>
tbʼan el</w>
ch ka
hac er
cha j
ca m
xu ʼu
w 0
P ad
ma chʼa
publi ca
win i
t qʼoʼn</w>
du cción</w>
vivi r</w>
ayu dar</w>
Pad re</w>
E ze
pá g</w>
di a</w>
ben di
G én
q ab
la do</w>
posi ble</w>
visi ta</w>
e la</w>
tu l</w>
m í</w>
ga mos</w>
Gén esis</w>
en ta
ta ʼ
so l
c ʼ</w>
E f
sig nifi
sba ik</w>
tu s</w>
jw org</w>
J O
E N</w>
cur so
3 9</w>
k yo
i de
bi er
x tok</w>
en vi
je r</w>
em bar
tuʼu x</w>
tuk ʼil</w>
TI K</w>
ami gos</w>
Apo ca
tr es</w>
yu ʼun
le tike</w>
u tʼil</w>
su fri
Jehov ah</w>
mu l</w>
qʼu el</w>
ti a
tze ʼn</w>
T O
le c</w>
yu ʼu
g ri
ser á</w>
tra r</w>
ar a
esper anza</w>
p la
ti x
Ro manos</w>
na da</w>
fami li
men sa
pr esi
man i
com ple
C or</w>
ti r</w>
l esi
T Z
h on
t áan
anci anos</w>
li n
ti ʼob</w>
bee t</w>
c en</w>
s la
He bre
é r
tu lo</w>
Kâ cuaß</w>
d in
ʌn tel</w>
3 6</w>
ti na
pre curso
an ts</w>
Apoca lipsis</w>
en cias</w>
kyu ʼn</w>
i li</w>
CRI S
la k</w>
u tz</w>
si on
kʼaʼa y
vi sta</w>
ch al
ba yal</w>
D e</w>
in vi
E n
J as</w>
v as</w>
gi p
cha j</w>
tuʼn ju</w>
mien tos</w>
ko ʼtan
na me</w>
en ten
ac tu
co l</w>
He ch</w>
yaʼa li
añ o</w>
í amos</w>
ta le
si on</w>
A S</w>
chʼi k</w>
s te</w>
k ß</w>
tu uku
ʼob oʼ</w>
man o</w>
jun jun</w>
k í
cˈ o</w>
ace p
chu k</w>
e mi
sa m
estr a</w>
xa q</w>
Di os
J E
ch el</w>
Bi x</w>
ci r
t ten</w>
Jesucri sto</w>
Kʼ U
per i
hab lar</w>
po der</w>
R I</w>
ri kʼin</w>
qui x
S u
H i
ho y</w>
all í</w>
el ta</w>
ci ó</w>
te ß
ci do</w>
na j
cho pol</w>
ku k</w>
pen sar</w>
x e</w>
algun as</w>
4 5</w>
ni m
ri qßu
ca so</w>
jum pʼejl</w>
s í
te k
c ß
ï k</w>
t bʼ
d án</w>
e xi
s ja
máa koʼob</w>
á l</w>
si do</w>
si r
yo n</w>
g an
bʼa ʼ</w>
N A
me l
si tu
m ó</w>
sa ber</w>
yáan t
lle g
Ti ʼ</w>
tz o
kʼaʼabée t</w>
li ke</w>
pre par
Y u
me yaj</w>
espiritu al</w>
kʼu l</w>
l t
ʼ na</w>
ya kʼ
cur so</w>
machʼa tik</w>
tex to</w>
pa dre</w>
E l
tem e</w>
lo j</w>
pu esta</w>
ân u</w>
San tia
reuni ones</w>
tr an
hi ci
Se ñ
a b</w>
ʼu k
M E
oni a</w>
5 0</w>
y oʼonton
ko j
al qui
o etik</w>
ki n</w>
i kx</w>
pi en
co me
Señ or</w>
c ʼa
ar an</w>
r s</w>
embar go</w>
li c</w>
an d</w>
gra cias</w>
kʼi k</w>
yʌ l</w>
x chʼu
tz in</w>
sa cer
sacer do
k len</w>
ab an</w>
B ʼi
s tan
b i</w>
ciu dad</w>
T a</w>
Dios eʼ</w>
cie lo</w>
x ti
r kʼë</w>
Cu ando</w>
cu l
C on
TES OR
kʼu ʼj</w>
TESOR OS</w>
q al</w>
naʼ lebʼ</w>
hab ían</w>
y es</w>
in cßaß</w>
espe ci
a k
m úu
bee taj</w>
forma ción</w>
lo n</w>
4 1</w>
Santia go</w>
kuxle ja
Ja ʼ</w>
pro te
Pala bra</w>
kʼa ru</w>
ma ba</w>
pár rs</w>
win äq</w>
tr o</w>
i t</w>
ba ʼal</w>
a kʼ
b o</w>
moni o</w>
TI AN
CRIS TIAN
P re
ju sti
aj e</w>
án do
to j
j as</w>
tri bu
koʼtan tik</w>
jpas tik</w>
cˈ u</w>
lu ego</w>
ñu c</w>
úu chik</w>
t re
4 4</w>
Sa mu
na j</w>
ra lal</w>
fu eron</w>
traba jo</w>
ta lil</w>
i lik</w>
ne queß
tem a</w>
krixchano etik</w>
par e
ter min
de l
a chkë</w>
em ías</w>
ra f
ma laj</w>
lu ʼu
letiʼ eʼ</w>
to jo
po n</w>
i la
m es
predi car</w>
per fec
Kʼ u</w>
cu alqui
s mu
bíbli ca</w>
ri l</w>
ke tik</w>
E li
kʼu ʼx</w>
o p
tsʼ íi
ar nos</w>
san to</w>
go bier
di fí
VID A</w>
ch pan</w>
pu esto</w>
cha k</w>
i bʼ</w>
organi z
espo sa</w>
minis terio</w>
escri bi
ten dr
em bre</w>
bta s
on oʼox</w>
ju jun</w>
senti do</w>
sko tol</w>
j chan
E S</w>
al u
er es</w>
j kʼo
g una</w>
pu l
A chkë</w>
y tik</w>
obe de
tz ʼi
jo n</w>
ʼ tel</w>
f un
pro ba
qßu e</w>
ya ʼi
per las</w>
an ali
pa í
f in
R A</w>
esta ban</w>
E gip
t kyaqil</w>
a c</w>
G o
en fer
ja ʼa
a ta
ʼob eʼ</w>
di eron</w>
ñ os</w>
L O</w>
ʼ a</w>
v ía</w>
ü tz</w>
me dio</w>
t kubʼ</w>
mi c</w>
re heb</w>
sa b
pár raf
x cha
m pi
k el</w>
ani ma
di e</w>
j óo
qu in
r se</w>
E s</w>
1 ,
E sta
Mar ía</w>
ba l
ñ onla</w>
Ba bil
U ni
koʼonton tik</w>
m ón</w>
He b</w>
ti k
i gu
Hebre os</w>
ab i</w>
s bi
chan ru</w>
Viv lia</w>
kʼa sle
gu e</w>
o x
pág ina</w>
on in</w>
1 8
kʼasle mal</w>
ta ri
uste des</w>
mi t</w>
gr an
L O
pro me
la ción</w>
a ten
ca pí
Abra h
bíbli cos</w>
a se</w>
va ʼun</w>
á r
espiritu ales</w>
estr u
t se
k qa
ka w
de di
le y</w>
cu i</w>
a y
tar on</w>
Lu c</w>
J i
tu vo</w>
Y a
s pasel</w>
4 2</w>
de be</w>
n ki
mensa je</w>
mu jer</w>
e dad</w>
en e</w>
p ʼa
Samu el</w>
Ro m</w>
par ti
tu ras</w>
per don
qui xye</w>
chʼ a</w>
tz ˈ
enseñ a</w>
ú lti
br and</w>
li ʼe</w>
ta ción</w>
e le
Baʼa xten</w>
ha bi
Egip to</w>
del ante</w>
ʼ U
xi c</w>
in el</w>
me j
bin tik</w>
i ke</w>
fu era</w>
kʼ tik</w>
prim ero</w>
ja wa
ka j</w>
riqßu in</w>
ob ra</w>
mien tras</w>
p lan
sa cri
T U
cho l
verda d
l lo
k on
ad or
mo qa</w>
aj cuiß</w>
Fi li
T s
esta mos</w>
camin o</w>
g e</w>
ma ʼ
cor re
tna m</w>
toʼo x</w>
r án</w>
pu k
Hi jo</w>
S o
N ue
xu l</w>
to r</w>
a ciones</w>
Abrah án</w>
á ba
ri ó</w>
ta ba</w>
S E
el las</w>
yo lin</w>
ke bʼ</w>
Kʼu xi</w>
compa ñ
re visita</w>
us eʼ</w>
a w
pala bra</w>
k ʼil</w>
A dán</w>
chixjun il</w>
spi sil</w>
tu n</w>
in di
xo o
K U
na xye</w>
ta k
1 7
sa li
Jes useʼ</w>
ba lu
inclu so</w>
t ú</w>
o ri
g as</w>
of re
vol un
tala ya</w>
na x</w>
fu tu
pa r</w>
Chu qui</w>
áa x</w>
di fi
cono cer</w>
pu si
l tike</w>
á cti
ej u</w>
da mos</w>
A talaya</w>
ma ʼuk</w>
nue vo</w>
t ʌ
dis fru
buen a</w>
n k</w>
M I
- brand</w>
S e</w>
yoʼ tan
cha r</w>
ri chin</w>
ni kʼ</w>
te r</w>
Sal o
tʼa an
ver sí
judí os</w>
men tos</w>
vi eron</w>
au tori
k éen</w>
b as</w>
i tz
in formación</w>
s mo</w>
servi r</w>
mo do</w>
sam ble
hac en</w>
ma y
hu mil
futu ro</w>
ci en
s ma
bu en</w>
l len
h emos</w>
pen s
d estru
ä x</w>
xi men</w>
an ti
pon ga</w>
con si
di fer
c r
tsʼa ʼa
ar e
vi o</w>
CRISTIAN A</w>
p es
jo ʼ
to klen</w>
ka ʼan</w>
ben e
q eju</w>
Babil onia</w>
su e
o xi
k oʼoboʼ</w>
j nop
o ca
u s</w>
CH A
R A
1 6
ta mente</w>
cualqui er</w>
qe h</w>
i dio
jba tik</w>
un ci
lu m</w>
ri r</w>
p ʼi
r en
pr ácti
ba j</w>
ñ el</w>
u wach</w>
Ó N</w>
tu j</w>
B ʼ
so mos</w>
aqu í</w>
chʼa ʼ
em o
krixchano etike</w>
es os</w>
Pab lo
ti ó</w>
Ve amos</w>
J U
E c
de bi
kan áan
tu k</w>
ko j</w>
L E</w>
chu l</w>
L o</w>
v ino</w>
vo ko
oʼo n</w>
c el
ti quil</w>
re h</w>
J on
wo col</w>
4 3</w>
x kʼa
pres en
hi sto
ma tri
mo mento</w>
predi cación</w>
Es cri
ch ke</w>
na die</w>
Ja cob</w>
é is</w>
xo ok</w>
A r
feli z</w>
pe cado</w>
profe ta</w>
oʼo baʼ</w>
tso bo
ma chʼa</w>
herman a</w>
x in</w>
ru ma</w>
no ti
no q</w>
yan tik</w>
Jesu s</w>
principi o</w>
nec es
n el</w>
prim era</w>
bʼin cha
la ʼa
chi chʼ</w>
lo k</w>
ami go</w>
sme lo
r y
f á
ñ ʌ
tu mel</w>
ser i
ja ʼel</w>
ad or</w>
tsi k
C O
bi k</w>
yi lik</w>
N e
cha lal</w>
Mar cos</w>
re cor
Kʼa lal</w>
uni dad</w>
er man</w>
n áa
res puesta</w>
ts kʼan</w>
re fo
l ta</w>
f e
s kʼan
u sa</w>
Testi gos</w>
du c
in e</w>
áng el</w>
fr en
b ba
N i
au di
ti do</w>
aqu el</w>
ya m
demos tr
ó ni
c ari
refo x</w>
ri k</w>
pa k
ci n
pej te
to mar</w>
din ero</w>
ˈ j</w>
pre ocu
ti vos</w>
r an
ˈ n
be yoʼ</w>
ñu men</w>
qui z
á li
E O</w>
s an</w>
fi r
sal v
M t</w>
ja tsʼu
d ente</w>
, 000</w>
ô l</w>
no j
tsʼoʼo leʼ</w>
conver sa
s te
yo j
m er
hu manos</w>
letiʼ e</w>
p ó
ya ʼ
wini ketik</w>
y in</w>
x eʼ</w>
a cu
ts pa
A j
ti vo</w>
ʼ k</w>
ho r
s tsa
x kʼu
ab ʼ
os os</w>
no p</w>
P e</w>
a wa
Eze qui
sukuʼun oʼob</w>
spa sik</w>
je ˈ</w>
C U
justi cia</w>
tsʼa k
i c</w>
e vi
ado ración</w>
organiz ación</w>
signifi ca</w>
ide as</w>
xa aneʼ</w>
g ru
qʼu q
pen sa
chʼu un
mil l
ta qeh</w>
x kʼo
ca l
to r
L o
yóo kʼol</w>
con di
bi ʼ</w>
cu a</w>
A N</w>
a samble
en emi
ten ían</w>
man k</w>
I L</w>
se gún</w>
skʼo p</w>
conse jos</w>
cier to</w>
c ía</w>
R OS</w>
t qa
m é
J un
4 8</w>
cha ʼ</w>
pejte lel</w>
er r
l íi
M an
li ber
sa lu
na ʼoj</w>
ki ʼ</w>
ar lo</w>
apren der</w>
u pʼéel</w>
conver sar</w>
ci miento</w>
cho ch</w>
xbʼaan u</w>
manta le</w>
ó ven
óven es</w>
prue ba</w>
le w</w>
ta ʼ</w>
pe di
audi torio</w>
g lo
ch ʌ
ʼ tan</w>
ch kʼot</w>
L aj</w>
jo ß</w>
ayudar á</w>
mo s
Re y</w>
ob je
kya j</w>
t ía</w>
dem u
Ti m</w>
M es
ya kal</w>
buen o</w>
v í
h ar
aj wiʼ</w>
M OS</w>
x cßa
qʼu e
mu yu
na ción</w>
t áa
segu r
5 5</w>
Pe d</w>
servi cio</w>
lo r</w>
x kʼot</w>
yo ra
nar u</w>
sa ʼa
ser es</w>
k áa
c ʼaj
B alu
quer ía</w>
o so</w>
sig lo</w>
b ʌ
j óvenes</w>
se amos</w>
de ber
t qan
ch úu
nop el</w>
k er
reuni ón</w>
mi la
C re
ora r</w>
con stru
b on
I n</w>
kʼa a
ú l</w>
pa ab
agu a</w>
n úu
men cion
v ari
L i
ku bʼij</w>
es cla
cu los</w>
espo so</w>
DI OS</w>
a lal</w>
fi eles</w>
Jer emías</w>
t emp
cʌn tes
vo sotros</w>
x chʼool</w>
no jo
ñ i</w>
ex peri
â l</w>
igu al</w>
te k</w>
M a</w>
ka ʼa</w>
qi ʼj</w>
tz ʼe
Dio soʼ</w>
CI ÓN</w>
ga do</w>
ta t</w>
I N
m es</w>
x lo
ca dos</w>
i mag
co mi
de ben</w>
to jlel</w>
Sa úl</w>
in o
ka j
m ero</w>
mi le</w>
ma dre</w>
ayu dó</w>
ʼ l</w>
VID EO</w>
jun tiquil</w>
in tro
yo r</w>
I s</w>
ter ri
kʼa sal</w>
x an
P ara</w>
capí tulo</w>
ra mos</w>
tsobo bba
d á</w>
ru bʼanik</w>
por t
mo ko</w>
mu j
u tik</w>
in ik</w>
no k</w>
kuʼun tik</w>
maa sil</w>
su ce
cˈ u
b oʼob</w>
n q
l é
ya ˈ</w>
ti co</w>
d ro
Ma ʼ</w>
bʼincha ʼn</w>
ba ʼob</w>
Escri turas</w>
mo ra
ari ʼ</w>
ta jin</w>
lâ in</w>
e qui
óo lal</w>
pa so</w>
apósto les</w>
feli ces</w>
ki lal</w>
RE S</w>
vi de
testi go
t xi</w>
Ju dá</w>
profec ía</w>
yal be</w>
tz ʼ
j chi
Esta dos</w>
b les</w>
kʼu tun
párraf o</w>
i b</w>
hab l
pa sado</w>
qʼa bʼ</w>
ti ʼobeʼ</w>
t tzaj</w>
re cuer
pu er
in a
ca be
c ando</w>
ne t</w>
ja sta
T z
tuuku l</w>
C hi
ja ʼan
Pre gun
g re</w>
e ter
fi el</w>
i x
Salo món</w>
4 6</w>
wu j</w>
I K</w>
jatsʼu ts</w>
ti j</w>
li mpi
ra jawa
val or</w>
pa j
kiʼi mak</w>
t é</w>
k íi
ma yor</w>
esi os</w>
kuxle jal</w>
se le</w>
Y O
Y A</w>
e xa
w in</w>
o cur
xb ê
ka x
testi go</w>
T i</w>
hici eron</w>
tx qan
yu ʼa
in k</w>
jun uk</w>
ar re
situ ación</w>
Be tel</w>
txqan tl</w>
smelo lal</w>
u sar</w>
quiz ás</w>
yaj tsʼak
qu emos</w>
K O
cu al</w>
cla ro</w>
pun to</w>
ej emp
A sí</w>
chu qa</w>
jaa jil</w>
z ca</w>
di ri
pʼ áa
kʼu t</w>
j an</w>
i k
meyaj tik</w>
l á
w ariʼ</w>
Ef esios</w>
z ado</w>
jiñ ʌch</w>
y úu
d ón</w>
qˈu i</w>
enten der</w>
vo kol</w>
fá cil</w>
t su
re cción</w>
an o
In ter
estr o</w>
re hebʼ</w>
resu lta
pr on
S l</w>
ba ʼ
mi ʼn</w>
e ʼes
pod ía</w>
l lo</w>
tz a</w>
jasta q</w>
o ʼ
P a
di al</w>
ke b</w>
R i
ha ya</w>
ti jo
er as</w>
ʼo tx
c ʼal</w>
ʼo ʼ</w>
sa maj</w>
je j</w>
xbʼa an</w>
le er</w>
si en
Ezequi el</w>
ta dos</w>
ru u
P o
i mi
beet koʼob</w>
chʼa ʼa
A l</w>
ʼ q</w>
ku kx</w>
ma k
a wo
ón de</w>
20 0
É l</w>
v elta</w>
ab te
e h</w>
ri q</w>
pr ó
ami sta
g er
fuer zas</w>
i le</w>
qa chalal</w>
ku ba</w>
c ru
ha ga</w>
me r</w>
yan tal</w>
yoʼonton ik</w>
ja ʼuk</w>
dur ía</w>
gu erra</w>
cßa ß
matri monio</w>
tuk lik</w>
si lal</w>
yeʼes ik</w>
lo gr
C a
tina mit</w>
D es
sabi duría</w>
rajawa xik</w>
paí s</w>
cuan queb</w>
kʼu jla
co me</w>
escribi ó</w>
ten to</w>
áli sis</w>
o m</w>
mi go
ʼotx ʼ</w>
na ciones</w>
estudi ar</w>
á ni
t ando</w>
maʼa tech</w>
t és</w>
m eʼ</w>
pa jal</w>
múu chʼu
Kʼ A
conversa ción</w>
acer ca</w>
s en</w>
ka ʼi
volun tad</w>
i ch</w>
x aneʼ</w>
ale gr
man ten
a ca
ân k</w>
le tiʼ</w>
entr o</w>
L as</w>
pu so</w>
tzo lom</w>
kʼu xi</w>
go ber
ky e
í o</w>
í n</w>
i lta
t emos</w>
u u
resu ci
pe que
jo ven</w>
re ali
der e
K A
J un</w>
kyu kʼil</w>
y ô
a ti
ta al</w>
kˈ ij</w>
yoʼtan ik</w>
6 5</w>
ö j</w>
publica ciones</w>
deci siones</w>
ra qal</w>
es pa
parec e</w>
B us
ñaʼ tan</w>
o ch
maʼa lo
Pro v</w>
joʼ kan</w>
v esti
ra do</w>
j na
ri dad</w>
bee taʼal</w>
pro ve
bée y
C A
Y A
y ó</w>
j kʼan
tiʼ eʼ</w>
com pren
con clu
li o</w>
ba jo</w>
ab ʼa
B ʼI
con ven
ch ʼel</w>
ˈ y</w>
su cur
ha ciendo</w>
N U
ʼo k</w>
se cción</w>
k qab
jaʼ nix</w>
ti ji
podr ía</w>
kʼ be</w>
al gún</w>
kʼa kʼa
ú ni
t ê
i x</w>
xe ʼ
uti li
m á
h ará</w>
Uni dos</w>
qʼ i</w>
cer ca</w>
h il</w>
com par
tz un
ru wäch</w>
je tik</w>
î nk</w>
cʼʌ j
qa chʼa
o port
ya k</w>
we m</w>
dar á</w>
ye kʼin</w>
kʼe lo</w>
chʼo j</w>
es for
w í
par a
x y
la ʼal</w>
con ti
B aj
ri xin</w>
bern ante</w>
cuer po</w>
ta q
l la</w>
s tos</w>
ku ya</w>
si to</w>
in f
u r
llev ar</w>
ari a</w>
hab er</w>
QU É</w>
tza laj</w>
lle gar</w>
tu lan</w>
tú un</w>
deci sión</w>
ri che</w>
ki xye</w>
M Á
re vista</w>
cu án
chi ru
c ciones</w>
xa k</w>
j oʼo
ï l</w>
yʌ l
J n</w>
n eʼ</w>
lesi as
difí cil</w>
no che</w>
medi ante</w>
ar án</w>
qui én</w>
le m</w>
chʼ na
c emos</w>
gu ar
áng eles</w>
y áax</w>
pi e
nu ʼuk
ka m
lu l</w>
u bʼanik</w>
ts pas</w>
Le y</w>
bˈ il</w>
na qa
tu ʼna</w>
no ta</w>
e fec
si k
o c</w>
M e
sa bemos</w>
pri mer</w>
buen os</w>
v oʼ</w>
chan u
nin gún</w>
min aʼan</w>
pro pó
ába mos</w>
r ä</w>
an a
intro ducción</w>
ban ti</w>
ye t</w>
noti cias</w>
QU E</w>
ora ciones</w>
ci dad</w>
ni l</w>
cßaß ru</w>
nojo ch</w>
T u</w>
ji ʼ</w>
tiʼ j
religi ón</w>
ma jun</w>
sol da
yi chʼik</w>
x qui
a cuer
A L
m esa</w>
hacer lo</w>
di ciendo</w>
je le</w>
T e
presi ón</w>
su b
p ä</w>
llama do</w>
EST ROS</w>
C r
wi lik</w>
vu el
yuʼun ik</w>
hab la</w>
or o</w>
sab ía</w>
va mos</w>
r le</w>
we ch</w>
x tu
tran s
q as</w>
de jar</w>
P RE
O V
G én</w>
win ak</w>
confi anza</w>
ri b</w>
prue bas</w>
es as</w>
M e</w>
comple to</w>
yuʼun e</w>
1 5
tsʼi ba
san gre</w>
h u</w>
líi ʼ
fici os</w>
ME JO
es fuer
x ni
oʼo la
ba qui</w>
pa sa
tú un
ke ch</w>
x chʼa
mis ma</w>
U se</w>
a g
E va</w>
man da
for tale
da vía</w>
kí im
i o</w>
conse jo</w>
h al
re ino</w>
o x</w>
T ra
i a</w>
b tes
an i</w>
ali dades</w>
ú un
vi sión</w>
sto e</w>
e te</w>
chʼ ʌ
G u
x tz
kiʼi mak
histo ria</w>
j kʼel
de b
se an</w>
j tul</w>
lleg ó</w>
q ʼan
No é</w>
tzʼo k</w>
D O</w>
u túul</w>
Jéeoba oʼ</w>
ye wal</w>
jun aq</w>
pa ala
sa ʼal</w>
ar ro
Ec lesias
erman o
qʼu in</w>
T en
segu ro</w>
especi al</w>
escu ch
sta le
ju sto</w>
lta k</w>
m áan</w>
a z
An álisis</w>
m ba
gru po</w>
as un
de f
tiji c
i li
4 7</w>
Kʼ e
D A</w>
ser ía</w>
p ti
o í
cristi ano</w>
ch wäch</w>
principi os</w>
o toq</w>
ti fi
kʼu n</w>
cu e</w>
yáant koʼon</w>
be ytik</w>
ye j</w>
a pli
sti n
a yi
N ab
k raj</w>
t ä</w>
Eclesias tés</w>
v ar</w>
tz qi
sacri fi
pen ses</w>
2 ,
tiʼ chaq</w>
kʼi in</w>
G e
chaʼ len</w>
autori dad</w>
MEJO RES</w>
pregun ta</w>
re alidad</w>
cua dro</w>
es condi
propó sito</w>
o jos</w>
bo l</w>
a mente</w>
mo str
én do
gr o</w>
confi ar</w>
ch â
encontra do</w>
a ma</w>
b ri
MA ESTROS</w>
to res</w>
chixjun i
cla se</w>
kux ta
Baj cheʼ</w>
q aj</w>
vi sto</w>
en contr
vo z</w>
kʼa j
f on
X i</w>
tiʼj ju</w>
v ini
al guna</w>
xu bʼij</w>
eʼes ik</w>
in tik</w>
bo t</w>
ry ä</w>
cʼu x
hu mani
super inten
in as</w>
qi bʼ</w>
n ej
bʼa laj</w>
xb ânu</w>
me le</w>
ba r</w>
Co mo</w>
o sa</w>
Fili penses</w>
ja mal</w>
chi ʼi
n ú
co ch</w>
ab le</w>
qi kʼ</w>
la b</w>
xo l</w>
ʼ N</w>
so y</w>
l ó
aj el</w>
P O
Bus quemos</w>
ya kʼo
t ku
l oʼobeʼ</w>
Q A
to davía</w>
cu alidades</w>
ani c</w>
R ES
so r
Mes ías</w>
É x</w>
i g
yan tike</w>
t y</w>
ë t</w>
du da</w>
an as</w>
pʌ s
gen er
qachʼa lal</w>
pusi cʼal</w>
k úun
P ri
ma jlel</w>
hac emos</w>
fo lle
m la
expli ca</w>
taʼ maj</w>
la wil</w>
se gun
su t</w>
tar de</w>
no ʼ</w>
muj eres</w>
t bʼal</w>
la b
itz el</w>
cua tro</w>
pon er</w>
i ʼ</w>
quer emos</w>
i r
T es
s eʼ</w>
m áan
Pala bras</w>
in stru
sa be</w>
S er
w en
t é
ri bʼ</w>
w aj</w>
cʼʌj ñi
be j</w>
pro du
fuer te</w>
ci encia</w>
si ti
esta do</w>
en car
Jo su
mi go</w>
b es
le kil</w>
ti ca</w>
pe li
escondi das</w>
ma bʼil</w>
ta ja</w>
kʼu x</w>
con ta
a chi</w>
t bʼant</w>
ari se
li dades</w>
ab ʼan</w>
mill ones</w>
be yel</w>
versí culo</w>
re cha
fin al</w>
Lu ʼu
prof un
l ê</w>
C o</w>
j pa
to y</w>
ya b
tsi loʼob</w>
tsʼáa j</w>
kyo j</w>
U n</w>
ab ʼe
le van
Je ch</w>
di cho</w>
kʼi j</w>
R E</w>
x ku
di ente</w>
T O</w>
yaabi lt
ya an
xo k</w>
chʼu l</w>
tar se</w>
nor mas</w>
kaa jil</w>
ce le
Qui én</w>
kʼu l
maʼ yuk</w>
e e
ci os</w>
ji j</w>
ab an
LA S</w>
jun to</w>
f le
Ji ñi</w>
chʼi x
d ando</w>
kun ik</w>
yuʼa m</w>
ye e
pes ar</w>
le loʼ</w>
cre er
acuer do</w>
yʌl ʌ</w>
amista d</w>
u ts</w>
ju i
car ta</w>
a qʼu
t äj</w>
acti tud</w>
ñ a
tu ra
ch in
parti ci
ba el</w>
G UN
a ˈ</w>
ts kolta
San t</w>
El ías</w>
D A
un kil</w>
humani dad</w>
ca mos</w>
pi l</w>
mi e
jnop tik</w>
j ar
p ú
r an</w>
p os</w>
kʼin al</w>
yi k
lu gar
lo l</w>
i ba</w>
bee taʼa
wo ko
re cu
wa ʼ</w>
cu înk</w>
í so</w>
jóo ʼ
u ʼj</w>
u tsil</w>
ten ido</w>
xi chʼ</w>
tqan il</w>
E R</w>
bu tik</w>
verdad ero</w>
z aron</w>
manta tsʼ</w>
ja bil</w>
al can
na k
ca paci
tsik ba
s tas</w>
paci encia</w>
LA L</w>
na ßa
qu ías</w>
mi lal</w>
m em
qʼ a</w>
di ci
un gi
chʼ tik</w>
reg res
aten ción</w>
ü t</w>
agu an
ta qikʼ</w>
kʼo pe
ke ʼex</w>
er u
ku ʼun</w>
er se</w>
ten ga</w>
cir c
5 1</w>
di e
cel esti
j ini</w>
nue vas</w>
g eli
xbʼaan unkil</w>
o ch</w>
mi seri
si bʼalaj</w>
i loʼob</w>
f arise
di os</w>
neces ario</w>
pron to</w>
x bʼe
demos trar</w>
B Ʌ</w>
tiemp os</w>
sa ch</w>
c ßu
ja k</w>
ta da</w>
si ete</w>
ha cia</w>
cab ʌl</w>
w óol</w>
gu en</w>
man a</w>
mi sion
yam bʌ</w>
si mo</w>
I lawil</w>
ten cia</w>
Josu é</w>
kʼutun em</w>
4 9</w>
u bʼi
enfer me
yajtsʼak lo
xi ʼ</w>
o e</w>
s tra
ni ños</w>
l úu
ador ar
es co
ta maj</w>
joʼo p
x to
si ʼi
em br
Tes al
ama ya</w>
ʼe loʼ</w>
pas ó</w>
Ch an
S O
di era</w>
raz ones</w>
pa sar</w>
abʼ qʼi</w>
g en</w>
be ilta
ß ue
mie do</w>
folle to</w>
inter es
conclu sión</w>
ti lil</w>
p ée
mu u
chß ôl</w>
yaʼali keʼ</w>
ni kʼaj</w>
respon sabi
qʼa x</w>
miseri cor
tzun ju</w>
ma las</w>
importan tes</w>
f ra
sba lil</w>
l es
U na</w>
si endo</w>
mi o</w>
cʼaj ti
ma an</w>
Inter net</w>
en cu
os as</w>
cʼʌjñi bal</w>
y i</w>
s lo
kʼ i</w>
o y
enemi gos</w>
R O
z an</w>
T I</w>
xu bij</w>
con su
a x
nu p
yo tik</w>
si m
li loʼ</w>
qʼi n</w>
li le</w>
a das</w>
ʼ je</w>
van geli
be el</w>
Y U
contr o
u tzi
5 2</w>
je chuk</w>
e k
na l</w>
cʼ ʌch</w>
S U
xuʼu lul</w>
ca p</w>
u m
en fren
di j
kʼan jel</w>
pre ci
oport unidad</w>
cie los</w>
chʼo chʼ</w>
nue va</w>
in kil</w>
hab len</w>
oxi bʼ</w>
gobier no</w>
qi l
M un
Q ʼI
tuʼn tzun</w>
chu k
taa ta
Ch eʼ</w>
k oʼobeʼ</w>
xuʼu l
va do</w>
o c
máa koʼoboʼ</w>
f a
dis curso</w>
tz ß
b ˈ</w>
ar ía</w>
l t</w>
mi embr
d aba</w>
or ía</w>
c ˈ</w>
ec e</w>
si a</w>
yora il</w>
qʼa ma</w>
ol vi
ʼ eʼ</w>
kon tra
C on</w>
Tu ʼn
vol ver</w>
salu d</w>
va lil</w>
sna ʼ</w>
ser án</w>
ko tik</w>
mu estra</w>
hab la
b é</w>
ʼO B</w>
kʼiin eʼ</w>
chi que</w>
sti r</w>
profec ías</w>
o so
sue lo</w>
re cono
des cen
ten i
o v
cari ño</w>
se xu
quer i
di r</w>
asamble a</w>
anci ano</w>
Ti quʼn</w>
mo n</w>
I sa</w>
D ES
tar á</w>
f av
x la</w>
an e</w>
bʼa bʼil</w>
K ri
a le</w>
je b</w>
ten go</w>
des a
much a</w>
kʼ üt</w>
i ru
ta lel</w>
R ut</w>
wa ˈ</w>
sucur sal</w>
apren demos</w>
q ßue
isra e
po lí
kʼ ex
ʼu t</w>
tzʼ ët</w>
e chʼ</w>
baʼa xeʼ</w>
wa ʼa
6 0</w>
mun dial</w>
C ON
sa ma
on a</w>
qui xta
Co lo
Fi refox</w>
qa s
ʼe bʼ</w>
gu sta
x il</w>
consi der
qʼ e
d é
hu bi
proble ma</w>
Ya an</w>
rela ción</w>
ej as</w>
ï y</w>
K a
en tre
K ʼo
con vi
Baʼa leʼ</w>
t qˈ
skʼop lale</w>
mis mos</w>
kʼa m</w>
P i
si gue</w>
f ía</w>
celesti al</w>
Aj vali
ï t</w>
er po</w>
R e</w>
te mas</w>
j i</w>
ver emos</w>
tsʼíi b
JE H
yóo loʼob</w>
kʼaʼay taj</w>
in c</w>
s chʼuun
ja tumel</w>
recibi r</w>
ve lación</w>
Cu erpo</w>
win ek</w>
ero so</w>
jun am</w>
aj vali
cu u
so ci
Apo c</w>
bu l</w>
toʼo neʼ</w>
fav or</w>
ʼ tik</w>
mar avi
e du
demos tra
di cen</w>
co stu
el lo</w>
ba tik</w>
CH I
u e</w>
inf lu
ti kin
W a</w>
K I
q kʼuʼj</w>
so bre
baʼ yel</w>
te y</w>
dej ó</w>
bon dad</w>
si ente</w>
chi b</w>
chal be</w>
bo tik</w>
di os
ch que</w>
aʼ ye
au to
man tener</w>
A J</w>
congrega ciones</w>
c ß</w>
tso ba
Pregun ta</w>
te chel</w>
s ʌ
yaabi laj</w>
at án</w>
resu r
es toy</w>
er to</w>
P r</w>
N I
te ʼex</w>
ma la</w>
ki ltik</w>
bʼa al</w>
sir vi
mu cʼʌch</w>
Je r</w>
un e</w>
kya qil
Ro ma</w>
necesi tamos</w>
kʼel el</w>
Sa m</w>
B ʼ</w>
res i
es el</w>
j naʼ
7 0</w>
si s
t ʼu
ti koʼob</w>
for me</w>
le ʼex</w>
est é</w>
tzʼa q
pro gra
pa p
no ko
kʼa yewal</w>
ca usa</w>
ara ón</w>
jaʼ o</w>
cabe za</w>
wi ˈ</w>
M P
wo li</w>
dar le</w>
ér ci
len gu
le tiʼobeʼ</w>
gu ía</w>
A le
5 3</w>
cumpli r</w>
pée k
cir cui
G U
tz yet</w>
S in</w>
J I
u ter
tuʼn j</w>
ch íi
obede cer</w>
he bre
pú bli
yajtsʼaklo m
oʼola leʼ</w>
avi e</w>
tu kʼ</w>
a un</w>
lec c</w>
Di ab
Cu án
re cuadro</w>
j kuxleja
lo qʼo
re ac
ka ˈ</w>
w bʼal</w>
ma lo</w>
puk siʼi
tsa l</w>
Nue va</w>
ʼ ʌ
á culo</w>
agra deci
L OS</w>
prácti ca</w>
k as</w>
di endo</w>
acti vi
conti nu
ku bʼan</w>
experi encia</w>
be jla
escu ela</w>
ti s
no vi
des cu
di entes</w>
co sa</w>
cha ab
kaw bʼil</w>
D E
respe to</w>
la je
win q</w>
gr os</w>
dese a</w>
kʼan je
A ban
a par
ru b</w>
ch are</w>
sacerdo tes</w>
ro pa</w>
d ónde</w>
ta ban</w>
. .</w>
. ..</w>
idio ma</w>
gi r</w>
ku tan</w>
ri qˈui</w>
d í</w>
kʼáa t
mon os</w>
kʼa kʼal</w>
N O
an je
s jun
lugar es</w>
Aban an</w>
5 4</w>
que dar
o bras</w>
d é</w>
ab el</w>
Nue vo</w>
De uter
B u
pro mesa</w>
pa sele</w>
Deuter ono
x ja
l f
K E</w>
glo ria</w>
qui era</w>
lu z</w>
di stin
p â
ar emos</w>
Deuterono mio</w>
le kuk</w>
Es cu
li letik</w>
bíbli cas</w>
an u</w>
ja do</w>
chixjuni leb</w>
btas el</w>
ca sti
resur rección</w>
tz u
q tzun</w>
sacerdo te</w>
ok s
LI L</w>
stan te</w>
fal ta</w>
x ra
li v
k pajal</w>
a ku
x ko
wa y</w>
chu kaˈ</w>
ch oʼ</w>
JEH OV
jchan tik</w>
ten qʼa</w>
po li
bi s
esta ble
empe zó</w>
estu vo</w>
a vu
MÁ S</w>
Kʼ O
terri torio</w>
balu mile</w>
al o
po j</w>
do lor</w>
2 8
yu tsil</w>
ejemp los</w>
x o</w>
aa tin</w>
JEHOV Á</w>
en ci
cion al</w>
aß in</w>
do min
mo ʼ</w>
B E
yaʼa leʼ</w>
na jin</w>
cur sos</w>
da mente</w>
qa chʼool</w>
ta m
ch qa
ca s
ʼi ch</w>
mo rir</w>
eter na</w>
qu ˈn</w>
y î
verda der
rela to</w>
R a
úu ch</w>
al kye</w>
man ik</w>
m era</w>
ni ño</w>
ó li
o job</w>
h as</w>
xchʼu nel</w>
kʼaa baʼ</w>
ˈ x</w>
ju z
cin co</w>
nej el</w>
m bʼe
kaa jal</w>
xu ku
ya ʼal</w>
oks lal</w>
a va
á a</w>
y ec
pu estos</w>
pe cados</w>
BA ʼA
yi chʼoj</w>
teri or</w>
sacrifi cio</w>
o t</w>
H ch</w>
cuan to</w>
ari ˈ</w>
naßa jej</w>
ar es</w>
ki b</w>
K Y
wa jun</w>
tari o</w>
2 9
oca sión</w>
Y a</w>
uni ver
on al</w>
la a
gober na
chʼu ut</w>
a ʼi
ö x</w>
M U
skʼo pon
P er
qʼu ele</w>
s ée
kal tik</w>
efec to</w>
me le
g ó</w>
Re velación</w>
dem oni
ca b</w>
T oj</w>
tz ʼel</w>
ex tra
con ciencia</w>
bʼ i</w>
kʼiin il</w>
bi le</w>
chu qʼabʼ</w>
cuan quil</w>
a teʼ</w>
BI L
últi mos</w>
ma s
bin oʼob</w>
pue do</w>
i ky
sen ses</w>
j an
t wu
d or
v es</w>
sier vo</w>
precurso r</w>
ci da</w>
ya ʼi</w>
k áaj
ʼa an</w>
pʌ s</w>
Cre ador</w>
j kʼan</w>
Ts ʼo
sigui entes</w>
lla ma</w>
yo j</w>
tbʼ i</w>
páaj talil</w>
tu ku
on e</w>
mu kʼ
baʼa xten</w>
p eʼ</w>
yúu chul</w>
tz il</w>
yal bey</w>
kan ik</w>
cambi o</w>
e ke</w>
o sil</w>
l bʼal</w>
respon dió</w>
tr a</w>
alegr ía</w>
to t</w>
ora sion</w>
may oría</w>
xu bʼan</w>
L â
escla vo</w>
v emos</w>
tra du
P en
bendi ción</w>
i w</w>
xi j
ti ˈj</w>
a sig
much ʼ
nú mero</w>
erman oetik</w>
u in</w>
a ún</w>
estr an</w>
b ânu</w>
a prove
kaʼa j</w>
jon tir</w>
Go bernante</w>
s kʼu
P ue
segur os</w>
rela cion
na tura
j mo
T x
P or
dese o</w>
chi chʼochʼ</w>
be yik</w>
l â</w>
estr os</w>
us an</w>
much í
5 6</w>
an unci
chʼa ʼaj
j chʼu
ho m</w>
circui to</w>
be ñob</w>
aj bʼen</w>
ra y
wu ʼu
1 3
propi a</w>
muer tos</w>
res ca
posi ción</w>
ab ʼal</w>
TE S</w>
jaa ji
kʼope tik</w>
kʼa tzin</w>
Es ter</w>
en ter
jun juntl</w>
a de
yaʼa laj
a wi
nekeʼ x
cʌntes ʌntel</w>
Cu ál</w>
ha b</w>
G ala
lle va</w>
O ʼ</w>
bus car</w>
ar ón</w>
do c
israeli ta
ar le</w>
nar aj</w>
kʼo p
de as</w>
j pas</w>
mar zo</w>
man eras</w>
S E</w>
k ßa
c ár
a tz</w>
B er
es i</w>
tso ble
gran des</w>
escu char</w>
arre pen
Abra ha
G ál</w>
táan il</w>
come r</w>
bʼ en
ani a</w>
Diab lo</w>
def en
Ju das</w>
t nejel</w>
per sa</w>
ma tan
A unque</w>
rega lo</w>
k ar
jun tos</w>
G é</w>
o il</w>
ej érci
te j
o lo
tsʼoʼo k
19 9
t koʼob</w>
cui dado</w>
ʼo x</w>
xo do</w>
sub tʼan</w>
oʼ kx</w>
Ch éen</w>
Bʼ AN
t wi
si dad</w>
ru qʼij</w>
aʼa laʼa
Tx ʼotxʼ</w>
la m</w>
chu wach</w>
bʼ el</w>
ar les</w>
re fle
ky qʼoʼn</w>
aj valil</w>
ʼan el</w>
ñ as</w>
en to</w>
s jo
z os</w>
yajtsʼaklom tak</w>
xi mbʼe
ti ki
r öj</w>
oʼo biʼ</w>
hab ʼ</w>
cu lta
mâ c</w>
lâ ex</w>
j en
fi er
tu vieron</w>
ʼan oʼob</w>
cambi ar</w>
lu stra
dij eron</w>
an gu
xcßa jol</w>
q eʼ</w>
m ʌ
pa m</w>
nu ʼij</w>
a d</w>
H A
BʼI L</w>
difi culta
em e</w>
EST RI
q nikʼ</w>
gra do</w>
chuk me</w>
Ajvali lal</w>
g e
mes es</w>
ky kyaqil</w>
ch tun</w>
tz ala
S a</w>
V er
bu r
ʼ la
j in
u ʼu
t ja
yo jel</w>
li k
M O</w>
KU X
yʌ qʼue
de a</w>
tsʼa ka
cu u</w>
cho maj</w>
ov ejas</w>
ayudar nos</w>
us ta</w>
o yuk</w>
siti o</w>
la ˈ</w>
5 7</w>
s inti
n in</w>
Ta mbién</w>
zar se</w>
u j</w>
luʼu mil</w>
jta tik</w>
g ía</w>
re in
d entro</w>
ju jun
yáan taj</w>
x cha</w>
tzi ˈn</w>
s bi</w>
car ne</w>
yi x</w>
pró xi
o bli
ma si
B ʼA
TA S</w>
j ko
si ca</w>
PRE GUN
pej can</w>
ni ma
cho ʼq</w>
an il</w>
Tesal oni
G ali
yan oʼob</w>
Isa ac</w>
l las</w>
kʼa ʼan
t qʼama</w>
ka t
Pri mera</w>
1 19</w>
qʼa ʼ</w>
M ar</w>
tek lu
d encia</w>
tzi jol</w>
maʼalo b
wo kol</w>
cha m</w>
kyi m</w>
an tik</w>
í a
É xodo</w>
j y</w>
cho kß</w>
baʼa l
añ a
á la
s testigo
re tal</w>
e pal</w>
muyu baj</w>
ka wil</w>
ra j
ki li
esper a</w>
yo o
ten qʼan
pa til</w>
7 2</w>
cʼux bi
ya le</w>
puer ta</w>
bʼan o</w>
vol vi
Le tiʼeʼ</w>
te le</w>
bu k</w>
verdad era</w>
con duc
ti po</w>
pue des</w>
demostr ó</w>
cu tan</w>
nu m
encontra r</w>
v oʼo
misericor dia</w>
hi ja</w>
bene fici
ʼ ji
í n
s cho
nin guna</w>
C r</w>
ʼ ʌch</w>
ê re</w>
pon e</w>
pa sa</w>
kʼ wa
tes an</w>
ta man</w>
bendi ciones</w>
T S
n w
ála tas</w>
yi lel</w>
difí ci
én es</w>
ju l</w>
fuer za</w>
Chu coch</w>
j tel</w>
gi ó</w>
pres ente</w>
an zas</w>
situ aciones</w>
senti mientos</w>
r á
aban don
TI KE</w>
P U
ß can</w>
de masi
j tojo
in g
fu ego</w>
bi lidad</w>
5 8</w>
i y</w>
c entr
ble mente</w>
ab ril</w>
T ze
ci dos</w>
aqu ellos</w>
ta m</w>
E ʼ</w>
Colo senses</w>
hab rá</w>
est re
En tonces</w>
vi ene</w>
fi li
cono cimiento</w>
ku baʼob</w>
wa q</w>
co mien
b un
ye ʼ
ti dad</w>
o o
u silal</w>
ta jol</w>
oca siones</w>
ungi dos</w>
jon em</w>
po ca</w>
ta les</w>
hac ía</w>
per man
lesi a</w>
feli cidad</w>
de tal
G álatas</w>
yi l
ta bern
sbi e</w>
ja ʼan</w>
e c</w>
cˈ ut</w>
cre ación</w>
erman o</w>
anti gu
pi dió</w>
kʼa sa
kʼ ïy</w>
propi o</w>
en ga
s nop
reli ji
di si
P u
to b</w>
p áa
lar es</w>
ari ik</w>
a tra
nw ts
nwts ty</w>
xuku jeˈ</w>
e ʼtel</w>
aqu ella</w>
puk tes
pro mes
la lik</w>
ʼo j
kʼo pe</w>
L EL</w>
z amos</w>
pti embre</w>
gran de</w>
ar ca</w>
ky xol</w>
sen tía</w>
chi habʼ</w>
ado rar</w>
tsʼ áa</w>
senti r</w>
l ʌ
ju tuk</w>
cha ʼa
an u
vi l</w>
suj m</w>
envi ó</w>
yaʼi y</w>
vu l</w>
ta ak</w>
muer to</w>
I deas</w>
BA L</w>
kí in
cen ses</w>
aʼ te
aqʼu n
kʼu riʼ</w>
en t
demu estra</w>
chʼ o</w>
j ch</w>
an jel</w>
x ke
uu q</w>
tra baj
S B
Ef es</w>
testi monio</w>
múuchʼu liloʼ</w>
ky witz</w>
im perfec
m ben</w>
E x</w>
ñi mil</w>
pa ñimil</w>
xa ʼox</w>
an qʼin</w>
kʼa as</w>
sis tema</w>
o jel</w>
aj wa
K u
ta ke</w>
maravi llo
jaʼ bil</w>
ú n
kʼaʼabée t
ku bʼ
j es</w>
un tes
pien sa</w>
káa j</w>
A ju</w>
kan abʼ</w>
jui cio</w>
8 3</w>
tr ás</w>
ch qe</w>
van ej</w>
b âl</w>
ce p
baʼa te
se ptiembre</w>
San to</w>
á is</w>
imi tar</w>
ex pres
I N</w>
sa ʼebʼ</w>
na ʼn</w>
chiru heb</w>
tabern áculo</w>
kʼe ban
ja lan</w>
cár c
ca ba</w>
ándo se</w>
x ya
bʼi n</w>
sta kʼ</w>
je la
j sa
chaab ʼil</w>
C E</w>
x qa
ti va</w>
ku kʼ</w>
d ero</w>
t ʼan
in ki
cristi ana</w>
bʼi ʼn</w>
bu elta</w>
le al</w>
traba jar</w>
pu estas</w>
e lik</w>
mos trar</w>
famili ares</w>
bauti smo</w>
ne b</w>
jkʼel tik</w>
A L</w>
w ʌ
debi do</w>
car on</w>
ni malaj</w>
e difi
T aa
N M</w>
L U
n ik</w>
mo l
kʼa ʼut</w>
aj oʼob</w>
Tuʼn tzunju</w>
xu ʼän</w>
ru k</w>
lo kʼ</w>
i kil</w>
bʼ äl</w>
C H</w>
tan tes</w>
sen ci
cʌ n</w>
ma ñ
c é</w>
R o</w>
segu ridad</w>
ho ras</w>
Tra ducción</w>
T eʼ</w>
ye ʼtel</w>
di re
Re paso</w>
Le an</w>
importan cia</w>
ide a</w>
lo ʼi
Sa u
stestigo tak</w>
tspa sik</w>
prim eros</w>
mu rió</w>
ca si</w>
Pablo e</w>
xkʼa bʼaʼ</w>
pa sto
o h</w>
n kʼatzin</w>
kaʼan sik</w>
ʼo n</w>
Y o
tek sto
pi x
evi tar</w>
circ un
apo yo</w>
di v
liber tad</w>
difíci les</w>
comi da</w>
ak táan
necesi dades</w>
chaʼ i</w>
ca mente</w>
jaʼ lo</w>
a h
angu sti
pod eroso</w>
un a
túu x
su r
qas tzij</w>
gi o</w>
b or
t äq</w>
ku tike</w>
xu ʼij</w>
tz ul</w>
qu ese</w>
h á
circun stan
eli min
K i
ri ij</w>
kʼu tbʼal</w>
bi lal</w>
Tesaloni censes</w>
wan q</w>
llama da</w>
la q</w>
cha va
á al
fr ente</w>
al ma</w>
o ʼtan
cam po</w>
K a</w>
H a
a kʼo
N ú
tsʼaka le</w>
J W</w>
preocu pa
cambi os</w>
ESTRI BIL
ESTRIBIL LO</w>
g oʼob</w>
úu ch
ta le</w>
cul pa</w>
sukuʼun oʼoboʼ</w>
kʼaj kʼal</w>
i kʼ</w>
y en</w>
nu ʼän</w>
dificulta des</w>
é xi
achi ˈ
sjun ul</w>
lo jon</w>
va ción</w>
lf f</w>
kʼa s
bʼ tes
q qʼoʼn</w>
kqab ʼan</w>
ti ʼoʼ</w>
xbê neb</w>
ma yo</w>
ama r</w>
Ja ch</w>
yuʼu bi
per se
habl ó</w>
colta ñonla</w>
enseñ ar</w>
anci an
oj tzqi
mu lti
le j</w>
cárc el</w>
Tze ʼn</w>
ñ on</w>
cu ar
M AN
sti tu
pʼ ʌ
ee talil</w>
anima les</w>
P ON
C ol</w>
kʼa aba
S ara</w>
lo ʼil</w>
difer entes</w>
ya al</w>
ru xaq</w>
kʼ wal</w>
ali mento</w>
S ab
LE JA
s kʼe
i da</w>
e di
6 1</w>
k i</w>
e ta</w>
Abraha m</w>
instru cciones</w>
ej a</w>
ja más</w>
M O
des ta
chi we</w>
x jel</w>
en ero</w>
Jon atán</w>
sufri miento</w>
b un</w>
x koʼo
lar go</w>
Yu um
wan kebʼ</w>
tskolta utik</w>
superinten dente</w>
máa keʼ</w>
x on
li ke
herman as</w>
achi ʼel</w>
Pablo eʼ</w>
activi dades</w>
Es t
w er
hubi era</w>
queß x
cum p
a pa
fr on
bí in</w>
re gu
mé di
óo la
wi ibʼ</w>
kˈ a</w>
A arón</w>
promes as</w>
3 ,
no po
tu vi
re e
re fer
conduc ta</w>
C ʼa
pregun tó</w>
r ó</w>
j bʼaʼ</w>
di go</w>
c tos</w>
A hora</w>
pa cto</w>
in mora
kʼiin oʼob</w>
g ro
f araón</w>
a fec
si ʼ</w>
s ni
úni co</w>
pi e</w>
óni cas</w>
ch as</w>
ar eʼ</w>
tsʼáa ik
s áa
mañ ana</w>
6 2</w>
ue go</w>
Es píritu</w>
qʼu en</w>
na abʼal</w>
d entes</w>
miembr os</w>
judí o</w>
da ño</w>
r nos</w>
ju lio</w>
ʼo n
Í A</w>
tuk li
man chukme</w>
gra fía</w>
t yo
a kʼa
o q</w>
ma teri
ji bal</w>
de cla
vi aj
pʼ ek
S I</w>
ki ko
ja cʼ
ma m
con tribu
so li
och ß</w>
a go
solda dos</w>
skʼopon el</w>
k oʼonton</w>
circunstan cias</w>
chß ochß</w>
E vangeli
z e</w>
inter és</w>
ño p
ta jik</w>
bee toʼob</w>
gi do</w>
ñ ʌ</w>
yi laj</w>
xt qa
tz joj</w>
lúu bul</w>
Al kye</w>
yi p</w>
te ya</w>
kʼu yelan</w>
awo ʼtan</w>
re almente</w>
L uego</w>
x ch</w>
jnaʼ tik</w>
ximbʼe tz</w>
ko win</w>
a yik</w>
S u</w>
pág inas</w>
famili as</w>
enseñ anzas</w>
jaaji leʼ</w>
Y E
cu ânk</w>
aguan tar</w>
a qa
sle kil</w>
tam poco</w>
progra ma</w>
ca l</w>
quier en</w>
qʼo r</w>
po s
f ac
pʼáa tal</w>
sa tis
q an</w>
presi on
ja k
gusta ría</w>
sin kil</w>
g er</w>
e ʼ
ta re
gri ego</w>
ari os</w>
x jun
kiʼimak tal</w>
ka ʼ</w>
co l
te m</w>
per aj</w>
ker em</w>
com uni
GU I
2 7
com ún</w>
bʼe j</w>
Vi deo</w>
tendr á</w>
a fir
person alidad</w>
para íso</w>
mo d</w>
wu ʼne</w>
vin a
tsobobba il</w>
mo co</w>
publica dores</w>
Escu ela</w>
ye b</w>
to o
sme le
jpas tike</w>
co lo
mu kʼul</w>
bˈ aj</w>
z il
tari os</w>
x cho
paí ses</w>
H ay</w>
B el
re yes</w>
ar é</w>
Re yes</w>
senti mos</w>
kili ʼich</w>
lâ at</w>
in al</w>
MA L</w>
lec ciones</w>
gu er
en tu
a xix</w>
re gi
p waq</w>
joʼop ʼ</w>
un as</w>
co m</w>
8 0</w>
Pe dro
vin ik</w>
vari as</w>
Ma la
pe ti
err ores</w>
I lustra
yaj tun
or gu
enseñ ó</w>
ad ver
j kʼu
re des</w>
ab ri
y endo</w>
t ʌl</w>
cam pa
dr as</w>
ʼi ik</w>
qʼ ej</w>
de cía</w>
spa so
mag e
u x
ex pul
balu mil</w>
du l
kri sti
tar lo</w>
m ä</w>
a segur
RES PON
ya lik</w>
t ʼ</w>
necesi tan</w>
b oʼ</w>
reac cion
c ó
Gali lea</w>
ta lec
j p
e la
dere cho</w>
ya kʼik</w>
PA RA</w>
é ramos</w>
â tin</w>
recuer da</w>
fon o</w>
fi refox</w>
pres enta
pon i
mu lil</w>
ejérci to</w>
le yes</w>
pen diente</w>
c ían</w>
J as
na ve
ka kʼtik</w>
e je
qʼa xal</w>
g enes</w>
chʼu l
vo lu
prome te</w>
fru to</w>
sacri ficios</w>
m bra
ko k</w>
e ch
tu bre</w>
ti j
s ón</w>
cʼu l</w>
estudi ante</w>
co pi
K ʼ</w>
mi r</w>
cu esti
c li
ten gamos</w>
X u
may ores</w>
Ar mage
ñu job</w>
ma ˈn</w>
des i
H ero
áni mo</w>
R U
M an</w>
ʼu s</w>
ti aʼal</w>
no qtzun</w>
pi es</w>
T es</w>
k ja
for talec
yo ok</w>
te kʼuriʼ</w>
me lob</w>
e ch</w>
pa ch
ji c</w>
a kʼa</w>
vin aj</w>
taa sik</w>
conse cu
xbê n</w>
lan to</w>
vi aje</w>
estudi antes</w>
em an
L u</w>
Kʼa ay</w>
cre ó</w>
cre encias</w>
compañ eros</w>
te ˈ</w>
j pu
bar co</w>
añ ob</w>
ayu dan</w>
ho spi
x wan
fri ca</w>
B en
x baj
encu entr
cu ál</w>
U lew</w>
versí culos</w>
ven ta
person al</w>
mi les</w>
asun tos</w>
a delante</w>
tar nos</w>
on g</w>
d era</w>
yo jil</w>
cre en</w>
3 0
mla y</w>
pu do</w>
idio mas</w>
ʼ o</w>
C ar
re de
me tik</w>
en can
ʼi x</w>
kaʼan oʼ</w>
JI Ñ
6 6</w>
Q ʼ
dr á</w>
ya a
u l
j ni
su kuʼun</w>
o oʼ</w>
cu ción</w>
y ô</w>
aj cui</w>
qʼo j</w>
í im
car se</w>
ve a</w>
demasi ado</w>
t yekʼin</w>
sa mente</w>
imag en</w>
c ta</w>
5 9</w>
vol ver
muchí simo</w>
kʼa b</w>
A re</w>
xkoʼo laj</w>
ne que</w>
le ales</w>
jta k
mon ta
ky qʼamaʼn</w>
1 Co</w>
xon em</w>
je letik</w>
kan et</w>
us ando</w>
que da</w>
tar án</w>
pa l
nor te</w>
P as
Kʼa ru</w>
JIÑ I</w>
xu ya</w>
verdader os</w>
re be
al rede
pa tan
jun abʼ</w>
vo y</w>
oʼon eʼ</w>
kʼiin oʼobaʼ</w>
ko ʼtan</w>
jmo j</w>
hu mano</w>
Cr ónicas</w>
tiʼ ja</w>
B ar
To dos</w>
suj m
que dó</w>
N u
da tos</w>
stu k</w>
paab ʼanel</w>
matan al</w>
a cab
Q ʼA
vari os</w>
tra ta</w>
kʼu q
con suelo</w>
paj ina</w>
si as
at äj</w>
apo ya
ra mente</w>
próxi ma</w>
tsʼáa i
oc tubre</w>
comen zó</w>
re vi
tza qʼ
a tzun</w>
P I
ya lo
kanáan tik</w>
her maan</w>
si ke</w>
mem oración</w>
i den
entu sias
M u</w>
car a</w>
yeʼ esi
por no
tien es</w>
i lo
vide os</w>
oj ée
ʼan o</w>
r ío</w>
aqʼun tl</w>
t kʼuʼj</w>
no j</w>
koʼonton tike</w>
d on</w>
chʼi n</w>
taʼa b</w>
ch on
Tsʼo ʼo
es ik</w>
sigui ó</w>
Q ʼon
me tros</w>
ch bat</w>
necesi ta</w>
ab les</w>
ta kʼin</w>
nqa ʼän</w>
colta n</w>
t kyaqil
ju ʼun</w>
as pe
Con memoración</w>
x cuanquil</w>
cier ta</w>
W at
8 6</w>
or den
ob ser
té en
kʼujla bʼil</w>
tʌ lel</w>
tem ente</w>
qa kʼuʼx</w>
na ka
al bil</w>
im pul
d á
cu lti
Kʼe joj</w>
ten gan</w>
s jol</w>
kan aj</w>
cha le</w>
w er</w>
Í AS</w>
t jaw</w>
ky kʼuʼj</w>
demoni os</w>
xnaqʼtz an</w>
A J
pod ían</w>
paab ʼal</w>
Tsʼoʼo leʼ</w>
xi tl</w>
precurso res</w>
6 8</w>
x íim
resulta do</w>
jon ik</w>
ha ʼ</w>
er nos</w>
le lob</w>
a mbi
Mun do</w>
le vi
Jo se
q u</w>
P on
skolta yotik</w>
rá pi
humil dad</w>
raz on
ti cos</w>
teß x
béey tal</w>
un d
óo tsi
xoo kil</w>
si guen</w>
sali r</w>
j mu
cʼu si</w>
av oʼonton</w>
u sa
ma los</w>
wer sa</w>
Ne h
Kʼa yojil</w>
Can a
tzi jonem</w>
proba ble</w>
ch tal</w>
je je
j ba</w>
so lu
ca ß
Cʼa y</w>
se is</w>
ac ˈ
y u</w>
la bo
con tes
xi ʼi
NU EST
m oʼob</w>
deber ía</w>
ci r</w>
an te
Sal ón</w>
xbʼe en</w>
kristi ʼaan</w>
Jas che</w>
A b
pi ʼʌ
ili yi</w>
cen tra
ra ho
je e
chi ri
mo dos</w>
Bʼi tz</w>
j cha
des cri
R U</w>
yo to
s nop</w>
su be
qʼa x
sufri r</w>
ki x</w>
N os</w>
agra de
t ni
ko n</w>
Yu ʼun</w>
ʼA N</w>
x yee
men ti
Di s
4 ,
tun es</w>
muu kʼ</w>
cˈ a
E X</w>
tzaqʼ we
Por que</w>
Le ví
yakʼo j</w>
xu k</w>
x sa
jo s
Y or
u k
aʼa lik</w>
pensa mientos</w>
op ini
xa m</w>
p in</w>
actu ar</w>
ï x</w>
é poca</w>
pa yal
ni qui
her mo
a eʼ</w>
K u</w>
Cor in
ʼu c</w>
tzʼo nin</w>
est én</w>
a wu
tsʼíi bo
me tas</w>
akʼ bat</w>
ï n</w>
muyu ba
disfru tar</w>
aa ti
muchʼ táa
chki wäch</w>
F I
su k</w>
ra da</w>
novi embre</w>
in eb</w>
chaj p</w>
L a
yáan tik</w>
x ʼi
g res
su c
m or
contr ario</w>
San són</w>
an quese</w>
K U</w>
bʼan atäj</w>
wu lak</w>
u ʼji
sba tel</w>
mo ti
Leví tico</w>
uʼji t</w>
tzʼo m</w>
s úu
tz e</w>
of en
des car
piʼʌ lob</w>
m ʌntel</w>
7 3</w>
so c</w>
smele lil</w>
mas ke</w>
kʼanje lak</w>
Ti to</w>
k yaj
ayu de</w>
p un</w>
YO L</w>
6 3</w>
compa sión</w>
cha jij</w>
PREGUN TAS</w>
st se
je l
si quiera</w>
cˈ as
chki j</w>
P ar
n kʼaj</w>
la ʼan
ja aj
tzʼa qal</w>
tr on
ra l</w>
be ya</w>
ti les</w>
jo jkʼo
cla ses</w>
indi ca</w>
constru cción</w>
Bʼi xonem</w>
ray lal</w>
lo kʼel</w>
di ver
yô queb</w>
u tzil</w>
tzʼe taʼ</w>
su bi
p tes
ja ʼuk
hon or</w>
Co mi
xa kʼa
tz ol</w>
pix abʼ</w>
maa kʼaʼ</w>
le al
kuʼun tike</w>
cha we</w>
puksiʼi kʼal</w>
tu los</w>
emp le
Y o</w>
lo oʼ</w>
in te
yam bʌ
tzi joj</w>
be b</w>
re ve
v el
un quil</w>
g ü
x kaltik</w>
stale lal</w>
ri yin</w>
tsobobba ile</w>
pa alal</w>
leal tad</w>
y in
ja l
E ze</w>
ma do</w>
herman ojob</w>
Neh emías</w>
empe zar</w>
yu c</w>
kʼo xla</w>
emo cion
BI N</w>
Al gun
r os</w>
qʼ e</w>
pien se</w>
jun ak</w>
si kʼij</w>
i xo
de ja</w>
con migo</w>
Qu e
Pue de</w>
M áa
tze ˈn
Jon ás</w>
t t
su be</w>
kíi mil</w>
ki kʼë</w>
jun elik</w>
c â
Bʼi ch</w>
w aj
s mantal</w>
br ero</w>
Qu e</w>
M in
mo des
b tas</w>
xna ʼ
in spi
di g
av i</w>
P ro</w>
sna ʼoj</w>
tʼaan oʼob</w>
en tra
chʼa ʼik</w>
M I</w>
19 14</w>
y liʼ</w>
pas os</w>
an s
tbʼ äl</w>
expli có</w>
t ja</w>
segu ra</w>
on bʼil</w>
err or</w>
con den
20 22</w>
r é</w>
a wil</w>
acep tar</w>
B ro
tu kʼi
sée b</w>
xo k
ca dores</w>
bejla ʼeʼ</w>
Z ac
man dó</w>
á les</w>
meyaj oʼob</w>
ala k</w>
K ex</w>
v al</w>
tran qui
resca te</w>
os to</w>
nim la</w>
ni wan</w>
P ila
Gala ad</w>
xo kik</w>
u kʼu
pi de</w>
mo mentos</w>
chʌ n</w>
Je ʼex</w>
yambʌ lob</w>
r ían</w>
cho j
an ta
su fici
permi te</w>
alrede dor</w>
zil la</w>
hab ría</w>
sor pren
segun do</w>
s pas
láa kʼ
cho po
G O</w>
ö l</w>
t éen</w>
o di
a la</w>
J CH
9 7</w>
ti lel</w>
obe deci
esper ar</w>
dici embre</w>
de termin
ca sos</w>
asi stir</w>
C i
can a</w>
Es te</w>
segui da</w>
kki bʼan</w>
je a
traba ja
je ʼeloʼ</w>
enseñ ado</w>
KʼU SI</w>
ta e</w>
li loʼob</w>
imag in
cʼa baʼ</w>
ayu dado</w>
x cu
tʼa ñob</w>
sa aj
ru chi
P ara
8 9</w>
yab tel</w>
cí fi
Des pués</w>
gu sta</w>
ʼn ton</w>
pue da</w>
estr e</w>
T he</w>
ju k</w>
F eli
ben deci
C ʼ
w es
res puestas</w>
tex tos</w>
ni ke</w>
ar ías</w>
ad mi
m aron</w>
y on
yu tsʼ</w>
s é</w>
chaʼ le
T AN
ya me</w>
tsʼaʼa bal</w>
salv ar
mukʼ ta</w>
ya abʼa
s co
TA C</w>
x c</w>
A m
fí si
A bi
ñ et</w>
so la</w>
pi er
k q
u ts
lá as</w>
farise os</w>
ej er
Nab u
herman oetik</w>
chʼa wem</w>
Yor k</w>
qu el</w>
re com
l äj</w>
ʼ ye</w>
é monos</w>
sa dos</w>
smu kʼul</w>
o jer</w>
nup tan
nu k</w>
vi ve</w>
ex ten
ch mabʼil</w>
yaʼa l
man e</w>
kax tik</w>
d ora</w>
Ber na
yi j
jun antik</w>
ca us
qʼuq bʼil</w>
ku x</w>
disi pu
ta xak</w>
con f
ya kuk</w>
hebre o</w>
cele bra
du ra</w>
Qʼon ka</w>
F ran
párraf os</w>
kʼaʼa j
dios es</w>
bu kaʼaj</w>
bi al</w>
ar in</w>
9 0</w>
ñi x</w>
mu si
mila gro</w>
Ja jal</w>
tʼu j
tra i
TE N</w>
xchano bil</w>
t j</w>
princi pal</w>
ju stos</w>
ja y
ag osto</w>
po yan
o xal</w>
na ʼj</w>
î c</w>
kʼa ch
se o</w>
TI ʼ</w>
volvi ó</w>
ro ch
vin ajel</w>
sa j
an si
xwan kil</w>
s koʼob</w>
mej ores</w>
me to</w>
ka kʼ</w>
k xel</w>
poyan am</w>
1 00</w>
win ik</w>
to mó</w>
ta ma
recu per
n as</w>
kʼa mik</w>
soci ales</w>
lab or</w>
chʼix me</w>
Armage dón</w>
P RO
Jo ßcan</w>
kʼu chul</w>
M ás</w>
Ju dea</w>
tijo k</w>
cui ß
t bˈ
pedi r</w>
enga ñ
bʼe y</w>
detal les</w>
a q
ol bʼal</w>
ko mä</w>
d ra</w>
all á</w>
A p</w>
A cab</w>
re al</w>
noj ptes
ji lal</w>
cuiß chic</w>
TZ I
EN TES</w>
áan taj</w>
o ya</w>
d i</w>
Hero des</w>
xa kʼ</w>
schʼuun el</w>
jun aʼ</w>
ti ˈ
espa da</w>
nu pun
i la</w>
chq ë</w>
ß leb</w>
par ta
as eʼ</w>
Balu milal</w>
pʌs ʌ</w>
kaʼan saj</w>
jaʼa bil</w>
c tamente</w>
wo liʼ</w>
tsa tsal</w>
taʼ m</w>
chúu kaʼan</w>
qa kʼaslemal</w>
enferme dad</w>
SI GUI
mal dad</w>
ani ma</w>
a parec
Cri stoe</w>
o tik</w>
oʼtan il</w>
of reci
kʼakʼa le</w>
asun to</w>
Es tu
yoj ée
naʼa t</w>
m k</w>
k onojel</w>
actu alidad</w>
z ados</w>
ter ren
profe tas</w>
láa yliʼ</w>
estu vi
ta ciones</w>
sien ten</w>
ri yix</w>
lleg aron</w>
chqa wäch</w>
u tzij</w>
ja m
habl ando</w>
ño p</w>
predi cando</w>
te lé
tar je
ca sas</w>
bʼe t</w>
recibi ó</w>
qʼ in
cor ri
o ˈn</w>
wi ñi
im pli
chʼaʼaj kilal</w>
ˈ o</w>
sba ike</w>
don oso
J os</w>
x bat</w>
necesi dad</w>
in vesti
J ES
u j
te le
sal vación</w>
religi osos</w>
dis puesto</w>
ade lanto</w>
scho lel</w>
religi ones</w>
pa a
k saj</w>
an cia</w>
M A</w>
ya bʼil</w>
tal la</w>
quixta ñujob</w>
or din
le jos</w>
aʼye ju</w>
la ltik</w>
cuu lac</w>
ru m
perse cución</w>
túun eʼ</w>
tra tar</w>
b anic</w>
ad ores</w>
J or
va ya</w>
ti que</w>
jeje láas</w>
v ían</w>
tu r
tsʼa kal</w>
kʼin ebʼ</w>
j kolta
clu m</w>
Testi go</w>
z ando</w>
kʼu tbʼ
chk al
cab o</w>
a fron
yaʼa laʼal</w>
tso l
podr ían</w>
kʼ loj</w>
pla ta</w>
k si</w>
humil de</w>
ri kʼinebʼ</w>
kʼo pon
gobier nos</w>
de mi
cha lik</w>
ru cˈ</w>
per der</w>
taj bʼen</w>
ka t</w>
j chʼuun
cuán do</w>
c ón
Zac arías</w>
qʼi bʼil</w>
in k
TO J</w>
Jesú seʼ</w>
ˈ o
má xi
demostra mos</w>
wi li
lla mó</w>
der es</w>
qui si
be y
C la
yakʼ bey</w>
pʼ ée
maj x</w>
U cr
tzˈ i
qab ʼa
pres enta</w>
die z</w>
bʼan kil</w>
ya loj</w>
ve an</w>
r esta
lo kʼo
hi er
s ába
p ra
to bʼanik</w>
A s
s íi
per dón</w>
paala loʼob</w>
er te</w>
e z
Ilustra ción</w>
xi w</w>
tu beel</w>
muʼ yaj
lo kʼ
libr os</w>
goberna r</w>
eli c</w>
x tal</w>
segui dores</w>
chi qu</w>
D t</w>
fe brero</w>
ON ES</w>
x kuxleja
ti ni
pa tzʼom</w>
enseñ anza</w>
A us
6 9</w>
tej clum</w>
kʼu pil</w>
bi lob</w>
No em
ʼO N</w>
ân unquil</w>
mo l</w>
bʼi qʼ</w>
a man</w>
xe b</w>
qi ʼ</w>
du ro</w>
cre e</w>
hab lar
go zo</w>
escri to</w>
Q a</w>
A kʼo</w>
tan a</w>
jo jun</w>
lé ase</w>
arrepen ti
10 3</w>
xyee bʼal</w>
wi laʼ</w>
kaʼa pʼéel</w>
L á
pro gres
invi tación</w>
a dul
C AS</w>
yoʼonton e</w>
ku bˈ</w>
an g
Ru u
ñʌ chʼ
chi ʼus</w>
li mi
v un</w>
con so
b on</w>
men tal</w>
Fili p</w>
w0 6</w>
ten eʼ</w>
lo e</w>
bene fi
demu estran</w>
Yuum tsil</w>
TU ʼN</w>
tsoble j</w>
responsabi lidad</w>
to ʼik</w>
t ch
ani loʼob</w>
wan ej</w>
pre g
ju bʼiqʼ</w>
ch ï</w>
pu ra</w>
cre to</w>
apren dido</w>
V a
per ten
cho xa</w>
ä y</w>
q ʼil</w>
p ʼu
capaci dad</w>
pu mal</w>
p len
nax kʼe</w>
di mos</w>
x toq</w>
4 0
wiñi cob</w>
cha kʼ
bi kʼi
Eze quías</w>
ʼ J</w>
t bʼinchaʼn</w>
ʼo m</w>
respon de</w>
pon en</w>
es ca
an t
al to</w>
Nabu co
ar los</w>
puktes ink</w>
di bu
chˈ abel</w>
chaʼ a</w>
Ge de
6 0
tsʼ ʌ
r lo</w>
ha gan</w>
mejo rar</w>
cu en
ca u
Lá zar
k le
í do</w>
kʼasa ʼan</w>
cʼ ʌ</w>
E d
tx ʼotxʼ</w>
re presen
maj qui</w>
j to
W I
tsʼ e
llev ó</w>
i w
Jos ías</w>
Jesu soʼ</w>
y eru
ko joʼ</w>
go l
e y</w>
PO R</w>
E sto</w>
ó mi
K o
temp a</w>
per dido</w>
obje tivo</w>
cuán to</w>
a su
S im
7 1</w>
vi le
fun cion
cha ʼik</w>
chiru hebʼ</w>
D esper
we ñic</w>
lan ik</w>
kßa xal</w>
ku ch</w>
aw abʼe
twi tza</w>
Cana án</w>
v un
túun oʼ</w>
xni chʼna
par r</w>
ʼn ton
yajtun el
vi o
ti ʼn</w>
on el</w>
l l</w>
jchʼu n
es il</w>
des as
d remos</w>
con ten
ans yan</w>
líiʼ sik</w>
en a</w>
Nabuco donoso
va dos</w>
twu tz</w>
taʼa k</w>
pa se</w>
gener al</w>
Ec l</w>
prome tido</w>
o fren
n ra
tem or</w>
lí deres</w>
jo xik</w>
i ra</w>
bo ca</w>
sko to
de pen
x kuxlejal</w>
man do</w>
esta rá</w>
dese os</w>
d ra
wili h</w>
min tiʼ
ca ji</w>
responsabi lidades</w>
NUEST RA</w>
Desper tad</w>
â lal</w>
tu kˈa</w>
máa koʼ</w>
le k
xt ʌ
co labo
a ja
ʼe lil</w>
re fu
oʼo j</w>
m ba</w>
lle gado</w>
al el</w>
a trás</w>
pens emos</w>
ñ e
re ˈ</w>
ya migo
ti er
cu xtʌ
bʼi x</w>
ali men
a proba
x chßôl</w>
ta ñob</w>
mo loj</w>
jchi bal</w>
chʼ in
6 4</w>
u do</w>
l ó</w>
consecu encias</w>
na kaa
Ji ch</w>
ha mbre</w>
tijic ñʌ
bˈ e
X O
tz ßa
ki ló
ka ʼ
br ar
R eʼ</w>
kʼaʼay ta
jon ïk</w>
di eran</w>
conta cto</w>
teʼ x
ñaʼ tʌ
u so</w>
gra ve</w>
bʼi s</w>
a conse
7 9</w>
pri vile
ki xbʼaanu</w>
go bern
fortalec er</w>
M r</w>
wen eʼ</w>
pa li
be ʼ
ES I
xchan el</w>
taʼa loʼob</w>
r ït</w>
chi chʼik</w>
6 7</w>
3 9
di da</w>
recor dar</w>
j chol
deber íamos</w>
x áan
ubʼi xik</w>
pro vo
cʌ l</w>
cón yu
bauti zarse</w>
histo ri
con seguir</w>
tso b</w>
tijicñʌ yel</w>
li bre</w>
in medi
i te</w>
chka ʼi</w>
C O</w>
la jik</w>
enferme dades</w>
E u
s lu
BIBLI A
wes t</w>
vi r
s tsʼiba
queri ˈ</w>
entusias mo</w>
x ch
últi mo</w>
par á
o fici
ko wan</w>
don aciones</w>
a laj</w>
8 8</w>
se letik</w>
H E
M ari
Lâ in</w>
na bʼe</w>
manda to</w>
hu bo</w>
ha gamos</w>
Noem í</w>
se xo</w>
maj en</w>
est ás</w>
5 ,
yʌ cʼ</w>
ubʼi ʼ</w>
beet koʼ</w>
Berna bé</w>
sa t</w>
preg ún
taʼ ma
pʼej el</w>
der á</w>
SE Ñ
il koʼ</w>
desi erto</w>
VI V
Le a</w>
s pʼejel</w>
chi ke</w>
z ona</w>
ko m</w>
Davi de</w>
im presion
escu cha</w>
ree tal</w>
peque ño</w>
erman a</w>
ci eron</w>
sta ik</w>
jaʼa boʼob</w>
bˈ in</w>
ky nikʼ</w>
hi lal</w>
cre er</w>
chka kʼtik</w>
wo j
telé fono</w>
j nop</w>
cien tos</w>
b eʼ</w>
ʼ el
qu in</w>
e go
pág s</w>
Ma ʼa
que o</w>
ji lel</w>
a ver
7 6</w>
am or
D an</w>
in for
segun da</w>
ky an
are tak</w>
K an
x chaʼ
pʼi ju
ri q
ja b</w>
cui b</w>
chʼo l</w>
ban bil</w>
C he
w0 7</w>
k ani
fili ste
chka ʼi
ap ü</w>
LO ʼOB</w>
y eron</w>
sol dado</w>
pu diera</w>
ing l
esi ón</w>
cʼʌ n</w>
chi j</w>
bi lik</w>
resulta dos</w>
mu cha
ama mos</w>
U DI
Nabucodonoso r</w>
sufici ente</w>
ki chʼtik</w>
chi kʼ
xnaʼ lebʼ</w>
tz ʼ</w>
W A
Lázar o</w>
nave ga
ko ju
ji b</w>
er g
cß anje
Sau lo</w>
Balu mile</w>
dis puestos</w>
cono ce</w>
ciu dades</w>
tsi loʼ</w>
s na</w>
plan eta</w>
for mas</w>
exi ste</w>
x qʼuq
publi cación</w>
fun da
cristi an
w enta</w>
don os</w>
ʼ in
uu j</w>
su b</w>
n onin</w>
8 7</w>
oxi b</w>
obje tivos</w>
kˈ ala
dar les</w>
d aban</w>
xa va
la jil</w>
vina jele</w>
w oʼ</w>
o per
la like</w>
yi ch</w>
so k
sali ó</w>
Ruu chichʼochʼ</w>
LI A</w>
DA D</w>
7 8</w>
jun io</w>
j ma
ac ciones</w>
H ab
sujm lel</w>
ar me</w>
8 4</w>
ár bol</w>
T at</w>
L aʼ</w>
G ran</w>
impor tar</w>
achiˈ el</w>
w ik</w>
sinti ó</w>
Pila to</w>
A D
yaabilt maj</w>
máxi mo</w>
d ó
SIGUI ENTES</w>
K oʼox</w>
An ti
trans mi
super i
na ʼ</w>
k west</w>
ci pli
beilta s
E bʼ</w>
xo j
s teklu
qe taʼmaj</w>
par tes</w>
ca t
ad á</w>
Ucr ania</w>
Est á</w>
ti kʼ</w>
jo ltik</w>
yu ts
yo li
wí ini
qʼo n
chʼa y</w>
a da
V ER</w>
Gede ón</w>
yan tal
su ger
ro choch</w>
ân keb</w>
s äx</w>
parec er</w>
kyo klen</w>
Le laʼ</w>
w eʼ</w>
ti quʼn</w>
la bal</w>
jkʼan tik</w>
dar nos</w>
b oʼo
Bibli ae</w>
x to</w>
wa k
ru tzijol</w>
ojtzqi ʼn</w>
ob stante</w>
ec er</w>
cuxtʌ lel</w>
cu enta
ri que
mostr ó</w>
kʼe ban</w>
káa jal</w>
chúu kpajal</w>
bi ltak</w>
áan tik</w>
k ermano
jo m</w>
jkuxleja ltik</w>
1 2
tí fi
tribu lación</w>
qʼu ex
m bal</w>
x yaʼ</w>
sʌ c
n an</w>
ini ci
ka kʼ
i rá</w>
costu mbre</w>
T so
pre dijo</w>
tra ducción</w>
te tik</w>
sa ben</w>
al tar</w>
T NM</w>
we b</w>
sirvi endo</w>
bi c</w>
kolta yel</w>
jun chʼol</w>
ja ku
ho gar</w>
dis cipli
cʼuxbi ya</w>
Mar do
porno grafía</w>
mu li
mel bal</w>
a tik</w>
B RA</w>
yi chʼel</w>
v ar
u tsʼa
di rección</w>
dar se</w>
W e</w>
ú sica</w>
ti ʼoboʼ</w>
a co
yi laʼal</w>
o ki
jun x</w>
un i</w>
tuk el</w>
meyaj t</w>
her e
ch oʼob</w>
ajwa lil</w>
A na</w>
con t
Jehov ae</w>
wí ink
mani a</w>
e z</w>
c eso</w>
M áax</w>
yakʼ be</w>
mi loʼob</w>
mel tzʼa
con ómi
yi loʼob</w>
t jonïk</w>
sa ch
al co
JE ʼ
0 5</w>
te lob</w>
pará bo
artí culos</w>
H uuj</w>
4 9
soli ci
respe cto</w>
ocur ri
ka pi
contr ol</w>
yuʼu nike</w>
man chuk</w>
maa si
spa se</w>
nim xix</w>
bʼi deo</w>
T esta
ye qa
ch we</w>
D EL</w>
ki ta
des arro
ch lik</w>
Re ino
tsʼoʼo kol</w>
s t</w>
polí tica</w>
na ʼel</w>
chiʼi ch
R es
2 Cr</w>
skʼe lo
sba bial</w>
r on</w>
pen a</w>
mâ cßaß</w>
encontra mos</w>
î k</w>
m eros</w>
con ce
chi j
riqßu ineb</w>
ki mik</w>
humil des</w>
ruu kʼ</w>
na bʼil</w>
fuer tes</w>
a te
yée te
partici par</w>
cui dar</w>
ch cha
to e</w>
a to</w>
ʼ íi
tz ʼil</w>
ta ik</w>
su tik</w>
pró ji
kˈ aˈ</w>
kaʼan sik
ce lo</w>
anali zar
t bʼaj</w>
re mo
próji mo</w>
ji x</w>
apli cación</w>
I g
sabi o</w>
princi pa
guer ras</w>
T EL</w>
Jo h
we ye</w>
túu mben</w>
ba le</w>
tron o</w>
no pol</w>
cä qui
capí tulos</w>
U tiaʼal</w>
tx e</w>
min u
llen a</w>
ku r
Comi té</w>
vi a</w>
Mar ta</w>
xto ke</w>
ti koʼ</w>
qui so</w>
iden tifi
i ban</w>
a chʼ</w>
T YOL</w>
EST UDI
perdon ar</w>
mila gros</w>
kʼo jaʼan
kʼa xel</w>
jaa ts</w>
ar ri
R O</w>
parta mento</w>
f recu
0 2</w>
wa ʼ
señ as</w>
kyi bʼ</w>
fi j
e conómi
a pare
cien tífi
xchʼa y</w>
ta ra</w>
chʼa w</w>
E x
ño po
tes e</w>
i mos</w>
E sta</w>
me ya
le g
er i
en seguida</w>
ʼan il</w>
teni miento</w>
l te</w>
kʼwa ʼl</w>
kaʼa cheʼ</w>
ju junpʼéel</w>
men udo</w>
be bé</w>
ta peʼ</w>
muchʼtáa mba
kúun tik</w>
k bʼan</w>
deci dir</w>
xi mana</w>
mo ri
ku xa
chu pam</w>
beet keʼ</w>
Kʼu sitik</w>
ye le</w>
ti vas</w>
ti aʼan</w>
se par
kʼa as
chíi k
b ê
quer ido</w>
prácti cas</w>
cono cer
Tz ij</w>
ja lan
er a
xnaqʼtz a
ta sal</w>
ta mi
creer tik</w>
cho l</w>
B Í
k toʼon</w>
hi bi
difer encia</w>
deb ía</w>
X I
re co
qui lal</w>
mu lan</w>
tendr án</w>
sába do</w>
prote ger
ma c</w>
kja wil</w>
z ada</w>
xt q
terren o</w>
s nopel</w>
bikʼi t</w>
C Ó
vi ol
tu des</w>
ji ke</w>
b lan
ya lel</w>
esfuer zo</w>
BIBLIA Oʼ</w>
pro cla
hon ra</w>
a ta</w>
Satan ase</w>
yaʼ öx</w>
xa b</w>
tí tulo</w>
q yolin</w>
me ta</w>
E fe</w>
wi ʼje</w>
qui énes</w>
kaʼi y</w>
ilo c</w>
A x</w>
tra to</w>
t la</w>
propi os</w>
l bal</w>
kʼujla ʼn</w>
colta ya</w>
glo ri
ga se</w>
ori gen</w>
a jo
su uk</w>
lta j</w>
T RA
e lec
cristi anas</w>
chan chan</w>
oj txe</w>
cele br
bʼa r
an e
ï r</w>
yik nal</w>
sbi il</w>
manta letik</w>
te en</w>
sir ven</w>
li g
l k</w>
BʼAN EL</w>
pusi eron</w>
ofre zca</w>
je lu
BÍ BLI
ñ usan</w>
xu ʼj</w>
la ʼ
ke tike</w>
en se</w>
A t</w>
súu tu
sba e</w>
en trar</w>
en en</w>
Eli seo</w>
ra hilal</w>
chu m
cha mel</w>
anali zar</w>
kaa b</w>
aati nak</w>
P RI
tz jon</w>
m â</w>
ba ˈ</w>
t qʼo
principa les</w>
i rse</w>
K AN
im á
tsʼi j
ry eʼ</w>
qabʼa anu</w>
pap á</w>
kʼáa tik</w>
ca das</w>
N aq</w>
N OS</w>
7 5</w>
s pe
kʼo ʼ</w>
Dis fru
sion e</w>
sexu al</w>
pedi rle</w>
vi ven</w>
so por
di dos</w>
da d
o dio</w>
lu m
kʼa mal</w>
ju juntúul</w>
cul pa
C A</w>
6 ,
yeʼes aj</w>
qʼo ʼne</w>
KO ʼON</w>
CÓ MO</w>
r me</w>
opini ón</w>
kaa baʼ</w>
exa min
ex eʼ</w>
ex cel
cʌn tel</w>
o cho</w>
jun elic</w>
us ó</w>
s kʼelel</w>
bˈ in
tsʼaʼa b</w>
h re
cha ˈ</w>
jo ˈ</w>
go bernante</w>
convi r
ma ak</w>
imá genes</w>
gu sto</w>
g ra</w>
chu wech</w>
su ben</w>
ix k</w>
xy ânkeb</w>
reg is
q ximen</w>
kan a
kab ʼal</w>
ka aj</w>
ja bi
y os</w>
peli gro</w>
mencion a</w>
ma le</w>
hacer se</w>
kʼutbʼ esi</w>
ca dor</w>
ca ciones</w>
mu ri
a demás</w>
TE O</w>
s kaj</w>
no mbres</w>
ne ga
ingl és</w>
car ga</w>
yo ʼn</w>
señ al</w>
mo vi
medi tar</w>
in qui
x kolta
w w
a con
A na
sexu ales</w>
chʼu ju
9 4</w>
mele le</w>
bʼar wiʼ</w>
tarje ta</w>
en i
cho man</w>
9 1</w>
ʼ x
univer so</w>
q ʼel</w>
jba tike</w>
c ero</w>
ap o</w>
Ts ʼi
A V
ver dades</w>
ox tenqʼa</w>
cla ve</w>
bʼ ä</w>
PA S
sw enta
pun tos</w>
kʼáat chi
kʼi ini
kix kʼe</w>
1 Sa</w>
xna w</w>
sien to</w>
s é
ori g
b esti
Eze q</w>
B o
o f</w>
lo gra
ky ximen</w>
Na zar
yil koʼob</w>
ta ta
ex presión</w>
ci al</w>
Co m
s mul</w>
k bʼan
fi esta</w>
cambi ó</w>
an terior</w>
P ER
su r</w>
podr á</w>
oí r</w>
li sta</w>
ah í</w>
yaʼali koʼob</w>
ti cas</w>
du e
o eʼ</w>
cu bin</w>
X jan</w>
E J
ven cer</w>
tzala j
sa ʼn</w>
na koʼon</w>
e jetik</w>
De ut</w>
sig an</w>
q ebʼ</w>
medi da</w>
ja yi
ila wil</w>
Á frica</w>
x laj</w>
sta lel</w>
pak bʼan</w>
or den</w>
lti ʼob</w>
Kri stoe</w>
x kʼe
vi u
va le</w>
mon te</w>
Luʼu meʼ</w>
20 19</w>
san tos</w>
xchi ʼuc</w>
mam á</w>
A j</w>
w abʼe
tsa ʼix</w>
sla bʼil</w>
pie dra</w>
7 4</w>
x ñop
tza q
tsoba jel</w>
al bat</w>
B U
su mo</w>
lu char</w>
israe letike</w>
chka kʼ</w>
ca ban</w>
r en</w>
pʼ íi
hre f</w>
cha jak</w>
acon te
er á</w>
deci dió</w>
a di
U TZI
ki leʼ</w>
a ye
Re be
Aus tra
r in
pr u
mu ʼu
m í
kuxta loʼ</w>
dis posi
chanu btas
ab und
car á</w>
Bel én</w>
suce dió</w>
recibi do</w>
le emos</w>
xtz olbʼal</w>
Je ʼel</w>
qu es</w>
kiló metros</w>
chʼʌ m
a etik</w>
â cue</w>
wä y</w>
ba ß</w>
Pregun tas</w>
Li brar
tuk laj</w>
ra b</w>
kʼo tik</w>
sin ago
permi ti
gra ti
E sa
u tzalaj</w>
sja bilal</w>
pas ando</w>
k bʼel</w>
chʼo n</w>
ari q</w>
Kʼa ʼa
ven ir</w>
taa kʼin</w>
pres encia</w>
ig lesia</w>
cie dad</w>
yaʼa laʼa
satis fac
kˈ u
kyo k</w>
Sa m
dis poni
de ja
óo liʼ</w>
yo m
j wal</w>
res i</w>
pʼi jil</w>
perfec to</w>
lu ʼ
bendi sion</w>
tra duc
s be
in e
equi vo
compren der</w>
abte lal</w>
A y</w>
x eru
tsʼoʼo kok</w>
liv ro
famili ar</w>
c ente</w>
éndo se</w>
ri co</w>
noko o
men ta</w>
empe zaron</w>
awabʼe j</w>
pap el</w>
no pe
7 7</w>
qa yuʼam</w>
exi s
chi qui
t h
signifi cado</w>
ri lbʼal</w>
pri va
9 8</w>
0 1</w>
ra choch</w>
pres a</w>
ni dad</w>
le le</w>
apoya r</w>
preocu pa</w>
cʌ y</w>
s voko
esfuer zos</w>
cha ʼan
cha kʼik</w>
Ro ma
a we
A ß
no mbra
naʼ m
A R
â tina
sco tol</w>
btes el</w>
L TIKE</w>
u tsiloʼob</w>
res il</w>
EN SEÑ
ga dos</w>
apo y
toʼo noʼ</w>
ten dremos</w>
a kʼel</w>
ʼU N</w>
yajtunel tak</w>
ka bal</w>
VI D</w>
éxi to</w>
min ut</w>
ju mul</w>
israe letik</w>
fuer an</w>
c era</w>
HA C
su u
ho l</w>
ani x</w>
B ʼa
ora mos</w>
ky ˈ
kuxta loʼob</w>
jar dí
j te
j ta</w>
c é
o jik</w>
n u</w>
ku xi
chʼaʼ äl</w>
si kʼ</w>
per el</w>
naʼa tik</w>
a parece</w>
20 20</w>
14 5</w>
u ya
super ar</w>
difer ente</w>
chʼi y</w>
bun al</w>
Jor dán</w>
Je f
kʼu bik</w>
in g</w>
xe ß
ti b</w>
lle van</w>
cßu l</w>
O r
H o
A MOS</w>
x k</w>
ta t
qʼ et</w>
cónyu ge</w>
M E</w>
Librar y</w>
ja ʼik</w>
I mag
Cha kojoʼ</w>
ra dos</w>
lle gue</w>
e uk</w>
bene ficios</w>
tzeˈn ku</w>
H oy</w>
sla jibal</w>
propi as</w>
podr íamos</w>
ace ite</w>
Ale mania</w>
tr e</w>
str ong</w>
ocu pa
di señ
can tidad</w>
bu l
ya t</w>
ka migo
an ak
Pas cua</w>
â k</w>
y íi
sa f
sa bios</w>
qu ʼ</w>
na cional</w>
jo lo
cono cido</w>
ansi edad</w>
anali ce</w>
V EN
A ʼ
é ste</w>
te cheʼ</w>
pe le
ha q</w>
as ta</w>
Mo zilla</w>
j jo</w>
contro lar</w>
xnaqʼtza ʼn</w>
ta qʼuin</w>
ló gi
hac ían</w>
ej e</w>
an chaj</w>
ab ʼan
yi lal</w>
yan ak</w>
tuku lt</w>
kʼu tu
kʼi xik</w>
ja aj</w>
deb ían</w>
s kʼakʼa
ja bʼ</w>
j tsa
es p
ar la</w>
Ja ku</w>
âtina c</w>
yu cuaß</w>
w 11</w>
respon der</w>
lengu a</w>
l los</w>
div ina</w>
cˈ o
tku ʼx</w>
espiri tu</w>
der ra
chaʼle ñob</w>
20 13</w>
oʼonton al</w>
kˈ o
jóo kʼol</w>
jun an</w>
he chos</w>
equi li
ple tic</w>
kam k</w>
cru z</w>
comen tario</w>
a te</w>
tz ʼaj
muʼ yaj</w>
ku l</w>
sem anas</w>
G ran
BAʼA X</w>
sin cer
b rir</w>
agradeci dos</w>
yáant kech</w>
tik xan</w>
spa t</w>
s k</w>
pan demi
j nopo
eje cu
SA L
K y
ándo le</w>
tix qʼax</w>
pej cʌntel</w>
kan anta
comen tarios</w>
N ú</w>
Je z
JU N</w>
vo ʼe</w>
tʼuj bil</w>
m ya</w>
imperfec tos</w>
e gip
ka jaʼan
a compañ
E so</w>
ʼ yuk</w>
xqʼuq in</w>
xoo koʼ</w>
segui mos</w>
s nu
pra cti
A ja
kʼa mo
destru cción</w>
cu alidad</w>
A si
9 5</w>
nki ʼän</w>
mej en</w>
ho onal</w>
continu ación</w>
chaʼ le</w>
ca bal
ado les
Ri yaˈ</w>
tun ik</w>
n t</w>
ka ch</w>
alcan zar</w>
X U
Ja ʼ
v í</w>
rela ciones</w>
en tos</w>
des can
cʌ y
bo am</w>
analizar emos</w>
an eb</w>
sja kʼo
pri mi
ofre ce</w>
materi ales</w>
jaʼuk meto</w>
Sim ón</w>
Reino oʼ</w>
Re v</w>
fu i</w>
cambi ado</w>
KUX LEJA
ñaʼtʌ bal</w>
xka kʼ</w>
xi len</w>
w 15</w>
t ér
pien san</w>
jtak bol</w>
j tu
corre o</w>
Va ʼun</w>
min a</w>
j voko
con tiene</w>
bˈe ˈx</w>
asig nación</w>
yi chʼo
wo co
kqab ʼano</w>
kab ʼe</w>
tz aj
ts ʌ
saʼa b</w>
sa jak
q naʼn</w>
pro ce
kolta el</w>
ji loʼ</w>
constru ir</w>
Cr ón</w>
se man</w>
lu tik</w>
so l</w>
qui ero</w>
ne u
bus ca</w>
Ñ I
yaan al</w>
tra v
t í</w>
s tó</w>
kux kíin
châ bil</w>
chu pan</w>
ch ʼil</w>
Mu ʼ</w>
Mi que
Lo t</w>
u m</w>
to or
ra chi
ma yej</w>
jaʼ nax</w>
Para íso</w>
9 9</w>
x kux
so lta
si i
mil las</w>
keʼ yin</w>
de jado</w>
yec ˈo</w>
s oʼob</w>
pro duc
e wan</w>
cor ro</w>
c k</w>
ani kil</w>
Cuán do</w>
tina m
com por
aʼi yej</w>
al ta</w>
w 13</w>
to jol</w>
stse ʼelil</w>
mo j
kya ʼj</w>
confi r
cha do</w>
abi er
5 0
vali ente</w>
tinam ït</w>
t wiʼ</w>
t nikʼ</w>
be ber</w>
K E
CI ONES</w>
ʼo x
t majen</w>
prote cción</w>
orgu llo
ki wäch</w>
jen aj</w>
gra cia</w>
P E
ESTUDI O</w>
y ani
parábo la</w>
jardí n</w>
O y</w>
Es dras</w>
ña xan</w>
con forme</w>
pue dan</w>
C é
t én
s tsʼi
qu ía</w>
awa ʼi
a paci
1 10</w>
ro de
múu chʼ</w>
lo qʼu
di vi
DES CU
cha kʼbe</w>
an tse
a jol</w>
multi tud</w>
cho j</w>
be el
autori dades</w>
r un
lo kʼe
car tas</w>
anci ano
t ʼ
skʼu xul</w>
se b</w>
oí do</w>
lta ʼa
culti var</w>
are ˈ</w>
20 14</w>
vo ʼ
k el
LE S</w>
w u</w>
ven ga</w>
car r
Mardo queo</w>
tsa ʼʌch</w>
tra tar
jawa xel</w>
elec tr
disipu loʼob</w>
chʌ mel</w>
ch qʼaʼ</w>
termin ó</w>
qʼue lob</w>
ki bʼ</w>
jchan betik</w>
habi tantes</w>
ermano etike</w>
corre cto</w>
S í</w>
A jawaxel</w>
kʼa m
Sa ʼ</w>
gra ves</w>
de vo
campa ña</w>
achi que</w>
sna ʼik</w>
múu l</w>
ma estro</w>
chu wäch</w>
Ju di
DESCU BRA</w>
ya k
regi ón</w>
lta ke</w>
llev aba</w>
tendr ía</w>
sa xik</w>
me tro</w>
maʼalob tak</w>
chʼa bal</w>
beʼ en
b h</w>
tsʼo ok</w>
res to</w>
rela tos</w>
pan el</w>
la je</w>
an un
stu ke</w>
pare cido</w>
oj tikin
lo kß
Testa mento</w>
t ye
gun o</w>
1 39</w>
wo jel</w>
kʼu u
kye qe</w>
anak cuan</w>
î n
qu en</w>
n qan
enci ma</w>
ch qui
JES Ú
ye bal</w>
ya kʼel</w>
tsʼe lil</w>
hab lan</w>
fal sa</w>
conver ti
N E
Mique as</w>
tx ˈo
sig los</w>
profe ti
permi tió</w>
perdon ar
YU ʼUN</w>
tzʼi i
txˈo tx
precurso ra</w>
llen o</w>
bʼ ë
H e</w>
ñ ol</w>
proba blemente</w>
necesi taba</w>
ne que
c ʼob</w>
óotsi lil</w>
É E
yo mic</w>
x ban
kermano tak
in sta
che e
añ oil</w>
qßu in</w>
o posición</w>
x vinaj</w>
profun do</w>
ni e
n chi</w>
ji loʼob</w>
QU I
vivi mos</w>
tkyaqil ju</w>
p ón
ma m</w>
Es te
chi hab</w>
Mi gu
DI O
w ar
ti bʼ</w>
paci ente</w>
h ú</w>
J UN
Ed én</w>
AL GO</w>
yu jtel</w>
vi vo</w>
t tzi
t bʼin
ri ca</w>
kˈ ab</w>
kʼu x
aproba ción</w>
20 12</w>
xka kʼtik</w>
payal chiʼ</w>
nuʼuk tik</w>
j tun
com pr
bi en
T ex
ʼa ati
ta man
kʼu b
ku y</w>
ki kʼuʼx</w>
enseñ an</w>
be e</w>
Cha j
CRISTIAN OS</w>
xlo kß
to k
ko mel</w>
jon te</w>
ʼu x
jee tsʼelil</w>
DI S
to ma
ky ja
dr ía</w>
X A
9 6</w>
va ʼ</w>
te ʼeloʼ</w>
kʼi s</w>
kʼaʼayta joʼ</w>
en or
car le</w>
a ʼan
suc esos</w>
tik ïr</w>
tare as</w>
f o</w>
b os</w>
Cri sto
toor uuq</w>
lec tores</w>
bʼan tajik</w>
Kri sto</w>
Algun os</w>
yaʼa b
to ʼ
kʼu ch</w>
iky jo</w>
descen dencia</w>
ani mar
xa maan</w>
tsʼoʼo keʼ</w>
tqˈ maˈn</w>
to oʼ</w>
steklu mal</w>
kyi m
in quil</w>
fal sos</w>
agu ante</w>
re ba
kʼu si
cien to</w>
aʼalaʼa b
A yu
ˈ i
utzi läj</w>
txˈotx ˈ</w>
tu min</w>
sok nix</w>
p ción</w>
kʼin e</w>
ki ke</w>
jna ʼoj
bʼë y</w>
CO VID</w>
ben tel</w>
RESPON DA</w>
JESÚ S</w>
teni endo</w>
segu er</w>
nu ʼu
trav és</w>
ta el</w>
ri os</w>
re yeb</w>
edu cación</w>
cumpli miento</w>
che ß</w>
aba tetik</w>
Can adá</w>
yo k</w>
xi li
ti aʼa
JU AN</w>
tr uuq</w>
s kʼij</w>
ku b</w>
ap as</w>
kapi tulo</w>
in ta</w>
e leʼ</w>
cʼ u</w>
anima ˈ</w>
Ba al</w>
wabʼe jilal</w>
lo q</w>
lle ga</w>
kur so
ari as</w>
ya ʼon</w>
xcha ˈ</w>
rique zas</w>
po cos</w>
ne ke
ja jch</w>
El la</w>
ʼaj mank</w>
án donos</w>
w p
n er</w>
lu metik</w>
káaj bal</w>
a w</w>
ʼun e</w>
ä t</w>
x pe</w>
liv ro</w>
Ya bal</w>
Wat ch</w>
yée ya
x k
ruu chichʼochʼ</w>
ru wa
mâ usilal</w>
mu k</w>
ma are</w>
kʼo jiʼ</w>
gober nar
ch jonte</w>
aqa t</w>
y en
ni maj
chʼo o
b lo
ayudar án</w>
s ó
Jer i
A Y</w>
ta te</w>
da do
F E
yo pol</w>
ta al
me ti
kʼ wäy</w>
CH AN
te mal</w>
kon grega
israelita ʼoboʼ</w>
aʼa b</w>
ani mó</w>
TE ʼ</w>
óo x
ta miento</w>
no o
man q</w>
cha kß
b ú
ani mar</w>
J a</w>
z can</w>
ts tsa
públi co</w>
o do</w>
e tz</w>
ama qʼel</w>
senti rse</w>
ocur rió</w>
kß e
dar on</w>
ba talla</w>
Ma ch</w>
L es</w>
E se
t á
pens ando</w>
ke m</w>
cu ales</w>
com er
Tu men</w>
ka mi
jta le
chiʼich nak
ro m
r ás</w>
le ke</w>
chʼul chan</w>
chanu btasel</w>
W il
D ónde</w>
yo k
ri beb</w>
kaʼa choʼ</w>
di vino</w>
E b</w>
saf at</w>
avu ʼun</w>
we taʼmaj</w>
sto y</w>
so lel</w>
lu ˈn</w>
lo t</w>
Sam aria</w>
CH O
8 ,
ne a</w>
mo de
de cían</w>
aʼte lil</w>
a qa</w>
SB A</w>
Mun dial</w>
si gamos</w>
ji ˈy</w>
inter net</w>
bo chʼo</w>
O K</w>
C OR
ven ido</w>
privile gio</w>
li liʼ</w>
Cé sar</w>
19 19</w>
- 1</w>
s ju
meltzʼa j</w>
ki ik</w>
bi o
ali mentos</w>
Esa ú</w>
lo j
tso lajil</w>
enemi go</w>
cʼajti ya</w>
ob st
lu ch
kan o
Ñ O
vi gi
mi iw</w>
k qetaʼmaj</w>
tsʼáai koʼob</w>
pri sión</w>
kʼi s
gen ero
mision eros</w>
kʼaaba ʼtik</w>
i dos</w>
ée tel</w>
te ech</w>
stojo lale</w>
n xi
cer á</w>
Ver dad</w>
yi pal</w>
su puesto</w>
i lu
ent reg
ch win
SB G</w>
20 00</w>
tek sto</w>
s cʼo
peli gro
pa ces</w>
o ye</w>
ho lo
chu coch</w>
c ʼan</w>
aʼ o</w>
Disfru te</w>
yajtsʼak lom</w>
tsʼa a
t qʼi
mi loʼ</w>
empe cé</w>
Ra hab</w>
2 Re</w>
yeʼes koʼob</w>
ru wi</w>
res ol
pro hibi
m ó
koʼo lel</w>
beetaʼa b</w>
A TI
re fier
q qʼamaʼn</w>
I MP
yoʼonton ike</w>
ra ba</w>
kʼu h
TZ O
T al</w>
wi bʼ</w>
ts kʼan
par eja</w>
la ak</w>
equi po</w>
ayudar lo</w>
a men
tri go</w>
ti cʼo
nue vos</w>
krixchano e</w>
To wer</w>
Balu mil</w>
ju dio
camin os</w>
yo t</w>
ju un
dibu jo</w>
d ían</w>
car go</w>
Mu chos</w>
Lu kas</w>
ʼ AN
últi ma</w>
u ko
sue ño</w>
religi on
qʼu e</w>
ne ʼex</w>
c lo
benefi cia</w>
Yu mʌntel</w>
tzalaj bʼil</w>
re presenta</w>
jaaj kun
G ra
A d
8 1</w>
yaabʼa si</w>
tar le</w>
skʼakʼa lil</w>
espiritu almente</w>
bus cando</w>
Kʼo p</w>
w0 5</w>
to til</w>
sa ho
a i
Po demos</w>
Á A
su fr
reali zar</w>
chʼu tam</w>
añ ʌch</w>
ayi x</w>
au men
logr arlo</w>
ju lti
bˈ i
bʼan on</w>
ar reg
S an</w>
LI K</w>
LA J</w>
8 2</w>
yʌ cʼʌ</w>
yakʼo j
tér min
s ó</w>
lu lar</w>
kʼaʼay taj
aj k</w>
xchan o</w>
tra tado</w>
jp ʼel</w>
ada p
ân c</w>
tzi jon</w>
ta w</w>
ki wiʼ</w>
ka b</w>
j tek
Ig lesia</w>
prome tió</w>
na cion
minis teri
en o
be yaʼ</w>
ñ ʌch</w>
ya chʼil</w>
x yu
kʼu n
Austra lia</w>
yuʼu bik</w>
ver si
exi sti
electr óni
e volu
aj es</w>
VIV LIA</w>
N ec
Chan ru</w>
to ma</w>
recor demos</w>
re pu
luʼu m</w>
kʼa b
ki i
jkʼo pon
is las</w>
deci mos</w>
conti go</w>
t î
neu tra
mi j</w>
kri xchano</w>
inmedi ato</w>
chanu bta
Bʼi x</w>
ú til</w>
x co
woj ée
qˈu i
kbʼan tel</w>
kaj wa
el en</w>
com p
bee toʼ</w>
ar chi
Cʼ Ʌ
xu ul</w>
x óo
x nu
tzʼi bʼin</w>
t bil</w>
pod er
kʼ ex</w>
k en
bes ik</w>
ama ba</w>
T kawbʼil</w>
kʼaas tak</w>
kʼ tal</w>
ky ni
encuentr a</w>
chal k</w>
an c
tuuku l
obe dientes</w>
doc tor</w>
viol encia</w>
tan te</w>
si ga</w>
señ or</w>
kʼuq bʼaʼ</w>
chß ô
ayi kʼa
yʌqʼue ñonla</w>
recibi eron</w>
kʼa s</w>
e ʼex</w>
chʼ íi
Y OS</w>
xna wbʼal</w>
discípu lo</w>
ban o</w>
tes i</w>
qʼin u
manten erse</w>
l ʌch</w>
a ʼob</w>
uj ti</w>
qan ik</w>
ka an
escla vos</w>
ele gir</w>
dar é</w>
AN Z
yab te
tijic ña</w>
públi ca</w>
pre kurso
pon erse</w>
m úsica</w>
ayu k</w>
Pre par
Nec esi
q Man</w>
la jun
fi el
chki pan</w>
W i
8 5</w>
tu u
tri ste
ki men
che ʼʌch</w>
ʼo l
suger encias</w>
par tir</w>
no tas</w>
maravillo so</w>
l y
kan tzij</w>
j ero</w>
her ra
cier tamente</w>
c án
voʼ ne
llev aron</w>
jtek lum</w>
cha pa
Q ʼa
A R</w>
yi t</w>
nin guno</w>
kaʼi ytik</w>
4 000</w>
v i</w>
in forme</w>
a f
0 9</w>
snop ik</w>
sigui eron</w>
pak bʼabʼil</w>
est emos</w>
a jil</w>
Nazar et</w>
vi vía</w>
na b</w>
con centr
chaʼ kux
cal ma</w>
bʼan om</w>
asamble as</w>
a tzin</w>
pro yec
la dos</w>
ja y</w>
es aj</w>
discipli na</w>
N TES
0 3</w>
dej aron</w>
a van
xta wbʼal</w>
fir me</w>
chʼo l
can ciones</w>
av oʼonton
aparec en</w>
Nú meros</w>
z i
yeʼesi keʼ</w>
ti l
pi ente</w>
ver sión</w>
in terior</w>
impli ca</w>
im posible</w>
enfer mos</w>
c tor</w>
U T
10 5</w>
po l
pasto r</w>
o yaj</w>
ga da</w>
cha me
alco hol</w>
ä m</w>
uku j</w>
t ô
puer tas</w>
fal sas</w>
T ʼan</w>
C am
ta loʼob</w>
oo chel</w>
inqui e
Fi lip
C ho
ʼo l</w>
xoo kaʼ</w>
ten tación</w>
la bʼ</w>
ju majx</w>
ch kolta
bʼi ʼ</w>
yi c</w>
woko lil</w>
tra tó</w>
toʼo boʼ</w>
tar ía</w>
queri dos</w>
mos tra
le f</w>
gri e
actu ali
ˈ ja</w>
yáan al</w>
pe k</w>
na qaj</w>
kal betik</w>
cha ʼiik</w>
ch ê
x eman
xeman ae</w>
ta leʼ</w>
prepar ado</w>
mi li
li j</w>
k la</w>
c í</w>
MA S</w>
Go li
qab ʼan
cé lu
cha p</w>
V en
x ca
tribu s</w>
slo kʼ
prof es
nimaj cual</w>
ky xo
chʼʌ m</w>
br es</w>
Davi d
D ER
7 ,
tra m
sir ve</w>
sem ej
kaʼa chi</w>
em pie
ba k</w>
Qui énes</w>
û nk</w>
puksiʼi kʼa
pregún tese</w>
ob tener</w>
kʼutu ʼ</w>
kʼo kel</w>
aprove ch
ac tú
TA N</w>
MA TEO</w>
tzi kʼ</w>
na ʼajmank</w>
lo ca
kʼu k</w>
filiste os</w>
Migu el</w>
10 00</w>
ʼes an</w>
kʼ bʼil</w>
cha ʼox
can ab</w>
Y aʼab</w>
spaso j</w>
s hor
kʼu lin</w>
ku tsʼ</w>
ˈ l</w>
x tenamit</w>
vi mos</w>
si t</w>
ra son
chúu k
nu yaʼ</w>
me tike</w>
l mente</w>
judí oʼoboʼ</w>
itz ʼin</w>
chaj pan</w>
aspe ctos</w>
Ú U
qʼ ra
prote ger</w>
ma estros</w>
lo qʼuel</w>
lengu aje</w>
ju ra
recom pen
kí intik</w>
LE C
1 Re</w>
xna ßleb</w>
xi kʼ</w>
nax kʼut</w>
inmora lidad</w>
hacer nos</w>
diri gi
con ser
chˈ u
H u
9 2</w>
wo m</w>
sʌc lan</w>
pre cio</w>
ho ra
xʼi xi
ur ante</w>
organi sa
kʼiini loʼob</w>
ju da
ex per
asi sti
ab o
TA L</w>
DI C
yoto ch</w>
van e</w>
taq oya</w>
pandemi a</w>
nqa yaʼ</w>
ky qˈ
B A</w>
w 12</w>
ja kʼbe</w>
j y
israelita ʼob</w>
ama do</w>
Rebe ca</w>
ñ oʼ</w>
m pe
colta ñob</w>
Nú m</w>
1 27</w>
ʼux l</w>
zar nos</w>
só lo</w>
sam ari
b á
vu estros</w>
ve amos</w>
mode lo</w>
e vangeli
besti a</w>
as es
a vo
W AN
N O</w>
xʼixi cob</w>
har ía</w>
car ac
ba laj</w>
De partamento</w>
wi ʼil</w>
laʼ ta
cam pos</w>
a so
Jo ʼ
xi cß</w>
q ok</w>
chˈ alal</w>
T aje</w>
ts an</w>
na il</w>
deci dido</w>
con stan
R us
u kʼwäy</w>
superinten dentes</w>
s ten
prepar ar</w>
o si
deb es</w>
cualqui era</w>
J ÑI
Des de</w>
2 Co</w>
w óo
to m
ti na</w>
pres entes</w>
Sal ones</w>
nequeß x
le bʼaal</w>
espe cífi
c tori
ba h
wí inik</w>
sja lil</w>
riq bʼal</w>
noj beʼen
jo ß
in qa
agu as</w>
Mu ʼyuk</w>
JÑI BAL</w>
ʼa wabʼejilal</w>
t ß
peque ños</w>
g é
chee kel</w>
ant se</w>
ab tej</w>
L ec
ʼn toq</w>
sla je
la jin</w>
chʼaʼa j</w>
aku chï</w>
ab tel</w>
w0 4</w>
to tal</w>
s mo
qʼra bʼ</w>
ju j</w>
ha k</w>
extra ordin
di ga</w>
cha wilaʼ</w>
U N</w>
mo lam</w>
man dar</w>
ki wach</w>
es con
ta ʼan</w>
p aneʼ</w>
ne go
manda mientos</w>
logra r</w>
kaʼa k</w>
ila ʼa
di encia</w>
2 5
ón oʼob</w>
mi r
gan as</w>
e dr
dese an</w>
X CHA
ʼe j</w>
É N
s laj
ru heb</w>
j áan</w>
in fier
Ju e</w>
úuch jea
ya kik</w>
u lew</w>
servi rle</w>
qʼinu mabʼil</w>
m ari
ix q</w>
fu ente</w>
ca er</w>
bee te</w>
X NA
P a</w>
LA C</w>
t tx
o yik</w>
ka ab
ego í
are el</w>
ʼ jil</w>
vali entes</w>
reci be</w>
páa ʼ
impor ta</w>
ya lab</w>
sim p
qan in</w>
mu e
Pedro e</w>
refle xi
mensa jes</w>
kʼu tu</w>
jpu k</w>
ex tre
b â
V ER
x yuʼam</w>
ticʼo jel</w>
lle gar
ky bʼinchaʼn</w>
d able</w>
cumpli ó</w>
Y e</w>
Mo ab</w>
Baʼa xoʼob</w>
áan t</w>
raj lal</w>
ha yan</w>
an da</w>
K S
AN CE</w>
r ïn</w>
obe diencia</w>
kʼ betik</w>
koʼo le
há bi
de por
cß âl</w>
MA R
yaʼa loʼob</w>
xuʼu l</w>
wini ketike</w>
tu kʼe</w>
ton in</w>
maʼa ñix</w>
jnaʼoj tik</w>
ch ß</w>
ca pi
T OS</w>
Se gún</w>
pʼa tik</w>
pas bil</w>
pa t
la ltike</w>
con tin
circ unci
sáa m
quix qßue</w>
permi so</w>
bee til</w>
be t</w>
DIO SE</w>
Cuán to</w>
Cla ro</w>
ofren da</w>
ke ʼu
ayudar los</w>
1 Pe</w>
habi lidades</w>
en tien
be bi
na e</w>
m oʼoj</w>
k r</w>
h o</w>
fe cha</w>
br o
añ oʼ</w>
acab ará</w>
úni ca</w>
yakʼ botik</w>
xy î
vi vían</w>
s no
q wan</w>
or ó</w>
ma me</w>
SE AMOS</w>
ña xam</w>
wi ñic</w>
keʼ x
je tike</w>
hab éis</w>
cˈ ariˈ</w>
T qa
10 4</w>
te e</w>
kʼu ʼje</w>
descen dientes</w>
w0 8</w>
monta ña</w>
l un</w>
je cheʼ</w>
xlo kʼ</w>
vu estro</w>
s tukel</w>
p el
li na</w>
ka p</w>
hi ce</w>
especi almente</w>
0 7</w>
t tnam</w>
sal ón</w>
ba kʼin
Sab es</w>
xtu un</w>
xa pas</w>
rápi do</w>
quer ían</w>
cr á
T eme</w>
s vokol</w>
mill ón</w>
j cho
in te</w>
hi jas</w>
estr as</w>
div or
añ i
M ER
H a</w>
ʼ ya</w>
w 2
teri ores</w>
taa k
p h
habla ba</w>
h un
dur as</w>
dis tribu
KAN IK</w>
BAʼA LOʼOB</w>
AV ANCE</w>
van ik</w>
ter remo
ten kß
te c
sal mi
prote ge</w>
kʼe le</w>
i chʼel</w>
DES CRI
y as</w>
plan es</w>
ba te</w>
anunci os</w>
wa ka
po bres</w>
p ik</w>
le za</w>
kajwa taj</w>
hici era</w>
con tó</w>
H asta</w>
sko lta</w>
cu esta</w>
co lta</w>
ch chi
X e
UTZI J</w>
Joʼ kan</w>
20 21</w>
u su
tze lal</w>
j ch
ba mos</w>
P CIÓN</w>
D urante</w>
xin aq</w>
múuchʼu lil</w>
chan queb</w>
ba loʼob</w>
ar te</w>
Ru sia</w>
tzaq pi
tuláa kʼ</w>
qu ex</w>
muʼ yuc</w>
ex tran
aca bar</w>
tz ukuj</w>
t her
s rason
nra joʼ</w>
l oʼon</w>
ji ch
esper aba</w>
bʼtes i
aʼa li
aten der</w>
am ar
1 18</w>
yora jlel</w>
segu er
cʼa lal</w>
ac tos</w>
L ok
kyu ˈn</w>
iru qʼor</w>
da le</w>
casti go</w>
B ri
yúu chu
xka ʼi
xchi ʼi
o to
na bal</w>
fiel mente</w>
co se
u btas
lar on</w>
g ando</w>
físi co</w>
S AN
tri ste</w>
s ts
q yekʼin</w>
po damos</w>
Man as
K IL</w>
In formación</w>
ATI N</w>
A bel</w>
2 Sa</w>
ye ˈ</w>
pa abʼ</w>
kʼopon a</w>
entr ó</w>
I r
20 11</w>
ta ʼob</w>
s cri
pón gase</w>
miembr o</w>
le tiʼob</w>
grati tud</w>
conten tos</w>
ani maʼ</w>
a wal</w>
sucur sa
contes tó</w>
apar i
W E
T aq</w>
M on
xkʼe bʼal</w>
t kʼu
so br
ru tzij</w>
re par
o taq</w>
mo letik</w>
ja an
co lt
ba loʼ</w>
T ROS</w>
ya ʼtel</w>
tini mit</w>
Ru wa
B TE
w0 9</w>
tal mente</w>
ma tar</w>
lâ o</w>
k x
baj ñel</w>
a ʼoj</w>
DESCRI PCIÓN</w>
CH E</w>
A pren
vo kʼ</w>
so b</w>
parec ía</w>
naʼ äy</w>
kʼan e
ab ue
S KʼO
Q ʼU
Este ban</w>
tzʼaj bʼen</w>
regu lar</w>
ja cʼ</w>
j teklu
estudi ando</w>
chol mantal</w>
su ut</w>
l ʌl</w>
excel ente</w>
def ini
cier tas</w>
c u</w>
bʼi le</w>
an ía</w>
óni ca</w>
w 14</w>
tqʼo ʼna</w>
me ʼi
j lom</w>
gol pe
Pon ga</w>
ca paz</w>
ala ban
a fi
Bu chʼu</w>
tori os</w>
tna ʼn</w>
q o
ma to</w>
kʼach areel</w>
espa ñol</w>
chʼi x</w>
Feli pe</w>
val ora</w>
tu ve</w>
tan tas</w>
refier e</w>
pa at</w>
for d</w>
cari ño
b oni
xta w</w>
vi vos</w>
u r</w>
resu men</w>
S nt</w>
K or
yaj chan
xbaj t</w>
vi a
sa car</w>
pʼʌ tʌlel</w>
lta ʼal</w>
inclu ye</w>
chkaʼi tik</w>
bʼi k</w>
tsʼáaik toʼon</w>
taʼma bʼal</w>
spa sele</w>
s kontra
do ce</w>
come tido</w>
Pen te
KʼU P
J KUXLEJA
El í</w>
xo kaʼak</w>
u i</w>
so ber
pe or</w>
m ío</w>
j k</w>
fa vo
cuar enta</w>
cho manik</w>
z ará</w>
ve ci
utzi joxik</w>
oy entes</w>
mo tivos</w>
la da</w>
ku ʼx
e chʼ
0 8</w>
tsʼo kaʼan</w>
sla jeb</w>
natura l</w>
kʼex ik</w>
judí oʼob</w>
cla ramente</w>
bʼi la</w>
SU J
ʼ j
vide o
ra í
p esta
navega dor</w>
die z
chʼo lo
chki chʼtik</w>
a mo</w>
Kâ cua</w>
Eu ropa</w>
vuel ve</w>
vi ento</w>
tsi ikil</w>
na a
baʼal oʼobaʼ</w>
ayudar on</w>
PA A
J en
tar an</w>
ni kʼ
chi cuu</w>
To do</w>
LA ʼ</w>
naʼm xtoq</w>
lu vio</w>
er ía</w>
envi ado</w>
cʼajti ben</w>
chopo le</w>
cha kʼan</w>
apare ció</w>
ani ke</w>
Fran cia</w>
tni kʼa</w>
tan ta</w>
no mbr
kqa ya</w>
es tik</w>
aña de</w>
T ej</w>
C Ʌ
vivi ó</w>
ti pumal</w>
t ían</w>
suj tel</w>
mi ra</w>
ba leb</w>
yoo kebʼ</w>
médi co</w>
ci das</w>
c tes
CO N</w>
1 30</w>
x su
tqan in</w>
q aj
o chel</w>
dar ía</w>
S te
o i
ku bʼano</w>
kaw in</w>
ha go</w>
apren dió</w>
visi tar</w>
cßanje lac</w>
U naj</w>
yaʼalaj tiʼob</w>
viu da</w>
tso p</w>
pu ro</w>
o xe</w>
manten ernos</w>
jam ín</w>
as es</w>
acep tó</w>
ʼ jin</w>
ti kin</w>
si balaj</w>
jpa t</w>
hu mana</w>
chu kel</w>
San edr
w 16
ri o</w>
qui c</w>
mu cʼ</w>
je lel</w>
Máa saʼ</w>
MA BʼIL</w>
ve ía</w>
un kutik</w>
tʼaan aj</w>
tsik bal
or ando</w>
jo lom</w>
i chʼ
estuvi era</w>
Ma estro</w>
ó lo
spa sike</w>
mel ben</w>
ju tik</w>
jchʼun tik</w>
awaʼi y</w>
E f</w>
C ßa
do poderoso</w>
H ar
G ri
Estu di
Ch ri
yo le</w>
yaʼalaj tiʼ</w>
ti ˈ</w>
ni kʼe</w>
kʼo po
apo sto
Ch i</w>
ví cti
señ a</w>
r una
l toʼob</w>
entr as</w>
enta inel</w>
dedi cación</w>
c ô
KʼUP IL</w>
suce de</w>
pas an</w>
naj bʼen</w>
mu estran</w>
ma dero</w>
jayi buk</w>
am án</w>
Q a
Ben jamín</w>
si vo</w>
ru tinamit</w>
ko lta</w>
KY E</w>
CH ʼ
re a</w>
máa koʼobeʼ</w>
ji chuk</w>
frecu encia</w>
1 20</w>
vini ketik</w>
ts nop</w>
ten íamos</w>
k úu
gé ni
cono jel</w>
chi ˈ</w>
algun o</w>
M éxi
Jeri có</w>
ESI S</w>
B ra
u patan
to yol</w>
naʼ än</w>
lab ores</w>
XNA Qʼ
XNAQʼ TZ
K en</w>
Ch ʼu
x kil</w>
u c</w>
ts nop
s pan</w>
núu p
mien tas</w>
koj kunik</w>
Rus se
Mi entras</w>
B re
yaj xitl</w>
u d</w>
peque ña</w>
ho c</w>
ha z</w>
de z</w>
bʼ l</w>
N or
û l</w>
láakʼ tsiloʼob</w>
lo gía</w>
i kʼel</w>
agra dar</w>
Go g</w>
ta job</w>
sen tado</w>
s meʼ</w>
con tar</w>
c tesan</w>
RA ATIN</w>
Pi xab</w>
Isa i
yo wal</w>
produ ce</w>
natura leza</w>
especi ales</w>
des per
chan el</w>
cas arse</w>
carr era</w>
ú tiles</w>
óo ltik</w>
sto t</w>
ruchi chßochß</w>
reci ben</w>
h ik</w>
enor me</w>
Corin to</w>
qui xbânu</w>
investi ga
ven drá</w>
la ja
kʼaa kʼas</w>
jna ʼ</w>
hal la
gu í
asi l
KʼU LEJA
xy âlal</w>
xi chʼik</w>
xeʼ x
t yol</w>
su me</w>
sen sa
nu j
emple o</w>
di je</w>
In cßaß</w>
14 7</w>
x kʼax</w>
tʼa aniloʼob</w>
resta u
pueb los</w>
ge o</w>
chi riˈ</w>
apren diendo</w>
an chal</w>
Goli at</w>
EN TE</w>
x ta</w>
qu ini
pe cadores</w>
pan chan</w>
nope m</w>
yî b</w>
xe bʼ</w>
tu ba</w>
so corro</w>
q on</w>
lti koʼob</w>
i p</w>
arri ba</w>
yoli ne</w>
tre inta</w>
q bʼinchaʼn</w>
os cu
ju b</w>
j eros</w>
g ana</w>
t era</w>
kuʼx un</w>
chʼ ex
CU R
superi or</w>
pare cida</w>
nu uk
ku xul</w>
invi tar
er lo</w>
c ta
e yal</w>
bauti zó</w>
at toq</w>
lik es</w>
QʼI NU
QʼINU MABʼIL</w>
Que ß
í sti
van eje</w>
tsi leʼ</w>
sa grado</w>
presi ones</w>
ocur re</w>
cumpli rá</w>
angusti a</w>
ado p
Tu ʼn</w>
I LEL</w>
Cu áles</w>
z aba</w>
yan ak
testigo job</w>
n na
gra ba
chʼa bʼal</w>
Manas és</w>
LO B</w>
to bil</w>
si enta</w>
emo ria</w>
bus can</w>
I MA
ñaʼ ta</w>
ro so
antigu o</w>
VI SI
Mi ʼ</w>
xtu ʼän</w>
ki ʼ
kaa joʼ</w>
g al
Q o</w>
KʼULEJA LIL</w>
BʼA L</w>
ve je
tri bu</w>
t mod</w>
st re
pru dente</w>
mu kʼe</w>
kaʼansik toʼon</w>
infier no</w>
herra mientas</w>
her encia</w>
Ru ther
trai cion
ti yob</w>
termin ar</w>
ru silal</w>
ma ases</w>
kʼul mank</w>
fo to</w>
chol mantale</w>
áni ma</w>
z co</w>
xsa hil</w>
shor t</w>
par i
in justi
convir tió</w>
aw u</w>
al í
C OS</w>
ri lik</w>
escribi r</w>
du das</w>
cˈas len</w>
châ cuu</w>
ch ʼan</w>
Xu ʼ</w>
z ación</w>
kʼutun ïk</w>
ki kʼaslemal</w>
k ke
jaajkun ajoʼob</w>
al en</w>
20 15</w>
ti tu
s naʼ
qʼa tbʼäl</w>
pensa ba</w>
ja bile</w>
bi ke</w>
QʼA LIL</w>
Pente co
yaʼi yik</w>
spa tobil</w>
ro mano</w>
for mar</w>
ax pe</w>
aa we</w>
XCHA QʼALIL</w>
QʼI NO
Ju eces</w>
ñu jpu
vivi endo</w>
saaj kil</w>
n ka
mo tivo</w>
i chi
debi ó</w>
chʼi chʼ</w>
chʼ úu
QʼINO MAL</w>
Mois ese</w>
DI CE</w>
yo ʼnton</w>
nki yaʼ</w>
evolu ción</w>
cʌ cʼ</w>
chʼaʼa bil</w>
bi bli
ʼoj bʼal</w>
éndo le</w>
ye letik</w>
ti kʼ
s emos</w>
kʼo j</w>
an ik</w>
Be y</w>
wíink lil</w>
tan eʼ</w>
s va
ra dio</w>
nor mal</w>
fortale ce</w>
TO JO
Eli sa
tz al
pʼíi t</w>
páa ʼtik</w>
m emoria</w>
l v
j yon</w>
j loʼi
v ó</w>
sa x</w>
q ok
mora les</w>
j nuptan
is la</w>
can o</w>
MA J</w>
ándo les</w>
vel tae</w>
tse ʼel</w>
ts ta
s esión</w>
medi das</w>
ma ye
xna qˈ
uʼu yik</w>
naj oʼob</w>
kab ʼan</w>
chʼ i</w>
car nos</w>
ad minis
TE N
ME L
A LI
x cʌn
ti qui
testi goʼob</w>
lí nea</w>
kʼu tuj</w>
gan ar</w>
Testi go
Mu cʼul</w>
JO ʼ</w>
ʼo baʼ</w>
xkʼo po
o chik</w>
nim ku</w>
dr án</w>
aspe cto</w>
Se gun
K oʼo
xni mal</w>
xb ânunquil</w>
pod remos</w>
cu áles</w>
Ser vi
Jef té</w>
yi j</w>
x jan</w>
w la
ri xa
nojptes el</w>
ky ex
hab le</w>
contin ú
tijo xe
skʼan oj</w>
mi lel</w>
kaʼa túul</w>
chi laˈ</w>
aprove char</w>
X a</w>
tare a</w>
tak lan</w>
lá gri
in an</w>
ex hor
Wil li
Si ria</w>
9 ,
tiˈ jjo</w>
r les</w>
per ton</w>
kʼo ʼob</w>
Y acˈ
Gran de</w>
tsik bal</w>
re p
pregun te</w>
g ará</w>
be le</w>
Q e</w>
Jez abel</w>
El los</w>
CH U
x muyubaj</w>
se t</w>
respon der
profec ía
po cas</w>
jui cios</w>
encontr ó</w>
di miento</w>
conven cidos</w>
chi k
carac ter
be tike</w>
Es t</w>
C AN
A CIÓN</w>
â ma</w>
x tenqʼan
tz ûl</w>
tama b</w>
senci lla</w>
se lec
ofre cer</w>
jum pʼéel</w>
ex ik</w>
elimin ar</w>
ca p
ʼ ja</w>
va mente</w>
tien da</w>
ra aj</w>
lí mi
baʼate ʼel</w>
abʼa lebʼ</w>
yan chaj</w>
s kʼa
con for
ba il</w>
T ʼAN</w>
Si g
Bʼ E
B intik</w>
yu jil</w>
t naʼ
refu gi
p in
muʼ ya
cʌ ñʌ</w>
Kʼe lo</w>
C ada</w>
5 00</w>
ye pal</w>
x bo
ta ble</w>
sigui endo</w>
nu kuch</w>
kongrega sion</w>
Ba uti
A c
ya mos</w>
vi enen</w>
str o</w>
qʼe bʼal</w>
oj tik</w>
ji saj</w>
inci en
ch kil</w>
ca mi
a me</w>
a cor
TI ʼJ</w>
IMP OR
to talmente</w>
n ya
devo ción</w>
cu lar</w>
ar ían</w>
A MI
ó s</w>
to mar
paci entes</w>
cʼux bin</w>
al bel</w>
G re
1 33</w>
ñaʼ tañob</w>
ya tan</w>
wa joʼ</w>
to qʼo
ti cʼ
s án</w>
p ón</w>
ki lebʼ</w>
israeli ta</w>
M en
s wo
oʼo xe</w>
kʼo x
ko mon</w>
jan al</w>
enfer mo</w>
cla ra</w>
ban quil</w>
S O</w>
Méxi co</w>
ʼla laj</w>
ru e
qßu i
pi j
kʼo nil</w>
contro lar
chki ltik</w>
x q</w>
regres ar</w>
entra da</w>
enseñ arles</w>
compañ ero</w>
ch batik</w>
ana qwan</w>
a propi
Kʼa asil
IMPOR TAN
An tes</w>
ts el</w>
s chol
recibi mos</w>
muʼu kʼaʼan
ku xi</w>
kiko temal</w>
je ʼlalaj</w>
dar án</w>
cre ado</w>
E no
ö y</w>
Ñ U
yu bi
na xbʼaanu</w>
la jal</w>
ba se</w>
u tsʼ</w>
t qʼama
solta ro
sacerdo te
on i</w>
ju di
espiritu e</w>
bi ß</w>
ber t</w>
T TEN</w>
I ta
yo ß
w 10</w>
solda do
kki ya</w>
Mala ui</w>
A sia</w>
we ˈ</w>
skʼelo bil</w>
mer ece</w>
lu bʼa</w>
limpi a</w>
j chʼi
ec en</w>
con tenido</w>
ch chan
c es
baʼa loʼ</w>
apren dí</w>
N unca</w>
yi i
ver lo</w>
rega los</w>
pu dieran</w>
ni men</w>
mani f
kʼi wla
envi ar</w>
comen ta</w>
amista des</w>
am bos</w>
P au
í cu
uni dos</w>
ts ʌn
cre ar</w>
chʼaʼ chiʼi
Re cuer
PAS EL</w>
vuel to</w>
tu ˈn
te uk</w>
mal vado</w>
jos kß
j chʼa
du re
desarro lla
de je</w>
colabo rar</w>
tuvi era</w>
tsʼ áaj
qi itzʼin</w>
po dido</w>
ma suk</w>
llama ba</w>
kʼáa toʼob</w>
kuxleja le</w>
ci ales</w>
chʼuju tes
chi kan</w>
adver tencia</w>
TZ AJ</w>
A YU
2 6
xkuxleja lik</w>
x lik</w>
o dia</w>
dor as</w>
dere cha</w>
Q man</w>
G ÉN
z ías</w>
x al
to kil</w>
t xu
ru chˈabel</w>
obli ga
ki tzij</w>
envi dia</w>
bi kʼin</w>
ang el
z camos</w>
y âl</w>
xna u</w>
xi j</w>
ly n</w>
B RE</w>
ter tokil</w>
si c</w>
esfor zamos</w>
en erg
cu c</w>
ani chʼna
Tu ˈn
Luʼu maʼ</w>
t kawbʼil</w>
sa le</w>
reba ño</w>
lu mil</w>
lokʼe m</w>
logr ó</w>
chʼaʼ tuklik</w>
ch eb</w>
an el</w>
Ese ki
ñ us
x le
ofre cer
j ûnk</w>
incien so</w>
cˈu ˈx</w>
M esi
GÉN ESIS</w>
CHI ʼU
C ono
As á</w>
xi ʼik</w>
utili za</w>
t qabʼaanu</w>
ru sama
r toʼ</w>
qˈu iy</w>
presen tar</w>
ni sán</w>
n an
ku kʼut</w>
cam s
Yacˈ a</w>
PU E
Cor ne
yajchan kʼop
sem an
re ina</w>
ok el</w>
kʼo jo
kʼa xe
e lo
cono cía</w>
con tento</w>
chal en</w>
Taa ta</w>
Apo ka
AN QʼI
van ejetik</w>
tsʼíib taj</w>
l oʼobiʼ</w>
je fe</w>
antse tik</w>
Y om</w>
óli ca</w>
yantal toʼon</w>
ri to</w>
ko jonik</w>
jchi ʼ
cô eb</w>
bi laj</w>
S y
N in
1 Ti</w>
ʼA L</w>
s Kʼop</w>
entre tenimiento</w>
cui qßuin</w>
chakß rab</w>
ajvali le</w>
a ch</w>
LE K</w>
xñop tʼañob</w>
waʼa lik</w>
tzʼi bʼaj</w>
tele visión</w>
sik ba</w>
sa mal</w>
reliji on</w>
ne j</w>
mis mas</w>
ju jumpʼejl</w>
influ encia</w>
hi ch</w>
experi encias</w>
dó lares</w>
N ak</w>
Ja pón</w>
A t
yoj loʼob</w>
xu c</w>
vi ctori
tsʼíibo ltik</w>
sem ana
s po
l p</w>
emo cional</w>
cʼʌ lʌl</w>
co razones</w>
chíi kpajal</w>
c entes</w>
VISI TA</w>
Kor intios</w>
xbʼe en
qʼi ji
qʼa tal</w>
q lal</w>
ok jaʼan
k qaj</w>
gru pos</w>
domin io</w>
O J</w>
ru tz
ki loʼob</w>
chʼol chʼo</w>
ca mi</w>
10 6</w>
suj tib</w>
se creto</w>
l ando</w>
ka jaʼan</w>
energ ías</w>
de fec
a ch
téen el</w>
tzʼaq li</w>
t pon</w>
skʼan ik</w>
orig inal</w>
ma q</w>
levi tas</w>
i wu
comple ta</w>
bal ʌl</w>
ba ʼan</w>
ta das</w>
t he</w>
ej lel</w>
X ʼawabʼejilal</w>
E MOS</w>
y oʼob</w>
xakʼa l
ser emos</w>
pa ña</w>
kʼáa taj</w>
Mala quías</w>
w 17
solda d
resuci tado</w>
láa j</w>
ky yekʼin</w>
jun wa</w>
es an</w>
cʼu x</w>
ar ás</w>
al er
Asi ria</w>
2 4
y bey</w>
xan aʼ</w>
sucursa les</w>
publica dor</w>
pa gar</w>
la ter
ku xu
k abʼ</w>
gi a</w>
f lo
de li
Ta tzʼetaʼ</w>
tuʼu b
s vu
resu lta</w>
respe tar</w>
reflexi on
recuer de</w>
perfec ta</w>
paala loʼoboʼ</w>
co jach</w>
chal butik</w>
ami ento</w>
Tex to</w>
A po</w>
mal vados</w>
kʼi ʼi
i das</w>
comp rar</w>
añ onla</w>
R aquel</w>
Me di
ta remos</w>
ri ik</w>
quedar on</w>
por tada</w>
ko l
T saʼ</w>
Fi li</w>
Chan chan</w>
Bro ok
stu untes
obede cer
naa tsʼ</w>
cul tura</w>
cu jil</w>
ami goʼob</w>
Evangeli o</w>
yaabi ltik</w>
wa chib</w>
wa ch
tem po
se as</w>
ru kʼuʼx</w>
in ju
genero sidad</w>
bi ˈ</w>
b h
M EN</w>
w al
tien do</w>
ta qanik</w>
su f
qui cuan</w>
ma t</w>
k qil</w>
gar se</w>
de cep
cre cimiento</w>
bh s</w>
akʼ bot</w>
a kʼal</w>
Ruther ford</w>
H ac
0 000</w>
ti eron</w>
jun téen</w>
jkʼopon tik</w>
ho k</w>
ca uti
W i</w>
U ste
xta q
va da</w>
tri bunal</w>
per dió</w>
mucha cho</w>
mla y
ja ˈ
injusti cias</w>
er e</w>
dis cursos</w>
ch ani
afron tar</w>
ac ción</w>
Ä L</w>
xchʼu no
ti a</w>
tenqʼan k</w>
t wi</w>
t bʼiʼn</w>
sion etik</w>
resol ver</w>
nue ve</w>
i to</w>
he ß</w>
e ta
A y
ßa k</w>
yak b</w>
xcßa baß</w>
wa ja
u si
tsnop ik</w>
ti xbʼaanu</w>
s chʼu
ora aʼ</w>
muer e</w>
g aron</w>
cuesti ón</w>
bi sik</w>
É f
y eʼ</w>
xku ch</w>
vi das</w>
uni ón</w>
pel ícu
ni ña</w>
naj t</w>
l lu
cti tud</w>
ca j
X i
T S</w>
So do
SKʼO P
H I
Gra cias</w>
20 18</w>
0 4</w>
un tes</w>
ta oʼ</w>
s mi
ixo q</w>
géni to</w>
NA ʼ
David eʼ</w>
xe ʼu
señ ala</w>
ru uk</w>
qʼo ro
ex oʼ</w>
blo que
ENSEÑ ANZ
xu cʼul</w>
s like
ra za</w>
ora sione</w>
na wulak</w>
ha ß</w>
O ri
O n
K aj
ʼ le
ó r
ruu m</w>
proba r</w>
po bre</w>
pan ik</w>
ojée ltik</w>
kan oq</w>
jkuxleja ltike</w>
ja ˈ</w>
cr í
ar ra
Penteco st
precurso rado</w>
libr oil</w>
fi de
ca sa
T U</w>
An dr
z on
yʌ lob</w>
sjakʼo biltak</w>
i q</w>
estudi os</w>
ci mientos</w>
ami l</w>
S on</w>
ʼU UN
y ë</w>
tsʼaa maj</w>
oʼonton ale</w>
oport uni
le e</w>
chiri xebʼ</w>
ami go
t tzaqʼwe
ox la</w>
loqʼo qʼebʼal</w>
ki saj</w>
an ax</w>
W entainel</w>
Se a</w>
mo so
do lo
chix yebal</w>
c cion
tz ma
sma la
ri yoj</w>
qʼax aj</w>
n en</w>
kʼo pil</w>
feli ci
dis cu
bauti zado</w>
ano p</w>
a yan</w>
Russe ll</w>
yáan taʼal</w>
xkʼu xul</w>
nekeʼ xye</w>
máan sik</w>
ka mik</w>
f ej
cu il</w>
bê n</w>
Y aj
G abri
AL KYE</w>
2 3
yaʼali k
wen lel</w>
tik ba</w>
mo b</w>
kʼo em</w>
ki l
esta rán</w>
com pla
ancian oʼoboʼ</w>
Ma g
taʼ manik</w>
sa q</w>
pensa mos</w>
lo ʼla
levan tó</w>
kʼaj kʼa
ker eme</w>
in oj</w>
hora eʼ</w>
fon do</w>
es píri
cor ru
b es</w>
O ʼ
yaa tal</w>
tzo lin</w>
ple mente</w>
na ca
e loʼ</w>
descu bri
cre ía</w>
con du
cha awu</w>
adorar tik</w>
F lp</w>
E ra</w>
B í
úu chul</w>
xqui bij</w>
xnaqʼtz bʼen</w>
tun esik</w>
tukli keʼ</w>
simp le</w>
quier es</w>
noti cia</w>
ky ten</w>
ki toʼ</w>
juun al</w>
expli car</w>
cui da</w>
cre y
ch to
Al kyeqe</w>
visi ones</w>
tí simo</w>
segu ía</w>
p lo
ka ʼi</w>
fi car</w>
ch tunik</w>
TE X
T SI
Se amos</w>
Cha awil</w>
yáant koʼob</w>
toj tob</w>
tkʼu ʼja</w>
qʼi ʼn</w>
pie dras</w>
lógi co</w>
hab lado</w>
conversa ciones</w>
Pentecost és</w>
K en
20 17</w>
salv ar</w>
pens ó</w>
jun xil</w>
Bra sil</w>
ti f
re comen
n tel</w>
juz gar</w>
ha t</w>
diez mo</w>
añ ix</w>
Tu láa
LU CAS</w>
á culos</w>
x jo</w>
su je
menti ras</w>
like m</w>
jaku toq</w>
do y</w>
centra l</w>
acep ta</w>
t án</w>
mej li</w>
inter esa</w>
cʼʌ ñʌ</w>
ukʼu tik</w>
pre va
lta r</w>
ja x</w>
gu é</w>
disponi ble</w>
di ción</w>
cuen tas</w>
ad ing</w>
Le tiʼobeʼ</w>
yom ʌch</w>
vun etik</w>
uti na
to iloʼob</w>
si bilaj</w>
sa q
s kananta
mi sión</w>
jóoʼ sik</w>
chʼi ʼi
chum tʌl</w>
ca yó</w>
bon dado
H er
A la
utina mit</w>
tí n</w>
ta kʼine</w>
stsa tsal</w>
srason al</w>
lo grado</w>
le ʼn</w>
le x</w>
la ʼan</w>
in justicia</w>
encan ta</w>
costu mbres</w>
científi cos</w>
JEʼ EX</w>
A reˈ</w>
wuʼu yik</w>
tsʼ in
len to</w>
kʼ waj</w>
en eʼ</w>
comple tamente</w>
X ni
S venta</w>
Qui z
KY ANQʼI
CRIS TO
xban eb</w>
ver á</w>
te l
t ón</w>
rep ente</w>
ra l
ke lem</w>
jnopo jeletik</w>
b ó</w>
U ʼj</w>
É xo</w>
y onla</w>
te b</w>
qe ye</w>
le t</w>
esta ría</w>
cump le</w>
conven cido</w>
chʼin tl</w>
bʌ cʼ
ayudar le</w>
aqu ellas</w>
Jerusal en</w>
E mpi
táan xel</w>
resi stir</w>
kye ˈ</w>
da ñ
cha c</w>
Luʼu m</w>
H an
C es
ê rib</w>
vali osa</w>
sja bi
de bajo</w>
chi lik</w>
ambi ente</w>
Nab ʼe</w>
tse b</w>
salmi sta</w>
r r</w>
pu ta
culpa ble</w>
chixjuni lebʼ</w>
bra do</w>
T ʼaan</w>
Kʼ E
Judi y</w>
Ca ín</w>
Aß an</w>
triste za</w>
ti keʼ</w>
tala m
qʼo rik</w>
q ta
bʼi lal</w>
bʼa r</w>
be ñonla</w>
Na bal</w>
1 15</w>
ñopo ñel</w>
ta lidad</w>
segu ramente</w>
qui b</w>
kaj náa
ja la
he ading</w>
gra du
chʼo j
20 10</w>
sim b
jo tik</w>
har é</w>
chˈu lef</w>
ca den
bʼa lo</w>
Sanedr ín</w>
Es d</w>
D é
nequeß iloc</w>
modes tia</w>
men or</w>
lo o
lla mar</w>
baʼal che
a segura</w>
RE VISITA</w>
A geo</w>
xi bal</w>
xa ʼi
tuʼu bul
ta b
sober anía</w>
pa ti
oportuni dades</w>
na ció</w>
c ô</w>
x je
tes or
ra bi</w>
pa tzʼ</w>
ky bʼiʼn</w>
ka ˈ
in men
habla mos</w>
h í
corre cta</w>
chki wach</w>
ba tele</w>
N í
M el
J pas
CRISTO Eʼ</w>
s manta
qʼa t
posi tiva</w>
orgu llo</w>
ni chi
jcho ltik</w>
caracter ísti
aña dió</w>
ar ik</w>
B EN
ía soʼ</w>
t tz
sta r
pu ku
aba tin
Sodo ma</w>
1 Jn</w>
Éf eso</w>
sig looʼ</w>
se lo</w>
matri moni
ma xto</w>
lu me</w>
defen der
cha ʼi
sol ter
n nikʼe</w>
limpi o</w>
ap la
O KS
Ja co
D o
tspa se</w>
ti lu
san tifi
ra t</w>
li ter
je letike</w>
jchan ubtas
jabi lel</w>
har án</w>
encontr ará</w>
al ʌ</w>
RESPON DER
Bre ta
yee w</w>
yan il</w>
voko lil</w>
tiki ri
osi le</w>
maasi leʼ</w>
maa junwa</w>
le yendo</w>
kubʼ saj</w>
jujun tal</w>
dro gas</w>
chava ʼi</w>
caß in</w>
BÍBLI CO</w>
tan tos</w>
so los</w>
r í
jun kabʼal</w>
con segui
bi a</w>
Si las</w>
1 Cr</w>
xt ki
u t
skoto luk</w>
s co</w>
orden ó</w>
kuxta leʼ</w>
fir mes</w>
aʼ tel</w>
au xili
10 2</w>
saʼa k</w>
la ju</w>
ben eb</w>
ar tik</w>
yo lil</w>
trabaj ando</w>
ter cera</w>
ri yeˈ</w>
pasto res</w>
muyuba jik</w>
h t</w>
gü edad</w>
g on
f g</w>
chʼ ina
a tojo
PA N</w>
tuláa k
tsʼa ʼan</w>
ri si</w>
re conocer</w>
p tik</w>
nu me
n qʼoʼne</w>
lo ob</w>
fu imos</w>
esfor zarnos</w>
do cu
ci en</w>
anti güedad</w>
Na ciones</w>
Ab salón</w>
ruwa chˈulef</w>
qʼu i
po ʼo
or anax</w>
na ta
n qˈ
lʌ cʼ
ju ez</w>
espíri tus</w>
conse j</w>
A bʼan</w>
yaʼi yel</w>
x u</w>
spi si
kʼop ta
chßô leb</w>
an tal</w>
Le v</w>
yî banbil</w>
taj bʼil</w>
t kyim</w>
re d</w>
kimen oʼoboʼ</w>
judio etik</w>
in esper
en a
colta ñet</w>
aktáan tik</w>
te li
reliji on
j me
chakʼ butik</w>
bʼan o
ben dijo</w>
F araón</w>
1 50</w>
í do
tro pe
tendr ían</w>
skʼo pon</w>
ri cos</w>
quedar se</w>
noj chil</w>
kʼa luk</w>
joʼop ʼok</w>
aß aneb</w>
anciano job</w>
a man
RESPONDER ÍA</w>
Pedro eʼ</w>
In g
Corne lio</w>
9 3</w>
skolta utik</w>
kye ˈy</w>
est ábamos</w>
cʌntes a</w>
cuesti ones</w>
cla ridad</w>
chix b
a pe
Ru ma</w>
w ab
l ani
cier tos</w>
û k</w>
sin cero</w>
pregun tan</w>
ke t
jun jûnk</w>
en la
car ro</w>
14 1</w>
to etik</w>
ten te</w>
po bre
o jo</w>
me je
la jel</w>
kß e</w>
Wat chto
S LE
Ru mal</w>
Mu chas</w>
ñ aj
univer sidad</w>
sufr en</w>
sim plemente</w>
recompen sa</w>
pi jta
n un
meyaj toʼob</w>
lan kil</w>
kʼis bʼal</w>
kan uj</w>
je m</w>
j chan</w>
chixb ânunquil</w>
Jose e</w>
ya cˈariˈ</w>
xo bʼ</w>
vol vieron</w>
ve ʼ
siti os</w>
respe tar
i d</w>
desas tres</w>
colt ʌntel</w>
b raz
Yu m</w>
Min tiʼ</w>
Lec tura</w>
J EL</w>
Corin toiloʼob</w>
ʼi c</w>
ñu sa
ß aj</w>
obst áculos</w>
kyex ku</w>
ju yu
due lo</w>
br in
ayudar a</w>
Su s</w>
MI ʼ</w>
ʼa ʼ</w>
ü l</w>
to ʼo</w>
pu dieron</w>
nqa tzjoj</w>
li yal</w>
ke h</w>
debi li
chʼaʼ pach
S en
Dio siʼ</w>
D OS</w>
0 6</w>
x kʼanjel</w>
t j
stsʼi ba</w>
sopor tar</w>
selec cion
or an</w>
ja chin</w>
ch lokʼ</w>
actu al</w>
ve inte</w>
sáam samal</w>
revi sta
pʼi ji
ka sti
jun es</w>
j toj
fi l
bá si
bor ra
C h</w>
Brook lyn</w>
ya migo</w>
ver as</w>
utzi lal</w>
tsʌ ts</w>
s tunes</w>
person ales</w>
j ó</w>
holo hik</w>
hier ro</w>
fi co</w>
ci a
chß î
al kyexku</w>
T ri
Si me
J kʼel</w>
CʼɅ JÑIBAL</w>
luʼu moʼ</w>
kanáan t
cariño so</w>
ban kilal</w>
ayu dando</w>
se era
samari tan
pro por
pa cífi
organisa sion</w>
nu bij</w>
muri eron</w>
l í</w>
c entro</w>
ani mal</w>
aba jo</w>
So ciedad</w>
S kʼop</w>
MEL BAL</w>
Anti o
yúuchu l
yu mʌntel</w>
tu q
tsʼ i</w>
sta do</w>
s tsob</w>
consu ela</w>
co win</w>
M â
F ue</w>
ÑO P
taa kʼe</w>
skolta y</w>
re talil</w>
di rá</w>
dej an</w>
car ner</w>
awo ʼtan
Kʼ áa
Jaʼ nix</w>
Empi ece</w>
t remos</w>
ra ban</w>
n äq</w>
kq ariq</w>
ini cio</w>
be yob</w>
an teriores</w>
TE R
MA ʼA
Jun túul</w>
DIS CUR
u chuqʼabʼ</w>
rum ariˈ</w>
religi osas</w>
pres u
kano ʼn</w>
im pi
can ción</w>
Tu lumil</w>
S ol</w>
Elisa bet</w>
vi va</w>
tsi k</w>
stsa k</w>
st ʼu
s livro
perfec ción</w>
na cido</w>
n oʼoxe</w>
medi a</w>
lo tik</w>
ky ja</w>
a ji
S of
OKS LAL</w>
M ÍAS</w>
x lan</w>
x chßôleb</w>
tec no
loqʼu em</w>
diri gir</w>
cʼo tel</w>
an to</w>
al oʼ</w>
achiˈ aˈ</w>
aban an</w>
JCH ʼUUN
ándo lo</w>
xan oʼ</w>
ka ajoʼob</w>
e taʼmanik</w>
da ta</w>
d ri
Ju ane</w>
wi l
te x</w>
te jchibal</w>
nombra do</w>
jojkʼo yeletik</w>
espo sas</w>
er án</w>
ci bi
be kutik</w>
Gu erra</w>
Chaj ariik</w>
3 8
ʼíi ch</w>
yan tikxan</w>
tʌ lob</w>
ti tz</w>
reac ción</w>
ni b</w>
kˈo laj</w>
ja s
fin almente</w>
de trás</w>
ca sados</w>
P ʼíich</w>
Ch qa
1 1,
- 2</w>
ye ʼa
xi i
v el</w>
u qʼij</w>
ten qʼa
sufri endo</w>
qʼuq bʼaʼn</w>
pe c</w>
E J</w>
yée t</w>
manten i
l on
in su
h k</w>
gan se</w>
aʼalaʼa b</w>
Salo mon
JKUXLEJA LTIKE</w>
Isai as</w>
ê b</w>
t kutik</w>
re go
pʼáa t</w>
presen tó</w>
pi ke</w>
or ar
lek sion</w>
kʼa joʼ</w>
in bil</w>
di fun
desas tre</w>
deci rle</w>
chi wu</w>
can âk</w>
R ma</w>
PAA BʼANEL</w>
N e</w>
x si
tsi loʼoboʼ</w>
necesi taban</w>
chaʼox tul</w>
bo lo
an ías</w>
Pro póngase</w>
profun damente</w>
muchʼtáamba loʼoboʼ</w>
mila gro
kßa x
jura mento</w>
ela bʼ</w>
an dar</w>
a tan
yaʼal maj</w>
x po
x bʼan</w>
v áli
r ías</w>
pol vo</w>
chʼo b
bli ca</w>
arrepen tido</w>
ala bar
akʼo pon</w>
L TA
Jer o
Ing later
Babil oni
1 35</w>
óox pʼéel</w>
temp looʼ</w>
nup tan</w>
kya ʼ</w>
ka chˈalal</w>
ik ju</w>
confi amos</w>
chʼolo bʼ</w>
ar ti
KUX LA
x koj
wi tze</w>
wa chi
va dor</w>
tzˈ et</w>
tzʼe qta
to l
te w
su pli
ser ían</w>
qui cʼot</w>
p laj</w>
obje ción</w>
noko oxtenqʼa</w>
men ak</w>
ca jel</w>
c le
béey kun
a ju
X ÑOP
repu tación</w>
pare zca</w>
pa al</w>
o te</w>
o p</w>
koʼo l</w>
con qui
ch paabʼanel</w>
an t</w>
Tsʼo ʼok</w>
x em
táa k
tspa sike</w>
tojo bta
mo r</w>
le mal</w>
koʼo biʼ</w>
ejer ci
bil oni
añi mil</w>
Q ʼu
xki bʼan</w>
tso lik</w>
ta ya</w>
mon ía</w>
mencion ó</w>
koʼo baʼ</w>
diri ge</w>
bis kuba</w>
ab or
a qeju</w>
P añimil</w>
KYANQʼI N</w>
KUXLA KOʼON</w>
J ON
waja li</w>
val ores</w>
s pʼa
much edu
libr o
UN A</w>
I SA
yu m</w>
xyî b</w>
u x</w>
ter r
ta ka
sin tamos</w>
muj bʼabʼil</w>
ma ʼn</w>
lo etik</w>
jo ßcan</w>
fer encia</w>
co lor</w>
a kʼan</w>
xchʼu n
x q
vu estra</w>
táa kaʼan</w>
tra tan</w>
tami w</w>
mi yon</w>
jen oʼ</w>
j pʼ
en temente</w>
com un
beilta seletik</w>
a se
XÑOP TʼAN</w>
KA ʼAN
CH ʼA
A qu
1 11</w>
x ʼa
peri o</w>
ok slabʼil</w>
minu tos</w>
li b</w>
i lal</w>
con ec
ch qi
X in
Pablo oʼ</w>
L le
Apoka lipsis</w>
ñ u</w>
yaabi la
vali oso</w>
sa k</w>
ru bʼanon</w>
quiz á</w>
o choch</w>
m ía</w>
l to</w>
k ˈ</w>
encuentr an</w>
ca m</w>
bo chʼo
ba yel</w>
Willi am</w>
Bauti sta</w>
tuku lt
s ci
pri ori
po se
musi qʼej</w>
i ca</w>
chiqui wech</w>
E MP
w ʌl</w>
táan kel
pe dia</w>
kíi m</w>
k kaj</w>
j áal
i j
Watchto wer</w>
1 23</w>
xchan u
we ʼes
vivi rán</w>
ma ama
lin ik</w>
d ante</w>
braz os</w>
Yo ur</w>
1 16</w>
til bʼilal</w>
raho k</w>
op inan</w>
ju ʼ</w>
cʼo ti</w>
ac ʼo</w>
Sal ud</w>
P R
D em
Abi ga
ʼa j</w>
xan e</w>
visi tas</w>
uya ʼik</w>
kaw bˈil</w>
i chin
desa fí
ax aj</w>
L is
E TIK</w>
A ni
xuʼul sik</w>
x chan</w>
x bʼanatäj</w>
términ o</w>
tin ta
su yos</w>
recha zar</w>
q witz</w>
pro cu
le tra</w>
jchiʼ intik</w>
Es tas</w>
1 34</w>
Ó O
vali osas</w>
tala miloʼob</w>
slaje bal</w>
i m</w>
hici eran</w>
d onia</w>
chßî chß</w>
al bil
T ú</w>
yuʼubi kuba</w>
sta r</w>
sna ʼo
lesi as</w>
e za</w>
a kʼ</w>
Koʼo neʼex</w>
Bi ble</w>
toj bal</w>
s kʼel</w>
kʼa t
jni ˈ</w>
doc tr
châ lk</w>
ch bʼen</w>
ce lular</w>
bochʼo tic</w>
Po tif
F ami
B Λ</w>
xa ʼi</w>
voʼne e</w>
resuci tó</w>
p eso</w>
lu cha</w>
ko t</w>
jun jun
dis tri
conf li
chaʼ voʼ</w>
S U</w>
Estudi antes</w>
vu les</w>
ta wiʼ</w>
skʼan o
nuuk ta
na cimiento</w>
l v</w>
kyaqil x</w>
gener ación</w>
fide lidad</w>
ay in</w>
afi rma</w>
S A</w>
yʌ qʼue</w>
xíim ba
tzo lok</w>
temp ʌ
s tsʼu
ruu q</w>
medi os</w>
ky naʼn</w>
ko rik</w>
j se
consi dera</w>
cen a</w>
celebra r</w>
be d</w>
b la
alo qʼo
TEX TO</w>
ë x</w>
súutu kil</w>
roch beneb</w>
ro x</w>
re yil</w>
para fo</w>
kʼáat chiʼi
kʼ ej
kajaʼan oʼob</w>
ciu dad
ale gra</w>
Je hú</w>
ya q</w>
ya lal</w>
túux taj</w>
tsa j
sam äj</w>
sab ían</w>
s ú
man dado</w>
jo on
cán cer</w>
cu bij</w>
Joh n</w>
sinago ga</w>
sali eron</w>
in ak</w>
di vin
bú s
al ó</w>
ad vir
Y I
MAN OS</w>
LEC CIÓN</w>
Antio quía</w>
14 4</w>
ts tunes</w>
tor menta</w>
runa ʼoj</w>
qa mi
qa chuqʼabʼ</w>
on ce</w>
kyja luˈn</w>
j be</w>
gen tiles</w>
co j</w>
br o</w>
agra dable</w>
SLE MAL</w>
H az
A un</w>
ser piente</w>
o kik</w>
ni cˈ
nekeʼ raj</w>
muu kʼoʼ</w>
kiʼi j</w>
kaj tal</w>
an k</w>
an alí
abund ancia</w>
HAC ER</w>
BI L</w>
yʌ qʼuen</w>
u kʼaslemal</w>
tukli koʼob</w>
tes oro</w>
presenta ción</w>
ni le</w>
na abʼalebʼ</w>
hacer le</w>
em pa
chi ʼi</w>
cha sikʼij</w>
bʼa j
ancian oʼob</w>
CI A</w>
A K</w>
nu kʼüt</w>
meyaj tikoʼob</w>
kʼun kʼun</w>
k tik</w>
jsa ʼtik</w>
chʼix pu
ca e</w>
bo les</w>
4 ,000</w>
yóo taj</w>
va yan</w>
ten qʼ</w>
quin ojel</w>
nak tech</w>
jan ina</w>
j kʼaxel</w>
KʼA SLEMAL</w>
kaʼa j
ja pun</w>
c á
Re ho
1 12</w>
r ûk</w>
la men
cu e
bʼan aʼ</w>
a ye</w>
a tu
No qtzun</w>
Mari ae</w>
Ch mabʼil</w>
y â
res e</w>
ju ʼe
im pri
g or
fi gu
escuch ó</w>
disposi tivos</w>
deber ían</w>
cu aj</w>
T â
Se de
M BI
Breta ña</w>
ñus ʌ
xa kʼ
via jar</w>
slivro al</w>
po ol</w>
loqʼo qʼej</w>
lleg ará</w>
kin ba</w>
cʌ qʼuen</w>
achi ke</w>
Cu i</w>
B ej
w bʼaj</w>
to yole</w>
sobre llevar</w>
natura les</w>
en el</w>
demostra do</w>
dedi car</w>
ca u</w>
c y
ay niwan</w>
Testi iw</w>
SKʼOP LAL</w>
Kan an</w>
Ci ro</w>
CH I</w>
óli co</w>
rego ci
p es</w>
ofreci ó</w>
levi ta</w>
kin aʼ</w>
jun xitl</w>
i sujm</w>
fi estas</w>
abʼa anu</w>
xnaqʼtz an
si heb</w>
q oʼ</w>
pʼáa t
pʼu ʼu
pe cador</w>
nqa tamaj</w>
ma taj</w>
ka w</w>
hermo so</w>
a ajel</w>
Su r</w>
ya ˈ
vi van</w>
ta li
ox lo
naʼa jej</w>
mos le</w>
loj ri</w>
li sto</w>
kʼusi tike</w>
jtojo laltik</w>
il toq</w>
gi dos</w>
estre llas</w>
ba ʼex</w>
b t</w>
ancian oetik</w>
a il</w>
3 00</w>
ár boles</w>
yalo bil</w>
xya alal</w>
t qil</w>
s baj
n er
kaʼaj wiʼ</w>
destru ir</w>
chʼu lew</w>
are a</w>
ten cias</w>
ru samaj</w>
r ê
podr án</w>
nekeʼ xbʼaanu</w>
cumpli do</w>
cono cen</w>
cha m
Isra ele</w>
I m
200 4</w>
vini ke</w>
t ʼo
pron unci
Ts ʼíi
Jeho safat</w>
D O
Cre e</w>
xi m</w>
ven za</w>
su kß
s tan</w>
mo qon</w>
li no</w>
in chʼool</w>
es enci
cßa m</w>
chʼu jul</w>
beiltas el</w>
A n</w>
20 16</w>
tz an</w>
tsoble jetik</w>
t ʼi
swenta il</w>
lt bil</w>
juz gar
dese amos</w>
cho k</w>
amen a
KU TIK</w>
1 21</w>
tâ cuânk</w>
tuuku loʼob</w>
ttzi yen</w>
su elen</w>
si tic</w>
san til</w>
kyaj bʼen</w>
alaban za</w>
Ti ro</w>
E k
É XO
ÉXO DO</w>
ten gas</w>
ta aj</w>
sobre vivir</w>
ro ksi</w>
pre juicios</w>
m ô
kaw aj</w>
kakʼ beytik</w>
fi ca</w>
a z</w>
T siʼ</w>
G RA
B ara
u lem</w>
st ó
pla ta
pa tr
o yu
hospi tal</w>
escri be</w>
Re cor
Ho mbre</w>
tzʼaq on
tsikba ltik</w>
ten e</w>
t bʼi
san tu
pa jel</w>
na be</w>
lla mar
la y</w>
l l
kyo k
kar ta</w>
jun túu
escri tos</w>
de le
analí celo</w>
a kʼaj</w>
Kʼ I
F e
Bʼa ʼn</w>
10 1</w>
é stos</w>
áni co</w>
xki chʼtik</w>
utili zar</w>
tqˈ oˈn</w>
o crá
m bra</w>
laje m</w>
kal beytik</w>
kajnáa liloʼob</w>
jolo min
ja yeb</w>
gü en
c ante</w>
TA R</w>
PRI MER
yu j</w>
tala m</w>
t kyaj</w>
re cursos</w>
propor cion
nuj pun
kʼope tike</w>
ki j</w>
kaʼan saj
jaˈ lin</w>
ila q</w>
ar monía</w>
ad on
Le ví</w>
xʼi xic</w>
tâ na</w>
sma jij</w>
sien tan</w>
s tes</w>
ro stro</w>
q ximbʼetz</w>
payal chi
meje bʼ
lle gan</w>
k chʼaw</w>
bˈ aj
Sig nifi
Segun da</w>
Quiz ás</w>
Pen semos</w>
Bej la
A jaw</w>
ʼan oʼoboʼ</w>
yaj nil</w>
ta x</w>
r y</w>
pro stitu
polí ticos</w>
pen as</w>
pasa mos</w>
maʼ q</w>
machʼa tic</w>
kat kunik</w>
for ni
cumpli endo</w>
chwin qlal</w>
S ja
Ef ra
yuʼu baj</w>
yoʼ yo</w>
tzʼe tbʼäl</w>
tempʌ bilob</w>
ro manos</w>
ra dores</w>
ka pa
intro du
est ando</w>
com ba
cam si</w>
bi leb</w>
apari encia</w>
ala lil</w>
Aja f</w>
ʼI L</w>
slu ma
ra stre
prove cho</w>
mintiʼ toq</w>
la am</w>
esper ando</w>
detal le</w>
cuar to</w>
aver igu
R y
Bro ad
20 0</w>
tro mpe
t joj</w>
res inkil</w>
ra m</w>
preocu par
pe tziˈn</w>
ni ca</w>
kiʼimak chaj</w>
j no
j kʼel</w>
j ese</w>
i lin</w>
fí sica</w>
esta tu
e pi
cˈo jeˈ</w>
cha mos</w>
adul tos</w>
a tz
O j
Gabri el</w>
yô quin</w>
yo ok
xa ʼiik</w>
tsa y
swo lol</w>
pak bʼal</w>
na ˈ
le bʼa
gar anti
bier to</w>
bi sikba</w>
b r</w>
T za</w>
Na me</w>
xchʼu l</w>
w el</w>
tra te</w>
smu lan</w>
refer irse</w>
qu ec
per í
me t</w>
chi laʼ</w>
an em</w>
am pli
Su dá
A kʼa</w>
1 26</w>
tuʼn tzunju</w>
re j
pala cio</w>
na ʼo
mora l</w>
ke qa
ci li
bo l
U R
x la
ter cer</w>
qʼu qil</w>
o kx</w>
kʼa la
ab rió</w>
Ní ni
L AN
Inglater ra</w>
Eno c</w>
resuci tar</w>
po tencia</w>
l xix</w>
kuxi ik</w>
k tel</w>
interes es</w>
J in</w>
A do
tzal u</w>
kʼo tem</w>
di cia</w>
ba eʼ</w>
ad don</w>
Jun pʼéel</w>
wo k
sa gra
res er
o etike</w>
nqa joʼ</w>
laʼan inkil</w>
fi cado</w>
es be</w>
clo pedia</w>
agrade cemos</w>
V al
Roma iloʼob</w>
J kʼel
Ita lia</w>
E uni
Cri st</w>
Al lí</w>
ʼi ʼ</w>
yaʼi ik</w>
s kuxlejal</w>
ku lo</w>
hábi tos</w>
cab ʌ
awu ʼun</w>
w ée
utsʼa t</w>
tza ʼn</w>
qʼu ele
qas äx</w>
ja kʼ
distin tas</w>
conta min
constan temente</w>
com unidad</w>
cha vi
cer e
asegur ó</w>
Lo kʼol</w>
KʼU TU
D escu
tun esel</w>
tna jsa
stin g</w>
skolta yat</w>
reve la</w>
neces arios</w>
En señ
Ba qui</w>
tâ rûk</w>
reliji one</w>
qʼa j
núu kik</w>
n în
mi lale</w>
maʼalo bil</w>
lan da</w>
i do
expres ar</w>
apren der
an in
Jerusal ene</w>
Broad ca
tz ali
qʼo n</w>
nxi mane</w>
nicˈ aj</w>
muchí si
ma da</w>
k aba</w>
in cli
ho mak</w>
estu vieron</w>
ele gido</w>
Wi ibʼ</w>
Ti ene</w>
P r
J ac
E taʼmabʼal</w>
Cßa ß
COR O</w>
x un
x ma
ts kolta</w>
ta ˈ</w>
qʼa qʼ</w>
q kʼë</w>
pro ceso</w>
predi camos</w>
lu c</w>
je ʼe
cuenta eʼ</w>
co lem</w>
Reho boam</w>
10 n</w>
tsay pach
recuer do</w>
n ïk</w>
lágri mas</w>
goberna dor</w>
d al
cu ya</w>
C ab
ído los</w>
x be
sta k</w>
q oya</w>
poli cía</w>
o li
nu mer
lan em</w>
jchi ʼi
ca li
alcan ce</w>
T SA
Prepar e</w>
Ni m</w>
Kʼa ʼut</w>
JO B</w>
CH OS</w>
ín ese</w>
yaʼali koʼobeʼ</w>
tu mba</w>
si tinta
re du
ra to</w>
pri mo
poʼo t</w>
mision ero</w>
ju eces</w>
ji ik</w>
car les</w>
SI TIK</w>
4 8
áa xeʼ</w>
ya c</w>
ve o</w>
svoko lik</w>
sa cu
sa ble</w>
queß xye</w>
péek tsiloʼ</w>
preocupa ciones</w>
médi cos</w>
kʼamo ʼn</w>
kíi mik</w>
jnop betik</w>
jin tel</w>
cti va</w>
ci ónoʼob</w>
bi enes</w>
beet koʼoboʼ</w>
adorar taʼal</w>
T BʼANEL</w>
Algun as</w>
priva cidad</w>
m bo
l 10n</w>
ga stos</w>
entreg ó</w>
ch chʼa
bʼtes i</w>
aʼye jetik</w>
ab solu
Ruwa chʼulew</w>
xkʼu tbʼ
xi e</w>
wini ke</w>
tye kʼun</w>
tsʼoʼok keʼ</w>
ti ya</w>
testi iw</w>
tar me</w>
n í
káa jak</w>
ju ju
descar gar</w>
can tar</w>
So lo</w>
N aʼ
IMPORTAN TE</w>
x tzolom</w>
tsikba lti
qˈ ij</w>
la mente</w>
kʼane lal</w>
k xan</w>
har emos</w>
eʼ es</w>
b ʌl</w>
antigu os</w>
Y éetel</w>
Níni ve</w>
Me yaj
Ju ec</w>
G I
ʼaati nak</w>
yu t</w>
seri e</w>
s bil</w>
ro so</w>
prepar ados</w>
paa ch</w>
mam bʼaj</w>
len tos</w>
kʼáatchiʼi loʼob</w>
aa chʼool</w>
Jun jun</w>
sen tí</w>
le mos</w>
l x</w>
jtak bo
jchʼuun jeletik</w>
hon rar</w>
aʼa l
ar las</w>
al ma
acu sa
E Z
2 Ti</w>
ʼo biʼ</w>
ü j</w>
xava kʼ</w>
muchedu mbre</w>
lajun eb</w>
ju ven
j likes</w>
experi men
egip cios</w>
condi ciones</w>
aʼ yej</w>
Sudá frica</w>
M ace
Broadca sting</w>
yu bin</w>
ww w
vivi do</w>
tzaqʼwe bʼil</w>
salv aje</w>
ri tos</w>
re fi
pre va</w>
peli gros</w>
destru ido</w>
ISA ÍAS</w>
A SI
14 3</w>
pa tri
ora l</w>
kki bʼij</w>
junjun q</w>
i kun</w>
echʼ em</w>
deja mos</w>
cru el</w>
cristi an</w>
contes ta</w>
ai re</w>
Ry ä</w>
5 000</w>
qui leb</w>
j kʼakʼa
i kʼ
esi ones</w>
dej ará</w>
antigu a</w>
ab rir</w>
Su cur
N avi
óola loʼ</w>
x taq</w>
win el</w>
vícti mas</w>
tix qßue</w>
pas ará</w>
mu la
maa ma</w>
lan dia</w>
ki t</w>
k ïl</w>
g aba</w>
es par
en oj
empie za</w>
aʼali keʼ</w>
activi dad</w>
Tuˈn petziˈn</w>
LE Bʼ</w>
yéete loʼob</w>
qu ʼne</w>
maa ʼu
kontra inel</w>
ji kib</w>
indi có</w>
in chßôl</w>
dis tan
cʼu sitic</w>
E ch</w>
Di luvio</w>
Andr és</w>
stu untes</w>
proble ma
luch ando</w>
ini cu
ha ci
er me</w>
ba biloni
añ o
adul terio</w>
a ik</w>
TE MA</w>
K ili
EJ TIK</w>
A E</w>
tspa t</w>
to mado</w>
seri o</w>
qʼa man
pijta ya</w>
oni c</w>
obede cen</w>
nima q</w>
na ßleb</w>
men aq</w>
k pe</w>
jloʼi ltik</w>
j ti
di cha</w>
ca lidad</w>
a xal</w>
K e
Ba laam</w>
3 7
yaʼ te
xáan tal</w>
vuel va</w>
ts oʼo
to ltik</w>
rápi damente</w>
rebe l
raj wa
pej ca
mo der
me lol</w>
li keb</w>
kʼa ʼuxl</w>
kaʼi ʼ</w>
escri bas</w>
electróni co</w>
dé bi
distin tos</w>
che ʼ
acer carse</w>
3 000</w>
î banbil</w>
xa kʼik</w>
s ten</w>
pre fer
mal tyo
jas che</w>
des anima
- 3</w>
ʼ jin
tradu cir
pu liʼ</w>
ma la
le ja
la ba</w>
kʼaʼay tik</w>
ko pan</w>
fa z</w>
escri tor</w>
an kil</w>
an aʼ</w>
S TE
Ka jaw</w>
10 ,
ts éel</w>
qʼa laj</w>
no xtok</w>
mô s</w>
lu ke</w>
ky wiʼ</w>
kolta at</w>
apó sta
al batik</w>
R AS</w>
JCHʼUUN EJTIK</w>
monta ñas</w>
kʼ ta</w>
estable cido</w>
cʌn tan</w>
ac ci
CA MBI
ñ ʌl</w>
ve le</w>
skʼo b</w>
pʼée liliʼ</w>
jun paat</w>
jun i
guar dar</w>
em erg
deci de</w>
b ʼu
an he
a qˈ
a gar
E chos</w>
w 18
sa br
in acti
edi ción</w>
T on
Ma go
1 24</w>
ñʌchʼ tʌlel</w>
yoʼtan e</w>
xko mon</w>
x pa
sni chʼna
satis fe
o que
man da</w>
le ón</w>
jun pʼíit</w>
jel tos</w>
exa ctamente</w>
dire ctamente</w>
bús queda</w>
a teʼ
Potif ar</w>
P A</w>
Min is
L ab
A CH
xe wbʼaj</w>
w bʼil</w>
s pʼijil</w>
s ar
recuper ar</w>
reci b
o te
menti ra</w>
la letik</w>
gobern antes</w>
en ví
en u
dor mir</w>
bejla ʼa</w>
A ri
yu ji
ru wiʼ</w>
perman ecer</w>
pari entes</w>
nka joʼ</w>
cre cer</w>
cabe zas</w>
bʼan an</w>
be teli
ani ʼ</w>
S í
G EN
xíim bal
wu jil</w>
tja qʼ</w>
ru chqʼaʼ</w>
qʼa laj
qa san
nna ʼne</w>
na me
lo eʼ</w>
deci didos</w>
casti gar
Jesú soʼ</w>
CHA ʼAN</w>
A caso</w>
A bʼanan</w>
x jaw</w>
ts ʼel</w>
refu gio</w>
qui ˈ</w>
permi ten</w>
pa le</w>
p ʼo
ki wank</w>
di gan</w>
der ro
cß al</w>
ca sado</w>
bʼa anu</w>
Necesi dades</w>
KʼU SITIK</w>
JEʼ EL</w>
wak les
super vi
stsʼiba y</w>
ru s
na xnaw</w>
llo rar</w>
h in
exper tos</w>
esti lo</w>
em po
chu mu
cha pan
bˈi ˈn</w>
achi jabʼ</w>
En cy
yéeya ʼanoʼob</w>
tzi jo
s teo</w>
qi ʼn</w>
obe diente</w>
neutra les</w>
mu estre</w>
mi dad</w>
mele yob</w>
koʼtan tike</w>
ini dad</w>
hier ba</w>
gan ado</w>
envi aron</w>
descu brir</w>
cha wäch</w>
cer tifi
aba ik</w>
a xik</w>
Si empre</w>
No e
Fami lia</w>
A PO
ín ci
x paabʼal</w>
oque bâl</w>
n tiˈ</w>
j tuk
hi c</w>
farise o</w>
O ksi</w>
No sotros</w>
Ge org
C RE
wojée ltik</w>
volun tarios</w>
tku bˈ</w>
tijic ñ
ti joj</w>
ri yit</w>
q el
na q
domin go</w>
ce der</w>
béey chaj</w>
ben dice</w>
archi vo</w>
T oʼoneʼ</w>
Kili ʼich</w>
Ces area</w>
yuʼubi koʼob</w>
ye ki
ya jil</w>
utsʼa tax</w>
tx in</w>
tuvi eran</w>
trabaja dores</w>
ri yaˈ</w>
ni mal</w>
mu lile</w>
koju toʼ</w>
jta betik</w>
i z
distri to</w>
cre es</w>
TA Q</w>
Kʼaasil baʼaloʼ</w>
Es paña</w>
Ca leb</w>
AJ U</w>
xkʼu l
xchʼu nik</w>
téen jea
tesor os</w>
tar es</w>
poli ti
per sa
lle gamos</w>
kʼaʼan aʼan</w>
k ta</w>
jla lil</w>
descri be</w>
de u
cu y</w>
ci era</w>
chi caj</w>
ch es</w>
bʼi lebʼ</w>
IMA G
Cri sti
xlo qʼo
tz ʼu
trabaj an</w>
stsa l</w>
sto l</w>
se cre
rajwa xic</w>
q xi</w>
na do</w>
leg al</w>
i tzelal</w>
en tal</w>
cal le</w>
ca menak</w>
X I</w>
L in
EN TO</w>
ñe lob</w>
x yan
tu baʼob</w>
tkyaqil jo</w>
ti bʼaj</w>
taata ʼob</w>
su yo</w>
r el</w>
pʼʌ t
pa am</w>
ni c</w>
fá ci
dor mi
ala bar</w>
Tuláa kal</w>
Q aa
MAʼA LOB</w>
Jéeoba iʼ</w>
AL GUN
ñu qʼu
yúu ch
yi kʼaluk</w>
xa e</w>
x qʼax</w>
tzʼa qa
tx ʼol
teʼ exeʼ</w>
sufri do</w>
p ë</w>
mo do
ki chʼ</w>
jkolta tik</w>
inter nacional</w>
i chʼ</w>
ex presiones</w>
com puta
cha jaʼan</w>
Tuʼn ju</w>
Pu bli
O li
Kʼáa t
Es tos</w>
E QUI
xuʼul saʼal</w>
volu men</w>
tojo btasel</w>
tin ye</w>
semana aʼ</w>
sal vo</w>
re pren
qʼama ʼne</w>
pedi mos</w>
on il</w>
mi ke</w>
kʼu lubʼa</w>
esfuer zan</w>
er n
de presión</w>
cßa mo
cono cemos</w>
co lab
bra r</w>
S kʼan</w>
yubi ñob</w>
xch ʼun</w>
semej ante</w>
qa laˈ</w>
och em</w>
Q E</w>
Jo be</w>
Ca i
zon as</w>
vini eron</w>
tra taba</w>
t ne
t kˈ
recono ce</w>
permi tir</w>
pasa ba</w>
p ér
ni ʼ</w>
naʼa j</w>
m é</w>
a yon</w>
Ru chʼaʼäl</w>
J to
Evangeli os</w>
C ʼaj
A u
wi j</w>
pâ b</w>
per na
ko liyal</w>
joskß il</w>
TRA R</w>
xo ki
woco lix</w>
tan ia</w>
sí mbo
ru bʼe
re et</w>
razon able</w>
que te</w>
chʼex paj</w>
che ʼo
bˈ l</w>
bendeci r
au dio</w>
Pi ense</w>
x kʼüt</w>
tem pr
t xok
s ara</w>
mili tar</w>
kʼul maj</w>
ho mo
hermo sa</w>
eman k</w>
di to</w>
chʼu n
bʼa lebʼ</w>
ama bles</w>
Estu dio</w>
C an</w>
10 7</w>
twu tz
se c
respon sable</w>
que dado</w>
que br
profes or</w>
pas aron</w>
kal máak</w>
jtojo ltik</w>
cha wil</w>
bʼan ö</w>
beet maj</w>
b ora</w>
ayu den</w>
an dando</w>
adon de</w>
PR OV
Ir landa</w>
Bara c</w>
yichʼo jik</w>
victori a</w>
solici tud</w>
pon gamos</w>
parec en</w>
mel bil</w>
kermanotak tik</w>
gen eroso</w>
cristi ano
chíik besik</w>
balu milal</w>
ar tal</w>
U zías</w>
Ten eʼ</w>
S ar
Re visita</w>
ON I
N A</w>
CH PAN</w>
ñi j
áan t
x ʼe
w ut</w>
ttzaqʼwe ʼn</w>
traba jos</w>
tnajsa ʼn</w>
rein ar</w>
ora ba</w>
o yó</w>
mbi l</w>
ma jaʼ</w>
la dr
ky onin</w>
je che</w>
confi able</w>
ama bilidad</w>
Jo el</w>
Jesu kri
vu elta</w>
vi e
ta skʼij</w>
sa aj</w>
recono ció</w>
qui qˈui</w>
o kem</w>
mi lla
maa jiʼ</w>
k em
cˈu al</w>
ca ma</w>
Ser á</w>
MO R</w>
ó di
x muyubajik</w>
tz in
testigo etik</w>
su m
sinti eron</w>
r ando</w>
páaj chaj</w>
pu k</w>
lokʼ esel</w>
ilaʼa k</w>
es o
dis tra
defen der</w>
có digo</w>
chʼ e</w>
bi loʼob</w>
advir tió</w>
Ru b
Qaa waʼ</w>
Pu es</w>
JA KU</w>
J o</w>
G O
w mank</w>
veci nos</w>
taak tal</w>
t yolin</w>
satisfac ción</w>
queß côeb</w>
ni ka
ki loʼ</w>
jteklu me</w>
fra g
en s</w>
cu brir</w>
aca ba</w>
a kuxlejal</w>
VEN TA</w>
TOJO B
T r
ʼn chel</w>
úuch ben</w>
yij kita
ya jel</w>
xlokß al</w>
sé pti
solu cion
re tik</w>
person ajes</w>
nima ß</w>
mal äj</w>
kaʼa téen</w>
che t</w>
F OR
Ex pli
En tre
ʼnton ic</w>
ñ am</w>
pen sado</w>
pa usa</w>
na u</w>
kle t</w>
kin ta
decep cion
cʼ lel</w>
baʼa lak</w>
ba sado</w>
anali cemos</w>
F o
D ES</w>
Ï L</w>
yal botik</w>
terri torios</w>
taman oʼob</w>
si len
qßue heb</w>
pon drá</w>
jóo kʼ
i xok</w>
er le</w>
d ne
chʼaʼaj ko
ajvali letik</w>
I li</w>
1 31</w>
y bil</w>
xu ʼjil</w>
ts ʼal</w>
re paso</w>
pobre za</w>
kʼu b</w>
j tos</w>
ido la
encar gó</w>
cabal lo</w>
bre ve</w>
ar ma
a las</w>
QA TZO
N atán</w>
yu bil</w>
wi ts</w>
usi kʼixik</w>
ttx laj</w>
tsa kal</w>
ti koʼon</w>
sufri ó</w>
reaccion ó</w>
peri ódi
neces arias</w>
muʼ to</w>
ka tu
je laʼ</w>
impri mir</w>
enseñ ando</w>
emerg encia</w>
chʼ ö</w>
ch chanubtas
a etike</w>
In kʼaʼ</w>
tʼaan oʼ</w>
t wanq</w>
roch ben</w>
per segui
funda mental</w>
fo men
con centra
comuni cación</w>
chʼo nïk</w>
WAN EJ</w>
PRIMER A</w>
Euni ce</w>
Ana li
AN I
xtz ß
waj o</w>
sma li
sa m</w>
proyec to</w>
kʼub é
ki qʼij</w>
kapa aj</w>
esper amos</w>
escla vi
enten der
car ía</w>
ca xlan</w>
a ya</w>
Nu estro</w>
D ama
A ca
20 23</w>
xu bʼano</w>
xna ʼ</w>
tqʼi jlalil</w>
nuukta kil</w>
chava kʼ</w>
avu ʼune</w>
al be
x num
su ele</w>
p ʼun
jiñ ic</w>
j t
extre mo</w>
eter nidad</w>
av es</w>
O TROS</w>
Mace donia</w>
Ma ʼuk</w>
J NA
CHAN RU</w>
A nu
A B
14 4000</w>
yal xan</w>
ven tana</w>
s ku
re xti
qa qʼij</w>
maravillo sas</w>
kʼuh taaj</w>
kʼiin oʼoboʼ</w>
ju e
h t
cä ca
com pro
circunci sión</w>
cho p</w>
ban on</w>
a ec</w>
S OS</w>
O h</w>
Lok ˈ</w>
E X
Con go</w>
y âlal</w>
terremo tos</w>
se d</w>
ruchi ch</w>
or arle</w>
mue ve</w>
kˈala j
ker em
influ ir</w>
i c
co jon
aʼ lebʼ</w>
an tike</w>
Se gu
Mi ʼn</w>
Bí blica</w>
ʼan oʼon</w>
xu kʼut</w>
xki ʼän</w>
xi ˈ</w>
uts tu
untes a</w>
txʼol bʼabʼil</w>
s cuenta</w>
nu pul
lin k</w>
esta remos</w>
enten dimiento</w>
em ente</w>
dej emos</w>
corre gir</w>
cono cidos</w>
compañ ías</w>
apo yan</w>
a kʼuʼx</w>
S TO
C R
200 9</w>
í aseʼ</w>
z adores</w>
t tzʼibʼin</w>
sa da</w>
plen amente</w>
oj yî
man e
jáal kʼab
el k</w>
dar a</w>
cuen tan</w>
cre ían</w>
conocer lo</w>
bien estar</w>
S VENTA</w>
usa mos</w>
stojo le</w>
snaʼo jik</w>
p lan</w>
kermanotak tike</w>
i chin</w>
en o</w>
dere chos</w>
cua lal</w>
beetaʼa k</w>
a tzij</w>
14 6</w>
ß eb</w>
ya lale</w>
xka mik</w>
vesti r</w>
tr ía</w>
taje ke</w>
re vel
ra das</w>
quixta kla</w>
qu em
me ʼil</w>
kʼaʼabéet tal</w>
ju ʼ
jon to
is t</w>
hal lar</w>
ex sin</w>
ce los</w>
bʼ ene</w>
aca ba
tî quilal</w>
tzʼii bʼa</w>
santu ario</w>
r î
me j</w>
manda miento</w>
l onla</w>
joß caßin</w>
fun ción</w>
e b
cri ti
comple mento</w>
comen zaron</w>
chʼaʼ tuklaj</w>
chikʼ bʼabʼil</w>
chi re</w>
Sede quías</w>
P ʼI
P ol
E j
yajchankʼop tak</w>
oʼon e</w>
nega tivos</w>
mision ero
kʼu chuk</w>
ja mos</w>
im pon
encar ce
contra seña</w>
aʼi el</w>
ata que</w>
ama ble</w>
a hor
X IK</w>
Jer emi
ton e</w>
to maron</w>
te t</w>
relacion ados</w>
perí odo</w>
ky kubʼ</w>
exis tencia</w>
dio se
ch laj</w>
bauti zados</w>
Meyaj naktech</w>
tiki x</w>
taa sik
stojo lalik</w>
senci llo</w>
qʼ eʼ</w>
q ä</w>
pi si
nuʼuk taj</w>
mo lojri</w>
manteni miento</w>
la aʼo</w>
kíi miloʼ</w>
im puestos</w>
f es</w>
e h
defec tos</w>
dedi cado</w>
compañ ía</w>
cin cuenta</w>
al bo</w>
a bat</w>
U TI
Per son
Chi xjun
1, 000</w>
1 38</w>
weʼes ik</w>
ven ida</w>
u kʼuʼx</w>
tecno logía</w>
run uk</w>
prepar ó</w>
jalan q</w>
hospi tala
demostr aron</w>
da dos</w>
chi rij</w>
ani smo</w>
ami g
N CI
Be te
ye m</w>
ten taciones</w>
ta jaw</w>
religi oso</w>
p lal</w>
mo jeʼ</w>
mi rar</w>
lar ga</w>
hor ario</w>
ero sa</w>
débi les</w>
divor ci
chʼʌ mben</w>
chu ʼnchel</w>
bi loʼ</w>
aqu ello</w>
agradeci do</w>
Q AN
NTES A</w>
xa val
tz ajel</w>
tja pun</w>
nekeʼx kʼe</w>
mo da</w>
mer e
m ʌl</w>
inte gri
esco gido</w>
descan so</w>
chan in</w>
cha am
al ter
Ju da
D ali
vi v
val oramos</w>
tiʼ e</w>
tem bʼil</w>
tale m</w>
su minis
ri es
ky na
ky ch
koʼole loʼob</w>
koʼo lta
ki ʼok</w>
e lab</w>
co jol</w>
ch ex
ava lab</w>
af li
a costu
Q A</w>
PUE DE</w>
MA ʼ</w>
JA L</w>
á al</w>
yée yik</w>
we ʼ
u bʼanom</w>
so me
perfec tos</w>
maravillo sa</w>
kʼu xu
kaʼan skoʼob</w>
im pedir</w>
esenci al</w>
desta ca</w>
ch ch
F UN
F U
E ti
xchi k
qʼat öy</w>
kix kʼul</w>
ki kʼ</w>
kan in</w>
je lal</w>
inmora l</w>
g al</w>
estre cha</w>
di ario</w>
ctes ʌ
ba leʼ</w>
afir mó</w>
M aj
A samble
vi endo</w>
sa b</w>
s óli
ru tzil</w>
q ten</w>
pʌ sob</w>
peti ción</w>
partici p
mejebʼ leʼn</w>
kˈ a
j or
in visi
ho gar
entr en
des obedeci
SAL MOS</w>
LA N</w>
Bejla ʼeʼ</w>
yʌl ʌ
yu tsi
yo tot</w>
wa joˈ</w>
tbˈ i</w>
ta truuq</w>
queß xbânu</w>
nqan aʼ</w>
n kʼuʼje</w>
mu qʼu
ja t</w>
j lik</w>
bʼan bʼil</w>
bakʼin tike</w>
ñop balʌl</w>
yaʼali ktoʼon</w>
xo ʼl</w>
xcʌn tʼañob</w>
vo ʼne</w>
ungi do</w>
tram pa</w>
ren unci
ka xti
j le
en fr
des ani
cˈ äx</w>
con fía</w>
Sal vador</w>
K an</w>
F AMI
E se</w>
volver á</w>
voko lile</w>
tzßa kal</w>
trope zar</w>
sal mo</w>
naßa jeb</w>
mí ni
meyaj naj</w>
lle vado</w>
ky mod</w>
ke ʼe
kab ʼano</w>
ja w
invi tar</w>
ino tik</w>
esco ger</w>
cu ban</w>
com pli
bʼ resi</w>
abʼan aʼ</w>
a yewal</w>
Lab án</w>
KAʼAN SA
E p</w>
í ri
xa ʼ</w>
ux la
ts ta</w>
sna ik</w>
ro k</w>
ra miiw</w>
pi dieron</w>
partici pa
núu kil</w>
mu k
kqab ʼij</w>
kani keʼ</w>
esper an</w>
cri sis</w>
cha t
cha p
ccion ario</w>
c encia</w>
ava ʼi</w>
acab ó</w>
yani wan</w>
tin qßue</w>
sukuʼun oʼobeʼ</w>
sajak tal</w>
nu ben</w>
meti da</w>
men tales</w>
lá m
la aʼa
kʼáa ʼn
be oraaʼ</w>
agradeci miento</w>
M yan
Kʼo pon
xu u
xnaqˈ tz
plan te
no q
mil oʼoboʼ</w>
la mal
la m
kʼaʼaj sik</w>
jvoko ltike</w>
fi cación</w>
comen tar</w>
Ja i
Efra ín</w>
E stoy</w>
ÑU C</w>
yaʼ bilal</w>
xti ki
xchi bal</w>
uko jik</w>
tnaʼ na</w>
tar les</w>
stu kike</w>
smelo lale</w>
señ ora</w>
sa ba</w>
güen za</w>
ch ex</w>
Pa al</w>
1 29</w>
y wan
xo c</w>
xkʼo xla</w>
wʌ n</w>
tsoba jeletike</w>
taal oʼob</w>
ra s
na ka</w>
mukʼ xan</w>
li stos</w>
kʼi le</w>
jun al
je chu
idola tría</w>
ch ʼan
b inti
au tén
apli car</w>
De bemos</w>
xo ok
tô nil</w>
to oxtenqʼa</w>
señ aló</w>
pe da
nojbeʼen il</w>
n bʼanatäj</w>
máa kiʼ</w>
ko kʼal</w>
juven tud</w>
ji san</w>
conden a</w>
W in
To dopoderoso</w>
TZ A
É S</w>
xki ltik</w>
u bʼ</w>
terri ble</w>
pre mo</w>
mil la</w>
kki riq</w>
k kʼul
j be
integri dad</w>
i raaj</w>
hubi eran</w>
hac es</w>
ex cep
deci dí</w>
bus que</w>
bo da</w>
aler ta</w>
A mi
x que
x kʼi
uku b</w>
sor presa</w>
peri odo</w>
patr ón</w>
pak lan</w>
kʼ än</w>
invi ta</w>
especi ali
escri ba</w>
e d</w>
co j
ch vinaj</w>
ca t</w>
B E</w>
A Ñ
y ermano
verdader amente</w>
tʼa aneʼ</w>
tuq tuu
tikin ik</w>
ru kß</w>
péek tsil</w>
pâ ban
na etik</w>
en gen
el tik</w>
cí o</w>
cßa ßak</w>
chʌ mi</w>
cha t</w>
ca paces</w>
a tin</w>
Xni chʼon</w>
Tu untesa</w>
T SO
P ʼ
CH ʼO
tze qel
taa tzʼil</w>
ta ti
skʼop lalik</w>
qʼu inal</w>
obser var</w>
fo ye
esfor zarse</w>
ci f
cho chib</w>
bˈ a
a wiʼ</w>
T or
SAN TI
sta kʼo
ru qʼaʼ</w>
qʼa lajin</w>
prekurso r</w>
ni maläj</w>
la ciones</w>
kʼaʼaytaj oʼob</w>
k er</w>
k be</w>
hi stó
e a</w>
ch wä</w>
c lel</w>
U sta</w>
Q ilaq</w>
MAR COS</w>
LA Q</w>
ʼjin k
xnaqʼtzan kuya</w>
tix kʼe</w>
nej enel</w>
ne k</w>
llev aban</w>
kˈ alaj</w>
kaab oʼ</w>
k ta
k ba</w>
jela vele</w>
inmora les</w>
inici ati
enla ce</w>
dé cadas</w>
di gi
con texto</w>
compar ación</w>
come tió</w>
come ter</w>
amor oso</w>
Res puesta</w>
No po</w>
Mago g</w>
ʼI N</w>
ya lok</w>
x tin
tz eʼ</w>
tuukul nakoʼon</w>
pon emos</w>
po q
matrimoni os</w>
le va
l y</w>
ko y</w>
don ate
característi cas</w>
can ane
ca mel
JE RE
H aba
ê lk</w>
yaʼab kach</w>
ti smo</w>
teßx qßue</w>
t kʼujlabʼil</w>
sjo jkʼo
se pul
po pu
oto qxi</w>
nqa tzʼët</w>
na wajo</w>
kʼu ch
ky nim
jo t</w>
jacʼ bal</w>
evangeli o</w>
disposi tivo</w>
Y e
z aban</w>
yʌ cʼob</w>
s je
produ cir</w>
l oʼobaʼ</w>
kqa koj</w>
ke t</w>
ju dici
idio ma
i wi
dio so</w>
depen de</w>
chaab ʼi
b tes</w>
ar o</w>
Y áaxeʼ</w>
Timo te
T in
Di ce</w>
y áa
xuʼu luk</w>
u jtel</w>
to me</w>
taj oʼob</w>
spa toj</w>
rebe li
quisi tos</w>
qu ej
pasa je</w>
p úu
oscu ridad</w>
kʼi ta
kíim saʼal</w>
ky yol</w>
kri l</w>
ki toʼik</w>
jaʼuk nax</w>
j oʼob</w>
j mul</w>
forma do</w>
e mik</w>
chʼo bʼ</w>
chʼ en
agra da</w>
1, 0
tso tsu
solu ción</w>
pa ʼn</w>
noo kʼ</w>
na r</w>
mar a</w>
fi ca
exa cto</w>
ejerci cio</w>
co lum
ca lor</w>
ani leʼ</w>
al kʼop</w>
Cam er
2 40</w>
ve y</w>
táa j</w>
tzʼaqon k</w>
qa wiʼ</w>
nin ye</w>
kʼu pi
k os</w>
exis ten</w>
e dades</w>
dur os</w>
célu la</w>
bar ro</w>
tojo btesel</w>
slo ʼil</w>
qan aʼoj</w>
pi den</w>
náa tsʼal</w>
kʼuq bʼäl</w>
kʼa y
jun ta
j bi
grie ga</w>
em lel</w>
co r</w>
cha qʼrabʼ</w>
bi leʼ</w>
aja winel</w>
ador arlo</w>
S PASEL</w>
Hebre as</w>
F u
Cristo eʼ</w>
yaj rexti
ti xye</w>
sab es</w>
ofici al</w>
ni maʼq</w>
ne la</w>
mencion an</w>
ma dera</w>
la t</w>
kʼach ariik</w>
estr o
dé bil</w>
co dicia</w>
car lo</w>
abatin el</w>
TO O
L í
I mi
G al</w>
De ber
ALGUN OS</w>
ti no</w>
tar los</w>
ta tx
person almente</w>
kax t</w>
fr anc
estable cer</w>
er la</w>
des preci
bar ca</w>
TA R
NAʼ LEBʼ</w>
Me jo
Kʼ o</w>
De u</w>
BI OS</w>
Aj valil</w>
táan kelem</w>
tra erá</w>
ter o</w>
te ltik</w>
su ra</w>
reflexion ar</w>
meya joʼ</w>
kyan qʼibʼil</w>
ku u
jun etik</w>
h chiʼ</w>
donate jworg</w>
chu lew</w>
Maʼa ñic</w>
K in</w>
C at
xtenqʼan kilebʼ</w>
revi stas</w>
re quisitos</w>
qui eran</w>
qa chi
posi bilidad</w>
plata forma</w>
obede cemos</w>
kami kal</w>
je ʼel
j lo
emp la
beel oʼoboʼ</w>
aj o</w>
a chï</w>
MU ʼ</w>
D ar
AD N</w>
A MOR</w>
yíi cham</w>
y er
xko m</w>
twi tz
te choʼ</w>
s kuxleja
ro k
presenta ciones</w>
pe cʼlel</w>
kyu kˈa</w>
ig lesias</w>
dr enu
di tos</w>
descu bierto</w>
cß anjel</w>
Ten emos</w>
Sucur sal</w>
Re pública</w>
PRI NCI
EZ EQUI
A Kʼ
2 2
xij muyubaj</w>
x sach</w>
txok bʼil</w>
tsi lil</w>
ts laj
tiki rel</w>
sube ñonla</w>
s che
re taman</w>
op ía</w>
op ción</w>
na ʼojbʼal</w>
kaʼan saʼal</w>
di as</w>
chê ru</w>
Uste d</w>
K ar
Cristo oʼ</w>
CH Ë</w>
Anu ario</w>
A su
yaʼalaʼa l
utili zó</w>
toj jo</w>
ten oʼ</w>
smu kʼulin</w>
re empla
quixta ñu</w>
nar il</w>
cion e</w>
apropi ado</w>
Mi ra</w>
Dama sco</w>
ʼ ON
yu bi</w>
yi kʼ</w>
xti k
v re
tsa j</w>
ta ji
poder osos</w>
paab ʼan
ob eʼ</w>
le j
l jo</w>
ky wu
dej en</w>
chúuk paj</w>
apaci bilidad</w>
a yotik</w>
M as
Imag ínese</w>
EZEQUI EL</w>
ʼaati naq</w>
Á AN
yuʼu boʼob</w>
w s</w>
u wiʼ</w>
tradu cir</w>
so le
sla jel</w>
ora e</w>
nqa ʼij</w>
musi cal</w>
lí der</w>
lan a</w>
kʼe lik</w>
ja luk</w>
j woko
ic r</w>
for man</w>
dese aba</w>
cˈas lemal</w>
afir ma
Pau l</w>
Navi dad</w>
Minis terio</w>
LA J
4 7
ón oʼoboʼ</w>
xta u</w>
xoo koʼob</w>
v é
u va</w>
ta ble
prácti cos</w>
maj tan
llu via</w>
limi taciones</w>
kana ak</w>
k oʼoneʼ</w>
e tic</w>
corre r</w>
c lic</w>
ari amente</w>
aku x</w>
XU ʼ</w>
Ro bert</w>
J LEL</w>
xjun kabʼal</w>
wa cami</w>
ts ʼik</w>
ts kʼel</w>
sal en</w>
q bʼiʼn</w>
mar ca</w>
kʼáatchi ʼob</w>
j li
invi te</w>
fal le
es inkil</w>
en ca
emocion ante</w>
d re
ch ab
WE M</w>
PROV ER
PROVER BIOS</w>
E ʼ
1 25</w>
xi t
xa k
wä chulew</w>
t ábamos</w>
pe dido</w>
pala u</w>
k or
k kʼojiʼ</w>
indi can</w>
g ante</w>
cʼaj tesan</w>
cristian oʼob</w>
c ʼan
au tor</w>
voko liletik</w>
tsʼʌ cti
t qan</w>
ste is</w>
q alen</w>
prim eras</w>
núu p</w>
i si
histori as</w>
e chʼel</w>
chʼa ʼi
ba lik</w>
ñu sa</w>
yee chiʼi</w>
vi erte</w>
tzala je</w>
tso tsik</w>
trans fu
ta as
sju ʼel</w>
pregun taron</w>
máa koʼobaʼ</w>
ja bel</w>
habi endo</w>
ent rega
cre emos</w>
con stitu
chqui wäch</w>
IMAG EN</w>
Es ter
C aj
Be tania</w>
ä k</w>
waʼ cho
w ïl</w>
w 19
servi rme</w>
s venta
prof é
ofren das</w>
me b</w>
lle guen</w>
ka e</w>
ja ʼoʼ</w>
inten ción</w>
cʼo p</w>
UT Z</w>
Q ʼO
PRO FUN
Gu ate
Dé bora</w>
x caß
t q
ro mpi
nq rtoʼ</w>
mó vil</w>
mu ra
kʼa q</w>
ka chalal</w>
hu ir</w>
fortale ció</w>
deci rse</w>
br esi</w>
avoʼonton ik</w>
aso mbr
ar que
afir man</w>
ab e
Myan mar</w>
Ju d</w>
EN CON
Descu bra</w>
ándo los</w>
ya kon</w>
xi ʼij</w>
wi h
tskʼan ik</w>
pi ʼ
min a
la aʼin</w>
jóoʼ sa
in va
x ba
voʼo t</w>
tu mil</w>
tempr ano</w>
t ʌntel</w>
so lamente</w>
qu ina</w>
qe chpaabʼanel</w>
per der
jvoko ltik</w>
i letik</w>
gusta ba</w>
espiritu alidad</w>
des pier
cas ó</w>
campa mento</w>
Mois es</w>
Eti opía</w>
ˈi ˈ</w>
óo leʼ</w>
áa kʼab</w>
so j</w>
ru kˈij</w>
pasa dos</w>
pa lo</w>
logr ará</w>
li leʼ</w>
kʼa hchiʼ</w>
k kunik</w>
jacʼ ʌ</w>
hebre os</w>
gen i
fu ér
cristi anismo</w>
añ ic</w>
ar d</w>
ad qui
a is
P ej
Di jo</w>
î mk</w>
ti on</w>
schol bey</w>
relacion adas</w>
nq kowin</w>
na qan
materi al</w>
man tiene</w>
laa chʼool</w>
kya ˈj</w>
in cre
exa ctitud</w>
da da</w>
cu cˈ</w>
LI P
LE TIK</w>
Guate mala</w>
1 37</w>
wini c</w>
prepar arse</w>
pr a</w>
pa jak</w>
nq ä</w>
la ji
ju día</w>
habi tada</w>
gr á
embar az
chon bolo
apren de</w>
a pi
RI N
Mi x</w>
Eli faz</w>
E L
á ramos</w>
xchan ik</w>
x chˈ
u tike</w>
tukult maj</w>
rein ado</w>
qasan jaʼ</w>
peque ñas</w>
p esi
jun pâ
imperfec ción</w>
do m</w>
cose cha</w>
compar tir</w>
car án</w>
car gar</w>
aconse ja</w>
U láakʼ</w>
S T
RES U
Q I
D er
ʼe le</w>
twitz ju</w>
tqʼama ʼna</w>
tes el</w>
q ine</w>
pre para</w>
pesta ñas</w>
pe t</w>
pali tsil</w>
on to</w>
modes tos</w>
ke tal</w>
kaa ja
invi tó</w>
interes ante</w>
gra tu
confi gu
ca len
X chi
ENSEÑANZ A</w>
Ca perna
yaj bʼil</w>
y oʼola
tew chi
tar é</w>
rok sinkil</w>
ri do</w>
pí dale</w>
p er</w>
nqa kʼüt</w>
mâ queb</w>
j tsʼiba
im pu
encu entro</w>
dar me</w>
ador an</w>
Sí sara</w>
PʼI JU
HE CHOS</w>
yaʼali koʼ</w>
xu ben</w>
xka w
xcßa m</w>
wuʼu yi
senti rnos</w>
ner vi
ki kotik</w>
jun aj</w>
estr és</w>
câ mk</w>
comien za</w>
camin ar</w>
a kal</w>
TES WANEJ</w>
Ma a
G a
Filip os</w>
táak paj
tra er</w>
ti pos</w>
sa choj</w>
r la</w>
qʼi ij</w>
pla cer</w>
permi tido</w>
nequeß xbânu</w>
man as</w>
laaʼa t</w>
iden tidad</w>
extran jero</w>
chaʼa j</w>
bʼin chan
bʌ qʼuen</w>
b oʼoboʼ</w>
alo bil</w>
a pro
CHIʼU S</w>
xjun es</w>
wi laj</w>
wa k</w>
tzʼa q</w>
ti i
ta etik</w>
pas kʼop</w>
pa le
o je</w>
nata wmank</w>
n áal
kʼo jaʼ
kʼa sta
kíim saʼa
kyi ʼn</w>
jujun al</w>
encar gado</w>
baʼa xak</w>
ba stante</w>
ó noʼ</w>
xsu men
wi lo</w>
u kʼi
tranqui li
tradu ce</w>
tra e</w>
stu kik</w>
recor dó</w>
qʼu el
mé todos</w>
jba kutik</w>
jaʼa b</w>
cˈu tuj</w>
caj ñel</w>
ala ˈ</w>
a parte</w>
T Z</w>
QU I</w>
QATZO LAQ</w>
PʼIJU B
Mu kʼta</w>
ES TA</w>
BA JCH
1 17</w>
ya la
ue la</w>
re quiere</w>
r íamos</w>
opini ones</w>
man tuvo</w>
kʼu baj</w>
kʼ bʼal</w>
jkʼakʼa li
inter pre
h l</w>
fac tores</w>
en oʼ</w>
diseñ o</w>
chan i</w>
benefi cio</w>
Camer ún</w>
ï m</w>
yi ibʼ</w>
xchʼuno jik</w>
waka mi</w>
w abʼ
v ando</w>
tu b</w>
s jel</w>
rusama jelaʼ</w>
queßx qßue</w>
q ex</w>
poni endo</w>
oyu tik</w>
ojyî n</w>
na we
kaan bal</w>
jolomin k</w>
jo lon</w>
am én</w>
aj ni
Nu estra</w>
JERE MÍAS</w>
BAJCH Eʼ</w>
x raj</w>
q in</w>
pér dida</w>
oy bʼen
mencion ado</w>
ma tz</w>
limpi os</w>
kab ʼ
k lan
jo ñon</w>
es eʼ</w>
con exi
co pa</w>
ca i
bʼi tz</w>
aʼalaʼab tiʼ</w>
Uni das</w>
ver güenza</w>
tsʼaʼa ba
te ep</w>
respe tamos</w>
loca les</w>
lar se</w>
ka pe
invi tados</w>
iniciati va</w>
examin ar</w>
bo ok</w>
an oʼ</w>
YA ʼA
N ya</w>
CAMBI Ó</w>
tê bânu</w>
teksto aʼ</w>
taj toq</w>
si mi
q ʼal</w>
profun das</w>
pele ar</w>
olvi dar</w>
maj tan</w>
ma tó</w>
ka q</w>
jpa se</w>
inspi rada</w>
cˈ oj
comple mentos</w>
ca í
an tem
adminis tra
Ste ph
Per sia</w>
PROFUN DIC
PROFUNDIC EMOS</w>
Ne w</w>
L au
CON T
A C
1 36</w>
1 14</w>
yeʼes aʼal</w>
xe ˈ
traduc ciones</w>
su un
pa c
or mente</w>
oper ación</w>
ok saj</w>
no m</w>
jko toltik</w>
fili steo</w>
engañ ar</w>
en vía</w>
en veje
ejérci tos</w>
chka j</w>
car re
abte jik</w>
X akʼa
Sal mos</w>
Qʼa tbʼal</w>
Aj wa
x yuʼa
vo to</w>
ten ta</w>
señ ala
s mil</w>
q onin</w>
pan talla</w>
pa drenu
mill on
le ʼ
junpâ t</w>
i dad</w>
f i</w>
escri tas</w>
enter ó</w>
ek tâna</w>
bu los</w>
antem ano</w>
TI V
Jeho ás</w>
Gre cia</w>
ʼun ik</w>
ó gi
v oʼon</w>
v emente</w>
tuvi mos</w>
tan qʼibʼil</w>
ta tz</w>
ru tz</w>
reci én</w>
qan qʼibʼil</w>
progra mas</w>
mag ní
kki koj</w>
kal kʼwal</w>
im presión</w>
i rán</w>
h in</w>
do k
die ci
cʌ ñob</w>
chon col</w>
aʼ tej</w>
a ˈ
KAʼANSA JNA
EST O</w>
5 8
z adas</w>
w el
te ltike</w>
sée ba
superi ores</w>
sta el</w>
regu la
lu ʼ</w>
lu metike</w>
kʼupi lik</w>
ju laʼ</w>
ji bʼal</w>
in vo
ex pe
enter o</w>
T áan</w>
SA B
P res
KI T</w>
xíim bal</w>
tsʼi taʼ</w>
tsa jintel</w>
tra tamos</w>
tier no</w>
suf re</w>
ru wiˈ</w>
p inter
orgullo so</w>
naqa tzol</w>
j kuxlejal</w>
empe ñ
auto control</w>
SAL MO</w>
QA KʼASLEMAL</w>
ENCON TRAR</w>
An anías</w>
1 28</w>
ya cʼ</w>
xchik naj</w>
ven ía</w>
servi mos</w>
ru kabʼ</w>
qe ʼk</w>
q ajbʼen</w>
n yaʼöx</w>
mo letike</w>
lle gué</w>
l le</w>
kaʼan sa
inten tó</w>
continu ar</w>
bʼ ebʼ</w>
ba sta</w>
b úu
auxili ar</w>
adoles cente</w>
Pro metida</w>
Cai f
soldad oʼob</w>
sab les</w>
qßue bal</w>
pʼi s</w>
peti naq</w>
pas ens</w>
ma maʼ</w>
kʼa jol</w>
ka ya</w>
esp ías</w>
dedi carse</w>
confi aba</w>
cha pas</w>
ani maj</w>
aktáan t</w>
a mal</w>
TZ ʼO
K or</w>
Haba cuc</w>
E V
200 8</w>
z ara</w>
xbaj tʼ</w>
to bʼe
ru q</w>
que dan</w>
pr eso</w>
parti do</w>
necesi te</w>
ma tarlo</w>
l kutik</w>
ku ʼu
ko le
hal lado</w>
fortale za</w>
chan chan
bri o</w>
T ar
T am
O seas</w>
J beiltas
Ba yal</w>
yʌ jlel</w>
toʼo beʼ</w>
séeba ʼanil</w>
st su
s y
qʼu en
kʼeban oʼ</w>
kʼaxe m</w>
ja p</w>
hon rados</w>
ha gas</w>
encontr aron</w>
encan taba</w>
der os</w>
cri a
cre ciendo</w>
bo lil</w>
a penas</w>
RE Y
Q ÏL</w>
M EL</w>
wp 16
tz ol
tsʼʌ ctesan</w>
taa kʼin
slu mal</w>
sla jin</w>
skʼan ojel</w>
rixa kil</w>
recibi rán</w>
mé todo</w>
iz quier
dig no</w>
cʼuxbi ñob</w>
chiri xeb</w>
al beyel</w>
acer có</w>
Tesal ónica</w>
SUJ TEN</w>
KA BTE
FI CI
Anti gu
Ani me</w>
A be
14 2</w>
y tak</w>
waʼ bʼej</w>
ta abʼaanu</w>
ra bʼin
publi cado</w>
produc tos</w>
peligro so</w>
orgullo sos</w>
náa chtal</w>
man á</w>
fortale cer
escuch ando</w>
escu che</w>
chʼʌm jaʼ</w>
Filip inas</w>
xkʼo x
wak li
mon e
len a</w>
in c
ban ki
akʼ bel</w>
TOJOB KUTIK</w>
T í
SI G
NA Q</w>
JU X</w>
In clu
D u
ya kotik</w>
xtqa ʼän</w>
wu qu
táa kpajal</w>
tra tamiento</w>
t hu
subi ó</w>
pri sion
p h</w>
obje to</w>
náa y
naʼ taj</w>
emo ciones</w>
cßamo c</w>
contra señas</w>
baj t</w>
ac ceso</w>
aba e</w>
YO M
La men
Ko lta
J Ó
J tsop</w>
6 7
xu koj</w>
xtiki bʼankil</w>
wini cob</w>
tzaqpi ʼn</w>
tu untes
tse betik</w>
to qe</w>
taʼa boʼob</w>
taa ta</w>
subi r</w>
su kʼ</w>
sa hil</w>
respe tu
represen tan</w>
qan in
pod erosa</w>
perdon ó</w>
nú m</w>
meyaj tikoʼ</w>
mar il</w>
le ña</w>
l tó</w>
kʼiin oʼ</w>
fil tra
deci dieron</w>
cu ukub</w>
chíi kaʼan</w>
bʼ än</w>
beel oʼob</w>
ati nak</w>
anun ció</w>
an se</w>
abandon ar</w>
PA R
P OR
Mi q</w>
A ra
2, 0
úu chuk</w>
în c</w>
yáan ten</w>
val le</w>
val en
suce derá</w>
sni tilu
servi dor</w>
qa kutan</w>
o pe</w>
nu be</w>
lum ni
loqʼo läj</w>
llen os</w>
lla man</w>
lar mente</w>
la rá</w>
k bʼil</w>
expli cación</w>
cu â
cer ni
ca lumni
b os
ali vio</w>
ali vi
a dro</w>
W EN
TOO KʼUTU
TOOKʼUTU Q</w>
S likeb</w>
LO M</w>
Ja chin</w>
Dali la</w>
ê t</w>
x chʼi
sube yob</w>
sir ku
s woko
r aron</w>
qßue heß</w>
perten ece</w>
n wäch</w>
ky ximbʼetz</w>
kontra in
foye to</w>
eter no</w>
empa tía</w>
cä chaˈ</w>
ba tsʼi</w>
ar ran
KABTE LTIKE</w>
CHO JUX</w>
BE E
A P
sor dos</w>
servi cios</w>
quer ma
ni qˈui
naj saʼn</w>
kye ye</w>
ky qanin</w>
c tas</w>
bi luk</w>
ba c</w>
auto má
Y an</w>
T sa
M íri
Lis tra</w>
F esto</w>
3 ,000</w>
14 8</w>
ve lo
tsu ts</w>
to kx</w>
salv ó</w>
q meltzʼaj</w>
profun da</w>
p ó</w>
me z
ki chuqʼabʼ</w>
ke ʼa
jun e</w>
j eron</w>
im pres
dig nidad</w>
cumpli eron</w>
c t</w>
ata qoya</w>
XNAQʼTZ AL</w>
X na
S ina
Mesi ase</w>
F E</w>
xtaq la</w>
wi x</w>
u seb</w>
toqʼo bʼ</w>
teri ormente</w>
ta ria</w>
su ben
mostra do</w>
ló bulos</w>
kʼuu xi
k m</w>
hici mos</w>
cˈ axaj</w>
cuu lak</w>
aver gon
W o
KAʼANSAJNA KOʼON</w>
DE MOS</w>
ʼ UN
ya ik</w>
y bʼal</w>
teksto etik</w>
su kuʼu
sin quil</w>
rus kʼixik</w>
naʼa atinak</w>
ku ba
j tot</w>
fi ja</w>
fej oʼob</w>
estable ció</w>
descri bi
cʌy ʌ</w>
cum ple
bee ti
arrepenti miento</w>
am eri
YE QÏL</w>
Tu r
PʼIJUB TESWANEJ</w>
Pol onia</w>
wo to
te maj</w>
t kawin</w>
s f
rebeli ón</w>
qe taʼm</w>
pe car</w>
leva dura</w>
jun ama
ju ego</w>
je t</w>
ja wil</w>
h i</w>
disponi bles</w>
dej é</w>
béeykun tik</w>
YOM ÄL</w>
Mari e</w>
K éen</w>
H ER
D ía</w>
BʼE YOMÄL</w>
vu estras</w>
ve inti
var ones</w>
u men</w>
tse betike</w>
toʼo xe</w>
su mla
su beñob</w>
lo cʼ
kʼo poj</w>
kʼa jo
jnop ben
jaʼ äl</w>
fin ales</w>
bee tuba</w>
asig naciones</w>
Servi cio</w>
Sa ß</w>
Ju aneʼ</w>
Ó NI
yoʼ bolil</w>
xra q
x bʼi
valen tía</w>
ur l</w>
sti j</w>
so is</w>
schʼuun ik</w>
ru bel</w>
religi osa</w>
pro mo
per cibi
lamal kʼinal</w>
laj êb</w>
la jele</w>
ja laj
ga ba
empe ño</w>
cßa jol</w>
chk un
ala b
acu lta
ac to</w>
REY ES</w>
Mes íasoʼ</w>
Lâ at</w>
Jo se</w>
wi t</w>
u Qʼatbʼal</w>
tuqtuu kilal</w>
tra ta
tiaʼa laj</w>
tala mil</w>
sjo lik</w>
nikʼ wach</w>
na baleb</w>
mej or
lo til</w>
lle vamos</w>
ke le</w>
ka aj
in os</w>
divin as</w>
convi ene</w>
chiʼichnak tal</w>
bʼtesi hom</w>
ban quete</w>
RE ʼ</w>
Í I
ro llo</w>
re comien
permiti rá</w>
per ro</w>
p ese</w>
oí dos</w>
maʼalob eʼ</w>
lokʼo l
kʼux lal</w>
kʼa bal</w>
ku adro</w>
fí jese</w>
en eʼex</w>
e o</w>
diver sas</w>
debi lidades</w>
cur ó</w>
caus to</w>
c ías</w>
bʼin chet</w>
abi erto</w>
TA J</w>
Sja jchibal</w>
Jkʼel tik</w>
ßa m</w>
www jworg</w>
wi ʼ
volun tari
tzali j</w>
tsʼij bu
smala el</w>
s kʼinal</w>
ro y
re taʼm</w>
na chalk</w>
n qʼamaʼne</w>
mer ec
me bʼ</w>
lo cal</w>
li letike</w>
le pra</w>
l bʼil</w>
kaʼan saʼa
ka ʼn</w>
k ini
j letik</w>
hablar les</w>
chˈ ob</w>
bee taʼan</w>
al bot</w>
Na amán</w>
Ku x</w>
K ʼi
JA Bʼ</w>
G i
Cr ó</w>
CH IK</w>
AJ TI
ʼi ke</w>
ü x</w>
ólo gos</w>
Í CU
xchi ʼu
x oʼ</w>
té monos</w>
tsʼoʼok bal</w>
tsʼaʼa b
ts pas
tr en</w>
sirvi ó</w>
ru biˈ</w>
po zo</w>
pi tz</w>
ne ʼl</w>
ja kʼele</w>
ja dos</w>
edifi cio</w>
bar co
b ʼo
b áa
ala le</w>
al kʼwal</w>
akʼ batik</w>
TS ʼO
Po dría</w>
Gri e
ê chßôl</w>
yalo bilob</w>
yaj val</w>
tsotsu k</w>
ts cʼan</w>
posi tivo</w>
plen a</w>
p en</w>
kʼa teʼ</w>
kiʼ kʼuxlal</w>
inte lig
e las</w>
cu n</w>
ci to</w>
cha ki</w>
ba ja</w>
Máa xoʼob</w>
J ÉE
E Bʼ</w>
AJTI JABʼ</w>
200 6</w>
y es
tzu juj</w>
tojobta seletik</w>
taʼa ytak</w>
ru pam</w>
revel ó</w>
q nim
parti cular</w>
mi leʼ</w>
kʼam koʼob</w>
kß eb</w>
ji p
herman dad</w>
en er
e letik</w>
cu ânc</w>
chʼixpu bʼil</w>
chʼi ichʼ</w>
adoles centes</w>
In dia</w>
Esta mos</w>
C ʼA
ˈ m</w>
xsumen kil</w>
vu l
te tz</w>
s nuptan
refugi ados</w>
qa saj</w>
po c
p u</w>
ke cheʼ</w>
jko lta</w>
iru bʼan</w>
ch chaʼ
T ON
B an
0 ,000</w>
ñu clel</w>
yu til</w>
x ril</w>
tʼaan oʼobaʼ</w>
tien de</w>
si va</w>
se pa</w>
san to
raí ces</w>
qˈ oˈn</w>
llama dos</w>
lebʼa k</w>
ku p</w>
ki pa
i tz</w>
entre vi
chʼiʼi bal</w>
Z ac</w>
V O
Kʼ AN</w>
Gu ía</w>
B u</w>
6 9
10 9</w>
è le</w>
yáant ken</w>
yu go</w>
xka m
x ʼ
tzß âma</w>
tstsa tsu
tr u
s testigo</w>
qui cu
pa pi
niqˈui aj</w>
name y</w>
luʼu miloʼob</w>
li loʼoboʼ</w>
f res
espo sos</w>
dis cerni
cor ona</w>
confi ables</w>
ca la
ama b</w>
am ó</w>
T ho
KE ʼ
xnaqʼtz al</w>
tsʼaʼa bal
mo zilla</w>
líi kʼil</w>
lan tik</w>
kʼaʼa q</w>
kaʼan al</w>
jalaj öj</w>
ha yamos</w>
h tt
es ʌ
equili brio</w>
el xix</w>
bis kubaʼob</w>
akʼ beyel</w>
Tsʼi j
P at
Mar kos</w>
Jose ph</w>
6 00</w>
xe chaˈ</w>
xcha bi
te la</w>
sue ños</w>
skolta ot</w>
se tenta</w>
sama jib</w>
rabʼin kil</w>
ki raj</w>
ke kunik</w>
jóo kʼ</w>
ja lam</w>
i lustra
fin es</w>
enfren tarse</w>
ech ó</w>
cul to</w>
contra to</w>
conso lar</w>
chʼa ʼoj</w>
SA L</w>
O tra</w>
M aria</w>
Georg e</w>
xkaʼi betik</w>
xja jch</w>
xakʼa ltik</w>
ver nos</w>
tx kup</w>
tuláak loʼon</w>
to jaʼ</w>
pe et</w>
pasa jes</w>
li bal</w>
kʼu xul</w>
káaj sik</w>
ku koj</w>
kiʼimak kúuntik</w>
k óo
jte buk</w>
jela ʼan</w>
den tal</w>
cump la</w>
chu banic</w>
cha panel</w>
bi ilal</w>
W a
á monos</w>
yan a</w>
yakʼ beyik</w>
xkʼo tik</w>
soci al</w>
sig loe</w>
sal va</w>
q ʼun</w>
mi ri
libr es</w>
le ído</w>
jni chʼna
choj bʼil</w>
chcha bi
actú a</w>
a tivos</w>
Ami gos</w>
yaabʼa sinkil</w>
yaabilt moʼob</w>
xit bʼil</w>
xeß tônil</w>
xbʼeen ebʼ</w>
woko liletik</w>
tra taron</w>
smanta ltak</w>
qa paabʼal</w>
perse ver
persa uk</w>
perdon a</w>
os ta</w>
neces aria</w>
ministeri ales</w>
lo bʼaal</w>
kyim ni</w>
ky bˈin
jkuxleja le</w>
jko t</w>
g ón</w>
difer encias</w>
co sta
chʼa j
as te</w>
an qʼil</w>
aconte ció</w>
Na die</w>
Mon te</w>
K A</w>
ʼ inik</w>
ya laq</w>
x re
ti x</w>
qui cuulac</w>
q kanoʼn</w>
ma tij</w>
lu ba</w>
lokʼo mba
kaʼan s
kan an</w>
ju bi
ir é</w>
hab íamos</w>
gener osos</w>
cie gos</w>
cha mba
capaci tación</w>
akʼ bil</w>
X yaabʼasinkil</w>
Mag dal
M al
B Oʼ</w>
íi cham
ê bên</w>
yuʼa mi</w>
y wanej</w>
xi kin
vi les</w>
va das</w>
toʼ ö</w>
tin ankil</w>
tch mil</w>
ta alak</w>
sufri mos</w>
rum bo</w>
qʼuex tʌ
pa g
n c</w>
mu laj</w>
le peʼ</w>
ko wi
ko jo</w>
jun puliʼ</w>
i que</w>
dedi camos</w>
chu p</w>
bˈ a</w>
awa kʼ</w>
M â</w>
G er
BEN E
ño xi
yi ke</w>
voʼo tik</w>
ti kil</w>
ser ás</w>
re presenta
qˈu ia</w>
q ja</w>
primo génito</w>
mu he
mien do</w>
lengu as</w>
ki j
kaab eʼ</w>
jaʼ to</w>
i leʼ</w>
hab erse</w>
gi eron</w>
e t
corru pción</w>
con temp
comen cé</w>
arre pien
al dea</w>
V í
L U</w>
Imi temos</w>
Am ós</w>
ñopo b</w>
yaʼa loʼ</w>
ya tikïr</w>
xin ye</w>
xa kʼbe</w>
wo li
w o</w>
ven gan</w>
u bi
taa yaabʼasi</w>
ta ja
seera qʼ</w>
resu el
ra jil</w>
q mod</w>
pʼa t
prof esi
ni mil</w>
me ß</w>
lími tes</w>
la vil</w>
jme ʼe</w>
guar da</w>
gr ano</w>
e win</w>
copi ar</w>
conser var</w>
cono zco</w>
ala b</w>
ajvali lal</w>
a letik</w>
TA DA</w>
Naʼ äy</w>
Luʼu moʼ</w>
Kʼaʼa jak
Inclu so</w>
Go bern
ê ch</w>
yen t</w>
tzʼeqta ana</w>
teksto ʼob</w>
tale lal</w>
s tso
pu se</w>
pon gan</w>
pa lo
mes il</w>
kʼ en</w>
jay pʼéel</w>
forma to</w>
ci na</w>
cer cano</w>
bʼa la
bʼa anu
ata ques</w>
abte le</w>
M EN
In vi
Grie gas</w>
F in
éndo lo</w>
ÓNI CAS</w>
yaj tak
xe j</w>
so mbra</w>
re pi
qui co
ojtikin el</w>
izquier da</w>
ante oʼ</w>
Ven ez
O k</w>
Lu m</w>
H amán</w>
D ej
200 3</w>
1 32</w>
á c
ß al</w>
yi cʼo
segui do</w>
reuni rse</w>
máa xeʼ</w>
mo sa
lv ania</w>
ko tak</w>
in scri
fun ciones</w>
crey entes</w>
bio grafía</w>
Nab ʼi
KʼA LAL</w>
Expli que</w>
Eseki ele</w>
ác ter</w>
ya lak</w>
xchi ʼin</w>
xa q
tâ c</w>
tis äx</w>
t lel</w>
re h
pu ri
permi ta</w>
ne gó</w>
nar u
m esi
le pro
l ju</w>
k bʼix</w>
je fes</w>
in ado</w>
i heb</w>
cˈ am</w>
ciudad anos</w>
chʼob ʼon</w>
acep tado</w>
ab e</w>
a por
Person alidad</w>
Nabʼi tz</w>
Caif ás</w>
60 7</w>
ʼ la</w>
xtqa tzʼët</w>
tsoba jeletik</w>
tskolta ot</w>
tobʼe ej</w>
spi ca
silen cio</w>
sa tik</w>
pâban el</w>
pare ció</w>
no ches</w>
mâ cua</w>
limpi ar</w>
lan tes</w>
l ló</w>
kʼa kʼ</w>
kaʼ ani
in q</w>
i e</w>
f aculta
ex clu
esfor z
confi rma</w>
chʼoo lej</w>
chu bʌ
a job</w>
a chʼu
W al
A m</w>
ye kʼun</w>
xa xe</w>
u mil</w>
u fra
tol er
sujm ʌch</w>
su t
skuxleja lik</w>
rachi ʼl</w>
propi edad</w>
pa jik</w>
nki kʼüt</w>
na kal</w>
n qʼax</w>
médi ca</w>
lu tike</w>
ltaʼa k</w>
kuxkíin taʼal</w>
ka wetaʼmaj</w>
in cen
dro ga</w>
d estro
cßa joß</w>
cu b</w>
TS ʼU
MI ENTO</w>
1, 8
tsʼíi bta
tne jil</w>
tan mi</w>
stojo lik</w>
sen tencia</w>
respon dieron</w>
qan mi</w>
pu de</w>
ocupa do</w>
nombr ó</w>
le tic</w>
ki ˈ</w>
jkʼel betik</w>
i lok</w>
escribi eron</w>
desafí os</w>
cʼa mʌ
comi sión</w>
cha vil</w>
ch chanubta
bu j
a u</w>
X A</w>
Tri bunal</w>
GEN ES</w>
Fi le
D ON
ʼO BOʼ</w>
í s</w>
w íi
progres o</w>
pi da</w>
p ʼij</w>
manda tos</w>
jchʼun betik</w>
ja maril</w>
is ta</w>
due ño</w>
der i
da me</w>
confi ó</w>
ca ˈiˈ</w>
bʼe ek</w>
auto dominio</w>
a preci
T L</w>
Sa dra
Ja ʼuk
E vae</w>
E JE
Chan chan
yaj ñel</w>
yabte lik</w>
x ʌ
tra di
s chaj
n ari
juʼe lal</w>
cu este</w>
cristian oʼoboʼ</w>
comien ce</w>
chʼa ʼ</w>
bâ leb</w>
bo xuk</w>
bauti zar
b rió</w>
Uni do
SE R</w>
N im
Eli hú</w>
D a</w>
CɅ NTESA</w>
Cor é</w>
ya anti
tzßa c</w>
so ciedad</w>
sle ku
senti rá</w>
sa maj
pon ía</w>
pe ten
patan ij</w>
n bʼi
mé rica</w>
mosa ica</w>
mi ˈn</w>
hogar es</w>
frag mento</w>
escu chan</w>
discípu loʼob</w>
bˈa ˈn</w>
apo ya</w>
aku chi</w>
acci dente</w>
MÁ GENES</w>
Inter nacional</w>
I MÁGENES</w>
CR ÓNICAS</w>
Ar thu
ñujpu ñel</w>
yu l</w>
ta kʼutuʼ</w>
res aj</w>
re kuadro</w>
qʼu n
pe kʼel</w>
ne as</w>
l maj</w>
kʼ wan</w>
kyi j</w>
kal tike</w>
indi g
elimin ará</w>
di das</w>
der ía</w>
d ario</w>
cˈa jol</w>
al ʌ
a lo</w>
Tr inidad</w>
Ser món</w>
SA MU
SAMU EL</w>
R aatin</w>
Ch arles</w>
10 8</w>
y jil</w>
utstu tʼaan</w>
termin ado</w>
sobr es
pʼée leʼ</w>
polí tico</w>
minis tro</w>
ma t
ky xi</w>
kix kanabʼ</w>
desarrolla r</w>
cu yo</w>
chaʼle yob</w>
averigu ar</w>
VEN ES</w>
RI A</w>
PRINCI PI
M as</w>
Lo gros</w>
K Ë</w>
JÓ VENES</w>
Jaʼuk meto</w>
IN A</w>
Bʼ in
ñu mel</w>
ton ia</w>
t chʼiy</w>
señ ales</w>
sen tían</w>
predi có</w>
plan e
per judi
jaku lo</w>
impul sa</w>
fr an
enseñ aba</w>
cuer da</w>
c k
SO BRE</w>
SI S</w>
NO P
H O
G lo
Chʼu l</w>
ˈ u
ʼ E</w>
xóo t</w>
xkʼox lankil</w>
xa vi
wo kisaj</w>
tzß in</w>
tun eso</w>
son ido</w>
sa có</w>
ru tzeqel
pien so</w>
par cial</w>
muyuba jel</w>
ko lin</w>
ju stas</w>
j vul</w>
ik tzun</w>
i ría</w>
g lóbulos</w>
dure z</w>
dro id</w>
distin gui
des gracia</w>
cu bi</w>
co bre</w>
car ácter</w>
alma cen
a ʼoboʼ</w>
a damente</w>
SE RI
ö q</w>
ya ñoʼ</w>
xbʼa lun</w>
val orar</w>
u láa
toma mos</w>
sol dad</w>
schʼu un</w>
s el</w>
plan ta</w>
jala joj</w>
jaaji loʼ</w>
im pí
habla ban</w>
estatu a</w>
espa l
en cen
eli gió</w>
ejemp loeʼ</w>
dij era</w>
cʌ lʌ
cßanje lak</w>
compa sivo</w>
capi tal</w>
cal les</w>
W en</w>
Al b
ä p</w>
x qßue</w>
tzun te</w>
tien das</w>
teʼ ruuq</w>
ta ʼoboʼ</w>
regres ó</w>
ni qa
n bij</w>
lu b</w>
jatsʼu ts
gi os</w>
esti ma</w>
cu ri
conexi ón</w>
c anos</w>
aqa tisäx</w>
ab ej</w>
Mi cha
Le k</w>
J e</w>
Har vey</w>
Ay bal</w>
yaabilt m
t ʼuk</w>
t keʼyin</w>
pregun tarnos</w>
ofre cen</w>
o este</w>
no bʼaal</w>
kʼojo bʼ</w>
ky xiʼ</w>
hu esos</w>
g es</w>
em presa</w>
da te</w>
cʼamʌ jel</w>
Y ÉE
JES U
J U</w>
En tre</w>
A gri
x tz</w>
ver se</w>
tsol nuʼu
tra tando</w>
ti empo
su po</w>
qui ye
pisi ltik</w>
mu tik</w>
mu ro</w>
limpi eza</w>
juda etik</w>
ini c</w>
fu ria</w>
extraordin aria</w>
ch en
Y ilel</w>
G aba
F or
D on
CAN CIÓN</w>
, 9
óo l
tza ca
tendr ás</w>
ru kʼaslemal</w>
qan il</w>
pon ernos</w>
ok si</w>
o remos</w>
misericor dioso</w>
man kbʼil</w>
líiʼ saʼal</w>
inspi ración</w>
hon ra
fu ri
es oʼ</w>
ele mentos</w>
d ables</w>
cie go</w>
chaʼa ñob</w>
chaʼ bej</w>
ar ru
aa wibʼ</w>
Y oʼolal</w>
TSʼO ʼO
Míri am</w>
DIC EN</w>
Asu ero</w>
A ma
ñoxi ʼal</w>
í so
yaʼa bil</w>
yajtak bo
ts tij</w>
ts an
tr á
taata tsiloʼoboʼ</w>
ta loʼ</w>
sti j
raí z</w>
r los</w>
pʼáat loʼob</w>
progres ar</w>
pens é</w>
nu ya</w>
no paj</w>
ne o</w>
nax kʼutbʼesi</w>
migo job</w>
manta liletik</w>
ma durez</w>
le tiʼoʼ</w>
hospi talidad</w>
diri gió</w>
des ánimo</w>
ch ßu
aj ñel</w>
Qʼu ele</w>
Jo ab</w>
HAC ER
G A
x yaʼöx</w>
x lok</w>
ts tunesik</w>
ti le</w>
super fici
si cß</w>
respon sables</w>
re cur
quisi era</w>
o tot</w>
nqˈ maˈn</w>
n kiʼij</w>
kˈu ˈj</w>
expul sado</w>
económi cos</w>
e cha</w>
akʼo bal</w>
Po co</w>
Maʼa lob</w>
Jai ro</w>
5 ,000</w>
yaj kontra
xkʼa m</w>
tro ñel</w>
tijic ña
que m</w>
pati o</w>
pak bʼan
ofreci eron</w>
lan el</w>
kyi bʼaj</w>
k bʼa
jtun estik</w>
jcha bi
fáci lmente</w>
er los</w>
e tz
con ferencia</w>
blan co</w>
at xix</w>
PA SA
Ni co
ʼi lok</w>
yan yantik</w>
w riik</w>
tz alu
ti vamente</w>
si vos</w>
s â
preocupa ba</w>
míni mo</w>
mi tad</w>
lin el</w>
jun múuchʼ</w>
jaa wriik</w>
ja j
ix öq</w>
esta d</w>
de cer</w>
célu las</w>
cuer nos</w>
conf ían</w>
chu we</w>
bi saj</w>
Satan aseʼ</w>
Co rea</w>
yanak toʼon</w>
xkuxleja like</w>
xcho l</w>
vivi eron</w>
tier ras</w>
teʼ wanq</w>
te ocrá
regis tro</w>
refer encia</w>
qa kojonik</w>
porno gra
may or
inten so</w>
iky xjo</w>
har ás</w>
escri tores</w>
e ti
defini do</w>
dar lo</w>
corri endo</w>
chqa wach</w>
chkal tik</w>
cha ji
avi l</w>
Salomon e</w>
Mes ac</w>
ño po</w>
x ri
x mo
ven taj
ventaj as</w>
un t</w>
u el</w>
tal to</w>
svoko like</w>
slike bale</w>
simb ólico</w>
rubʼe yal</w>
piʼ ʌl</w>
lu k
kʼojaʼan il</w>
kuxleja lil</w>
jo ch</w>
evi dente</w>
engen dr
decla ró</w>
da ños</w>
cuer pos</w>
cha bi
an álisis</w>
T si
Sadra c</w>
H en
Cßaß ut</w>
A món</w>
ye kʼbʼil</w>
xu ʼji
wan ejetik</w>
to có</w>
spisi luk</w>
senti miento</w>
pan es</w>
ocupa dos</w>
lle gada</w>
k chi</w>
her idas</w>
estr en</w>
consi go</w>
ch kom</w>
bʼ o</w>
T UN
Satan as</w>
Publi cación</w>
Hi sto
Go mor
Co men
Aja wbʼal</w>
tß icr</w>
pesta ña</w>
nuʼu ku
moj t</w>
le kilal</w>
lan za</w>
kin bʼan</w>
esta j</w>
equili brado</w>
cho koy</w>
ca oʼ</w>
ay ú
Y O</w>
T qʼama</w>
O tros</w>
Ma chʼa</w>
DISCUR SOS</w>
CHI ʼ</w>
xnichʼna bik</w>
tsa jin</w>
transmi tir</w>
taʼa b
skʼan be</w>
po o
pe lo</w>
l un
k si
inici ar</w>
gobier no
económi ca</w>
Si gamos</w>
Ru qʼatbʼäl</w>
Kʼaʼa bée
D a
B RE
A W
é gu
tak la</w>
su tqʼi
quer er</w>
pʌs beñonla</w>
pʌs ben</w>
orig in
ma il</w>
lin cu
kˈ ax</w>
kin aʼoj</w>
jun pʼéeliliʼ</w>
j po
in un
histori al</w>
g r</w>
fal so</w>
fa ci
cßu l
cump len</w>
compa ti
co br
chaʼ pʼejl</w>
ch en</w>
certifi cado</w>
car an</w>
can al</w>
ab ʼi
a segu
Venez uela</w>
V u
V ol
Tu uku
T er
S er</w>
Maʼa tech</w>
Kʼa x</w>
Entre tenimiento</w>
A ʼIN</w>
ʼj ina</w>
x bʼix</w>
w áantik</w>
usu ario</w>
trompe ta</w>
toj tzqi
te les</w>
su pi
stuuntes ik</w>
se milla</w>
sa kil</w>
sa du
ori lla</w>
mu kʼtik</w>
movi ó</w>
maʼalo biʼ</w>
kʼáatchi ʼobaʼ</w>
kʼa xik</w>
kyan mi</w>
isi b</w>
den se</w>
cu ch</w>
chʼ ejlel</w>
be ikun</w>
babiloni os</w>
an tza</w>
Tuuku l
Ts ʼ
Se ol</w>
Cu i
BI X</w>
6 8
í z</w>
xi ʼye</w>
ukʼi sik</w>
tu uni
ti no
qʼu nan</w>
oʼ kx
ocurri rá</w>
na z
na mal</w>
n ja
m ânk</w>
kß ojyîn</w>
ky jaw</w>
j kʼa
invi taron</w>
esclavi tud</w>
do te</w>
di rán</w>
de lincu
cre a</w>
compor tamiento</w>
chˈ in</w>
Ru laʼaninkil</w>
LE N</w>
, 0
xnichʼna bike</w>
x raqal</w>
wo l
vi eja</w>
tzaca ê
tna bʼil</w>
star t</w>
q Ajaw</w>
me tzʼe
jtun el</w>
in si
es ele</w>
cˈ acˈ
ci c
chʼaʼajko ʼk</w>
ad vierte</w>
X qʼuqil</w>
Ne h</w>
N ÚU
Kʼ U</w>
JA TSʼU
yi laʼa
uya ʼom</w>
tyo x</w>
tsoba jele</w>
tal ón</w>
síi jil</w>
sna ʼel</w>
skolta un</w>
pr ínci
par on</w>
náa chkun
má tico</w>
maaʼu silal</w>
lokß al</w>
le lik</w>
jun antike</w>
jkʼan ojtik</w>
jelu bta
em pren
e tamab</w>
car pinter
bar k</w>
ba loʼoboʼ</w>
ata w</w>
K YA
200 2</w>
yoʼtan ike</w>
yaj lel</w>
xkoj tikin
xchi kin
vivi rá</w>
tz ß</w>
to man</w>
sali do</w>
s Na
posi bles</w>
pa gar
oj lib</w>
na qabʼaanu</w>
laj esel</w>
jojkʼo yel</w>
franc és</w>
forma da</w>
cu bier
contribu ir</w>
condi ción</w>
ag resi
Jo safat</w>
Jen esis</w>
Cono zca</w>
A sa
A cu
14 9</w>
waʼa lik
wa aj</w>
t óo
st án</w>
s jun</w>
qui âtinac</w>
pʼ e
pare d</w>
op ina</w>
muchʼtáa mbal</w>
meʼi letike</w>
i xik</w>
g ani
estuvi eran</w>
entre gar
chikʼ bʼaʼn</w>
cha ke</w>
c esi
blan cos</w>
ban ami
Xna qʼtz
SO L</w>
H U</w>
B O
ía eʼ</w>
yóo loʼoboʼ</w>
yaʼab tal</w>
xsi kʼbʼal</w>
we ñʌch</w>
v án
tzʼi bʼa
tem ores</w>
so linik</w>
recha zó</w>
pu ʼu
nin kil</w>
naqan aw</w>
na tsʼ
me e
kʼa moʼob</w>
kaʼan s</w>
gobier n
efec tos</w>
cha mele</w>
bˈ ant</w>
bʼan k</w>
TA K</w>
LE V
6 000</w>
xcho lik</w>
wih ʼik</w>
ten dencia</w>
rutzeqel bʼëy</w>
refer ía</w>
qʼa qʼ
q oj
polí ticas</w>
nax bânu</w>
ma duros</w>
kʼat q</w>
kʼa bʼa
jkʼo pla
jacʼ ben</w>
im pac
hu manas</w>
hor no</w>
g ú
entr aron</w>
doctr ina</w>
cß oxla</w>
con stante</w>
chu paam</w>
ch on</w>
al tura</w>
aconte cimientos</w>
Z e
U r</w>
SA ʼ</w>
Qui enes</w>
N i</w>
Gu ine
yi loj</w>
v es
tsi ctesan</w>
ti c
taata tsiloʼob</w>
t nim
slo ʼi
satisfac er</w>
pʼa t</w>
naʼa toʼob</w>
ma je
kʼanje lobʼaal</w>
kʼa maj</w>
jnuptan tik</w>
in sensa
in mere
hi jo
en d</w>
efec tu
cumple años</w>
cuan tos</w>
chu kˈab</w>
c ro</w>
bu yuk</w>
ayu das</w>
asegur arse</w>
angel oʼob</w>
SERI E</w>
L TIK</w>
Ka ʼan
D U
Balu milale</w>
ACH KË</w>
Ö J</w>
un q</w>
tsʼaʼa bak</w>
su stitu
sadu ce
pun e</w>
navega ción</w>
meyaj toʼon</w>
lími te</w>
ke matz</w>
j paj
i kʼun</w>
f as
e fica
determin ar</w>
cu ra</w>
chi kʼ</w>
bˈ ila</w>
bauti cé</w>
asu sta
Tz aj</w>
R aa
xcaß cßâl</w>
xan a
stale lalik</w>
san o</w>
ru yaʼon</w>
ru wech</w>
re lik</w>
razon ables</w>
por tun
obli gar
ma íz</w>
ky yolin</w>
ko jonem</w>
ka r</w>
faci lidad</w>
en ik</w>
cäca ˈn</w>
cä mi
co oki
bu tike</w>
anc la</w>
T bʼan
T QA
A WI
ñu mi</w>
y bʼil</w>
tzalu ˈn</w>
toj ʼes
tenqʼa hebʼ</w>
temp loe</w>
segu ían</w>
ru ma
r genes</w>
qʼuex tan</w>
q kyaqilx</w>
predi can</w>
na ye
n witze</w>
mal mente</w>
ma xik</w>
li gente</w>
kʼiwla bʼil</w>
jte b</w>
jse tʼuk</w>
i so</w>
físi cas</w>
ex plo
ejemp lar</w>
comun es</w>
cli ma</w>
cambi a</w>
bendeci rá</w>
ar mas</w>
abue lo</w>
W ar
Ta iw
QʼA LAJ
QʼALAJ SA
P RES
JATSʼU TS</w>
A z
19 18</w>
1, 9
ô queb</w>
yáan toʼon</w>
yu kix</w>
yal beik</w>
x mâc</w>
u sado</w>
tukʼi lju</w>
tor no</w>
ta blemente</w>
t paj</w>
s mel</w>
re yoʼ</w>
quer u
produc t</w>
op ciones</w>
olvi demos</w>
mo laj</w>
maa tan</w>
ma mos</w>
lla do</w>
lf fi</w>
la awa
k tzajel</w>
jo k</w>
jelu btasel</w>
disfru tamos</w>
cʼajti be</w>
be c</w>
bakʼin tik</w>
asi sten
RO MANOS</w>
Qu ˈn</w>
Micha el</w>
J obeʼ</w>
Hac e</w>
Guine a</w>
Gobern anteoʼ</w>
Eli ase</w>
Cor dero</w>
ín ti
yíi cha
yij ñam</w>
yaʼte lik</w>
x qʼax
tza ca</w>
ts beilta
terri bles</w>
sáa si
r uni
pa t</w>
nu ʼuk</w>
mun di
lar nos</w>
la xik</w>
ki säx</w>
kbʼa jel</w>
gu stan</w>
extraordin ario</w>
conf es
chu kˈaˈ</w>
chqi j</w>
ba a
a tej</w>
Sime ón</w>
Recor demos</w>
Ma di
J ini</w>
Al tísimo</w>
wab ʼj</w>
tijo xel</w>
stsa tsu
sa k
rej qalen</w>
recono cen</w>
q ya</w>
na tz</w>
mir ando</w>
metzʼe w</w>
ki lo
habla remos</w>
f ace
esta n</w>
edu car</w>
az o
YÉE TEL</w>
S BA
LI ʼE</w>
Ilustra ciones</w>
17 5</w>
úuchjea kiloʼ</w>
é rica</w>
xkʼutbʼ esinkil</w>
x kße
we tamaj</w>
vi vamos</w>
v re</w>
u se</w>
ttz i</w>
ta taʼ</w>
su ya</w>
stsa kik</w>
so t</w>
sii bal</w>
s nojptes
qʼa t</w>
próxi mo</w>
p s</w>
noko ox
ni chʼna
na jil</w>
luʼ sik</w>
le r</w>
kii koʼob</w>
jto suk</w>
incre í
habi tación</w>
ch ino</w>
arri es
amor osa</w>
Pri mero</w>
Is cari
FICI OS</w>
, 5
xku tan
wu bin</w>
su uk
spa t
pos tura</w>
kun el</w>
kki chomaj</w>
juni lo</w>
jaʼ me</w>
j tsop</w>
f amo
ez er</w>
demu estre</w>
cr é
ch ßa
bo m
ama dos</w>
adorar koʼob</w>
TA A
So f</w>
So ber
LIP SIS</w>
Cristi anas</w>
A tzun</w>
ʼan i</w>
éndo les</w>
tu ʼjina</w>
tu al</w>
tijoxe lab</w>
tama ño</w>
sépti mo</w>
spa j
skolta yel</w>
pa ʼ</w>
nego cios</w>
ji m
investiga ción</w>
inmere cida</w>
ichin an</w>
i hom</w>
hu milla
converti rse</w>
cono cí</w>
co sta</w>
chʼo ne</w>
ca f
ba ile</w>
R ÖJ</w>
Maj qui</w>
H U
A ni</w>
y ânk</w>
xki yaʼ</w>
voʼo tike</w>
tsʼi ʼ
tsʼa ʼ
toj ʼesan</w>
su i
sa carle</w>
s nuptan</w>
s kʼakʼal</w>
quin bij</w>
qi pumal</w>
pos esión</w>
ni vel</w>
lleg ara</w>
kʼa xkʼo
ka m</w>
ja tz</w>
inten ciones</w>
e lo</w>
do ble</w>
des esper
chʼi ji
ch chʼay</w>
an ïk</w>
an quil</w>
Sober ano</w>
P Í
Jac k</w>
F é
Do min
Bo az</w>
ʼn xix</w>
we ˈy</w>
tzˈi ba
tuuntes el</w>
tsi jiʼ</w>
tor men
sufri eron</w>
q kʼujlabʼil</w>
pij tan</w>
pelícu las</w>
mol de
kiko t</w>
jun xi
ja ʼal</w>
enfren tan</w>
d S
cʼʌ ñob</w>
br once</w>
binti c</w>
ba da</w>
avoʼonton e</w>
aqʼu en
ade cua
Kʼo xla</w>
Antigu o</w>
versi kulo</w>
ten a</w>
scho l</w>
ren cor</w>
ra les</w>
pi xaʼ</w>
pensa ban</w>
n xi</w>
llev ando</w>
kke taʼmaj</w>
inten ta</w>
guer ra
diri gen</w>
cion etik</w>
cho lel</w>
chka kʼbetik</w>
cheʼo xeb</w>
at re
apósta tas</w>
ane tziˈn</w>
Te ß
Pre di
ˈ j
ʼu x</w>
yaj can</w>
xkʼa ʼuxl</w>
xi ʼ
skʼan ojik</w>
sec und
queß xyîb</w>
on inquil</w>
n kʼis</w>
llen ó</w>
kʼaa sil</w>
jóoʼ saʼal</w>
jtale laltik</w>
ini ke</w>
ent era</w>
dá di
cä ka
con junto</w>
chaʼ na</w>
chan e</w>
a ß</w>
Lâ ex</w>
CH Eʼ</w>
Bi l
úni camente</w>
yoʼ en</w>
xe ʼok</w>
tsʼo o
tram pas</w>
súu tuk</w>
resuci tados</w>
re ti
que daba</w>
qi ʼje</w>
o portun
niqui ben</w>
majtan il</w>
lo kʼik</w>
kyi l</w>
keʼ y
ka am
k la
jchʼuun tik</w>
espa cio</w>
enfren tó</w>
electróni cos</w>
dra gón</w>
dios oʼob</w>
demostr ando</w>
cojon elab</w>
chíik bes
chani m</w>
cha like</w>
be ic</w>
a tribu
a soʼ</w>
TU LO</w>
M al</w>
Kʼ ÁA
Ku bʼ</w>
E bre
Agri pa</w>
3 3
xu ke</w>
vuel tas</w>
t Name</w>
si cß
pesi iy</w>
o on</w>
mayor do
il le</w>
dis creto</w>
con fí
chʼʌm ʌ</w>
chi jetik</w>
chi ch
chaj ariik</w>
caf é</w>
ca ído</w>
banami le</w>
To más</w>
F O
ʼn x</w>
â c</w>
xti be</w>
xcha pan</w>
x maak</w>
ux pʼejl</w>
tsi loʼobeʼ</w>
ten e
sama jel</w>
refle ja</w>
reali sta</w>
qu ʼjin</w>
profeti zó</w>
pro pesiiy</w>
pri vado</w>
mʌ lob</w>
mi te</w>
m ê
le hom</w>
la mos</w>
la etik</w>
l era</w>
kʼaxkʼo lil</w>
kʼanje laq</w>
ku kʼutu</w>
ju baˈ</w>
j naʼoj</w>
he ʼk</w>
ern es</w>
chʼuju tesan</w>
bur go</w>
S hi
S ha
Inter ne
xu wi</w>
x vul</w>
w enta
vide oetik</w>
tza qˈ
tz olbʼal</w>
ti bʼa</w>
te e
t qʼaj
suc eso</w>
smu le</w>
regres o</w>
qa wäch</w>
pʼa ʼa
ocurri do</w>
nupun ele</w>
moti v
maasi loʼ</w>
le lic</w>
kʼox aj</w>
kʼa ay
koj choman</w>
jna kle
impres cin
imprescin di
escu chado</w>
enfren tamos</w>
edi ficios</w>
ch abʼanaʼ</w>
ayudar ía</w>
Sina í</w>
Evangeli zadores</w>
Esta ba</w>
E C
2 ,000</w>
ú m</w>
xo qil</w>
xa kab</w>
ván tate</w>
ve ían</w>
tu t</w>
tsʼáaj oʼob</w>
tok lin</w>
t ʼik</w>
t îc</w>
ru ego</w>
publi có</w>
profecía ʼob</w>
nuʼuk taʼal</w>
nekeʼ xkʼu
na kʼulmank</w>
maa ʼani</w>
kʼi lal</w>
kʼex el</w>
jtu untes
gu stó</w>
en aq</w>
e ven
crí ticos</w>
cor responde</w>
convi erte</w>
cere bro</w>
ayu dante</w>
ani man</w>
RESU MEN</w>
Kʼe lik</w>
Kʼa akʼa
1, 3
ñ aʼ</w>
yu waʼbʼej</w>
yon il</w>
y era</w>
xáan chaj</w>
xloqʼo ninkil</w>
xcha p</w>
ver los</w>
tsʼíib t</w>
traba ja</w>
tra jo</w>
tati letik</w>
suce dido</w>
ra q
pu l</w>
p inti
obede ce</w>
ni ki
mu l
maj li</w>
ma taron</w>
kʼu nuk</w>
kaʼani liʼ</w>
jo wa
is mo</w>
est ri
en as</w>
des nu
chki ltike</w>
archi vos</w>
apren da</w>
al beik</w>
Yuum tsileʼ</w>
S ON
M il</w>
Ch ʼi
4 00</w>
19 50</w>
ver án</w>
suj mic</w>
sa ʼel</w>
s j
res pi
re o</w>
pi el</w>
pe ˈ</w>
me ʼk</w>
m ará</w>
li ne</w>
kuʼun e</w>
jkolta ytik</w>
ino cente</w>
gar an
dr é</w>
di ría</w>
cuesti on
cristian dad</w>
cre o</w>
chʼo bʼo</w>
ar resta
Xu qujeʼ</w>
Ver sión</w>
Tqa tzʼetaʼ</w>
Taiw án</w>
N TEL</w>
MÁ A
I I</w>
, 6
úni cos</w>
ín te
ê riq</w>
yô quex</w>
xi ʼya</w>
x chu
vio lento</w>
vi du
términ os</w>
ta koʼ</w>
ta eʼ</w>
skolta yon</w>
ra ma</w>
na kal
manta letike</w>
lu j
le e
la v
kya je</w>
ko mal</w>
kki bʼano</w>
jalan il</w>
indi vidu
guar dia</w>
garan tía</w>
determin ado</w>
cua dr
cu tic</w>
cor on
comen zar</w>
ch u</w>
bi deo</w>
SANTI L</w>
Ja aj
E sa</w>
Be eta
Arthu r</w>
, 7
ñ ob
we en
v oʼone</w>
tbʼin chaʼna</w>
t kʼul
proba do</w>
no vio</w>
na cuulac</w>
la qʼeʼ</w>
la ayu
kßax tesi</w>
ky ˈ</w>
ja q</w>
j tsob</w>
hi b</w>
he cha</w>
entien de</w>
distan cia</w>
des tino</w>
chʼi chʼe</w>
chaj oʼob</w>
bʼ k</w>
ab raz
Y i
T ʼA
L ink</w>
E dom</w>
xta kla</w>
xo kaj</w>
veje z</w>
tx al
ts taik</w>
taʼma xik</w>
ta kel</w>
sinago gas</w>
ser é</w>
proteger á</w>
prome ti
perman ente</w>
men su
m c</w>
kʼaʼabéet chaj</w>
h em
es en</w>
entr a</w>
ener gía</w>
der ri
cʼʌ b</w>
cä mic</w>
co lel</w>
baj tʼ</w>
Rub én</w>
R onojel</w>
Lok ß
Ku kx</w>
Jaco bo</w>
CH ʼ</w>
Bel sa
1, 7
ô b</w>
x na</w>
wi cʼot</w>
vuel van</w>
vie jo</w>
tsʼoʼok besik</w>
signifi can</w>
sa haq</w>
s ando</w>
ri t</w>
q wiʼ</w>
pregun taba</w>
perten ec
pat ä
oy eron</w>
muri era</w>
ma lil</w>
kʼu pin</w>
kʼiwla ʼn</w>
junama taj</w>
im primi
gaba oni
eni man</w>
don ación</w>
cʼʌj ñel</w>
cʼ ʌl</w>
cßu lbal</w>
chame m</w>
bon ik</w>
apaci ble</w>
TZA Qʼ
TZ ʼ
So cie
Si ón</w>
yok jaʼ</w>
xem ana</w>
woco lic</w>
ven tan
terr estre</w>
tab la</w>
skʼe lik</w>
sen ya
ki ril</w>
juda etike</w>
imag ina</w>
fij émonos</w>
ermano e</w>
cʌ j
consu lta</w>
come te</w>
cha jal</w>
ba sura</w>
ba do</w>
abund ante</w>
Or gani
KY I
Ja ku
D EO</w>
CHU QUI</w>
Ajvali lale</w>
ñusa ñob</w>
ñ al</w>
t esta
sto r</w>
sa jiloʼ</w>
s tal</w>
qʼuq li</w>
qʼa jel</w>
o xeb</w>
ma tajik</w>
la juj</w>
la bios</w>
kʼo ʼobeʼ</w>
ga das</w>
esfuer za</w>
el es
e tel</w>
diver sos</w>
con tamos</w>
ch bʼil</w>
ban om</w>
ba tkutik</w>
ba tike</w>
al oʼob</w>
V AN</w>
T aj
ON O
L an
ES TE
Chi rix</w>
Ca min
CH ʼU
17 3</w>
15 1</w>
áan taʼa
y än</w>
wíini keʼ</w>
tsʼij bu</w>
ts ʼin</w>
si entes</w>
religion oʼob</w>
qʼ ät</w>
qan aʼ</w>
pu wiˈ</w>
pu q</w>
o th
na mente</w>
l ʌ</w>
kʼo tuk</w>
joʼop ʼol</w>
j mil</w>
gu err
extra ñ
exi stir</w>
egoí sta</w>
du ele</w>
cor respon
chi ʼin
bi s</w>
avu tsʼ</w>
acti va</w>
M oʼoj</w>
Kʼaʼabée t</w>
Kʼ e</w>
C oral</w>
Ale jan
A dan</w>
A CIONES</w>
yóo leʼ</w>
xyu waʼ</w>
xa ataw</w>
u w</w>
u tobʼanik</w>
traduc tores</w>
sja kʼbe</w>
si en</w>
s tukʼil</w>
pá jar
olo letike</w>
máan s</w>
maye ja</w>
m emos</w>
kanáan t</w>
ixo qibʼ</w>
i kʼbʼil</w>
exi ge</w>
exa cta</w>
engendr ó</w>
destru ida</w>
de partamento</w>
co jix</w>
ci ta</w>
chi le</w>
cha jil</w>
ba tem</w>
ba sa</w>
arre pinti
aloqʼo qʼej</w>
al kyeqe</w>
acti tudes</w>
Tu ʼjil</w>
SA S</w>
No pa</w>
Man chukme</w>
Le loʼ</w>
J KʼO
CA J</w>
Be tele</w>
Aqu í</w>
1 22</w>
ü k</w>
é sta</w>
yi chʼ
xt yaʼ</w>
x milal</w>
un ció</w>
st ía</w>
sincer as</w>
sa che
s beilta
s ario</w>
res plan
qi lo</w>
pregun tarse</w>
per dieron</w>
padrenu estro</w>
nin k</w>
nax qßue</w>
maj ta
m bʼal</w>
lo kˈolaj</w>
kʼajkʼa lel</w>
inmen so</w>
il bil</w>
hi m
fo tos</w>
e tal</w>
den te
chakʼ beik</w>
Ni ger
H al
Fé lix</w>
Cu r
yu waʼ</w>
yo l
yaʼ lel</w>
yaabila joʼ</w>
waʼa li
to ko
qßue hoc</w>
papi ro</w>
oxlo qʼ</w>
na c</w>
ministeri al</w>
maʼ anic</w>
ma jij</w>
logr aron</w>
le ku
kˈ iy</w>
ka menaq</w>
jo ol</w>
jkʼan betik</w>
cono cida</w>
chʼina ʼu
ch ro
cams îk</w>
am érica</w>
ad ora</w>
acep te</w>
VID E
T in</w>
RI O</w>
Li x</w>
I chil</w>
File món</w>
CA LIPSIS</w>
APO CALIPSIS</w>
A ten
yaan toʼon</w>
u vas</w>
tʼaan il</w>
tz ma</w>
tsʼíibo la
tikʼ x</w>
smu lanik</w>
segui rá</w>
se pan</w>
sbaj tel
qe t</w>
o fi
mundi ales</w>
muli j</w>
kß a</w>
k kil</w>
ja tet</w>
j yoʼn</w>
i kʼot</w>
histori ador</w>
deci dimos</w>
computa dora</w>
bee teʼ</w>
Y an
Uni ver
Magdal ena</w>
In forme</w>
CH ʼI
BENE FICIOS</w>
A quel</w>
yeʼesi k
wóo leʼex</w>
vali osos</w>
us cri
tsʼiba bil</w>
tar la</w>
sé ñ
sNa il</w>
rî tzßin</w>
rutz jol</w>
lek nax</w>
laj inel</w>
kʼa xki
kʼ eʼ</w>
jtsa ktik</w>
j yan
israe lob</w>
escu ela
cont estar</w>
consu ltar</w>
ci dental</w>
chkal betik</w>
ak ˈ</w>
MA N</w>
Kʼaakʼa lehom</w>
HACER LO</w>
Gomor ra</w>
Eli ja</w>
Cla u
Chi pre</w>
AN DO</w>
Ä J</w>
xiʼi pal</w>
to dopoderoso</w>
ta qˈ
su a
sno poj</w>
sjabi lale</w>
seguer naj</w>
sa das</w>
s nopo
ries go</w>
re kʼa</w>
raho btes
ra maj</w>
ra ciones</w>
prepar ación</w>
pi diendo</w>
pelícu la</w>
pali tsi
novi a</w>
meʼi letik</w>
ma x</w>
ko mon
jo ñonla</w>
honra dez</w>
esta ción</w>
emi ke</w>
d ándole</w>
con fun
colabo radores</w>
chʼen xikin
ban amil</w>
ar co</w>
abandon ado</w>
a ku</w>
Ti enen</w>
Kʼa ʼaj
Kʼ loj</w>
EJE MP
AÑ O</w>
yu ßam</w>
xku ybʼal</w>
xi mane</w>
xco lelob</w>
x er
tâ châlk</w>
tz en</w>
to car</w>
ru bʼiʼ</w>
refer encias</w>
que dará</w>
produ cen</w>
pro s
obliga ción</w>
o lob</w>
náa ch</w>
n kowin</w>
mlay x</w>
lle ve</w>
kʼa mol
ju sta</w>
j vules</w>
impresion ante</w>
cono ció</w>
comien zo</w>
bʼin chan</w>
bʼan yo
bʼ ini
bus có</w>
actu ó</w>
a pre
W O
UR L</w>
TA ʼ
PRINCIPI O</w>
P ix
No q</w>
Men cione</w>
Jo jkʼo
FI CA</w>
8 0
7 7
5 9
yáan taʼaloʼob</w>
yon lel</w>
yo silal</w>
tê qßue</w>
ter os</w>
ta y</w>
sincer idad</w>
pu ubʼ</w>
mucha cha</w>
minis tros</w>
ma y</w>
le jil</w>
kʼu ʼu
ki chʼ
jela v</w>
ja ba</w>
hospitala rios</w>
gratu i
gobern ará</w>
existi rá</w>
cʌ ñʌ
com on
colta yon</w>
ca lo
aumen tar</w>
am on
a li</w>
Ri ta</w>
yuts kíin
yeʼes il</w>
xka kʼbetik</w>
xakʼal xok
x ec
tí tulos</w>
tsʼoo keʼ</w>
tri bun
su unaj</w>
senti remos</w>
s ve
recibi rá</w>
r te</w>
q pakbʼan</w>
pó cri
pos esiones</w>
p t</w>
p l
obedeci ó</w>
o br
mi tiʼ</w>
le yoʼob</w>
kaxti koʼob</w>
ka k</w>
esco gió</w>
discerni miento</w>
dis posición</w>
cu rar</w>
bi o</w>
b ía</w>
M B
FE LI
zar án</w>
xtik lajik</w>
xchʼa m</w>
x bʼe</w>
veʼ lil</w>
tsikbalti keʼex</w>
skʼu ʼ</w>
ree talil</w>
ral cˈual</w>
ra dor</w>
qa moloj</w>
perman ece</w>
perman ec
on ine</w>
obst áculo</w>
in mor
g encia</w>
f a</w>
encontra ba</w>
edifi car</w>
doc to
di éramos</w>
cˈa tzin</w>
có lera</w>
aposto loʼob</w>
a ho
Z im
Y Ʌ
SO TROS</w>
S KʼAN</w>
NO SOTROS</w>
M os
E le
Cʼaj tiya</w>
Ba t</w>
A pó
xa t
xa pon</w>
x mu
sú b
su ʼu
sta mente</w>
si ma</w>
se la</w>
res is
qui eb</w>
oʼ lol</w>
o sidad</w>
n ch
me lo
lúu b</w>
kʼáa tik
koʼonton kutik</w>
ke ß</w>
kan kil</w>
jee tsʼel</w>
go e</w>
emi a</w>
de primi
cu bri
continú a</w>
ce lo
bebi da</w>
ana ʼoj</w>
T z</w>
T ap
Sau le</w>
M er
L es
Ef eso
E m
1 Te</w>
x xu
us aron</w>
tu min
tsʼo kaʼaniliʼ</w>
trabaja dor</w>
te yele</w>
ta tʌlob</w>
sbi ile</w>
sbajtel kʼinal</w>
s á
ru kʼexel</w>
ren di
quix yîb</w>
q tzalaj</w>
p íi
liter al</w>
liber ación</w>
jkʼakʼali ltike</w>
indi car</w>
i za</w>
guí e</w>
des vi
cion oʼob</w>
chaʼan t</w>
car é</w>
bra ille</w>
ale gre</w>
ala r
ac ceder</w>
U STE
TI OS</w>
S TA
P EN
Mel el</w>
M úsica</w>
JA S</w>
Ch qi
C hab
C e
199 9</w>
, 8
óola leʼ</w>
ya to</w>
xkße hil</w>
xkux et</w>
voʼo te</w>
u b</w>
tt xo
tijoxe labʼ</w>
t kʼwa
snu p</w>
skoto lik</w>
sin k</w>
seman aoʼ</w>
pʼun taya</w>
majta ñʌl</w>
le yó</w>
kúu chil</w>
ki kʼulmank</w>
junal x</w>
jma la
instru cción</w>
inclu ir</w>
for mar
deci rlo</w>
cuan quilal</w>
confli ctos</w>
con cep
com para</w>
cha wä</w>
akʼ bo</w>
ado raban</w>
O b
JE OV
J TI
Dani ele</w>
CO RIN
Alb ania</w>
óo ltoʼob</w>
ä ch</w>
wakles i</w>
taʼa loʼ</w>
ta lik</w>
stale lale</w>
s es
procla mar</w>
pensa miento</w>
ocu lti
naka lik</w>
jo ʼn</w>
flo res</w>
e char</w>
des obedecer</w>
cu ʼun</w>
convi er
compren de</w>
ci ma</w>
chʼi j</w>
car ros</w>
bun kutik</w>
ayudar me</w>
anunci ar</w>
O Y</w>
Hebre ob</w>
ólo go</w>
yu mʌlob</w>
yook o</w>
x che
x be</w>
vide oe</w>
ven ían</w>
usa ba</w>
tzo lij</w>
tuʼu xoʼob</w>
tranqui la</w>
too bʼ</w>
toko om</w>
spaso jik</w>
ro jos</w>
regula ridad</w>
pʼiju btes
po xta
ob vio</w>
mem ente</w>
lam peʼ</w>
kʼamol bʼe</w>
kyim len</w>
kab ʼij</w>
jun aj
in justos</w>
il baj
gra cia
gan da</w>
esca par</w>
embaraz ada</w>
e ˈ</w>
disfru tan</w>
cha yaʼ</w>
ch cham</w>
bee ta
animar nos</w>
ana w</w>
an z
a zar</w>
YA L</w>
Tso bo
No joch</w>
Imag in
Beeta ʼanoʼob</w>
ye kˈ
yakʼ bon</w>
yajrexti kotak</w>
xkʼo jiʼ</w>
x chʼoo
vesti do</w>
us emos</w>
u qʼa
recuer dos</w>
nor malmente</w>
mencion ada</w>
ma yuc</w>
loʼi le</w>
li bre
le en</w>
kʼin ale</w>
kʼaʼay taʼal</w>
kkʼul mataj</w>
kiko jonik</w>
kab ânu</w>
k äm</w>
jun chajp</w>
j yon
in mun
h all
fer i
f ar
e tes</w>
dere cho
cu l</w>
cho lajem</w>
bey oʼob</w>
ba oʼ</w>
apo n</w>
acer carnos</w>
Steph en</w>
Pro medio</w>
Pe ter</w>
Kʼáat chiʼ</w>
Kʼ AN
Iscari ote</w>
H T
G n</w>
A li
w 99</w>
uni do</w>
to eʼ</w>
ti xbânu</w>
tar ían</w>
salv ará</w>
ro man
preci samente</w>
nu tzʼët</w>
mari do</w>
l tes
jechu ke</w>
j yalel</w>
j tik</w>
in stante</w>
escu elas</w>
cʌlʌ x</w>
cß ut</w>
comba tir</w>
chaj pʌ
b ó
asi mismo</w>
a tzunte</w>
a jej</w>
Tso ble
Pix abʼ</w>
Ni kʼ
KʼA J</w>
Jun téenjea
ß i</w>
xkʼa jol</w>
viaj es</w>
v arón</w>
twu laq</w>
tu m</w>
tranqui lo</w>
tor mento</w>
tkʼul manq</w>
tij bat</w>
tenqʼan q</w>
taasik toʼon</w>
spica cia</w>
saho ʼk</w>
s ʌntel</w>
qan aʼlebʼ</w>
q ʼan</w>
q qanin</w>
llev arnos</w>
kaʼan si
jóoʼsa ʼ
jun tas</w>
ja ta
ho mbr
for mó</w>
específi co</w>
enseñ e</w>
em per
des o
deci den</w>
co ordin
cabal los</w>
a kʼaslemal</w>
Tu ʼux</w>
OR ACIÓN</w>
Mar íaeʼ</w>
M is</w>
F r
EST E</w>
AYU DA</w>
é tica</w>
xu j
xa xu</w>
tsʼʌcti yel</w>
tsi leʼex</w>
sama ʼn</w>
s wokol</w>
re di
qʼuele yob</w>
qʼe ʼn</w>
péek tsilil</w>
presen tan</w>
pare cidas</w>
meyaj tiʼob</w>
maj tʼan
libr oʼob</w>
kʼiin bes
kʼala luk</w>
kolta yot</w>
kiʼ tʼan
inacti vos</w>
hablar le</w>
gui ar</w>
fortalec en</w>
cßu t
consecu encia</w>
comon eb</w>
chaj p
bási cas</w>
bee loʼ</w>
bah lu
an sw
ami ga</w>
a xi
a tojol</w>
X JAL</w>
T qanil</w>
R CHË</w>
PER SON
K in
Fo to</w>
yuts lel</w>
yeʼes oʼob</w>
x saʼ</w>
x chol
wi ch</w>
v une</w>
u ri
ts nuptan
tin bânu</w>
teʼ xbʼaanu</w>
ter na</w>
tbʼin chbʼen</w>
ta ba
sobres ali
skʼo ʼn</w>
satisfe chos</w>
re taʼmaxik</w>
qʼon te</w>
pe ʼ
nope le</w>
justi fi
j meʼ</w>
imagin ar</w>
e tí
e lección</w>
diver siones</w>
dios boʼo
chix tojbal</w>
ba luk</w>
ante pasados</w>
acep taron</w>
a prueba</w>
Tsʼ áa</w>
Raa tinankil</w>
Nikʼ wach</w>
Mi ca
LI B
Kri ist</w>
B et</w>
ë l</w>
xchʼoo lebʼ</w>
to ro</w>
sto j</w>
s preva
ru man</w>
ru discípulos</w>
qßui al</w>
pʼa taj</w>
pro viene</w>
on ik</w>
o ˈ
lla mente</w>
l c</w>
kʼaʼa mal</w>
koʼo leloʼ</w>
kix kʼutbʼesi</w>
jo ven
jni t
gol pe</w>
expres ó</w>
conver tido</w>
chʼi jy
chka kʼ
chix kʼatq</w>
ca ji
bondado so</w>
ba ltik</w>
ayudar te</w>
Sof on
Socie ty</w>
Q IL</w>
Mo z
á ab
xnum sinkil</w>
xaʼi beik</w>
tsʼíib taʼal</w>
ticʼ l
so ke</w>
s yent</w>
s chʼa
reuni ó</w>
profun di
os pi
lip si
l una</w>
gu es</w>
es cena</w>
eli ke</w>
dS hor
bʼincha ʼne</w>
benefici an</w>
aʼa lik
añ on</w>
WA CH</w>
Tsobo bba
PASA DO</w>
Jero bo
E M</w>
ñob la</w>
yal beyik</w>
terremo to</w>
ta u</w>
sma koj</w>
s aron</w>
respe tan</w>
regres aron</w>
ra yi
o ʼtan</w>
like mik</w>
kʼajo mal</w>
k bil</w>
j pisiltik</w>
iwi b</w>
i jul</w>
exper to</w>
ex cu
ech aron</w>
cau sado</w>
bʼ resinkil</w>
awa chi
aqʼu en</w>
X CɅNTESA</w>
T ak</w>
SIG NI
SI EMP
SIEMP RE</w>
Ju i
J IL</w>
Im perio</w>
F lo
Efeso iloʼob</w>
Cha ʼan</w>
CON VER
1 13</w>
ón eʼ</w>
yoli na</w>
yo mob</w>
yamigo tak</w>
x tun</w>
ve cin
usa ban</w>
tâ canâk</w>
tsʼoʼok bes
t se</w>
se millas</w>
s h</w>
rebel des</w>
re ún
qʼo l</w>
oʼo noʼ</w>
muli va
ma ltik</w>
le che</w>
kʼin ik</w>
kux tal
jchʼu no
j chʼay</w>
in justo</w>
fo to
enfren tar</w>
e tzelal</w>
cʌy tʌl</w>
bʼi xel</w>
ay un
anun cio</w>
ama ban</w>
X jel</w>
S oy</w>
PRE N
C Λ
B in
Apo k</w>
A chʼ</w>
yab tele</w>
xo pan</w>
wi iʼ</w>
v oʼob</w>
u familia</w>
tâ ye</w>
tak l
sma lale</w>
sem bra
se bʼ</w>
sa chi
ru kˈaˈ</w>
reaccion ar</w>
pi c</w>
per ver
na tzjoj</w>
mu darse</w>
l lan
kʼi ke</w>
ko e</w>
ju kubʼ</w>
j áa
i wiˈ</w>
encontr é</w>
cˈu x</w>
chʌ me
car los</w>
cabe llo</w>
beet bil</w>
bee toʼoboʼ</w>
baʼalche ʼob</w>
ba la
avi ón</w>
adver tencias</w>
Ta ksaj</w>
So bre</w>
Pue des</w>
Pu erto</w>
N aj
Mu sik</w>
Is ma
5 7
yʌqʼue ñob</w>
yoto choʼob</w>
yan ta
yabte like</w>
xki bʼij</w>
war al</w>
u qʼabʼ</w>
tu m
ten k</w>
tatx tenqʼa</w>
t kab
súb ditos</w>
su tes</w>
rom per</w>
q oni
perdon e</w>
paala leʼ</w>
naqa kʼe</w>
kˈ at
ka manik</w>
demostr arle</w>
consider an</w>
consider aba</w>
bʼan am</w>
ar gu
al tos</w>
a aʼ</w>
Sofon ías</w>
S us
Belsa sar</w>
óo ltaj</w>
ñʌchʼ tan</w>
Á N</w>
xo jo
xkuxleja le</w>
wi ˈja</w>
voʼne al</w>
tzˈ u
tzʼa lam</w>
t ʼol</w>
s familia</w>
ru qʼ</w>
ra d</w>
náa ja
nacion ales</w>
mintiʼ xix</w>
le bâl</w>
kʼe hok</w>
kaj tz</w>
invisi ble</w>
i kʼa
glori fi
ga s
dur ó</w>
d y</w>
cua c</w>
consider ado</w>
consi ste</w>
chab ʼij</w>
at taq</w>
a fuera</w>
Tra ct</w>
Por tu
Mar y</w>
Man ta
Cre es</w>
yutsi lal</w>
yin am</w>
yi ˈ</w>
yaʼ bi
yaan ten</w>
xkʼo jo
vun etike</w>
venta uk</w>
u tsʼ
tri a</w>
símbo lo</w>
so e</w>
secre tario</w>
ri da</w>
r âtin</w>
qʼon ka</w>
obje tos</w>
nekeʼ xnaw</w>
na ßaj</w>
n y</w>
m y</w>
kˈ wal</w>
jo qʼe</w>
j ts</w>
destru irá</w>
desta có</w>
decla ración</w>
dar emos</w>
culpa bles</w>
ctesʌ bentel</w>
chʼúu pal</w>
ca ja</w>
ba ch</w>
apren den</w>
aj bʼel</w>
VIV LI
Q asi
Ori ente</w>
No ta</w>
L on
D AS</w>
Ch pan</w>
Ale xan
19 58</w>
yo kol</w>
xi u</w>
vol ví</w>
v anike</w>
u si</w>
ts a</w>
tqʼaj qʼajel</w>
tata bʼej</w>
t ki
sjakʼo bil</w>
rachi ʼil</w>
qui cam</w>
qa kʼux</w>
pejca ñob</w>
on etik</w>
líiʼ saj</w>
kʼaʼa m
jun tiqui
jkʼo pon</w>
inquie tudes</w>
hacer les</w>
des acti
demoni o</w>
deci da</w>
cˈu aj</w>
câ mc</w>
bre vemente</w>
bee leʼ</w>
ban dera</w>
answ er</w>
STO RIA</w>
NU EV
Ma da
J ab
HI STORIA</w>
Aʼ YE
yu jti
yeʼesi ktoʼon</w>
x kalbetik</w>
wu laj</w>
wi ck</w>
w0 3</w>
uʼu yik
tu c</w>
ttxo lil</w>
segu í</w>
s kʼab</w>
qʼa xinaq</w>
por tu
lu j</w>
kˈala jin</w>
jkʼo po
jim bʌ</w>
entrega do</w>
comuni carse</w>
cho y</w>
cams îc</w>
bar cos</w>
a kʼan
To das</w>
T kyaqil</w>
Si quem</w>
S ES</w>
Qasi kʼaq</w>
Q ʼij</w>
JÉE O
200 7</w>
â cuiqßuin</w>
ÍCU LO</w>
xu cʼ
xchaʼ kux
tsʼu ʼu
te cho</w>
tale lil</w>
sjo kin
qʼu ejlel</w>
pʼuʼu jul</w>
prote gió</w>
priori dad</w>
pres os</w>
oculti smo</w>
na yaʼ</w>
man tenemos</w>
kˈu ˈja</w>
kʼas kúun
keʼe tel</w>
jich nix</w>
emp o</w>
ch kʼotik</w>
ch cho
aʼte jik</w>
atra ves
ale gra
F ine
AR T
ü p</w>
x bi
ven drán</w>
v ara</w>
u ineb</w>
tun ïk</w>
ts kʼelik</w>
ti camente</w>
tata ˈ</w>
tale liletik</w>
t bʼet</w>
su ba</w>
regi onal</w>
qanin xa</w>
predi ca</w>
pon ían</w>
olo letik</w>
naj ter</w>
na koʼob</w>
kʼex pajal</w>
kʼaʼan aʼan
im perio</w>
i paj</w>
gri tó</w>
espal da</w>
dolo ro
conven i
cic lo</w>
chʼaʼi koʼob</w>
ca be</w>
amo n</w>
aati nobʼaal</w>
Tsʼi betik</w>
Su premo</w>
P an
Lu k</w>
Lo kˈolaj</w>
ʼan ik</w>
yujti bal</w>
we y</w>
ver siones</w>
tsʼa ʼle
t qʼuqbʼaʼn</w>
que dar</w>
q onojel</w>
nu kʼaslemal</w>
máa kalmáak</w>
mer cado</w>
ma duro</w>
kʼi xkʼo
jtuuntes tik</w>
hi ri
go z
fu mar</w>
cʼʌ yob</w>
caden a</w>
bi saʼal</w>
ar ena</w>
a fri
SIGNI FICA</w>
S ko
O J
L ac</w>
Ej érci
Dar ío</w>
C ʼʌ
yik ta</w>
y uni</w>
xlo qʼal</w>
xi bʼij</w>
xchi ʼil</w>
we h</w>
upatan elabʼ</w>
u bʼantajik</w>
sorpren de</w>
s kʼajkʼalel</w>
resu lte</w>
pʼáa tak</w>
pʼiju btesel</w>
posi tivas</w>
pien sen</w>
pa do</w>
p lí
ov eja</w>
num si</w>
nekeʼ xkʼoxla</w>
mel beñob</w>
me lo</w>
maj li
lâ k</w>
la sti
gu era</w>
esta bilidad</w>
di aria</w>
de bo</w>
a qʼue
Tho mas</w>
RE IN
Mejo re</w>
Cha aj</w>
6 ,000</w>
yu ʼel</w>
yaan tiʼ</w>
xuʼul saʼa
xaval be</w>
x tojo
váli do</w>
ven cido</w>
transfu siones</w>
tqa kʼe</w>
to mando</w>
ta be</w>
servi do</w>
s pu
qʼoro q</w>
qʼo r
pre mio</w>
periódi co</w>
perdon ado</w>
mostr ando</w>
mo tiva</w>
mis os</w>
koʼonton e</w>
hal lar
g oʼoboʼ</w>
fru tos</w>
exhor tación</w>
esco gidos</w>
desta car</w>
car gas</w>
az u
asegur arnos</w>
aposto loʼoboʼ</w>
am eʼ</w>
agrade cer
PA S</w>
Niger ia</w>
Mada gas
Lin da</w>
Haz te</w>
CONVER SA
B ran
14 4,000</w>
ya ka
xt bʼanatäj</w>
xi ik</w>
vide ooʼ</w>
u Tzij</w>
tʼan ik</w>
ter son</w>
skʼelo biltak</w>
sja jchibal</w>
ru ch</w>
re un
ra e</w>
ra di
qui la</w>
prepar arnos</w>
n tzaj</w>
mʌ c
m ä
lti c</w>
loʼi letik</w>
ko m
jun lo</w>
i we
i qʼ</w>
graba ciones</w>
espiri tismo</w>
enten día</w>
comi té</w>
albil kʼop</w>
aca bar
a lil</w>
Moz ambi
Madi án</w>
FAMI LIA</w>
ART ÍCULO</w>
A M</w>
xuu loʼ</w>
teß cuânk</w>
termin a</w>
skʼop ik</w>
samaritan o</w>
regis tra
pe dí</w>
mostr arles</w>
mencion ar</w>
lokʼol kʼop</w>
ku xa</w>
iwu qˈui</w>
infor mes</w>
her ida</w>
hacer me</w>
d ones</w>
cßa baß</w>
cul turas</w>
cu xul</w>
co cß</w>
ca usar</w>
bʼa an</w>
ayu daba</w>
ar c
ap én
am á</w>
ajwa liletik</w>
Lo qʼalaj</w>
JCH AN
H or
yu umil</w>
ya v</w>
xku jch</w>
xcho lel</w>
utili zando</w>
to jil</w>
tan qʼi
taja yob</w>
t ʌ</w>
sja kʼ
ru s</w>
ru bʼi
p ʼ</w>
na cer</w>
máa kaʼ</w>
má quina</w>
moti vó</w>
llama ban</w>
kyi ˈj</w>
ja da</w>
inicu o</w>
chʼi c</w>
beteli tas</w>
ayu damos</w>
asisten tes</w>
a mu
Tsʼíi boʼob</w>
P reg
NA X
Jeremi as</w>
Ch ʼa
CA R
óox túul</w>
óo lt</w>
yaabi lta
wa ʼn</w>
túu lal</w>
tukʼi la</w>
tewchi bʼal</w>
sto n</w>
simi lar</w>
scʼo plal</w>
re za</w>
qa taman</w>
q xo
públi cos</w>
pâ ban</w>
prue be</w>
pe ces</w>
p inik</w>
mula ñob</w>
man tienen</w>
len e</w>
leg ales</w>
ke ʼok</w>
jkʼu pin</w>
i cʼ</w>
g resi
entre gar</w>
chʼo yol</w>
cho ple
bʼe yom
bi lidades</w>
at han</w>
ale le</w>
albe yaik</w>
ac la
N ar
Jeho i
J TA
J O</w>
Bu chʼutik</w>
Babiloni ae</w>
Aß aneb</w>
19 43</w>
1 18
ʼa bʼin
yaj ñelob</w>
xʼa l
tén ganse</w>
tsʼa ʼan
tku bʼaj</w>
taba co</w>
re confor
qui to</w>
prácti co</w>
o re</w>
na kʼanjelak</w>
mil pa</w>
mani fi
maj lelob</w>
m pʼejl</w>
le jal</w>
kʼixkʼo j</w>
koj kun</w>
kix kʼut</w>
jy q</w>
inten tar</w>
habi do</w>
fortale cerá</w>
f il</w>
es ku
e paj</w>
beet kiʼ</w>
be lle
bah el</w>
auto móvil</w>
ata mente</w>
apli caciones</w>
a to
VIVLI AE</w>
V en</w>
Si dón</w>
SUJ TI
Oli vos</w>
O BTE
Le yoʼ</w>
L ine</w>
Kʼaʼa y
úuchjea kileʼ</w>
yajtsʼaklom take</w>
xqa tzol</w>
xchan beik</w>
wuʼu yik
to li
tij en</w>
ta kik</w>
sto r
senci llamente</w>
predi cho</w>
po kon
pi s
pen dientes</w>
pal mente</w>
ojée ltbil</w>
necesi tas</w>
mo difi
man uscri
lla r</w>
libro aʼ</w>
ky pon</w>
ka jta
jun a
jnichʼna b
itz ʼj</w>
identifi car</w>
hi pócri
f ama</w>
expe cta
ex el</w>
es tra
egoí stas</w>
cui dará</w>
ce dentes</w>
car me</w>
ac ʼʌ
abue la</w>
abier ta</w>
Te kʼuriʼ</w>
Taa taoʼ</w>
Preg ún
PA Í
Noe e</w>
Nab ot</w>
K o</w>
Co me</w>
2, 9
1 16
últi mas</w>
xu x</w>
vuel ven</w>
t û
so s
qachʼa wem</w>
proyec tos</w>
prohibi do</w>
po b
pla ga</w>
pi lan</w>
máan saj</w>
loqʼo qʼ
le o</w>
kyo j
kix e</w>
kin u
keʼ xye</w>
jaʼ e</w>
inten te</w>
i laj</w>
empe zamos</w>
du dar</w>
co c</w>
bendeci do</w>
an aʼ
XNAQʼTZ BʼIL</w>
Tsi ctesʌbentel</w>
TI CO</w>
Ro jo</w>
PA CI
Na tan
Jui cio</w>
Jaku pe</w>
Dem u
BA ʼ</w>
áan taj
yaabi lti
xii boʼob</w>
x comoneb</w>
wuʼuyik aba</w>
wu q</w>
win aq
uxla bʼal</w>
twutz xix</w>
tia ʼanoʼob</w>
tanqʼi bʼila</w>
son ik</w>
sem br
rixa qil</w>
moti vación</w>
medi o
len tel</w>
lan k</w>
jkʼu p
j pʼiji
f abri
cʼa cʼal</w>
conven ció</w>
chʼ ina</w>
che ʼic</w>
chan op</w>
bʼeyom äl</w>
bʌ l
aye ˈ</w>
anje letik</w>
Yo tlel</w>
Segu ro</w>
Pi en
OR A</w>
CONVERSA CIÓN</w>
Abiga il</w>
A ʼAL</w>
A M
1 40</w>
ʼe xiʼ</w>
ú a</w>
yâ bac</w>
yaj nile</w>
ya tok</w>
tzaqˈ win</w>
tukli koʼobeʼ</w>
tsʼi b</w>
trabaja ba</w>
teß xbânu</w>
tak anic</w>
sj j</w>
sabi a</w>
sa la
reali zó</w>
pro cur
princi palmente</w>
pij t</w>
pas kʼope</w>
ol ógi
na zar
na xnau</w>
n ïm</w>
n kinaʼ</w>
n bʼan</w>
me ʼ
ji komal</w>
jchʼu noj
jayi b</w>
invi tamos</w>
famili aoʼ</w>
cuenta il</w>
apa se</w>
Ton y</w>
Que bec</w>
Ki ʼi
Ja el</w>
Isma el</w>
DA TOS</w>
ñu me
í ses</w>
áan ta
yan e</w>
tenami teb</w>
slokʼ es</w>
ser vían</w>
relacion ado</w>
nup un</w>
nqa yin</w>
meya jil</w>
maltyo xij</w>
l lanto</w>
ka laltike</w>
ka bil</w>
j mel</w>
j lu
j b</w>
inmen sa</w>
h na
gobier ne</w>
ex pi
epi demi
câ hib</w>
cui x</w>
ca les</w>
bʼe e
bauti s
anu al</w>
anali za</w>
acu dir</w>
a el</w>
X JU
UN I
San tas</w>
SUJTI B</w>
Pa íses</w>
J nop
I k</w>
Ad ane</w>
A LES</w>
ñaʼ tʌntel</w>
y onal</w>
xáan taleʼ</w>
xkʼu tbʼal</w>
w bˈaj</w>
titu lado</w>
ti jan</w>
tenqʼan kil</w>
te q</w>
ta jic</w>
so r</w>
re cto</w>
qab ʼan</w>
oj qan
o re
mi ca</w>
laj oʼob</w>
kʼuh bʼaal</w>
kaʼansaj oʼob</w>
kan al</w>
jmo juk</w>
grie gos</w>
ejemp lares</w>
eje tike</w>
cla ras</w>
científi co</w>
c y</w>
aku lal</w>
acaba ba</w>
S ER
Lo kˈalaj</w>
IN FOR
I LI</w>
CORIN TIOS</w>
zi lla
yaʼalaʼa leʼ</w>
ya lan</w>
xna ßaj</w>
wʌ le</w>
wíini koʼ</w>
w2 20
val u
tí o</w>
tsʼíibta ʼan</w>
superinten dente
ser vía</w>
s ma</w>
ren o
quebr an
q animaʼ</w>
na wajoʼ</w>
ku mal</w>
k oʼox</w>
k koj</w>
jon tol</w>
j ku
j er
in feri
gi da</w>
dej es</w>
consi gue</w>
concentra ción</w>
co ʼnton
chʼa ʼa</w>
chaʼan tik</w>
bʼ yoʼn</w>
bʌcʼ ñ
boni ta</w>
awi chʼ</w>
Ya h
V amos</w>
R Á</w>
PREGUN TA</w>
KO LTA
Apren damos</w>
ê yânk</w>
ándo me</w>
yuʼubi luba</w>
xóo tʼol</w>
xu ban</w>
xja yil</w>
xcha m</w>
xa m
w b
vo ces</w>
u taqanik</w>
tzß îbanbil</w>
ti qʼoroq</w>
taak chaj</w>
sma lal</w>
san ta</w>
re ino
podr ás</w>
oj tike</w>
nqa täj</w>
me za</w>
kab ˈ
junxi chaq</w>
ja xto</w>
j tso
imprescindi ble</w>
i letike</w>
fir meza</w>
de le</w>
cu la</w>
cooki es</w>
che ˈ</w>
cat ólica</w>
bien venida</w>
bey xan</w>
arc ángel</w>
anje letike</w>
X CHIʼU
TI JON
S EN
Na jil</w>
NI M</w>
Ha i
2 50</w>
ʼe lik</w>
yo ñob</w>
yaa chaj</w>
y n
xy â
tuuku lil</w>
t t</w>
smi yonal</w>
sluma lik</w>
ro e</w>
ri s</w>
razon ar</w>
pa kʼ</w>
mi ta</w>
m án</w>
lʌcʼ ʌl</w>
lar gas</w>
kßax tes
jkʼup intik</w>
e d
docu mento</w>
diose tik</w>
deci rles</w>
chu u
chkal tike</w>
chi qa
ch vul</w>
cen as</w>
ca usan</w>
bʼini ʼan</w>
bla sf
bi saʼa
aqʼun an</w>
apén dice</w>
Y AN</w>
XCHIʼU K</w>
ME JLEL</w>
Ken ia</w>
Jaaj kun
Ja mes</w>
C entr
xya alalil</w>
xkʼa mbʼal</w>
w 00</w>
va yel</w>
u laʼta
to tik</w>
tem en</w>
smo ton</w>
sbe kʼtal</w>
respon diendo</w>
r d</w>
pre fier
posi tivos</w>
peti ciones</w>
nak lej</w>
mu c</w>
mostr aron</w>
majtʼan il</w>
llegar ía</w>
kˈat bel</w>
káaj baloʼ</w>
kipa ltik</w>
ka chomaj</w>
enseñ arle</w>
deja ba</w>
conta gi
con sci
co stó</w>
can ab
c ese</w>
bí amos</w>
avo ʼnton</w>
ama j
T ran
RI ʼ</w>
P al
Ency clopedia</w>
BʼAN IK</w>
én donos</w>
Í n
xtenqʼan kil</w>
x molam</w>
vi aja
tsʼiba el</w>
tsikba leʼ</w>
tar t</w>
ta yob</w>
t kanet</w>
ses enta</w>
reuni eron</w>
qʼi bʼile</w>
por ke</w>
pa h
much ʼuk
modes to</w>
la dri
kʼuu xil</w>
kʼusi uk</w>
in u
enseñ aron</w>
e ß
dis te</w>
confi emos</w>
chˈ a
chʼul na</w>
bʼtesi ik</w>
bi lic</w>
ba s
an cha
U rías</w>
S é</w>
Ri co</w>
Pab l</w>
E xa
ü n</w>
ya ketal</w>
xri lo</w>
tsʼak li
ti saj</w>
tes a</w>
ter rá
ta bʼal</w>
sí n
se ba</w>
sali da</w>
sa jtel</w>
rein os</w>
recomien da</w>
ra bin
pʼ ej</w>
priori dades</w>
po str
par ejas</w>
o lol</w>
nin nau</w>
múuchʼu liloʼoboʼ</w>
mé lec</w>
m estaj</w>
kʼáa teʼ</w>
kux inel</w>
kal be</w>
jkʼopla ltik</w>
ji ß</w>
ho jas</w>
g ían</w>
dne go</w>
chi ʼ
chal beik</w>
bʼin chbʼen</w>
bes i</w>
ba yalxan</w>
anin aq</w>
ab re</w>
PU ESTA</w>
K nor
K al
H emos</w>
Ejérci tos</w>
Abe dnego</w>
áab oʼ</w>
Ä N</w>
ya ʼom</w>
xnaqˈtz bˈin</w>
x yo
ts no
tradi ciones</w>
ta cto</w>
t kʼwaʼl</w>
soltaro etik</w>
s s</w>
ru kßeb</w>
oni b</w>
llen ar</w>
la mal</w>
k tiʼob</w>
ju jumpʼéel</w>
jaaj tak</w>
j era</w>
inte ligente</w>
hab rían</w>
esper aban</w>
des empeñ
bú s</w>
baʼal kúun
ale j
abte lale</w>
S ba
POR TADA</w>
PAÍ S</w>
Ebre os</w>
óli cas</w>
yi x
y äk</w>
xra joʼ</w>
xle kub</w>
xkʼu lu
xki ya</w>
xcha p
xbʼeen wa</w>
xa t</w>
wu ˈn</w>
ton ela
tom emos</w>
ti ik</w>
tbʼan elxix</w>
soldado etik</w>
snop ben</w>
sirku ito</w>
si ble</w>
represen tantes</w>
recha zan</w>
qʼaman xa</w>
q äl</w>
patri arca</w>
ora sion
ob s
núu kaj</w>
naʼ bʼej</w>
máan ak</w>
mar ch
ma dres</w>
laja lic</w>
l g
jtakbo letike</w>
jich me</w>
inmedi atamente</w>
f lu
empie zan</w>
dis cul
destru yó</w>
cˈ ul</w>
configu ración</w>
celebra ción</w>
bi xic</w>
Xe wbˈaj</w>
XJU ʼ</w>
Te en</w>
Re la
Bri tan
8 8
ö p</w>
á i</w>
yaʼa le</w>
x ex
tuk laʼal</w>
te za</w>
sutqʼi ik</w>
sur gen</w>
stʼu j</w>
ru bʼiniʼan</w>
regu larmente</w>
ra ci
r or</w>
qʼax tesi</w>
qui qßueheß</w>
pro vin
predi caba</w>
nu b</w>
naʼa taʼal</w>
maʼalo bta
li que</w>
l toq</w>
kyu kʼe</w>
koʼo noʼ</w>
ki kamk</w>
ke j</w>
ha z
gr ani
gabaoni tas</w>
ga le</w>
g aban</w>
fij ó</w>
ex cla
empe zado</w>
em pres
dej ando</w>
d és</w>
cono zca</w>
co le
chʼaʼa chiʼi
che bʼe</w>
angel oʼoboʼ</w>
TS ʼ
Qui ere</w>
PAR TE</w>
O P
H E</w>
De tenga</w>
Chri sti
BʼA N</w>
BE YA</w>
1, 6
yaʼa lil</w>
x ker
x jolom</w>
wée t</w>
upatan exik</w>
tê lom</w>
tzʼaqa t</w>
tuk loʼob</w>
sluma like</w>
servi dores</w>
s tiʼ</w>
ru wujil</w>
qʼui ñi
qi taj</w>
pi m</w>
paala loʼobeʼ</w>
op ti
ojtikin bil</w>
ocur rir</w>
nîn kal</w>
ni cˈatzin</w>
mâ jiß</w>
muʼ yu
kʼo lik</w>
kyu ʼne</w>
ka choch</w>
ja te</w>
g áis</w>
fr ío</w>
extran jeros</w>
divor cio</w>
desanima dos</w>
da ción</w>
con tienen</w>
comen tó</w>
cho q</w>
bʼano bʼäl</w>
awa kʼ
avo ʼntonic</w>
aten der
ar o
ado ramos</w>
X ban</w>
UTI AʼAL</w>
S naʼo
Nu estros</w>
M BRE</w>
J on</w>
H ab</w>
Es co
Cha wilaʼ</w>
ẍ e</w>
yʌ quel</w>
yojée ltik</w>
ye chi
xra ho
xoj tikinik</w>
wabʼ äl</w>
ti ne
t tzalaj</w>
suce der</w>
parti ó</w>
pa cßal</w>
ofici na</w>
num taj
múuchʼu liloʼob</w>
mo e</w>
min kil</w>
mej lelob</w>
mar cadores</w>
lâ c</w>
l tos</w>
kʼane lale</w>
kya mi
kix tzjon</w>
jue gos</w>
judí ojob</w>
j nu
hermo sas</w>
f ías</w>
er les</w>
e chado</w>
dedi can</w>
curi osidad</w>
compar ó</w>
chʼʌ mob</w>
chkolta atik</w>
chchanubtas van</w>
chch abi</w>
chal q</w>
cer ro</w>
bi kʼtal</w>
actú e</w>
War wick</w>
U no</w>
Tap eʼ</w>
N TIK</w>
Mois eseʼ</w>
1, 5
yʌ qʼuen
xtz ol</w>
wu kʼile</w>
wa chin</w>
taʼa j</w>
t qʼoj</w>
s ts</w>
ro ri
rastre adores</w>
qui ril</w>
qu kʼ</w>
qa kʼaʼuxl</w>
pu wiʼ</w>
pre juicio</w>
pe día</w>
mi so</w>
llev ará</w>
laje letik</w>
ke bʼe</w>
kamigo tak
inc lin
i ˈn</w>
estudi amos</w>
ejer ce</w>
e u
disipu loʼoboʼ</w>
dedi có</w>
da ciones</w>
con tarles</w>
chˈ o</w>
chaj i</w>
caí da</w>
ambi a</w>
alcan zar
ajvali laj</w>
USTE D</w>
U s</w>
Q E
NI DO</w>
Mozambi que</w>
K yu
C â
BÍBLI CAS</w>
yi leʼ</w>
y eran</w>
xta lbʼil</w>
xnaqʼtz ana</w>
x tenqʼa</w>
wä x</w>
wan ko</w>
vi entre</w>
to ca</w>
t bʼis</w>
sme l
ru wächulew</w>
peligro sa</w>
pej ca</w>
o kʼo
kʼas tal</w>
kux la
kasti go</w>
in forma
i remos</w>
grati s</w>
descu brió</w>
descan sar</w>
cono zcamos</w>
ci ar</w>
chqui xol</w>
chi l
cha wach</w>
ch riʼ</w>
ch kʼopo
celebr an</w>
bʼ er
aso mbra
amen az
VER DAD</w>
Signifi cado</w>
On é
Kaj val
Dio seb</w>
Chaj inel</w>
Abra ane</w>
A ʼan</w>
ñʌ cʼʌl</w>
áal kab</w>
yakʼ bat</w>
ya like</w>
ya bʼ</w>
xa kab
x chʼo
w éetel</w>
tzʼ yaq</w>
tzacaê mk</w>
tsa tsu
tra ten</w>
suger encia</w>
su kʼu
respe ta</w>
necesi ten</w>
meyaj naj
le ones</w>
kʼaʼabéet toʼon</w>
kuxa ʼan</w>
ku kʼam</w>
ko lo
k áal
in cul
i wil</w>
i luk</w>
he kß</w>
hal la</w>
cre encia</w>
corre ctamente</w>
can di
agra dan</w>
U tzij</w>
T em
Samu ele</w>
Ru b</w>
Ma me</w>
EN CIA</w>
E lí
AʼYE JU</w>
2 Pe</w>
1 15
ê n</w>
yoʼ laak</w>
yo ˈn</w>
yi le</w>
xcha qʼrabʼ</w>
xa ta</w>
wach bʼal</w>
van o</w>
tâ cuulak</w>
tzˈ ok</w>
trans por
tini eb
tinieb las</w>
sme ʼe</w>
ra bʼi</w>
péek sik</w>
oʼkx ju</w>
nra joˈ</w>
nego cio</w>
mo kon</w>
maʼ yukix</w>
mayordo mo</w>
lí n</w>
lt áa
kanáan taʼal</w>
jcha pan
g ámonos</w>
expul sión</w>
distin to</w>
di chos</w>
cuán tas</w>
confli cto</w>
chki xoʼl</w>
ch äp</w>
ch laʼ</w>
bo te</w>
b ón</w>
alʌ la</w>
aj kʼabal</w>
Sof ía</w>
Recuer da</w>
Me fi
I gu
CH RI
úu choʼ</w>
yojée ltaj</w>
yik na
yaʼ ʌch</w>
xu riq</w>
xakʼal xook</w>
x qßuebal</w>
x hu
winaq i</w>
v á</w>
su tel</w>
rê kaj</w>
ro ca</w>
reve lan</w>
ofici nas</w>
núu ki
nu wach</w>
nu bes</w>
ma les</w>
kax taj</w>
is la
g ales</w>
fir memente</w>
es car
di estra</w>
debi lidad</w>
de volver
dShor tName</w>
cu ac
chʼaʼa pach
chʼ eʼ
chi co
chex ʼaatinaq</w>
chaʼ tiquil</w>
cha pase</w>
c ú
S acer
PO DEMOS</w>
K ir
HE BRE
7 000</w>
19 74</w>
17 8</w>
Ü tz</w>
Ñ a
yóo x
xili täj</w>
xe cha</w>
xchʼu noj</w>
x chi</w>
visi tó</w>
túux tik</w>
tja ya</w>
ter as</w>
t ó
t ân
s tunesik</w>
pi sil</w>
oʼon oʼob</w>
odi ar</w>
meyaj tiʼ</w>
li ci
kʼi x</w>
ky bʼi</w>
koʼo j</w>
ko mik</w>
ja cʼob</w>
hu eso</w>
ho mi
famili aeʼ</w>
emocion ales</w>
em pi
cʌntes añonla</w>
come temos</w>
chʼ lew</w>
cam siheb</w>
b é
awi bʼ</w>
au to</w>
alter na
UT ʼIL</w>
Re p</w>
L ÄJ</w>
E ri
ˈ jil</w>
ʼa m</w>
í l</w>
x ho
té c
tu kʼuk</w>
san tidad</w>
s vo
quin ce</w>
pr enta</w>
poli si
pa sik</w>
or u
lo kʼol</w>
la juk</w>
l tal</w>
ku ʼ
kanáan tkoʼob</w>
jtojo laltike</w>
ja le</w>
i leb</w>
er no</w>
di luvio</w>
d enes</w>
chʼiji y
chʼaʼa tuklik</w>
cho co</w>
chix tzijon</w>
ce lu
ca migojob</w>
bʌl ñʌcʼʌl</w>
bi lix</w>
ba letik</w>
aye tzin</w>
aw eʼ</w>
alco h
adap tarse</w>
ac ʼ
XO ʼOB</w>
Ten go</w>
Pat terson</w>
O N</w>
Madagas car</w>
J chan
FE C
y ïn</w>
xyuʼa minkil</w>
wen el</w>
wel l</w>
ven g
univer sal</w>
txal paj</w>
tale ʼex</w>
sna il</w>
ru x
ru kaʼn</w>
respon da</w>
ra k</w>
queß cuan</w>
qa kʼanjel</w>
pʼʌ tʌl</w>
profesi onal</w>
presi dente</w>
oybʼen ihom</w>
nojo chtal</w>
na cuaj</w>
medi cina</w>
maj l</w>
laje ß
la bel</w>
ilu str
identifi ca</w>
i i
gi era</w>
equili bra
emocion antes</w>
el q</w>
do s
cä pe</w>
cui dado
cion oʼ</w>
chi t</w>
ca dá
ar ma</w>
anje lac</w>
alab ʼom</w>
aconse jó</w>
acep tan</w>
ab ur
a men</w>
YO M</w>
T RI
Sy l
Ri ch
Lamen tablemente</w>
JA ʼ</w>
E cu
BʼI DEO</w>
A kʼ
yij kʼita
yan oʼobeʼ</w>
xe ˈ</w>
xe labʼ</w>
xchanu bta
x chʼi</w>
vi ʼ
tsolnuʼu koʼob</w>
tro pie
to ˈ</w>
to bʼan</w>
stsa lel</w>
smali yel</w>
sama jij</w>
re pen
qʼiji laj</w>
qʼaqʼ bʼil</w>
pan di
p ʼaj
organi zar</w>
naʼa tkoʼob</w>
muqʼu ix</w>
maama eʼ</w>
ki men</w>
kaw resi</w>
jpas kutik</w>
jba e</w>
in definido</w>
fi en
dire cciones</w>
consider ación</w>
RE CU
PE D
LE TIKE</w>
Ja y
G ad</w>
Eu ro
Be et</w>
ʌn ti</w>
yaʼ ye
yajtsʼaklo mutik</w>
xkʼu lbʼal</w>
xa le</w>
xa a
ve hí
tu us</w>
ta lentos</w>
t tenqʼanq</w>
suu kileʼ</w>
su kʼilal</w>
si em
re fres
pâ bâl</w>
pod íamos</w>
oportun o</w>
min aʼan
man te</w>
ky anqʼin</w>
jwoko ltik</w>
jkʼel vanej</w>
jiñ ob</w>
israelita job</w>
distin ta</w>
di ji
cuan quex</w>
chik naj</w>
chanubta seletik</w>
cas co</w>
bibli ote
autori dad
al wanej</w>
Zim ba
Y E</w>
Re ina</w>
QʼI J</w>
N E</w>
Imagin emos</w>
Fr anci
Escri tura</w>
4 3
17 1</w>
16 5</w>
é em
Ï K</w>
Í TICO</w>
vu ʼun</w>
vi ts</w>
tzqi ʼn</w>
tz el</w>
tsʼiʼ lel</w>
tar te</w>
son ri
sle el</w>
se lular</w>
sab éis</w>
s nupun
res ía</w>
r animaˈ</w>
prefer encias</w>
poc resía</w>
olo gía</w>
mi x
men ores</w>
ma ʼan</w>
kʼis bʼäl</w>
ki bʼanik</w>
juʼ jun</w>
jpa toj</w>
j tuk</w>
inki bʼan</w>
inesper ado</w>
im pide</w>
gracia sil</w>
faculta des</w>
digi tal</w>
cʼaj tin</w>
chaj pan
c ro
aw al
avu ʼu
auto bús</w>
ar r
apla sta
ani e</w>
am bas</w>
ajvali letike</w>
acu îmk</w>
actu almente</w>
aca be</w>
abo gado</w>
a kʼux</w>
YA ʼ</w>
T ab
R ab
Portu gal</w>
200 5</w>
19 23</w>
ór denes</w>
yʌlʌ yob</w>
yô cat</w>
xi x
xal be</w>
tzˈ e
tsikba lil</w>
tsa ʼa
tbʼi ʼna</w>
t man</w>
t chikʼbʼaʼn</w>
swoko lik</w>
sufri mientos</w>
su erte</w>
sti kʼ</w>
stale lik</w>
sis tencia</w>
sche bal</w>
s buj
quix q</w>
quec ˈ
q ïl</w>
partici pan</w>
p lani
organiz ado</w>
náal oʼob</w>
necesi tados</w>
me lec</w>
kqa kʼut</w>
ilta k</w>
excel entes</w>
e lil</w>
de cí
cʼa y</w>
compar ar</w>
co inci
chi saʼ</w>
cha pal</w>
ca bras</w>
aña dir</w>
avan zada</w>
alegr ó</w>
ado raba</w>
Y AN
S ok</w>
Ruwa chʼlew</w>
Eli ezer</w>
Diab loe</w>
z ador</w>
x tzʼi
x qetaʼmaj</w>
we ʼelil</w>
vi dad</w>
tra ge
tej chel</w>
taata tsil</w>
sol ía</w>
scʼo p</w>
s ana</w>
recuer dan</w>
re pasar</w>
qa molam</w>
prostitu ta</w>
preocupa ción</w>
per e
oth er</w>
naqa taw</w>
mintiʼ tl</w>
millon esil</w>
ma jel</w>
libro i</w>
levan ta</w>
kʼopon el</w>
keʼ exoʼ</w>
jojkʼo y
jnuptan tike</w>
jaʼa kʼ</w>
estre lla</w>
en fu
di ces</w>
demostr aremos</w>
de tuvo</w>
de fien
co ʼnton</w>
ci gar
celebr ó</w>
cat á
bʼi saj</w>
bó set</w>
bus camos</w>
be joʼ</w>
ban aˈ</w>
Timote oe</w>
REIN O</w>
Par ti
Es per
DE CI
Aten as</w>
ñ ado</w>
égu ele</w>
yáan toʼob</w>
yo kʼo
yakʼoj butik</w>
ya ʼe
xcha pan
voko le</w>
to job</w>
san guí
ru kʼisbʼäl</w>
relijion etik</w>
relacion ada</w>
qʼoro m</w>
qui rabi</w>
privile gios</w>
pl êt</w>
nojbeʼen kúun
mori rá</w>
mon tón</w>
mila gr
mi el</w>
mensu al</w>
kˈala ji
kʼu tik</w>
ke k</w>
kal bey</w>
jonto lil</w>
invi tado</w>
har ina</w>
garanti za</w>
escu chamos</w>
ele mento</w>
do ws</w>
chix cßulbal</w>
chchan beik</w>
bendi ga</w>
bauti zaron</w>
admi te</w>
a chʼix</w>
Zimba bu
X chʼul</w>
Jehoi adá</w>
In c</w>
Hab ía</w>
199 3</w>
ô leb</w>
óola ʼan</w>
í aoʼ</w>
yoj tikin
xju l</w>
w aje</w>
veng anza</w>
ur gencia</w>
tsu l</w>
tsikbal t</w>
tikiri saj</w>
tar tik</w>
taata w</w>
se x</w>
proteger nos</w>
priva da</w>
pregun tarle</w>
pas emos</w>
oc é
nun aʼ</w>
muchísi mas</w>
mane jar</w>
kʼubé en
kʼ lin</w>
káaj baleʼ</w>
kolta atik</w>
kin maj</w>
kan öx</w>
k bal</w>
jto y
h er</w>
ex oj</w>
disfru temos</w>
dire c
destru idos</w>
cˈacˈ ariˈ</w>
cr oni
cor to</w>
contro la</w>
calen dario</w>
bendi sionetik</w>
aw aj</w>
arru in
arre ba
al mas</w>
adi cción</w>
a tin
WI ʼ</w>
PREGUN TAN</w>
MA ʼN</w>
KʼA ʼA
Es tonia</w>
Ecu ador</w>
E di
2 14</w>
ñuqʼu esʌ
yaan tiʼob</w>
x oʼo
x en
wíini koʼob</w>
we kʼa</w>
u tat</w>
tzˈi baj</w>
tzʼa ama</w>
tsoʼo lol</w>
tar las</w>
reún en</w>
reali zan</w>
qʼan chaʼ
qami w</w>
qa toʼik</w>
prome ter
oni ke</w>
o jil</w>
na joʼ</w>
mis terio</w>
mer ecen</w>
m ú
ltaʼa b</w>
lin yuʼam</w>
kʼas esel</w>
kasti w</w>
jpʼ ej</w>
j lokʼ
in stitu
ig nor
htt ps</w>
hi pocresía</w>
gi endo</w>
g antes</w>
confi ar
con mo
compañ era</w>
b tak</w>
aß aj</w>
au mento</w>
acu chi</w>
acostu mbra
abʼa j</w>
Z i
Testigo job</w>
T X
O s</w>
MI L</w>
Lí bano</w>
Jero boam</w>
G E
An quese</w>
Al go</w>
A cep
5 5
yoo kat</w>
yal bee</w>
yaa yaj</w>
xyan qebʼ</w>
xka ʼi</w>
x ji
ts vul</w>
t lebʼaal</w>
sti kun</w>
sabi as</w>
s anos</w>
qui ta</w>
preocupa dos</w>
ma ti
livro etik</w>
kʼeban tal</w>
ke ki
ja ʼil</w>
hu uj</w>
fun er
exten dió</w>
el xan</w>
eje cución</w>
des obediencia</w>
cue va</w>
conven cer
compro miso</w>
co mo
chi qi
ch üp</w>
as tr
a cha
Yaj tzun</w>
Ten ía</w>
OBTE NIDO</w>
A sa</w>
3 2
yakʼ beik</w>
tun kutik</w>
sin croni
reve lado</w>
pá rese</w>
per la</w>
pan ïk</w>
pa go</w>
ni tz</w>
muʼyaj tik</w>
mu x</w>
ma mente</w>
lám para</w>
lu baʼan</w>
llev en</w>
liber ar</w>
ko etik</w>
kil beytik</w>
ki kʼu
k re
j oʼon</w>
investiga dores</w>
hi ja
go al</w>
g le</w>
en ak</w>
dar an</w>
cer rar</w>
can la</w>
b ini
aʼan ebʼ</w>
asi entos</w>
abier tamente</w>
a ven
a precio</w>
Jesucri st</w>
Cur so</w>
ʼo q</w>
[...]
