#version: 0.2
c h
o s</w>
a n
t i
ʼ a
e s
e r
e l</w>
e n
t a
q u
l a
d e</w>
ʼ o
l i
t a</w>
e n</w>
a r
o n
l a</w>
c i
qu e</w>
e s</w>
i n
t e</w>
ʼ u
m a
l i</w>
a n</w>
u n
r e
a s</w>
l e
r i
t o
s i
l e</w>
c o
a b
a l</w>
d o</w>
t u
m i
a ʼa
d i
t r
ʼ i
c u
@ -
@- @</w>
p o
o ʼo
a l
ti k</w>
e m
a j
l o</w>
h o
l os</w>
u n</w>
n a
r i</w>
b i
ó n</w>
ch i
J e
c h</w>
v i
j a
e ʼ</w>
t o</w>
r a
s e</w>
p a
s a
k ʼa
s o
D i
k ʼ
c a
t z
y u
Je ho
d e
t e
m u
Jeho v
c on
y a
p r
i n</w>
p ar
Jehov á</w>
y a</w>
i l</w>
s e
l o
t i</w>
d a
p er
Di os</w>
s u
ci ón</w>
b e
i k</w>
p u
k u
la l</w>
r e</w>
ʼ n</w>
m o</w>
t s
o r
oʼo b</w>
m an
k ʼu
b a
la s</w>
í a</w>
d a</w>
m e
i b
á a
la j</w>
o ʼ</w>
j e
n o</w>
k i
ch a
t u</w>
é e
J es
par a</w>
t en
h a
k a
y o
n i
k o
j o
j i
j un</w>
b ʼ
co n</w>
r u
g u
m os</w>
k ʼo
s u</w>
ti ʼ</w>
po r</w>
qu i
t el</w>
e r</w>
n u
á s</w>
j un
a j</w>
m o
m en
k e</w>
n o
m a</w>
k u</w>
a r</w>
y i
s i</w>
o n</w>
li a</w>
Jes ú
em os</w>
e l
j u
p i
d os</w>
Jesú s</w>
ʼu n</w>
b ʼa
n os</w>
b aʼa
l u
r a</w>
pr o
x u
m e</w>
ʼi l</w>
un a</w>
k ʼ</w>
m i</w>
b a</w>
d el</w>
B ib
e x</w>
an do</w>
da d</w>
b ʼ</w>
m in
p e
ch e</w>
f i
ta l</w>
k y
es tr
t an
x i
o r</w>
yu ʼun</w>
b u
ch i</w>
m b
l el</w>
d es
Bib lia</w>
v er
c a</w>
on es</w>
1 0</w>
q a
ʼ j</w>
e c
er a</w>
t os</w>
b ʌ</w>
y ée
l es</w>
h ab
li k</w>
en ta</w>
p re
h i
em p
g o</w>
y e
aʼa n</w>
v a
ja ʼ</w>
1 5</w>
u t</w>
es ta
u s
yée tel</w>
m ás</w>
ʼu k</w>
tu ʼn</w>
t er
Q u
ji ñ
e j
r o
su s</w>
r es
k e
a d
be e
ú u
r o</w>
a c
f u
x chi
w i
j o</w>
1 1</w>
ma ʼ</w>
jiñ i</w>
c ri
1 2</w>
ha c
y aʼa
p á
o s
pu e
s to
é n</w>
á n</w>
a mi
ch u
nu estr
a s
ti ke</w>
qu é</w>
t es</w>
co mo</w>
w a
p a</w>
k ʼi
po r
per o</w>
m áa
to j</w>
xchi ʼuk</w>
s ti
aʼa l</w>
en te</w>
1 4</w>
k a</w>
1 3</w>
an i
x a
t es
ta n</w>
er man
e b</w>
Qu é</w>
J u
pa s
sa ʼ</w>
u ti
ó mo</w>
í as</w>
so b
o l
x i</w>
ʼ el</w>
e x
g a
g un
c o</w>
ta s</w>
es i
M a
r u</w>
s a</w>
ch aʼan</w>
t si
o l</w>
le ʼ</w>
a yu
mi ʼ</w>
t z</w>
tr a
ʼ an
baʼa x</w>
cu ando</w>
d u
x ch
es t
1 7</w>
l ta
1 6</w>
ci a</w>
p ʼ
m bi
i s
mu ch
s o</w>
q a</w>
é l</w>
ch eʼ</w>
ci ones</w>
ar i
s v
s on
o tr
s er
ʼ n
gu i
li l</w>
i m
o b
y e</w>
qu e
er o</w>
oʼo b
na q</w>
bʼ an
l oʼob</w>
g i
c e</w>
v e
h erman
ma s</w>
ma l</w>
la b
co m
T i
m en</w>
n e
o ra
q ʼa
b e</w>
kʼu si</w>
d es</w>
ti ʼj</w>
é s</w>
per son
x a</w>
R e
c ˈ
o j
1 9</w>
kʼo p
bi n</w>
er on</w>
w a</w>
á an
ch ʼa
s ta
1 8</w>
ch ʼ
po d
ab i
b li
men te</w>
q ʼu
k il</w>
kʼa lal</w>
t on
a li
q ʼ
c ar
v a</w>
a ñ
h a</w>
kʼa n</w>
d as</w>
f or
tz i
in o</w>
e ch
d o
sv enta</w>
s ta</w>
í an</w>
ya an</w>
ch ʼu
b ʼil</w>
ch o
d em
k oʼob</w>
an te</w>
ta j</w>
oʼo n
2 0</w>
uti aʼal</w>
di s
min s</w>
h u
ta q</w>
l le
la c</w>
y aj
p on
O S</w>
sob re</w>
ta j
e li
Ju an</w>
ta r
w in
ʼo b</w>
de ci
d ar
n a</w>
S a
r as</w>
J ée
Jée o
z a</w>
g ra
bi l</w>
o b</w>
s to</w>
ja ch</w>
t en</w>
t eʼ</w>
es ta</w>
na k</w>
ta r</w>
ts ʼ
r es</w>
mbi én</w>
kʼ o</w>
so k</w>
se r</w>
q ʼo
c ß
x o
b ʼi
E S
en tr
v o</w>
v o
s kʼop
vi da</w>
emp lo</w>
C ómo</w>
ti en
P ab
K ʼ
te o</w>
ch ʼ</w>
un i
y al</w>
oʼob oʼ</w>
p en
e tik</w>
e bʼ</w>
P or</w>
2 1</w>
ʼu n
ta mbién</w>
ma j</w>
s en
g r
g os</w>
mb re</w>
lo b</w>
a vi
ma ʼa
j al</w>
s as</w>
se ñ
c re
ʼa l</w>
ku x
di o</w>
to do</w>
hac er</w>
ma n</w>
ti emp
o y</w>
t ʼa
l áa
al es</w>
x oʼob</w>
c ción</w>
le k</w>
Je o
S al
la n</w>
e d
chi k</w>
2 2</w>
y an
A N
lo ʼ</w>
en do</w>
ts ʼo
c ʼo
ó o
ch ë</w>
es te</w>
a mos</w>
ch an
2 4</w>
pue de</w>
v en
tz aj</w>
t s</w>
pá r
qu i</w>
cu r
T I
b aj
es tu
s kʼan</w>
a do</w>
g a</w>
b al</w>
L a</w>
a p
je ch</w>
ˈ n</w>
ab a</w>
ʼ ex</w>
je ʼel</w>
ti ʼ
a k</w>
s ko
a ʼ</w>
re ga
x an</w>
Jes u
di jo</w>
E s
yu k</w>
ta k</w>
be y</w>
tiemp o</w>
Pab lo</w>
li a
es o</w>
con tr
p ri
w o
tu men</w>
g rega
L I
mi en
L i</w>
g o
b an</w>
an o
er ra</w>
to dos</w>
de b
person as</w>
on i
xu ʼ</w>
é el</w>
á n
oʼo x</w>
mi n</w>
b í
tr os</w>
bʼa l</w>
m u</w>
skʼop lal</w>
L u
Di o
S an
p e</w>
tsʼo ʼo
s ab
f ami
co r
di ce</w>
por que</w>
pʼ éel</w>
c as</w>
ar on</w>
to ʼo
con grega
é en</w>
la ʼ</w>
2 3</w>
l u</w>
ch ʼo
a t</w>
en cia</w>
de r</w>
cu i
k al</w>
mu y</w>
est á</w>
c la
an os</w>
li b
cri sti
as í</w>
mu ʼ
C H
p li
tes ti
g ar</w>
ej emplo</w>
x na
pr en
so n</w>
c er
da r</w>
sto jo
e b
t k
j u</w>
bee tik</w>
w e
B aʼa
bí bli
d on
2 0
t úu
ci on
c es</w>
ci as</w>
k an
el los</w>
co sas</w>
q i
w u
nuestr a</w>
j os</w>
a ʼ
c ʼ
ʼi j</w>
la j
ra z
á an</w>
y o</w>
3 0</w>
hab ía</w>
mi s
C h
í i
so tros</w>
bu en
x jal</w>
l an
sa ß</w>
a y</w>
z o</w>
o k</w>
q e</w>
pro f
B I
ri ʼ</w>
or es</w>
herman os</w>
sa r</w>
si ón</w>
congrega ción</w>
si k</w>
c os</w>
t ri
d er
an a</w>
k aʼa
de o</w>
p í
ch ʼi
t em
t saʼ</w>
cʼo t</w>
ora ción</w>
es ti
mi l</w>
c ómo</w>
Ma teo</w>
ku bʼ</w>
d ía</w>
w an
b en
kʼa ʼa
c an</w>
J er
tu k
al gun
p an</w>
con o
ar e</w>
tzi j</w>
D avi
ts ʼa
1 9
si n</w>
2 5</w>
p as</w>
bi en</w>
en señ
c ʌ
us te
y ʌ
es to</w>
fu e</w>
to n</w>
b o
da des</w>
to k</w>
ß u
0 0</w>
w ä
L e
k an</w>
j lel</w>
n ec
ji ch</w>
ʼ e
p o</w>
le c
I s
d en</w>
n i</w>
m un
k yi
a u
x e
tsi ʼ</w>
oʼo lal</w>
C u
pre gun
en tes</w>
s al
ar á</w>
c an
a ción</w>
pod emos</w>
Jéeo ba</w>
ti l</w>
yi cʼot</w>
pu és</w>
cha ʼ
Dio se</w>
q ˈ
otr os</w>
ñ i
y al
a ß</w>
x ye</w>
j a</w>
le tik</w>
V i
a q</w>
m el</w>
P ed
P ro
añ os</w>
pr es
l la
r á</w>
2 8</w>
R o
y an</w>
r ía</w>
j el</w>
s an
ca r</w>
v os</w>
Is ra
a mo
t l</w>
ch k
L e</w>
muʼ yuk</w>
li x</w>
a ß
es e</w>
es per
an tes</w>
E L</w>
Sal mo</w>
t x
q ßu
kʼ áa
ʼi n</w>
ú n</w>
si g
K ʼu
em b
f e</w>
Davi d</w>
a m</w>
e m</w>
l en</w>
ri j</w>
oʼon ton
D E</w>
v an</w>
C ri
dem ás</w>
c e
kʼ an
in a</w>
Re ino</w>
u k</w>
ci o</w>
t í
pre di
pas el</w>
n oʼox</w>
bi x</w>
im por
ya ʼ</w>
si tik</w>
h an</w>
t ó</w>
M ar
s tr
ñ u
des pués</w>
C an
fami lia</w>
k ˈ
wä ch</w>
t so
se gui
ve z</w>
pa lab
tu ʼn
s ba
2 6</w>
k en</w>
in i
va e</w>
Isra el</w>
un aj</w>
t áan</w>
2 7</w>
q an
R I
k ri
re y</w>
no sotros</w>
túu l</w>
e j</w>
pr e</w>
ʼa n</w>
vi deo</w>
Ped ro</w>
ke ʼ
aj u</w>
ib ʼ</w>
w e</w>
m ar
v er</w>
M A
es pi
yo l</w>
cu lo</w>
se gu
Jeo vae</w>
2 9</w>
b an
a ma
l tik</w>
re ci
v e</w>
kʼi n</w>
ho ra</w>
T A
em pre</w>
to q</w>
w i</w>
espi ri
é n
V I
kʼo t</w>
sen ti
ta c</w>
ya j</w>
o k
f er
ten er</w>
or a</w>
kʼu sitik</w>
la r</w>
yaʼa lik</w>
nuestr o</w>
u e
amo r</w>
tien e</w>
ja ʼ
y el</w>
ni m</w>
b ˈ
ti k
si empre</w>
a qu
tsʼ áa
E l</w>
M o
to ri
ca j</w>
yo ʼ
ha y</w>
máa xoʼob</w>
fu er
man os</w>
ó ol</w>
pro b
wi ʼ</w>
t ʼil</w>
ech o</w>
mun do</w>
J a
pa d
L A</w>
ter i
raz ón</w>
mien to</w>
x ik</w>
si l</w>
ch rij</w>
â n
ap ó
K ʼa
qu er
na ʼ
pár r</w>
ʌ ch</w>
chk ë</w>
L A
que ß
y áan
jun pʼéel</w>
R E
qu il</w>
v u
pá aj
ʼ es
hi jos</w>
c lu
E n</w>
po si
so lo</w>
ku ʼun
ver dad</w>
e lo</w>
t sa
qʼo ʼn</w>
t h</w>
I sa
chi x
esta ba</w>
a pren
oʼon ton</w>
qʼ tz
much o</w>
t un
me yaj
nec esi
apó sto
a la
tu láa
espiri tu
ky e</w>
oj el</w>
ca da</w>
uste d</w>
ch éen</w>
Jéeo ba
B LI
impor tan
bʼ a</w>
ñ ob</w>
xna qʼtz
k x</w>
j lu</w>
mu er
Vi v
v ol
men to</w>
ton ces</w>
ʼ A
k yu
ayu dar
si gui
in ti
pí ri
l ti
xch ano
kʼa s
máa k</w>
c er</w>
sa j</w>
s pa
ä n</w>
an za</w>
3 1</w>
qʼa ma
ser vi
re ch</w>
e t</w>
ma as</w>
c ab
mi l
vi vi
bʼa ʼn</w>
no p
g ente</w>
en es</w>
c í
el la</w>
le bʼ</w>
con fi
men os</w>
wa ch</w>
J o
ch an</w>
is ra
ä l</w>
ma r</w>
es a</w>
cu er
s ba</w>
n ya</w>
cristi anos</w>
ar a</w>
b ée
ha sta</w>
bʼa n</w>
ta a
taj e</w>
S e
ja ku</w>
tsʼoʼo k</w>
Cri sto</w>
e le</w>
res u
ab aj
er an</w>
e go</w>
ho mbre</w>
b al
re uni
V e
an ci
vi si
a t
ta ʼa
q il</w>
k eʼ</w>
es cu
w il</w>
píri tu</w>
T E
ch al</w>
n in
i lel</w>
in ci
oʼo n</w>
s em
hi zo</w>
esta s</w>
di ó</w>
ayu da</w>
Baʼa x</w>
l en
mis mo</w>
Can ción</w>
baj cheʼ</w>
h echo</w>
ka ʼan
j eʼ</w>
aj e</w>
pri m
â cu
chi l</w>
Sa tan
g ún</w>
f ec
kʼ u</w>
li n</w>
ʼ e</w>
le a</w>
nu e
ch aj
BI BLI
s es</w>
w en</w>
kyi ʼj</w>
Jer us
Jerus al
algun os</w>
P a
cu enta</w>
ca ción</w>
i j</w>
ya kʼ</w>
k ß
tuláa kal</w>
da do</w>
ʼo b
li ʼ</w>
n aj
me jo
chi c</w>
nuestr os</w>
tr abaj
me di
ch q
s í</w>
si s</w>
kʼo p</w>
C or
e tike</w>
v an
i s</w>
deb emos</w>
ta ʼal</w>
baʼa leʼ</w>
lu gar</w>
b le</w>
con se
re li
3 3</w>
tu ra</w>
tz e
1 0
x bʼa
h eb</w>
a a
res pon
ko lta
ti n</w>
qʼama ʼn</w>
un que</w>
ʼi k</w>
P ero</w>
ñ o</w>
er n
much os</w>
s w
yi chʼ</w>
o j</w>
C o
D I
f eli
T e</w>
ab ʼ</w>
es cri
kri xchano
pue b
ca do</w>
ba t</w>
v al
N o</w>
pue den</w>
maʼa lob</w>
Bib lia
ti n
be y
Jeho bʼa</w>
f r
i l
chi ʼ</w>
A po
contr a</w>
ri x</w>
k un</w>
E N
toʼo n</w>
en tonces</w>
a mb
T A</w>
bi os</w>
ch e
oʼob eʼ</w>
co razón</w>
A b
le b</w>
d í
3 2</w>
to das</w>
palab ras</w>
estu di
Jeo va</w>
jo l</w>
kʼ e</w>
je ʼex</w>
Mo is
ma j
ma ch</w>
bʼan t</w>
ca sa</w>
ten d
ch aʼal</w>
O N
pr inci
no mbre</w>
Ma t</w>
par te</w>
Jesu se</w>
aj a
J ob</w>
ar se</w>
b u</w>
bʼ e
i li
es tos</w>
est án</w>
te j</w>
Pro ver
x in
prob le
cu m
r chë</w>
Prover bios</w>
kʼa ʼ</w>
b en</w>
es píritu</w>
BIBLI A</w>
hac e</w>
a hora</w>
man ta
o x
re g
ca mbi
M i</w>
tz a
y oʼolal</w>
an o</w>
R u
lle v
entr e</w>
3 5</w>
cˈ a</w>
con ver
mb res</w>
páaj tal</w>
pueb lo</w>
O R
A n
es po
0 00</w>
ʌ l</w>
qui er
al go</w>
3 4</w>
ñi c</w>
in ter
man tal</w>
b in
baʼa xoʼob</w>
an eʼ</w>
me jlel</w>
chi n</w>
i x</w>
re la
wi tz</w>
3 7</w>
ten ía</w>
p aj
mejo r</w>
stojo lal</w>
I n
jun túul</w>
n e</w>
va li
q ʼij</w>
Jerusal én</w>
x t
testi gos</w>
ä q</w>
chu qui</w>
p le
chi ru</w>
j on
pu bli
L E
ar tí
ku tik</w>
chq ä</w>
T u
tan to</w>
cu an
c en
q e
a ʼin</w>
kʼi in
c ʼa
to da</w>
kʼu chaʼal</w>
i r</w>
isra eli
N o
yaʼa laj</w>
y oʼonton</w>
pu es</w>
si er
mu ʼ</w>
dem os
r an
Isa ías</w>
hi jo</w>
w al</w>
m on
abi l
dis cí
discí pu
ten ami
qui x
k in
herman o</w>
le tiʼ
de j
ma a
re ʼ</w>
t â
Satan ás</w>
j il</w>
VI D
s pi
bʼa j</w>
s pas</w>
un o</w>
Lu cas</w>
Ti erra</w>
s abi
sw enta</w>
J os
B in</w>
a kʼo</w>
kux le
tsi l</w>
ta do</w>
S al</w>
des e
Ti mo
man era</w>
yo b</w>
on ojel</w>
la le</w>
ech os</w>
ES T
g ar
Jéeoba eʼ</w>
qui enes</w>
f í
z ar</w>
na x
gr an</w>
d ías</w>
much as</w>
ne keʼ
mi x</w>
Biblia oʼ</w>
tʼa n</w>
t sob
tz un</w>
ʼ än</w>
Kʼu si</w>
chʼu tik</w>
estu dio</w>
C I
L os</w>
person a</w>
ta k
in i</w>
x ju
qu jeʼ</w>
tu ʼu
ab an</w>
u l</w>
c ʼu
tenami t</w>
te x
ri a</w>
n ar
ʼ I
pʼ ej
l â
a unque</w>
o be
z e
eb re
ec es</w>
kʼ el</w>
yaʼa b</w>
h er
d ó</w>
du r
esta r</w>
tien en</w>
se a</w>
ari o</w>
L I</w>
reli gi
f ri
Mois és</w>
b ta
apósto l</w>
ali dad</w>
bʼan ik</w>
bu chʼutik</w>
me lel</w>
M i
jo b</w>
fi ci
ʼ tan
o f
t bʼ
ch o</w>
a gu
gui en</w>
ti erra</w>
s ino</w>
ko l</w>
qu ʼn</w>
lib ro</w>
kʼa j</w>
xu qujeʼ</w>
aj il</w>
pe j
ta l
al guien</w>
yo m</w>
tz ʼa
ta d</w>
d an</w>
a x</w>
ten emos</w>
e p
be tik</w>
c ti
Q U
h e</w>
segui r</w>
ru mal</w>
des de</w>
reci bi
f al
kʼa l</w>
a v
deci r</w>
4 0</w>
sko j</w>
j e</w>
pa ci
to ʼob</w>
po l</w>
U t</w>
Timo teo</w>
inti os</w>
B e
k ab
artí culo</w>
P A
ju dí
f ru
wan k</w>
na ʼo
la r
j pas
y il</w>
Pa lab
amb ʼil</w>
kʼ e
u ku
po co</w>
v in
ba tel</w>
s tu
n aʼa
otr as</w>
sem ana</w>
a e</w>
kʼ a</w>
i do</w>
kʼ in
ye lan</w>
so ʼ</w>
kʼáa t</w>
ó n
co men
min is
z as</w>
ra j</w>
n qa
kaʼa ch</w>
ba ʼ</w>
ch a</w>
ti c</w>
q o</w>
kʼ ë</w>
ʼ i</w>
ki x
d en
xi x</w>
kʼaʼa bée
U N
te ch</w>
tʼa an</w>
ci er
importan te</w>
em pe
A l
xju ʼ</w>
cha q</w>
el es</w>
ʌ n
pá g
ta mos</w>
d or</w>
a dos</w>
ä j</w>
cu an</w>
v en</w>
T E</w>
er os</w>
par ec
ts ʼ</w>
ho mbres</w>
discípu los</w>
ca li
p un
án g
w an</w>
cum pli
z ar
r ma</w>
ac ti
os o</w>
c ä
Ab ra
pro pi
máa x</w>
e ch</w>
in kʼaʼ</w>
ci endo</w>
ʼ O
ki ʼi
ts ʼi
B A
E R
s os</w>
lia e</w>
ta la
S A
bíbli co</w>
pa ñ
cß aß</w>
S i
buen as</w>
ri ˈ</w>
otr o</w>
D ani
chʼ u</w>
cʼ ʌ
mi k</w>
t ú
al l
g en
ba uti
s in
stojo l</w>
ya qil</w>
Jos é</w>
T o
ko j
T a
chix jun
a le
xnaqʼtz bʼil</w>
Cor intios</w>
bu s
z ó</w>
on la</w>
c to</w>
f o
T ES
ra r</w>
láa kʼ</w>
ta je
lo m</w>
for ma
o p
T yol</w>
cui ß</w>
re mos</w>
mu kʼ</w>
or g
pad res</w>
un os</w>
c ó</w>
ʼn e</w>
v eces</w>
da d
qui en</w>
qu eb</w>
in clu
chi rix</w>
res pe
kʼa x</w>
ch ki
k ex</w>
Viv liae</w>
ci u
pa j</w>
- -</w>
r án</w>
min tiʼ</w>
baʼa loʼob</w>
a chi
bʼi j</w>
un ca</w>
A demás</w>
1 4
ja w</w>
s t
su j
r os</w>
al mente</w>
t qʼamaʼn</w>
San til</w>
dur ante</w>
S I
tu d</w>
a po
tu ˈn</w>
ma l
co b</w>
princi pi
di do</w>
yoʼ tan</w>
R i</w>
ex pli
a gra
C RI
a da</w>
bʼ en</w>
muer te</w>
to l</w>
k oʼonton
qˈ u
su per
p an
ma g
mi s</w>
lec tura</w>
l í
te ʼ
tso ts</w>
es pe
T esti
bi tʼil</w>
nuestr as</w>
x b
ye ʼes
to ʼ</w>
j w
prof e
g an</w>
ju m
H echos</w>
pa z</w>
M u
aß an</w>
si ones</w>
x ka
Qu i
ʼ x</w>
j ba
proble mas</w>
p ʌ
k oʼo
pʼej l</w>
t bʼan
pregun tas</w>
C hu
f in</w>
su kuʼun
demos tr
ni fi
u láakʼ</w>
a h</w>
o cu
don de</w>
a m
K âcu
Y os</w>
x ten</w>
str u
d ores</w>
sier vos</w>
bi j</w>
ta le
tsʼáa ik</w>
Ve a</w>
quier e</w>
i chil</w>
h ebʼ</w>
maʼa ñic</w>
H u</w>
li dad</w>
prof ec
en ta
sa do</w>
s me
y ik</w>
xbʼa an
tori o</w>
esi s</w>
taje k</w>
i li</w>
ar a
p sis</w>
ch ˈ
for ma</w>
win aq</w>
ac er
org ani
k al
e p</w>
J A
x ban</w>
y óol</w>
ni x</w>
bu chʼu</w>
or g</w>
be ik</w>
per mi
x el</w>
cʌ n
x ki
P ad
jo j</w>
tr o
kʼ el
lla ma
r onojel</w>
w ä</w>
S i</w>
e le
t emplo</w>
3 8</w>
otr a</w>
m â
Jesu cri
kʼo l</w>
ts ʼu
le laʼ</w>
ó ol
N a
ñ aʼ
n or
ma k</w>
n ab
cha kʼ</w>
n unca</w>
jun tl</w>
e k</w>
ci l</w>
t witz</w>
di o
teri o</w>
Dani el</w>
ru kʼ</w>
ca min
israeli tas</w>
sigui ente</w>
tz ʼo
kux tal</w>
m oni
tbʼan el</w>
sko lta
ch ka
xu ʼu
w 0
t koʼob</w>
k aj
hac er
ma chʼa
d emos</w>
t qʼoʼn</w>
ora r</w>
t na
e la</w>
ca m
Pad re</w>
ayu dar</w>
E ze
vivi r</w>
a si
publi ca
k ik</w>
pá g</w>
con tra
k o</w>
G én
ben di
di a</w>
posi ble</w>
ta ʼ
Gén esis</w>
visi ta</w>
q ab
E f
m í</w>
sig nifi
jw org</w>
ga mos</w>
J O
so l
E N</w>
cur so
3 9</w>
la do</w>
i de
k yo
sba ik</w>
x tok</w>
ti ʼob</w>
tuʼu x</w>
j ik</w>
ami gos</w>
en vi
tuk ʼil</w>
TI K</w>
al u
k oʼ</w>
Apo cali
a b</w>
yu ʼun
ti x
tu l</w>
D e
u tʼil</w>
Jehov ah</w>
qʼu el</w>
x al</w>
ti a
tze ʼn</w>
en cias</w>
T O
tu s</w>
le cción</w>
su fri
yu ʼu
c ʼ</w>
le c</w>
esper anza</w>
Ro manos</w>
í amos</w>
ser á</w>
A d
é r
pr esi
C on
C or</w>
mu l</w>
T Z
t áan
com ple
g ri
bee t</w>
lu k</w>
H ebre
win i
anci anos</w>
ti r</w>
tu lo</w>
Kâcu aß</w>
q ʼ</w>
men s
y óo
ʌn tel</w>
na da</w>
3 6</w>
l esi
pre curso
tr es</w>
Apocali psis</w>
h on
man i
e mi
CRI S
kyu ʼn</w>
ch al
a k
kʼaʼa y
si on
vi sta</w>
an ts</w>
J as</w>
gi p
u tz</w>
D e</w>
k í
tuʼn ju</w>
in vi
ko ʼtan
Di os
mien tos</w>
E n
ba yal</w>
na me</w>
s na
c en</w>
ti na
ac tu
co l</w>
H ech</w>
yaʼa li
A S</w>
la k</w>
tu uku
si on</w>
ʼob oʼ</w>
a c</w>
d in
jun jun</w>
cˈ o</w>
ab a
añ o</w>
ac ep
J E
li n
je r</w>
estr a</w>
cha j</w>
B ix</w>
t ten</w>
Jesucri sto</w>
Kʼ U
te k
ci r
xa q</w>
R I</w>
per i
po der</w>
chu k</w>
te ß
ri kʼin</w>
hab lar</w>
v as</w>
chʼi k</w>
ad u
ob ern
4 5</w>
algun as</w>
pen sar</w>
ri qßu
H i
ku k</w>
jum pʼejl</w>
el ta</w>
k ß</w>
ho y</w>
s í
ï k</w>
máa koʼob</w>
ca so</w>
e dad</w>
e xi
k un
ib al</w>
á l</w>
ci do</w>
man o</w>
emb ar
bʼ in
N A
si tu
co lta
ch el</w>
all í</w>
p la
me l
si do</w>
sab er</w>
Ti ʼ</w>
si r
ci ó</w>
ch ß
kʼaʼabée t</w>
ya kʼ
me yaj</w>
espiritu al</w>
Y u
machʼa tik</w>
cur so</w>
pre par
tex to</w>
tz o
q ʼi
E l
yo n</w>
C ha
g an
ân u</w>
S u
kʼu l</w>
lle g
cho pol</w>
San tia
á aj
m ó</w>
a kʼ
reuni ones</w>
pu esta</w>
ʼu k
ar an</w>
en ten
M E
oni a</w>
bi er
5 0</w>
y oʼonton
i kx</w>
tr an
pad re</w>
li ke</w>
Se ñ
al qui
pi en
hi ci
r s</w>
embar go</w>
kʼi k</w>
yʌ l</w>
chʼa ʼa
k len</w>
B ʼi
sa cer
sacer do
a w
tz in</w>
gra cias</w>
Señ or</w>
Dios eʼ</w>
T a</w>
b el</w>
r kʼë</w>
ab i</w>
cu l
ciu dad</w>
ad or</w>
Cu ando</w>
li c</w>
TES OR
F ili
ci elo</w>
kʼu ʼj</w>
TESOR OS</w>
c al
ma d
entr as</w>
naʼ lebʼ</w>
i la
bʼa ʼ</w>
s tan
in cßaß</w>
hab ían</w>
j al
le mal</w>
ʼ a</w>
q al</w>
espe ci
m úu
bee taj</w>
y es</w>
forma ción</w>
4 1</w>
to j
Santia go</w>
J aʼ</w>
co me
baʼa l</w>
Palab ra</w>
pro te
kʼa ru</w>
pár rs</w>
win äq</w>
naʼo j</w>
moni o</w>
TI AN
CRIS TIAN
ñ a</w>
P re
s al</w>
ju sti
ab le</w>
tem e</w>
tri bu
koʼtan tik</w>
i t</w>
s te</w>
cˈ u</w>
pu l
b ran
jpas tik</w>
du cción</w>
ñu c</w>
án do
úu chik</w>
lu ego</w>
4 4</w>
tr o</w>
Sa mu
ne queß
ra lal</w>
ta lil</w>
ni m
krixchano etik</w>
i lik</w>
tem a</w>
p ʼa
ad or
a chkë</w>
ma ba</w>
em ías</w>
k ib
en contr
ra f
letiʼ eʼ</w>
lu ʼu
predi car</w>
per fec
fu eron</w>
Kʼ u</w>
ma laj</w>
in el</w>
en t
re cu
ar nos</w>
cu alqui
bíbli ca</w>
to jo
kʼu ʼx</w>
ri l</w>
san to</w>
de l
VID A</w>
m es
ch pan</w>
ter min
ke tik</w>
organi z
po n</w>
minis terio</w>
x cß
na j</w>
erman o
on oʼox</w>
emb re</w>
pen s
cha k</w>
di fí
sko tol</w>
E S</w>
pu esto</w>
A chkë</w>
s mu
senti do</w>
er es</w>
ʼ tel</w>
escri bi
ju jun</w>
b ar
qßu e</w>
g una</w>
aj i
ya ʼi
lo n</w>
c el
per las</w>
n ki
an ali
espo sa</w>
R A</w>
pa í
obe de
E gip
tk yaqil</w>
ch ol
j ta
esta ban</w>
par e
j chan
f in
ʼob eʼ</w>
trabaj o</w>
j aʼa
f un
L O</w>
ü tz</w>
t kubʼ</w>
mi c</w>
re heb</w>
pár raf
j as</w>
mo str
w aj
j óo
di eron</w>
1 ,
E sta
pro me
E s</w>
ñ onla</w>
B abil
U ni
di e</w>
í ib
qu in
koʼonton tik</w>
tz ʼi
xch ʼo
H eb</w>
Hebre os</w>
x ta
ka w
r se</w>
m ón</w>
s bi
l oʼoboʼ</w>
chan ru</w>
j la
i gu
a ta
p al</w>
Viv lia</w>
pág ina</w>
on in</w>
Mar ía</w>
1 8
in ten
tar on</w>
pu k
P e
kʼas lemal</w>
gu e</w>
ta ri
jo n</w>
en fer
L O
la ción</w>
ñ os</w>
Abra h
ca pí
k ki
mi t</w>
va ʼun</w>
le y</w>
bʼ e</w>
co l
bíbli cos</w>
espiritu ales</w>
fami li
a y
m pi
estr u
cu i</w>
v ía</w>
us a</w>
de di
Lu c</w>
uste des</w>
4 2</w>
r en
mens aje</w>
Samu el</w>
Ro m</w>
a ten
y ab
per don
tu vo</w>
qui xye</w>
b i</w>
tu ras</w>
me dio</w>
tz ˈ
s pasel</w>
chʼ a</w>
de be</w>
k qa
T s
bran d</w>
enseñ a</w>
li ʼe</w>
Baʼa xten</w>
ú lti
ta ción</w>
i ke</w>
Egip to</w>
par ti
me j
J i
ʼ U
xi c</w>
r aj
bin tik</w>
kʼ tik</w>
del ante</w>
bal u
riqßu in</w>
ob ra</w>
sa cri
mi entras</w>
ñ o
t se
fu era</w>
T U
com pañ
ver dad
prim ero</w>
mo qa</w>
aj cuiß</w>
toʼo x</w>
Hi jo</w>
tna m</w>
g e</w>
de ja
N ue
k on
ta ba</w>
x e</w>
Abrah án</w>
ma ʼ
a ciones</w>
ri x
S E
á ba
Kʼu xi</w>
re visita</w>
us eʼ</w>
cor re
á r
yo lin</w>
el las</w>
to r</w>
Ad án</w>
chixjun il</w>
gr an
ani ma
k ʼil</w>
K U
in di
na xye</w>
ma y
E li
1 7
palab ra</w>
le tike</w>
Jes useʼ</w>
en e</w>
l lo
j oʼ</w>
inclu so</w>
tu n</w>
ka j</w>
ke bʼ</w>
of re
tala ya</w>
vol un
fu tu
ri ó</w>
xu l</w>
aj el</w>
esta mos</w>
t ʌ
p lan
Chu qui</w>
áa x</w>
ab ʼ
cono cer</w>
spi sil</w>
q ej
á cti
A talaya</w>
ma ʼuk</w>
di fi
jo ʼ
en to</w>
dis fru
ya abi
em o
n k</w>
M I
le kil</w>
- brand</w>
ti quil</w>
yoʼ tan
S e</w>
pr ue
os a</w>
pu si
ri chin</w>
da mos</w>
ni kʼ</w>
pa r</w>
Sal o
tʼa an
ver sí
judí os</w>
nue vo</w>
a se</w>
t ú</w>
cha r</w>
go bier
k éen</w>
mu jer</w>
tz ß
te r</w>
sa mb
men tos</w>
in formación</w>
ra do</w>
sa li
vi eron</w>
buen a</w>
ä x</w>
hu mil
mo do</w>
i tz
servi r</w>
A r
tsʼ íib
futu ro</w>
xi men</w>
b o</w>
pon ga</w>
h emos</w>
bu en</w>
con si
au tori
tsʼa ʼa
x cha
d estru
g as</w>
CRISTIAN A</w>
to klen</w>
j nop
di fer
la je
hac en</w>
qej u</w>
Babil onia</w>
ami go</w>
tr adu
R A
CH A
vi o</w>
1 6
qe h</w>
ben e
an ti
cualqui er</w>
E c
jba tik</w>
v enta</w>
ka aj
un ci
k aʼan</w>
pr ácti
u s</w>
p ʼi
i dio
ñ el</w>
Ó N</w>
oʼo baʼ</w>
B ʼ
ri r</w>
ta mente</w>
krixchano etike</w>
chʼa ʼ
Pab lo
p es
Ve amos</w>
J U
u wach</w>
kan áan
o ca
k in</w>
de bi
L E</w>
camin o</w>
ya ʼ
so mos</w>
es os</w>
l len
k el</w>
L o</w>
c r
J on
wo col</w>
ti ó</w>
4 3</w>
predi cación</w>
ma tri
Es cri
s mo</w>
ch ke</w>
na k
hi sto
a lal</w>
Ja cob</w>
chu l</w>
é is</w>
xo ok</w>
tu k</w>
mo mento</w>
profe ta</w>
ma chʼa</w>
feli z</w>
ko j</w>
pe cado</w>
os os</w>
ru ma</w>
ba j</w>
pr u
la ʼa
no ti
sme lo
Jesu s</w>
na die</w>
yan tik</w>
principi o</w>
o ri
ar e
con su
chi chʼ</w>
r y
prim era</w>
s ma
nec es
m er
ñ ʌ
no q</w>
tu mel</w>
ja ʼel</w>
tsi k
n q
C O
ser i
yi lik</w>
no j
v ino</w>
cha lal</w>
Mar cos</w>
Kʼa lal</w>
gen er
u bta
f á
herman a</w>
uni dad</w>
er man</w>
re cor
res puesta</w>
ts kʼan</w>
x ti
Testi gos</w>
x kʼa
áng el</w>
au di
ob ba
lo j</w>
an a
re h</w>
yo j
en contra
re fo
refo x</w>
ci n
ˈ n
pej te
c ari
pa k
ti do</w>
pres en
aqu el</w>
ˈ j</w>
aqu í</w>
in ik</w>
i c</w>
ti vos</w>
s an</w>
ri k</w>
bey oʼ</w>
ñu men</w>
ti vo</w>
E O</w>
ya mb
á li
pre ocu
M t</w>
sal v
ja tsʼu
, 000</w>
ô l</w>
fi r
tsʼoʼo leʼ</w>
qui z
t áa
to mar</w>
letiʼ e</w>
hu manos</w>
a cu
conver sa
ar án</w>
k áaj
p ó
x eʼ</w>
wini ketik</w>
A j
N i
P e</w>
Eze qui
e vi
x kʼu
ʼ k</w>
no p</w>
tsʼa k
sukuʼun oʼob</w>
ó ni
C U
je ˈ</w>
r ó</w>
na x</w>
chʼo ol</w>
ad oración</w>
justi cia</w>
organiz ación</w>
qʼu q
c ía</w>
xa aneʼ</w>
chʼu un
signifi ca</w>
ta qeh</w>
mil l
ide as</w>
y in</w>
din ero</w>
yóo kʼol</w>
spa sik</w>
ts pa
S o
aj ol</w>
A N</w>
x lo
bi ʼ</w>
a samb
ten ían</w>
en emi
man k</w>
I L</w>
s kʼop</w>
R OS</w>
lu m</w>
conse jos</w>
u tik</w>
cier to</w>
se gún</w>
4 8</w>
con di
s te
er r
pejte lel</w>
ho r
L o
x kʼo
m é
J un
B a
l íi
in e</w>
cha ʼ</w>
j ti
u pʼéel</w>
conver sar</w>
ki ʼ</w>
apren der</w>
fr en
mi la
manta le</w>
N e
xbʼaan u</w>
tu j</w>
g ru
ar lo</w>
ci miento</w>
lib er
sal u
ó ven
óven es</w>
audi torio</w>
ch kʼot</w>
ʼ tan</w>
r aja
prue ba</w>
ayudar á</w>
g lo
Re y</w>
ch ʌ
L aj</w>
le w</w>
cho ch</w>
dem u
Ti m</w>
ob je
ta ʼ</w>
pe di
aj wiʼ</w>
M OS</w>
cß aß
M es
mu yu
v í
na ción</w>
5 5</w>
Pe d</w>
t qa
servi cio</w>
x kʼot</w>
nar u</w>
ser es</w>
B alu
quer ía</w>
sig lo</w>
se amos</w>
t qan
ch úu
j óvenes</w>
nop el</w>
n áa
qʼu e
I n</w>
C re
Y a
ú l</w>
n úu
pa ab
yáan tk
buen o</w>
men cion
ku bʼij</w>
reuni ón</w>
j in</w>
es cla
DI OS</w>
s aʼa
fi eles</w>
Jer emías</w>
ʼ l</w>
cʌn tes
b on
vo sotros</w>
t emp
cu los</w>
ñ i</w>
no jo
con stru
â l</w>
xchʼo ol</w>
ex peri
m or
pro du
r ían</w>
igu al</w>
ka ʼa</w>
l tike</w>
Dio soʼ</w>
CI ÓN</w>
espo so</w>
I N
to jlel</w>
i mag
Sa úl</w>
qi ʼj</w>
deb er
deb en</w>
M a</w>
taj in</w>
in a
ʼn a</w>
M an
ca dos</w>
ayu dó</w>
v ari
mi le</w>
VID EO</w>
jun tiquil</w>
o m</w>
I s</w>
kʼas al</w>
ter ri
in tro
capí tulo</w>
m es</w>
ru bʼanik</w>
h e
cha ʼn</w>
P ara</w>
tz ʼe
por t
Ju d
kuʼun tik</w>
maa sil</w>
su b
s ja
te k</w>
cˈ u
wa xik</w>
ya ˈ</w>
Ma ʼ</w>
Escri turas</w>
mo ko</w>
ba ʼob</w>
ari ʼ</w>
lâ in</w>
óo lal</w>
apósto les</w>
i k
no k</w>
yo r</w>
ta t</w>
mad re</w>
y oʼ</w>
feli ces</w>
RE S</w>
vi de
N ab
co mi
ti co</w>
pas o</w>
ʌ lob</w>
ya abil
t xi</w>
Jud á</w>
ya kal</w>
ta b
e qui
ki lal</w>
tsob obba
profec ía</w>
na ß
l é
a pro
yal be</w>
kʼa ab
ti ʼobeʼ</w>
Esta dos</w>
párraf o</w>
mu j
ta q
to r
t tzaj</w>
re cuer
e ter
kʼu tun
ne t</w>
m ero</w>
i b</w>
ja sta
F i
ka x
tuuku l</w>
hab l
pa sado</w>
Pre gun
fi el</w>
Salo món</w>
j abi
4 6</w>
I K</w>
jatsʼu ts</w>
in k</w>
ga do</w>
kiʼi mak</w>
testi go
wu j</w>
esi os</w>
val or</w>
Y O
Y A</w>
o cur
xb ê
c ando</w>
se le</w>
kuxle jal</w>
T i</w>
testi go</w>
toʼo n
tx qan
situ ación</w>
Be tel</w>
yu ʼa
txqan tl</w>
c ciones</w>
smelo lal</w>
li g
jun uk</w>
tz ʼ
ar ía</w>
yaj tsʼak
u sar</w>
K O
ma k
qu emos</w>
qʼa bʼ</w>
w in</w>
hici eron</w>
ej emp
chu qa</w>
ma yor</w>
g re</w>
A sí</w>
pun to</w>
pr on
cla ro</w>
cu a
ja ajil</w>
quiz ás</w>
pʼ áa
i x
meyaj tik</w>
di ri
z ca</w>
w ariʼ</w>
kʼu t</w>
cu al</w>
Ef esios</w>
jiñ ʌch</w>
y úu
li mpi
qˈu i</w>
enten der</w>
ac ab
er as</w>
c entr
in o
re cción</w>
ci en
In ter
k íi
re hebʼ</w>
ar re
S l</w>
C hi
ci e
mi ʼn</w>
m ari
e ʼes
pod ía</w>
jasta q</w>
k oʼoboʼ</w>
di al</w>
ab il</w>
fá cil</w>
estr o</w>
ti j</w>
ke b</w>
c ʼal</w>
ti jo
t é</w>
cu b
ba ʼ
ʼo ʼ</w>
z ado</w>
i mi
ha ya</w>
Ezequi el</w>
le er</w>
ra mos</w>
kuxle ja
sa maj</w>
bee tkoʼob</w>
A l</w>
ku kx</w>
20 0
É l</w>
v elta</w>
k er
ab te
R i
ad as</w>
ami sta
e h</w>
ri q</w>
qa chalal</w>
ku ba</w>
resu lta
pr ó
fuer zas</w>
yan tal</w>
t ía</w>
yoʼonton ik</w>
ja ʼuk</w>
du ría</w>
chi ʼi
jo ß</w>
xch an
ab ʼa
tuk lik</w>
me r</w>
matri monio</w>
gu erra</w>
yeʼes ik</w>
k ya
e za</w>
tz a</w>
si lal</w>
ha ga</w>
o c</w>
sabi duría</w>
T z
cuan queb</w>
ta dos</w>
raja waxik</w>
ʼ q</w>
paí s</w>
tina mit</w>
áli sis</w>
pu er
m eʼ</w>
a wo
escribi ó</w>
na ciones</w>
r í
maʼa tech</w>
ten to</w>
t és</w>
múu chʼu
g er
D es
Kʼ A
conversa ción</w>
á ni
bi k</w>
x aneʼ</w>
i le</w>
hab i
volun tad</w>
o ʼ
estudi ar</w>
ân k</w>
le tiʼ</w>
g obern
acer ca</w>
re vista</w>
ka ʼi
kʼu xi</w>
tzo lom</w>
c ru
r an</w>
ru u
s en</w>
paj al</w>
L as</w>
resu ci
ʼo tx
lo gr
P o
ky x
K A
co me</w>
xbʼa an</w>
k yaj</w>
n ej
J un</w>
kyu kʼil</w>
y ô
re ali
j ñ
bee tk
ad ro</w>
agu a</w>
u u
kˈ ij</w>
yoʼtan ik</w>
ta al</w>
6 5</w>
ö j</w>
publica ciones</w>
xch ʼun
deci siones</w>
ra qal</w>
ñaʼ tan</w>
maʼa lo
a x
Pro v</w>
B us
o ch
bee taʼal</w>
bée y
joʼ kan</w>
C A
v esti
Y A
ri dad</w>
tiʼ eʼ</w>
xo o
l á
ʼotx ʼ</w>
con clu
com pren
si k
man ten
li o</w>
B ʼI
parec e</w>
ˈ y</w>
su cur
l ta</w>
N U
pu so</w>
con ven
jaʼ nix</w>
ón de</w>
k qab
se cción</w>
pod ría</w>
ky e
kʼa kʼa
x y
t ê
a ti
ú ni
al gún</w>
on el</w>
jo ven</w>
Uni dos</w>
t ando</w>
ru wäch</w>
com par
î nk</w>
h ará</w>
vo ko
tz un
o port
t emos</w>
B aj
ale gr
we m</w>
ye kʼin</w>
m á
kʼ elo</w>
ti ji
c aj
w í
chʼo j</w>
qʼ i</w>
uti li
es for
dar á</w>
rix in</w>
in f
pe que
in tik</w>
con ti
la ʼal</w>
kʼ be</w>
ob er
j oʼo
cer ca</w>
ku ya</w>
si to</w>
tran s
QU É</w>
tza laj</w>
i ch</w>
tú un</w>
j an</w>
ha ciendo</w>
xa k</w>
deci sión</w>
ri che</w>
ki xye</w>
M Á
hab er</w>
lesi as
sa ʼ
je tik</w>
lle gar</w>
chi ru
on a</w>
ï l</w>
yʌ l
J n</w>
llev ar</w>
i ʼ</w>
medi ante</w>
cuer po</w>
lo r</w>
C a
tr as</w>
s el</w>
áng eles</w>
pru eb
nu ʼuk
baj o</w>
y áax</w>
xe ʼ
an e</w>
le m</w>
ts pas</w>
cu án
qa chʼa
c emos</w>
a wa
Le y</w>
tu lan</w>
u bʼanik</w>
ora ciones</w>
y ó</w>
par a
e fec
no ta</w>
tuʼn a</w>
qui én</w>
difí cil</w>
v oʼ</w>
pri mer</w>
min aʼan</w>
gu ar
r ä</w>
acti tud</w>
pro pó
noti cias</w>
intro ducción</w>
QU E</w>
sab emos</w>
cßaß ru</w>
nojo ch</w>
nin gún</w>
le j</w>
ába mos</w>
T u</w>
ci dad</w>
xch ʼa
tiʼ j
ma jun</w>
religi ón</w>
buen os</w>
s tra
kʼu p
le b
kí im
yi chʼik</w>
pod er
ka m
A L
di ciendo</w>
presi ón</w>
na qa
p ä</w>
EST ROS</w>
hacer lo</w>
a cuer
llama do</w>
wi lik</w>
yuʼun ik</w>
y óol
M e
sab ía</w>
h il</w>
lo k</w>
no che</w>
P RE
O V
r le</w>
G én</w>
ʼo k</w>
we ch</w>
ri b</w>
prueb as</w>
confi anza</w>
win ak</w>
ok s
yuʼun e</w>
hab la</w>
1 5
ye t</w>
comple to</w>
p os</w>
j kʼan
a g
yo ra
u r
líi ʼ
fici os</w>
es as</w>
p al
ME JO
M e</w>
or o</w>
oʼo la
ba qui</w>
tú un
t su
es fuer
an i</w>
c ta</w>
U se</w>
mis ma</w>
E va</w>
ke ch</w>
ban ti</w>
herman o
deja r</w>
re ino</w>
conse jo</w>
s tsa
man da
ali dades</w>
ú un
f on
kiʼi mak
x ni
j kʼel
q as</w>
vi sión</w>
i o</w>
lu l</w>
i a</w>
histo ria</w>
sto e</w>
No é</w>
san gre</w>
h u</w>
kˈ a
D O</w>
vu el
u túul</w>
se an</w>
lta k</w>
Jéeoba oʼ</w>
ye wal</w>
tu r
o x</w>
h al
mi go
T e
Ec lesias
x tu
G u
qʼu in</w>
segu ro</w>
lab ʼil</w>
sta le
e te</w>
pa ala
jun aq</w>
ju sto</w>
j tul</w>
m áan</w>
chʼ ʌ
An álisis</w>
especi al</w>
tiji c
de f
as un
for tale
4 7</w>
D A</w>
gru po</w>
ser ía</w>
cʼu x
cristi ano</w>
ch wäch</w>
Jo su
principi os</w>
o toq</w>
o í
ya k</w>
ti fi
tzʼo k</w>
yáantk oʼon</w>
bey tik</w>
s aʼal</w>
k raj</w>
escu ch
ap li
t ä</w>
Eclesias tés</w>
ba el</w>
sacri fi
ar ro
pen ses</w>
2 ,
tiʼ chaq</w>
q ʼan
in kil</w>
t ku
chaʼ len</w>
kʼi in</w>
sti n
p ti
lleg ó</w>
MEJO RES</w>
re alidad</w>
lo kʼ
pregun ta</w>
propó sito</w>
ʼan oʼob</w>
aʼ ye
x qui
s kʼan
i g
confi ar</w>
f ol
kʼu n</w>
kʼa j
j kʼo
encontra do</w>
MA ESTROS</w>
chixjun i
to res</w>
in tend
a ma</w>
kux ta
b oʼob</w>
autori dad</w>
Baj cheʼ</w>
es condi
m esa</w>
i loʼob</w>
v ar</w>
cla se</w>
X i</w>
tiʼj ju</w>
na ka
xu bʼij</w>
l lo</w>
vi sto</w>
eʼes ik</w>
ry ä</w>
n il</w>
le to</w>
al guna</w>
q aj</w>
hu mani
én do
vo z</w>
super intend
Co mo</w>
Fili penses</w>
n ú
in as</w>
co ch</w>
ja mal</w>
reg al
qi kʼ</w>
q ibʼ</w>
e e
ab el</w>
ʼ N</w>
a mente</w>
chan ubta
so r
Q A
P O
Bus quemos</w>
ya kʼo
cu alidades</w>
ani c</w>
R ES
Mes ías</w>
É x</w>
u l
t y</w>
ë t</w>
su ce
du da</w>
pʌ s
yan tike</w>
qachʼa lal</w>
da vía</w>
pusi cʼal</w>
me le</w>
ma jlel</w>
an as</w>
P ri
G e
expli ca</w>
a yi
taʼ maj</w>
k úun
ar emos</w>
la wil</w>
hac emos</w>
oj os</w>
T ra
so y</w>
itz el</w>
se gun
T es
m áan
Palab ras</w>
so ci
su t</w>
pen sa
S er
xi ʼ</w>
ib a</w>
va mos</w>
t bʼal</w>
quer emos</w>
ci encia</w>
cu a</w>
ts al</w>
T en
t re
esta do</w>
ma bʼil</w>
m í
ri bʼ</w>
si ti
taj a</w>
t é
in stru
ari se
t bʼant</w>
escondi das</w>
ab ʼan</w>
a chi</w>
mill ones</w>
t äj</w>
versí culo</w>
Lu ʼu
fin al</w>
ti ca</w>
l ê</w>
C o</w>
re cha
cʼʌ jñ
ti koʼob</w>
kʼu x</w>
pon er</w>
muj eres</w>
er u
bo t</w>
prof un
tar de</w>
tsi loʼob</w>
ab ʼe
com pa
te j
qʼu n
tsʼáa j</w>
kyo j</w>
U n</w>
vi aj
Je ch</w>
fuer te</w>
en car
R E</w>
b re</w>
T O</w>
ya an
la b</w>
kʼi j</w>
chʼu l</w>
nor mas</w>
be i
tsik bal
tar se</w>
ka ajil</w>
di cho</w>
ch ʼel</w>
z aron</w>
xo k</w>
maʼ yuk</w>
be yel</w>
cua tro</w>
LA S</w>
Ji ñi</w>
w en
ce leb
be j</w>
le loʼ</w>
chʼi x
cre er
yuʼa m</w>
pes ar</w>
yʌl ʌ</w>
amista d</w>
o mi
kʼu l
ju i
ye e
l ó
f le
v ini
acuer do</w>
car ta</w>
G UN
ts kolta
jun to</w>
El ías</w>
D A
parti ci
San t</w>
sab e</w>
humani dad</w>
C r
un kil</w>
yi k
b ânu</w>
jnop tik</w>
ci os</w>
kʼin al</w>
er o
bee taʼa
x ku
Qui én</w>
u ts</w>
tes el</w>
s tos</w>
cu înk</w>
bˈ il</w>
ab an
í so</w>
jóo ʼ
lu gar
vo kol</w>
con ta
xi chʼ</w>
tqan il</w>
di ente</w>
ca mos</w>
E R</w>
u ʼj</w>
u tsil</w>
verdad ero</w>
manta tsʼ</w>
ca paci
aj bʼen</w>
LA L</w>
naß aj
j abil</w>
bu tik</w>
yaabil t
ten ido</w>
qu ías</w>
paci encia</w>
un gi
chʼ tik</w>
er se</w>
d ando</w>
ü t</w>
to davía</w>
mi e
ta qikʼ</w>
s tas</w>
ke ʼex</w>
di ci
p ú
kʼo pe
ku ʼun</w>
cir c
5 1</w>
cel esti
m la
a kʼa
wo ko
j ini</w>
ten ga</w>
nue vas</w>
xbʼaan unkil</w>
aten ción</w>
mi seri
entr o</w>
si bʼa
f arise
agu an
u e</w>
g eli
ra ción</w>
mi lal</w>
le van
abʼ qʼi</w>
demostr ar</w>
B Ʌ</w>
a segu
di os</w>
tiemp os</w>
al can
j aj
s laj
con du
sa ch</w>
cab ʌl</w>
gu en</w>
di e
l la</w>
w óol</w>
mi sion
yamb ʌ</w>
neces ario</w>
l oʼobeʼ</w>
wa ʼ</w>
o y
Josu é</w>
si ete</w>
qʼ a</w>
kʼutun em</w>
4 9</w>
yajtsʼak lo
pron to</w>
f av
ch in
ten cia</w>
I lawil</w>
si mo</w>
u bʼi
l úu
sibʼa laj</w>
joʼo p
ta maj</w>
z an</w>
Tes al
si ʼi
ama ya</w>
ʼe loʼ</w>
S O
di era</w>
x to
raz ones</w>
reg res
fol leto</w>
nu p
conclu sión</w>
p ée
mi go</w>
i r
b le
ti lil</w>
o c
ador ar
yaʼali keʼ</w>
ni kʼaj</w>
inter es
miseri cor
man a</w>
tzun ju</w>
qʼa x</w>
ma las</w>
importan tes</w>
mu u
ˈ a</w>
sba lil</w>
respon sabi
os as</w>
lo l</w>
U na</w>
pa sar</w>
cʼa jti
Inter net</w>
ma an</w>
qi l
cʼʌjñ ibal</w>
Ch an
R O
li v
T I</w>
xu bij</w>
enemi gos</w>
j ko
ech a</w>
li loʼ</w>
ech ʼ</w>
o e</w>
es co
ʼ je</w>
e k
Y U
van geli
si endo</w>
mie do</w>
5 2</w>
o ch</w>
kʼ i</w>
je chuk</w>
cʼ ʌch</w>
u tzi
g en</w>
f ra
ʼu t</w>
x bʼe
xuʼu lul</w>
ca p</w>
S U
ba r</w>
oport unidad</w>
cie los</w>
j pa
hab len</w>
Q ʼI
tuʼn tzun</w>
M un
q ʼin</w>
enfer me
taa ta
ox ibʼ</w>
Ch eʼ</w>
gobier no</w>
xuʼu l
pas ó</w>
máa koʼoboʼ</w>
dis curso</w>
chu k
ch ʼn
to y</w>
di j
li le</w>
w aj</w>
kʼan jel</w>
pre ci
mi emb
c ˈ</w>
yo tik</w>
may or
si a</w>
qʼa ma</w>
yora il</w>
ha cia</w>
b es
d aba</w>
G o
be el</w>
kon tra
el lo</w>
nue va</w>
Tu ʼn
va lil</w>
C on</w>
sna ʼ</w>
salu d</w>
en cu
ser án</w>
ni ños</w>
G obern
ʼO B</w>
kʼiin eʼ</w>
ol vi
sti r</w>
profec ías</w>
ec e</w>
vol ver</w>
re cono
mu estra</w>
tz qi
kʼ ex
des cen
va do</w>
contr o
cari ño</w>
quer i
D ES
Ti quʼn</w>
tar á</w>
I sa</w>
se xu
asamb lea</w>
bʼa bʼil</w>
li k
K ri
ñ a
ta da</w>
kʼ üt</w>
R ut</w>
wa ˈ</w>
ten i
sucur sal</w>
chʼo chʼ</w>
u m
apren demos</w>
x la</w>
po lí
tzʼ ët</w>
di r</w>
baʼa xeʼ</w>
k yaqil</w>
bi s
6 0</w>
mun dial</w>
i ru
C ON
qa s
o v
Fi refox</w>
Co lo
ar é</w>
consi der
mo n</w>
gu sta
Ya an</w>
rela ción</w>
m em
ï y</w>
ko tik</w>
t nej
w aʼa
Baʼa leʼ</w>
t qˈ
si s
oj ée
skʼop lale</w>
y i</w>
celesti al</w>
mis mos</w>
Aj vali
hu bi
er to</w>
b ol</w>
ï t</w>
R e</w>
er po</w>
con vi
f ía</w>
te mas</w>
sol da
in c</w>
JE H
yóol oʼob</w>
ver emos</w>
kʼaʼay taj</w>
e du
mb al
K ʼo
s chʼuun
si gue</w>
ja tumel</w>
sa ma
ve lación</w>
Cu erpo</w>
win ek</w>
recibi r</w>
aj vali
jun am</w>
Apo c</w>
toʼon eʼ</w>
ba tik</w>
mar avi
an je
proble ma</w>
an il</w>
CH I
inf lu
anci ano</w>
W a</w>
K I
P i
baʼ yel</w>
res i
q kʼuʼj</w>
di os
ej as</w>
d é
bon dad</w>
j ar
chal be</w>
ch que</w>
A J</w>
chi b</w>
au to
ta lel</w>
congrega ciones</w>
man tener</w>
sob re
fav or</w>
Pregun ta</w>
ye j</w>
te chel</w>
s ʌ
yaabi laj</w>
at án</w>
P r</w>
N I
resu r
te ʼex</w>
des a
c ß</w>
mu cʼʌch</w>
Je r</w>
sir vi
Ro ma</w>
qʼ e
B ʼ</w>
kʼel el</w>
kib ʼan</w>
qßu e
j naʼ
es el</w>
Sa m</w>
7 0</w>
kʼa m</w>
necesi tamos</w>
co stu
s kʼo
for me</w>
no ko
kʼa yewal</w>
ara ón</w>
tzʼa q
jaʼ o</w>
wi ˈ</w>
M P
wo li</w>
si ente</w>
pro gra
a z
ér ci
ma la</w>
le tiʼobeʼ</w>
chi que</w>
bu l</w>
5 3</w>
x il</w>
pée k
tz yet</w>
ra y
le ʼex</w>
cumpli r</w>
cir cui
bʼin chaʼn</w>
G U
A le
si en
J I
ca usa</w>
bo tik</w>
S in</w>
u ter
gu ía</w>
ch íi
tuʼn j</w>
t ʼu
h ebre
est é</w>
obede cer</w>
al o
g ober
yajtsʼaklo m
oʼola leʼ</w>
di cen</w>
avi e</w>
pú bli
tu kʼ</w>
nekeʼ x
lec c</w>
Di ab
recu adro</w>
dar le</w>
ki ltik</w>
a un</w>
ʼ eʼ</w>
un e</w>
re ac
ka ˈ</w>
f a
b les</w>
da der
puk siʼi
ca s
w bʼal</w>
en fren
su c
ad ores</w>
Nue va</w>
á culo</w>
L OS</w>
len gu
agra deci
prácti ca</w>
bee t
be jla
ti s
k as</w>
experi encia</w>
acti vi
bei lta
conti nu
ku bʼan</w>
D E
o lo
kaw bʼil</w>
ta ban</w>
respe to</w>
much a</w>
gr os</w>
ru b</w>
A ban
dese a</w>
ch are</w>
sacerdo tes</w>
ma lo</w>
. .</w>
. ..</w>
te y</w>
co sa</w>
ri qˈui</w>
ku tan</w>
cha ab
dej ó</w>
gi r</w>
kʼan je
no vi
N O
xch ß
on omi
Aban an</w>
5 4</w>
ob ras</w>
win q</w>
on e</w>
Nue vo</w>
De uter
s jun
pro mesa</w>
oʼo biʼ</w>
Deuter onomi
K E</w>
pa sele</w>
lugar es</w>
glo ria</w>
idio ma</w>
escu ela</w>
Deuteronomi o</w>
li letik</w>
kʼa kʼal</w>
di stin
di endo</w>
p â
chixjuni leb</w>
a par
di entes</w>
bíbli cas</w>
Es cu
ma s
le kuk</w>
resur rección</w>
Cu án
q tzun</w>
ca sti
balu mile</w>
LI L</w>
r ar
ten go</w>
o so
aß in</w>
k pajal</w>
ʼo j</w>
qui era</w>
an u</w>
tz u
tbʼ in
sacerdo te</w>
chu kaˈ</w>
s tsʼi
JEH OV
q aj
MÁ S</w>
Kʼ O
ten qʼa</w>
ta ke</w>
mon os</w>
a ku
jchan tik</w>
2 8
terri torio</w>
ejemp los</w>
fal ta</w>
JEHOV Á</w>
x an
yu tsil</w>
Kʼ e
lo qʼo
C ʼa
B E
yaʼa leʼ</w>
naj in</w>
lu z</w>
cur sos</w>
l f
aa tin</w>
ta m
b ʌ
x o</w>
qa chʼool</w>
ˈ x</w>
empe zó</w>
eter na</w>
stan te</w>
qu ˈn</w>
ʼi ch</w>
ver dader
rela to</w>
cion al</w>
úu ch</w>
xch ʼu
d é</w>
al kye</w>
a oʼ</w>
a le</w>
mo rir</w>
xchʼun el</w>
kʼaab aʼ</w>
m era</w>
lo ʼil</w>
do min
ó li
wa y</w>
que dar
ja aji
estu vo</w>
kaaj al</w>
a vu
oks lal</w>
ju z
á a</w>
y î
pu estos</w>
ch os</w>
BA ʼA
yi chʼoj</w>
xu ku
sacrifi cio</w>
pe cados</w>
H ch</w>
yaʼa l</w>
man ik</w>
h as</w>
a lab
teri or</w>
naßaj ej</w>
xi j
ari a</w>
en ci
da mente</w>
K Y
waj un</w>
po j</w>
cuan to</w>
ki b</w>
an zas</w>
2 9
y ec
x ko
ar es</w>
ö x</w>
uni ver
M U
tari o</w>
oca sión</w>
lo ʼi
xi m
qʼu ele</w>
on al</w>
chʼu ut</w>
cab eza</w>
do lor</w>
s ée
P er
efec to</w>
Re velación</w>
ca b</w>
po li
a va
s aj
me le
dem oni
con ciencia</w>
kʼiin il</w>
T oj</w>
demos tra
BI L
chu qʼabʼ</w>
bin oʼob</w>
a ʼi
últi mos</w>
sen ses</w>
es toy</w>
d ente</w>
r é</w>
cin co</w>
t wu
sier vo</w>
precurso r</w>
ja y
ya ʼi</w>
pʌ s</w>
Ts ʼo
ʼa an</w>
sigui entes</w>
ku l
Cre ador</w>
páaj talil</w>
mu kʼ
baʼa xten</w>
yúu chul</w>
yal bey</w>
ch â
hab la
tz ʼel</w>
tz il</w>
tbʼ i</w>
o sil</w>
kun ik</w>
kan ik</w>
ep al</w>
ch qa
respon dió</w>
yo j</w>
ora sion</w>
apro ve
j kʼan</w>
bʼa al</w>
v es</w>
pue do</w>
mayor ía</w>
to t</w>
alegr ía</w>
e ke</w>
a teʼ</w>
L â
escla vo</w>
chʼu n
p eʼ</w>
cambi o</w>
xu bʼan</w>
tr a</w>
ch oʼ</w>
ti ˈj</w>
aj es</w>
P en
bendi ción</w>
a sig
Y a</w>
ri l
nú mero</w>
much ʼ
i w</w>
xb ânu</w>
ermano etik</w>
u in</w>
kaʼa j</w>
jon tir</w>
estr an</w>
Gobern ante</w>
d í</w>
segu ros</w>
o t</w>
v emos</w>
ar le</w>
l â</w>
j an
dese o</w>
P or
d ónde</w>
b ˈ</w>
5 6</w>
an unci
j mo
m oʼ</w>
chi chʼochʼ</w>
gober na
yaʼa laj
lla ma</w>
ci da</w>
estr os</w>
much í
circui to</w>
ex tra
be ñob</w>
bey ik</w>
us an</w>
1 3
wu ʼu
n al</w>
T x
ja ʼan
muer tos</w>
kal tik</w>
TE S</w>
propi a</w>
posi ción</w>
kʼope tik</w>
Es ter</w>
res ca
jun juntl</w>
ho m</w>
kʼa tzin</w>
pi ʼ
cʌntes ʌntel</w>
G ala
sv o
O ʼ</w>
rela cion
c tos</w>
ha b</w>
cuan quil</w>
a de
mila g
bauti z
Cu ál</w>
man eras</w>
de as</w>
S E</w>
mar zo</w>
ar ón</w>
israeli ta
nar aj</w>
Abra ha
G ál</w>
arre pen
táan il</w>
ani a</w>
Diab lo</w>
escu char</w>
y tik</w>
Ju das</w>
tnej el</w>
ma tan
do c
def en
A unque</w>
per sa</w>
P u
G é</w>
ej érci
tsʼoʼo k
a tz</w>
c ár
19 9
xo do</w>
sub tʼan</w>
Ch éen</w>
Bʼ AN
ʼan el</w>
ru qʼij</w>
aʼa laʼa
si dad</w>
chu wach</w>
Tx ʼotxʼ</w>
oʼ kx</w>
pa p
en ter
ʼo x</w>
aj valil</w>
s eʼ</w>
maʼalo b
ky qʼoʼn</w>
a d</w>
ab ʼal</w>
yajtsʼaklom tak</w>
regal o</w>
xim bʼe
t wi
r öj</w>
lle va</w>
jun tos</w>
mâ c</w>
lâ ex</w>
b re
tu vieron</w>
j pas</w>
re fle
fi er
H A
xcß ajol</w>
nu ʼij</w>
cu u
BʼI L</w>
lta des</w>
bʼ en
cambi ar</w>
EST RI
an gu
q nikʼ</w>
cui dado</w>
chuk me</w>
x tz
Ajvali lal</w>
bʼ el</w>
q eʼ</w>
dij eron</w>
ky kyaqil</w>
ch tun</w>
hab ʼ</w>
ro pa</w>
kʼaʼay taj
gra do</w>
f ac
lu stra
V er
us ta</w>
qʼu en</w>
S a</w>
yo jel</w>
ar les</w>
a ún</w>
M O</w>
muʼ yaj
KU X
yʌ qʼue
mes es</w>
difi cu
ayudar nos</w>
o yuk</w>
pa m</w>
ʼan o</w>
j kuxle
gran des</w>
5 7</w>
cho maj</w>
luʼu mil</w>
j en
es pa
Ta mbién</w>
P as
s inti
la ˈ</w>
kʼáa t
ov ejas</w>
yáan taj</w>
r á
tzi ˈn</w>
s bi</w>
siti o</w>
es i</w>
B ʼA
TA S</w>
xch a</w>
pró xi
g ía</w>
PRE GUN
pej can</w>
bus car</w>
n in</w>
Tesal oni
bu r
yan oʼob</w>
tsʼa ka
ji ʼ</w>
Isa ac</w>
kʼa ʼan
t qʼama</w>
Pri mera</w>
1 19</w>
tes an</w>
cho ʼq</w>
tek lu
tzi jol</w>
á la
u ʼu
an tik</w>
a qʼun
M ar</w>
ʼ la
É xodo</w>
jta tik</w>
cho kß</w>
baʼa l
G ali
B u
s testigo
j y</w>
re tal</w>
muyu baj</w>
re in
qʼa ʼ</w>
añ a
7 2</w>
ten qʼan
ki li
de a</w>
cʼux bi
ni ma
esper a</w>
z os</w>
Le tiʼeʼ</w>
ka wil</w>
g ó</w>
a xal</w>
verdad era</w>
pe lig
pa til</w>
demostr ó</w>
cu tan</w>
ya le</w>
misericor dia</w>
bene fici
C r</w>
ê re</w>
ti po</w>
si ca</w>
ta man</w>
kí in
d ón</w>
bendi ciones</w>
T S
nin guna</w>
ála tas</w>
in g
difí ci
ye ʼ
k ar
Chu coch</w>
én es</w>
pue des</w>
ʼ ji
encontr ar</w>
situ aciones</w>
TI KE</w>
P U
A ja
ß can</w>
yi x</w>
senti mientos</w>
d ro
pres ente</w>
kʼop e</w>
e c</w>
5 8</w>
í a
ab ril</w>
ts aj
n w
oj tik
li dades</w>
la lik</w>
E ʼ</w>
Colo senses</w>
jkuxle jal
aqu ellos</w>
T ze
ch aʼa
tu kul
s jo
g e
ab les</w>
En tonces</w>
t ja
cono cimiento</w>
tza laj
gi ó</w>
j tojo
hab rá</w>
ta jol</w>
fi li
cha m</w>
ungi dos</w>
jon em</w>
come r</w>
oca siones</w>
k áa
aban don
u silal</w>
ci dos</w>
wa q</w>
s nop
v oʼo
de tal
G álatas</w>
yi l
tab ern
ta les</w>
sbi e</w>
re vi
yi lel</w>
wo kol</w>
ti dad</w>
po ca</w>
cˈ ut</w>
cre ación</w>
per man
erman o</w>
kʼ ïy</w>
hac ía</w>
feli cidad</w>
vol vi
propi o</w>
e ta</w>
pi dió</w>
u j</w>
pas a</w>
d entro</w>
reli ji
di si
a kʼo
ʼ ʌch</w>
to b</w>
p áa
nw ts
ma si
aʼ te
ra da</w>
nwts ty</w>
xuku jeˈ</w>
e ʼtel</w>
puk tes
pro mes
anti gu
la m</w>
pi x
L EL</w>
pti embre</w>
ju jun
b un
kyx ol</w>
ka ab
ari ik</w>
aqu ella</w>
sen tía</w>
hi ja</w>
est re
chi habʼ</w>
tsʼ áa</w>
ad orar</w>
senti r</w>
ju tuk</w>
kʼ eb
fuer za</w>
ta m</w>
suj m</w>
chi ʼ
yaʼi y</w>
t ʼan
I deas</w>
BA L</w>
ta ak</w>
envi ó</w>
e lik</w>
vi l</w>
cen ses</w>
kʼu riʼ</w>
demu estra</w>
cu e</w>
túu x
an jel</w>
S B
uu q</w>
l ʌ
Ef es</w>
testi monio</w>
múuchʼu liloʼ</w>
mb en</w>
im perfec
chʼ o</w>
ñi mil</w>
pa ñimil</w>
en ga
E x</w>
c aba</w>
lesi a</w>
xa ʼox</w>
u x
na ʼ</w>
ky witz</w>
kʼ wa
ú n
kʼa as</w>
an qʼin</w>
jaʼ bil</w>
maravi llo
sis tema</w>
káa j</w>
A ju</w>
pien sa</w>
jui cio</w>
8 3</w>
aj wa
ch qe</w>
bi lidad</w>
ku bʼ
j chol
vi ene</w>
kʼaʼabée t
de masi
baʼa te
se ptiembre</w>
lo kʼ</w>
imi tar</w>
ex pres
I N</w>
saʼ ebʼ</w>
na ʼn</w>
chiru heb</w>
tabern áculo</w>
á is</w>
ce p
ti va</w>
San to</w>
sta kʼ</w>
sa dos</w>
ja lan</w>
C E</w>
wi ibʼ</w>
ju l</w>
kan abʼ</w>
muer to</w>
ku kʼ</w>
cristi ana</w>
le al</w>
bʼi ʼn</w>
no mb
mostr ar</w>
bauti smo</w>
jkʼel tik</w>
A L</w>
debi do</w>
w ʌ
mo l
an u
ku baʼob</w>
cár c
N M</w>
ni malaj</w>
e difi
Tuʼn tzunju</w>
L U
kʼa ʼut</w>
xu ʼän</w>
ru k</w>
bu elta</w>
C H</w>
in k
cʌ n</w>
chaab ʼil</w>
famili ares</w>
car ne</w>
sen ci
P ue
í n
R o</w>
pon e</w>
segu ridad</w>
quix ta
Tra ducción</w>
T eʼ</w>
ye ʼtel</w>
te le</w>
ho ras</w>
S ab
Re paso</w>
Le an</w>
pu estas</w>
di re
je la
Sa u
stestigo tak</w>
ide a</w>
T aa
tspa sik</w>
ándo se</w>
importan cia</w>
Pablo e</w>
prim eros</w>
kaʼan sik</w>
tek sto
tan tes</w>
n kʼatzin</w>
di v
circ un
pa sto
o h</w>
evi tar</w>
puer ta</w>
apo yo</w>
xkʼa bʼaʼ</w>
liber tad</w>
i y</w>
difíci les</w>
ak táan
necesi dades</w>
bʼ i</w>
ti ʼoʼ</w>
chaʼ i</w>
ku tike</w>
jaʼ lo</w>
i kil</w>
ñ as</w>
angu sti
qas tzij</w>
poder oso</w>
t äq</w>
xu ʼij</w>
qu ese</w>
kʼu j
c é</w>
K i
su r
circun stan
ti ki
gi o</w>
eli min
car on</w>
Tesaloni censes</w>
á al
o ʼtan
k oʼobeʼ</w>
ca si</w>
wan q</w>
kʼu tbʼal</w>
h á
K a</w>
la res</w>
Y o
N ú
tsʼaka le</w>
J W</w>
tz ul</w>
e letik</w>
cambi os</w>
al ma</w>
ESTRI BIL
ESTRIBIL LO</w>
g oʼob</w>
des cub
cha va
x ke
n eb</w>
mu rió</w>
ʼo n</w>
sukuʼun oʼoboʼ</w>
ca mente</w>
kʼaj kʼal</w>
nu ʼän</w>
achi ˈ
sjun ul</w>
lo jon</w>
é xi
la a
dificu ltades</w>
úu ch
ñ on</w>
z amos</w>
lf f</w>
va ción</w>
yuʼu bi
kqab ʼan</w>
fu ego</w>
cam po</w>
xbê neb</w>
bʼ tes
bʼ ej</w>
Ja ch</w>
cul pa</w>
colta ñonla</w>
re gu
per se
llama da</w>
ama r</w>
aj ele</w>
q qʼoʼn</w>
Tze ʼn</w>
ma yo</w>
M AN
x qa
pʼ ʌ
ʼo n
ee talil</w>
P ON
C ol</w>
bʼ äl</w>
S ara</w>
i kʼ</w>
enseñ ar</w>
tsʼáa ik
LE JA
e di
ru xaq</w>
ra ho
6 1</w>
habl ó</w>
R a
Abraha m</w>
mu lti
instru cciones</w>
ya al</w>
o o
ja más</w>
M O
x on
nu m
vu l</w>
cu ar
chi we</w>
cárc el</w>
en ero</w>
Jon atán</w>
y en</w>
sti tu
x koʼo
ali mento</w>
i ky
Yu um
tskolta utik</w>
í n</w>
superintend ente</w>
máa keʼ</w>
la q</w>
k oʼon</w>
difer entes</w>
achi ʼel</w>
herman as</w>
Pablo eʼ</w>
tr ás</w>
kʼ wal</w>
activi dades</w>
sufri miento</w>
e ʼ
w er
t yo
fr ente</w>
bí in</w>
fr on
A arón</w>
promes as</w>
des ta
cum p
3 ,
wan kebʼ</w>
ta le</w>
ni ño</w>
x jel</w>
oj tzqi
co lab
lec er</w>
ar ca</w>
re fer
condu cta</w>
ri ij</w>
mé di
óo la
pregun tó</w>
n el</w>
i da</w>
j bʼaʼ</w>
hubi era</w>
A hora</w>
pa cto</w>
j tik</w>
Es t
r ás</w>
kʼiin oʼob</w>
f araón</w>
a fec
r un
j kʼop
tu vi
balu mil</w>
óni cas</w>
úni co</w>
taj ik</w>
C ar
ta re
s áa
anima les</w>
6 2</w>
gran de</w>
d or
Es píritu</w>
no po
judí o</w>
di go</w>
miemb ros</w>
ar eʼ</w>
ma ñ
lar go</w>
da ño</w>
ja cʼ
ju lio</w>
Í A</w>
man chukme</w>
ki ko
em e</w>
trabaj ar</w>
m ʌ
pʼ ek
de cla
S I</w>
vi ol
yo o
taʼa b</w>
ma teri
gra fía</w>
con tribu
ʼi ik</w>
och ß</w>
a qa
skʼop onel</w>
k oʼonton</w>
circunstan cias</w>
E vangeli
z e</w>
ñ op
bee toʼob</w>
b un</w>
k i</w>
na abʼal</w>
inter és</w>
chß ochß</w>
ñ ʌ</w>
yi laj</w>
tz joj</w>
lúu bul</w>
ja aj
Al kye</w>
kʼu yelan</w>
kʼu jla
awo ʼtan</w>
solda dos</w>
for ta
Lu ego</w>
re almente</w>
jnaʼ tik</w>
ximbʼe tz</w>
ko win</w>
te ya</w>
x jun
pág inas</w>
S u</w>
jaaji leʼ</w>
enseñ anzas</w>
Y E
aguan tar</w>
s lekil</w>
famili as</w>
C ʼ
j tel</w>
si m
K u
so li
ob li
tam poco</w>
pʼáa tal</w>
s kʼu
ra dos</w>
sa tis
progra ma</w>
presi on
aj al</w>
s kʼe
gusta ría</w>
po s
gri ego</w>
s ni
qʼo r</w>
kiʼimak tal</w>
c ían</w>
gi do</w>
g er</w>
GU I
a yik</w>
Vi deo</w>
2 7
com uni
chʼn ab
person alidad</w>
per aj</w>
para íso</w>
mo d</w>
kʼeb an
wu ʼne</w>
esta ble
ari os</w>
xt qa
co mien
a fir
publica dores</w>
Escu ela</w>
quier en</w>
tend rá</w>
ej a</w>
com ún</w>
c al</w>
yi p</w>
ya lik</w>
mu kʼul</w>
z il
sme le
jpas tike</w>
paí ses</w>
muyu baj
H ay</w>
s jabi
B el
re yes</w>
a go
Re yes</w>
kili ʼich</w>
lâ at</w>
eb r
MA L</w>
xo ok
tari os</w>
ka ʼ</w>
gu er
te m</w>
lec ciones</w>
senti mos</w>
mo co</w>
joʼop ʼ</w>
co m</w>
Ped ro
8 0</w>
e je
cho lel</w>
Ma la
ya kʼik</w>
yaj tun
tsobobba il</w>
re gi
err ores</w>
x íi
r in
ad ver
a xix</w>
p waq</w>
vin ik</w>
t ʌl</w>
sin kil</w>
or gu
r nos</w>
si ʼ</w>
pe ti
re e
ex pul
re des</w>
qʼ ej</w>
pa tan
m ä</w>
de cía</w>
RES PON
I lustra
t ʼ</w>
necesi tan</w>
enseñ ó</w>
reac cion
em an
Gali lea</w>
aj o
tar lo</w>
PA RA</w>
â tin</w>
recuer da</w>
kri sti
fi refox</w>
ejérci to</w>
chʼu l
pres enta
le yes</w>
ker em</w>
fon o</w>
a pa
mu lil</w>
c ó
é ramos</w>
vari as</w>
na ve
mag ed
der echo</w>
chʼaʼa j
ka kʼtik</w>
ye b</w>
Ne h
J as
g enes</w>
en tu
prome te</w>
sacri ficios</w>
pen diente</w>
co pi
tu bre</w>
sa mente</w>
qʼa xal</w>
s ón</w>
cʼu l</w>
vo lu
to o
cu esti
ten gamos</w>
pañ a</w>
K ʼ</w>
q an</w>
fru to</w>
estudi ante</w>
ab ri
Ar maged
ñu job</w>
ma ˈn</w>
des i
un as</w>
H ero
s le
M an</w>
R U
y endo</w>
ti aʼal</w>
no qtzun</w>
áni mo</w>
r íamos</w>
may ores</w>
li ke
T es</w>
te kʼuriʼ</w>
s laje
me lob</w>
d encia</w>
a kʼa</w>
taa sik</w>
conse cu
yo ok</w>
xbê n</w>
spa so
t ni
a wi
vin aj</w>
rí o</w>
lan to</w>
L u</w>
Kʼa ay</w>
cre ó</w>
te ˈ</w>
kʼup il</w>
añ ob</w>
bar co</w>
ayu dan</w>
x wan
ho spi
fri ca</w>
estudi antes</w>
ʼu s</w>
pi e</w>
vi aje</w>
cre encias</w>
U lew</w>
versí culos</w>
mi les</w>
asun tos</w>
on g</w>
yo jil</w>
person al</w>
mla y</w>
cre en</w>
compañ eros</w>
3 0
tar nos</w>
la ltik</w>
cu ál</w>
B en
queß x
k ja
mañ ana</w>
comi da</w>
kaʼan oʼ</w>
j tak
idio mas</w>
al el</w>
JI Ñ
6 6</w>
s kʼ
j pu
a delante</w>
mi r</w>
e xa
tar án</w>
en can
su kuʼun</w>
cu ción</w>
y ô</w>
pu do</w>
me tik</w>
ele tike</w>
aj cui</w>
Q ʼ
o il</w>
X u
car se</w>
qʼo j</w>
t yekʼin</w>
5 9</w>
s b
re de
kʼa b</w>
imag en</w>
xkoʼo laj</w>
ne que</w>
le ales</w>
A re</w>
vol ver
lib ro
ky qʼamaʼn</w>
k ano
d rá</w>
K a
1 Co</w>
ve a</w>
pa ch
o oʼ</w>
xon em</w>
ti j
x ya
muchí simo</w>
in ki
ʼi x</w>
us ando</w>
Kʼa ru</w>
JIÑ I</w>
verdader os</w>
re be
p un</w>
xu ya</w>
nor te</w>
g as
x baj
oʼon eʼ</w>
kʼiin oʼobaʼ</w>
ko ʼtan</w>
jmo j</w>
Cr ónicas</w>
paj ina</w>
L ib
To dos</w>
tiʼ ja</w>
suj m
hu mano</w>
u k
paab ʼanel</w>
matan al</w>
es ik</w>
da tos</w>
Q ʼA
B ar
kʼu q
consu elo</w>
ko k</w>
si as
ra mente</w>
at äj</w>
e la
próxi ma</w>
oc tubre</w>
al rede
al bil</w>
a tzun</w>
P I
tra ta</w>
kanáan tik</w>
her maan</w>
mem oración</w>
entu sias
N u
M u</w>
L i
to ʼ
yeʼ esi
tza qʼ
i den
por no
vide os</w>
co lo
H a
si ke</w>
tk ya
koʼonton tike</w>
bˈ aj</w>
cu lti
b oʼ</w>
Tsʼo ʼo
t kʼuʼj</w>
er nos</w>
pi es</w>
j ni
tz ol</w>
encu entr
ch bat</w>
ta kʼin</w>
nqa ʼän</w>
col tan</w>
aqʼun tl</w>
tkya qil
me tros</w>
ju ʼun</w>
as pe
Con memoración</w>
x cuanquil</w>
cier ta</w>
8 6</w>
sigui ó</w>
sa ʼn</w>
té en
kʼuj labʼil</w>
W at
vari os</w>
qa kʼuʼx</w>
Kʼe joj</w>
ob ser
im pul
no j</w>
mon ta
jun abʼ</w>
ten gan</w>
su e
stu k</w>
l las</w>
Í AS</w>
comen zó</w>
le mente</w>
ky kʼuʼj</w>
demoni os</w>
Q ʼon
A J
pod ían</w>
paab ʼal</w>
jon ik</w>
Tsʼoʼo leʼ</w>
xnaqʼtz an</w>
xi tl</w>
precurso res</w>
demasi ado</w>
6 8</w>
resulta do</w>
necesi ta</w>
t jaw</w>
le lob</w>
Mun do</w>
que da</w>
le vi
w er</w>
i lo
Jo se
skolta yotik</w>
humil dad</w>
chi bal</w>
un d
béey tal</w>
a ˈ</w>
a mbi
ti cos</w>
tem ente</w>
óo tsi
ta e</w>
raz on
páa ʼ
xoo kil</w>
tsʼáa i
cʼu si</w>
av oʼonton</w>
wer sa</w>
si guen</w>
or den
ca ß
Kʼa yojil</w>
tzi jonem</w>
prob able</w>
pa la
bʼan o</w>
je je
ch tal</w>
Cʼa y</w>
q u</w>
er á</w>
xi ʼi
x sa
ma los</w>
m oʼob</w>
cha le</w>
anci ano
NU EST
Can a
deber ía</w>
Sal ón</w>
kristi ʼaan</w>
ili yi</w>
con tes
Jas che</w>
chʼi n</w>
Bʼi tz</w>
qʼa x
des cri
R U</w>
aʼa lik</w>
P on
yo to
so lu
se is</w>
mo dos</w>
xbʼe en</w>
kan aj</w>
cˈ as
sali r</w>
N os</w>
Yu ʼun</w>
ʼA N</w>
sufri r</w>
ar ías</w>
4 ,
x yee
tun es</w>
pi ed
muu kʼ</w>
E X</w>
Di s
tʌ lel</w>
tzaqʼ we
s nop</w>
agra de
Por que</w>
Le ví
yakʼo j</w>
ci r</w>
ano j</w>
Y or
pensa mientos</w>
al oʼ</w>
actu ar</w>
ï x</w>
é poca</w>
pa yal
na b</w>
be r</w>
K u</w>
Cor in
ʼu c</w>
tzʼo nin</w>
op ini
in eb</w>
est én</w>
an te
lo kʼel</w>
akʼ bat</w>
ï n</w>
e z
disfru tar</w>
vo ʼn
muchʼ táa
j ba</w>
chki wäch</w>
F I
me tas</w>
yáan tik</w>
novi embre</w>
aa ti
xa m</w>
x ʼi
contr ario</w>
bʼi n</w>
San són</w>
j mu
ib an</w>
an quese</w>
K U</w>
ma m
bʼan atäj</w>
a tra
wu lak</w>
u ʼji
sba tel</w>
mo ti
Leví tico</w>
uʼji t</w>
tzʼo m</w>
s úu
nab ʼil</w>
men ti
her mo
a wu
g res
piʼ ʌlob</w>
m ʌntel</w>
7 3</w>
tien es</w>
so c</w>
mas ke</w>
Ti to</w>
ˈ o</w>
xu k</w>
of en
des car
ya a
smele lil</w>
YO L</w>
6 3</w>
compa sión</w>
ayu de</w>
PREGUN TAS</w>
enga ñ
o xi
chki j</w>
x cu
su be
n kʼaj</w>
la ʼan
C i
si quiera</w>
ray lal</w>
mb al</w>
kʼanje lak</w>
chaj ij</w>
sa aj
ca us
b âl</w>
ti les</w>
su k</w>
indi ca</w>
Bʼi xonem</w>
tzʼa qal</w>
in al</w>
constru cción</w>
yô queb</w>
ja ʼuk
ala k</w>
P ar
u tzil</w>
tzʼe taʼ</w>
pix abʼ</w>
o ya</w>
le al
i w
a wil</w>
Co mi
xa kʼa
tik oʼ</w>
kuʼun tike</w>
hon or</w>
cha we</w>
tzi joj</w>
puksiʼi kʼal</w>
asamb le
tu los</w>
cla ses</w>
di ver
d á
Y o</w>
emp le
un quil</w>
tr on
car a</w>
tz e</w>
stale lal</w>
e y</w>
x kaltik</w>
ri yin</w>
re ve
pa alal</w>
leal tad</w>
kʼaʼa j
je e
E ze</w>
hermano job</w>
b tes
Neh emías</w>
v el
yu c</w>
noj p
BI N</w>
emo cion
Al gun
tuk li
pien se</w>
jun ak</w>
xo k
ha ʼ</w>
ent re
Pue de</w>
M áa
an s
Jon ás</w>
tze ˈn
kíi mil</w>
si kʼij</w>
ki kʼë</w>
c â
Bʼi ch</w>
lo oʼ</w>
jun elik</w>
mo des
xna ʼ
in spi
av i</w>
P ro</w>
s naʼoj</w>
s mantal</w>
rá pi
di g
cho po
M in
tʼaan oʼob</w>
d on</w>
chʼa ʼik</w>
be b</w>
M I</w>
19 14</w>
y liʼ</w>
tbʼ äl</w>
expli có</w>
on bʼil</w>
maa kʼaʼ</w>
err or</w>
con den
Qu e</w>
20 22</w>
in te
c li
ʌ lel</w>
t ja</w>
st se
B ern
tu kʼi
sée b</w>
res i</w>
r esta
ora mos</w>
empe zar</w>
acep tar</w>
B ro
bejla ʼeʼ</w>
Z ac
pas os</w>
su be</w>
meyaj oʼob</w>
ca dores</w>
K ex</w>
á les</w>
x ra
resca te</w>
P ila
P ara
Gala ad</w>
xo kik</w>
o di
mo mentos</w>
chʌ n</w>
Je ʼex</w>
yamb ʌlob</w>
ma do</w>
zil la</w>
u kʼu
t éen</w>
permi te</w>
hab ría</w>
k q
chʼaʼaj kilal</w>
G O</w>
ö l</w>
t t
sor pren
con f
ari ˈ</w>
con migo</w>
J CH
9 7</w>
obe deci
nim la</w>
dici embre</w>
de termin
ca sos</w>
asi stir</w>
v al</w>
tran qui
pi de</w>
qʼ e</w>
k kibʼan</w>
tsobobba ile</w>
ti lel</w>
segui da</w>
je a
c ana</w>
Es te</w>
segun do</w>
os to</w>
je ʼeloʼ</w>
KʼU SI</w>
oj ik</w>
cʼa baʼ</w>
enseñ ado</w>
ayu dado</w>
tʼa ñob</w>
su bi
ni wan</w>
imag in
8 9</w>
yab tel</w>
li loʼob</w>
ja a
cí fi
Des pués</w>
esper ar</w>
su fici
man dó</w>
laj ik</w>
alrede dor</w>
T he</w>
res puestas</w>
lo kʼo
a q
ben deci
yajtun el
tex tos</w>
ni ke</w>
estr e</w>
a h
Kʼa ʼa
w es
ru chi
yu tsʼ</w>
ad mi
g ü
chaʼ le
T AN
tsʼaʼa bal</w>
salv ar
pue da</w>
mukʼ ta</w>
jo jkʼo
TA C</w>
ch on
m aron</w>
fí si
ab al</w>
Nab u
A bi
F eli
ñ et</w>
é monos</w>
lá as</w>
farise os</w>
ya me</w>
hermano etik</w>
chʼa wem</w>
Yor k</w>
u ts
qu el</w>
i xo
ya abʼa
re com
jo s
y in
l äj</w>
apo ya
y on
smu kʼul</w>
nup tan
ch mabʼil</w>
yaʼa l
o jer</w>
kax tik</w>
Bern ab
xna ß
jun antik</w>
ʼ j
chaʼ kux
sv an
qʼuq bʼil</w>
ch ol</w>
x c</w>
ta xak</w>
sa mos</w>
ej er
de ja</w>
hebre o</w>
Qʼon ka</w>
F ran
párraf os</w>
mu si
fami lia
dios es</w>
ch as</w>
bu kaʼaj</w>
9 0</w>
ñi x</w>
ya kuk</w>
s pas
preocu pa
J ajal</w>
xch o
TE N</w>
xchano bil</w>
milag ro</w>
ju stos</w>
ag osto</w>
ʼ el
î c</w>
so la</w>
man e</w>
ca u
láa kʼ
ar in</w>
princi pal</w>
na ʼj</w>
ta y</w>
ox al</w>
TI ʼ</w>
ro ch
kʼa ch
abi al</w>
vin ajel</w>
xwan kil</w>
s koʼob</w>
mej ores</w>
ka kʼ</w>
s co
an si
1 00</w>
a mar
kʼa mik</w>
chʼix me</w>
Armaged ón</w>
soci ales</w>
recu per
lab or</w>
P RO
Jo ßcan</w>
vi ve</w>
t j</w>
se o</w>
po yan
kʼu chul</w>
M ás</w>
Ju dea</w>
tra i
tijo k</w>
m ba
kyi m</w>
cui ß
k xel</w>
chi j
detal les</w>
as eʼ</w>
re al</w>
princi p
poyan am</w>
me to</w>
ko mä</w>
be ya</w>
A p</w>
A cab</w>
ol bʼal</w>
t bˈ
cuiß chic</w>
TZ I
EN TES</w>
áan taj</w>
Hero des</w>
schʼuun el</w>
ʼ ye</w>
ti ˈ
espa da</w>
xa kʼ</w>
taʼa k</w>
nu pun
chq ë</w>
Balu milal</w>
pʌs ʌ</w>
kaʼan saj</w>
jaʼa bil</w>
wo liʼ</w>
tsa tsal</w>
par ta
ko n</w>
ex ac
chúu kaʼan</w>
s é</w>
pedi r</w>
ku x</w>
ki x</w>
SI GUI
to mó</w>
gu sta</w>
a parec
Cri stoe</w>
qa kʼaslemal</w>
oʼtan il</w>
kʼakʼa le</w>
er te</w>
yoj ée
taʼ m</w>
qʼ in
naʼa t</w>
Es tu
b or
profe tas</w>
of reci
láa yliʼ</w>
ri yix</w>
mal dad</w>
k onojel</w>
chqa wäch</w>
u tzij</w>
ti que</w>
sien ten</w>
actu alidad</w>
ño p</w>
z ada</w>
predi cando</w>
asun to</w>
tar je
o ˈn</w>
e i
ch oj
ta ciones</w>
m k</w>
te lé
wi ñi
im pli
sba ike</w>
don oso
recibi ó</w>
J os</w>
lleg aron</w>
ebr ero</w>
J ES
volvi ó</w>
religi osos</w>
dis puesto</w>
ade lanto</w>
sal vación</w>
s cholel</w>
religi ones</w>
pa a
necesi dad</w>
in vesti
habl ando</w>
estu vi
M A</w>
quixta ñujob</w>
kuxleja le</w>
jun aʼ</w>
aʼye ju</w>
ex ten
cuu lac</w>
perse cución</w>
un tes
túun eʼ</w>
tal la</w>
or din
a ʼoj</w>
J or
ˈ o
jeje láas</w>
tsʼa kal</w>
kʼin ebʼ</w>
clu m</w>
Testi go</w>
ʼo x
tra tar</w>
kʼu tbʼ
chk al
a fron
yaʼa laʼal</w>
tso l
te le
pod rían</w>
kʼ loj</w>
ca sas</w>
v ían</w>
pla ta</w>
ri kʼinebʼ</w>
qui si
gobier nos</w>
cab o</w>
s jol</w>
ru cˈ</w>
na tur
humil de</w>
ti ni
j chʼuun
Zac arías</w>
taj bʼen</w>
qʼi bʼil</w>
má xi
c ón
TO J</w>
Jesú seʼ</w>
x bat</w>
o tik</w>
demostra mos</w>
Qu e
kʼaab aʼ
der es</w>
cha lik</w>
ani ma</w>
yal oj</w>
cuán do</w>
yakʼ bey</w>
pʼ ée
maj x</w>
de mi
U cr
win ik</w>
pres enta</w>
lla mó</w>
cha kʼ
C la
yáan t
nu k</w>
b anic</w>
an cia</w>
ve an</w>
to bʼanik</w>
ji lal</w>
an g
ac ciones</w>
s íi
r en</w>
paala loʼob</w>
chß ôl</w>
Ilustra ción</w>
s ába
ñʌ chʼ
tu beel</w>
goberna r</w>
eli c</w>
wi li
segui dores</w>
chi qu</w>
D t</w>
que dó</w>
f ebrero</w>
a man</w>
ON ES</w>
A s
per der</w>
pa tzʼom</w>
A us
6 9</w>
tej clum</w>
sa t</w>
lib ros</w>
bi lob</w>
No em
ʼO N</w>
ân unquil</w>
per dón</w>
xi w</w>
van ej</w>
qab ʼa
enseñ anza</w>
yab ʼil</w>
l tos</w>
go zo</w>
A kʼo</w>
cre e</w>
Q a</w>
lé ase</w>
jo jun</w>
arrepen ti
10 3</w>
xyee bʼal</w>
qi ʼ</w>
kaʼa pʼéel</w>
k saj</w>
E d
bʼi qʼ</w>
L á
C AS</w>
yoʼonton e</w>
ku bˈ</w>
kan et</w>
i la</w>
chi ʼus</w>
li mi
Ru u
t bil</w>
invi tación</w>
pro gres
men tal</w>
ent reg
e ta
cor ri
con so
Fili p</w>
w0 6</w>
t ch
escri to</w>
demu estran</w>
cha pan
Yuum tsil</w>
TU ʼN</w>
bene fi
to ʼik</w>
ten eʼ</w>
ani loʼob</w>
die z</w>
ch ï</w>
bʼe y</w>
wi laʼ</w>
va ya</w>
ä y</w>
tʼu j
responsabi lidad</w>
p ʼu
co b
capaci dad</w>
al oʼob</w>
j kolta
g ol
apren dido</w>
a te
x toq</w>
per ten
ju bʼiqʼ</w>
cre to</w>
4 0
wiñi cob</w>
pu mal</w>
nax kʼe</w>
enferme dad</w>
bi kʼi
Eze quías</w>
ʼ J</w>
tsob lej</w>
tbʼin chaʼn</w>
pre g
respon de</w>
Nabu co
wan ej</w>
cho xa</w>
puktes ink</w>
chˈ abel</w>
chaʼ a</w>
Ge de
lo e</w>
ka t</w>
6 0
ʼo m</w>
tsʼ ʌ
p len
di bu
du ra</w>
a men
V a
Lá zar
v un</w>
ha gan</w>
mejo rar</w>
kʼas aʼan</w>
cʼ ʌ</w>
maj qui</w>
W I
pon en</w>
Jos ías</w>
Jesu soʼ</w>
PO R</w>
du ro</w>
di mos</w>
y eru
tan a</w>
E sto</w>
ó mi
us o</w>
tsʼ e
temp a</w>
t âcu
le jos</w>
koj oʼ</w>
vi le
hab lar
cu en
cha ʼik</w>
7 1</w>
obje tivo</w>
fun cion
chiru hebʼ</w>
D esper
we ñic</w>
teß x
taʼa loʼob</w>
kß axal</w>
re presen
Cana án</w>
túun oʼ</w>
per dido</w>
k si</w>
aw abʼe
par r</w>
twi tza</w>
q ʼil</w>
ji c</w>
j chʼun
des as
ans yan</w>
S im
líiʼ sik</w>
c ed
Nabuco donoso
twu tz</w>
r lo</w>
gener al</w>
d i</w>
cuán to</w>
Ec l</w>
prome tido</w>
D eb
í do</w>
yu cu
ti ʼn</w>
pu ra</w>
lí deres</w>
lan ik</w>
tem or</w>
jo xik</w>
jaj ch</w>
es il</w>
al to</w>
wili h</w>
ta ñob</w>
sko to
min tiʼ
dese os</w>
de pen
caj i</w>
responsabi lidades</w>
pa se</w>
NUEST RA</w>
Desper tad</w>
â lal</w>
x kuxlejal</w>
tuk ˈa</w>
esta rá</w>
aj oʼob</w>
va dos</w>
máa koʼ</w>
i ra</w>
a eʼ</w>
ʼe lil</w>
re fu
pens emos</w>
cu xt
A m
re ˈ</w>
oʼo j</w>
o fren
vi r
o li
xchß ôl</w>
mo loj</w>
in e
6 4</w>
o etik</w>
consecu encias</w>
le k
ta yel</w>
lle gado</w>
tijic ñʌ
X O
ki ló
ing l
bi le</w>
R eʼ</w>
di eran</w>
conta cto</w>
jon ïk</w>
ñaʼ tʌ
u do</w>
teʼ x
7 9</w>
pri vile
ki xbʼaanu</w>
forta lecer</w>
be b
M r</w>
Ji ch</w>
wen eʼ</w>
hi er
be ʼ
ES I
xchan el</w>
r ït</w>
e z</w>
con ten
chi chʼik</w>
bʼi s</w>
6 7</w>
bˈ e
3 9
z ando</w>
recor dar</w>
deber íamos</w>
x áan
ubʼi xik</w>
kʼo xla</w>
cʌ l</w>
cón yu
bautiz arse</w>
tijicñʌ yel</w>
chka ʼi</w>
C O</w>
histo ri
tz ʼil</w>
con seguir</w>
ali men
BIBLI A
wes t</w>
ti ʼoboʼ</w>
queri ˈ</w>
entusias mo</w>
cʼa j
lib re</w>
gra ve</w>
bʼi x</w>
anci an
ko wan</w>
don aciones</w>
8 8</w>
se letik</w>
o fici
H E
par á
j p
in medi
man do</w>
Lâ in</w>
le t</w>
Noem í</w>
t á
pa li
nab ʼe</w>
maj en</w>
llev ó</w>
ha mbre</w>
a su
E u
5 ,
yʌ cʼ</w>
beetk oʼ</w>
Bernab é</w>
preg ún
enferme dades</w>
M ari
últi mo</w>
pʼej el</w>
manda to</w>
SE Ñ
x tal</w>
se xo</w>
pro vo
il koʼ</w>
ha gamos</w>
desi erto</w>
VI V
s pʼejel</w>
a conse
Le a</w>
pʼi ju
es ca
er ía</w>
chi ke</w>
Davi de</w>
taʼ ma
im presion
erman a</w>
jaʼa boʼob</w>
ya migo
ubʼi ʼ</w>
ree tal</w>
ky nikʼ</w>
ko ju
chka kʼtik</w>
sta ik</w>
tso b</w>
qu in</w>
e go
cien tos</w>
telé fono</w>
pág s</w>
M aʼa
7 6</w>
que o</w>
ib ʼan
cre er</w>
a la</w>
D an</w>
z ona</w>
j nop</w>
hi lal</w>
a ver
in for
are tak</w>
al tar</w>
mo l</w>
hu bo</w>
en a</w>
ri q
ky an
cui b</w>
er g
d r
w0 7</w>
raj oʼ</w>
ka ʼ
fili ste
chʼo l</w>
chka ʼi
tx ʼotxʼ</w>
bta sel</w>
apro ba
ap ü</w>
am or
LO ʼOB</w>
wa ʼ
sol dado</w>
segun da</w>
pu diera</w>
j to
cʼʌ n</w>
esi ón</w>
resulta dos</w>
ama mos</w>
U DI
Nabucodonoso r</w>
ki chʼtik</w>
ji j</w>
ci eron</w>
W A
Lázar o</w>
xnaʼ lebʼ</w>
s tuk
escu cha</w>
Sau lo</w>
Balu mile</w>
yo ʼn
dis puestos</w>
ciu dades</w>
tsi loʼ</w>
plan eta</w>
cono ce</w>
laj il</w>
chʼ in
publi cación</w>
chi j</w>
chi kʼ
x ch</w>
uu j</w>
n onin</w>
in mor
8 7</w>
w enta</w>
oxi b</w>
obje tivos</w>
m ba</w>
y eron</w>
n ik</w>
la like</w>
for mas</w>
vin ajele</w>
don os</w>
w oʼ</w>
k ani
exi ste</w>
cristi an
su b</w>
di da</w>
dar les</w>
Ruu chichʼochʼ</w>
LI A</w>
DA D</w>
7 8</w>
ku ch</w>
jun io</w>
H ab
sujm lel</w>
sufici ente</w>
8 4</w>
so k
o per
fi j
G ran</w>
impor tar</w>
achiˈ el</w>
T at</w>
L aʼ</w>
máxi mo</w>
apo y
Pila to</w>
yaabilt maj</w>
SIGUI ENTES</w>
K oʼox</w>
A D
fun da
sinti ó</w>
laj in</w>
k west</w>
k aja
E bʼ</w>
An ti
super i
s teklu
ci pli
ad á</w>
Ucr ania</w>
qe taʼmaj</w>
xa va
wí ini
V ER</w>
Gede ón</w>
yan tal
wí ink
su ger
jo ltik</w>
est ás</w>
d án</w>
d aban</w>
chʼa y</w>
ân keb</w>
yu ts
trans mi
kyo klen</w>
ky ib
Le laʼ</w>
ti quʼn</w>
peque ño</w>
jkʼan tik</w>
je letik</w>
in quil</w>
a trás</w>
Biblia e</w>
ru tzijol</w>
ro choch</w>
qʼo n
ojtzqi ʼn</w>
ob stante</w>
cuxt ʌlel</w>
cu enta
yo li
r ab
parec er</w>
mostr ó</w>
kʼe ban</w>
káaj al</w>
chúu kpajal</w>
bi ltak</w>
áan tik</w>
x to</w>
lab al</w>
1 2
tí fi
tribu lación</w>
qʼu ex
ja b</w>
dar nos</w>
x yaʼ</w>
sʌ c
sa ch
cß anje
ko m</w>
chaj p</w>
p ra
jkuxlejal tik</w>
er i
w ik</w>
s äx</w>
pre dijo</w>
ka kʼ
Est á</w>
tradu cción</w>
mel tzʼa
ec er</w>
T NM</w>
u tsʼa
sirvi endo</w>
ri que
par tes</w>
k ermano
jun chʼol</w>
cʼuxbi ya</w>
Mar do
xnaqʼtz a
s lu
porno grafía</w>
mel bal</w>
dis cipli
costu mbre</w>
Ch aj
B RA</w>
yi chʼel</w>
tes e</w>
ja ku
ho gar</w>
W e</w>
kolta yel</w>
ini ci
en tos</w>
w eb</w>
es c
yi laʼal</w>
ter ren
te tik</w>
jun x</w>
di rección</w>
b oʼo
meyaj t</w>
dar se</w>
ajwa lil</w>
K an
Jehov ae</w>
mani a</w>
ja r</w>
i rá</w>
ar los</w>
all á</w>
M áax</w>
yakʼ be</w>
mi loʼob</w>
con ómi
c eso</w>
t jonïk</w>
JE ʼ
0 5</w>
î k</w>
artí culos</w>
a tzin</w>
H uuj</w>
4 9
pará bo
ocur ri
yuʼu nike</w>
ta ra</w>
ta ik</w>
sab en</w>
respe cto</w>
pi er
maa si
contr ol</w>
wa k
soli ci
nim xix</w>
k toʼon</w>
bʼi deo</w>
A na</w>
ka pi
ch we</w>
D EL</w>
u j
Re ino
R es
tsʼoʼo kol</w>
polí tica</w>
kaʼan sik
chiʼi ch
ch oʼob</w>
2 Cr</w>
skʼe lo
o ki
mâ cßaß</w>
h ar
ch lik</w>
con t
spa se</w>
riqßu ineb</w>
pen a</w>
na ʼel</w>
humil des</w>
des arro
al co
ab lemente</w>
se par
m eros</w>
yée te
to e</w>
partici par</w>
sb abial</w>
ni qui
le g
an eb</w>
ʼ x
su tik</w>
ac ʼ
pró ji
ki mik</w>
fuer tes</w>
encontra mos</w>
anali zar
ojée ltik</w>
apli cación</w>
T esta
I g
tik xan</w>
te lob</w>
t bʼaj</w>
sabi o</w>
próji mo</w>
guer ras</w>
a da
T EL</w>
we ye</w>
túu mben</w>
yi loʼob</w>
ti er
ce lo</w>
capí tulos</w>
bi c</w>
U tiaʼal</w>
kˈa ˈ</w>
ku r
cä qui
cu u</w>
Comi té</w>
xto ke</w>
li j</w>
a chʼ</w>
T YOL</w>
EST UDI
tron o</w>
perdon ar</w>
mila gros</w>
kʼa xel</w>
jaa ts</w>
iden tifi
R O</w>
w eʼ</w>
pro ve
man chuk</w>
cui dar</w>
parta mento</w>
k bʼan</w>
f recu
e conómi
0 2</w>
tz ʼ</w>
ri o</w>
qui so</w>
disi pu
cien tífi
ky ibʼ</w>
ban bil</w>
xchʼa y</w>
tx e</w>
Mar ta</w>
Jo h
ú sica</w>
señ as</w>
ky ni
ño po
ʼan il</w>
dis pon
E x
teni miento</w>
kaʼa cheʼ</w>
ju junpʼéel</w>
en seguida</w>
E sta</w>
e e</w>
ta w</w>
ta peʼ</w>
s na</w>
no pol</w>
kúun tik</w>
deci dir</w>
b tas</w>
xi mana</w>
chu pam</w>
beetk eʼ</w>
Kʼu sitik</w>
ti aʼan</w>
kʼa as
d era</w>
chíi k
a pare
ti vas</w>
sali ó</w>
prácti cas</w>
n as</w>
men udo</w>
cono cer
Tz ij</w>
un i</w>
ta mi
creer tik</w>
chaj ak</w>
bi l
B Í
quer ido</w>
mo ri
difer encia</w>
deb ía</w>
X I
tak la</w>
qui lal</w>
hi bi
bo ca</w>
v un
mu lan</w>
ma c</w>
ji b</w>
tend rán</w>
prote ger
bˈ in</w>
ˈ l</w>
ta sal</w>
re mo
bikʼi t</w>
s nopel</w>
llen a</w>
C Ó
sába do</w>
tu des</w>
BIBLIA Oʼ</w>
v ar
pro cla
hon ra</w>
Satan ase</w>
yaʼ öx</w>
tí tulo</w>
min u
kja wil</w>
kan an
chʼa w</w>
E fe</w>
xa b</w>
wi ʼje</w>
qui énes</w>
q yolin</w>
kaʼi y</w>
ilo c</w>
esfuer zo</w>
en tra
en i
A x</w>
tra to</w>
propi os</w>
kʼujla ʼn</w>
colta ya</w>
ñ e
po b
hab ili
glo ri
ga se</w>
cu ânk</w>
t la</w>
su uk</w>
chʼu ju
T RA
cristi anas</w>
ori gen</w>
oj txe</w>
ï r</w>
yik nal</w>
ri ca</w>
manta letik</w>
a co
te en</w>
bʼa r
BʼAN EL</w>
ofre zca</w>
chan chan</w>
achi que</w>
BÍ BLI
ñ usan</w>
l ó</w>
e lec
d ó
ad em
la ʼ
Eli seo</w>
A t</w>
me ta</w>
ga ción</w>
J aʼ
ra hilal</w>
ka ab</w>
anali zar</w>
P RI
tz jon</w>
ta ta
m â</w>
kab ʼal</w>
so mb
ruu kʼ</w>
aati nak</w>
a compañ
yal el</w>
sir ven</w>
sba e</w>
s t</w>
ry eʼ</w>
mo ra
kʼáa tik</w>
N OS</w>
7 5</w>
xu ʼj</w>
kʼo ʼ</w>
im á
i rse</w>
Dis fru
ye le</w>
tend remos</w>
t qʼo
sbi il</w>
pedi rle</w>
qabʼa anu</w>
je lu
princip ales</w>
o dio</w>
ju juntúul</w>
c tor</w>
K AN
C A</w>
6 ,
yeʼes aj</w>
xt q
qʼo ʼne</w>
cul p
cha ˈ</w>
N aq</w>
KO ʼON</w>
CÓ MO</w>
sexu al</w>
kaab aʼ</w>
cʌn tel</w>
jun elic</w>
ex eʼ</w>
ex cel
chu m
sion e</w>
s kʼelel</w>
exa min
vi ven</w>
tsʼaʼa b</w>
opini ón</w>
kʼa mal</w>
entr ar</w>
ji lel</w>
gobern ante</w>
h re
convi r
chu wech</w>
ca das</w>
ix k</w>
imá genes</w>
en en</w>
bi lik</w>
xy ânkeb</w>
so por
q ximen</w>
o ˈ</w>
cha mel</w>
ta ʼan</w>
di dos</w>
us ó</w>
su ben</w>
reg is
kuxleja lik</w>
an e
a ta</w>
r me</w>
pelig ro</w>
o cho</w>
kʼutbʼ esi</w>
in qui
ci ón
mencion a</w>
em pi
adem ás</w>
TE O</w>
ma ak</w>
ka aj</w>
vo y</w>
medi tar</w>
hacer se</w>
gu sto</w>
ca ciones</w>
bu k</w>
yo ʼn</w>
x kolta
w w
señ al</w>
ingl és</w>
ba ˈ</w>
ar me</w>
s be
en se</w>
a con
9 4</w>
bʼar wiʼ</w>
P ʼ
tarje ta</w>
sexu ales</w>
Ts ʼi
9 1</w>
pusi eron</w>
mele le</w>
jba tike</w>
A V
ver dades</w>
cla ve</w>
ap o</w>
ac ei
PA S
univer so</w>
ox tenqʼa</w>
nak oʼon</w>
kʼi ini
sw enta
kix kʼe</w>
1 Sa</w>
yal o
tsʼíib ol
s é
q ʼel</w>
cab an</w>
ca dor</w>
Eze q</w>
pun tos</w>
o f</w>
kʼáat chi
ky ximen</w>
Na zar
yil koʼob</w>
s ts
mo vi
Es d
y os</w>
xna w</w>
ori g
ex presión</w>
ci al</w>
an terior</w>
P ER
pod rá</w>
no mbres</w>
yaʼali koʼob</w>
tsʼi j
oí r</w>
kʼwa ʼl</w>
yi j
mu ri
k bʼan
cu bin</w>
E J
ven cer</w>
su r</w>
e jetik</w>
De ut</w>
sig an</w>
li sta</w>
kʼa b
ila wil</w>
X jan</w>
Á frica</w>
ti cas</w>
pak bʼan</w>
c ero</w>
Kri stoe</w>
tza q
Luʼu meʼ</w>
20 19</w>
Co m
xchi ʼuc</w>
vi u
q ebʼ</w>
la ji
cambi ó</w>
tsa ʼix</w>
or den</w>
i mos</w>
7 4</w>
x ñop
w abʼe
tsob ajel</w>
medi da</w>
ka t
cho man</w>
al bat</w>
B U
su mo</w>
san tos</w>
lu char</w>
isra eletike</w>
chka kʼ</w>
va le</w>
stsʼi ba
pʼ íi
hre f</w>
g ra</w>
A j</w>
deci dió</w>
ch abi
acon te
a ye
U TZI
t h
s kaj</w>
ki leʼ</w>
Re be
Aus tra
muchʼtáa mbal
se l
s mul</w>
kuxta loʼ</w>
dis posi
mu ʼu
mo s
bʼ et</w>
a we
Bel én</w>
xíi mbal
suce dió</w>
le emos</w>
car á</w>
ac ˈ
Je ʼel</w>
xtz olbʼal</w>
recibi do</w>
kiló metros</w>
chi rix
âcu e</w>
wä y</w>
s pe
ja kʼ
Pregun tas</w>
Lib rar
tuk laj</w>
t ʌntel</w>
ra b</w>
kʼo tik</w>
b ê
sin ago
r al
permi ti
E sa
sjabi lal</w>
ro so</w>
k bʼel</w>
ar ri
ab und
u tzalaj</w>
taa kʼin</w>
gra ti
ari q</w>
yaʼa laʼa
satis fac
chʼo n</w>
b esti
pres encia</w>
pas ando</w>
aj oʼ</w>
a ʼan
x kʼe
ta el</w>
kyo k</w>
óo liʼ</w>
â k</w>
ar tik</w>
sta lel</w>
s aja
pʼi jil</w>
perfec to</w>
bendi sion</w>
x k
kʼo jaʼan
k tal</w>
compren der</w>
abte lal</w>
a di
x eru
tsʼoʼo kok</w>
liv ro
awabʼe j</w>
no pe
famili ar</w>
7 7</w>
yo m
qa yuʼam</w>
pri va
ke tike</w>
ga dos</w>
b on</w>
I mag
9 8</w>
0 1</w>
signifi cado</w>
ril bʼal</w>
lu ʼ
d ora</w>
r ando</w>
cʌ y</w>
A R
ven ta
svo ko
ra choch</w>
ni dad</w>
cha kʼik</w>
Ro ma
pres a</w>
preocu pa</w>
men ta</w>
esfuer zos</w>
cha ʼan
b lan
apoya r</w>
a to</w>
A ß
ʼu x
sco tol</w>
res il</w>
L TIKE</w>
ye qa
u tsiloʼob</w>
naʼ m
equi vo
EN SEÑ
yaʼa b
vi a</w>
ol esc
j wal</w>
toʼon oʼ</w>
l k</w>
a kʼel</w>
ʼU N</w>
â tina
yajtunel tak</w>
pri mi
kab al</w>
VI D</w>
éxi to</w>
min ut</w>
isra eletik</w>
exi s
empe zaron</w>
chi qui
HA C
fuer an</w>
G ran
kuxta loʼob</w>
naʼa tik</w>
jar dí
dispon ib
chʼaʼ äl</w>
per el</w>
20 20</w>
14 5</w>
xe ß
super ar</w>
kʼu bik</w>
in g</w>
bˈ in
bun al</w>
Jor dán</w>
Je f
si ento</w>
ri co</w>
e uk</w>
chʼi y</w>
a parece</w>
ven ir</w>
qu es</w>
A MOS</w>
n u</w>
cónyu ge</w>
M E</w>
Librar y</w>
x laj</w>
ja ʼik</w>
difer ente</w>
Cha kojoʼ</w>
lo qʼu
bene ficios</w>
tzeˈn ku</w>
laj e</w>
ju mul</w>
an ak
H oy</w>
A na
x qʼuq
propi as</w>
pod ríamos</w>
o eʼ</w>
Ale mania</w>
str ong</w>
éndo se</w>
o q</w>
lle van</w>
lle gue</w>
kʼa m
ka migo
di señ
Pas cua</w>
su u
sabi os</w>
sa f
ho l</w>
anali ce</w>
V EN
A ʼ
y íi
te cheʼ</w>
ansi edad</w>
Mo zilla</w>
K y
na cional</w>
aj lel</w>
xnaqʼtza ʼn</w>
ta qʼuin</w>
qʼ et</w>
ja an
contro lar</w>
b tesel</w>
an chaj</w>
yan ak</w>
tz aj
tukul t</w>
tr e</w>
kʼi xik</w>
hac ían</w>
deb ían</w>
cono cido</w>
slaj ibal</w>
s kʼakʼa
qu ʼ</w>
ja aj</w>
Ja ku</w>
âtina c</w>
yucu aß</w>
yi lal</w>
w 11</w>
ha q</w>
acei te</w>
u ya
tzʼa j
j jo</w>
equi lib
div ina</w>
A si
respon der</w>
espiri tu</w>
chaʼle ñob</w>
20 13</w>
tku ʼx</w>
oʼonton al</w>
kʼu tu
jóo kʼol</w>
can tidad</w>
ple tic</w>
h echos</w>
comen tario</w>
ab ʼan
ʼo l
muʼ yaj</w>
jun an</w>
sem anas</w>
kam k</w>
BAʼA X</w>
sin cer
j ma
agradeci dos</w>
yáant kech</w>
pan demi
SA L
tix qʼax</w>
pej cʌntel</w>
comen tarios</w>
N ú</w>
Je z
JU N</w>
A y</w>
vo ʼe</w>
tʼuj bil</w>
m ya</w>
imperfec tos</w>
ig lesia</w>
e gip
t ʼ
bʼin ch
E so</w>
ʼ yuk</w>
xook oʼ</w>
ta t
j ta</w>
ándo le</w>
kux kíin
ku xi
es aj</w>
cu alidad</w>
to or
nu j
nki ʼän</w>
mej en</w>
destru cción</w>
continu ación</w>
chaʼ le</w>
Ri yaˈ</w>
9 5</w>
segui mos</w>
X U
tun ik</w>
r on</w>
pra cti
pe le
mon te</w>
mari a</w>
lo gra
j nopo
cʌ y
analizar emos</w>
sja kʼo
rela ciones</w>
ofre ce</w>
n t</w>
materi ales</w>
jaʼuk meto</w>
eje cu
Reino oʼ</w>
Re v</w>
ad olesc
Sim ón</w>
KUX LEJA
ñaʼtʌ bal</w>
xka kʼ</w>
xi len</w>
w 15</w>
tik ïr</w>
jtak bol</w>
ho onal</w>
cru z</w>
corre o</w>
Va ʼun</w>
t ér
kʼa mo
j voko
bˈe ˈx</w>
asig nación</w>
yi chʼo
wo co
kqab ʼano</w>
ts ʌ
si kʼ</w>
q naʼn</w>
pien san</w>
le le</w>
kab ʼe</w>
Cr ón</w>
é ste</w>
se man</w>
ju un
fi esta</w>
y ani
tes i</w>
kolta el</w>
cambi ado</w>
B ʼa
Ñ I
yaan al</w>
ne ga
nave g
alcan zar</w>
Mu ʼ</w>
Mi que
ra chi
ne u
jaʼ nax</w>
con tiene</w>
châ bil</w>
c é
Para íso</w>
9 9</w>
tra v
ma yej</w>
cha me
ah í</w>
yec ˈo</w>
keʼ yin</w>
ej e</w>
der ra
ch ʼil</w>
bu l
ani kil</w>
x kux
pap el</w>
cor ro</w>
chu pan</w>
c k</w>
aʼi yej</w>
w 13</w>
tina m
stse ʼelil</w>
kya ʼj</w>
e wan</w>
confi r
aʼalaʼa b
5 0
vali ente</w>
tinam ït</w>
t nikʼ</w>
t majen</w>
K E
CI ONES</w>
v í</w>
ki wäch</w>
P E
ESTUDI O</w>
ti kʼ</w>
prote cción</w>
orgu llo
jen aj</w>
O y</w>
Lo t</w>
Esd ras</w>
ña xan</w>
parábo la</w>
lib r
kˈ o
jardí n</w>
j naʼo
con forme</w>
aj un
pue dan</w>
deja do</w>
ar la</w>
C é
gra cia</w>
f o</w>
awa ʼi
ami go
al ta</w>
1 10</w>
so lta
ri os</w>
múu chʼ</w>
ma le</w>
DES CU
ti b</w>
sem ana
com por
cha kʼbe</w>
a paci
mil las</w>
be el
x ja
qu ía</w>
lengu a</w>
con ce
ta loʼob</w>
t én
skʼu xul</w>
se b</w>
multi tud</w>
car tas</w>
as ta</w>
are ˈ</w>
20 14</w>
culti var</w>
LE S</w>
wa xel</w>
di vi
Mardo queo</w>
tsa ʼʌch</w>
tra tar
to jol</w>
disipu loʼob</w>
constru ir</w>
ch qʼaʼ</w>
yi ch</w>
saʼa b</w>
ro de
qʼue lob</w>
jchan betik</w>
ermano etike</w>
Cuán do</w>
Aja waxel</w>
súu tu
lo kß
kan a
elec tr
be ber</w>
ba le</w>
î n
tsob aj
gra ves</w>
cam paña</w>
Sa ʼ</w>
H o
sna ʼik</w>
oí do</w>
o sidad</w>
noko o
múu l</w>
e ʼex</w>
chu wäch</w>
Ju di
DESCU BRA</w>
regi ón</w>
chʌ mel</w>
aʼa b</w>
S í</w>
maʼalob tak</w>
corre cto</w>
chʼa bal</w>
beʼ en
b h</w>
tsʼo ok</w>
tend ría</w>
mora lidad</w>
llev aba</w>
des can
cho j</w>
stu ke</w>
sa xik</w>
res to</w>
rela tos</w>
min a</w>
er lo</w>
Testa mento</w>
1 39</w>
xlo kß
w ojel</w>
t ye
kye qe</w>
ka ch</w>
anak cuan</w>
pare cido</w>
habi tantes</w>
an un
JES Ú
ya kʼel</w>
tsʼe lil</w>
t í</w>
n qan
me tro</w>
conver ti
aproba ción</w>
Mique as</w>
ye bal</w>
tx ˈo
sig los</w>
profe ti
permi tió</w>
gun o</w>
fal sa</w>
bus ca</w>
YU ʼUN</w>
txˈo tx
precurso ra</w>
bʼ ë
kʼu b
c ʼob</w>
óotsi lil</w>
É E
yo mic</w>
ya k
ven ga</w>
to oʼ</w>
prob ablemente</w>
kermano tak
j te
in sta
es p
car r
añ oil</w>
N E
H e</w>
B i
qßu in</w>
o posición</w>
j tale
er ta</w>
a me
x vinaj</w>
qui ero</w>
necesi taba</w>
k el
aja w</w>
QU I
w u</w>
tkyaqil ju</w>
qu en</w>
w ar
so l</w>
chi hab</w>
DI O
termin ó</w>
h ú</w>
J UN
Ed én</w>
AL GO</w>
yu jtel</w>
mo j
kˈ ab</w>
hab lan</w>
20 12</w>
xka kʼtik</w>
payal chiʼ</w>
nuʼuk tik</w>
an tse
t tzi
profun do</w>
ki kʼuʼx</w>
er a
T ex
CRISTIAN OS</w>
paci ente</w>
p ón
ko mel</w>
enseñ an</w>
bi en
vivi mos</w>
terren o</w>
n chi</w>
kʼo jiʼ</w>
jee tsʼelil</w>
autori dades</w>
DI S
Ben ja
ʼa ati
jon te</w>
e leʼ</w>
X A
9 6</w>
te ʼeloʼ</w>
qʼu e</w>
kʼaʼaytaj oʼ</w>
ky aj
d ría</w>
cari ñ
Es te
suc esos</w>
ma estro</w>
to k
toor uuq</w>
lec tores</w>
Cri sto
Algun os</w>
che e
ani mar
ya t</w>
tsʼoʼo keʼ</w>
tqˈ maˈn</w>
t wiʼ</w>
steklu mal</w>
kʼu u
descen dencia</w>
car ga</w>
agu ante</w>
Kri sto</w>
xa maan</w>
kʼu si
ju k</w>
fal sos</w>
en or
ca t
utzi läj</w>
txˈotx ˈ</w>
tare as</w>
sok nix</w>
r aron</w>
le jetik</w>
kʼin e</w>
ki ke</w>
con centr
ci ento</w>
bʼë y</w>
ab aß</w>
CO VID</w>
va ʼ</w>
kʼi s</w>
RESPON DA</w>
JESÚ S</w>
segu er</w>
car le</w>
A yu
trav és</w>
re yeb</w>
iky jo</w>
cumpli miento</w>
aba tetik</w>
Can adá</w>
ti aʼa
re ta
cˈ o
a tik</w>
JU AN</w>
tr uuq</w>
teni endo</w>
che ß</w>
x ban
vi vo</w>
kʼu ch</w>
kapi tulo</w>
cʼ u</w>
anima ˈ</w>
Ba al</w>
wabʼe jilal</w>
ne ke
cha do</w>
ari as</w>
ya ʼon</w>
ma m</w>
e tz</w>
xcha ˈ</w>
rique zas</w>
nu ʼu
llen o</w>
l te</w>
j tun
j mank</w>
El la</w>
w p
káaj bal</w>
O r
Mi gu
ʼun e</w>
ä t</w>
liv ro</w>
in ta</w>
edu cación</w>
Wat ch</w>
u t
mâ usilal</w>
ma are</w>
ch jonte</w>
aqa t</w>
Y abal</w>
án donos</w>
lu metik</w>
j bʼal</w>
ayudar án</w>
s kʼij</w>
ocu pa
kʼu x
ku y</w>
Jer i
A Y</w>
xi li
x pe</w>
tsʼ áaj
j tu
enci ma</w>
cha kß
F E
yo pol</w>
la dos</w>
kʼ wäy</w>
es pañ
c era</w>
CH AN
ti bʼ</w>
po cos</w>
ni maj
kon grega
israelita ʼoboʼ</w>
chʼʌ m
b lo
TE ʼ</w>
u m</w>
te mal</w>
n er</w>
z can</w>
ruu chichʼochʼ</w>
ani mó</w>
ani mar</w>
senti rse</w>
públi co</w>
o do</w>
man q</w>
chiʼich nak
ba talla</w>
L es</w>
E se
ocur rió</w>
no o
ama qʼel</w>
Tu men</w>
y en
x tik
ni e
mí n</w>
cu ales</w>
s nu
chʼul chan</w>
chanubta sel</w>
W il
ri beb</w>
lle ga</w>
kaʼa choʼ</w>
inter net</w>
di vino</w>
ap as</w>
E b</w>
xakʼa l
spa t</w>
saf at</w>
le ke</w>
avu ʼun</w>
óo x
we taʼmaj</w>
Sa maria</w>
CH O
8 ,
ts tsa
mo de
de cían</w>
b ú
aʼte lil</w>
a qa</w>
SB A</w>
Mun dial</w>
si gamos</w>
pens ando</w>
i kʼ
bo chʼo</w>
O K</w>
C OR
ru wa
privile gio</w>
Cé sar</w>
19 19</w>
- 1</w>
qu ib
lti ʼob</w>
kur so
ki ik</w>
Esa ú</w>
sto y</w>
ne a</w>
meltzʼa j</w>
li liʼ</w>
tso lajil</w>
so lel</w>
ku b</w>
d ero</w>
cʼajti ya</w>
yo k
ob st
J ob
Ñ O
kʼu n
ke m</w>
k qetaʼmaj</w>
enemi go</w>
tsʼáai koʼob</w>
pri sión</w>
mam á</w>
respon der
mision eros</w>
lu ch
kʼaabaʼ tik</w>
ée tel</w>
te ech</w>
stojo lale</w>
Ts ʼ
vi gi
su puesto</w>
ro m
pap á</w>
lo q</w>
kʼi s
esfor z
cer á</w>
ali mentos</w>
Ver dad</w>
SB G</w>
20 00</w>
ven ido</w>
tek sto</w>
s cʼo
pa ces</w>
chu coch</w>
Disfru te</w>
yajtsʼak lom</w>
pied ra</w>
ch win
Ra hab</w>
2 Re</w>
yeʼes koʼob</w>
ru wi</w>
koʼo lel</w>
ho lo
beetaʼa b</w>
TZ O
A TI
ár bol</w>
ten kß
t qʼi
re fier
re co
pro hibi
mi loʼ</w>
i dos</w>
I MP
yoʼonton ike</w>
tu min</w>
q qʼamaʼn</w>
la jun
i lu
ayudar lo</w>
a w</w>
ti cʼo
krixchano e</w>
equi po</w>
empe cé</w>
alu ˈn</w>
To wer</w>
T al</w>
H u
Balu mil</w>
ju dio
c lo
a te</w>
dibu jo</w>
Mu chos</w>
Lu kas</w>
ʼ AN
to ma
res ol
religi on
nue vos</w>
benefi cia</w>
Yu mʌntel</w>
últi ma</w>
yi pal</w>
re presenta</w>
ne ʼex</w>
jaaj kun
bʼ ä</w>
8 1</w>
yaabʼa si</w>
tzalaj bʼil</w>
skʼakʼa lil</w>
ka mi
espiritu almente</w>
Kʼo p</w>
w0 5</w>
to til</w>
ta man
sa ho
ki l
j na
aʼ o</w>
Po demos</w>
Á A
yakʼo j
ts kʼan
p ción</w>
c ʼan</w>
añ ʌch</w>
u c</w>
logr arlo</w>
dar on</w>
LI K</w>
LA J</w>
ˈ i
yʌ cʼʌ</w>
tér min
ló gi
8 2</w>
ku l</w>
chʼu tam</w>
c es
xch ano</w>
reali zar</w>
qˈu i
ada p
G ra
ân c</w>
m emo
ki wiʼ</w>
j tek
Ig lesia</w>
tar le</w>
na cion
n xi
minis teri
ka b</w>
ji ˈy</w>
be yaʼ</w>
a kal</w>
ñ ʌch</w>
ya chʼil</w>
tzi jon</w>
tri go</w>
tra tado</w>
s ju
Austra lia</w>
yuʼu bik</w>
ver si
prome tió</w>
exi sti
e volu
camin os</w>
au men
VIV LIA</w>
N ec
Chan ru</w>
yo t</w>
recor demos</w>
is las</w>
in bil</w>
electr óni
t î
o ye</w>
kri xchano</w>
Bʼi x</w>
luʼu m</w>
inmedi ato</w>
f e
bee toʼ</w>
Cʼ Ʌ
âcu u</w>
tzˈ i
me ti
kaj wa
jp ʼel</w>
ar chi
ama ba</w>
T kawbʼil</w>
tzʼi bʼin</w>
tuuku l
t ß
kʼaas tak</w>
kʼ tal</w>
bus cando</w>
Ma ch</w>
x co
obe dientes</w>
xu ul</w>
viol encia</w>
si ga</w>
l bʼal</w>
kʼuq bʼaʼ</w>
kʼ ex</w>
ib ʼal</w>
conti go</w>
ayi kʼa
z ados</w>
yʌqʼue ñonla</w>
re pu
re ba
par eja</w>
m ó
jkʼop on
chʼ íi
Y OS</w>
recibi eron</w>
naj saʼn</w>
kbʼan tel</w>
discípu lo</w>
car go</w>
ú til</w>
xna wbʼal</w>
ta miento</w>
r al</w>
qʼin u
k paj
cha p</w>
uj ti</w>
sue ño</w>
manten erse</w>
ka an
escla vos</w>
doc tor</w>
AN Z
yab te
tijic ña</w>
fu i</w>
Nec esi
yi c</w>
ta leʼ</w>
qan ik</w>
q Man</w>
públi ca</w>
la ltike</w>
gr ab
fi el
chki pan</w>
8 5</w>
ki men
ele gir</w>
che ʼʌch</w>
suger encias</w>
pon erse</w>
no tas</w>
kan tzij</w>
el en</w>
be e</w>
S an</w>
tan te</w>
maravillo so</w>
kʼu h
jtek lum</w>
dar é</w>
A R</w>
x in</w>
ti l
kaʼi ytik</w>
deci mos</w>
cier tamente</w>
bes ik</w>
Pre par
J a</w>
4 000</w>
u lew</w>
ko jonik</w>
in forme</w>
0 9</w>
snop ik</w>
pak bʼabʼil</w>
encuentr a</w>
cu bier
Nazar et</w>
y or
llev aron</w>
her ra
asamble as</w>
z i
vi vía</w>
nin guno</w>
W i
Q ʼa
N TES
0 3</w>
tik eʼ</w>
tar ía</w>
discipli na</w>
cal ma</w>
c tamente</w>
xta wbʼal</w>
tri ste
sigui eron</w>
s tó</w>
ob o
est emos</w>
can ciones</w>
av oʼonton
aparec en</w>
Nú meros</w>
yeʼesi keʼ</w>
x ib
fir me</w>
ô leb</w>
ver sión</w>
pro yec
impli ca</w>
U T
10 5</w>
o yaj</w>
k kib
im posible</w>
com er
D ónde</w>
ä m</w>
t ô
pasto r</w>
de vo
T ʼan</w>
uku j</w>
s lokʼ
par tir</w>
oo chel</w>
in an</w>
fal sas</w>
chal k</w>
xoo kaʼ</w>
tu ra
ten tación</w>
s oʼob</w>
ju majx</w>
enfer mos</w>
ch kolta
ˈ ja</w>
tra tó</w>
toʼo boʼ</w>
queri dos</w>
puer tas</w>
in terior</w>
yáan al</w>
mi j</w>
m pe
cha ʼiik</w>
ch ê
x eman
xeman ae</w>
s ó</w>
le f</w>
actu ali
MA S</w>
na qaj</w>
cé lu
a f
Go lia
tu u
to ma</w>
kal betik</w>
a etik</w>
tribu s</w>
prepar ado</w>
pre kurso
nimaj cual</w>
kʼa akʼa
chʼo l
aprove ch
alco hol</w>
Davi d
D ER
7 ,
tk yi
sem ej
qab ʼan
kaʼa chi</w>
prof es
nu me
lo ʼla
beb é</w>
û nk</w>
si mb
puksiʼi kʼa
pregún tese</w>
l y
kʼo kel</w>
ac tú
TA N</w>
Qui énes</w>
MA TEO</w>
ʼo l</w>
naʼa jmank</w>
mi li
kʼu k</w>
asegu r
woko lil</w>
tzi kʼ</w>
ob tener</w>
ni cˈ
kʼutu ʼ</w>
j i</w>
filiste os</w>
10 00</w>
ʼes an</w>
respon sab
ji x</w>
ja do</w>
inqui e
ayu k</w>
Y aʼab</w>
s hor
kʼu lin</w>
ku tsʼ</w>
gri e
x tenamit</w>
ra son
jo lo
nu yaʼ</w>
lta ke</w>
judí oʼoboʼ</w>
dej aron</w>
aspe ctos</w>
Ú U
prote ger</w>
lo qʼuel</w>
ji ke</w>
V en
recom pen
lengu aje</w>
j abʼ</w>
LE C
1 Re</w>
xnaß leb</w>
kí intik</w>
j y
in moralidad</w>
hacer nos</w>
ar reg
9 2</w>
sʌc lan</w>
o si
con ser
ch chanubta
can ab</w>
xʼi xi
ur ante</w>
nax kʼut</w>
ma estros</w>
kʼiini loʼob</w>
ju da
ex per
diri gi
chˈ u
chʼʌ m</w>
spaso j</w>
organi sa
m úsica</w>
asi sti
TA L</w>
DI C
yoto ch</w>
xi kʼ</w>
taq oya</w>
pandemi a</w>
nqa yaʼ</w>
ky qˈ
ho ra
B A</w>
w 12</w>
itz ʼin</w>
israelita ʼob</w>
Rebe ca</w>
ñ oʼ</w>
lo t</w>
ju ra
colta ñob</w>
Nú m</w>
1 27</w>
zar nos</w>
wo m</w>
sa mari
p in</w>
ku ʼx
j chʼu
chaj pan</w>
cha p
x k</w>
vu estros</w>
u bʼan
mode lo</w>
la ak</w>
com p
W AN
R us
ʼux l</w>
xʼixi cob</w>
h aría</w>
e vangeli
ba laj</w>
ama do</w>
Jo ʼ
De partamento</w>
wi ʼil</w>
pe k</w>
la bʼ</w>
col ta</w>
cam pos</w>
xi cß</w>
s ten
chˈ alal</w>
car ac
ayi x</w>
T aje</w>
vi mos</w>
lab an</w>
ben tel</w>
an c
N O</w>
ʼa j</w>
ve amos</w>
u kʼwäy</w>
superintend entes</w>
deci dido</w>
c tori
J ÑI
Des de</w>
2 Co</w>
t se</w>
pres entes</w>
aj o</w>
Sal ones</w>
ta te</w>
qʼ r
espe cífi
ani x</w>
wí inik</w>
suc ed
riq bʼal</w>
noj beʼen
jo ß
Mu ʼyuk</w>
JÑI BAL</w>
B o
cualqui era</w>
ab tej</w>
Migu el</w>
L ec
sja lil</w>
q ok</w>
aku chï</w>
ab tel</w>
ʼa wabʼejilal</w>
w0 4</w>
prepar ar</w>
na il</w>
extra ordin
con stan
cha wilaʼ</w>
U N</w>
segu ra</w>
mo lam</w>
me tike</w>
ib uk</w>
chʼaʼa j</w>
c án
as es
agu as</w>
ʼn toq</w>
x yu
to tal</w>
qʼr abʼ</w>
p aneʼ</w>
logra r</w>
kya qil
kaʼa k</w>
ila ʼa
g é
di encia</w>
ha k</w>
dese an</w>
bi o
X CHA
2 5
É N
ru heb</w>
ki wach</w>
j áan</w>
j chiʼ
di ga</w>
Ju e</w>
úuch jea
v i</w>
servi rle</w>
qʼinu mabʼil</w>
fu ente</w>
bee te</w>
X NA
LA C</w>
o yik</w>
manda mientos</w>
in fier
ego í
deb es</w>
an d</w>
a i
ʼ jil</w>
vali entes</w>
ojée l
ne go
je j</w>
chee kel</w>
are el</w>
a laj</w>
ya lab</w>
ti na</w>
t tx
man dar</w>
Pedro e</w>
tra m
qan in</w>
mens ajes</w>
kʼu tu</w>
cel u
besti a</w>
V ER
ya kik</w>
x yuʼam</w>
ticʼo jel</w>
sim p
ky bʼinchaʼn</w>
jpu k</w>
impor ta</w>
Y e</w>
Mo ab</w>
Baʼa xoʼob</w>
áan t</w>
c í</w>
bˈ i
K S
AN CE</w>
xqʼuq in</w>
raj lal</w>
r ïn</w>
obe diencia</w>
koʼo le
de por
P a</w>
MA R
yaʼa loʼob</w>
xuʼu l</w>
tu kʼe</w>
reci be</w>
maʼa ñix</w>
jnaʼo jtik</w>
há bi
ch ß</w>
b á
b ol
T OS</w>
Se gún</w>
ton in</w>
ru bʼan
pʼa tik</w>
pre cio</w>
her e
ha yan</w>
circ unci
w óo
sáa m
a van
quix qßue</w>
lo j
con tin
bee til</w>
DIO SE</w>
Cla ro</w>
x chaʼ
ky ˈ
f ej
ayudar los</w>
ab o
1 Pe</w>
x óo
or ó</w>
lle gar
ke ʼu
j kʼu
habili dades</w>
ex tre
cumpli ó</w>
refle xi
gan as</w>
es con
añ oʼ</w>
acab ará</w>
a maj</w>
yakʼ botik</w>
vi vían</w>
q wan</w>
pa t
m oʼoj</w>
SE AMOS</w>
ña xam</w>
wi ñic</w>
peque ños</w>
ma me</w>
hab éis</w>
cˈ ariˈ</w>
10 4</w>
xy î
ta y
kʼu ʼje</w>
descen dientes</w>
w0 8</w>
ro sa</w>
k ibʼ</w>
xlo kʼ</w>
vu estro</w>
tran j
especi almente</w>
chʼn abi
0 7</w>
úni ca</w>
t tnam</w>
ba kʼin
ʼe j</w>
sir ve</w>
sal ón</w>
s mo
quer ían</w>
pas bil</w>
ofren da</w>
ka p</w>
je cheʼ</w>
cr á
T eme</w>
svo kol</w>
permi so</w>
mill ón</w>
j tsa
estr as</w>
en tien
div or
añ i
ac tos</w>
M ER
w 2
teri ores</w>
KAN IK</w>
BAʼA LOʼOB</w>
AV ANCE</w>
ts an</w>
ter remo
te c
sal mi
prote ge</w>
keʼ x
i chʼel</w>
habla ba</w>
dis tribu
cab al
T qa
H a</w>
DES CRI
plan es</w>
na tura
l es
anunci os</w>
Sab es</w>
p h
l to</w>
in qa
hici era</w>
hi jas</w>
pob res</w>
kajwa taj</w>
k r</w>
je tike</w>
UTZI J</w>
Joʼ kan</w>
20 21</w>
P CIÓN</w>
D urante</w>
Cuán to</w>
tze lal</w>
to m
múuchʼu lil</w>
d able</w>
chan queb</w>
ca pi
Ru sia</w>
tuláa kʼ</w>
sko lta</w>
qu ex</w>
q ib
muʼ yuc</w>
b raz
San ed
H asta</w>
C ß
xtu un</w>
t her
su fr
s rason
o i
n rajoʼ</w>
le bʼaal</w>
esper aba</w>
bʼtes i
aten der</w>
acab ar</w>
1 18</w>
yor ajlel</w>
tz ukuj</w>
segu er
lar on</w>
cʼa lal</w>
M on
kyu ˈn</w>
iru qʼor</w>
ex tranj
yúu chu
xka ʼi
xin aq</w>
xchi ʼi
xa pas</w>
ji ch
fiel mente</w>
f echa</w>
casti go</w>
b er
L ok
pe li
je l
físi co</w>
aʼa li
S AN
x ca
q yekʼin</w>
o to
nab al</w>
con tó</w>
ch chan
Man as
K IL</w>
In formación</w>
B ri
Ab el</w>
ATI N</w>
2 Sa</w>
ye ˈ</w>
po damos</w>
mu cha
kʼop ona</w>
A y
20 11</w>
tk ˈ
s cri
pón gase</w>
minis tr
miemb ro</w>
le tiʼob</w>
grati tud</w>
an da</w>
resta u
W E
T aq</w>
xkʼe bʼal</w>
s la
ru tzij</w>
mo letik</w>
contes tó</w>
ani maʼ</w>
T ROS</w>
Ch e
ya ʼtel</w>
tini mit</w>
o taq</w>
kib ʼan
conten tos</w>
Ru wa
B TE
w0 9</w>
so b</w>
lâ o</w>
kaʼan saj
baj ñel</w>
DESCRI PCIÓN</w>
CH E</w>
A pren
un kutik</w>
naʼ äy</w>
ga da</w>
apar i
S KʼO
Q ʼU
tzʼaj bʼen</w>
kʼan e
kyi m
ja cʼ</w>
j teklu
in te</w>
tal mente</w>
regu lar</w>
parec ía</w>
l ʌl</w>
excel ente</w>
estudi ando</w>
cu esta</w>
cier tas</w>
c u</w>
ba k</w>
an ía</w>
óni ca</w>
w 14</w>
j lom</w>
com pr
Pon ga</w>
yée ya
u su
su ut</w>
def ini
co se
Bu chʼu</w>
tori os</w>
tna ʼn</w>
kʼach areel</w>
en oj
chol mantal</w>
ca paz</w>
ano p</w>
yi t</w>
val ora</w>
tar an</w>
tan tas</w>
refier e</w>
po l
ma to</w>
ki i
i q</w>
hi ce</w>
for d</w>
K or
resu men</w>
mari ˈ</w>
e zas</w>
S nt</w>
yaj chan
vi vos</w>
tqʼo ʼna</w>
s ales</w>
re par
pʼʌ tʌlel</w>
pi ente</w>
mu k</w>
le za</w>
ix q</w>
inclu ye</w>
chkaʼi tik</w>
tsʼáaik toʼon</w>
españ ol</w>
come tido</w>
ca er</w>
ad op
Pen te
KʼU P
J KUXLEJA
Este ban</w>
El í</w>
xo kaʼak</w>
u i</w>
sob er
s kontra
pe or</w>
ma tar</w>
cuar enta</w>
I r
utzi joxik</w>
ts nop
te e</w>
spa sele</w>
mo tivos</w>
tsʼo kaʼan</w>
taʼma bʼal</w>
slaje b</w>
oy entes</w>
kʼex ik</w>
judí oʼob</w>
e chʼ
cla ramente</w>
chʼnab ik</w>
a fi
SU J
C ho
0 8</w>
yan ak
xi ʼ
u r</w>
ta ble</w>
p el
naveg ador</w>
natur al</w>
en eʼ</w>
die z
chki chʼtik</w>
Kâcu a</w>
Feli pe</w>
Eu ropa</w>
tsi ikil</w>
l ʌch</w>
cho manik</w>
baʼal oʼobaʼ</w>
ayudar on</w>
PA A
enta inel</w>
do ce</w>
da le</w>
chi cuu</w>
aa w
To do</w>
LA ʼ</w>
J en
tri ste</w>
naʼm xtoq</w>
lu vio</w>
l oʼon</w>
cʼajti ben</w>
chopo le</w>
be bi
Fran cia</w>
vo kʼ</w>
tni kʼa</w>
kqa ya</w>
k x
j chi
cha kʼan</w>
aña de</w>
T ej</w>
C Ʌ
í o</w>
ti pumal</w>
t ían</w>
perdon ar
n ni
mí o</w>
envi ado</w>
ani ke</w>
wini ketike</w>
os cu
me ʼi
du ras</w>
c tes
CO N</w>
1 30</w>
ó lo
tqan in</w>
a mo</w>
tu ve</w>
na a
monta ña</w>
ku bʼano</w>
kaw in</w>
es tik</w>
apare ció</w>
al en</w>
dar ía</w>
U naj</w>
S te
yaʼalaj tiʼob</w>
tso p</w>
tan ta</w>
manten ernos</w>
ha go</w>
as es</w>
vivi ó</w>
viu da</w>
tare a</w>
suj tel</w>
su f
si balaj</w>
na waj
ju j</w>
hu mana</w>
ci das</w>
w 16
qui c</w>
mu cʼ</w>
entr ó</w>
acep tó</w>
Máa saʼ</w>
MA BʼIL</w>
ʼ jin</w>
yo k</w>
x su
tʼaan aj</w>
ta ʼob</w>
je lel</w>
i chʼ
Ma estro</w>
M ac
ve ía</w>
o job</w>
médi co</w>
mel ben</w>
jchʼun tik</w>
awaʼi y</w>
apren dió</w>
E f</w>
spa sike</w>
s no
or ando</w>
kʼo po
cßanje lac</w>
H ar
G ri
Ch ri
yaʼalaj tiʼ</w>
vuel ve</w>
ti ˈ</w>
p esta
ox e</w>
estuvi era</w>
do poderoso</w>
apo sto
Estu di
ví cti
dedi cación</w>
chʼi x</w>
c ô
KʼUP IL</w>
yo le</w>
suce de</w>
revi sta
mad ero</w>
jay ibuk</w>
xbaj t</w>
tak lan</w>
ru tinamit</w>
naj bʼen</w>
ko lta</w>
g al
KY E</w>
H ac
CH ʼ
Benja mín</w>
máa koʼobeʼ</w>
ma b</w>
kˈ u
h o</w>
frecu encia</w>
escri b
ba mos</w>
1 20</w>
vini ketik</w>
tsʼ íi
ts nop</w>
qa mi
mu estran</w>
con ojel</w>
chi ˈ</w>
algun o</w>
Jeri có</w>
ESI S</w>
B ra
u patan
señ a</w>
naʼ än</w>
lu tik</w>
lab ores</w>
k úu
XNA Qʼ
XNAQʼ TZ
X e
K en</w>
sa car</w>
núu p
koj kunik</w>
in oj</w>
Rus sel
Mi entras</w>
M éxi
óol tik</w>
yaj xitl</w>
visi tar</w>
u d</w>
ten íamos</w>
N or
û l</w>
sa da</w>
láakʼ tsiloʼob</w>
i kʼel</w>
h un
gé ni
cen tra
agra dar</w>
Go g</w>
s pan</w>
s meʼ</w>
c tesan</w>
RA ATIN</w>
Pi xab</w>
Isa i
ta job</w>
si vo</w>
mien tas</w>
especi ales</w>
chu kel</w>
sto t</w>
ruchi chßochß</w>
reci ben</w>
pas an</w>
mi ra</w>
de z</w>
cas arse</w>
Corin to</w>
ú tiles</w>
yo wal</w>
x kil</w>
vide o
tsʼi ba
quix bânu</w>
ji chuk</w>
chan el</w>
aj ob</w>
kʼaakʼa s</w>
ka li
j naʼ</w>
gu í
KʼU LEJA
xy âlal</w>
xi chʼik</w>
ra í
ni kʼ
la da</w>
asi l
In cßaß</w>
14 7</w>
yoo kebʼ</w>
x kʼax</w>
tʼa aniloʼob</w>
natura leza</w>
ge o</w>
enor me</w>
emple o</w>
chi riˈ</w>
Golia t</w>
EN TE</w>
z ará</w>
qu ini
pan chan</w>
pa abʼ</w>
nope m</w>
ky j
ho c</w>
an el</w>
an chal</w>
Ch ʼu
yî b</w>
tu ba</w>
so corro</w>
pe cadores</w>
kß e
jpa t</w>
d ra
ar te</w>
ac ción</w>
yoli ne</w>
yaʼ bi
tre inta</w>
t án</w>
t yol</w>
sen sa
q bʼinchaʼn</w>
an ik</w>
Ch i</w>
kuʼx un</w>
CU R
pare cida</w>
nu uk
invi tar
al í
Que ß
superi or</w>
su me</w>
ru cˈ
c t</w>
bauti zó</w>
at toq</w>
stuk el</w>
pueb los</w>
lik es</w>
chʼ ex
apren diendo</w>
QʼI NU
QʼINU MABʼIL</w>
tsi leʼ</w>
presi ones</w>
ocur re</w>
e yal</w>
cumpli rá</w>
Tu ʼn</w>
I LEL</w>
testigo job</w>
st re
rápi do</w>
r ías</w>
a wal</w>
Manas és</w>
LO B</w>
Cu áles</w>
to bil</w>
produ ce</w>
angusti a</w>
I MA
ñaʼ ta</w>
ven drá</w>
i p</w>
chʼa bʼal</w>
bus can</w>
VI SI
Mi ʼ</w>
xtu ʼän</w>
kaaj oʼ</w>
carr era</w>
bi i
Q o</w>
KʼULEJA LIL</w>
BʼA L</w>
tri bu</w>
ti tu
t mod</w>
pru dente</w>
mu kʼe</w>
kaʼansik toʼon</w>
Ru ther
trai cion
ru silal</w>
naj oʼob</w>
ma ases</w>
kʼul mank</w>
her encia</w>
chol mantale</w>
antigu o</w>
áni ma</w>
shor t</w>
infier no</w>
in justi
C OS</w>
qʼu en
ki ʼ
herra mientas</w>
du das</w>
cˈas len</w>
convir tió</w>
ch âcuu</w>
Xu ʼ</w>
z ación</w>
ri lik</w>
kʼutun ïk</w>
ki kʼaslemal</w>
jaajkun ajoʼob</w>
ja y</w>
20 15</w>
stu un
s naʼ
qʼa tbʼäl</w>
pens aba</w>
koj tik
jabi le</w>
QʼA LIL</w>
Pente co
yaʼi yik</w>
xsa hil</w>
spa tobil</w>
si enta</w>
ro mano</w>
ku xul</w>
k ke
for mar</w>
fo to</w>
ax pe</w>
ar ían</w>
XCHA QʼALIL</w>
QʼI NO
Ju eces</w>
ñu jpu
saaj kil</w>
sa grado</w>
des per
debi ó</w>
chʼ úu
QʼINO MAL</w>
Mois ese</w>
DI CE</w>
yoʼn ton</w>
xeʼ x
nki yaʼ</w>
evolu ción</w>
cʌ cʼ</w>
chʼaʼa bil</w>
éndo le</w>
yo ok
ye letik</w>
to yol</w>
i chi
Be y</w>
wíink lil</w>
t era</w>
q x
q on</w>
nor mal</w>
fortale ce</w>
con tar</w>
TO JO
í sti
ve je
s emb
pʼíi t</w>
páaʼ tik</w>
memo ria</w>
j loʼi
MA J</w>
J ap
s emos</w>
mor ales</w>
j nuptan
is la</w>
cali dad</w>
ándo les</w>
vel tae</w>
tse ʼel</w>
ne g
ma ye
kʼu tuj</w>
aprove char</w>
C am
xna qˈ
uʼu yik</w>
s esión</w>
s chol
mo tivo</w>
ha z</w>
can o</w>
TE N
ME L
A LI
x cʌn
tz al
testi goʼob</w>
termin ar</w>
sa x</w>
peque ña</w>
mar a</w>
Mu cʼul</w>
JO ʼ</w>
xkʼo po
tzß â
tan eʼ</w>
ra dio</w>
nim ku</w>
medi das</w>
kab ʼan</w>
ba te</w>
Se gun
K oʼo
xb ânunquil</w>
ti yob</w>
na e</w>
lí nea</w>
di je</w>
cu áles</w>
chʼa n</w>
aspe cto</w>
aa we</w>
Jef té</w>
ʼo baʼ</w>
z co</w>
x jan</w>
par i
nojp tesel</w>
contin ú
car nos</w>
ba leʼ</w>
Ser vi
xni mal</w>
vivi endo</w>
tijo xe
ti kʼ
skʼ anoj</w>
r les</w>
pod remos</w>
kʼo j</w>
ky ex
kaʼa túul</w>
ju b</w>
d rán</w>
chʼi chʼ</w>
chi laˈ</w>
x ta</w>
t kʼu
l v
ex hor
Si ria</w>
9 ,
tiˈ jjo</w>
kʼo ʼob</w>
bi ern
ab e</w>
tsik bal</w>
ri xa
pa at</w>
hab le</w>
Q e</w>
Jez abel</w>
El los</w>
CH U
x muyubaj</w>
profec ía
o chik</w>
lá gri
l un</w>
jui cios</w>
Gran de</w>
Es t</w>
C AN
A CIÓN</w>
yi j</w>
x tenqʼan
tzaq pi
tz ûl</w>
senci lla</w>
oks labʼil</w>
o chel</w>
mu e
jum pʼéel</w>
ex ik</w>
elimin ar</w>
conven cidos</w>
carac ter
c ta
b eʼ</w>
ra aj</w>
per ton</w>
mi lel</w>
go biern
di miento</w>
baʼate ʼel</w>
yan chaj</w>
se lec
pregun te</w>
o jo</w>
ca mi</w>
T ʼAN</w>
Si g
M en
Bʼ E
refu gi
na ʼne</w>
cʌ ñʌ</w>
Kʼ elo</w>
C ada</w>
5 00</w>
yu jil</w>
ye pal</w>
ve ci
su elo</w>
nu kuch</w>
kʼo x
kongrega sion</w>
kaj oʼ</w>
ibʼan kil</w>
gan ar</w>
al bel</w>
abʼa lebʼ</w>
Ba uti
B intik</w>
vi ento</w>
ofre cer</w>
lí mi
chi k
ch qui
ch kil</w>
TI ʼJ</w>
IMP OR
qʼe bʼal</w>
po cas</w>
h ik</w>
devo ción</w>
A MI
sigui endo</w>
qui b</w>
paci entes</w>
israeli ta</w>
g ana</w>
cʼux bin</w>
amen a
1 33</w>
ñaʼ tañob</w>
ya tan</w>
to talmente</w>
sen tado</w>
s án</w>
gol pe
escribi r</w>
G re
va mente</w>
tik ba</w>
oʼo xe</w>
oj tik</w>
S O</w>
ʼla laj</w>
ya mos</w>
kʼo nil</w>
kʼi w
contro lar
chki ltik</w>
b ra
y as</w>
to qʼo
ti cʼ
enseñ arles</w>
encontr ó</w>
ch batik</w>
ca p
bʼi ʼ</w>
ana qwan</w>
Méxi co</w>
Ma g
Kʼa asil
IMPOR TAN
An tes</w>
v ó</w>
un ik</w>
s paj
muʼu kʼaʼan
ku xi</w>
kiko temal</w>
je ʼlalaj</w>
jan al</w>
cu lar</w>
cre ado</w>
ba il</w>
E no
ö y</w>
Ñ U
yu bi
recibi mos</w>
on ik</w>
la jal</w>
dar án</w>
a propi
X a</w>
ó s</w>
vi enen</w>
u tsʼ</w>
tien da</w>
t qʼama
sacerdo te
na xbʼaanu</w>
ko l
ju di
espiritu e</w>
bi ß</w>
T TEN</w>
I ta
yo ß
w 10</w>
qßu i
kki ya</w>
jo lom</w>
be tike</w>
Mala ui</w>
we ˈ</w>
skʼelo bil</w>
mer ece</w>
lu bʼa</w>
j chʼa
inci en
er án</w>
baʼa loʼ</w>
N unca</w>
A sia</w>
solta ro
pu dieran</w>
ni men</w>
mani f
ko mon</w>
amista des</w>
uni dos</w>
ts ʌn
señ or</w>
envi ar</w>
ec en</w>
cre ar</w>
comen ta</w>
chʼaʼ chiʼi
Re cuer
PAS EL</w>
tu ˈn
te uk</w>
solda do
si c</w>
n an</w>
mal vado</w>
j chʼi
colab orar</w>
cha ʼox
apren dí</w>
a somb
P au
te l
qi itzʼin</w>
ma suk</w>
llama ba</w>
kʼáa toʼob</w>
ja ˈ
cla ra</w>
ci ales</w>
chʼuju tes
amb os</w>
adver tencia</w>
a me</w>
TZ AJ</w>
A YU
2 6
x q</w>
x lik</w>
x kuxlejalik</w>
po dido</w>
kʼup in</w>
ka ˈ
Testi go
Q man</w>
G ÉN
z ías</w>
ver lo</w>
to kil</w>
ru chˈabel</w>
pi j
o dia</w>
ki tzij</w>
bi kʼin</w>
ang el
y âl</w>
xna u</w>
regres ar</w>
i j
con tenido</w>
Y ac
Bro ok
B RE</w>
z camos</w>
tuvi era</w>
ter tokil</w>
re p
esfor zamos</w>
entra da</w>
desarro lla
ci a
Tu ˈn
Luʼu maʼ</w>
ʼa ʼ</w>
ñ us
t kawbʼil</w>
m án</w>
lokʼ em</w>
en erg
chʼaʼ tuklik</w>
L a
Ese ki
yu ji
yajchan kʼop
reba ño</w>
re a</w>
p ik</w>
j ûnk</w>
dej e</w>
cˈu ˈx</w>
M esi
GÉN ESIS</w>
CHI ʼU
As á</w>
xi ʼik</w>
tojo bta
ta qanik</w>
t qabʼaanu</w>
r toʼ</w>
qˈu iy</w>
presen tar</w>
ofre cer
ni sán</w>
lo gía</w>
ku kʼut</w>
j yon</w>
der echa</w>
cam s
Yac ˈa</w>
Saned rí
PU E
Cor ne
regal os</w>
envi dia</w>
cono cía</w>
chal en</w>
Taa ta</w>
Apo kali
AN QʼI
tsʼíib taj</w>
in men
Y om</w>
yantal toʼon</w>
nequeß x
logr ó</w>
jchan ubta
cô eb</w>
compañ ero</w>
bi laj</w>
S y
1 Ti</w>
ʼA L</w>
s Kʼop</w>
k tz
je fe</w>
entre tenimiento</w>
cui qßuin</w>
chakß rab</w>
ami ento</w>
ajvali le</w>
LE K</w>
óli ca</w>
xñop tʼañob</w>
waʼa lik</w>
sik ba</w>
reliji on</w>
mis mas</w>
ju jumpʼejl</w>
influ encia</w>
experi encias</w>
dó lares</w>
con for
c ales</w>
bʼi k</w>
N ak</w>
Jap ón</w>
Eli sab
yoj loʼob</w>
xu c</w>
tsʼíibol tik</w>
ru sama
ne que
emo cional</w>
cʼʌ lʌl</w>
chíi kpajal</w>
antse tik</w>
VISI TA</w>
Kor intios</w>
A c
xi j</w>
ta ya</w>
su je
se t</w>
r on
qʼa tal</w>
ok jaʼan
k qaj</w>
g ará</w>
domin io</w>
aj k</w>
O J</w>
xbʼe en
vi ctori
sv an</w>
re ina</w>
qʼi ji
oj e</w>
ki loʼob</w>
in ju
10 6</w>
tzʼi bʼaj</w>
tele visión</w>
t he</w>
suj tib</w>
ri to</w>
q lal</w>
ly n</w>
kaj aʼan</w>
energ ías</w>
co razones</w>
ci edad</w>
chʼol chʼo</w>
N in
téen el</w>
tzʼaq li</w>
skʼan ik</w>
pro ce
orig inal</w>
nu mer
levi tas</w>
la ba</w>
incien so</w>
i wu
du re
con tento</w>
ba se</w>
t pon</w>
str o</w>
sol dad
ki lebʼ</w>
ja ˈ</w>
ej lel</w>
bal ʌl</w>
a ye</w>
X ʼawabʼejilal</w>
E MOS</w>
Con o
y oʼob</w>
sa mal</w>
kʼáa taj</w>
de fec
comple ta</w>
cha aw
ban quil</w>
b ro
Mala quías</w>
w 17
vuel to</w>
se creto</w>
ru tz
resuci tado</w>
láa j</w>
ky yekʼin</w>
cʼu x</w>
Asi ria</w>
2 4
xan aʼ</w>
sucur sales</w>
publica dor</w>
ajun wa</w>
Ta tzʼetaʼ</w>
utili za</w>
tuʼu b
ser emos</w>
resu lta</w>
recuer de</w>
perfec ta</w>
pel í
paala loʼoboʼ</w>
la ter
co jach</w>
chal butik</w>
Tex to</w>
A po</w>
wa xic</w>
mal vados</w>
kʼi ʼi
i das</w>
añ onla</w>
R aquel</w>
Me di
un es</w>
por tada</w>
es an</w>
com pro
c cion
apren der
T saʼ</w>
F ili</w>
Chan chan</w>
ri ik</w>
respe tar</w>
naa tsʼ</w>
limpi a</w>
le ta</w>
cu jil</w>
baʼa n</w>
ami goʼob</w>
a cor
Evangeli o</w>
yaabi ltik</w>
wa chib</w>
ts ta
ru kʼuʼx</w>
obede cer
gru pos</w>
gener osidad</w>
b h
a ch
M EN</w>
qui cuan</w>
jaj chibal</w>
de cep
bi ˈ</w>
bh s</w>
akʼ bot</w>
Ruther ford</w>
0 000</w>
kʼa xe
k qil</w>
jun téen</w>
jkʼopon tik</w>
gi a</w>
er e</w>
cul tura</w>
ca uti
Wil lia
W i</w>
F l
tri bunal</w>
ti eron</w>
se as</w>
mla y
injusti cias</w>
dis cursos</w>
cre cimiento</w>
afron tar</w>
Ä L</w>
xchʼu no
ti a</w>
t bʼiʼn</w>
reflexi on
ok el</w>
m äj</w>
he ß</w>
A t
yak b</w>
xcß abaß</w>
wa ch
van ik</w>
tsnop ik</w>
ti xbʼaanu</w>
tenqʼan k</w>
ora aʼ</w>
n ya
ku xu
cuesti ón</w>
ch eb</w>
bi sik</w>
É f
z aba</w>
uni ón</w>
u si
t xu
ma q</w>
cu c</w>
U ste
T r
T S</w>
So do
SKʼO P
H I
Gra cias</w>
20 18</w>
0 4</w>
muer e</w>
géni to</w>
NA ʼ
David eʼ</w>
ta remos</w>
señ ala</w>
ru uk</w>
qʼo ro
pelí cu
nojp tes
jos kß
ex oʼ</w>
blo que
arri ba</w>
an aʼ</w>
R y
ENSEÑ ANZ
xu cʼul</w>
xe ʼu
s like
ora sione</w>
naʼa j</w>
na wulak</w>
lu m
ha ß</w>
fi de
O n
ʼ ja</w>
w al
jkuxlejal tike</w>
ho k</w>
cr í
Y aj
Penteco st
vi o
vi das</w>
sion etik</w>
ruu m</w>
resol ver</w>
precurso rado</w>
pa gar</w>
libro il</w>
ja x</w>
abi er
T U</w>
yʌ lob</w>
xku ch</w>
u x</w>
ta oʼ</w>
sjakʼo biltak</w>
ra za</w>
nue ve</w>
ju tik</w>
feli ci
ci mientos</w>
ami l</w>
ʼU UN
y ë</w>
x le
tsʼa amaj</w>
oʼonton ale</w>
oport uni
en fr
defen der
chirix ebʼ</w>
ch ani
S on</w>
xt ki
t tzaqʼwe
ox la</w>
loqʼo qʼebʼal</w>
lo bʼ</w>
ki saj</w>
an ax</w>
W entainel</w>
Se a</w>
le e</w>
e loʼ</w>
chix yebal</w>
ban o</w>
ri yoj</w>
qʼax aj</w>
mo so
kʼop il</w>
dis cu
bauti zado</w>
Russel l</w>
yáan taʼal</w>
xkʼu xul</w>
tien do</w>
sma la
po bre</w>
nekeʼ xye</w>
máan sik</w>
bê n</w>
a yan</w>
AL KYE</w>
2 3
ʼi ʼ</w>
yaʼali k
wen lel</w>
un a
neu tr
kʼo em</w>
esta rán</w>
com pla
ancian oʼoboʼ</w>
K aj
s chʼu
mo b</w>
kʼaj kʼa
hora eʼ</w>
cor ru
bi bli
b ri
K en
yaa tal</w>
taʼ manik</w>
ple mente</w>
kʼ betik</w>
kano q</w>
estudi os</w>
cre ía</w>
chaaw u</w>
ar ás</w>
adorar tik</w>
Fl p</w>
E ra</w>
B í
úu chul</w>
xqui bij</w>
xnaqʼtz bʼen</w>
tun esik</w>
tukli keʼ</w>
pensa mos</w>
ky ten</w>
juun al</w>
es píri
descub ri
ch to
G abri
Al kyeqe</w>
visi ones</w>
tí simo</w>
tzo lin</w>
tz ma
tr as
segu ía</w>
s bil</w>
ka ʼi</w>
expli car</w>
ch tunik</w>
TE X
T sob
T SI
Se amos</w>
Cha awil</w>
yáan tkoʼob</w>
toj tob</w>
simp le</w>
noti cia</w>
hab lado</w>
fi car</w>
do lo
conversa ciones</w>
Pentecost és</w>
20 17</w>
z on
tkʼu ʼja</w>
r abi</w>
pens ó</w>
nuj pun
Bra sil</w>
tsʼaʼa bal
ti f
salv ar</w>
qʼi ʼn</w>
ne j</w>
mo stra
juz gar</w>
fon do</w>
diez mo</w>
chʼ nab</w>
b oni
añ ix</w>
Tu láa
LU CAS</w>
á culos</w>
t wi</w>
re comen
n tel</w>
like m</w>
la ja
kʼo jo
jaku toq</w>
centr al</w>
va da</w>
ts el</w>
mej li</w>
jun xil</w>
inter esa</w>
da ñ
cʼʌ ñʌ</w>
ʼi c</w>
ukʼu tik</w>
pre va
disponib le</w>
di ción</w>
de li
ad ing</w>
Le tiʼobeʼ</w>
yom ʌch</w>
vun etik</w>
uti na
to iloʼob</w>
si bilaj</w>
pu ro</w>
menti ras</w>
jóoʼ sik</w>
chum tʌl</w>
O ʼ
ʼan oʼoboʼ</w>
x oj
utina mit</w>
ti keʼex</w>
ta kʼine</w>
stsa tsal</w>
srason al</w>
ma t</w>
lo grado</w>
la ʼan</w>
ki toʼ</w>
ka tk
in justicia</w>
do y</w>
costu mbres</w>
científi cos</w>
chʼi ʼi
JEʼ EX</w>
A reˈ</w>
x ojtik
wuʼu yik</w>
preocu p
on i</w>
l ando</w>
kʼ waj</w>
cha ʼi
acep ta</w>
S venta</w>
Qui z
KY ANQʼI
CRIS TO
xban eb</w>
tsʼ in
sa le</w>
ke lem</w>
ka mik</w>
k en
cre y
ar ra
a voʼn
U ʼj</w>
É xo</w>
qe ye</w>
encan ta</w>
conven cido</w>
comple tamente</w>
celeb r
bʌ cʼ
aqu ellas</w>
Jerusal en</w>
ver á</w>
táan xel</w>
s kanan
resi stir</w>
kʼa t
kye ˈ</w>
cha c</w>
Luʼu m</w>
E mpi
C es
ê rib</w>
vali osa</w>
s ó
le ʼn</w>
cß âl</w>
cump le</w>
cuen tas</w>
chi lik</w>
c ente</w>
Nab ʼe</w>
H an
ó r
tse b</w>
salmi sta</w>
s wo
r r</w>
jal an
culp able</w>
cui da</w>
chʼin tl</w>
chixjuni lebʼ</w>
ayudar le</w>
X ni
T ʼaan</w>
Kʼ E
Judi y</w>
Ca ín</w>
Aß an</w>
tala m
jnopo jeletik</w>
enfer mo</w>
be ñonla</w>
Nab al</w>
1 15</w>
ñopo ñel</w>
x al
ta lidad</w>
segu ramente</w>
ru k
qʼo rik</w>
kaj náa
he ading</w>
gra du
esta ría</w>
20 10</w>
chˈu lef</w>
bʼa lo</w>
a yewal</w>
Sanedrí n</w>
Es d</w>
tí n</w>
tzʼi ib
s po
q ok
nequeß iloc</w>
modes tia</w>
bʼi le</w>
baʼal che
asegu ra</w>
ambi ente</w>
RE VISITA</w>
A geo</w>
xa ʼi
tuʼu bul
sober anía</w>
quier es</w>
per dió</w>
p lo
oportuni dades</w>
na ca
n eʼ</w>
c ô</w>
sa q</w>
o choch</w>
ky bʼiʼn</w>
chki wach</w>
ca den
ba tele</w>
a kʼal</w>
N í
J pas
CRISTO Eʼ</w>
q ta
posi tiva</w>
orgu llo</w>
jchol tik</w>
aña dió</w>
B EN
tes or
qʼa t
mi sión</w>
ixo q</w>
corre cta</w>
caracter ísti
Sodo ma</w>
1 Jn</w>
Éf eso</w>
sig looʼ</w>
naj t</w>
matri moni
ma xto</w>
j saʼ
e lob</w>
bʼi lal</w>
ar ik</w>
ía soʼ</w>
triste za</w>
ti lu
pu ta
nni kʼe</w>
fa vo
cß ul
O KS
tuláa k
tspa se</w>
ta das</w>
se lo</w>
ra t</w>
li ter
jabi lel</w>
ja pun</w>
habla mos</w>
h aré</w>
h arán</w>
bʼa r</w>
an tse</w>
al ʌ</w>
aba tin
RESPON DER
B reta
voko lil</w>
tiki ri
san tifi
s manta
osi le</w>
maasi leʼ</w>
m âcu
jujun tal</w>
encontr ará</w>
dro gas</w>
chava ʼi</w>
caß in</w>
M el
BÍBLI CO</w>
van e</w>
ma ajunwa</w>
levan tó</w>
le yendo</w>
kubʼ saj</w>
Si las</w>
1 Cr</w>
yee w</w>
x ibal</w>
ue la</w>
skoto luk</w>
kuxta leʼ</w>
con segui
bʼan kil</w>
aʼ tel</w>
aji ʼ</w>
10 2</w>
orden ó</w>
la ju</w>
ku xa
fir mes</w>
ben eb</w>
tan tos</w>
sol ter
so los</w>
ru e
ri yeˈ</w>
pasto res</w>
muyubaj ik</w>
lla mar</w>
h í
gü edad</w>
f g</w>
cion e</w>
au xili
PA N</w>
tsʼa ʼan</w>
sa q
s mi
n qʼoʼne</w>
lo ob</w>
esfor zarnos</w>
anti güedad</w>
Na ciones</w>
Ab salón</w>
ruwa chˈulef</w>
ri si</w>
re conocer</w>
or anax</w>
n qˈ
lʌ cʼ
limpi o</w>
conse j</w>
A bʼan</w>
yaʼi yel</w>
yan il</w>
s naʼo
rep ente</w>
pres u
an tal</w>
an t</w>
a tojo
Le v</w>
yî banbil</w>
tkyi m</w>
taj bʼil</w>
kimen oʼoboʼ</w>
judio etik</w>
in esper
g on
espíri tus</w>
d ían</w>
colta ñet</w>
chix b
aktáan tik</w>
O ri
t tz
pu ku
po ʼo
na ta
ha t</w>
chakʼ butik</w>
F araón</w>
1 50</w>
tend rían</w>
ta ji
skʼo pon</w>
saʼa k</w>
noj chil</w>
le x</w>
kʼa luk</w>
joʼop ʼok</w>
che ʼ
ben dijo</w>
aß aneb</w>
anciano job</w>
a pe
RESPONDER ÍA</w>
Pedro eʼ</w>
In g
D é
Corne lio</w>
9 3</w>
wa ka
ter cera</w>
t j
spi si
skolta utik</w>
la rá</w>
kye ˈy</w>
cʌntes a</w>
cuesti ones</w>
ci en</w>
chʼo o
Ru ma</w>
quedar se</w>
quedar on</w>
cier tos</w>
û k</w>
sin cero</w>
pregun tan</w>
or an</w>
jun jûnk</w>
ju ez</w>
14 1</w>
ñ aj
tsʼa ʼ
to mar
pa tzʼ</w>
est ábamos</w>
be le</w>
Wat chto
S LE
Ru mal</w>
Mu chas</w>
univer sidad</w>
to etik</w>
sufr en</w>
sim plemente</w>
recompen sa</w>
pi jta
meyaj toʼob</w>
me je
kʼis bʼal</w>
ka sti
hi ch</w>
cla ridad</w>
chixb ânunquil</w>
Jose e</w>
E lia
ya cˈariˈ</w>
siti os</w>
sa das</w>
jo m</w>
i d</w>
fi l
en la
desas tres</w>
col tʌntel</w>
ab at</w>
Yu m</w>
Min tiʼ</w>
M aj
Lec tura</w>
J EL</w>
Corin toiloʼob</w>
xo bʼ</w>
obst áculos</w>
kyex ku</w>
du elo</w>
d os
Su s</w>
MI ʼ</w>
B er
ü l</w>
ñu sa
yaj el</w>
x q
tro pe
toʼ o</w>
po bre
nqa tzjoj</w>
men or</w>
chʼaʼ pach
ayudar a</w>
Dio siʼ</w>
D OS</w>
0 6</w>
x u</w>
stsʼi ba</w>
sopor tar</w>
ri cos</w>
pu dieron</w>
ja chin</w>
ch lokʼ</w>
actu al</w>
í do
te li
sáam samal</w>
respe tar
pʼi ji
na ció</w>
ab e
a leb</w>
Brook lyn</w>
ya migo</w>
utzi lal</w>
tsʌ ts</w>
ten te</w>
s tunes</w>
person ales</w>
ke t
ju lti
holo hik</w>
fi co</w>
chi kan</w>
chaj pan
bá si
al kyexku</w>
T ri
Si me
J kʼel</w>
CʼɅ JÑIBAL</w>
yo lil</w>
x kʼanjel</w>
w aja
tk oʼon</w>
luʼu moʼ</w>
cariñ oso</w>
an ías</w>
C h</w>
ver as</w>
ter r
samari tan
pa cífi
organisa sion</w>
nu bij</w>
lu mil</w>
ayu dando</w>
ap la
So ciedad</w>
S kʼop</w>
S ar
MEL BAL</w>
Anti o
yúuchu l
yu mʌntel</w>
v el</w>
tsʼ i</w>
ti qui
te b</w>
t ón</w>
pro por
misericor di
kan uj</w>
j wiʼ</w>
hier ro</w>
g ando</w>
consu ela</w>
co win</w>
ÑO P
y onla</w>
re talil</w>
j toj
comp rar</w>
car ner</w>
awo ʼtan
as te</w>
V al
Jaʼ nix</w>
F ue</w>
Empi ece</w>
íi ch</w>
wi l
vol vieron</w>
tu q
t remos</w>
s pʼa
di rá</w>
ban kilal</w>
an teriores</w>
TE R
MA ʼA
Kʼ áa
Jun túul</w>
DIS CUR
skolta y</w>
ru mariˈ</w>
ro so
religi osas</w>
kq ariq</w>
ju yu
do cu
cu adro</w>
be yob</w>
Tu lumil</w>
S ol</w>
Elisab et</w>
u chuqʼabʼ</w>
taa kʼe</w>
s livro
perfec ción</w>
or ar
n äq</w>
n oʼoxe</w>
muri eron</w>
loqʼu em</w>
l í</w>
ke h</w>
ini cio</w>
b abil
a se
S of
OKS LAL</w>
M ÍAS</w>
xchß ôleb</w>
tec no
st ʼu
dej an</w>
cʼo tel</w>
achiˈ aˈ</w>
aban an</w>
JCH ʼUUN
ye ʼa
ky ja</w>
kaaj oʼob</w>
ja s
diri gir</w>
da ta</w>
Ju ane</w>
trabaj ando</w>
tej chibal</w>
jojkʼo yeletik</w>
e taʼmanik</w>
debi li
can ción</w>
Gu erra</w>
Chaj ariik</w>
An dr
3 8
yan tikxan</w>
x lan</w>
tʌ lob</w>
ti tz</w>
reac ción</w>
pied ras</w>
kˈo laj</w>
in ak</w>
g or
fin almente</w>
ci bi
Pʼ íich</w>
1 1,
- 2</w>
ve inte</w>
qʼuq bʼaʼn</w>
pe c</w>
nomb rado</w>
bli ca</w>
E J</w>
yée t</w>
u qʼij</w>
sufri endo</w>
ni b</w>
j me
esta b
es cen
e lo
ca sados</w>
aʼalaʼa b</w>
a ʼob</w>
Salo mon
JKUXLEJA LTIKE</w>
Isai as</w>
ê b</w>
vi va</w>
sa tik</w>
pʼáa t</w>
presen tó</w>
manten i
lógi co</w>
lek sion</w>
kʼa joʼ</w>
kß e</w>
kß ax
desas tre</w>
deci rle</w>
chi wu</w>
cha pa
can âk</w>
a tan
R ma</w>
PAA BʼANEL</w>
N e</w>
D o
tsi loʼoboʼ</w>
tsi k</w>
stsa k</w>
necesi taban</w>
na cido</w>
chaʼox tul</w>
alo qʼo
Pro póngase</w>
H er
ándo lo</w>
te w
t kutik</w>
re go
profun damente</w>
pi ke</w>
ne qu
muchʼtáambal oʼoboʼ</w>
laj el</w>
jura mento</w>
ela bʼ</w>
yaʼal maj</w>
v áli
si t</w>
medi a</w>
ja kʼbe</w>
ja k
in su
gan se</w>
espo sas</w>
arrepen tido</w>
akʼo pon</w>
L TA
Ing later
Babil oni
1 35</w>
óox pʼéel</w>
x si
temp looʼ</w>
t maj</w>
s tsob</w>
p l
nup tan</w>
mar ca</w>
ka chˈalal</w>
ik ju</w>
confi amos</w>
KUX LA
y bey</w>
x bʼan</w>
wi tze</w>
tzˈ et</w>
ten qʼa
ser ían</w>
qui cʼot</w>
obje ción</w>
noko oxtenqʼa</w>
men ak</w>
lan kil</w>
c ajel</w>
béey kun
X ÑOP
xan oʼ</w>
wa chi
repu tación</w>
pare zca</w>
p laj</w>
koʼo l</w>
a man
Tsʼo ʼok</w>
x em
va dor</w>
tspa sike</w>
pa al</w>
con qui
centr o</w>
añi mil</w>
â c</w>
tzʼe qta
tso lik</w>
mon ía</w>
mencion ó</w>
k yaʼ</w>
bis kuba</w>
be kutik</w>
a qeju</w>
P añimil</w>
KYANQʼI N</w>
KUXLA KOʼON</w>
J ON
Ch qa
waja li</w>
val ores</w>
ko li
je le</w>
diri ge</w>
UN A</w>
L is
I SA
xyî b</w>
te x</w>
sta r
sin tamos</w>
muj bʼabʼil</w>
much edu
lo etik</w>
jo ßcan</w>
im pi
fer encia</w>
a kʼan</w>
x ʼa
vu estra</w>
táa kaʼan</w>
tra tan</w>
tami w</w>
mo r</w>
mi yon</w>
ma ʼn</w>
jen oʼ</w>
en temente</w>
ejer ci
beilta seletik</w>
ar ti
ab or
XÑOP TʼAN</w>
KA ʼAN
CH ʼA
1 11</w>
yu m</w>
x kibʼan</w>
peri o</w>
kʼa a
j chan</w>
ch qi
ca m</w>
babil oni
Q ʼu
Pablo oʼ</w>
Apokali psis</w>
ñ u</w>
yu m
ve ʼ
vali oso</w>
s co</w>
rubʼan on</w>
quiz á</w>
chaj aʼan</w>
bʼi la</w>
bo chʼo
an dar</w>
Willia m</w>
Bauti sta</w>
pri ori
n en</w>
musi qʼej</w>
chiqui wech</w>
b rin
E MP
x bo
we ʼ
w ʌl</w>
táan kel
s ci
pe dia</w>
ni chi
nab e</w>
minu tos</w>
kíi m</w>
k kaj</w>
j áal
j tuk
es be</w>
el uk</w>
Watchto wer</w>
1 23</w>
we ʼes
vivi rán</w>
su pli
su m
raho k</w>
po se
ni ña</w>
ma ama
ho bo
de bajo</w>
con ec
chi kin
Yo ur</w>
L le
1 16</w>
til bʼilal</w>
qui cu
op inan</w>
l mente</w>
k ˈ</w>
encuentr an</w>
cʼo ti</w>
acʼ o</w>
Sal ud</w>
P R
D em
uya ʼik</w>
mu li
kaw bˈil</w>
j ó</w>
in tel</w>
desa fí
E TIK</w>
Abi ga
xuʼul sik</w>
x bʼanatäj</w>
términ o</w>
su yos</w>
recha zar</w>
lo o
jchiʼ intik</w>
an to</w>
Es tas</w>
A qu
1 34</w>
î chß</w>
Ó O
vali osas</w>
to l
tala miloʼob</w>
slaje bal</w>
pon i
i chin
hici eran</w>
ci c
ax aj</w>
al bil
a z</w>
yuʼubi kuba</w>
yaabi laj
visi tas</w>
q witz</w>
ox lo
lesi as</w>
bo lo
Koʼo neʼex</w>
Bib le</w>
ˈ il</w>
y ib
xch an</w>
toj bal</w>
s kʼel</w>
s baj
re d</w>
m ía</w>
le tra</w>
jni ˈ</w>
i m</w>
doc tr
bochʼo tic</w>
Po tif
F ami
B Λ</w>
A ni
xa ʼi</w>
voʼn ee</w>
resuci tó</w>
ok ik</w>
lu cha</w>
dis tri
chaʼ voʼ</w>
S U</w>
Estudi antes</w>
B ala
ta wiʼ</w>
l v</w>
kyaqil x</w>
koj ik</w>
d ante</w>
afi rma</w>
T ú</w>
S A</w>
yʌ qʼue</w>
temp ʌ
se era
s tsʼu
oʼon oʼ</w>
medi os</w>
kyu kˈ
ky naʼn</w>
fu imos</w>
fide lidad</w>
consi dera</w>
celu lar</w>
TEX TO</w>
ë x</w>
x ane</w>
vu les</w>
súutu kil</w>
roch beneb</w>
re yil</w>
para fo</w>
n un
kʼáat chiʼi
kaja ʼanoʼob</w>
ciu dad
celeb rar</w>
Je hú</w>
xa kʼ
túux taj</w>
ruu q</w>
res e</w>
na cimiento</w>
ko rik</w>
jo on
f lo
e d</w>
cu bij</w>
Joh n</w>
ta ka
sinago ga</w>
ro x</w>
di vin
cán cer</w>
cß amo
conf li
châ lk</w>
bú s
ale gra</w>
ad vir
Y I
MAN OS</w>
LEC CIÓN</w>
Antio quía</w>
14 4</w>
ts tunes</w>
svan ej</w>
run aʼoj</w>
qa chuqʼabʼ</w>
lu me</w>
kyj aluˈn</w>
gen tiles</w>
co j</w>
SLE MAL</w>
A un</w>
tzo lok</w>
nekeʼ raj</w>
máa koʼo
muu kʼoʼ</w>
kaj tal</w>
ja la
an alí
HAC ER</w>
BI L</w>
yʌ qʼuen</w>
tukli koʼob</w>
ton e</w>
tes oro</w>
ancian oʼob</w>
H az
CI A</w>
A K</w>
u kʼaslemal</w>
nu kʼüt</w>
meyaj tikoʼob</w>
kʼun kʼun</w>
ju ʼ</w>
jsaʼ tik</w>
chʼix pu
cha sikʼij</w>
ca mi
4 ,000</w>
yóo taj</w>
quix cß
quin ojel</w>
presenta ción</w>
nak tech</w>
jan ina</w>
j kʼaxel</w>
i xik</w>
chi ʼi</w>
c tores</w>
abund ancia</w>
KʼA SLEMAL</w>
w ab
sab ían</w>
na abʼalebʼ</w>
an k</w>
adu l
1 12</w>
y â
tor menta</w>
ten qʼ</w>
r ûk</w>
man dado</w>
No qtzun</w>
Ch mabʼil</w>
C ab
m ni
ju ʼe
hacer le</w>
disposi tivos</w>
deber ían</w>
Se de
M BI
Breta ña</w>
ñus ʌ
viaj ar</w>
slivro al</w>
po ol</w>
ni le</w>
la men
cʌ qʼuen</w>
achi ke</w>
Mari ae</w>
Cu i</w>
yaabi lta
w bʼaj</w>
sobre llevar</w>
sali eron</w>
n áaj
demostra do</w>
dedi car</w>
ca u</w>
c y
bon dad
ay niwan</w>
Testi iw</w>
SKʼOP LAL</w>
Ci ro</w>
CH I</w>
xnaqʼtz an
rego ci
qʼu i
natur ales</w>
ma taj</w>
levi ta</w>
jun xitl</w>
j pʼ
i sujm</w>
gu é</w>
ani mal</w>
óli co</w>
to yole</w>
pʼu ʼu
nqa tamaj</w>
de trás</w>
d entes</w>
braz os</w>
an em</w>
aj ik</w>
abʼa anu</w>
X i
Su r</w>
B ej
ya ˈ
vi van</w>
ofreci ó</w>
lleg ará</w>
l on
kʼusi tike</w>
jtojo laltik</w>
j ñel</w>
fi estas</w>
ca e</w>
anciano etik</w>
a u</w>
D O
3 00</w>
yalo bil</w>
t qil</w>
loj ri</w>
li sto</w>
kaʼa jwiʼ</w>
fi gu
chʼu lew</w>
are a</w>
va yan</w>
ten cias</w>
ta yik</w>
s ú
ru samaj</w>
r ê
pod rán</w>
nekeʼ xbʼaanu</w>
naʼa jej</w>
mos le</w>
mens aj
il toq</w>
cumpli do</w>
cono cen</w>
chʼo b
ay in</w>
a ajel</w>
Kan an</w>
Isra ele</w>
200 4</w>
vini ke</w>
pe cador</w>
o remos</w>
ili ʼich</w>
i ca</w>
gener ación</w>
an in
Jeho safat</w>
Cre e</w>
xya alal</w>
ven za</w>
si heb</w>
escuch ó</w>
es enci
chʼu jul</w>
beilta sel</w>
20 16</w>
tsob lejetik</w>
ta as
pron unci
pol vo</w>
nuuk ta
n er
mu k
juz gar
hermo so</w>
destru ir</w>
agra dable</w>
KU TIK</w>
1 21</w>
tâcu ânk</w>
tuuku loʼob</w>
ttzi yen</w>
swenta il</w>
su kß
su elen</w>
si tic</w>
san til</w>
s va
on etik</w>
mo qon</w>
li na</w>
ky ajbʼen</w>
jun jun
in chʼool</w>
cam pa
alab anza</w>
Ti ro</w>
Ef ra
E k
É XO
ÉXO DO</w>
ro ksi</w>
pre juicios</w>
m ô
kaw aj</w>
kakʼ beytik</w>
dese amos</w>
co lor</w>
aʼa l
T siʼ</w>
G RA
B ara
u lem</w>
satis f
pla ta
di fun
I m
Ho mbre</w>
x po
tsikbal tik</w>
san tu
o yu
mb o
ko t</w>
kar ta</w>
kano ʼn</w>
jun túu
hospi tal</w>
fi ca</w>
de le
analí celo</w>
Kʼ I
10 1</w>
é stos</w>
xki chʼtik</w>
tzʼaq on
tqˈ oˈn</w>
ta aj</w>
só lo</w>
sobre vivir</w>
re cursos</w>
ra stre
o crá
kyo k
kal beytik</w>
kajnáa liloʼob</w>
escri tos</w>
chan o
TA R</w>
Re hobo
PRI MER
tk yaj</w>
tala m</w>
kʼope tike</w>
jaˈ lin</w>
j se
ila q</w>
ar monía</w>
a kʼaj</w>
S en
O j
Le ví</w>
A n</w>
áni co</w>
xʼi xic</w>
utili zar</w>
ten gas</w>
sien tan</w>
q ximbʼetz</w>
meje bʼ
loqʼo qʼej</w>
k chʼaw</w>
intro du
Sig nifi
Segun da</w>
Re cor
Quiz ás</w>
Pen semos</w>
Bʼa ʼn</w>
Bej la
yaj nil</w>
ya lal</w>
ten e</w>
t bʼi
pro stitu
o ok</w>
machʼa tic</w>
laje m</w>
katk unik</w>
j in
i loʼ</w>
gi dos</w>
en el</w>
ad on
B il
yuʼu baj</w>
yoʼ yo</w>
ya q</w>
tzʼe tbʼäl</w>
tempʌ bilob</w>
sma jij</w>
ro manos</w>
polí ticos</w>
p eso</w>
na ˈ
for ni
cumpli endo</w>
com ba
chwin qlal</w>
cam si</w>
bʼan o
bi leb</w>
ala lil</w>
Aja f</w>
ʼI L</w>
xu cu
saja k
prove cho</w>
pa ti
mintiʼ toq</w>
maʼ q</w>
ma da</w>
jo tik</w>
detal le</w>
aver igu
Bro ad
20 0</w>
tro mpe
t joj</w>
preocu par
pe tziˈn</w>
lle gan</w>
kiʼimak chaj</w>
j kʼel</w>
fí sica</w>
esta tu
adu ltos</w>
a tz
R ober
yô quin</w>
xa ʼiik</w>
tsa y
swo lol</w>
res inkil</w>
ra m</w>
pak bʼal</w>
pa tr
o te</w>
gar anti
emb ara
chß îchß</w>
bi sikba</w>
Na me</w>
Jer obo
xchʼu l</w>
tra te</w>
refer irse</w>
reci b
le bʼa
escri be</w>
cˈo jeˈ</w>
chi laʼ</w>
apari encia</w>
T za</w>
Su dá
A kʼa</w>
1 26</w>
tuʼn tzunju</w>
ta x</w>
st ó
slu ma
per í
partici p
ni ca</w>
ka w</w>
cho k</w>
U R
s kʼa
qʼu qil</w>
pala cio</w>
ok x</w>
j ese</w>
a mal</w>
a kʼ</w>
Ní ni
L AN
Inglater ra</w>
Gabri el</w>
Eno c</w>
resuci tar</w>
po tencia</w>
kuxi ik</w>
k tel</w>
estre llas</w>
ech ʼel</w>
costu mb
J in</w>
tzal u</w>
ra mi
kʼo tem</w>
interes es</w>
bʼa j
ad don</w>
Jun pʼéel</w>
wo k
ter cer</w>
sa mäj</w>
sa k</w>
qʼa j
pa samos</w>
nq ajoʼ</w>
laʼan inkil</w>
l xix</w>
ka pa
i lin</w>
clo pedia</w>
chʼnabi ke</w>
agrade cemos</w>
Roma iloʼob</w>
J kʼel
Ita lia</w>
E uni
Cri st</w>
yaʼi ik</w>
propor cion
l lu
ku lo</w>
hábi tos</w>
fi cado</w>
e pi
cha mos</w>
ca yó</w>
awu ʼun</w>
an kil</w>
Al lí</w>
ó gi
y er
w ée
utsʼa t</w>
re j
qʼu ele
qas äx</w>
cuar to</w>
cha vi
c ante</w>
asegu ró</w>
abaj o</w>
Lo kʼol</w>
L ab
KʼU TU
tun esel</w>
stin g</w>
si tin
reve la</w>
res er
im pri
es o
distin tas</w>
c á
Broad ca
Ba qui</w>
A jaw</w>
tâ rûk</w>
s kuxlejal</w>
revi stas</w>
reliji one</w>
núu kik</w>
n în
maʼalo bil</w>
kʼa la
gü en
expres ar</w>
est ando</w>
conta min
bta s
b t</w>
Jerusal ene</w>
En señ
D escu
skolta yat</w>
r y</w>
nxi mane</w>
nicˈ aj</w>
neces arios</w>
muchí si
la mos</w>
kaʼan s
ho mak</w>
ele gido</w>
di cia</w>
Wi ibʼ</w>
E taʼmabʼal</w>
Cß aß
COR O</w>
ʼan oʼon</w>
ts kolta</w>
ta ˈ</w>
r aba</w>
q kʼë</w>
pro ceso</w>
predi camos</w>
kʼ bʼil</w>
cuenta eʼ</w>
co lem</w>
al o</w>
Rehobo am</w>
Ir lan
10 n</w>
íi cha
t ʼi
ro stro</w>
ri tos</w>
goberna dor</w>
esper ando</w>
cu ya</w>
ído los</w>
yojée l
q oya</w>
n ïk</w>
Ti ene</w>
T SA
Prepar e</w>
Kʼa ʼut</w>
JO B</w>
CH OS</w>
yaʼali koʼobeʼ</w>
smu lan</w>
poli cía</w>
mision ero</w>
j chiʼi
constan temente</w>
car les</w>
ba do</w>
SI TIK</w>
4 8
áa xeʼ</w>
ya c</w>
x un
tzß ek
tik oʼon</w>
svoko lik</w>
queß xye</w>
péek tsiloʼ</w>
preocupa ciones</w>
médi cos</w>
lágri mas</w>
kʼamo ʼn</w>
kíi mik</w>
jnop betik</w>
com unidad</w>
ción oʼob</w>
beetk oʼoboʼ</w>
alcan ce</w>
adorar taʼal</w>
T BʼANEL</w>
Me yaj
Algun as</w>
tsay pach
skʼ ano
recuer do</w>
priva cidad</w>
pen as</w>
lan em</w>
l 10n</w>
gas tos</w>
bi enes</w>
aʼye jetik</w>
Ruwa chʼulew</w>
xkʼu tbʼ
xi e</w>
tye kʼun</w>
tsʼoʼok keʼ</w>
testi iw</w>
tem por
poʼo t</w>
mi lale</w>
li no</w>
káaj ak</w>
j no
j ch
estu vieron</w>
descar gar</w>
chiʼ in
ch chʼa
ab solu
a il</w>
So lo</w>
Ni m</w>
N aa
IMPORTAN TE</w>
x tzolom</w>
re du
qˈ ij</w>
pri mo
ora dores</w>
kʼane lal</w>
ja yeb</w>
eʼ es</w>
entreg ó</w>
ar las</w>
Y éetel</w>
Níni ve</w>
Ju ec</w>
G I
ʼaati nak</w>
van ejetik</w>
seri e</w>
prepar ados</w>
paa ch</w>
or as</w>
mam bʼaj</w>
kʼáatchiʼi loʼob</w>
ji ik</w>
bʼtes i</w>
Jun jun</w>
sa gra
ke qa
jchʼuun jeletik</w>
i to</w>
antigu os</w>
E Z
2 Ti</w>
ʼo biʼ</w>
ü j</w>
ín ese</w>
xava kʼ</w>
pas ará</w>
kʼ ej
ju eces</w>
jtak bo
j likes</w>
hon rar</w>
egip cios</w>
condi ciones</w>
co ʼn
aʼye j</w>
Tsʼ íib
Sudá frica</w>
Broadca sting</w>
yu bin</w>
ww w
tzß î
tzaqʼwe bʼil</w>
pre va</w>
peli gros</w>
muchedu mbre</w>
experi men
can tar</w>
bˈ aj
aa chʼool</w>
ISA ÍAS</w>
A SI
14 3</w>
yaʼ te
tar me</w>
salv aje</w>
re fi
la y</w>
kkib ʼij</w>
ki j</w>
echʼ em</w>
cru el</w>
cristi an</w>
contes ta</w>
Ry ä</w>
N aʼ
LE Bʼ</w>
5 000</w>
vivi do</w>
tu mba</w>
q oʼ</w>
k tik</w>
junjun q</w>
j kʼakʼa
esi ones</w>
destru ido</w>
dej ará</w>
Su cur
Q a
N avi
óola loʼ</w>
vícti mas</w>
tza ʼn</w>
tix qßue</w>
pa tri
maa ma</w>
lan dia</w>
aʼali keʼ</w>
ab rió</w>
Tuˈn petziˈn</w>
yéete loʼob</w>
ra das</w>
qu ʼne</w>
maa ʼu
lta r</w>
li b</w>
kontra inel</w>
indi có</w>
in chßôl</w>
cʼu sitic</w>
aʼa t</w>
ala ji
Di luvio</w>
stuun tes</w>
oni c</w>
luch ando</w>
l los</w>
ini cu
enten der
añ o
TE MA</w>
EJ TIK</w>
E ch</w>
A E</w>
win el</w>
tspa t</w>
seri o</w>
ser piente</w>
qʼa man
pijta ya</w>
obede cen</w>
naß leb</w>
kʼa sa
ju ju
jloʼi ltik</w>
Bala am</w>
xáan tal</w>
ts oʼo
rebe l
pej ca
ora e</w>
mo der
me lol</w>
li keb</w>
ki t</w>
escrib as</w>
di cha</w>
bʼan tajik</w>
antigu a</w>
acer carse</w>
Z i
3 7
3 000</w>
xa kʼik</w>
señ al
pre fer
o te
mal tyo
kaʼi ʼ</w>
je ʼe
jas che</w>
h aremos</w>
electróni co</w>
distin tos</w>
deja mos</w>
chʼ ina
- 3</w>
y u</w>
xchi ʼ
vuel va</w>
tradu cir
to mado</w>
tijic ñ
qʼo n</w>
or aba</w>
n í
n ib
kʼaʼay tik</w>
ko pan</w>
k pe</w>
er me</w>
activi dad</w>
S TE
K ajaw</w>
J ac
10 ,
x taq</w>
ts éel</w>
to ltik</w>
quib en</w>
pu liʼ</w>
no xtok</w>
mô s</w>
kolta at</w>
escri tor</w>
er le</w>
apó sta
al ma
al batik</w>
R AS</w>
Mac ed
JCHʼUUN EJTIK</w>
mor al</w>
la mente</w>
kʼ ta</w>
fa z</w>
dé bi
cʌn tan</w>
be d</w>
ba h
CA MBI
A bʼan
ñ ʌl</w>
ve le</w>
skʼo b</w>
qʼa laj</w>
qui leb</w>
pʼée liliʼ</w>
na q
monta ñas</w>
ky wiʼ</w>
em erg
dis tan
deci de</w>
a qˈ
E chos</w>
w 18
ton ic</w>
lajun eb</w>
in acti
fa ci
edi ción</w>
bʼin cha
adul terio</w>
Ma go
1 24</w>
ñʌchʼ tʌlel</w>
yoʼtan e</w>
na cu
men aq</w>
jun pʼíit</w>
jun paat</w>
je ltos</w>
estable cido</w>
empi eza</w>
el tik</w>
dire ctamente</w>
des anima
bús queda</w>
a teʼ
Potif ar</w>
P A</w>
Min is
A CH
xko mon</w>
xe wbʼaj</w>
s pʼijil</w>
recuper ar</w>
ku ba
ju ven
gobern antes</w>
bejla ʼa</w>
baʼate l
ab rir</w>
A ri
ye ki
perman ecer</w>
p in
o que
n kajoʼ</w>
le ón</w>
kin aʼ</w>
exac tamente</w>
en ví
ac ci
T on
G EN
wu jil</w>
w bʼil</w>
ta li
ru wiʼ</w>
ru chqʼaʼ</w>
qʼa laj
nima q</w>
n naʼne</w>
mu liv
lo eʼ</w>
k paj</w>
guar dar</w>
en tal</w>
deci didos</w>
casti gar
bo les</w>
be teli
Jesú soʼ</w>
CHA ʼAN</w>
Abʼan an</w>
y eʼ</w>
x ma
ts ʼel</w>
refu gio</w>
qʼa qʼ</w>
qui ˈ</w>
permi ten</w>
pas aron</w>
me t</w>
le mos</w>
kˈa laj
ki wank</w>
di gan</w>
cß al</w>
S í
Necesi dades</w>
KʼU SITIK</w>
JEʼ EL</w>
stsʼiba y</w>
qa san
q ech
exper tos</w>
esti lo</w>
der ro
chu mu
En cy
yéeya ʼanoʼob</w>
ve o</w>
super vi
sen tí</w>
s teo</w>
s tan</w>
rápi damente</w>
pan ik</w>
neutr ales</w>
mu estre</w>
mi dad</w>
mele yob</w>
koʼtan tike</w>
descub rir</w>
co sta
cha wäch</w>
cer tifi
Si empre</w>
Fami lia</w>
A PO
x paabʼal</w>
qi ʼn</w>
oque bâl</w>
n tiˈ</w>
menti ra</w>
man da</w>
ma la
la letik</w>
hi c</w>
farise o</w>
ca sado</w>
ble mente</w>
achi jabʼ</w>
No sotros</w>
Ge org
C RE
w ojéeltik</w>
tku bˈ</w>
ti joj</w>
ta tik</w>
sti j
s ten</w>
ri yit</w>
na xnaw</w>
ce der</w>
bʼa anu</w>
béey chaj</w>
T oʼoneʼ</w>
K iliʼich</w>
Ces area</w>
yuʼubi koʼob</w>
yaj il</w>
xch aj
utsʼa tax</w>
tzßâ ma</w>
tuvi eran</w>
ri yaˈ</w>
pen sab
pari entes</w>
paj el</w>
koju toʼ</w>
jáal kʼab
jta betik</w>
ja m
ini dad</w>
envi aron</w>
distri to</w>
cab ezas</w>
ben dice</w>
archi vo</w>
TA Q</w>
O ksi</w>
L in
Kʼaasil baʼaloʼ</w>
Es paña</w>
Ca leb</w>
AJ U</w>
xchʼun ik</w>
téen jea
tesor os</w>
tar es</w>
obe diente</w>
mu lile</w>
kʼaʼan aʼan</w>
k ta</w>
jla lil</w>
in c
descri be</w>
cre es</w>
cre cer</w>
chi caj</w>
a tu
IMA G
áan taj
xlo qʼo
xchan ubta
x jaw</w>
raj waxic</w>
q el
leg al</w>
ca menak</w>
X I</w>
EN TO</w>
ár boles</w>
tzi jo
tu baʼob</w>
tkyaqil jo</w>
taata ʼob</w>
sto l</w>
r el</w>
ni c</w>
kin ba</w>
i tzelal</w>
g arse</w>
em pa
ala bar</w>
Tuláa kal</w>
S ad
MAʼA LOB</w>
Jéeoba iʼ</w>
AL GUN
ñu qʼu
yúu ch
yi kʼaluk</w>
x qʼax</w>
teʼ exeʼ</w>
su yo</w>
sa cu
s tsal</w>
p ë</w>
ki chʼ</w>
jkolta tik</w>
inter nacional</w>
ha ci
ex presiones</w>
cß u
bʼi lebʼ</w>
ani ʼ</w>
Tuʼn ju</w>
Q aa
Pu bli
Kʼáa t
Es tos</w>
E QUI
Cri sti
xuʼul saʼal</w>
xkʼu l
volun tarios</w>
tx ʼol
tojo btasel</w>
tin ye</w>
sufri do</w>
si b</w>
semana aʼ</w>
sal vo</w>
re pren
qʼama ʼne</w>
q xi</w>
pʼʌ t
on il</w>
kʼu lubʼa</w>
fá ci
esfuer zan</w>
de presión</w>
ci era</w>
aj eb</w>
S kʼan</w>
yubi ñob</w>
xch ʼun</w>
volu men</w>
semej ante</w>
se cre
qa laˈ</w>
pedi mos</w>
pas aba</w>
a xik</w>
Q E</w>
Job e</w>
Ca i
zon as</w>
wa aj</w>
tra taba</w>
sa aj</w>
ru mb
recono ce</w>
q o
permi tir</w>
per der
i do
com puta
bʼan aʼ</w>
ali j</w>
ajo ß</w>
ai re</w>
Ru chʼaʼäl</w>
J to
Evangeli os</w>
A u
per na
p ér
ni mal</w>
koli yal</w>
joskß il</w>
cubier to</w>
cono cemos</w>
TRA R</w>
O li
Andr és</w>
A caso</w>
woco lix</w>
tzʼa qa
trabaj an</w>
tan ia</w>
razon able</w>
au dio</w>
Pi ense</w>
xo ki
x yan
x kʼüt</w>
sí mbo
selec cion
re et</w>
qu ej
ni ʼ</w>
llo rar</w>
kʼul maj</w>
eman k</w>
e mik</w>
chʼex paj</w>
cho p</w>
car ro</w>
bʼa lebʼ</w>
bendeci r
Estu dio</w>
C an</w>
Al b
10 7</w>
x je
w el</w>
twu tz
responsab le</w>
pâ b</w>
poli ti
mili tar</w>
kal máak</w>
cristi ano
beet maj</w>
ayu den</w>
ama bles</w>
a ca
PR OV
Irlan da</w>
Bara c</w>
yichʼo jik</w>
solici tud</w>
och em</w>
l oʼobiʼ</w>
kermanotak tik</w>
is mo</w>
fra g
chíik besik</w>
balu milal</w>
ar tal</w>
aba ik</w>
U zías</w>
Ten eʼ</w>
Re visita</w>
ON I
N A</w>
CH PAN</w>
ñi j
yu t</w>
wi j</w>
w ut</w>
ttzaqʼwe ʼn</w>
t xok
t najsaʼn</w>
se c
rein ar</w>
ra ciones</w>
profes or</w>
o yó</w>
ky onin</w>
je che</w>
confi able</w>
cha wil</w>
an dando</w>
adon de</w>
Jo el</w>
victori a</w>
ti bʼaj</w>
ta skʼij</w>
ru bʼe
recono ció</w>
qui qˈui</w>
pʼáa t
o kem</w>
mel bil</w>
ma jaʼ</w>
ma ajiʼ</w>
cˈu al</w>
ama bilidad</w>
MO R</w>
ó di
x muyubajik</w>
testigo etik</w>
páaj chaj</w>
lokʼ esel</w>
im pon
ilaʼa k</w>
ho mo
có digo</w>
advir tió</w>
Ru b
Qaa waʼ</w>
Pu es</w>
Jesu kri
JA KU</w>
J o</w>
G O
w mank</w>
trabaj os</w>
taa ktal</w>
sé pti
sinti eron</w>
satisfac ción</w>
re tik</w>
queß côeb</w>
ki loʼ</w>
jteklu me</w>
gener oso</w>
en s</w>
defen der</w>
d ob
a tr
VEN TA</w>
TOJO B
ʼn chel</w>
úuch ben</w>
xlokß al</w>
t yolin</w>
sa m</w>
s ara</w>
person ajes</w>
parec en</w>
pa le</w>
nima ß</w>
mal äj</w>
kaʼa téen</w>
jóo kʼ
hermo sa</w>
disi pul
di to</w>
cub rir</w>
chʼ e</w>
bʼan ö</w>
ad ministr
a kuxlejal</w>
Ex pli
tja qʼ</w>
pa usa</w>
na u</w>
mu la
jñ am</w>
jtojo ltik</w>
es par
cʼ lel</w>
baʼa lak</w>
ba sado</w>
anali cemos</w>
D ES</w>
ñe lob</w>
Ï L</w>
terri torios</w>
taman oʼob</w>
qßue heb</w>
pen sado</w>
i xok</w>
em po
d ne
chʼaʼa jko
ajvali letik</w>
Ser á</w>
I li</w>
1 31</w>
yal botik</w>
xu ʼjil</w>
tx in</w>
ts ʼal</w>
ru s
re paso</w>
kʼu b</w>
j tos</w>
ido la
encar gó</w>
bre ve</w>
QA TZO
N atán</w>
F OR
xnaqˈ tz
usi kʼixik</w>
reaccion ó</w>
que te</w>
peri ódi
neces arias</w>
muʼ to</w>
impri mir</w>
i z
enseñ ando</w>
emerg encia</w>
ade cu
tʼaan oʼ</w>
ttx laj</w>
t ʼo
si len
roch ben</w>
que dado</w>
pre mi
mi lla
lle gamos</w>
kʼub é
funda mental</w>
fo men
comuni cación</w>
chʼo nïk</w>
WAN EJ</w>
PRIMER A</w>
In kʼaʼ</w>
Euni ce</w>
Ana li
AN I
yu bil</w>
veci nos</w>
sa uk</w>
proyec to</w>
per segui
ki qʼij</w>
kapa aj</w>
je laʼ</w>
j tsʼi
domin go</w>
cha pan</w>
car ía</w>
ca xlan</w>
amb al</w>
D ama
20 23</w>
tqʼi jlalil</w>
t wanq</w>
pobre za</w>
p ʼun
nuukta kil</w>
ka tu
escla vi
dor mir</w>
chava kʼ</w>
avu ʼune</w>
a ya</w>
xu bʼano</w>
x be
trabaj adores</w>
sma li
jiñ ic</w>
esper amos</w>
dor mi
de u
O TROS</w>
Nu estro</w>
Maced onia</w>
Ma ʼuk</w>
J NA
CHAN RU</w>
A B
14 4000</w>
yal xan</w>
su ele</w>
qa qʼij</w>
maravillo sas</w>
la ʼn</w>
kʼuh taaj</w>
kʼiin oʼoboʼ</w>
gan ado</w>
eter nidad</w>
circunci sión</w>
al be
a ec</w>
S OS</w>
Lok ˈ</w>
E X
Con go</w>
y âlal</w>
xa e</w>
terremo tos</w>
sufri ó</w>
sta k</w>
ruchi ch</w>
le j
influ ir</w>
h t
extre mo</w>
co jon
Se gu
Mi ʼn</w>
Bí blica</w>
xu kʼut</w>
xki ʼän</w>
xi ˈ</w>
x num
x jal
uts tu
untes a</w>
txʼol bʼabʼil</w>
tsa kal</w>
s cuenta</w>
pa g
or arle</w>
nu pul
esta remos</w>
enten dimiento</w>
el k</w>
cä ca
corre gir</w>
compañ ías</w>
apo yan</w>
a kʼuʼx</w>
S TO
O h</w>
C R
200 9</w>
í aseʼ</w>
yu j</w>
yij ki
xna ʼ</w>
t tzʼibʼin</w>
plen amente</w>
oj yî
i chʼ</w>
dej emos</w>
cre ían</w>
conocer lo</w>
cono cidos</w>
a las</w>
S VENTA</w>
u btas</w>
snaʼo jik</w>
lin k</w>
la ciones</w>
kermanotak tike</w>
idola tr
em ente</w>
cuen tan</w>
bien estar</w>
beetaʼa k</w>
aʼ lebʼ</w>
ami g
a tzij</w>
P ol
14 6</w>
ya lale</w>
xka mik</w>
xcß ul</w>
taje ke</w>
quix takla</w>
p lan</w>
mu qʼu
me ʼil</w>
kʼaʼabéet tal</w>
is t</w>
hal lar</w>
ex sin</w>
z adores</w>
xa k
vini eron</w>
u samos</w>
tî quilal</w>
santu ario</w>
r î
manda miento</w>
kʼa ʼuxl</w>
joß caßin</w>
jon to
je b</w>
fun ción</w>
der echos</w>
cß ul</w>
comple mento</w>
chʼaʼ tuklaj</w>
chikʼ bʼabʼil</w>
chi re</w>
ac aba</w>
a yon</w>
Sede quías</w>
P ʼI
Ja co
E j
yajchankʼop tak</w>
vesti r</w>
tzʼiib ʼa</w>
stojo le</w>
re vel
pu k</w>
pon gamos</w>
oʼon e</w>
nega tivos</w>
man e
lab ʼi
kʼu chuk</w>
ky ch
k em
contra seña</w>
ch laj</w>
bʼ ene</w>
aʼi el</w>
ata que</w>
X IK</w>
Jer emi
A nu
relacion ados</w>
mision ero
mi ke</w>
mbi l</w>
la s
ky kubʼ</w>
i chin</w>
dio se
decep cion
Meyaj naktech</w>
to maron</w>
taa sik
stojo lalik</w>
q ä</w>
perí odo</w>
nuʼuk taj</w>
mo lojri</w>
kíi miloʼ</w>
j oʼob</w>
im puestos</w>
hor ario</w>
gobern ar
f es</w>
defec tos</w>
bautiz ados</w>
al bo</w>
U TI
Per son
Descu b
Chi xjun
1, 000</w>
1 38</w>
yoj tik
weʼes ik</w>
tecno logía</w>
run uk</w>
manteni miento</w>
hospi tala
hier ba</w>
exis tencia</w>
demostr aron</w>
cri ti
chi rij</w>
ch es</w>
ce los</w>
an tike</w>
N CI
Be te
ven ida</w>
ten taciones</w>
senci llo</w>
qʼ eʼ</w>
p es</w>
mo jeʼ</w>
m é</w>
kʼu xu
jalan q</w>
divor ci
dedi cado</w>
comen zaron</w>
cin cuenta</w>
chʼʌ mben</w>
chu ʼnchel</w>
aqu ello</w>
ani smo</w>
agradeci do</w>
Q AN
NTES A</w>
xa val
vu elta</w>
vi v
tja pun</w>
religi oso</w>
pi si
nekeʼx kʼe</w>
lla mar
inte gri
esco gido</w>
av es</w>
X in
Ju da
val oramos</w>
tiʼ e</w>
ta jaw</w>
mi rar</w>
me y</w>
l y</w>
koʼole loʼob</w>
ki ʼok</w>
e lab</w>
compañ ía</w>
co jol</w>
chʼ i</w>
chan in</w>
ch ch
ava lab</w>
ama ble</w>
Q A</w>
PUE DE</w>
MA ʼ</w>
K ol
JA L</w>
á al</w>
yée yik</w>
u kʼuʼx</w>
tem bʼil</w>
so me
ri es
mo da</w>
maravillo sa</w>
kaʼan skoʼob</w>
im pedir</w>
esenci al</w>
desta ca</w>
al ter
F UN
F U
E ti
qʼat öy</w>
prepar ó</w>
pon drá</w>
perfec tos</w>
na do</w>
la dr
kix kʼul</w>
inmor al</w>
estre cha</w>
débi les</w>
ctes ʌ
ar ma
afir mó</w>
A samb
solu cion
s óli
s ar
pʌ sob</w>
mue ve</w>
mejebʼ leʼn</w>
in visi
g al</w>
entr en
des obedeci
SAL MOS</w>
LA N</w>
Bejla ʼeʼ</w>
yʌl ʌ
yo tot</w>
ubʼan om</w>
tbˈ i</w>
ta truuq</w>
ru tzil</w>
queß xbânu</w>
q ten</w>
peti ción</w>
nqan aʼ</w>
n kʼuʼje</w>
bakʼin tike</w>
b es</w>
ñop balʌl</w>
yu tsi
yaʼali ktoʼon</w>
xcʌn tʼañob</w>
ven tana</w>
ungi do</w>
ren unci
mer e
ju e
cˈ äx</w>
con fía</w>
Sal vador</w>
F AMI
E se</w>
ye m</w>
volver á</w>
voko lile</w>
vo ʼne</w>
tzß akal</w>
ti smo</w>
sv u
sal mo</w>
naßaj eb</w>
mí ni
meyaj naj</w>
kʼa aba
ky mod</w>
ho gar
di ario</w>
des ani
da dos</w>
cu ban</w>
com pli
cal le</w>
bi loʼ</w>
Lab án</w>
KAʼAN SA
E p</w>
ts ta</w>
trope zar</w>
su un
stu untes
sna ik</w>
rami iw</w>
núu kil</w>
kqab ʼij</w>
kani keʼ</w>
kab ʼano</w>
invi tar</w>
ino tik</w>
esper an</w>
cri sis</w>
ch ex
ccion ario</w>
ava ʼi</w>
abʼan aʼ</w>
K an</w>
H e
Dé b
yani wan</w>
xchi k
tin qßue</w>
tem pr
sukuʼun oʼobeʼ</w>
se d</w>
saja ktal</w>
o re</w>
nu ben</w>
la aʼo</w>
kʼáa ʼn
j lik</w>
encar ce
descan so</w>
cha t</w>
be oraaʼ</w>
a ˈ
M yan
Kʼo pon
í ri
tale m</w>
ro k</w>
plan te
mil oʼoboʼ</w>
men tales</w>
lle vado</w>
la mal
kʼaʼaj sik</w>
jvoko ltike</w>
fi cación</w>
esco ger</w>
cho lik</w>
cha t
agradeci miento</w>
acu sa
a hor
Ja i
Efra ín</w>
E stoy</w>
ÑU C</w>
yaʼbi lal</w>
xo ʼl</w>
xchi bal</w>
tna ʼna</w>
stu kike</w>
smelo lale</w>
ki kʼ</w>
ke ʼe
ch ex</w>
al tik</w>
Pa al</w>
1 29</w>
xkʼo xla</w>
wʌ n</w>
u kojik</w>
tsobaj eletike</w>
ta aloʼob</w>
s lo
na ka</w>
n an
mukʼ xan</w>
kʼi le</w>
jun al
ju ʼ
je chu
idolatr ía</w>
en o</w>
d al
cti va</w>
comen tar</w>
En tre
Deb emos</w>
x ʼe
tô nil</w>
táa kpaj
to oxtenqʼa</w>
tar les</w>
sa b</w>
pi dieron</w>
nojbeʼen il</w>
n bʼanatäj</w>
máa kiʼ</w>
lo tik</w>
li stos</w>
jelu bta
er la</w>
cu alal</w>
conden a</w>
a costumb
To dopoderoso</w>
TZ A
É S</w>
u tike</w>
terri ble</w>
qʼu inal</w>
pre mo</w>
o la
kki riq</w>
k kʼul
integri dad</w>
i raaj</w>
ex cep
co j
W in
A mi
x que
uku b</w>
tbʼin ch
qu ec
peri odo</w>
pak lan</w>
lar ga</w>
kʼ än</w>
invi ta</w>
hubi eran</w>
especi ali
en oʼ</w>
deci dí</w>
ch vinaj</w>
ca t</w>
D ali
B E</w>
A Ñ
y ermano
verdader amente</w>
tʼa aneʼ</w>
sor presa</w>
ru kß</w>
péek tsil</w>
pâ ban
pro cu
na etik</w>
lta ʼa
l onla</w>
i c
ent ía</w>
cßaß ak</w>
con centra
chʌ mi</w>
ca paces</w>
apli car</w>
al erta</w>
a tin</w>
Xni chʼon</w>
Tu untesa</w>
T SO
CH ʼO
xa ʼ</w>
x tin
tze qel
tuq tuu
taa tzʼil</w>
skʼop lalik</w>
señal ó</w>
lá m
fo ye
estr o
esforz arse</w>
escri ba</w>
cho chib</w>
au tén
SAN TI
xki ltik</w>
sta kʼo
ru qʼaʼ</w>
prekurso r</w>
ni maläj</w>
le va
kʼaʼaytaj oʼob</w>
je lal</w>
j bi
ci f
ch wä</w>
c lel</w>
bus que</w>
U sta</w>
Q ilaq</w>
MAR COS</w>
LA Q</w>
ʼj ink
xta w</w>
xnaqʼtzan kuya</w>
tix kʼe</w>
qʼa lajin</w>
nej enel</w>
ne k</w>
llev aban</w>
kˈa laj</w>
ko kʼal</w>
kaab oʼ</w>
jela vele</w>
inmor ales</w>
inici ati
hi stó
enla ce</w>
e a</w>
dé cadas</w>
di gi
cß at
con texto</w>
compar ación</w>
amor oso</w>
a wiʼ</w>
T so
Res puesta</w>
No po</w>
Mago g</w>
ʼI N</w>
yal ok</w>
tuukul nakoʼon</w>
proble ma
obser var</w>
matrimoni os</w>
don ate
ch ʼan
can ane
T â
JE RE
ê lk</w>
yaʼab kach</w>
teßx qßue</w>
t kʼujlabʼil</w>
sjo jkʼo
oto qxi</w>
nqa tzʼët</w>
nawaj o</w>
meti da</w>
k be</w>
jacʼ bal</w>
evangeli o</w>
en gen
disposi tivo</w>
come ter</w>
característi cas</w>
ca mel
a gar
yʌ cʼob</w>
x kʼi
so j</w>
se pul
po pu
patr ón</w>
ker em
k er</w>
ju dici
idio ma
chaab ʼi
bˈi ˈn</w>
Y áaxeʼ</w>
Timo te
T or
H aba
Di ce</w>
xuʼu luk</w>
u jtel</w>
spa toj</w>
rebe li
quisi tos</w>
pas aje</w>
kʼu ch
kíim saʼal</w>
kri l</w>
kqa koj</w>
ko y</w>
ki toʼik</w>
jun es</w>
jaʼuk nax</w>
in ele</w>
ej o</w>
come tió</w>
c alu
an quil</w>
al kʼop</w>
K e
1, 0
tso tsu
ra dor</w>
produ cir</w>
pa am</w>
noo kʼ</w>
ky yol</w>
exac to</w>
depen de</w>
ani leʼ</w>
aja winel</w>
agra da</w>
T in
Cam er
2 40</w>
xo c</w>
xchi kin
ve y</w>
táa j</w>
to me</w>
qʼu el
qa wiʼ</w>
po q
lin ik</w>
kʼu pi
e dades</w>
célu la</w>
b ano
tzʼaqon k</w>
tz in
tsʼi b
s loʼil</w>
qan aʼoj</w>
pa ʼn</w>
p úu
oscu ridad</w>
náa tsʼal</w>
nin ye</w>
kʼuq bʼäl</w>
k let</w>
hac es</w>
grie ga</w>
forta lec
forma do</w>
em lel</w>
ejerci cio</w>
bʼ resi</w>
ador arlo</w>
S PASEL</w>
Hebre as</w>
Cristo eʼ</w>
yaj re
tra erá</w>
ti xye</w>
solu ción</w>
pi den</w>
ofici al</w>
ne la</w>
mencion an</w>
juven tud</w>
jolo min
j mul</w>
fi ca
Y e
TO O
I mi
G al</w>
ALGUN OS</w>
xu u
ra s
ni maʼq</w>
kʼach ariik</w>
kax t</w>
j or
güen za</w>
dur os</w>
dar a</w>
co lum
chʼo j
cha qʼrabʼ</w>
bar ca</w>
TA R
NAʼ LEBʼ</w>
Kʼ o</w>
F u
De u</w>
BI OS</w>
Aj valil</w>
táan kelem</w>
ta ti
person almente</w>
meyaj oʼ</w>
kyan qʼibʼil</w>
kuxleja like</w>
donate jworg</w>
chu lew</w>
bo da</w>
bi loʼob</w>
ar d</w>
Maʼa ñic</w>
F o
C at
xtenqʼan kilebʼ</w>
u bʼ</w>
ti no</w>
ren u
re quisitos</w>
qui eran</w>
posi bilidad</w>
plata forma</w>
obede cemos</w>
je ʼel
ja p</w>
h chiʼ</w>
e tic</w>
chʼo bʼ</w>
beel oʼoboʼ</w>
abatin el</w>
a chï</w>
Me jo
MU ʼ</w>
K in</w>
D ar
AD N</w>
A MOR</w>
yíi cham</w>
xko m</w>
twi tz
tojo btesel</w>
te ltik</w>
te choʼ</w>
sab es</w>
qa chi
presenta ciones</w>
pe cʼlel</w>
kyukˈ a</w>
kami kal</w>
k aba</w>
ig lesias</w>
co r</w>
Ten emos</w>
Sucur sal</w>
PRI NCI
M â
EZ EQUI
A Kʼ
2 2
xij muyubaj</w>
x sach</w>
txok bʼil</w>
tsi lil</w>
ts laj
tiki rel</w>
tar los</w>
sube ñonla</w>
ro k
re taman</w>
op ía</w>
op ción</w>
no q
naʼo jbʼal</w>
kaʼan saʼal</w>
emp la
co dicia</w>
chʼ en
chê ru</w>
car lo</w>
Re pública</w>
Cristo oʼ</w>
CH Ë</w>
Anu ario</w>
A su
yaʼalaʼa l
utili zó</w>
toj jo</w>
ten oʼ</w>
svan eje</w>
smu kʼulin</w>
quixta ñu</w>
exis ten</w>
apropi ado</w>
Mi ra</w>
Dama sco</w>
ʼ ON
yu bi</w>
x kib
waj oʼ</w>
v re
te t</w>
ta tx
ta len
t q
reflexion ar</w>
poder osos</w>
paab ʼan
kʼa y
ky wu
ku u
k os</w>
ji p
dej en</w>
cí o</w>
chʼ ö</w>
chúu kpaj</w>
apaci bilidad</w>
M as
L í
Imag ínese</w>
EZEQUI EL</w>
Á AN
yuʼu boʼob</w>
w s</w>
u ke</w>
tradu cir</w>
re empla
nqa ʼij</w>
nar il</w>
na r</w>
kʼe lik</w>
ji san</w>
ja w
ic r</w>
dese aba</w>
des cubierto</w>
cˈas lemal</w>
cu e
afir ma
Uste d</w>
Pau l</w>
Navi dad</w>
Minis terio</w>
LA J
K ar
4 7
yi kʼ</w>
xoo koʼob</w>
prácti cos</w>
lu c</w>
limi taciones</w>
jun etik</w>
du e
ch chʼun
c lic</w>
XU ʼ</w>
Rober t</w>
J LEL</w>
xjun kabʼal</w>
x nu
wa cami</w>
v é
ts ʼik</w>
ts kʼel</w>
taʼa b
musi cal</w>
kʼáatchi ʼob</w>
invi te</w>
for man</w>
emocion ante</w>
aku x</w>
WE M</w>
PROV ER
PROVER BIOS</w>
E ʼ
1 25</w>
ʼaati naq</w>
wä chulew</w>
tram pa</w>
ta ma
pala u</w>
lí der</w>
la m
indi can</w>
es inkil</w>
cʼaj tesan</w>
cristian oʼob</w>
au tor</w>
voko liletik</w>
tsʼʌ cti
ter o</w>
tar é</w>
q bʼiʼn</w>
q alen</w>
pe dido</w>
núu p</w>
kyx ol
k kʼojiʼ</w>
j woko
chʼa ʼi
ba lik</w>
ari amente</w>
af li
ñ usa</w>
vi endo</w>
tzalaj e</w>
trans fu
sju ʼel</w>
s che
prim eras</w>
pregun taron</w>
máakoʼo baʼ</w>
mucha cho</w>
j aʼan</w>
j abel</w>
histori as</w>
habi endo</w>
con stitu
chqui wäch</w>
IMAG EN</w>
Es ter
C aj
Be tania</w>
ä k</w>
yee chiʼi</w>
waʼ cho
w ïl</w>
w 19
vi erte</w>
servi rme</w>
prof é
ofren das</w>
lle guen</w>
kana ak</w>
ja ʼoʼ</w>
di tos</w>
des preci
cʼo p</w>
cre emos</w>
ca i
c ʼan
a is
UT Z</w>
Q ʼO
PRO FUN
Déb ora</w>
x caß
tso tsik</w>
tk an
ta ba
p ʼo
nq rtoʼ</w>
min a
me j</w>
ka e</w>
ka chalal</w>
g ante</w>
dé bil</w>
deci rse</w>
cu y</w>
bi leʼ</w>
avoʼonton ik</w>
afir man</w>
Q I
Myan mar</w>
Ju d</w>
EN CON
Descub ra</w>
ándo los</w>
xi t
tskʼan ik</w>
tsik ba
tra er</w>
ti on</w>
ta u</w>
j lo
inten ción</w>
i leʼ</w>
xi ʼij</w>
voʼo t</w>
u wiʼ</w>
tu mil</w>
slaj el</w>
qech paabʼanel</w>
mó vil</w>
maj tan
kʼa q</w>
jvoko ltik</w>
in va
gusta ba</w>
fortale ció</w>
espiritu alidad</w>
campa mento</w>
acab ó</w>
Mois es</w>
Eti opía</w>
ˈi ˈ</w>
óo leʼ</w>
áa kʼab</w>
á ramos</w>
ru kˈij</w>
qu em
p inas</w>
logr ará</w>
le ʼ
kʼa hchiʼ</w>
ke t</w>
k kunik</w>
jacʼ ʌ</w>
j es</w>
ib ʼa
hu ir</w>
hebre os</w>
fal le
cristi anismo</w>
añ ic</w>
ad qui
Di jo</w>
î mk</w>
taʼa boʼob</w>
ta loʼ</w>
t ábamos</w>
schol bey</w>
relacion adas</w>
nq kowin</w>
ner vi
na qan
laa chʼool</w>
kya ˈj</w>
i wi
cu cˈ</w>
aw aj</w>
ala ˈ</w>
LI P
LE TIK</w>
1 37</w>
wini c</w>
prepar arse</w>
nq ä</w>
materi al</w>
ju día</w>
j li
habi tada</w>
fu ér
ex actitud</w>
es eʼ</w>
en er
RI N
M ix</w>
Eli faz</w>
E L
xchan ik</w>
tukul tmaj</w>
rein ado</w>
qasan jaʼ</w>
p esi
jun pâ
ja mos</w>
imperfec ción</w>
gr á
bˈ a
U láakʼ</w>
S T
RES U
P ej
ʼe le</w>
u va</w>
twitz ju</w>
tqʼama ʼna</w>
tik lan
q ine</w>
pali tsil</w>
modes tos</w>
interes ante</w>
gen i
engen d
confi gu
car án</w>
aconse ja</w>
ENSEÑANZ A</w>
Ca perna
yaj bʼil</w>
y oʼola
tz ʼu
rok sinkil</w>
qib ʼil</w>
pí dale</w>
pr a</w>
nqa kʼüt</w>
mâ queb</w>
lta j</w>
ke tal</w>
im pu
gra tu
compar tir</w>
ador an</w>
ad ora</w>
Sí sara</w>
PʼI JU
HE CHOS</w>
Gu ate
yaʼali koʼ</w>
xcß am</w>
ta ytik</w>
senti rnos</w>
re h
ki kotik</w>
invi tó</w>
estr és</w>
do m</w>
câ mk</w>
an oʼ</w>
abʼ inkil</w>
TES WANEJ</w>
Fili pos</w>
tâ na</w>
sa choj</w>
ril bal</w>
pla cer</w>
pa sados</w>
p si
nequeß xbânu</w>
man as</w>
ca ma</w>
bʌ qʼuen</w>
apren de</w>
alo bil</w>
D er
CHIʼU S</w>
ʼ la</w>
wuʼu yi
wi laj</w>
sal en</w>
pro bar</w>
permi tido</w>
pas kʼop</w>
nata wmank</w>
n áal
man tiene</w>
l oʼobaʼ</w>
kʼo jaʼ
kíim saʼa
kyi ʼn</w>
iden tidad</w>
chaʼa j</w>
baʼa xak</w>
xjun es</w>
x chaʼkux
tradu ce</w>
stuk ik</w>
p er</w>
mé todos</w>
jba kutik</w>
caj ñel</w>
a yotik</w>
T Z</w>
QU I</w>
QATZO LAQ</w>
PʼIJU B
Mu kʼta</w>
ES TA</w>
BA JCH
1 17</w>
xsu men
sv enta
r la</w>
opini ones</w>
man tuvo</w>
la aʼin</w>
kʼu baj</w>
kʼa sta
jkʼakʼa li
inter pre
in cre
fac tores</w>
extranj ero</w>
diseñ o</w>
dar me</w>
cose cha</w>
ca í
Guate mala</w>
Camer ún</w>
ï m</w>
z adas</w>
xchʼuno jik</w>
wi lo</w>
waka mi</w>
u kʼi
rusama jelaʼ</w>
recor dó</w>
queßx qßue</w>
oyu tik</w>
ojyî n</w>
kaan bal</w>
jo t</w>
cˈu tuj</w>
corre r</w>
b inti
am én</w>
aji loʼob</w>
aj ni
a etike</w>
Nu estra</w>
JERE MÍAS</w>
BAJCH Eʼ</w>
xe ˈ
x raj</w>
tranqui li
regis tr
pér dida</w>
oy bʼen
jun kabʼal</w>
jo ñon</w>
cß anjel</w>
con exi
béey chaj
benefi cio</w>
aʼalaʼab tiʼ</w>
Uni das</w>
xu ben</w>
xi ib
waj oˈ</w>
re quiere</w>
mencion ado</w>
ma tz</w>
lo cales</w>
li leʼ</w>
iniciati va</w>
examin ar</w>
encar gado</w>
dor as</w>
YA ʼA
N ya</w>
CAMBI Ó</w>
ê t</w>
tê bânu</w>
teksto aʼ</w>
te ep</w>
t qan</w>
so lamente</w>
respe tamos</w>
q ni
profun das</w>
minis tros</w>
lar se</w>
inspi rada</w>
en tend
comple mentos</w>
an tem
aj us
Ste ph
Per sia</w>
PROFUN DIC
PROFUNDIC EMOS</w>
Ne w</w>
L au
CON T
A C
1 36</w>
1 14</w>
ʼ ebʼ</w>
yeʼes aʼal</w>
x kojtik
tradu cciones</w>
taj toq</w>
pa le
oper ación</w>
ok saj</w>
limpi os</w>
kˈ alaji
jpa se</w>
jko toltik</w>
fili steo</w>
encu entro</w>
ejérci tos</w>
co pa</w>
chka j</w>
abte jik</w>
X akʼa
Sal mos</w>
Qʼa tbʼal</w>
Aj wa
yáan taj
x yuʼa
vo to</w>
s y
s jel</w>
q onin</w>
pele ar</w>
pan talla</w>
pad renu
olvi dar</w>
no m</w>
mil la</w>
maj tan</w>
mad era</w>
junpâ t</w>
jaʼa b</w>
enter ó</w>
bu los</w>
antem ano</w>
TI V
Jeho ás</w>
Gre cia</w>
ʼun ik</w>
yi ibʼ</w>
v oʼon</w>
v emente</w>
ten ta</w>
tan qʼibʼil</w>
ta tz</w>
ru tz</w>
qʼa l</w>
qan qʼibʼil</w>
progra mas</w>
pre para</w>
pa mos</w>
mi r
mag ní
kal kʼwal</w>
j be
invi tados</w>
im presión</w>
escri tas</w>
en vía</w>
do k
cʌ ñob</w>
chon col</w>
aʼ tej</w>
a parte</w>
KAʼANSA JNA
EST O</w>
5 8
sée ba
superi ores</w>
sta el</w>
lu metike</w>
kʼupi lik</w>
kki koj</w>
in vo
ex pe
engañ ar</w>
empe ñ
cßamo c</w>
T áan</w>
T ar
SA B
KI T</w>
xíi mbal</w>
tuvi mos</w>
tsʼi taʼ</w>
tsaj intel</w>
tra tamos</w>
ti pos</w>
tak oʼ</w>
s ku
ru wiˈ</w>
pon emos</w>
peque ñas</w>
orgullo so</w>
naqa tzol</w>
la aʼat</w>
ju laʼ</w>
j kuxlejal</w>
ba c</w>
auto control</w>
SAL MO</w>
QA KʼASLEMAL</w>
P res
ENCON TRAR</w>
An anías</w>
1 28</w>
ya cʼ</w>
wan ik</w>
te ltike</w>
q ajbʼen</w>
pesta ñas</w>
pa c
n yaʼöx</w>
mo letike</w>
inten tó</w>
in xa</w>
die ci
da da</w>
continu ar</w>
chon bolo
asu sta
ar que
Pro metida</w>
Cai f
în c</w>
soldad oʼob</w>
servi mos</w>
s je
ro b
qßue bal</w>
q in</w>
pʼi s</w>
pas ens</w>
ke ʼa
fr an
esp ías</w>
en veje
dedi carse</w>
confi aba</w>
comien za</w>
cha pas</w>
ba stante</w>
b úu
auxili ar</w>
ani maj</w>
aktáan t</w>
ac to</w>
TZ ʼO
K or</w>
K o
Haba cuc</w>
E V
200 8</w>
xbaj tʼ</w>
to bʼe
ti i
ruk abʼ</w>
regu la
poni endo</w>
peti naq</w>
necesi te</w>
fortale za</w>
f i</w>
cal or</w>
a pi
O seas</w>
J beilta
Ba yal</w>
yʌ jlel</w>
xkʼo x
xchʼo lobʼ</w>
ven ía</w>
v ando</w>
tu b</w>
toʼo beʼ</w>
séeba ʼanil</w>
suf re</w>
ru q</w>
reci én</w>
kʼu le
kʼeban oʼ</w>
kʼaxe m</w>
in q</w>
hon rados</w>
hal lado</w>
encan taba</w>
chan chan
cas ó</w>
bo lil</w>
ba sta</w>
adolesc ente</w>
RE Y
Q ÏL</w>
xchik naj</w>
x ʼ
wp 16
w ibʼ</w>
tsʼʌ ctesan</w>
to qe</w>
taa kʼin
ta etik</w>
skʼan ojel</w>
rixa kil</w>
recibi rán</w>
mé todo</w>
ma tarlo</w>
kʼ bʼal</w>
dig no</w>
cʼuxbi ñob</w>
cri a
chirix eb</w>
aß eb</w>
al beyel</w>
Tesal ónica</w>
SUJ TEN</w>
Kʼaʼa jak
KA BTE
FI CI
Ani me</w>
A be
14 2</w>
s mil</w>
publi cado</w>
orgullo sos</w>
náa chtal</w>
man á</w>
j kʼup
i dad</w>
fortale cer
escu che</w>
chʼʌm jaʼ</w>
Fili pinas</w>
Anti gu
x pa
we tamaj</w>
waʼ bʼej</w>
w el
tzʼa q</w>
ta abʼaanu</w>
slu mal</w>
ra ch
pr eso</w>
ko le
ki lo
e tz
akʼ bel</w>
a ch</w>
TOJOB KUTIK</w>
T í
SI G
NA Q</w>
JU X</w>
y tak</w>
xtqa ʼän</w>
táa kpajal</w>
t ân
t hu
parti do</w>
p h</w>
náa y
naʼ taj</w>
mill on
enter o</w>
emo ciones</w>
contra señas</w>
bar ro</w>
ac ceso</w>
ab ae</w>
YO M
L amen
J Ó
J tsop</w>
In clu
6 7
xu koj</w>
xtik ibʼankil</w>
wini cob</w>
wak li
tzaqpi ʼn</w>
tse betik</w>
tra tamiento</w>
taa ta</w>
su kʼ</w>
sa maj
sa hil</w>
respe tu
represen tan</w>
qe ʼk</w>
produ ctos</w>
poder osa</w>
nú m</w>
meyaj tikoʼ</w>
kʼiin oʼ</w>
j ch</w>
iz quier
deci dieron</w>
cu ukub</w>
chíi kaʼan</w>
beel oʼob</w>
anun ció</w>
abandon ar</w>
PA R
P OR
Mi q</w>
2, 0
ʼi ke</w>
úu chuk</w>
yáan ten</w>
ya kotik</w>
y áa
ver güenza</w>
suced erá</w>
sni tilu
qa kutan</w>
q ex</w>
pe t</w>
mu ral
loqʼo läj</w>
i letik</w>
expli cación</w>
caj a</w>
ati nak</w>
ali vio</w>
W EN
TOO KʼUTU
TOOKʼUTU Q</w>
S likeb</w>
M EL</w>
LO M</w>
Dali la</w>
ß am</w>
ya kon</w>
w abʼ
val le</w>
ue lo</w>
tz ol
tiki x</w>
sube yob</w>
sir ku
ri do</w>
qßue heß</w>
perten ece</w>
perdon ó</w>
obje to</w>
n wäch</w>
minis tro</w>
mar il</w>
le ku
ky ximbʼetz</w>
ko wi
k bʼil</w>
ji kib</w>
foye to</w>
empa tía</w>
e ti
cä chaˈ</w>
bi a</w>
bal oʼ</w>
ba tsʼi</w>
KABTE LTIKE</w>
Ja chin</w>
H am
CHO JUX</w>
BE E
A P
wu qu
sor dos</w>
servi dor</w>
p inter
nu be</w>
ni qˈui
len a</w>
lar mente</w>
kye ye</w>
ky qanin</w>
ka ya</w>
eter no</w>
en eʼex</w>
ba leb</w>
auto má
Y an</w>
X na
M íri
Lis tra</w>
F esto</w>
3 ,000</w>
14 8</w>
ʼi tz</w>
wan ejetik</w>
tsa j</w>
servi cios</w>
salv ó</w>
quer ma
q meltzʼaj</w>
llen os</w>
ki chuqʼabʼ</w>
investi g
im pres
ha gas</w>
h eb
fr anc
fil tra
e o</w>
cumpli eron</w>
ata qoya</w>
XNAQʼTZ AL</w>
S ina
Mesi ase</w>
F E</w>
xcha p
wi h
u seb</w>
to kx</w>
tew chi
tempr ano</w>
su ben
ste is</w>
n raj
ma tó</w>
ló bulos</w>
lokʼo l
kʼuu xi
k m</w>
k ba</w>
ja wil</w>
dig nidad</w>
KAʼANSAJNA KOʼON</w>
DE MOS</w>
ʼ UN
u sa
teksto etik</w>
sin quil</w>
rus kʼixik</w>
profun da</w>
lokʼo mba
ka q</w>
ja laj
j ts
j tot</w>
i rán</w>
i kyx
fej oʼob</w>
ent rega
descri bi
cʌy ʌ</w>
cer ni
aver gon
arrepenti miento</w>
acer có</w>
YE QÏL</w>
PʼIJUB TESWANEJ</w>
Pol onia</w>
xi kin
xch abi
wo to
tsu ts</w>
te maj</w>
t kawin</w>
rebeli ón</w>
qe taʼm</w>
pelig roso</w>
pe car</w>
naʼa atinak</w>
mostra do</w>
leva dura</w>
escuch ando</w>
disponib les</w>
béeykun tik</w>
am eri
YOM ÄL</w>
Mari e</w>
K éen</w>
H ER
D ía</w>
BʼE YOMÄL</w>
vu estras</w>
u men</w>
tse betike</w>
toʼo xe</w>
toqʼo bʼ</w>
tier no</w>
su beñob</w>
lo cʼ
kʼo poj</w>
jnop ben
jaʼ äl</w>
g ro</w>
fi ja</w>
chúu kpaj
calu mni
bee tuba</w>
asig naciones</w>
Servi cio</w>
Sa ß</w>
Ju aneʼ</w>
Ó NI
yoʼ bolil</w>
ya ik</w>
ve lo
ve inti
ur l</w>
ta kß
so is</w>
schʼuun ik</w>
ru bel</w>
religi osa</w>
que dan</w>
pro mo
lla man</w>
lamal kʼinal</w>
laj êb</w>
g aba
estable ció</w>
empe ño</w>
cß ajol</w>
chk un
ali vi
REY ES</w>
Mes íasoʼ</w>
Lâ at</w>
Jo se</w>
z aban</w>
xka w
val entía</w>
u Qʼatbʼal</w>
tz eʼ</w>
tiaʼa laj</w>
tala mil</w>
per cibi
nikʼ wach</w>
nab aleb</w>
laje le</w>
l tó</w>
divin as</w>
chiʼichnak tal</w>
bʼtesi hom</w>
ban quete</w>
RE ʼ</w>
Í I
tuqtuu kilal</w>
ta be</w>
subi r</w>
ro mpi
qu ina</w>
permiti rá</w>
p ese</w>
maʼalob eʼ</w>
lan a</w>
kʼux lal</w>
kʼa jol</w>
kʼa bal</w>
ku adro</w>
kaʼan saʼa
fí jese</w>
debi lidades</w>
cum ple
caus to</w>
ba da</w>
TA J</w>
S jajchibal</w>
Jkʼel tik</w>
yi b</w>
xra q
www jworg</w>
volun tari
tsʼaʼa b
smala el</w>
s kʼinal</w>
re taʼm</w>
q oj
na chalk</w>
n qʼamaʼne</w>
mer ec
lo til</w>
le pra</w>
hablar les</w>
encontr aron</w>
chˈ ob</w>
bʼinch et</w>
bʼ än</w>
bee taʼan</w>
al bot</w>
acti va</w>
Naa mán</w>
JA Bʼ</w>
CH IK</w>
C ró</w>
AJ TI
ü x</w>
â leb</w>
Í CU
xchi ʼu
tsʼoʼok bal</w>
tsʼij bu
ts pas
sirvi ó</w>
ru biˈ</w>
ro y
pi tz</w>
o etike</w>
lo cal</w>
lle vamos</w>
ka ʼn</w>
jakʼ ele</w>
j letik</w>
fin ales</w>
edifi cio</w>
e las</w>
diver sas</w>
convi ene</w>
bar co
b áa
al kʼwal</w>
akʼ batik</w>
TS ʼO
Po dría</w>
Gri e
ólo gos</w>
ê chßôl</w>
yalo bilob</w>
yaj val</w>
tsotsu k</w>
ts cʼan</w>
tra ta
sti j</w>
pro cur
posi tivo</w>
plen a</w>
li letike</w>
kiʼ kʼuxlal</w>
k ini
jun ama
d re
cre ciendo</w>
cha ki</w>
a penas</w>
Máa xoʼob</w>
J ÉE
E Bʼ</w>
AJTI JABʼ</w>
200 6</w>
vu l
var ones</w>
té monos</w>
tzu juj</w>
tojobta seletik</w>
taʼa ytak</w>
ta ria</w>
sjo lik</w>
sem an
ru pam</w>
r éis</w>
parti cular</w>
mi leʼ</w>
kʼam koʼob</w>
kß eb</w>
hici mos</w>
herman dad</w>
es oʼ</w>
cu ânc</w>
chʼixpu bʼil</w>
aj ej</w>
adolesc entes</w>
In dia</w>
Esta mos</w>
C ʼA
ˈ m</w>
xch ʼi
s woko
s nuptan
refugi ados</w>
qa saj</w>
po c
ne ʼl</w>
kʼa teʼ</w>
kʼa jo
ke cheʼ</w>
iru bʼan</w>
ch chaʼ
bʼi tz</w>
T ON
0 ,000</w>
ñu clel</w>
xsumen kil</w>
wi t</w>
tʼaan oʼobaʼ</w>
tu un
revel ó</w>
qˈ oˈn</w>
oí dos</w>
me bʼ</w>
lebʼa k</w>
en o
chʼiʼi bal</w>
c ías</w>
Z ac</w>
V O
Kʼ AN</w>
Ku x</w>
Gu ía</w>
B u</w>
6 9
10 9</w>
è le</w>
yáantk en</w>
su ra</w>
st su
si va</w>
se pa</w>
san to
s testigo</w>
pa pi
p tik</w>
niqˈui aj</w>
luʼu miloʼob</w>
in os</w>
espo sos</w>
dis cerni
confi ables</w>
b r</w>
ama b</w>
alma cen
Tu r
T ho
S ob
KE ʼ
K ʼi
yu go</w>
teri or
ta ja
slaj in</w>
raho btes
mo zilla</w>
líi kʼil</w>
llama dos</w>
kʼaʼa q</w>
kaʼan al</w>
ju ego</w>
jko lta</w>
jalaj öj</w>
inte lig
i tz</w>
ha yamos</w>
h tt
g aba</w>
es ʌ
equilib rio</w>
el xix</w>
e t
cor ona</w>
bis kubaʼob</w>
ata w</w>
akʼ beyel</w>
Tsʼi j
Mar kos</w>
Jose ph</w>
6 00</w>
xnaqʼtz al</w>
xe chaˈ</w>
x ana
se tenta</w>
sama jib</w>
ro llo</w>
r abʼinkil</w>
mon e
ki raj</w>
ke kunik</w>
jóo kʼ</w>
enfren tarse</w>
contra to</w>
conso lar</w>
chʼa ʼoj</w>
SA L</w>
M aria</w>
Georg e</w>
G er
xkaʼi betik</w>
xakʼa ltik</w>
x tal
tuláak loʼon</w>
to jaʼ</w>
skolta ot</w>
pas ajes</w>
lle gué</w>
kʼu xul</w>
káaj sik</w>
ku p</w>
kiʼimak kúuntik</w>
ka xti
jela ʼan</w>
in cli
fin es</w>
den tal</w>
cump la</w>
cul to</w>
cu â
chu banic</w>
chapan el</w>
ch on</w>
car gar</w>
bii lal</w>
O tra</w>
yakʼ beyik</w>
xkʼo tik</w>
x ril</w>
x oʼ</w>
sue ños</w>
soci al</w>
sig loe</w>
sal va</w>
pri sion
pe et</w>
lib res</w>
choj bʼil</w>
am ó</w>
actú a</w>
M al
Ami gos</w>
yaabʼa sinkil</w>
yaabilt moʼob</w>
y es
xit bʼil</w>
xeß tônil</w>
xbʼeen ebʼ</w>
x yi
woko liletik</w>
u bi
tra taron</w>
te tz</w>
smanta ltak</w>
qa paabʼal</w>
per sauk</w>
p en</w>
ministeri ales</w>
ma maʼ</w>
le ído</w>
kyim ni</w>
ky bˈin
j kuxlejale</w>
difer encias</w>
cu n</w>
an qʼil</w>
P at
Mon te</w>
ya laq</w>
x re
wi ts</w>
toʼ ö</w>
qui cuulac</w>
q kanoʼn</w>
perse ver
perdon a</w>
neces aria</w>
milag ro
lu ba</w>
k or
ja lam</w>
gener osos</w>
cie gos</w>
capaci tación</w>
al oʼoboʼ</w>
akʼ bil</w>
aconte ció</w>
abi erto</w>
X yaabʼasinkil</w>
K A</w>
B Oʼ</w>
íicha m
ê bên</w>
yuʼa mi</w>
xni chʼnab
vi les</w>
ver nos</w>
tx kup</w>
tin ankil</w>
tch mil</w>
ta alak</w>
t nab
raí ces</w>
qʼuex tʌ
nim saʼn</w>
le peʼ</w>
ku koj</w>
ko jo</w>
kan in</w>
jun puliʼ</w>
i que</w>
hab íamos</w>
h t</w>
dedi camos</w>
awa kʼ</w>
M â</w>
BEN E
ño xi
yíi cha
yi ke</w>
voʼo tik</w>
ser ás</w>
re presenta
qˈu ia</w>
primo génito</w>
kab ʼ
kaab eʼ</w>
ju bi
jaʼ to</w>
corru pción</w>
con temp
arre pien
an se</w>
L U</w>
Imi temos</w>
C entr
Am ós</w>
ñopo b</w>
yaʼa loʼ</w>
ya tikïr</w>
y bʼal</w>
xa kʼbe</w>
wo li
tr u
taa yaabʼasi</w>
sa k
s aba</w>
que bran
q mod</w>
oj kʼo
ni mil</w>
mu laj</w>
mi ri
me z
lími tes</w>
li loʼoboʼ</w>
lengu as</w>
la vil</w>
la t</w>
jme ʼe</w>
j kʼ
hab erse</w>
e win</w>
copi ar</w>
conser var</w>
conqui sta
ala b</w>
ajvali lal</w>
TA DA</w>
Naʼ äy</w>
Na die</w>
Luʼu moʼ</w>
Inclu so</w>
ê ch</w>
tsʼi ʼ
terior mente</w>
teksto ʼob</w>
tale lal</w>
subi ó</w>
seera qʼ</w>
sa du
pon gan</w>
mes il</w>
lo bʼaal</w>
k chaj</w>
jko t</w>
jay pʼéel</w>
forma to</w>
cß am</w>
c tas</w>
ata ques</w>
abte le</w>
M EN
In vi
Grie gas</w>
F in
ÓNI CAS</w>
yo l
yen t</w>
yaj tak
tr en</w>
sufri mos</w>
religi ón
prof esi
ojtik inel</w>
le pro
ke le</w>
ci to</w>
ante oʼ</w>
W o
Ven ez
O k</w>
Lu m</w>
Ham án</w>
D ej
200 3</w>
1 32</w>
éndo lo</w>
ß al</w>
yi cʼo
wa k</w>
ven gan</w>
tzʼeqta ana</w>
so le
reuni rse</w>
qui co
máa xeʼ</w>
mo sa
lv ania</w>
ko tak</w>
k óo
is o</w>
in scri
h i</w>
fun ciones</w>
des pier
chu p</w>
ch ab
cer cano</w>
ban on</w>
a tivos</w>
KʼA LAL</w>
Expli que</w>
Eseki ele</w>
y bil</w>
xka m
xin ye</w>
xchi ʼin</w>
x bʼi
tâ c</w>
tis äx</w>
t lel</w>
resu el
re pi
permi ta</w>
ne gó</w>
ma tij</w>
je fes</w>
izquier da</w>
i lustra
i heb</w>
gi eron</w>
ech ó</w>
ciudad anos</w>
ch chabi
bio grafía</w>
bal oʼob</w>
acep tado</w>
a letik</w>
V í
Person alidad</w>
Nab ʼitz</w>
Caif ás</w>
60 7</w>
yan a</w>
xtqa tzʼët</w>
x ab
tsobaj eletik</w>
tskolta ot</w>
tobʼe ej</w>
spi ca
silen cio</w>
pâban el</w>
pu ri
po zo</w>
p u</w>
os ta</w>
o samente</w>
mâcu a</w>
lan tik</w>
kaʼ ani
i lok</w>
f acu
chu bʌ
A m</w>
á c
ye kʼun</w>
x jajch</w>
sujm ʌch</w>
segui do</w>
s kuxlejalik</w>
qʼi ij</w>
nki kʼüt</w>
n qʼax</w>
n c</w>
médi ca</w>
m esi
kuxkíin taʼal</w>
ki j
ker eme</w>
ka wetaʼmaj</w>
k bʼix</w>
is ta</w>
g ón</w>
ex clu
dro ga</w>
cß ajoß</w>
confi rma</w>
chʼoo lej</w>
ami iw</w>
W al
TS ʼU
MI ENTO</w>
1, 8
ác ter</w>
tnej il</w>
t ʼuk</w>
stojo lik</w>
sen tencia</w>
respon dieron</w>
rachi ʼl</w>
qan mi</w>
ma xik</w>
ki ˈ</w>
jkʼel betik</w>
ja dos</w>
escribi eron</w>
desafí os</w>
cʼa mʌ
cha vil</w>
c k
X A</w>
Tri bunal</w>
GEN ES</w>
D ON
ʼO BOʼ</w>
va das</w>
progres o</w>
p ʼij</w>
manda tos</w>
kʼa kʼ</w>
jchʼun betik</w>
jatsʼu ts
guar da</w>
en d
cono zco</w>
confi ó</w>
ca ˈiˈ</w>
auto dominio</w>
T L</w>
Sad ra
Ja ʼuk
E vae</w>
E JE
Chan chan
yaj ñel</w>
yabte lik</w>
ya lak</w>
xe j</w>
tan mi</w>
rumb o</w>
noko ox
juʼe lal</w>
ja maril</w>
il tas</w>
cu este</w>
cristian oʼoboʼ</w>
comi sión</w>
a preci
a por
SE R</w>
Eli hú</w>
D a</w>
CɅ NTESA</w>
Cor é</w>
ya anti
u fra
tzß ac</w>
tol er
taq la</w>
soci edad</w>
senti rá</w>
propi edad</w>
pe ten
patan ij</w>
ora do</w>
nomb ró</w>
na mey</w>
mé rica</w>
mosa ica</w>
mi ˈn</w>
l ante</w>
frag mento</w>
discípu loʼob</w>
comien ce</w>
bˈa ˈn</w>
bʼ ebʼ</w>
bauti zar
baj a</w>
apo ya</w>
aku chi</w>
a chʼu
MÁ GENES</w>
Inter nacional</w>
I MÁGENES</w>
CR ÓNICAS</w>
Ar thu
ˈ u
ñujpu ñel</w>
í s</w>
ta kʼutuʼ</w>
res aj</w>
re kuadro</w>
pe kʼel</w>
pe da
ne as</w>
le tic</w>
kʼ wan</w>
escu chan</w>
elimin ará</w>
comen cé</w>
chʼa ʼ</w>
acci dente</w>
ab raz
Ser món</w>
SA MU
SAMU EL</w>
R aatin</w>
Mag dal
Ch arles</w>
10 8</w>
y jil</w>
utstu tʼaan</w>
sle ku
pʼée leʼ</w>
polí tico</w>
le kilal</w>
ky xi</w>
kix kanabʼ</w>
i e</w>
desarrolla r</w>
cu yo</w>
chʼi ichʼ</w>
chi ʼin</w>
chaʼle yob</w>
averigu ar</w>
apla sta
VEN ES</w>
RI A</w>
PRINCI PI
O b
M as</w>
Lo gros</w>
K Ë</w>
JÓ VENES</w>
Jaʼuk meto</w>
IN A</w>
ñu mel</w>
xa vi
t chʼiy</w>
sen tían</w>
s labʼil</w>
per judi
lan tes</w>
k xan</w>
jaku lo</w>
hogar es</w>
her ed
enseñ aba</w>
bei kun</w>
Tr inidad</w>
SO BRE</w>
SI S</w>
NO P
H O
G lo
Chʼu l</w>
ʼ E</w>
xóo t</w>
xkʼox lankil</w>
wo kisaj</w>
tzß in</w>
tun eso</w>
ru tzeqel
predi có</w>
pien so</w>
par cial</w>
muyubaj el</w>
ko lin</w>
ja le</w>
j vul</w>
indi g
impul sa</w>
ik tzun</w>
i ría</w>
g lóbulos</w>
distin gui
cu il</w>
cu bi</w>
crey entes</w>
che ʼox
car re
bi luk</w>
SE RI
N im
ö q</w>
ya ñoʼ</w>
xi x
xbʼa lun</w>
val orar</w>
u láa
sol dad</w>
se lu
schʼu un</w>
pi da</w>
ocupa do</w>
li as</w>
kʼ en</w>
kan an</w>
ju stas</w>
jala joj</w>
jaaji loʼ</w>
im pí
hab laban</w>
estatu a</w>
eli gió</w>
ejemp loeʼ</w>
d estro
cʌ lʌ
cßanje lak</w>
compa sivo</w>
am pli
D a
B in
ä p</w>
x ʌ
x tzʼi
u mil</w>
tzun te</w>
teʼ ruuq</w>
señ ales</w>
pu se</w>
n bij</w>
la d
l ju</w>
esti ma</w>
dro id</w>
dij era</w>
cu ri
conexi ón</w>
co bre</w>
cal les</w>
aqa tisäx</w>
W en</w>
Mi cha
J e</w>
Har vey</w>
Ay bal</w>
yaabilt m
x qßue</w>
tien das</w>
t keʼyin</w>
su t
qaj un
pregun tarnos</w>
pare ció</w>
ofre cen</w>
obli ga
no bʼaal</w>
ky xiʼ</w>
jte buk</w>
gi os</w>
g es</w>
cʼamʌ jel</w>
chʼa j
car ácter</w>
cabal lo</w>
c anos</w>
Y ÉE
Le k</w>
JES U
J U</w>
En tre</w>
D u
A gri
tsol nuʼu
tra tando</w>
tien de</w>
s loʼi
qui ye
mu tik</w>
limpi eza</w>
juda etik</w>
ini c</w>
gar an
fu ria</w>
extraordin aria</w>
en te
em presa</w>
des gracia</w>
der ech
cur ó</w>
al dea</w>
Y ilel</w>
F or
D on
CAN CIÓN</w>
A cu
, 9
yi x
xa q
ver se</w>
tza ca
ton ia</w>
señ ora</w>
ru kʼaslemal</w>
re comien
pal o
o este</w>
misericordi oso</w>
man kbʼil</w>
líiʼ saʼal</w>
inspi ración</w>
hon ra
g aron</w>
fu ri
ele mentos</w>
d ables</w>
chaʼa ñob</w>
chaʼ bej</w>
ab ej</w>
Y oʼolal</w>
TSʼO ʼO
Míri am</w>
DIC EN</w>
Asu ero</w>
ñoxi ʼal</w>
í so
yaʼa bil</w>
ts tij</w>
tend rás</w>
taata tsiloʼoboʼ</w>
su po</w>
pʼáat loʼob</w>
progres ar</w>
pon ernos</w>
pisi ltik</w>
ok si</w>
nu ya</w>
no paj</w>
no ches</w>
nax kʼutbʼesi</w>
manta liletik</w>
le tiʼoʼ</w>
j nak
hospi talidad</w>
er los</w>
diri gió</w>
des ánimo</w>
d ré</w>
cha me</w>
bo xuk</w>
aji loʼ</w>
aj ñel</w>
a damente</w>
Qʼu ele</w>
Jo ab</w>
HAC ER
G aba
G A
Fi le
x yaʼöx</w>
ts tunesik</w>
toma mos</w>
ti empo
ta taʼ</w>
si cß</w>
responsab les</w>
re cur
quisi era</w>
o tot</w>
nqˈ maˈn</w>
nki ʼij</w>
ne o</w>
ma je
ma dure
madure z</w>
lu ˈn</w>
j ibal</w>
h in
expul sado</w>
económi cos</w>
dej é</w>
akʼo bal</w>
a ik</w>
Po co</w>
Maʼa lob</w>
Jai ro</w>
5 ,000</w>
yaj kontra
ya ak
x tz</w>
tro ñel</w>
ti le</w>
ta ʼoboʼ</w>
r los</w>
que m</w>
plan e
pak bʼan
ofreci eron</w>
l esi</w>
ky xo
jtun estik</w>
j chabi
inc lin
fáci lmente</w>
f res
con ferencia</w>
ced entes</w>
b las
at xix</w>
PA SA
á monos</w>
yajtak bol
son ido</w>
qan il</w>
preocup aba</w>
na kal</w>
míni mo</w>
lta d</w>
kyib ʼaj</w>
jun múuchʼ</w>
ix öq</w>
gr ano</w>
esta d</w>
célu las</w>
conf ían</w>
chu we</w>
cer eb
ca oʼ</w>
bi saj</w>
aaw ibʼ</w>
Satan aseʼ</w>
Ni co
Co rea</w>
yanak toʼon</w>
x kuxlejalike</w>
teʼ wanq</w>
te ocrá
sob res
regis tro</w>
refer encia</w>
qa kojonik</w>
porno gra
pon ía</w>
pens é</w>
mu ro</w>
ikyx jo</w>
har ás</w>
escri tores</w>
defini do</w>
chqa wach</w>
chkal tik</w>
bu j
avi l</w>
aaw riik</w>
a lil</w>
V ol
Salomon e</w>
Mes ac</w>
ʼi lok</w>
ʼ ya</w>
ño po</w>
yan yantik</w>
ven taj
ventaj as</w>
un t</w>
tal to</w>
svoko like</w>
slike bale</w>
simb ólico</w>
si vos</w>
rubʼe yal</w>
q ja</w>
piʼ ʌl</w>
kʼojaʼan il</w>
kuxleja lil</w>
inten so</w>
evi dente</w>
due ño</w>
decla ró</w>
da ños</w>
cuer pos</w>
cha mele</w>
capi tal</w>
an álisis</w>
Sadra c</w>
Cßaß ut</w>
A món</w>
xu ʼji
ut bes
tzˈ ib
ti vamente</w>
ti kil</w>
senti miento</w>
pu de</w>
k ïl</w>
jun e</w>
her idas</w>
estr en</w>
di ciones</w>
de cer</w>
dar lo</w>
consi go</w>
ci ego</w>
ch kom</w>
camin ar</w>
V u
T UN
Satan as</w>
Publi cación</w>
Hi sto
Go mor
Co men
Aja wbʼal</w>
ye kʼbʼil</w>
xkʼa m</w>
xch ol</w>
x ri
wi x</w>
vivi eron</w>
tß icr</w>
pesta ña</w>
orig in
moj t</w>
lle gada</w>
esta j</w>
equilib rado</w>
cho koy</w>
Y O</w>
T qʼama</w>
O tros</w>
Ma chʼa</w>
G a
DISCUR SOS</w>
CHI ʼ</w>
xni chʼnabik</w>
w o</w>
tsaj in</w>
transmi tir</w>
skʼan be</w>
ocupa dos</w>
lu tike</w>
l era</w>
ko jonem</w>
k bal</w>
inici ar</w>
in cen
gobier no
económi ca</w>
da te</w>
b resi</w>
al uk</w>
Si gamos</w>
Ru qʼatbʼäl</w>
Kʼaʼa bée
Cu i
B RE
A ma
A W
ti c
termin ado</w>
su tqʼi
spisi luk</w>
s â
r ajil</w>
pʌs beñonla</w>
pʌs ben</w>
lin cu
kin aʼoj</w>
k chi</w>
jun pʼéeliliʼ</w>
histori al</w>
compa ti
chi kʼ</w>
chaʼ pʼejl</w>
cha mba
certifi cado</w>
car an</w>
can al</w>
Venez uela</w>
Tu uku
S er</w>
Maʼa tech</w>
Kʼa x</w>
Entre tenimiento</w>
A ʼIN</w>
ʼj ina</w>
w áantik</w>
usu ario</w>
trompe ta</w>
tra e</w>
te les</w>
super fici
stuuntes ik</w>
q ʼun</w>
n bʼi
mu kʼtik</w>
maʼalo biʼ</w>
lin el</w>
kʼáatchi ʼobaʼ</w>
kʼa xik</w>
kyan mi</w>
kin bʼan</w>
in un
i sib</w>
f as
es ele</w>
di das</w>
cump len</w>
cu ch</w>
chʼ ejlel</w>
cab ʌ
ban ki
babiloni os</w>
Tuuku l
Se ol</w>
BI X</w>
A sa
6 8
xi ʼye</w>
x bʼix</w>
ukʼi sik</w>
tu uni
su pi
oʼ kx
ocurri rá</w>
na z
ma il</w>
kʼojo bʼ</w>
kß ojyîn</w>
ja ye</w>
invi taron</w>
im primi
hu esos</w>
di rán</w>
de lincu
cuer da</w>
cre a</w>
bʼa jel</w>
an tza</w>
Ru laʼaninkil</w>
LE N</w>
, 0
é gu
xni chʼnabike</w>
x raqal</w>
tzaca ê
t nabʼil</w>
quer er</w>
p s</w>
la bʼal</w>
ky jaw</w>
esclavi tud</w>
cˈ acˈ
con movi
chˈ in</w>
chʼaʼajko ʼk</w>
ad vierte</w>
X qʼuqil</w>
Ne h</w>
N ÚU
Kʼ U</w>
JA TSʼU
ín ci
z ara</w>
yi laʼa
waʼa lik
uya ʼom</w>
tsob ajele</w>
síi jil</w>
sna ʼel</w>
skolta un</w>
regres ó</w>
q Ajaw</w>
pr ínci
pan es</w>
náa chkun
maaʼu silal</w>
lokß al</w>
le lik</w>
lar nos</w>
l kutik</w>
k si
jun antike</w>
jkʼan ojtik</w>
j paj
eta mab</w>
cˈ am</w>
bar k</w>
ay ú
H en
200 2</w>
yoʼtan ike</w>
yaj lel</w>
vivi rá</w>
tz ß</w>
tbʼin cha
posi bles</w>
oj lib</w>
má tico</w>
me tzʼe
le lic</w>
laj esel</w>
kʼa ay
jojkʼo yel</w>
ja tz</w>
in ado</w>
franc és</w>
fal so</w>
den se</w>
contribu ir</w>
K YA
Jo safat</w>
Jen esis</w>
Cono zca</w>
B an
14 9</w>
w ib
tijic ña
ti no
tab lemente</w>
qui âtinac</w>
op ina</w>
na qabʼaanu</w>
muchʼtáa mbal</w>
mu heb
meʼi letike</w>
lti koʼob</w>
in si
g ani
forma da</w>
em pren
condi ción</w>
chʼo bʼ
chikʼ bʼaʼn</w>
chan i</w>
cha ke</w>
ban ami
Xna qʼtz
SO L</w>
H U</w>
B O
yóol oʼoboʼ</w>
yaʼab tal</w>
xsi kʼbʼal</w>
we ñʌch</w>
to man</w>
tem ores</w>
somb ra</w>
so linik</w>
recha zó</w>
raí z</w>
ra to</w>
pu ʼu
pa gar
nin kil</w>
naqan aw</w>
na tsʼ
kʼa moʼob</w>
kaʼan s</w>
kal tike</w>
jaʼa b
efec tos</w>
do te</w>
cu ad
compor tamiento</w>
bˈ ant</w>
an ïk</w>
ag resi
a ven
TA K</w>
LE V
Be eta
6 000</w>
xcho lik</w>
wih ʼik</w>
tyo x</w>
tend encia</w>
rutzeqel bʼëy</w>
refer ía</w>
polí ticas</w>
p il</w>
nax bânu</w>
lu ʼ</w>
kʼat q</w>
jacʼ ben</w>
is tán</w>
hu manas</w>
g ú
doctr ina</w>
chʼob ʼon</w>
chu paam</w>
bʼe ek</w>
aconte cimientos</w>
U r</w>
SA ʼ</w>
R aa
Qui enes</w>
N i</w>
Ka ʼan
Gu ine
ía eʼ</w>
xa xe</w>
x er
tsi ctesan</w>
taata tsiloʼob</w>
t óo
su i
satisfac er</w>
qʼa qʼ
pʼa t</w>
naʼa toʼob</w>
m ânk</w>
kʼanje lobʼaal</w>
kʼa maj</w>
k ej
jnuptan tik</w>
in sensa
in mere
hi jo
en d</w>
cß ame
cuer nos</w>
chu kˈab</w>
chi ʼob</w>
bʼ l</w>
bu yuk</w>
blan cos</w>
b ron
ayu das</w>
asegur arse</w>
angel oʼob</w>
T si
T ap
SERI E</w>
L TIK</w>
D U
Balu milale</w>
ACH KË</w>
A ca
Ö J</w>
yi loj</w>
y aʼan</w>
xi m</w>
tsʼaʼa bak</w>
sadu ce
qʼun an</w>
nave gación</w>
mi tad</w>
meyaj toʼon</w>
ma duros</w>
limpi ar</w>
kʼáaʼn á
kʼa bʼa
ke matz</w>
i kʼun</w>
hor no</w>
estuvi eran</w>
entr aron</w>
en ik</w>
efec tu
determin ar</w>
cab e</w>
c ro</w>
bauti cé</w>
ab ʼi
yu til</w>
xcaß cßâl</w>
un q</w>
stale lalik</w>
sali do</w>
sa có</w>
s jun</w>
s Na
ru yaʼon</w>
ru wech</w>
re lik</w>
razon ables</w>
por tun
obli gar
mi lar</w>
ky yolin</w>
ky nab
ki pal
faci lidad</w>
e fica
di as</w>
cäca ˈn</w>
cä mi
co oki
anc la</w>
Tz aj</w>
T bʼan
T QA
Cʼa jti
A WI
ñu mi</w>
v án
tz aluˈn</w>
toj ʼes
temp loe</w>
su stitu
segu ían</w>
r uni
r genes</w>
qʼuex tan</w>
quer u
q kyaqilx</w>
predi can</w>
n witze</w>
mal mente</w>
kʼiw labʼil</w>
jtun el</w>
jse tʼuk</w>
ja t</w>
im pac
físi cas</w>
ejemp lar</w>
com unes</w>
chaj p
bendeci rá</w>
ar mas</w>
W ar
Ta iw
QʼA LAJ
QʼALAJ SA
P RES
JATSʼU TS</w>
A z
19 18</w>
1, 9
ô queb</w>
yáan toʼon</w>
yal beik</w>
x mâc</w>
tukʼi lju</w>
re yoʼ</w>
produ ct</w>
par on</w>
op ciones</w>
lf fi</w>
ktz ajel</w>
jelu btasel</w>
emi ke</w>
disfru tamos</w>
cʼajti be</w>
cumple años</w>
be c</w>
bakʼin tik</w>
RO MANOS</w>
Qu ˈn</w>
Micha el</w>
Job eʼ</w>
Guine a</w>
Gobern anteoʼ</w>
Elia se</w>
Cor dero</w>
A lab
yi jñam</w>
yaʼte lik</w>
x qʼax
u sado</w>
tza ca</w>
tor no</w>
terri bles</w>
sáa si
olvi demos</w>
nuʼu ku
nu ʼuk</w>
ni qa
mun di
maa tan</w>
lími te</w>
ki säx</w>
extraordin ario</w>
cli ma</w>
chu kˈaˈ</w>
chqi j</w>
bu tike</w>
ba a
Sime ón</w>
Recor demos</w>
Ma di
J ini</w>
Al tísimo</w>
ʼu x</w>
ín ti
to có</w>
tijo xel</w>
tenqʼa hebʼ</w>
tak ik</w>
sa kil</w>
rej qalen</w>
recono cen</w>
na ye
na tz</w>
mo laj</w>
jni chʼnab
conf es
al tura</w>
YÉE TEL</w>
S BA
LI ʼE</w>
Ilustra ciones</w>
17 5</w>
úuchjea kiloʼ</w>
xkʼutbʼ esinkil</w>
vi vamos</w>
vi eja</w>
v re</w>
si ibal</w>
plan ta</w>
na we
luʼ sik</w>
lu b</w>
le o</w>
kii koʼob</w>
jto suk</w>
habi tación</w>
edu car</w>
e al</w>
con stante</w>
car pinter
bee ti
asi sten
amor osa</w>
Pri mero</w>
Is cari
FICI OS</w>
, 5
wu bin</w>
u se</w>
t esta
su ya</w>
q ya</w>
pos tura</w>
metzʼe w</w>
kki chomaj</w>
jaʼ me</w>
j tsop</w>
ez er</w>
der á</w>
demu estre</w>
cuan tos</w>
ch ino</w>
arri es
ama dos</w>
adorar koʼob</w>
TA A
So f</w>
S ober
LIP SIS</w>
Cristi anas</w>
A tzun</w>
ˈ j
éndo les</w>
é rica</w>
xku tan
x kße
tu ʼjina</w>
tijoxe lab</w>
skolta yel</w>
mu l
jte b</w>
investi gación</w>
inmere cida</w>
ichin an</w>
i hom</w>
f amo
ex plo
cr é
converti rse</w>
chʼo ne</w>
a tribu
R ÖJ</w>
Maj qui</w>
H U
y ânk</w>
xki yaʼ</w>
voʼo tike</w>
tz alij</w>
toj ʼesan</w>
sépti mo</w>
su uk
star t</w>
so t</w>
s tes</w>
s nuptan</w>
s nojptes
s mel</w>
qʼa t</w>
quin bij</w>
próxi mo</w>
pos esión</w>
kʼa xkʼo
kiko t</w>
j kʼa
habla remos</w>
gr aba
ec ß
des esper
con ci
chʼi ji
ch chʼay</w>
cambi a</w>
ani mad
Te ß
Sober ano</w>
P Í
Jac k</w>
F é
Bʼ in
Bo az</w>
A ni</w>
ʼn xix</w>
y bʼil</w>
we ˈy</w>
tzˈi ba
tuun tesel</w>
tu al</w>
tsʼo ok
tsi jiʼ</w>
tor men
tier ras</w>
sufri eron</w>
s kʼakʼal</w>
re ti
qi pumal</w>
q kʼujlabʼil</w>
pij tan</w>
pelícu las</w>
on etike</w>
ni vel</w>
nego cios</w>
me e
lleg ara</w>
ka r</w>
jun xi
j aʼal</w>
inten ciones</w>
enfren tan</w>
cʼʌ ñob</w>
bron ce</w>
binti c</w>
avoʼonton e</w>
a qʼuen
Kʼo xla</w>
Hac e</w>
Antigu o</w>
versi kulo</w>
uni lo</w>
stsa kik</w>
sa carle</w>
s chol</w>
ren cor</w>
pi xaʼ</w>
pensab an</w>
mol de
kke taʼmaj</w>
j be</w>
inten ta</w>
guer ra
diri gen</w>
chka kʼbetik</w>
cheʼox eb</w>
ba eʼ</w>
at re
apósta tas</w>
ane tziˈn</w>
aloqʼo qʼej</w>
ad es</w>
a soʼ</w>
Pre di
yaj can</w>
xkʼa ʼuxl</w>
xch ˈ
skʼan ojik</w>
sec und
queß xyîb</w>
on inquil</w>
ni ki
n kʼis</w>
kʼaa sil</w>
keʼ y
k bʼajel</w>
jóoʼ saʼal</w>
jun aj
jtale laltik</w>
ini ke</w>
incre í
gu stan</w>
dá di
chʼen xikin
Lâ ex</w>
CH Eʼ</w>
úni camente</w>
yoʼ en</w>
yajre xti
wab ʼj</w>
tz qibʼil</w>
súu tuk</w>
si cß
que daba</w>
qi ʼje</w>
ol ógi
o portun
ni quiben</w>
nar u
lo kʼik</w>
jchʼuun tik</w>
ent era</w>
enfren tó</w>
electróni cos</w>
dra gón</w>
dios oʼob</w>
demostr ando</w>
cojon elab</w>
chíik bes
cha like</w>
blan co</w>
az o
ar ru
TU LO</w>
Kʼ ÁA
Ku bʼ</w>
E bre
Agri pa</w>
xu ke</w>
xe ʼok</w>
t ʼik</w>
t Name</w>
si ib
resuci tados</w>
pesi iy</w>
mi rando</w>
majtan il</w>
llev ando</w>
li gente</w>
il le</w>
dis creto</w>
d S
cion etik</w>
ci na</w>
chʼʌm ʌ</w>
chi jetik</w>
chaj ariik</w>
bʼa la
banami le</w>
b tes</w>
J us
F O
3 3
xti be</w>
xcha pan</w>
x ïk</w>
x maak</w>
ux pʼejl</w>
tsi loʼobeʼ</w>
sama jel</w>
s kʼas
refle ja</w>
reali sta</w>
qu ʼjin</w>
profeti zó</w>
pro pesiiy</w>
pri vado</w>
n xi</w>
m ê
kʼaxkʼo lil</w>
ku kʼutu</w>
ju baˈ</w>
j naʼoj</w>
cˈ a
con fí
co sta</w>
chʼuju tesan</w>
bur go</w>
S ha
M al</w>
Inter ne
ʼn x</w>
xu wi</w>
x vul</w>
x tk
x ba
vide oetik</w>
ve cin
tza qˈ
tz olbʼal</w>
ttz i</w>
t qʼaj
suc eso</w>
qa wäch</w>
pʼa ʼa
ocurri do</w>
nupun ele</w>
ni ka
moti v
mayor do
maasi loʼ</w>
ma mos</w>
le hom</w>
la etik</w>
kʼox aj</w>
kʼanje laq</w>
ky il</w>
koj choman</w>
jujun al</w>
impres cin
imprescin di
hu milla
ern es</w>
enfren tamos</w>
edi ficios</w>
cono cí</w>
chani m</w>
ch abʼanaʼ</w>
ayudar ía</w>
Sina í</w>
S hi
Evangeli zadores</w>
E C
2 ,000</w>
ú m</w>
xa kab</w>
un el</w>
tsʼáaj oʼob</w>
tok lin</w>
t îc</w>
spa t
ru ego</w>
pun e</w>
publi có</w>
profecía ʼob</w>
po xta
pa do</w>
nuʼuk taʼal</w>
nekeʼ xkʼu
na kʼulmank</w>
kʼi lal</w>
kʼex el</w>
jo ch</w>
e ven
crí ticos</w>
cor responde</w>
con junto</w>
ar ran
ani man</w>
RESU MEN</w>
Ma a
Kʼe lik</w>
Esta ba</w>
1, 3
ñ aʼ</w>
yon il</w>
xáan chaj</w>
xta u</w>
xo qil</w>
xloqʼo ninkil</w>
ver los</w>
tsʼíib t</w>
tram pas</w>
suce dido</w>
o on</w>
maj li</w>
kʼu nuk</w>
kaʼani liʼ</w>
jtu untes
he ʼk</w>
chki ltike</w>
be ic</w>
archi vos</w>
al beik</w>
Yuum tsileʼ</w>
T aj
S ON
M il</w>
4 00</w>
19 50</w>
yuts kíin
yu waʼbʼej</w>
ván tate</w>
ver án</w>
ve ían</w>
ti bʼa</w>
tata bʼej</w>
ta eʼ</w>
suj mic</w>
sa ʼel</w>
naj il</w>
m ará</w>
kßax tesi</w>
kuʼun e</w>
jkolta ytik</w>
ino cente</w>
en cen
dob le</w>
di ría</w>
cuesti on
cristian dad</w>
Xu qujeʼ</w>
Ver sión</w>
Tqa tzʼetaʼ</w>
Taiw án</w>
N TEL</w>
MÁ A
I I</w>
, 6
úni cos</w>
ín te
ê riq</w>
yô quex</w>
xcha p</w>
vi du
v es
términ os</w>
tzßek tâna</w>
tsu b</w>
tati letik</w>
tab les</w>
me ʼ
manta letike</w>
llu via</w>
la xik</w>
ky aje</w>
ko mal</w>
kkib ʼano</w>
jal anil</w>
indi vidu
gu stó</w>
garan tía</w>
estab lecer</w>
determin ado</w>
cu tic</w>
chʼobʼ o</w>
bi deo</w>
ar resta
T er
SANTI L</w>
Ja aj
Arthu r</w>
, 7
ñ ob
y era</w>
we en
viol ento</w>
v oʼone</w>
tbʼincha ʼna</w>
na cuulac</w>
la qʼeʼ</w>
ky ˈ</w>
est ri
cor on
chʼi chʼe</w>
apren da</w>
T ʼA
M il
L ink</w>
E sa</w>
E dom</w>
ʼan i</w>
xo kaj</w>
x mo
tx al
ts taik</w>
taʼma xik</w>
tak el</w>
smu le</w>
sinago gas</w>
re o</w>
ra q
proteger á</w>
prome ti
pat ä
pa ʼ</w>
na kal
men su
m c</w>
la juj</w>
kʼaʼabéet chaj</w>
ilu str
escu chado</w>
ener gía</w>
empi e
cʼʌ b</w>
cä mic</w>
co lel</w>
cereb ro</w>
ca la
baj tʼ</w>
Rub én</w>
R onojel</w>
Lok ß
Ku kx</w>
Jaco bo</w>
G i
Do min
CH ʼ</w>
Bel sa
1, 7
ô b</w>
ß i</w>
xta q
wi cʼot</w>
vuel van</w>
tsʼoʼok besik</w>
ti x</w>
t kʼul
skolta yon</w>
signifi can</w>
sa haq</w>
pregun taba</w>
perten ec
oy eron</w>
o re
ma taron</w>
kʼiw laʼn</w>
ka pe
hi b</w>
gaba oni
espa cio</w>
es en</w>
eni man</w>
don ación</w>
des tino</w>
d res</w>
cʼʌ jñel</w>
cʼ ʌl</w>
convi erte</w>
chame m</w>
ayu dante</w>
apaci ble</w>
Z e
TZA Qʼ
TZ ʼ
So cie
Si ón</w>
Kʼa akʼa
yok jaʼ</w>
xem ana</w>
woco lic</w>
w enta
terr estre</w>
taʼa loʼ</w>
skʼe lik</w>
s ajiloʼ</w>
perman ente</w>
pan el</w>
maa ʼani</w>
ki ril</w>
juda etike</w>
imag ina</w>
fij émonos</w>
ermano e</w>
entien de</w>
corri endo</w>
consu lta</w>
To más</w>
P ix
Or gani
KY I
Ja ku
D EO</w>
CHU QUI</w>
Ajvali lale</w>
ñusa ñob</w>
xchaj p</w>
veje z</w>
tzqi ʼn</w>
ts an
ten a</w>
sto r</w>
sen ya
qʼuq li</w>
qʼa jel</w>
p inti
ma tajik</w>
kˈ ax</w>
kʼo ʼobeʼ</w>
ko mon
guar dia</w>
extra ñ
en as</w>
el es
diver sos</w>
cu ra</w>
con tamos</w>
come te</w>
bano m</w>
ba tkutik</w>
acti tudes</w>
V AN</w>
ON O
ES TE
Chi rix</w>
Ca min
CH ʼU
17 3</w>
15 1</w>
y än</w>
wíini keʼ</w>
tsʼij bu</w>
s j
religion oʼob</w>
qʼ ät</w>
pu wiˈ</w>
ora cion
o th
na mente</w>
mb as</w>
la ayu
l ʌ</w>
kʼo tuk</w>
ka m</w>
joʼop ʼol</w>
jolomin k</w>
j tsob</w>
exi stir</w>
esta n</w>
egoí sta</w>
avu tsʼ</w>
abund ante</w>
M oʼoj</w>
Kʼaʼabée t</w>
Cor al</w>
A dan</w>
A CIONES</w>
yóo leʼ</w>
xa ataw</w>
x na</w>
u w</w>
u tobʼanik</w>
tradu ctores</w>
tr á
sja kʼbe</w>
s tukʼil</w>
ru ma
pu q</w>
olo letike</w>
olo gía</w>
máan s</w>
maye ja</w>
li bal</w>
kanáan t</w>
jun aj</w>
ikʼ bʼil</w>
f ar
exi ge</w>
eli ke</w>
der i
comen zar</w>
co jix</w>
bi s</w>
ba tem</w>
ba sa</w>
al kyeqe</w>
abi j</w>
Tu ʼjil</w>
SA S</w>
R aja
Man chukme</w>
Le loʼ</w>
J KʼO
CA J</w>
C hab
Be tele</w>
1 22</w>
ü k</w>
áan taʼa
xt yaʼ</w>
x aja
ux lan
u el</w>
sincer as</w>
ser é</w>
sa che
qi lo</w>
pregun tarse</w>
padrenu estro</w>
nax qßue</w>
mej or
ma jij</w>
lu j
lo kˈolaj</w>
kʼajkʼa lel</w>
in em</w>
il bil</w>
esfuer za</w>
en aq</w>
ech aron</w>
distan cia</w>
de partamento</w>
d ro</w>
chakʼ beik</w>
arre pinti
Ni ger
H al
Fé lix</w>
Cu r
Ale jan
yaʼ lel</w>
yaabilaj oʼ</w>
xiʼ ya</w>
to ko
st ía</w>
si en</w>
qßue hoc</w>
papi ro</w>
oxlo qʼ</w>
nin k</w>
na c</w>
ministeri al</w>
maʼ anic</w>
l ló</w>
jkʼan betik</w>
inmen so</w>
il oʼoboʼ</w>
exac ta</w>
eb ook</w>
d ol
cono cida</w>
chaj il</w>
ch ro
cams îk</w>
am érica</w>
acep te</w>
VID E
RI O</w>
No pa</w>
J ojkʼo
I chil</w>
File món</w>
CA LIPSIS</w>
APO CALIPSIS</w>
yaan toʼon</w>
xyu waʼ</w>
xch ʼ
u lak</w>
tʼaan il</w>
tikʼ x</w>
smu lanik</w>
segui rá</w>
se pan</w>
sbaj tel
res pi
q wiʼ</w>
per dieron</w>
no vio</w>
mundi ales</w>
m emos</w>
lan el</w>
k kil</w>
junama taj</w>
ja tet</w>
i kʼot</w>
deci dimos</w>
ca ído</w>
bee teʼ</w>
a mu
Uni ver
M er
Kʼ e</w>
In forme</w>
CH ʼI
BENE FICIOS</w>
A ten
A quel</w>
z arse</w>
yi chʼ
yeʼesi k
xu j
wóo leʼex</w>
waʼa li
w ojéel
vali osos</w>
us cri
u vas</w>
tsʼíib ola
tsʼib abil</w>
sé ñ
rî tzßin</w>
rutz jol</w>
muri era</w>
maj ta
logr aron</w>
lek nax</w>
le jil</w>
laj inel</w>
kʼop ta
kʼa xki
ixo qibʼ</w>
isra elob</w>
histori ador</w>
gu err
escu ela
engend ró</w>
destru ida</w>
cub ri
ci dental</w>
chkal betik</w>
chi ch
car n
ak ˈ</w>
T in</w>
MA N</w>
Kʼaakʼa lehom</w>
HACER LO</w>
Gomor ra</w>
Eli ja</w>
Chi pre</w>
AN DO</w>
Ä J</w>
xiʼi pal</w>
un ció</w>
ta qˈ
sno poj</w>
sjabi lale</w>
seguer naj</w>
se milla</w>
res plan
re kʼa</w>
re cti
ra maj</w>
pe lo</w>
pali tsi
oj qan
naʼ l</w>
mu lij</w>
meʼi letik</w>
ma lil</w>
la v
kʼop on
jo ñonla</w>
j yan
honra dez</w>
d ándole</w>
consu ltar</w>
con fun
colab oradores</w>
ban amil</w>
b os
abandon ado</w>
Ti enen</w>
M os
Kʼ loj</w>
EJE MP
Cla u
AÑ O</w>
ólo go</w>
yu ßam</w>
xku ybʼal</w>
xi mane</w>
xco lelob</w>
tâ châlk</w>
tro pi
to dopoderoso</w>
t paj</w>
ru bʼiʼ</w>
ries go</w>
refer encias</w>
que dará</w>
pro s
prepar ación</w>
o lob</w>
náa ch</w>
n kowin</w>
mlay x</w>
kʼa mol
j vules</w>
impresion ante</w>
fo tos</w>
esta ción</w>
e tel</w>
der ri
cont estar</w>
cono ció</w>
computa dora</w>
bʼin chan</w>
bus có</w>
ba tike</w>
actu ó</w>
W O
UR L</w>
TA ʼ
PRINCIPI O</w>
Men cione</w>
FI CA</w>
Ch ʼi
8 0
7 7
5 9
yáan taʼaloʼob</w>
yon lel</w>
yo silal</w>
tê qßue</w>
tiklan bey</w>
sincer idad</w>
r te</w>
pelícu la</w>
kʼu ʼu
kyi j</w>
ki chʼ
ju sta</w>
jo ol</w>
ja q</w>
hospitala rios</w>
h in</w>
gratu i
gobern ará</w>
existi rá</w>
cʌ ñʌ
com on
colta yon</w>
chan e</w>
aumen tar</w>
Ri ta</w>
L ix</w>
Kʼaʼa j
Aqu í</w>
yu waʼ</w>
yeʼes il</w>
xka kʼbetik</w>
xakʼal xok
tí tulos</w>
tsʼook eʼ</w>
tri bun
trabaj a</w>
ter os</w>
su unaj</w>
si entes</w>
senti remos</w>
san o</w>
recibi rá</w>
q pakbʼan</w>
pó cri
pos esiones</w>
obedeci ó</w>
na mal</w>
mi tiʼ</w>
lu ke</w>
llen ó</w>
le yoʼob</w>
kaxti koʼob</w>
j pʼa
esco gió</w>
discerni miento</w>
dis posición</w>
comien zo</w>
al ʌ
a ku</w>
Y an
No q</w>
M B
FE LI
zar án</w>
ya la
xtik lajik</w>
xchʼa m</w>
veʼ lil</w>
tsikbal tikeʼex</w>
skʼu ʼ</w>
ral cˈual</w>
qa moloj</w>
perman ec
on ine</w>
oj i</w>
obst áculo</w>
obli gación</w>
kaja ʼan
in ïk</w>
edifi car</w>
bon ik</w>
aposto loʼob</w>
Y Ʌ
SO TROS</w>
S KʼAN</w>
NO SOTROS</w>
Cʼajti ya</w>
B at</w>
A pó
xkolta y
van eje</w>
to eʼ</w>
te or
sú b
sta mente</w>
sNa il</w>
s nopo
ri t</w>
ree talil</w>
ra d</w>
qui eb</w>
pi diendo</w>
pe ʼ
p t</w>
oʼ lol</w>
ox eb</w>
obede ce</w>
o fi
lúu b</w>
kʼáa tik
koʼonton kutik</w>
ke ß</w>
kan kil</w>
ka menaq</w>
jee tsʼel</w>
je t</w>
g encia</w>
encontr aba</w>
doc to
di éramos</w>
continú a</w>
ci ta</w>
ana ʼoj</w>
T z</w>
Sau le</w>
Ef eso
1 Te</w>
ʼn al</w>
tsʼo kaʼaniliʼ</w>
te yele</w>
tar la</w>
ta tʌlob</w>
su ʼu
se la</w>
sbajtel kʼinal</w>
ru kʼexel</w>
quix yîb</w>
q tzalaj</w>
pu ubʼ</w>
p íi
me lo
liter al</w>
le r</w>
jkʼakʼali ltike</w>
jela v</w>
j mil</w>
indi car</w>
guí e</w>
emi a</w>
de primi
chaʼan t</w>
bra ille</w>
ac ceder</w>
Y i
U STE
TI OS</w>
S TA
P EN
M úsica</w>
L an
JA S</w>
E le
199 9</w>
, 8
óola leʼ</w>
ya to</w>
xkße hil</w>
voʼo te</w>
us aron</w>
tijoxe labʼ</w>
skoto lik</w>
semana oʼ</w>
regres o</w>
qan aʼ</w>
pʼun taya</w>
naka a
naj til</w>
majta ñʌl</w>
m bʼal</w>
liber ación</w>
le yó</w>
kúu chil</w>
koʼo lta
ki kʼulmank</w>
junal x</w>
jma la
instru cción</w>
inclu ir</w>
go e</w>
entr a</w>
có lera</w>
con cep
cha wä</w>
c aji
bʼe e
akʼ bo</w>
ador aban</w>
JE OV
J TI
Dani ele</w>
CO RIN
Alb ania</w>
óol toʼob</w>
ñ al</w>
ä ch</w>
u lti
tz en</w>
t kʼwa
stale lale</w>
res is
ren o
qʼa laji
procla mar</w>
perman ece</w>
ocu lti
naka lik</w>
n ari
l le</w>
cu ʼun</w>
confli ctos</w>
ch bʼil</w>
apo n</w>
anunci ar</w>
ami ga</w>
O Y</w>
Mel el</w>
L es
Hebre ob</w>
yum ʌlob</w>
xkux et</w>
vide oe</w>
u ri
tzo lij</w>
tuʼu xoʼob</w>
too bʼ</w>
toko om</w>
spaso jik</w>
rí os</w>
regula ridad</w>
pʼiju btes
produ cen</w>
ob vio</w>
mem ente</w>
lam peʼ</w>
kʼamol bʼe</w>
in justos</w>
gra cia
gan da</w>
disfru tan</w>
deci rlo</w>
compren de</w>
com para</w>
ch cham</w>
aʼa lik
animar nos</w>
YA L</w>
No joch</w>
Imag in
Beeta ʼanoʼob</w>
yakʼ bon</w>
yajrexti kotak</w>
xchʼo o
xch ol
ven ían</w>
us emos</w>
tranqui la</w>
tkˈ u
snu p</w>
scʼo p
recuer dos</w>
pensa miento</w>
p ʼol
nor malmente</w>
meyaj naj
mencion ada</w>
ma yuc</w>
loʼi le</w>
kʼin ale</w>
kʼaʼay taʼal</w>
kkʼul mataj</w>
kiko jonik</w>
jun chajp</w>
in mun
h all
for mar
fer i
f a</w>
ex cu
des obedecer</w>
cor respon
cho lajem</w>
cha yaʼ</w>
car é</w>
car ros</w>
bey oʼob</w>
ayudar me</w>
ana w</w>
an h
acer carnos</w>
Steph en</w>
Pro medio</w>
Pe ter</w>
Kʼáat chiʼ</w>
Kʼ AN
Iscari ote</w>
H T
G n</w>
xkʼo jiʼ</w>
w 99</w>
tu min
to car</w>
ti xbânu</w>
tar ían</w>
ta lik</w>
sbi ile</w>
salv ará</w>
s ario</w>
ro man
ro jos</w>
preci samente</w>
pe ˈ</w>
ob lig
nu tzʼët</w>
lle ve</w>
kab ʼij</w>
jechu ke</w>
j yon
il baj
escu elas</w>
esca par</w>
e ˈ</w>
cʌlʌ x</w>
cu l</w>
comba tir</w>
chaj pʌ
c ano
aß aj</w>
asi mismo</w>
a tzunte</w>
Pix abʼ</w>
N aj
KʼA J</w>
Jun téenjea
C e
é sta</w>
xt â
xkʼa jol</w>
ven g
tí o
twu laq</w>
tor mento</w>
tkʼul manq</w>
tij bat</w>
tenqʼan q</w>
taasik toʼon</w>
spica cia</w>
saho ʼk</w>
s ʌntel</w>
q qanin</w>
llev arnos</w>
kʼ eʼ</w>
jóoʼ saʼ
justi fi
jtsa ktik</w>
específi co</w>
em per
ed or</w>
e char</w>
deci den</w>
ce lo
ale gre</w>
a kʼaslemal</w>
Tu ʼux</w>
OR ACIÓN</w>
Ni kʼ
Mar íaeʼ</w>
Magdal ena</w>
M is</w>
EST E</w>
Ch qi
AYU DA</w>
é tica</w>
xa xu</w>
wak lesi</w>
vi ejo</w>
uʼu yik
tt xo
tsʼʌcti yel</w>
tsi leʼex</w>
re di
qʼuele yob</w>
péek tsilil</w>
presen tan</w>
pi el</w>
meyaj tiʼob</w>
maj tʼan
libr oʼob</w>
kʼiin bes
kʼala luk</w>
kolta yot</w>
kiʼ tʼan
inacti vos</w>
hablar le</w>
gui ar</w>
fortalec en</w>
enseñ e</w>
consecu encia</w>
comon eb</w>
bási cas</w>
bee loʼ</w>
an sw
X JAL</w>
T qanil</w>
Re la
R CHË</w>
PER SON
Fo to</w>
E m
yuts lel</w>
yeʼes oʼob</w>
v une</w>
ts nuptan
tin bânu</w>
teʼ xbʼaanu</w>
tbʼinch bʼen</w>
tama ño</w>
skʼo ʼn</w>
s chʼa
re taʼmaxik</w>
qʼon te</w>
qan aʼlebʼ</w>
pare cidas</w>
o ˈ
nope le</w>
j yalel</w>
j meʼ</w>
imagin ar</w>
i kʼa
diver siones</w>
dios boʼo
cuan quilal</w>
chix tojbal</w>
ch u</w>
bʼan yo
al tos</w>
acep taron</w>
a prueba</w>
a keb</w>
Tsʼ áa</w>
Raa tinankil</w>
Nikʼ wach</w>
LI B
Kri ist</w>
ë l</w>
xchʼoo lebʼ</w>
vesti do</w>
uni do</w>
tzʼi bʼa
tr aj
tak l
satisf echos</w>
sama ʼn</w>
s preva
ru man</w>
ru discípulos</w>
qßui al</w>
pʼa taj</w>
pro viene</w>
nar a
lla mente</w>
l c</w>
kʼaʼa mal</w>
koʼo leloʼ</w>
kix kʼutbʼesi</w>
jtsʼi baj
for mó</w>
expres ó</w>
ele cción</w>
da me</w>
contr aj
chʼi jy
chka kʼ
chix kʼatq</w>
ch ʼij</w>
ayudar te</w>
ar taʼal</w>
an z
Sof on
Socie ty</w>
S us
Mo z
B et</w>
ʼi le</w>
xaʼi beik</w>
xa pon</w>
x bʼe</w>
v arón</w>
tsʼíib taʼal</w>
ticʼ l
tal oʼoboʼ</w>
si ma</w>
s yent</w>
os pi
ky kˈu
jal uk</w>
h echa</w>
escen a</w>
dS hor
co ordin
bʼincha ʼne</w>
bondad oso</w>
benefici an</w>
añ on</w>
a tojol</w>
WA CH</w>
Tsob obba
Q IL</w>
PASA DO</w>
J ab
E M</w>
A li
óol taj</w>
ñob la</w>
yal beyik</w>
xnum sinkil</w>
viaj es</w>
tz ma</w>
tranqui lo</w>
terremo to</w>
te la</w>
reuni ó</w>
respe tan</w>
ren di
pu l</w>
or al</w>
o ʼtan</w>
like mik</w>
le en</w>
kʼajo mal</w>
jun tas</w>
jni t
iwi b</w>
i jul</w>
exper to</w>
cu rar</w>
conver tido</w>
cau sado</w>
a qʼuen</w>
X CɅNTESA</w>
T ak</w>
SIG NI
SI EMP
SIEMP RE</w>
Ju i
Im perio</w>
Efeso iloʼob</w>
Ch aʼan</w>
CON VER
1 13</w>
yoli na</w>
yo mob</w>
yamigo tak</w>
xa t
tâ canâk</w>
tsʼoʼok bes
sma koj</w>
rebel des</w>
ob r
nim san</w>
maʼ yu
lo g
labʼi xel</w>
la ra</w>
la heb</w>
jchʼu no
ja ta
j chʼay</w>
in justo</w>
enfren tar</w>
e tzelal</w>
cʌy tʌl</w>
cabal los</w>
b ril
awa chi
ama ban</w>
a zar</w>
X jel</w>
S oy</w>
PRE N
J IL</w>
F lo
C Λ
Apo k</w>
A chʼ</w>
yab tele</w>
xo pan</w>
ven tan
v oʼob</w>
u familia</w>
tâ ye</w>
tr ajo</w>
tk ab
t ʼol</w>
su mla
sma lale</w>
s wokol</w>
ru kˈaˈ</w>
reaccion ar</w>
qʼe ʼn</w>
pi c</w>
per ver
na tzjoj</w>
mu darse</w>
m y</w>
kʼin ik</w>
kʼi ke</w>
jo ʼn</w>
j pisiltik</w>
i wiˈ</w>
e tal</w>
dele i
cˈu x</w>
car los</w>
bʼ resinkil</w>
beet bil</w>
bee toʼoboʼ</w>
baʼalche ʼob</w>
ar co</w>
anun cio</w>
adver tencias</w>
Ta ksaj</w>
Sob re</w>
Pu erto</w>
Mu sik</w>
Mi ca
Is ma
5 7
ʼo jbʼal</w>
yʌqʼue ñob</w>
yoto choʼob</w>
yabte like</w>
xkib ʼij</w>
u tsʼ
tzˈ u
tatx tenqʼa</w>
súb ditos</w>
su tes</w>
s es
regres aron</w>
re ún
profun di
paala leʼ</w>
naqa kʼe</w>
kˈ at
kaʼan si
ji mb
f ib
demostr arle</w>
consider an</w>
consider aba</w>
chʌ me
bʼ ini
avi ón</w>
ar gu
Sofon ías</w>
Q asi
K in
Belsa sar</w>
ñʌchʼ tan</w>
Á N</w>
x kuxlejale</w>
wi ˈja</w>
so ke</w>
se bʼ</w>
sa chi
s familia</w>
perdon e</w>
nacion ales</w>
na koʼob</w>
mintiʼ xix</w>
ma t
kaj tz</w>
invisi ble</w>
glori fi
consider ado</w>
consi ste</w>
chab ʼij</w>
bun kutik</w>
at taq</w>
Tra ct</w>
Por tu
Mar y</w>
yutsi lal</w>
yaan ten</w>
xkʼo jo
w áan
vun etike</w>
venta uk</w>
tu m</w>
ter na</w>
ten k</w>
símbo lo</w>
r âtin</w>
qʼon ka</w>
pa t</w>
nekeʼ xnaw</w>
naß aj</w>
n y</w>
mon el</w>
mi endo</w>
ma y</w>
kˈ wal</w>
jo ven
fo to
e h
du l
destru irá</w>
desta có</w>
des vi
dar emos</w>
culp ables</w>
ctesʌ bentel</w>
ci ma</w>
chʼúu pal</w>
ba s
ba ch</w>
aj bʼel</w>
ab oʼ</w>
VIV LI
Ori ente</w>
No ta</w>
L on
D AS</w>
Ch pan</w>
Ale xan
19 58</w>
ʼo q</w>
yo kol</w>
xi u</w>
u si</w>
tuk el</w>
trabaj ador</w>
tqʼaj qʼajel</w>
sjakʼo bil</w>
rom per</w>
rachi ʼil</w>
qui cam</w>
qa kʼux</w>
prob ó</w>
pejca ñob</w>
líiʼ saj</w>
la bios</w>
jun tiqui
jkʼo pon</w>
inquie tudes</w>
ho mb
hacer les</w>
es pal
des acti
decla ración</w>
deci da</w>
cˈu aj</w>
câ mc</w>
bre vemente</w>
bee leʼ</w>
b r
apren den</w>
ante pasados</w>
answ er</w>
STO RIA</w>
Pue des</w>
P an
NU EV
Ma da
HI STORIA</w>
Aʼ YE
yu jti
yeʼesi ktoʼon</w>
x saʼ</w>
x kalbetik</w>
wu laj</w>
wi ck</w>
w0 3</w>
tu c</w>
tri a</w>
te e
sto j</w>
sob tes
s kʼab</w>
ru x
qʼa xinaq</w>
por tu
kˈa lajin</w>
kʼe hok</w>
kʼaʼa m
ju kubʼ</w>
jimb ʌ</w>
entrega do</w>
comuni carse</w>
cams îc</w>
ban dera</w>
To das</w>
T kyaqil</w>
Si quem</w>
S ES</w>
Qasi kʼaq</w>
Q ʼij</w>
JÉE O
200 7</w>
â cuiqßuin</w>
ÍCU LO</w>
xu cʼ
xo jo
x be</w>
ttxo lil</w>
tsʼu ʼu
tale lil</w>
sjo kin
secre tario</w>
qʼu ejlel</w>
pʼuʼu jul</w>
pu j
priori dad</w>
pres os</w>
oculti smo</w>
obje tos</w>
novi a</w>
na yaʼ</w>
mari do</w>
man tenemos</w>
lokʼol kʼop</w>
lik oʼobeʼ</w>
lib re
kʼas kúun
ko e</w>
keʼe tel</w>
k bil</w>
jkʼo po
jich nix</w>
in stante</w>
emp o</w>
embara zada</w>
e ß
demoni o</w>
ch kʼotik</w>
bar cos</w>
aʼte jik</w>
aʼ yel</w>
amo n</w>
F ine
Cre es</w>
AR T
ü p</w>
yin am</w>
x ec
war al</w>
voʼn eal</w>
u ineb</w>
tun ïk</w>
tse ʼel
ts kʼelik</w>
ti camente</w>
tata ˈ</w>
tale liletik</w>
s á
ro sas</w>
qan inxa</w>
prote gió</w>
predi ca</w>
os eʼ</w>
olo letik</w>
kʼex pajal</w>
kʼaʼan aʼan
im perio</w>
cic lo</w>
chʼaʼi koʼob</w>
aati nobʼaal</w>
Tsʼi betik</w>
Ta m
Su premo</w>
Lu k</w>
Lo kˈolaj</w>
yujti bal</w>
ver siones</w>
u qʼabʼ</w>
tsʼaʼ le
t qʼuqbʼaʼn</w>
ru qʼ</w>
regi onal</w>
qʼo l</w>
q onojel</w>
q oni
nu kʼaslemal</w>
máa kalmáak</w>
la das</w>
kʼi xkʼo
i paj</w>
go z
dur ó</w>
cʼʌ yob</w>
bi saʼal</w>
a kʼop
a fri
SIGNI FICA</w>
O J
L ac</w>
Ej érci
Dar ío</w>
Cʼ ʌ
yu l</w>
yo ts
yik ta</w>
y uni</w>
xlo qʼal</w>
xchi ʼil</w>
we y</w>
vuel tas</w>
upatan elabʼ</w>
tbʼ et</w>
sorpren de</w>
s kʼajkʼalel</w>
resu lte</w>
pʼáa tak</w>
pʼiju btesel</w>
posi tivas</w>
nekeʼ xkʼoxla</w>
naj ter</w>
mel beñob</w>
mar ch
maj li
kaw resi</w>
jtuuntes tik</w>
j áa
hi ri
gri tó</w>
esta bilidad</w>
di aria</w>
an on</w>
Tho mas</w>
RE IN
Mejo re</w>
Cha aj</w>
6 ,000</w>
óol t</w>
yu ʼel</w>
yaan tiʼ</w>
xuʼul saʼa
xlo k</w>
xaval be</w>
x tun</w>
váli do</w>
ven drán</w>
ven cido</w>
transfu siones</w>
ta lla
sv e
ra di
qʼoro q</w>
premi o</w>
pien sen</w>
periódi co</w>
perdon ado</w>
pati o</w>
p lí
mʌ c
mo tiva</w>
mis os</w>
m ä
koʼonton e</w>
exhor tación</w>
desta car</w>
deb o</w>
conven i
caden a</w>
ay un
asegur arnos</w>
aposto loʼoboʼ</w>
agrade cer
a qʼue
a fuera</w>
PA S</w>
Niger ia</w>
Mada gas
Lin da</w>
Haz te</w>
CONVER SA
CA R
C ol
B ran
14 4,000</w>
ʼan ik</w>
yook o</w>
xt bʼanatäj</w>
wi iʼ</w>
we h</w>
vide ooʼ</w>
ubʼan tajik</w>
u Tzij</w>
tʼan ik</w>
tqa kʼe</w>
ter son</w>
su ba</w>
so e</w>
skʼelo biltak</w>
se millas</w>
s ando</w>
re un
qui la</w>
prepar arnos</w>
oj be</w>
mostr ando</w>
loʼi letik</w>
le che</w>
jun lo</w>
j po
graba ciones</w>
fu mar</w>
espiri tismo</w>
esco gidos</w>
enten día</w>
cu la</w>
asig n
albil kʼop</w>
P reg
Moz ambi
Madi án</w>
FAMI LIA</w>
ART ÍCULO</w>
A M</w>
xuu loʼ</w>
xi ik</w>
x mu
vol ví</w>
teß cuânk</w>
tak anic</w>
ta yob</w>
t sub
tsub tas</w>
su a
skʼop ik</w>
samaritan o</w>
ri da</w>
nu tri
mostr arles</w>
mencion ar</w>
me lo</w>
len e</w>
iwu qˈui</w>
infor mes</w>
cß abaß</w>
cul turas</w>
cu xul</w>
co cß</w>
cho ple
ca usar</w>
c entes</w>
bah lu
ayu daba</w>
ap én
ale j
ajwa liletik</w>
JCH AN
yu umil</w>
ya v</w>
xku jch</w>
xcho lel</w>
u laʼ
tan qʼi
taja yob</w>
t ʌ</w>
sja kʼ
segu í</w>
s jajchibal</w>
ru ch</w>
num si</w>
máa kaʼ</w>
moti vó</w>
llama ban</w>
lan za</w>
kyi ˈj</w>
inicu o</w>
chʼi c</w>
chaj oʼob</w>
beteli tas</w>
ayu damos</w>
asisten tes</w>
ar c
Tsʼíib oʼob</w>
S ko
P al
NA X
N ar
Lo qʼalaj</w>
Jeremi as</w>
Asamb le
óox túul</w>
wuʼu yik
utili zando</w>
túu lal</w>
tukʼi la</w>
tewchi bʼal</w>
si milar</w>
servi do</w>
scʼop lal</w>
qa taman</w>
pʼa t
públi cos</w>
pâ ban</w>
prove ch
p ʼ</w>
mula ñob</w>
leg ales</w>
ke ʼok</w>
j kʼupin</w>
i cʼ</w>
g resi
cß a
chʼo yol</w>
at han</w>
am á</w>
albe yaik</w>
Jeho i
J TA
J O</w>
Bu chʼutik</w>
Babiloni ae</w>
Aß aneb</w>
19 43</w>
1 18
yaj ñelob</w>
xʼa l
wini ke</w>
tén ganse</w>
tsʼa ʼan
to ro</w>
tku bʼaj</w>
se ba</w>
s un</w>
re confor
prácti co</w>
prue be</w>
pon ían</w>
mani fi
maj lelob</w>
m pʼejl</w>
kʼixkʼo j</w>
koj kun</w>
kix kʼut</w>
jy q</w>
inten tar</w>
i za</w>
hab ido</w>
fortale cerá</w>
f il</w>
e paj</w>
car gas</w>
bʼe yom
beet kiʼ</w>
apli caciones</w>
ale le</w>
VIVLI AE</w>
Si dón</w>
SUJ TI
Oli vos</w>
O BTE
Le yoʼ</w>
L ine</w>
Kʼaʼa y
ʼa bʼin
úuchjea kileʼ</w>
yajtsʼaklom take</w>
xqa tzol</w>
xchan beik</w>
tzʼa lam</w>
tij en</w>
ta jic</w>
senci llamente</w>
predi cho</w>
po kon
pen dientes</w>
pe dí</w>
ojéel tbil</w>
na kʼanjelak</w>
mo difi
man uscri
ma duro</w>
libro aʼ</w>
l tes
ky pon</w>
itz ʼj</w>
identifi car</w>
hi pócri
hacer me</w>
f ama</w>
expe cta
egoí stas</w>
cui dará</w>
bʼa an</w>
az u
Te kʼuriʼ</w>
Taa taoʼ</w>
Preg ún
PA Í
No ee</w>
Nab ot</w>
Co me</w>
2, 9
1 16
ʼe xiʼ</w>
últi mas</w>
x nop
vuel ven</w>
to mando</w>
t ʼun
t û
sto r
qachʼa wem</w>
proyec tos</w>
po str
pi lan</w>
máan saj</w>
mb ˈil</w>
mb en
man tienen</w>
loqʼo qʼ
kyo j
ko m
keʼ xye</w>
ka manik</w>
ka chomaj</w>
ju cu
je m</w>
i laj</w>
hal lar
du dar</w>
cre o</w>
co c</w>
car me</w>
bal oʼoboʼ</w>
auto móvil</w>
a ʼoboʼ</w>
XNAQʼTZ BʼIL</w>
V en</w>
Tsi ctesʌbentel</w>
TI CO</w>
Ro jo</w>
PA CI
Na tan
K o</w>
Jui cio</w>
Jaku pe</w>
Dem u
BA ʼ</w>
ˈ aj</w>
yâ bac</w>
xiib oʼob</w>
x eb
x comoneb</w>
wuʼuyik aba</w>
wu q</w>
wa ʼn</w>
ux labʼal</w>
twutz xix</w>
to jil</w>
tia ʼanoʼob</w>
tanqʼi bʼila</w>
sobres ali
ru s</w>
ro sos</w>
re za</w>
prohibi do</w>
pla ga</w>
oni ke</w>
má quina</w>
moti vación</w>
len tel</w>
lab el</w>
ku xa</w>
kin u
jaʼ e</w>
j pʼiji
gu es</w>
es ku
cʼa cʼal</w>
conven ció</w>
chi l
che ʼic</w>
chano p</w>
cal o
bʼeyom äl</w>
bʌ l
bendeci do</w>
be lle
aye ˈ</w>
anje letik</w>
an aʼ
acu îmk</w>
a li</w>
Yo tlel</w>
Segu ro</w>
Pi en
OR A</w>
Man ta
CONVERSA CIÓN</w>
Abiga il</w>
A ʼAL</w>
A M
1 40</w>
yaj nile</w>
ya tok</w>
us aban</w>
tzaqˈ win</w>
tuk likoʼobeʼ</w>
tsʼi b</w>
teß xbânu</w>
sj j</w>
sabi a</w>
princip almente</w>
pas kʼope</w>
necesi tas</w>
na zar
na xnau</w>
n ïm</w>
n kinaʼ</w>
n bʼan</w>
medi o
le je</w>
jchʼu noj
ja yib</w>
invi tamos</w>
inten te</w>
familia oʼ</w>
ex pi
er les</w>
cuenta il</w>
can ab
ac ʼ</w>
Ton y</w>
Que bec</w>
Ki ʼi
Ja el</w>
Isma el</w>
DA TOS</w>
ñu me
í ses</w>
yan ta
wi ch</w>
tenami teb</w>
slokʼ es</w>
relacion ado</w>
nup un</w>
nqa yin</w>
minis tra
meyaj il</w>
maltyo xij</w>
kab il</w>
ka laltike</w>
ir é</w>
gobiern e</w>
câ hib</w>
cui x</w>
comi té</w>
bauti s
anu al</w>
anali za</w>
acu dir</w>
X JU
UN I
San tas</w>
SUJTI B</w>
Pa íses</w>
J nop
I k</w>
Ad ane</w>
A LES</w>
ñaʼ tʌntel</w>
y onal</w>
xáan taleʼ</w>
xu x</w>
w bˈaj</w>
v ara</w>
titu lado</w>
ti jan</w>
tenqʼan kil</w>
reali zó</w>
kʼuh bʼaal</w>
ko ʼn
kix e</w>
kaʼansaj oʼob</w>
jmo juk</w>
inmen sa</w>
grie gos</w>
empe zamos</w>
ejemp lares</w>
científi co</w>
ata mente</w>
aku lal</w>
a el</w>
S ER
Lo kˈalaj</w>
I LI</w>
CORIN TIOS</w>
zi lla
yaʼalaʼa leʼ</w>
xnaß aj</w>
xkʼu tbʼal</w>
wʌ le</w>
wíini koʼ</w>
win aq
w2 20
val u
tsʼíib taʼan</w>
trabaj aba</w>
to li
superintend ente
son ik</w>
ser vían</w>
ser vía</w>
rixa qil</w>
ra ma</w>
q animaʼ</w>
ov eja</w>
oj tike</w>
la rio</w>
l lanto</w>
k oʼox</w>
j b</w>
in feri
gu era</w>
concentra ción</w>
cla ras</w>
chʼa ʼa</w>
chaʼan tik</w>
c le
bʌcʼ ñ
bebi da</w>
awi chʼ</w>
atra ves
anin aq</w>
acab aba</w>
R Á</w>
PREGUN TA</w>
KO LTA
En contr
Apren damos</w>
ú a</w>
ê yânk</w>
yuʼubi luba</w>
yan e</w>
y n
xóo tʼol</w>
xu ban</w>
w b
vo ces</w>
tzßî banbil</w>
ti qʼoroq</w>
taa kchaj</w>
sma lal</w>
ru bʼi
re ino
qab ʼan</w>
pod rás</w>
ojtik in
nqa täj</w>
nawaj oʼ</w>
na cer</w>
l tas</w>
ku mal</w>
junxi chaq</w>
jun ta
jon tol</w>
ji komal</w>
ja xto</w>
imprescindi ble</w>
eje tike</w>
cooki es</w>
che ˈ</w>
chaʼkux aj
cat ólica</w>
c un
bʼ yoʼn</w>
bien venida</w>
bey xan</w>
arc ángel</w>
apa se</w>
anje letike</w>
X CHIʼU
V amos</w>
TI JON
S EN
NI M</w>
N ajil</w>
Ha i
2 50</w>
ʼe lik</w>
yo ñob</w>
yaa chaj</w>
xch ßu
u taqanik</w>
tuuku lil</w>
ta mab</w>
t t</w>
smi yonal</w>
s chajpan
razon ar</w>
pa kʼ</w>
m oʼoboʼ</w>
lʌcʼ ʌl</w>
lan k</w>
l una</w>
kßax tes
jkʼup intik</w>
j mel</w>
in u
epi demi
end ario</w>
ech as</w>
diose tik</w>
deci rles</w>
chʼul na</w>
chkal tike</w>
ch vul</w>
ca usan</w>
blas f
bi saʼa
apén dice</w>
am eʼ</w>
Y AN</w>
XCHIʼU K</w>
W a
ME JLEL</w>
Ken ia</w>
Jaaj kun
Ja mes</w>
IN FOR
Ch ʼa
ándo me</w>
ya lan</w>
xya alalil</w>
xy â
xkʼa mbʼal</w>
w 00</w>
va yel</w>
us aba</w>
tem en</w>
smo ton</w>
sluma lik</w>
se x</w>
sbe kʼtal</w>
respon diendo</w>
que dar</w>
pre fier
posi tivos</w>
peti ciones</w>
mu c</w>
mostr aron</w>
min kil</w>
me za</w>
majtʼan il</w>
m estaj</w>
llegar ía</w>
l ones</w>
kˈat bel</w>
káaj baloʼ</w>
i qʼ</w>
fir meza</w>
enseñ arle</w>
chu u
c ese</w>
avoʼn ton</w>
RI ʼ</w>
Ency clopedia</w>
BʼAN IK</w>
én donos</w>
Í n
ye kˈ
xtenqʼan kil</w>
x molam</w>
tsʼi bael</w>
tsik baleʼ</w>
tar t</w>
rab ʼi</w>
qʼi bʼile</w>
pij t</w>
pe ces</w>
n tzaj</w>
much ʼuk
modes to</w>
kʼuu xil</w>
kʼusi uk</w>
kan al</w>
k äm</w>
f abri
entre gar</w>
dej aba</w>
de le</w>
consi gue</w>
confi emos</w>
con sci
ch äp</w>
bʼtesi ik</w>
bi xic</w>
U rías</w>
T ran
S é</w>
Pab l</w>
ü n</w>
ya ketal</w>
xri lo</w>
xkʼu lu
ti saj</w>
ter rá
ses enta</w>
saj tel</w>
rein os</w>
recomien da</w>
pʼ ej</w>
priori dades</w>
o la</w>
nin nau</w>
múuchʼu liloʼoboʼ</w>
mé lec</w>
kʼáa teʼ</w>
kux inel</w>
k koj</w>
jkʼop laltik</w>
ji ß</w>
g ían</w>
enseñ aron</w>
dne go</w>
conta gi
chal beik</w>
bʼinch bʼen</w>
ba yalxan</w>
Ri co</w>
PU ESTA</w>
K nor
H emos</w>
Ejérci tos</w>
Abe dnego</w>
Ä N</w>
ya ʼom</w>
xnaqˈtz bˈin</w>
xcha m</w>
tkan et</w>
tale ʼex</w>
ta cto</w>
ta bʼal</w>
t kʼwaʼl</w>
soltaro etik</w>
s aron</w>
ru kßeb</w>
reuni eron</w>
r ara</w>
por ke</w>
po o
pa tan</w>
ora sion
oni b</w>
ju jumpʼéel</w>
jaaj tak</w>
hab rían</w>
gol pe</w>
esper aban</w>
des empeñ
c y</w>
baʼal kúun
aten der
abte lale</w>
POR TADA</w>
PAÍ S</w>
Ebre os</w>
óli cas</w>
y äk</w>
xki ya</w>
xbʼeen wa</w>
wu ˈn</w>
wi ʼ
we taman</w>
tra diciones</w>
ton ela
tbʼan elxix</w>
soldado etik</w>
snop ben</w>
sirku ito</w>
si ble</w>
ro e</w>
represen tantes</w>
qʼaman xa</w>
q äl</w>
patri arca</w>
núu kaj</w>
máan ak</w>
laja lic</w>
kal be</w>
jtakbo letike</w>
jich me</w>
configu ración</w>
celeb ración</w>
bi kʼtal</w>
acti vo</w>
Xe wbˈaj</w>
XJU ʼ</w>
Uni do
Te en</w>
O P
Bri tan
A la
8 8
ö p</w>
á i</w>
yaʼa le</w>
xle kub</w>
x rajoʼ</w>
tuk laʼal</w>
ti ik</w>
sí n
sutqʼi ik</w>
stʼu j</w>
san ta</w>
ru bʼini
rubʼini ʼan</w>
recha zan</w>
r or</w>
qui qßueheß</w>
pro vin
predi caba</w>
náa ch
nu b</w>
naʼa taʼal</w>
naʼ bʼej</w>
ma ltik</w>
l lan
kyu kʼe</w>
ki kamk</w>
h l</w>
gabaoni tas</w>
fij ó</w>
ex cla
empie zan</w>
em pres
des pi
dej ando</w>
cßul bal</w>
cono zca</w>
chʼaʼa chiʼi
aqʼun an</w>
angel oʼoboʼ</w>
TS ʼ
S naʼo
Qui ere</w>
PAR TE</w>
H E</w>
De tenga</w>
BʼA N</w>
1, 6
yaʼa lil</w>
x ker
wée t</w>
upatan exik</w>
tê lom</w>
tuk loʼob</w>
tom emos</w>
to ˈ</w>
sur gen</w>
sluma like</w>
ru wujil</w>
re cto</w>
r d</w>
qʼui ñi
qʼax tesi</w>
quix ol</w>
par ejas</w>
paala loʼobeʼ</w>
op ti
ojtik inbil</w>
ocur rir</w>
nîn kal</w>
nicˈ atzin</w>
mâ jiß</w>
kʼup inik</w>
kyu ʼne</w>
ko ʼ
kipal tik</w>
ka choch</w>
extranj eros</w>
divor cio</w>
desanima dos</w>
con tienen</w>
comen tó</w>
che bʼe</w>
bʼano bʼäl</w>
bú s</w>
awa kʼ
avoʼn tonic</w>
ama j
ala r
ad oramos</w>
X ban</w>
UTI AʼAL</w>
Nu estros</w>
M BRE</w>
J on</w>
H ab</w>
Es co
Cha wilaʼ</w>
BE YA</w>
ẍ e</w>
yʌ quel</w>
yojée ltik</w>
xojtik inik</w>
xch e
wabʼ äl</w>
to tik</w>
taba co</w>
t tzalaj</w>
suce der</w>
servi dores</w>
regu larmente</w>
qʼa n</w>
qi taj</w>
pi s
pa cßal</w>
ofici na</w>
ob s
múuchʼu liloʼob</w>
mo e</w>
mej lelob</w>
mar cadores</w>
lu j</w>
kʼane lale</w>
kya mi
kix tzjon</w>
jue gos</w>
judí ojob</w>
j sa
hermo sas</w>
h em
f ías</w>
ex el</w>
empe zado</w>
curi osidad</w>
compar ó</w>
co le
chʼʌ mob</w>
chkolta atik</w>
chchanubta svan</w>
chch abi</w>
bi lic</w>
actú e</w>
War wick</w>
U no</w>
Tap eʼ</w>
N TIK</w>
Mois eseʼ</w>
Chri sti
1, 5
yʌ qʼuen
ye chi
ya w
wu kʼile</w>
taʼa j</w>
sali da</w>
ro ri
rastre adores</w>
qui ril</w>
qa kʼaʼuxl</w>
pu wiʼ</w>
pre juicio</w>
mi ca</w>
llen ar</w>
laje letik</w>
kamigo tak
g áis</w>
estudi amos</w>
e eʼ</w>
disipul oʼoboʼ</w>
dej es</w>
da ciones</w>
con tarles</w>
cho q</w>
ca migo
bi o</w>
ambi a</w>
akʼo xla</w>
ajvali laj</w>
USTE D</w>
U s</w>
Q E
NI DO</w>
Mozambi que</w>
K yu
E xa
C â
BÍBLI CAS</w>
yi leʼ</w>
y eran</w>
xnaqʼtz ana</w>
x tojo
x tenqʼa</w>
wä x</w>
wa chin</w>
termin a</w>
t qʼoj</w>
t bʼis</w>
ru wächulew</w>
pelig rosa</w>
pej ca</w>
pe día</w>
ltaʼa k</w>
kʼas tal</w>
ke bʼe</w>
kasti go</w>
j le
is la
in forma
grati s</w>
gi da</w>
ga le</w>
cono zcamos</w>
chame letik</w>
cha wach</w>
ch riʼ</w>
ch quixol</w>
ch kʼopo
ber t</w>
b ʌl</w>
anje lac</w>
VER DAD</w>
Signifi cado</w>
On é
Kaj val
Dio seb</w>
Chaj inel</w>
Abra ane</w>
A ʼan</w>
ñʌ cʼʌl</w>
áal kab</w>
ye ˈ
yakʼ bat</w>
w éetel</w>
tzʼaqa t</w>
tzacaê mk</w>
t ki
suger encia</w>
su kʼu
so s
ri s</w>
qaj unilo</w>
pa h
o kʼo
necesi ten</w>
mad res</w>
le ones</w>
kʼaʼabéet toʼon</w>
kux aʼan</w>
ku kʼam</w>
k áal
inmedi atamente</w>
in cul
he kß</w>
hal la</w>
ha z
descub rió</w>
da ción</w>
cre encia</w>
chal q</w>
ch chikin
caí da</w>
ba sura</w>
alcan zar
agra dan</w>
U tzij</w>
Samu ele</w>
Ru b</w>
Ma me</w>
K ir
EN CIA</w>
E lí
AʼYE JU</w>
2 Pe</w>
1 15
ó set</w>
ê n</w>
yo ˈn</w>
xcha qʼrabʼ</w>
xa ta</w>
x jolom</w>
wach bʼal</w>
tâcu ulak</w>
tzˈ ok</w>
trans por
tra ten</w>
tini eb
tinieb las</w>
ti ne
sme ʼe</w>
respe ta</w>
ra k</w>
péek sik</w>
pá jar
oʼkx ju</w>
num taj
nraj oˈ</w>
nojo ch
mo kon</w>
maʼyu kix</w>
kanáan taʼal</w>
kab ˈ
ja te</w>
expul sión</w>
ejer ce</w>
distin to</w>
dedi can</w>
chki xoʼl</w>
ch laʼ</w>
celeb ran</w>
bal tik</w>
alʌ la</w>
aj un</w>
aj kʼabal</w>
aco sta
Sof ía</w>
Recuer da</w>
Me fib
I gu
CH RI
úu choʼ</w>
yoʼ laak</w>
yojée ltaj</w>
yaʼ ʌch</w>
ya like</w>
xakʼal xook</w>
x yo
x qßuebal</w>
winaq i</w>
wan ko</w>
vi entre</w>
v á</w>
su tel</w>
rê kaj</w>
reve lan</w>
qu kʼ</w>
mi so</w>
mayordo mo</w>
llev ará</w>
li que</w>
li ne</w>
kax taj</w>
jo k</w>
g ales</w>
fir memente</w>
ej eʼ</w>
e tío
docu mento</w>
di estra</w>
di chos</w>
dedi có</w>
debi lidad</w>
de volver
dShor tName</w>
cä ka
corre ctamente</w>
co stó</w>
chʼaʼa pach
chex ʼaatinaq</w>
chaʼ tiquil</w>
cha pase</w>
an chaj
PO DEMOS</w>
HE BRE
7 000</w>
19 74</w>
17 8</w>
ʼa m</w>
Ü tz</w>
yóo x
xu riq</w>
xili täj</w>
xchʼu noj</w>
x echa</w>
visi tó</w>
túux tik</w>
ta il</w>
señ ala
s tunesik</w>
s tiʼ</w>
oʼon oʼob</w>
ori lla</w>
oj il</w>
oj beik</w>
ofici nas</w>
odi ar</w>
nego cio</w>
meyaj tiʼ</w>
ky bʼi</w>
koʼo j</w>
ko mik</w>
ja cʼob</w>
ig nor
i luk</w>
i leb</w>
familia eʼ</w>
emocion ales</w>
dis te</w>
destru yó</w>
cʌntes añonla</w>
chʼ lew</w>
cho co</w>
cam siheb</w>
baj t</w>
au to</w>
ar o</w>
UT ʼIL</w>
Sy l
Re p</w>
L ÄJ</w>
E ri
ˈ jil</w>
Ñ a
x ex
u qʼa
té c
tzʼi ibʼan
tu kʼuk</w>
ts ʼin</w>
tja ya</w>
san tidad</w>
pr enta</w>
poli si
o lol</w>
mo do
lta ʼal</w>
lo kʼol</w>
kʼo lik</w>
kanáan tkoʼob</w>
jtojo laltike</w>
inki lebʼ</w>
ho mi
di luvio</w>
d és</w>
come temos</w>
chʼiji y
chʼaʼa tuklik</w>
chix tzijon</w>
can di
camigo job</w>
bʌl ñʌcʼʌl</w>
aye tzin</w>
aw ibʼ</w>
adap tarse</w>
XO ʼOB</w>
T em
S acer
Pat terson</w>
Madagas car</w>
FE C
í l</w>
y ïn</w>
xyuʼa minkil</w>
x chu
wen el</w>
wel l</w>
univer sal</w>
tzʼ yaq</w>
txal paj</w>
tak laheb</w>
sna il</w>
s h</w>
ru kaʼn</w>
respon da</w>
rab in</w>
queß cuan</w>
pʼʌ tʌl</w>
profesi onal</w>
oybʼen ihom</w>
nu wach</w>
nojo chtal</w>
nacu aj</w>
mi x
maj l</w>
laje ß
la laj</w>
inter ru
inte ligente</w>
h k</w>
gi era</w>
emocion antes</w>
descan sar</w>
cä pe</w>
confli cto</w>
chß ô
alco h
acep tan</w>
YO M</w>
X chi
Ten go</w>
T RI
Ri ch
Lamen tablemente</w>
JA ʼ</w>
E cu
BʼI DEO</w>
yij kʼi
yan oʼobeʼ</w>
xe ˈ</w>
xe labʼ</w>
xch ʼi</w>
tsolnuʼu koʼob</w>
to bʼan</w>
sts alel</w>
smali yel</w>
sama jij</w>
ro ca</w>
qʼiji laj</w>
núu ki
nequ ex
naʼa tkoʼob</w>
muqʼu ix</w>
maama eʼ</w>
ki men</w>
jpas kutik</w>
jba e</w>
in definido</w>
identifi ca</w>
g oʼoboʼ</w>
flo res</w>
fi en
f lu
el q</w>
dire cciones</w>
de v
ba letik</w>
aw eʼ</w>
ar ma</w>
alab ʼom</w>
a men</w>
RE CU
PE D
LE TIKE</w>
G ad</w>
Eu ro
Be et</w>
ʌn ti</w>
yi le</w>
yaʼ ye
yajtsʼaklo mutik</w>
xtal bʼil</w>
xkʼu lbʼal</w>
ve hí
tu us</w>
tes a</w>
ter as</w>
te cho</w>
talen tos</w>
t tenqʼanq</w>
suu kileʼ</w>
su kʼilal</w>
qʼaqʼ bʼil</w>
qa kʼanjel</w>
pâ bâl</w>
pod íamos</w>
parti ó</w>
pan di
pa sik</w>
organi zar</w>
oportun o</w>
naj o
min aʼan
mb ab
lâ k</w>
lu b
ky anqʼin</w>
jkʼel vanej</w>
israelita job</w>
distin ta</w>
cuán tas</w>
cuan quex</w>
consider ación</w>
chanubta seletik</w>
cen a</w>
ca dá
bibli ote
bee ta
ba yel</w>
autori dad
arru in
al wanej</w>
Zi mbab
Y E</w>
Re ina</w>
QʼI J</w>
O N</w>
N E</w>
Imagin emos</w>
Escri tura</w>
4 3
17 1</w>
16 5</w>
Ï K</w>
Í TICO</w>
vu ʼun</w>
vi ts</w>
tsʼiʼ lel</w>
to job</w>
to ca</w>
t ó
sme l
sab éis</w>
s nupun
res ía</w>
r animaˈ</w>
prefer encias</w>
poc resía</w>
maʼa n</w>
la al</w>
kʼis bʼäl</w>
kibʼan ik</w>
jpa toj</w>
jo lon</w>
inesper ado</w>
in kibʼan</w>
im pide</w>
i wil</w>
h na
gracia sil</w>
facu ltades</w>
er é</w>
digi tal</w>
cʼaj tin</w>
avu ʼu
auto bús</w>
ar ena</w>
ani e</w>
amb as</w>
ajvali letike</w>
actu almente</w>
abo gado</w>
a kʼux</w>
YA ʼ</w>
R ab
Portu gal</w>
A kʼ
200 5</w>
19 23</w>
yʌlʌ yob</w>
yô cat</w>
xal be</w>
xa m
x xu
tzˈ e
tsu btas
tsikba lil</w>
tra ído</w>
tes ʌntel</w>
tbʼi ʼna</w>
t chikʼbʼaʼn</w>
su erte</w>
sti kʼ</w>
stale lik</w>
sche bal</w>
ra yij</w>
quix q</w>
quec ˈ
q ïl</w>
partici pan</w>
organiz ado</w>
náal oʼob</w>
nu bes</w>
necesi tados</w>
men ores</w>
me lec</w>
man te</w>
ma les</w>
kqa kʼut</w>
juʼ jun</w>
j tuk</w>
de cí
d y</w>
cʼa y</w>
co inci
chi saʼ</w>
cas co</w>
c ro
bo te</w>
avan zada</w>
ador aba</w>
Ya h
Y AN
S ok</w>
Ruwa chʼlew</w>
Eli ezer</w>
Diab loe</w>
ón oʼ</w>
ñʌ m
xa a
x qetaʼmaj</w>
we ʼelil</w>
tsʼak li
ts aʼa
tej chel</w>
taata tsil</w>
sol ía</w>
so r</w>
sle el</w>
sis tencia</w>
scʼo p</w>
recuer dan</w>
re pasar</w>
quin ce</w>
qa molam</w>
prostitu ta</w>
presi dente</w>
pi sil</w>
oth er</w>
naqa taw</w>
mintiʼ tl</w>
millon esil</w>
libro i</w>
kʼop onel</w>
kux la
keʼ exoʼ</w>
jnuptan tike</w>
jaʼa kʼ</w>
j chapan
i i
excel entes</w>
e chado</w>
demostr aremos</w>
de fien
coʼn ton</w>
compar ar</w>
ci ar</w>
celeb ró</w>
cab ras</w>
ar r
alter na
alegr ó</w>
Timote oe</w>
REIN O</w>
DE CI
Aten as</w>
égu ele</w>
é em
yáan toʼob</w>
yakʼoj butik</w>
x bi
voko le</w>
tra ge
tku baʼob</w>
te is</w>
swoko lik</w>
sufri mientos</w>
son ri
selu lar</w>
san guí
ru kʼisbʼäl</w>
reliji onetik</w>
relacion ada</w>
qʼoro m</w>
qui rabi</w>
privile gios</w>
pl êt</w>
o kil</w>
nojbeʼen kúun
mori rá</w>
mila gr
mensu al</w>
kʼu tik</w>
ke k</w>
k le
jwoko ltik</w>
jonto lil</w>
jko m</w>
j lokʼ
garanti za</w>
en fu
el xan</w>
do ws</w>
chix cßulbal</w>
chchan beik</w>
ca tá
be joʼ</w>
bauti zaron</w>
aña dir</w>
admi te</w>
aconse jó</w>
a tej</w>
a chʼix</w>
X chʼul</w>
T ab
Par ti
K aʼa
Jehoi adá</w>
J an
In c</w>
Hab ía</w>
199 3</w>
óola ʼan</w>
í aoʼ</w>
yo kʼo
xucu ac</w>
xju l</w>
vi dad</w>
veng anza</w>
tsikbal t</w>
tikiri saj</w>
tar las</w>
proteger nos</w>
priva da</w>
nun aʼ</w>
muchísi mas</w>
mb e</w>
kʼi x</w>
kʼ lin</w>
káaj baleʼ</w>
kolta atik</w>
kan öx</w>
kal bey</w>
jto y
j nu
invi tado</w>
h er</w>
ex oj</w>
ele mento</w>
disfru temos</w>
destru idos</w>
cˈacˈ ariˈ</w>
cˈ ul</w>
cr oni
contro la</w>
com un
cha pal</w>
bendi sionetik</w>
bendi ga</w>
adi cción</w>
acab e</w>
Xakʼa l
WI ʼ</w>
PREGUN TAN</w>
MA ʼN</w>
KʼA ʼA
Es tonia</w>
Ecu ador</w>
2 14</w>
ñuqʼu esʌ
yaan tiʼob</w>
wíini koʼob</w>
van o</w>
ur gencia</w>
u tat</w>
tzˈi baj</w>
tzʼa ama</w>
tz el</w>
tsoʼo lol</w>
tijo c</w>
te za</w>
taata w</w>
s s</w>
reún en</w>
qami w</w>
qa toʼik</w>
prome ter
pregun tarle</w>
pas emos</w>
oc é
nak lej</w>
mis terio</w>
mer ecen</w>
mane jar</w>
le e
la juk</w>
kasti w</w>
jpʼ ej</w>
htt ps</w>
hi pocresía</w>
escu chamos</w>
confi ar
compañ era</w>
chik naj</w>
chi le</w>
ch üp</w>
au mento</w>
acu chi</w>
Testigo job</w>
T X
O s</w>
MI L</w>
Lí bano</w>
Jerobo am</w>
G E
An quese</w>
Al go</w>
A cep
5 5
yoo kat</w>
yal bee</w>
yaa yaj</w>
xka ʼi</w>
x oʼo
x ho
utbes i</w>
ts vul</w>
tar tik</w>
t lebʼaal</w>
sabi as</w>
s ana</w>
qʼan chaʼ
preocupa dos</w>
preocupa ción</w>
livro etik</w>
lin yuʼam</w>
lar gas</w>
kʼáa taj
kʼeban tal</w>
ka k</w>
ja ʼil</w>
j kontra
in stitu
i ˈn</w>
hu uj</w>
fun er
f an
en ak</w>
eje cución</w>
des obediencia</w>
d ra</w>
conven cer
con mo
compro miso</w>
al ʌch</w>
Yaj tzun</w>
Ten ía</w>
OBTE NIDO</w>
yakʼ beik</w>
xyan qebʼ</w>
v anike</w>
tun kutik</w>
sin croni
reve lado</w>
reali zan</w>
pá rese</w>
puk el</w>
per la</w>
pan ïk</w>
ni tz</w>
muʼyaj tik</w>
ma mente</w>
lu baʼan</w>
kʼubé en
ko etik</w>
kil beytik</w>
investig adores</w>
har ina</w>
go al</w>
g le</w>
dar an</w>
d enes</w>
co mo
chi co
can la</w>
arre ba
al mas</w>
abier tamente</w>
a precio</w>
Jesucri st</w>
Cur so</w>
A sa</w>
yakʼo jik</w>
xu yaˈ</w>
uʼuyik ba</w>
tsobobba iletik</w>
t uni
snop ben
si panik</w>
ri t
pro tes
pro ced
portu gu
pl ani
nume ʼk</w>
naj oʼ</w>
na xchʼolobʼ</w>
mlay toq</w>
laj a</w>
la mal</w>
kʼo el</w>
k qilo</w>
k me</w>
jar u
inclu idos</w>
distingui r</w>
di ji
colta ñon</w>
chʼujutes aya</w>
chß û
chchan ik</w>
beʼ en</w>
aʼan ebʼ</w>
asi s
ano p
ab ur
a toobʼ</w>
Signifi ca</w>
Pri sci
O c
ME DI
LE ʼ</w>
K al
Es per
EJEMP LO</w>
D emo
C osta</w>
3 2
zilla org</w>
x úu
x reyeb</w>
tze laj</w>
teʼx kʼe</w>
smu kʼu
sabi endo</w>
s pʼiji
restau ración</w>
qui wiˈ</w>
q xnaqʼtzan</w>
q qʼoʼne</w>
per spe
lám para</w>
llev en</w>
liber ar</w>
laje lale</w>
j oʼon</w>
j ine
in geni
h ana</w>
dese ando</w>
cubier ta</w>
crá tica</w>
cha kun</w>
ch mil
bus camos</w>
beetaʼa loʼ</w>
asi entos</w>
ale gra
albil kʼopetik</w>
Su rin
SU S</w>
S TA</w>
QʼA MAʼN</w>
Les li</w>
KYA QIL</w>
Jesucri sto
JO JKʼO
F r
Exa min
Eseki el</w>
Demo crática</w>
6 6
2, 7
î banbil</w>
yu laʼ
xni chʼon</w>
xchiʼi ltak</w>
u ba</w>
tsi quil</w>
ts no
sti kun</w>
snitilu lal</w>
se du
san el</w>
resu ltó</w>
rela ta</w>
pʼʌt ʼes
pi m</w>
perman e
nak cuan</w>
kʼáaʼná aboʼ</w>
kʼan el</w>
[...]
