#version: 0.2
t e</w>
t i
t a</w>
o s</w>
a n
y a</w>
e l</w>
k ʼ
e s
e r
e n
ti k</w>
a l
c h
l a</w>
a l</w>
q u
t a
d e</w>
b i
p a
i n
u n</w>
o n
c i
e s</w>
a s</w>
qu e</w>
a n</w>
l i
y u
s o
@ -
@- @</w>
e m
u n
e n</w>
l e
i l</w>
a ʼ
a b
o r
i k</w>
a m
r e
yu ʼ
a r
s t
d o</w>
kʼ o
d i
yuʼ un</w>
ch ʼ
s i
l o</w>
h o
t r
a j
o n</w>
p o
s e</w>
so k</w>
c h</w>
J e
Je ho
Jeho v
o ʼ
ó n</w>
c u
b a
l os</w>
bi n</w>
Jehov á</w>
t u
i l
b e
m u
y a
j i
D i
a r</w>
e l
t o</w>
B i
o l
v i
o j
o m
e tik</w>
p r
r a</w>
p er
m a
d e
t an
y i
s e
c on
ci ón</w>
pa s
Di os</w>
a y</w>
ji ch</w>
a d
m an
r i
b li
kʼo p
p u
y al</w>
m a</w>
t ʼ
j u
a ʼ</w>
k e</w>
s u
a c
n i
l as</w>
n o
p i
t e
í a</w>
o l</w>
ta n</w>
tʼ il</w>
k u
n o</w>
l e</w>
j aʼ</w>
oʼ tan
b r
s kʼ
al al</w>
m i
k ʼ</w>
an t
Bi bli
s w
n a
m e</w>
pa ra</w>
e r</w>
g u
en ta</w>
a w
j aʼ
kʼ alal</w>
c on</w>
o tik</w>
Bibli a</w>
em os</w>
s kʼop
oʼ tan</w>
o r</w>
d a</w>
c om
s u</w>
po r</w>
a s
ma chʼ
t o
ta y
l u
d a
á s</w>
m o</w>
J es
a y
t es
n os</w>
t en
ti ke</w>
Bi n</w>
sw enta</w>
be y
b a</w>
l al</w>
m e
em p
un a</w>
i m
n u
a ción</w>
be y</w>
T e</w>
k ol
an do</w>
skʼ an</w>
aʼ i
x ju
en te</w>
st oj
r a
ab a</w>
il el</w>
ú s</w>
Jes ús</w>
b u
d el</w>
xju ʼ</w>
i k
l o
er man
es tr
es t
da d</w>
f i
ch ʼ</w>
al i
skʼop lal</w>
re g
j un</w>
chʼ u
a kʼ
1 0</w>
t s
e c
y al
e j
o s
y oʼtan</w>
w in
bi tʼil</w>
per o</w>
am os</w>
u k</w>
c a</w>
K ʼ
v er
1 5</w>
le k</w>
br e</w>
g o</w>
a do</w>
er a</w>
on es</w>
h i
stoj ol</w>
t em
d os</w>
no p
pr o
am i
yi chʼ</w>
d es
kʼ a
h erman
qu i
li l</w>
pas el</w>
ni x</w>
a tik</w>
u tʼil</w>
kʼ u
f u
e d
u k
s pa
ya kʼ</w>
ba yal</w>
k oʼtan
a yu
kʼo p</w>
h ac
in i</w>
en t
1 1</w>
kol tay
x an</w>
es ta
le tik</w>
l a
Q u
1 2</w>
k i
or a</w>
s pi
machʼ atik</w>
m in
di c
g r
nu estr
t al</w>
b al</w>
h ab
su s</w>
qu é</w>
tem e</w>
o etik</w>
bi n
y an
a e</w>
á n</w>
ya kʼ
tu l</w>
koʼtan tik</w>
t al
ant s</w>
m ás</w>
bi l</w>
1 3</w>
l es</w>
n aʼ
é n</w>
mu ch
1 4</w>
pa r
l an</w>
ó mo</w>
p á
Qu é</w>
s il</w>
s ti
m aba</w>
win ik
er o</w>
ku x
com o</w>
o k
m il
r es
s a
c o</w>
p or
an i
r o</w>
s ba
s ch
bin tik</w>
B I
í as</w>
T E</w>
na x</w>
spi sil</w>
p re
l aj
p e
c a
t er
ta m
1 6</w>
le j
1 7</w>
y oʼtan
yi chʼ
cu ando</w>
o b
el e</w>
T I
c ri
s on
o se</w>
es i
J u
h a</w>
en ta
machʼ a</w>
aʼi y
al e</w>
b aj
s i</w>
o tr
k a
s ta
li k</w>
pu e
b o
per son
chʼu un
e x
en s
gu i
winik etik</w>
ci ones</w>
H e
Di ose</w>
est á</w>
emp lo</w>
E S
d r
en ci
c ar
j o</w>
s ta</w>
L I
ab lo</w>
aʼi y</w>
é s</w>
g reg
mi n</w>
ad a</w>
a h
d u
s o</w>
1 9</w>
i o</w>
s ba</w>
kʼo t</w>
ʼ i
s mu
ab i</w>
M a
ta s</w>
s j
d em
kʼa x</w>
1 8</w>
P ablo</w>
T A</w>
é l</w>
in al</w>
s er
er on</w>
ti en
spa s</w>
i n</w>
s kʼop</w>
t es</w>
an te</w>
in o</w>
2 0</w>
e li
o j</w>
min s</w>
g i
e m</w>
ti l</w>
f or
un i
mu kʼ</w>
t os</w>
í an</w>
ab a
O S</w>
r o
m i</w>
am e</w>
tr a
w an</w>
l an
yoʼtan ik</w>
ant i</w>
yu k</w>
e j</w>
m aʼ
k il
jaʼ nix</w>
c ʼ
ti g
c or
l le
c ción</w>
c as
tu lan</w>
d ad
de ci
ayu d
al u
w ok
ej emplo</w>
z a</w>
L E
u s
b anti</w>
s pas
i s
el el</w>
st r
es ta</w>
u l</w>
so bre</w>
j tul</w>
cu r
se ñ
m os</w>
A N
en to</w>
C ómo</w>
kʼu l</w>
aj kʼ
Ju an</w>
p on
ch aʼ
ti emp
R e
i x</w>
bey tik</w>
ami li
po d
v e
e tike</w>
an os</w>
di s
f amili
h u
se r</w>
yuʼ un
ar on</w>
m elel</w>
s koltay
ʼ un
2 1</w>
so b
l am
e letik</w>
hac er</w>
v o</w>
t u</w>
al es</w>
vi da</w>
ta r</w>
te o</w>
ti k
aʼ te
j pas
con greg
pá r
bi én</w>
mu y</w>
en tr
a p
nop el</w>
de b
bey el</w>
c am
in el</w>
ta r
maʼ yuk</w>
P or</w>
tiemp o</w>
di o</w>
al g
t el</w>
m o
d as</w>
ti c</w>
2 2</w>
an a</w>
kux lej
g a</w>
pue de</w>
ba el</w>
TI K</w>
L a</w>
st o</w>
es tu
s pasel</w>
a ñ
tes el</w>
es o</w>
2 4</w>
j kʼ
tam bién</w>
ch uk
o x
con tr
person as</w>
t or
s n
h a
v a</w>
o c
w an
x i
t s</w>
le k
en do</w>
S al
al ab
Y A</w>
ta y</w>
g o
j un
y an</w>
kʼa x
s chʼuun
j w
es te</w>
to do</w>
e b</w>
r as</w>
yan tik</w>
c as</w>
de o</w>
er ra</w>
t oj
dic e</w>
í bli
ar á</w>
2 0
b otik</w>
c re
an ci
b íbli
a si
u e
ya k</w>
c o
j ba
as í</w>
k akʼ
al il</w>
2 3</w>
z o</w>
alu mil
congreg ación</w>
kʼ inal</w>
os as</w>
en di
en ti
a u
st u
a t</w>
sba ik</w>
oj kʼo
ch i
t sob
j nop
B LI
se ʼ
e ch
s ab
so n</w>
x kʼot</w>
tien e</w>
3 0</w>
yal bey</w>
lo kʼ
cu lo</w>
j aj
ci on
ojkʼo y
un os</w>
herman os</w>
te y</w>
s k
p ens
no po
s bi
bu en
f r
bey ik</w>
pa j
kʼ ajkʼ
nuestr a</w>
g ar</w>
aj w
di jo</w>
jpas tik</w>
in a</w>
sch ol
T a</w>
fu e</w>
y il</w>
k al
i a</w>
de r</w>
to dos</w>
ad os</w>
chuk me</w>
reg un
s em
BI BLI
g ra
st s
c ómo</w>
s naʼ
d on
spas ik</w>
skʼop on
0 0</w>
ho m
a pa
s me
ku ʼun
u st
bi en</w>
c os</w>
t í
yichʼ ik</w>
aw il</w>
en señ
p li
pa til</w>
el ta</w>
á n
si ón</w>
ab al</w>
pod emos</w>
enci a</w>
or es</w>
D E</w>
al el</w>
T i
s laj
s m
y aʼiy</w>
c osas</w>
i ke</w>
S a
BIBLI A</w>
y aʼ
ya k
jaʼ bil</w>
li br
por que</w>
ent es</w>
a vi
C an
kʼop on
bu elta</w>
le c
ku k</w>
2 5</w>
or ación</w>
L A</w>
a z
re ci
kil tik</w>
a x</w>
hab ía</w>
alumil al</w>
J o
1 9
e d</w>
bo t</w>
su j
famili a</w>
ay oj
Ma teo</w>
otr os</w>
de j
2 8</w>
n ec
l ar
vi deo</w>
p í
m al
a yi
D I
ch aj
C u
kʼajkʼ al</w>
pu és</w>
dad es</w>
es to</w>
m en
ji ch
j ta
o ch
Jes u
C H
la j</w>
e lil</w>
Sal mo</w>
un do</w>
v en
j naʼ
L u
p a</w>
o t</w>
jba tik</w>
re c
cri sti
man chukme</w>
ant es</w>
ʼ u
ay ik</w>
o po
y ilel</w>
much o</w>
aw oʼtan</w>
P ro
O R
jnop tik</w>
J er
pre dic
P ed
em pr
el los</w>
tr os</w>
skʼopon el</w>
h ay</w>
d ía</w>
sme le
bi l
dem ás</w>
y aʼiy
2 7</w>
ab aj
yuʼun e</w>
herman o</w>
le j</w>
ch am
Ped ro</w>
ti n
c an
p o</w>
wok ol</w>
u l
des pués</w>
es pi
D avi
pr im
ch ik
añ os</w>
c es</w>
2 6</w>
im por
er n
akʼ a</w>
L e
es per
x baj
espi ri
j os</w>
ayoj il</w>
s a</w>
empr e</w>
pr en
x ul</w>
p ʼi
t h</w>
lu m</w>
a m</w>
k oʼtan</w>
ú n</w>
tes tig
b e</w>
v os</w>
v ol
R I
y o</w>
fu er
ve z</w>
o p</w>
v e</w>
p regun
2 9</w>
l em
es a</w>
tay el</w>
M ar
v er</w>
mi s
E L</w>
A L</w>
si empre</w>
hab l
skoltay otik</w>
oj p
jaʼ uk
Kʼ ayojil</w>
J i
f er
si n</w>
pa j</w>
se gui
k o
so tros</w>
si g
ar tí
tr abaj
mu kʼul</w>
pár r</w>
V I
Can ción</w>
k on
j a</w>
E s
é n
smele lil</w>
ci a</w>
ver s
be ya</w>
pu ed
nuestr o</w>
h an</w>
es tig
ni wan</w>
E N
ten er</w>
ES T
d er
s enti
n a</w>
cu enta</w>
b an</w>
Davi d</w>
f ec
Re ino</w>
wok o
am or</w>
ta k</w>
g ente</w>
est án</w>
ch os</w>
no sotros</w>
e a</w>
pr es
ʼ U
cas a</w>
al l
me j
sem ana</w>
kuʼun tik</w>
ki x</w>
C or
qu e
b ar
es e</w>
e ʼ
yi p</w>
no p</w>
n i</w>
ba y
si on</w>
S an
ar a</w>
bi os</w>
j ojkʼoy
esta ba</w>
pro b
herman oetik</w>
am al</w>
He ch</w>
ust ed</w>
p un
k otik</w>
ya kuk</w>
il e</w>
bi al</w>
A S</w>
kakʼ tik</w>
i r</w>
b re
nec esi
ver dad</w>
so c</w>
re li
impor tan
E S</w>
ka j</w>
ar se</w>
se gu
y ame</w>
schʼuun el</w>
is ra
ci o</w>
artí culo</w>
B alumilal</w>
me to</w>
oʼtan il</w>
J aʼ
so lo</w>
T ES
re uni
ts ʼ
skʼ an
BI N</w>
un tes
schol el</w>
in ti
win ik</w>
E l</w>
men os</w>
hi zo</w>
l lam
or a
espiri tu
a gu
j chʼuun
ar i
p alab
du r
pa dr
ayu da</w>
yakʼ bey</w>
j pa
smu kʼul</w>
estu di
ech o</w>
si gui
libr o</w>
e le
qu er
es cu
m aj
ch opo
x kʼo
ki chʼ
re vi
I sa
u j
tsob lej</w>
jaj ch</w>
3 1</w>
wan ej</w>
m undo</w>
a j</w>
U N
an o</w>
g os</w>
chʼ i
s ac
d o
ni chʼ
er an</w>
ent os</w>
ñ o</w>
si s</w>
He chos</w>
b on</w>
m al</w>
pí ri
much os</w>
aj e</w>
lle v
par r</w>
d ar</w>
pu bli
Jesu se</w>
t ó</w>
tu ra</w>
n om
Ji ch</w>
jaʼ uk</w>
em e</w>
an za</w>
t om
f eli
0 00</w>
in c
alg unos</w>
ʼ un</w>
lek il</w>
a ch
ser vi
f e</w>
mu er
bu s
aw u
s kol
en es</w>
b le</w>
hom bre</w>
deb emos</w>
cu er
Y a</w>
píri tu</w>
e lo</w>
E n</w>
a qu
ab an</w>
tik xan</w>
chʼu l
i st
ci as</w>
chʼu l</w>
pued en</w>
f ri
as ta</w>
P ero</w>
skʼ u
A po
le cción</w>
d es</w>
le a</w>
p ec
Sa tan
3 3</w>
po si
nuestr os</w>
ar nos</w>
koltay el</w>
de c
an an
u ti
Jehov ae</w>
ch an</w>
e go</w>
ajw alil</w>
lu k</w>
hac e</w>
j eletik</w>
con se
Bibli ae</w>
sba bial</w>
p an
cu l
A n
pá g</w>
R om
e z
M A
1 0
m ente</w>
h echo</w>
en contr
kuxlej al
es píritu</w>
un que</w>
vi vi
c ada</w>
con fi
VI D
cristi anos</w>
T A
k aʼiy</w>
est os</w>
E R
os o</w>
Lu cas</w>
C ri
s al
3 2</w>
yal ik</w>
lu gar</w>
i li
sbi il</w>
3 5</w>
qui er
esta s</w>
a pren
el la</w>
a t
aba t
o y</w>
hi jos</w>
Jo b</w>
or g
us al
nu j
Jer usal
mi ento</w>
kʼax el</w>
kʼu x</w>
p ʼ
nu e
s kaj</w>
da do</w>
reli gi
in ci
ali dad</w>
Satan ás</w>
prob lem
sw enta
n e
cor az
Isa ías</w>
T im
par te</w>
s nop
kichʼ tik</w>
a b</w>
te x
t seʼ
j amal</w>
3 4</w>
ver bios</w>
ts il</w>
i bal</w>
B in
j ch
cu i
b al
J os
Pro verbios</w>
much as</w>
aʼiy ej</w>
st uk
ten ía</w>
al go</w>
h asta</w>
M o
I l
E J
o p
Jerusal én</w>
i chʼ
s an
mej or</w>
3 7</w>
k aʼiy
con oc
C I
es cri
ec es</w>
yuʼun ik</w>
s í</w>
Tim o
pue b
bi li
er os</w>
es ti
J aʼ</w>
j nopo
mis mo</w>
coraz ón</w>
O N
in ter
cu m
org ani
ju jun</w>
e uk</w>
m on
slaj ibal</w>
b endi
st seʼ
J A
r á</w>
pr om
x tu
j oʼ
jta tik</w>
inti os</w>
ami go
ʼ I
N o
al e
ad or</w>
chopo l</w>
Timo teo</w>
B a
y o
jaʼuk meto</w>
testig os</w>
Cor intios</w>
dem o
es po
x e</w>
person a</w>
jnaʼ tik</w>
j m
o kol
jaʼ nax</w>
ah ora</w>
Ti erra</w>
in ik</w>
hu man
br es</w>
ta do</w>
stseʼ elil</w>
pr ue
n ojp
c e</w>
yichʼ oj</w>
Il awil</w>
res pon
pr inci
s le
skʼu xul</w>
c er
ts ʼi
segui r</w>
palab ras</w>
j mu
me di
x ch
sn aʼ</w>
f í
greg asi
b on
po co</w>
so k
a unque</w>
yakʼ ik</w>
ba t</w>
lec tura</w>
on ces</w>
a ciones</w>
P alab
J U
s nopel</w>
4 0</w>
chʼ il</w>
Q U
tien en</w>
o be
con vers
ten emos</w>
sok nix</w>
ba h
ob ern
kuxlej al</w>
un as</w>
esta r</w>
abat etik</w>
I n
lle g
e p
pu k</w>
to das</w>
tam os</w>
kon gregasi
un o</w>
tan to</w>
r u
gui en</w>
Y abal</w>
an im
L os</w>
demo str
al guien</w>
pá g
j ki
i c</w>
chʼul chan</w>
LI L</w>
aʼte lil</w>
pueb lo</w>
di ó</w>
Ma t</w>
D ani
a k
ad u
N o</w>
Cri sto</w>
v al
I s
qui enes</w>
bíbli co</w>
ñ a</w>
V ea</w>
v en</w>
m ar
oj ik</w>
lo kʼ</w>
Kʼ U
otr as</w>
j il</w>
su per
kʼop etik</w>
w 0
st sa
importan te</w>
c ar</w>
ap ó
b en
man era</w>
A Y</w>
ya chʼil</w>
chaʼ ox
ayu k</w>
si er
in ten
qu ed
j te
Mo is
y u</w>
kaʼiy tik</w>
k er
d ías</w>
ayi x</w>
nom bre</w>
mu j
e ti
le c</w>
l en
cur so</w>
j toj
j o
ani x</w>
re y</w>
i do</w>
c ol
kʼ in</w>
T estig
so l
d ar
c í
o lik</w>
or g</w>
k il</w>
O S
t el
v eces</w>
i g
jw org</w>
yu tsil</w>
j tu
buen as</w>
o f
in g
j ilel</w>
deci r</w>
aw i
am ente</w>
tor io</w>
ya t</w>
m ero</w>
L O</w>
cam bi
c ali
an e</w>
P A
O P
woko lil</w>
po dr
o ji
c ab
1 4
apó st
na j</w>
am u
ra f
q ʼu
in e</w>
escu ch
c la
m or
yi lik</w>
ta d</w>
am a</w>
str u
h e</w>
quier e</w>
ma y
for ma
fr u
Is ra
entr e</w>
to da</w>
on e</w>
j ik</w>
e x</w>
Jos é</w>
a gr
si ta</w>
ex pli
bay el</w>
em ik</w>
or ar</w>
yan tike</w>
winik etike</w>
ad as</w>
S e
y ora
jkʼ an
j puk</w>
r e</w>
i dad</w>
ent onces</w>
don de</w>
Mois és</w>
yakʼ botik</w>
estu dio</w>
Dani el</w>
stuk el</w>
xtu un</w>
apa s</w>
aw aʼiy</w>
c al
Y U
nuestr as</w>
organi z
d í
naʼ el</w>
t ʼ</w>
ol e</w>
gr an</w>
reci bi
pro f
m ame</w>
fi ci
R E
C h
tu lo</w>
dur ante</w>
Isra el</w>
A demás</w>
g ar
aʼ tel</w>
s k</w>
S al</w>
T eme</w>
kʼopon a</w>
ac ti
ayud ar</w>
LE L</w>
pa ci
cur so
ar io</w>
yaʼ tel</w>
problem as</w>
se a</w>
tsob lej
si ones</w>
os a</w>
j k
e la</w>
cali p
LE JA
a x
xbaj t</w>
st alel</w>
calip sis</w>
t i</w>
t emplo</w>
kʼ el</w>
re la
g a
ba uti
sts ʼi
w i
s nop</w>
ni fi
yora il</w>
si t</w>
le to</w>
cham el</w>
D e
ol tik</w>
inc lu
Apo calipsis</w>
z as</w>
chaj p</w>
s cʼ
ka kʼ</w>
kʼop on</w>
ju b
He bre
si on
enta inel</w>
jich uk</w>
s nichʼ
ya kʼo
l í
a ya</w>
3 8</w>
cum pli
A L
emp ez
de as</w>
otr o</w>
f al
suj ti
e qui
d emos</w>
an oetik</w>
LEJA LIL</w>
x tal</w>
el es</w>
a k</w>
x kʼax</w>
ma to</w>
g ri
all í</w>
ami gos</w>
un ca</w>
padr es</w>
S I
E z
dis cí
discí pu
TES OR
y il
TESOR OS</w>
yak ik</w>
xkʼo po
mi s</w>
ci r
B e
tex to</w>
pu er
bi er
KʼU LEJALIL</w>
chi bal</w>
a po
o m</w>
i r
pa z</w>
o ch</w>
i wan</w>
li n</w>
E st
é r
stu un
yaʼiy ik</w>
C RI
t si
sta ik</w>
princi pi
B E
pas ele</w>
j ts
hom bres</w>
kongregasi on</w>
herman a</w>
esi s</w>
d in
3 6</w>
x chʼ
tseʼ el</w>
I N
A N</w>
Rom anos</w>
ci l</w>
anci anos</w>
T u
min ist
s ma
én esis</w>
k om
G énesis</w>
A br
ci u
Bin tik</w>
á r
A d
se g
b an
A l
res u
muer te</w>
trabaj o</w>
o h
hac er
com pa
mu kʼ
contr a</w>
cur s
for ma</w>
enci as</w>
3 9</w>
otr a</w>
ó n
pro pi
pa n</w>
m as</w>
pre curso
a tr
a ta
per mi
j ay
hi jo</w>
re cu
i t</w>
CH ʼU
C on
Abr ah
aba tin
O J
su fri
posi ble</w>
ti go</w>
on i
ac er
ra z
fi n</w>
a etik</w>
skʼop l
di a</w>
chik an</w>
Kʼ alal</w>
c ó</w>
pregun tas</w>
n unca</w>
sier vos</w>
ci endo</w>
ali letik</w>
tr es</w>
m ens
sujti b</w>
bíbli ca</w>
F ili
n or
j el
hi ch</w>
ci er
akʼ bot</w>
cam ino</w>
ali y
VID A</w>
C or</w>
jpa s</w>
tal el</w>
as es
San ti
ver dad
c ti
x koltay
kux aj
I LEL</w>
pens ar</w>
j k</w>
alg unas</w>
E f
si r
raf o</w>
ox eb</w>
per las</w>
oj el</w>
o tike</w>
í amos</w>
tu d</w>
ta k
r ía</w>
Hebre os</w>
sigui ente</w>
an ax</w>
agu a</w>
m ar</w>
lo kʼo
nuj pun
ti erra</w>
on ia</w>
a go</w>
discípu los</w>
chik naj</w>
ch a</w>
ac ep
CHʼU UN
com i
W entainel</w>
C om
A y</w>
reuni ones</w>
kʼop il</w>
r s</w>
minist er
isra eli
v ía</w>
kʼo em</w>
jkʼ an</w>
S i</w>
ali z
A kʼ
5 0</w>
x a</w>
u estr
des e
am e
ta kʼin</w>
o ci
sk anan
en ten
com p
pár rs</w>
OS E</w>
a v
Santi ago</w>
E M
DI OSE</w>
paj al</w>
l esi
j kuxlejal
h er
vivi r</w>
sig nifi
per d
o cu
jnopo jeletik</w>
á l</w>
toj ob
ma g
hi ci
to y
pr esi
gu erra</w>
con c
YU ʼU
nojp tesel</w>
n ada</w>
in vi
E N</w>
1 ,
habl ar</w>
pr i
h on
b er
i gu
forma ción</w>
en fer
al mente</w>
S TI
or ia</w>
bi lal</w>
x laj</w>
sw ok
E O</w>
e bal</w>
des de</w>
el tik</w>
A Kʼ
pu es</w>
predic ar</w>
erman o
P on
4 5</w>
tik lan
pág ina</w>
pʼi jub
ta yat</w>
EST R
tay ik</w>
AN A</w>
si tu
or anax</w>
yaʼiy el</w>
spi si
YUʼU N</w>
ten dr
em ías</w>
añ o</w>
aw al</w>
ar lo</w>
a te</w>
xi w
v as</w>
s chʼu
ay in
E n
tr o
woko li
gra cias</w>
es pe
an op</w>
me ʼ
c ación</w>
ol ol</w>
j kʼopon
smu kʼu
ol es</w>
c lar
em bre</w>
un di
man tal</w>
pas a</w>
organiz ación</w>
U ni
4 1</w>
tr i
ju dí
g en
esper anza</w>
ch e</w>
skol tay</w>
aw oʼtan
Jaʼ nix</w>
c el
er do
e ta</w>
machʼ a
g an
J CHʼUUN
na il</w>
E sta
jojkʼoy eletik</w>
e te</w>
Cu ando</w>
yan tikxan</w>
ho y</w>
M u
espe ci
ku b
ba y</w>
tʼ uj
lu ego</w>
lek sion</w>
ami go</w>
CRI STI
s chʼ
chaʼox tul</w>
4 4</w>
qui en</w>
o y
sch aj
israeli tas</w>
R u
l ti
ju di
Palab ra</w>
em bar
CRISTI ANA</w>
wan ej
m om
e h
ar án</w>
a kʼopon</w>
t so
res pu
res pe
muj er</w>
l tik</w>
N a
man tal
M a</w>
sab er</w>
kal tik</w>
pro te
A M
A tal
skʼopl ale</w>
gr an
spa so
obern ante</w>
enseñ a</w>
escri bi
ad ores</w>
v oy</w>
c ʼ</w>
mo str
ed es</w>
lokʼ es
di fí
g an</w>
A y
s na
S amu
j kʼaxel</w>
akʼ an</w>
s ino</w>
s baj
N ue
ʼu m
j ba</w>
ay niwan</w>
un ci
ti kix</w>
e za</w>
E J</w>
d en</w>
bu k</w>
au di
a ta</w>
S E
S u
Be tel</w>
o e</w>
anci anoetik</w>
Qu i
esta mos</w>
x u
D e</w>
sac erdo
j nop</w>
S o
tsoblej etik</w>
swenta il</w>
S Kʼ
r om
kakʼ beytik</w>
ciu dad</w>
Ó N</w>
nopo l</w>
hab ían</w>
Atal aya</w>
sig lo</w>
V e
Ma chʼ
pa rec
kal beytik</w>
jay eb</w>
tu vo</w>
in i
espiritu ales</w>
sk on
n ing
machʼa tic</w>
ens es</w>
x kux
po der</w>
par ti
padr e</w>
al a
ñ os</w>
ter min
en e</w>
bíbli cos</w>
tr an
sw olol</w>
p lan
em ix</w>
tu ras</w>
smu lan</w>
hi st
Pon ga</w>
Akʼ a</w>
ra do</w>
espo sa</w>
man ch
al al
esta ban</w>
e di
bi k</w>
sa bi
s kuxlejal</w>
awu ʼun</w>
a ik</w>
per i
pa í
mens aje</w>
j e</w>
skol tayat</w>
si tin
paj el</w>
l ado</w>
en vi
O ʼ
y es</w>
pʼ aj
es as</w>
I s</w>
din ero</w>
ab le</w>
sn a</w>
senti do</w>
lokʼo m
, 000</w>
gi p
pro gr
em i
d ente</w>
ay otik</w>
Ve amos</w>
Testig os</w>
x lokʼ</w>
mil l
audi torio</w>
pr endi
jchʼuun jeletik</w>
He b</w>
win ike</w>
s ku
minister io</w>
lo gr
tʼuj bil</w>
Samu el</w>
lam al
kʼop e</w>
cas o</w>
x ch</w>
n aj
ci elo</w>
al qui
prim era</w>
obe dec
fu tu
feli z</w>
stuun tes</w>
snop ik</w>
r í
prim ero</w>
espiritu al</w>
EJ TIK</w>
1 7
ad or
j chʼi
J ac
w enta</w>
tsʼ in
prue ba</w>
gr u
g amos</w>
bu en</w>
P ad
1 6
vi eron</w>
san to</w>
predic ación</w>
k el</w>
LE K</w>
JCHʼUUN EJTIK</w>
publi ca
hac en</w>
c ado</w>
am b
4 2</w>
tar on</w>
Es cri
yoʼtan e</w>
tom ar</w>
convers ar</w>
con di
so mos</w>
in formación</w>
M t</w>
M i
ust edes</w>
segu r
al o</w>
futu ro</w>
Ad án</w>
án g
tay tik</w>
stsʼi bay</w>
pár rafo</w>
fu eron</w>
entr as</w>
Mar cos</w>
ó ni
á cti
o etike</w>
koʼtan tike</w>
isra eletik</w>
ch o</w>
W AN
ob ra</w>
spa se</w>
ar ía</w>
ac tu
Jesu cri
for tal
embar go</w>
cu alqui
E l
v o
p l
t or</w>
er es</w>
Le y</w>
yakʼ el</w>
v ali
no ti
a ten
1 8
skon tra
bauti z
sn ojp
o li
na ción</w>
n ame
S l</w>
E s</w>
C U
to j</w>
st so
d an</w>
y aʼte
tro du
l len
qui z
inclu so</w>
i di
e t</w>
v amos</w>
s Kʼ
dis curso</w>
cion etik</w>
o tak</w>
BI L
t on
al ik</w>
servi r</w>
jkuxlejal tik</w>
di fer
ch eʼ
em o
buen a</w>
M an
A W
reuni ón</w>
pr ácti
os os</w>
jtoj oltik</w>
con stru
i deas</w>
b alumilal</w>
yi jki
se amos</w>
no ta</w>
es os</w>
aba t</w>
a ch</w>
m il</w>
deb e</w>
yal botik</w>
ser á</w>
o pon
j al
con oci
Pad re</w>
P regun
E c
pre par
manch uk</w>
g as</w>
per fec
4 3</w>
w eʼ
kon tra
WAN EJ</w>
ter r
mu lil</w>
ele tike</w>
ej emp
di e</w>
ul aʼ
snaʼ ik</w>
ri ó</w>
o b</w>
jkʼopon tik</w>
CI ÓN</w>
in trodu
de dic
apóst ol</w>
yichʼ el</w>
yal xan</w>
h e
untes a</w>
s cuenta</w>
j koltay
idi om
ca pí
tem a</w>
re cor
hu mil
revi sita</w>
e dad</w>
Mar ía</w>
B TES
m pi
ar a
T AN
di eron</w>
ta ba</w>
si gu
pʼi jil</w>
j ch</w>
dis fru
a kʼ</w>
ta dos</w>
pu esto</w>
m í</w>
Lu c</w>
B A
vol un
smu lan
kʼu x
á li
ter ri
conoc er</w>
ben e
Ba bil
y in
s mo</w>
qu emos</w>
pi si
kʼ in
ar ti
to y</w>
lu m
fu era</w>
conse jos</w>
undi al</w>
su elo</w>
hi c</w>
chaʼ be
J E
v an
m er
quer ía</w>
o ca
a w</w>
u c</w>
t en</w>
super inten
stu untes
snichʼ na
res ul
nue vo</w>
k a</w>
a gra
yan iwan</w>
alumil ale</w>
Pro v</w>
4 8</w>
tu s</w>
tan do</w>
au tor
yaʼ bilal</w>
ar emos</w>
ad ro</w>
T o
E li
p e</w>
mukʼ xan</w>
ayi n</w>
ayud ó</w>
li x</w>
Jesucri sto</w>
testig oetik</w>
ta ción</w>
t é</w>
pro fec
jkʼ i
ch eb</w>
x laj
spa si
sch aʼ
qʼu inal</w>
mil agr
Tu untesa</w>
ten ían</w>
sol dad
al tik</w>
revi sta</w>
judi oetik</w>
j ta</w>
da vía</w>
A r
ú lti
apren der</w>
bi lik</w>
si do</w>
respu esta</w>
d estr
R om</w>
ón de</w>
pe di
mu estr
jaʼuk nax</w>
chaʼ kuxaj
Uni dos</w>
Esta dos</w>
sKʼ op</w>
car i
al im
S O
su c
introdu cción</w>
cualqui er</w>
tojob tesel</w>
v u
tu un
pre ocu
feli ces</w>
d en
al ale</w>
abatin el</w>
VID EO</w>
S e</w>
Babil onia</w>
sal v
ok in
nec es
k ar
jun etik</w>
EST RI
5 5</w>
vers í
v el
v ari
ta ti
k aʼ
cʼ u
p es
el las</w>
b as</w>
quiz ás</w>
pun to</w>
smukʼu lin</w>
ar le</w>
ayud ará</w>
a st
y oʼ
kʼ ay
jw okol
b el</w>
anci ano</w>
L i
á b
to davía</w>
pas o</w>
áli sis</w>
s ali
lo etik</w>
human os</w>
er r
er as</w>
d ol
st estig
signifi ca</w>
judí os</w>
pu l
ale gr
uni dad</w>
ts a
OR ES</w>
Escri turas</w>
s alu
mom ento</w>
gen er
er po</w>
O V
ESTRI BIL
ESTRIBIL LO</w>
r se</w>
tr adu
se cción</w>
principi o</w>
lokʼ el</w>
fi r
be ya
G obernante</w>
yuʼ uni
toy ol</w>
convers ación</w>
buen o</w>
y e</w>
stestig otak</w>
schol bey</w>
v an</w>
p la
on to</w>
es condi
de a</w>
c in
P ʼI
on ik</w>
kom on</w>
R A</w>
QU É</w>
mi entras</w>
lokʼ em</w>
jkʼan tik</w>
C re
S i
E gip
much ach
kʼo tik</w>
tak tik</w>
sti k
dem uestr
hici eron</w>
h or
al beyel</w>
xchʼ ay</w>
vi si
t on</w>
religi ón</w>
pe que
m am
ju ʼ</w>
Cu erpo</w>
Abrah án</w>
aʼte j</w>
maj tan
m enci
esi os</w>
ser es</w>
go bier
g e</w>
a prendi
M aʼ
por t
k al</w>
akʼ el</w>
M EJ
In ter
A jw
x bo
vi de
publica ciones</w>
per don
k amigo
com en
capí tulo</w>
ESTR OS</w>
pas ado</w>
f un
aqu í</w>
PʼI JU
y amigo
ha ciendo</w>
h emos</w>
ali x</w>
S A
vi o</w>
destr u
ad el
x chiknaj</w>
perd ón</w>
m el</w>
kʼu xul</w>
ji bal</w>
al bil
S T
pod ía</w>
ob j
an ti
Rom a</w>
xbaj tʼ</w>
re p
PʼIJU BTES
H i
Egip to</w>
Ba yal</w>
kʼax em</w>
jaj ch
20 0
to etik</w>
slaj in</w>
skʼan ojel</w>
jpas tike</w>
chaj pan
ó ven
óven es</w>
sm aliy
me dio</w>
ac ab
u m
u ke</w>
ro pa</w>
menci on
k ermano
Jer emías</w>
Jac ob</w>
yak otik</w>
recu adro</w>
noti cias</w>
ne t</w>
deci siones</w>
baj t</w>
Ef esios</w>
ti co</w>
pu so</w>
m é
ki n</w>
deb en</w>
a go
cu los</w>
an to</w>
L o</w>
f á
An álisis</w>
wanej etik</w>
ts aj
j el</w>
6 5</w>
l ar</w>
kuxlejal ik</w>
entr o</w>
S U
z ar</w>
na die</w>
lokʼom ba
d ó</w>
Y A
T r
PʼIJUBTES WANEJ</w>
C r
estudi ar</w>
P R
xkʼopo j
v í
pres enta
bo lil</w>
Ti m</w>
MEJ ORES</w>
yoʼ bolil</w>
schʼuun ik</w>
lo til</w>
lamal kʼinal</w>
jaj chibal</w>
MA ESTROS</w>
tu r
j óvenes</w>
compa ñ
al bot</w>
U se</w>
sac ri
oj tik</w>
jo ven</w>
S jajchibal</w>
ú l</w>
servi cio</w>
pi ens
ma dr
j letik</w>
deci sión</w>
val or</w>
tes tigo</w>
c an</w>
s ent
fuer zas</w>
akʼ beyel</w>
QU E</w>
J on
di do</w>
bus quemos</w>
4 6</w>
z ó</w>
aw akʼ</w>
án d
tam ente</w>
r án</w>
maj tʼ
an el</w>
M es
name y</w>
e vi
É x</w>
or i
Sal om
Sa úl</w>
J n</w>
re cuer
x jajch</w>
qued ó</w>
li le</w>
jte buk</w>
i xe</w>
yakʼ beyik</w>
jun uk</w>
ar r
C O
wokoli letik</w>
man o</w>
ha ga</w>
2 ,
sj ojkʼoy
man t
gru po</w>
f ol
escondi das</w>
ant se</w>
ali ke</w>
w okol
buen os</w>
apóst oles</w>
us a</w>
pas ó</w>
le y</w>
I L</w>
De u
tr im
jaʼ to</w>
ti ca</w>
m em
li ber
igu al</w>
espo so</w>
dej ar</w>
an il</w>
conc lu
le kuk</w>
in as</w>
i mi
fi eles</w>
lle gar</w>
l ab
ju sti
jch ol
il in
bili dad</w>
an aʼ</w>
a i
V i
P ara</w>
sj el
ya c</w>
us ar</w>
sj ol</w>
s kuxlejalik</w>
o port
ma trim
ami sta
Apo c</w>
pro du
g obern
escribi ó</w>
comp leto</w>
P ed</w>
yal el</w>
skʼop on</w>
much a</w>
hist oria</w>
cer ca</w>
Jaʼ uk
AKʼ BE
su curs
sj aj
palab ra</w>
en a</w>
Palab ras</w>
stu m
ex peri
es toy</w>
enten der</w>
en fr
N A
s lu
meʼ il</w>
le le</w>
laj el</w>
Jaʼuk meto</w>
difí cil</w>
I L
ta da</w>
ta b
s in
p ó
bendi ción</w>
ar an</w>
schʼu un</w>
may or</w>
ik ix</w>
beya ik</w>
P u
Ec lesi
stoj ole</w>
er se</w>
er i
as es</w>
Ay bal</w>
vu el
pr ó
p al</w>
Eclesi ast
sts ʼum
seg ún</w>
pisi ltik</w>
Y ilel</w>
Eclesiast és</w>
D O</w>
fá cil</w>
chaʼbe j</w>
situ ación</w>
a pro
no che</w>
mant aliletik</w>
be b
ch ap
P as
un al</w>
p os</w>
le er</w>
es for
clar o</w>
an aʼ
Oʼ TAN
yan yantik</w>
lu k
im os</w>
encontr ado</w>
el xan</w>
ani a</w>
JE H
v ino</w>
pe kʼel</w>
especi al</w>
c er</w>
as amb
alg ún</w>
spisi luk</w>
fuer te</w>
d amos</w>
Kʼ O
JEH OV
yal e</w>
kuxlej alil</w>
j kʼop
car ta</w>
ac ʼ
Machʼ a</w>
en emi
prue bas</w>
el lo</w>
a ti
L as</w>
ár b
x ku
stuuntes ik</w>
l ación</w>
e ter
e k</w>
aba ti
Inter net</w>
p ej
h ora</w>
fol leto</w>
ali dades</w>
yu c</w>
x w
on io</w>
JEHOV Á</w>
r le</w>
madr e</w>
cu án
yoʼtan ike</w>
sab emos</w>
llam ado</w>
kuʼun tike</w>
jojkʼoy el</w>
com pr
s nopo
es cla
pec ado</w>
on etik</w>
jmu lan
ts el</w>
stoj olik</w>
sab ía</w>
s jun</w>
h ará</w>
d om
a xan</w>
pens es</w>
mo ti
con si
cir c
c to</w>
atr o</w>
an aliz
T es
C ol
B alumilale</w>
resu ci
nojp tes
llev ar</w>
ku ʼun</w>
di ri
deb er
D A</w>
s te</w>
quer emos</w>
ni ño</w>
es fuer
a toj
Salom ón</w>
ten go</w>
snaʼ oj</w>
mi entos</w>
jte b</w>
hac emos</w>
ci ó</w>
z ca</w>
sm el</w>
segu ro</w>
paj ina</w>
li mpi
ker eme</w>
j am
ʼI L</w>
yaʼte lik</w>
skʼan ik</w>
sab e</w>
lleg ó</w>
ora ciones</w>
dur ía</w>
dej ó</w>
aw akʼ
U T
L AS</w>
snojp tes
l in
P ri
5 1</w>
u r
sabi duría</w>
jaʼ me</w>
fortal ec
enfer me
al a</w>
áb amos</w>
v enci
skoltay el</w>
s bu
gr e</w>
en se</w>
chʼ ix</w>
Fili penses</w>
uti li
spasi ke</w>
pon er</w>
paí s</w>
pa re
man ten
lo k</w>
lo e</w>
j n
hacer lo</w>
ca p</w>
Kʼ opon
tuun tesel</w>
bin tic</w>
sch ol</w>
l oʼ
h l</w>
f o
cheʼ oxeb</w>
cham bal
P o
publi c
ka t</w>
Tes al
C o</w>
tʼ un
majtan il</w>
jchʼuun tik</w>
en car
ba j</w>
ar les</w>
ú ni
spas ele</w>
re cción</w>
jtu untes
cier to</w>
ab é</w>
podr ía</w>
ha cia</w>
fi el</w>
cu alidades</w>
cir cui
b ol
ES P
5 2</w>
o cur
m es</w>
E R</w>
tati letik</w>
tar de</w>
o do</w>
ad oración</w>
Kʼ ax</w>
po lí
och ik</w>
ch ol
a cu
Mes ías</w>
of rec
jkoltay tik</w>
hab er</w>
des a
cla se</w>
Nue va</w>
Na il</w>
É l</w>
wan ik</w>
tran s
skoltay on</w>
sem an
li ʼ</w>
bi deo</w>
G u
ta ri
ser i
p ú
hab la</w>
baj o</w>
a se</w>
D es
A sí</w>
mi sion
m undial</w>
i mag
baj tʼ</w>
ay el</w>
Pregun ta</w>
L A
yal oj</w>
san gre</w>
mo do</w>
B ern
tiklan bey</w>
l aʼ
ka p</w>
conse jo</w>
ch an
bene fici
SKʼ OP
tal eli
e do</w>
yi kʼ
schaj pan
li bre</w>
l el</w>
f on
circui to</w>
yakʼo j</w>
fi cio</w>
bili dades</w>
beb é</w>
No pa</w>
Man chukme</w>
Ez equi
yu kix</w>
t emos</w>
precurso r</w>
k o</w>
es pa
acti tud</w>
Bern abé</w>
ver si
tu t</w>
sbaj tel
prim er</w>
l la</w>
bi luk</w>
a c</w>
No é</w>
D A
ti ó</w>
smulan ik</w>
li c</w>
c ru
Se ñ
4 7</w>
oj os</w>
n e</w>
lu mil
lek nax</w>
in otik</w>
escu ela</w>
cu atro</w>
acer ca</w>
medi ante</w>
importan tes</w>
b en</w>
ar los</w>
so r
s ó
reg res
matrim onio</w>
laj inel</w>
d or</w>
G é</w>
E va</w>
stsa k
h il</w>
Com o</w>
yu til</w>
t ele</w>
si to</w>
s Nail</w>
min chi
in f
K E</w>
na cion
j ap
g er
J ojkʼoy
E TIK</w>
CH ʼ
skʼ ajkʼ
sj o
pr onto</w>
Señ or</w>
A l</w>
sbi ile</w>
sbajtel kʼinal</w>
r á
pʼijub tes
mal as</w>
l lo</w>
kʼ e
ha ya</w>
expli ca</w>
empez ó</w>
T sob
principi os</w>
conclu sión</w>
í si
sm am
pe kʼ
oji x</w>
mi edo</w>
enta ri
ca paci
SKʼOP L
Hi jo</w>
G UN
ning ún</w>
ni ños</w>
ichʼ el</w>
i ba</w>
G e
yakʼ bon</w>
sle kub
sk om
si a</w>
ma yuc</w>
volun tad</w>
tʼ ik</w>
s kʼo
x a
ver emos</w>
puer ta</w>
lec c</w>
c ciones</w>
swok ol</w>
n ú
le y
koltay ot</w>
gar es</w>
e b
bon ik</w>
bah lumil
R A
4 9</w>
versí culo</w>
un el</w>
ulaʼ tay
s mantal</w>
pro pó
kʼ an</w>
confi anza</w>
autor idad</w>
yuʼuni ke</w>
sta s</w>
mill ones</w>
i kʼ
g ado</w>
en o</w>
amista d</w>
qui én</w>
j y</w>
il tik</w>
aw al
apren demos</w>
ant s
yal beyik</w>
trabaj ar</w>
s as</w>
j pisiltik</w>
e z</w>
aqu el</w>
al can
Ezequi el</w>
terri torio</w>
si ca</w>
le ke</w>
in stru
all á</w>
P RE
6 0</w>
respon sa
reli ji
bar co</w>
alg una</w>
t ú</w>
progr ama</w>
presi ón</w>
p ti
il awil</w>
cuer do</w>
be yi
apa rec
O R</w>
N OP
te etik</w>
s familia</w>
re ch
problem a</w>
ku r
j ol</w>
dic en</w>
C ON
yin am</w>
yaʼ bil
tor es</w>
superinten dente</w>
pe li
na il
kʼin ale</w>
f inal</w>
demostr ar</w>
d el
b ri
anci a</w>
an ik</w>
ab r
J un</w>
vi ó</w>
muj eres</w>
h k</w>
feli ci
cab eza</w>
pa p
em br
d ará</w>
as un
Es cu
tal elil</w>
skʼ ab</w>
rela to</w>
jich nix</w>
aʼte jik</w>
S au
taleli letik</w>
t st
st al
in to</w>
congreg aciones</w>
awu ʼun
G U
EN T
jtuuntes tik</w>
j tso
dol or</w>
cuer po</w>
asi g
ab e</w>
vi aj
tr as</w>
sucurs al</w>
skʼajkʼ alel</w>
pʼijub tesel</w>
ju jun
e tic</w>
K O
yuʼ el</w>
vol ver</w>
de f
ani chʼ
Re y</w>
sjaj chibal</w>
o te</w>
na ciones</w>
man os</w>
m ento</w>
esfor z
ch im
awi chʼ</w>
SU J
Ru t</w>
N U
í z</w>
so ke</w>
s lekil</w>
propó sito</w>
co stum
ajw aliletik</w>
xku jch</w>
vi sita</w>
si ente</w>
ser ía</w>
salu d</w>
estu vo</w>
di os
s pʼijil</w>
s nu
raz ón</w>
lu ch
c ele
al beyaik</w>
w tst
wtst y</w>
v ar</w>
n wtsty</w>
li o</w>
habl en</w>
gu sta
bi le</w>
bah el</w>
San t</w>
P a
O T
DI OS</w>
5 4</w>
pa r</w>
kermano taktik</w>
ch u
agu an
y ik</w>
li ke</w>
la tas</w>
h aʼ
curs os</w>
comi da</w>
ap li
K U
ts es
ta ya</w>
pes ar</w>
l f
es es</w>
confi ar</w>
com er</w>
sigu e</w>
pod er
kil al</w>
con ten
c entr
T U
SUJ TI
tsi lal</w>
tal e</w>
su é</w>
necesi tamos</w>
kontra inel</w>
di fi
SUJTI B</w>
M al
M U
K ʼ</w>
Jo sué</w>
á latas</w>
su t
pa reci
p endi
nue va</w>
mar zo</w>
X JU
L u</w>
kʼ an
i letik</w>
human idad</w>
S er
v oc
tem as</w>
tal em</w>
pas ar</w>
or ía</w>
bey xan</w>
aten ción</w>
U n</w>
Qui én</w>
P r</w>
x cʼ
pi ed
f ía</w>
cari ño</w>
árb ol</w>
ya cʼ</w>
vi sto</w>
st os</w>
obj eti
neces ario</w>
mis ma</w>
majtʼ anil</w>
m á
is te</w>
estudi ante</w>
d oc
cristi ano</w>
ci os</w>
bus car</w>
a cuerdo</w>
G én</w>
G ál</w>
á ni
tu minchi
sacerdo te</w>
s es</w>
pú bli
prácti ca</w>
chuk el</w>
ay e</w>
Ez e
re alidad</w>
pue do</w>
muestr a</w>
kux inel</w>
erman oetik</w>
enemi gos</w>
ba yalxan</w>
G álatas</w>
ta ji
só lo</w>
on a</w>
ki chʼ</w>
ju sto</w>
gobier no</w>
cele br
b or
oport unidad</w>
jich me</w>
fi er
E LE
verdad ero</w>
tsʼi bay
soldad oetik</w>
p al
o g
mon os</w>
deci di
de bi
XJU ʼ</w>
tu lan
ker em</w>
justi cia</w>
esta do</w>
e fec
cu enta
óni cas</w>
tseʼ el
ta etik</w>
re ac
prom eti
ma estr
le tike</w>
j etik</w>
con su
Ef es</w>
obedec er</w>
f e
enta in
di st
bíbli cas</w>
b o</w>
wi ts</w>
un da</w>
ten ga</w>
stso b</w>
r emos</w>
paj al
nuj p
lam al</w>
jaʼ e</w>
5 3</w>
yakʼ bat</w>
snaʼ el</w>
smu l</w>
se an</w>
os enses</w>
or o</w>
oni c
m era</w>
experi encia</w>
c r
a d</w>
T am
M ame</w>
I deas</w>
H ch</w>
yakʼo j
st s</w>
s os</w>
r es</w>
och el</w>
maʼ yukix</w>
j tal
asi sti
ajkʼ abal</w>
abr il</w>
G ala
z os</w>
s lam
j as</w>
agr ad
TI KE</w>
C r</w>
sti j
nor mas</w>
man tener</w>
ker em
g ó</w>
ay on</w>
UT ʼIL</w>
J W</w>
3 ,
onic enses</w>
muchach o</w>
jaʼ ik</w>
j ko
des ea</w>
ayud arnos</w>
ants etik</w>
U na</w>
SKʼOPL AL</w>
S a</w>
L OS</w>
yak al</w>
vi sta</w>
lu me</w>
ku l</w>
gu ía</w>
con ta
ar es</w>
Je r</w>
Cu án
Cre ador</w>
Col osenses</w>
yi jkʼi
sme ʼ</w>
smaliy el</w>
re paso</w>
op e</w>
i to</w>
dar le</w>
com pren
al wanej</w>
ajw al
M O</w>
í so</w>
áng eles</w>
jwokol tik</w>
idiom a</w>
sle el</w>
si endo</w>
oni os</w>
mal o</w>
lem ente</w>
jch oltik</w>
j ts</w>
e los</w>
e lik</w>
ci do</w>
ases el</w>
an unci
7 0</w>
í fi
u h
swok olik</w>
sts ʼ
sch ebal</w>
r an
j b</w>
hu bi
gu er
d ando</w>
cam in
ami entos</w>
N TIK</w>
Cr ónicas</w>
yo k</w>
weʼ elil</w>
sti n
lu gares</w>
k anan
cʼ op</w>
at án</w>
So k</w>
L e</w>
áng el</w>
vi ene</w>
re a</w>
pregun ta</w>
peli gr
mi embr
kal bey</w>
d ónde</w>
a chʼix</w>
stoj ob
spaso j</w>
much ísi
m ol
j famili
d é</w>
con tes
agra deci
U DI
Tesal onicenses</w>
L o
mor ir</w>
m ilel</w>
lum etik</w>
fu ego</w>
en tan</w>
N ichʼ
2 8
x ba
ti o</w>
stik un</w>
st ʼun
sma k
reg alo</w>
recibi r</w>
ma íz</w>
kʼo el</w>
kil beytik</w>
jmu l
ech a</w>
b les</w>
ar me</w>
M e</w>
5 6</w>
xju l</w>
vi sión</w>
sta el</w>
pró xi
on om
l l
ec e</w>
e baj</w>
cel esti
Pri mera</w>
x j
vi aje</w>
bahlumil al</w>
b ale</w>
aʼte j
tu vieron</w>
segur os</w>
resu r
pu k
il an</w>
f av
c l
OJ KʼO
J OJKʼO
yu laʼ
ter i
posi ti
aj k</w>
JOJKʼO Y
snichʼna bik</w>
pas bil</w>
en cu
di ca</w>
Nue vo</w>
AKʼBE YA</w>
tiemp os</w>
sion etik</w>
no vi
l i</w>
il kʼinal</w>
cumpli r</w>
ch en
a bi
S ba
5 8</w>
se pti
septi embre</w>
parec e</w>
paci encia</w>
or ig
n amal</w>
jnaʼ beytik</w>
gran de</w>
g l
est é</w>
escuch ar</w>
ejemp los</w>
I LI
u tsʼin
ta ban</w>
skanan tay</w>
jm el</w>
a ún</w>
D ES
sigui entes</w>
s ju
pu di
parti ci
na tur
n anix</w>
lokʼes el</w>
jts ʼ</w>
encontr ar</w>
difi cul
di stin
an si
yakʼ beyel</w>
vo z</w>
r ar</w>
oji bal</w>
may oría</w>
ko el</w>
jn aʼ</w>
i da</w>
gran des</w>
f l
du da</w>
d é
Sba bial</w>
ñ ana</w>
yal beyel</w>
ya to</w>
xkʼopoj otik</w>
v es</w>
v emos</w>
k aj
estudi antes</w>
anti gu
a ka
2 9
xi w</w>
terr eno</w>
ta des</w>
si m
rí o</w>
re f
llam a</w>
kaʼ tel
joʼ on</w>
des cu
d or
chaʼ tul</w>
c en
av il
alegr ía</w>
H er
to xan</w>
se xu
schaj pan</w>
ol vi
mi r</w>
man eras</w>
j tʼun
d á</w>
EST UDI
vel ación</w>
ti j
so r</w>
sbu jtsʼ</w>
s inti
resur rección</w>
prof eta</w>
he bre
fuer za</w>
congreg a
R e</w>
C E</w>
st ale
stale lik</w>
or k</w>
mar avil
jaʼ niwan</w>
g eli
emo cion
d entro</w>
com par
Sau lo</w>
Ju dá</w>
Gala ad</w>
ter onom
teronom io</w>
respe to</w>
pu estos</w>
profec ía</w>
kʼ bil</w>
ha bi
asamb lea</w>
ab u
ab les</w>
N i
I C
Deu teronomio</w>
Í AS</w>
tsʼ inel</w>
oca sión</w>
ju i
jm aliy
i s</w>
celesti al</w>
Y ork</w>
y abal</w>
sti j</w>
situ aciones</w>
si st
gi ó</w>
v ej
tu bre</w>
tik lan</w>
qu ías</w>
mis mos</w>
kʼ un</w>
inf lu
cui dado</w>
Abrah am</w>
8 3</w>
5 7</w>
man iwan</w>
lek xan</w>
jun tos</w>
cambi ar</w>
Tr adu
R ESP
yi ch</w>
van geli
so y</w>
sj unal</w>
s famili
prom esa</w>
ma ñana</w>
en ero</w>
e to</w>
Kʼ A
yu tsilal</w>
sir vi
po x
par tam
loʼ l
lf f</w>
ah k</w>
SO K</w>
19 9
xi ʼ
ra to</w>
pa ra
nú mero</w>
laj em
la etik</w>
ent al</w>
consi der
con du
bon dad</w>
an ali
N eh
É x
ts ak
ti r</w>
sbaj tʼ
s ni
inter es
dem asi
cu x
chim al</w>
an zas</w>
PA S
A R
sitin tayel</w>
s ar</w>
oʼtan ile</w>
lle va</w>
le g
laj un
l las</w>
j chʼ
ch ane</w>
aw il
Y u
J pas
ú n
yichʼ ojik</w>
vi ol
len gu
i x
con ver
b ra</w>
vi r
ti x</w>
t emp
stsʼum bal</w>
pro c
ki jki
ili n</w>
felici dad</w>
chambal am
bendi sion</w>
awuʼun e</w>
ani ma
Y AL</w>
Tradu cción</w>
BI NTIK</w>
so ci
re tik</w>
idiom as</w>
fal ta</w>
demostr ó</w>
be l
ar é</w>
ajw al</w>
a to</w>
6 1</w>
Éx odo</w>
x anix</w>
nom br
jel on</w>
i xi
fri ca</w>
ej ik</w>
d í</w>
cor rec
bu r
ba eltik</w>
yak on</w>
sba e</w>
profec ías</w>
kʼax emix</w>
gri ego</w>
difer entes</w>
di j
awoʼtan ik</w>
ara ón</w>
ad orar</w>
U E
Neh emías</w>
Cu ál</w>
é xi
x be
sufri miento</w>
seri cor
reg i
pi e</w>
mi sericor
jw ol
hac ía</w>
de tal
ar rep
apro ve
PRE GUN
sta t</w>
s lokʼ
re gu
po li
nop tsaj
ma yo</w>
le al</w>
jchʼi eletik</w>
g ol
for me</w>
ed u
ci les</w>
Testig oetik</w>
Tam bién</w>
P re
Ajw alil</w>
tsʼi bayel</w>
na e</w>
il uk</w>
em a</w>
ar ia</w>
Re velación</w>
RESP ON
C on</w>
An ti
últi mos</w>
te r</w>
tar se</w>
o br
lesi a</w>
espiri tu</w>
1 5
s la
oc tubre</w>
nor te</w>
ent en</w>
e ban</w>
cul pa</w>
co st
bey ex</w>
awoʼtan ic</w>
a g
TA N</w>
T esti
GU I
E stu
tr o</w>
stuun tesel</w>
s le</w>
re ino</w>
qui era</w>
lle gu
ci encia</w>
chʼi chʼ
Isa ac</w>
yi kʼ</w>
u tsʼinel</w>
si til</w>
próxi ma</w>
oj e</w>
le ku
kʼop iletik</w>
kʼ tal</w>
ju lio</w>
jmu lan</w>
ho spi
P I
Kʼopon aik</w>
Í A</w>
tar á</w>
s enci
jmulan tik</w>
in v
ent ó</w>
com entari
c é
c ta</w>
c ando</w>
M Á
Est eban</w>
Com i
y ó</w>
xbaj tik</w>
sent ía</w>
ri a</w>
re aliz
pi dió</w>
obe di
le kilal</w>
kʼ un
esper a</w>
B A</w>
ya w
re lación</w>
mu rió</w>
jkʼan beytik</w>
cre ación</w>
a il</w>
tes ti
slam alil</w>
sch olik</w>
sba ike</w>
res ca
muer to</w>
lokʼ ik</w>
atoj ol</w>
alal etik</w>
akʼ botik</w>
Escu ela</w>
én d
skʼo tes</w>
rela cion
con venci
ca f
ba s
aw an</w>
Testi go</w>
6 2</w>
1 Co</w>
x bal</w>
sm aj
milagr o</w>
m eses</w>
imi tar</w>
an gu
T en
Le an</w>
ESTUDI O</w>
tsi tsel</w>
qu ía</w>
jun to</w>
j okin
i d
cas i</w>
ax un
Sa m</w>
Re yes</w>
R o</w>
M AN
J NOP
snaʼ bey</w>
skʼ inal</w>
pre ci
lar go</w>
kʼ aj
di cho</w>
demuestr a</w>
caf é</w>
b tes
acti vi
H A
í n</w>
ta el</w>
paí ses</w>
partam ento</w>
m ó</w>
h ilel</w>
difí ciles</w>
dificul tades</w>
di ci
cʼ alal</w>
c osa</w>
bi luk
a fir
V er
7 2</w>
én es</w>
vi era</w>
senti r</w>
rá pi
mal a</w>
j ku
famili ares</w>
cambi o</w>
anci as</w>
ab ri
El ías</w>
A D
ti nu
suj t</w>
p tik</w>
oh t</w>
f in
es co
apo yo</w>
ant eri
anim ales</w>
albil kʼop</w>
TA Y
N ú
yoʼtan ic</w>
pendi ente</w>
mon io</w>
gusta ría</w>
fici os</w>
bendi ciones</w>
am ar</w>
NU ESTR
Maʼ uk</w>
IN I</w>
B ro
í n
x chaʼ
v ac
te ʼ</w>
st i</w>
sna ik</w>
instru cciones</w>
e c</w>
d ores</w>
br ero</w>
awakʼ bey</w>
ani wan</w>
Ji ch
EM OS</w>
Bin wan</w>
A ʼ
ti po</w>
rech az
per se
on kotik</w>
oj t</w>
il la</w>
enseñ ar</w>
a segur
Y ame</w>
PA RA</w>
Ju das</w>
verdad era</w>
nue vas</w>
llam ada</w>
f ari
esta b
est re
enta r</w>
enseñ ó</w>
constru cción</w>
ab an
Fili p</w>
8 0</w>
7 3</w>
tsʼi n</w>
ten ido</w>
qu el</w>
eter na</w>
d ob
cu ción</w>
com ún</w>
cam bios</w>
aguan tar</w>
Vi deo</w>
ú sica</w>
ve a</w>
skʼan bey</w>
sigui ó</w>
pa ña</w>
mil pa</w>
en tu
e o</w>
ci to</w>
alim ento</w>
T AS</w>
O L</w>
B AL</w>
te k
senti mos</w>
pu si
cre encias</w>
compañ eros</w>
ah cʼ
X AN</w>
A s
vari as</w>
testi monio</w>
sw eʼ
ser án</w>
prom esas</w>
preocu pa
po ca</w>
organi sa
hab rá</w>
gra fía</w>
fari se
dese o</w>
cin co</w>
a un</w>
MA CHʼ
Con mem
skoltay ik</w>
senti mientos</w>
quier en</w>
perd on</w>
oli ke</w>
necesi dades</w>
m an</w>
kʼo po
ko tike</w>
jk anan
i dos</w>
gra do</w>
au to
Jon atán</w>
xkux inik</w>
ta ke</w>
maravil lo
m esa</w>
jkʼ ayin
inter és</w>
ej ér
dom in
ci elos</w>
car ne</w>
I K</w>
Conmem oración</w>
C ol</w>
4 ,
ti r
tan tes</w>
skʼ axun
propi a</w>
prom ete</w>
piens a</w>
erman o</w>
car ga</w>
an as</w>
al beya</w>
s pekʼ
spekʼ elil</w>
kʼajkʼ ale</w>
err ores</w>
ant sil</w>
S chaʼ
1 19</w>
su r
lej os</w>
kuxlej ale</w>
jba tike</w>
i sti
gi dos</w>
des ta
da ño</w>
contr ol
con tinu
cl ases</w>
circ un
adel anto</w>
1 3
ó li
xbo otik</w>
vari os</w>
ue go</w>
suc e
seman ae</w>
p en
or gu
er nos</w>
chaj pan</w>
aj es</w>
T e
tor i
s Nichʼ
prim eros</w>
necesi tan</w>
lu z</w>
kʼopon el</w>
gi do</w>
circun st
chʼ in</w>
am bi
T O</w>
SE Ñ
R i
F eli
pec ados</w>
mill ón</w>
mil es</w>
m os
im perfec
i bu
escla vo</w>
ca us
aprove ch
a bier
yal bon</w>
sti ʼ
s chʼul</w>
r en
o í
i kʼel</w>
i dea</w>
efec to</w>
bauti smo</w>
ar la</w>
S ig
M undo</w>
Ajw al
6 8</w>
ya kat</w>
w w
su e
person alidad</w>
p el
oca siones</w>
mu te</w>
le van
kol tay</w>
con suelo</w>
Schaʼ naʼel</w>
sts a</w>
s f
presi on
pa kʼ</w>
muchísi mo</w>
kaʼtel tik</w>
gi r</w>
evi tar</w>
cul ti
awi lik</w>
arti culo</w>
ari os</w>
apa se</w>
aban don
J tul</w>
En t
Al g
jojkʼoy bey</w>
jmaliy tik</w>
j kuxlejal</w>
isra eletike</w>
er lo</w>
e t
cristi ana</w>
atr ás</w>
ali a</w>
T E
P er
ñ as</w>
y el
xkʼo tik</w>
xkoltay otik</w>
w0 6</w>
ten gamos</w>
reac cion
r as
pres ente</w>
pied ra</w>
organisa sion</w>
och em</w>
lar es</w>
am bre</w>
abati no
Ti to</w>
í o</w>
tí tulo</w>
sku yik</w>
sier vo</w>
schʼ am</w>
raz ones</w>
muer tos</w>
mantal il</w>
il u
enseñ ado</w>
enferme dad</w>
cre ó</w>
conse j
car a</w>
c e
L U
6 6</w>
y ox
s ón</w>
r os</w>
r an</w>
pʼi j</w>
pod ían</w>
per ro</w>
o k</w>
mostr ar</w>
herman as</w>
h el</w>
es p
ayud an</w>
P i
M ar</w>
K iltik</w>
ulaʼtay wanej</w>
sigu en</w>
le ales</w>
j kʼu
ech os</w>
col ab
alal to</w>
P or
Jpas wanej</w>
ENT ES</w>
A unque</w>
8 6</w>
6 3</w>
y aj
xkʼopo jik</w>
s be
och on</w>
o t
lec ciones</w>
gu ar
fi j
er g
albil kʼopetik</w>
San són</w>
SI GUI
S in</w>
B anti</w>
us ando</w>
skʼopon ik</w>
sba kʼe
re pres
pi sil</w>
ob st
na sion</w>
may ores</w>
in dic
hubi era</w>
fri jol</w>
expli có</w>
es c
en g
demasi ado</w>
dej a</w>
circunst ancias</w>
awal bey</w>
K OʼTAN
E vangeli
. .</w>
. ..</w>
ʼ ul</w>
ánd ose</w>
w aka
tojob tes
tar lo</w>
suj tik</w>
stoj il</w>
sk om</w>
si tio</w>
r nos</w>
poder oso</w>
ma teri
ju k
jfamili atik</w>
in mor
fav or</w>
d aba</w>
cʼu x</w>
cre en</w>
com uni
anichʼ na
angu sti
S W
BE Y
w er</w>
tri bu
s inc
reg ún
reci ó</w>
re in
pon e</w>
polí tica</w>
perse cución</w>
ka pi
jujun tul</w>
fr on
ex tra
ago sto</w>
T es</w>
S pisil</w>
8 9</w>
é monos</w>
xkoltay ot</w>
ví tico</w>
l á
fu i</w>
fr ente</w>
di os</w>
cu esti
arrep enti
ar ías</w>
a p</w>
Se g
Le vítico</w>
ES I
si ete</w>
ri dad</w>
public adores</w>
na etik</w>
mal os</w>
importan cia</w>
enseñ anzas</w>
dij eron</w>
chaj p
ayu de</w>
ac om
S ab
Maʼ yuk</w>
Jos ías</w>
Davi de</w>
sacri ficio</w>
para íso</w>
on ix</w>
novi embre</w>
n al</w>
joʼ otike</w>
fi c
contr ibu
bo ca</w>
bal ik</w>
ba yal
xch i</w>
xch ebaj</w>
v aya</w>
tu k</w>
tay otik</w>
ta ña</w>
su fr
st oe</w>
si ento</w>
predic ando</w>
necesi ta</w>
liber tad</w>
kamigo in
k in
jal aj</w>
j na
j kʼopon</w>
hab lar
famili as</w>
entu si
ami ento</w>
ab loe</w>
W at
Di ablo</w>
Ar mag
1 00</w>
úni co</w>
tsʼibay bil</w>
s pʼaj
s el
publi cación</w>
obr as</w>
jaʼ ate</w>
jam ás</w>
i h
fe brero</w>
empez ar</w>
To dos</w>
AN T
5 9</w>
x noptsaj
w0 7</w>
vide os</w>
vi a</w>
stsa k</w>
skom el</w>
judí o</w>
j ar
humil dad</w>
h in
gu sta</w>
en can
em po
d i</w>
car ro</w>
ar ca</w>
PREGUN TAS</w>
P abloe</w>
M I
Li br
Armag ed
tr a</w>
ten i
suj tes</w>
stsʼi bay
schʼu h
s enta
propi o</w>
m enti
li letik</w>
le yes</w>
g er</w>
f a
cor ri
ayu dado</w>
ax el</w>
Y I
C A
0 5</w>
ó me
áni mo</w>
wokoli le</w>
slaj in
pul s
oj bey</w>
oc ol</w>
kʼ alalto</w>
j nichʼ
il beya</w>
cé lu
cam ente</w>
c al</w>
ba do</w>
am an</w>
NUESTR A</w>
JNOP TIK</w>
Her o
7 6</w>
vi mos</w>
pu do</w>
oj o</w>
na in
kʼ asesel</w>
habl ó</w>
esper ar</w>
er á</w>
car gar</w>
c en</w>
ach ol
Sal ón</w>
D E
A u
20 13</w>
yaʼbil alik</w>
ya kal
volun tari
tex toetik</w>
sm il</w>
ri ca</w>
pued es</w>
pa s</w>
lokʼomba etik</w>
j e
fon o</w>
chen ek</w>
be el</w>
ar ri
activi dades</w>
S wenta</w>
L uego</w>
Eze quías</w>
2 Cr</w>
yo lil</w>
x tal
tam poco</w>
sj okin
recuer da</w>
re fer
pregun tó</w>
kil óme
jnopo j
hi ja</w>
condu cta</w>
añ a
ah í</w>
adel ante</w>
EN SEÑ
vide oetik</w>
ti sf
tes e</w>
sist ema</w>
sba h
re de
ol og
na inel</w>
kʼun kʼun</w>
human o</w>
conoci miento</w>
chambalam etik</w>
aw amigo
ar ón</w>
M r</w>
Jojkʼoy el</w>
JOJKʼOY ELE
á culo</w>
x jil</w>
x hu
win i
v ay
tri b
te le
t su
stoj iluk</w>
sjojkʼoy bey</w>
s lokʼes
po bre
par rafo</w>
h á
cu ar
conse cu
awu ʼ
a kuxlejal</w>
Ju dea</w>
H ay</w>
snaʼ beyik</w>
sa tisf
pi ense</w>
o bli
le kub
kux in
hon or</w>
ejér cito</w>
desa str
debi do</w>
cu loetik</w>
com eti
abatino tik</w>
Yu ʼun</w>
ér amos</w>
xbaj tʼik</w>
x me</w>
person al</w>
le as</w>
lan a</w>
joʼ otik</w>
ent reg
ci r</w>
aqu ellos</w>
Armaged ón</w>
slaj el</w>
pi es</w>
mej ores</w>
l lo
entusi as
del ante</w>
cu anto</w>
asisti r</w>
al rede
abatin ik</w>
Tsob lej</w>
MÁ S</w>
A yu
5 ,
sufri r</w>
so m
sjo kin</w>
pu ku
pon i
pas os</w>
me ʼ</w>
ex pres
di bu
compa sión</w>
comp le
cam po</w>
c amos</w>
ar y</w>
N os</w>
KOʼTAN TIK</w>
H E
Comi té</w>
Can a
yu tsʼin
yijki tay</w>
yal tiklanbey</w>
xkux inotik</w>
spa t</w>
misericor dia</w>
man da
ma d
libr oetik</w>
ku lo</w>
ju ʼ
fi li
er to</w>
envi ó</w>
dr o
der echo</w>
acʼ a</w>
acep tar</w>
S AL
KU X
Ajwal inel</w>
AM OS</w>
x mantal
obe deci
ob lal</w>
le tic</w>
jwokol tike</w>
ju z
jaʼ al</w>
i or</w>
disfru tar</w>
chʼ ay</w>
al bil</w>
achol bey</w>
abat otik</w>
K IL
Est er</w>
A hora</w>
7 9</w>
10 3</w>
ó gi
yan anix</w>
vol vió</w>
su fici
st e
p ant
ning una</w>
na cionetik</w>
mé dic
jtal eltik</w>
ji lik</w>
ik ixe</w>
g enes</w>
comi en
aqu ella</w>
ac ciones</w>
a su
a fec
P ue
P OR</w>
Ez e</w>
Cana án</w>
C i
0 7</w>
z an</w>
ve an</w>
spisi lik</w>
precurso res</w>
por no
pant al
me tas</w>
dem onios</w>
ch e
ad á</w>
T i</w>
ON ES</w>
Jon ás</w>
20 14</w>
verdad eros</w>
tien es</w>
st oy</w>
sj oʼ
resul tado</w>
re fu
prob able</w>
p regún
p alo</w>
o di
mu k</w>
m úsica</w>
llev ó</w>
jko m</w>
hor as</w>
h t</w>
don aciones</w>
di v
conc entr
cham ele</w>
autor i
Ge de
Di s
D t</w>
9 7</w>
20 22</w>
x k</w>
so lu
schʼuun ejik</w>
k xan</w>
jun e</w>
ju l</w>
invi tación</w>
e h</w>
cas tigo</w>
bautiz arse</w>
a yat</w>
SIGUI ENTES</w>
Re visita</w>
O N</w>
B el
9 0</w>
ts ʼum
te ʼ
scʼ an</w>
pens amientos</w>
mom entos</w>
in fier
di rec
cier ta</w>
c ár
b h</w>
Hero des</w>
EN TA</w>
7 1</w>
6 4</w>
w e</w>
un d
tra ta</w>
stik un
snichʼna b</w>
s ban
r am
o sor</w>
naʼ bil</w>
jts aj
du ro</w>
dec ía</w>
al botik</w>
Pregun tas</w>
z ar
vol ver
s é</w>
s T
pág s</w>
po l
jun io</w>
chʼuun el</w>
Gede ón</w>
DI S
C O</w>
6 7</w>
vi ve</w>
te li
ta e</w>
slu mal
re zca</w>
raf os</w>
pár rafos</w>
libr os</w>
kakʼ bey</w>
h al
cu ál</w>
Y a
V ER</w>
L E</w>
G O</w>
tendr á</w>
si enten</w>
o lil</w>
muchach a</w>
mal v
le ña</w>
ji x</w>
esper tad</w>
ent er
ejemp loetik</w>
ar ían</w>
Z ac
S il
D espertad</w>
v ían</w>
sbi ilin
pi ente</w>
o vej
jnaʼ ojtik</w>
i ch</w>
enseñ anza</w>
empez aron</w>
eli ke</w>
dici embre</w>
co don
cheʼ ox
c aj
ar te</w>
abu codon
a pas
Zac arías</w>
Oʼ TAN</w>
N abucodon
H a</w>
8 8</w>
é poca</w>
slumal ik</w>
segu ridad</w>
responsa bilidad</w>
pág inas</w>
pu ro</w>
or ah
n ojel</w>
ki ptik</w>
jtoj ol
i j
ha gamos</w>
ex ac
cʼ ahcʼ
conoc e</w>
baj el</w>
ar ro
alrede dor</w>
akʼ beya</w>
T he</w>
Machʼ atik</w>
K AKʼ
I K
A p</w>
y ermano
x chaʼkuxaj
ven cer</w>
tra tar</w>
tes ik</w>
seg undo</w>
schaʼ kuxaj
resca te</w>
re almente</w>
pedi r</w>
op ini
mu cʼ</w>
lu ga
laj ele</w>
j T
her m
g obernante</w>
escuch a</w>
enferme dades</w>
en oj
aw e</w>
aprendi do</w>
O TIK</w>
De partamento</w>
AW ILI
ó mi
Á frica</w>
xhu ʼ</w>
spaso jik</w>
sali r</w>
ri to</w>
or den
mi r
inv estig
h ts</w>
h ah
enta s</w>
em í</w>
circ unci
acer car
YA Kʼ</w>
Kʼ AL
AWILI X</w>
6 9</w>
1 2
ti cos</w>
tal emik</w>
ta j</w>
snopo jibal</w>
sin ago
sacri ficios</w>
peque ño</w>
or din
o la</w>
nop ele</w>
mu kʼu
miembr os</w>
kerem etik</w>
ing l
encu entr
dis puestos</w>
cum p
chajpan el</w>
cas os</w>
c endi
asun tos</w>
apo y
No emí</w>
Nabucodon osor</w>
E d
A ca
7 5</w>
á les</w>
raz on
per man
pens emos</w>
luga retik</w>
kapi tulo</w>
infier no</w>
in ale</w>
el uk</w>
cuán to</w>
conta cto</w>
comen zó</w>
cab al
bah t</w>
ani ma</w>
DA D</w>
ti dad</w>
so la</w>
sn i</w>
señ ail</w>
pens ar
nopo lix</w>
j eta</w>
est én</w>
er te</w>
aʼte ji
P en
M abal</w>
KʼAL AL</w>
E sto</w>
8 4</w>
0 2</w>
z ado</w>
yijki tayel</w>
xiw el</w>
u xul</w>
spas bey</w>
snichʼ an</w>
pa k</w>
ni chimal</w>
min u
l as
hebre o</w>
fí si
f araón</w>
est ás</w>
ej a</w>
e con
costum bre</w>
con f
bili x</w>
as pec
N ú</w>
M undial</w>
KAKʼ TIK</w>
Cor into</w>
9 8</w>
1 Sa</w>
z ona</w>
x kʼ
x chi
ten gan</w>
su bi
skʼop e</w>
re al</w>
o per
l lu
l ad
kʼux otik</w>
j na</w>
di g
am el</w>
a tra
Ent onces</w>
A ʼI
7 8</w>
xba at</w>
w ej</w>
w 15</w>
u do</w>
snaʼ beyel</w>
ru m
que da</w>
permi so</w>
o quía</w>
j yan
j och
habl ando</w>
des cri
deber ía</w>
cár c
ci on</w>
can ciones</w>
c ay
be r</w>
ac e</w>
a tu
Libr ary</w>
JOJKʼOYELE TIKE</w>
J os</w>
Deu t</w>
Anti oquía</w>
8 7</w>
0 3</w>
versí culos</w>
trans mi
stiʼ il</w>
sem br
scʼ oblal</w>
s po
responsa bilidades</w>
respon dió</w>
religi osos</w>
kʼux uk</w>
kʼ ine</w>
k u</w>
jui cio</w>
jtoj ol</w>
humil des</w>
gl oria</w>
entusias mo</w>
demostr amos</w>
d arnos</w>
car r
agra dec
N OS</w>
M P
M OS</w>
A m
A E</w>
9 4</w>
9 1</w>
án do
x kʼax
tuminchi jetik</w>
ts a</w>
tik un
tar jeta</w>
ta ra</w>
skʼ ases
pi de</w>
per der</w>
par tes</w>
lu j
lleg aron</w>
kux ul</w>
ji n</w>
j meʼ</w>
fortalec er</w>
f oy
dar les</w>
con ciencia</w>
SKʼ AN</w>
B R
20 12</w>
x uj
us ó</w>
tr on
tik unel</w>
smele lile</w>
quer ido</w>
podr ían</w>
per dido</w>
o tikix</w>
man dó</w>
kur so</w>
hi er
herman oetike</w>
h all
gener al</w>
du ra</w>
dr á</w>
dis puesto</w>
d encia</w>
cʼ ul</w>
asun to</w>
artí culos</w>
aj tik</w>
VI D</w>
S ara</w>
Pue de</w>
su r</w>
snop elxan</w>
sim p
se o</w>
sNichʼ an</w>
respu estas</w>
pusi eron</w>
pue da</w>
pajal uk</w>
of rezca</w>
na sionetik</w>
kʼa t
im pri
ha gan</w>
demuestr an</w>
cárc el</w>
capaci dad</w>
autori dades</w>
apo ya
aj ch</w>
F r
A arón</w>
yu chʼ
w 11</w>
t se</w>
segui da</w>
s am
pas beyel</w>
o dio</w>
naj al
le v
jkuxlejal tike</w>
im presion
i y</w>
f ra
detal les</w>
der es</w>
decidi r</w>
d entes</w>
ci entos</w>
chʼul chane</w>
ca usa</w>
anim al</w>
S u</w>
Le a</w>
K I
C Ó
A lem
x ʼ
sufici ente</w>
sta ojik</w>
sob revi
r ían</w>
or amos</w>
lí deres</w>
kaʼ bilal</w>
jta te</w>
ingl és</w>
h ay
gobier nos</w>
co tic</w>
as te</w>
actu alidad</w>
abaj o</w>
a f
U cr
Des pués</w>
A P
xkʼo otik</w>
x ba</w>
sinti ó</w>
si quiera</w>
ri sti
pa st
o f</w>
lokʼom ba</w>
ley etik</w>
i ban</w>
humil de</w>
hab ría</w>
g en</w>
congrega cionetik</w>
ba r</w>
b tes</w>
al nichʼ
al etik</w>
actu ar</w>
a fron
Ucr ania</w>
Tsob lej
San ed
SW ENTA</w>
Pas a</w>
Est á</w>
CÓ MO</w>
B Í
9 9</w>
6 ,
tar nos</w>
tan o</w>
snaʼ ojik</w>
pre dijo</w>
pas tiklan
mu l
m eros</w>
gu sto</w>
gr adu
dios es</w>
con seguir</w>
chi kʼbil</w>
ch a
c ami
ani ke</w>
HA C
C ar
BÍ BLI
Alem ania</w>
yichʼ ix</w>
un gidos</w>
to e</w>
spas beyel</w>
slu mal</w>
slokʼ es</w>
sirvi endo</w>
seg unda</w>
sacerdo tes</w>
per laetik</w>
pedi rle</w>
pa t
olog ía</w>
objeti vo</w>
mo so
ma k
jojkʼoy beya</w>
jkʼop l
jap a</w>
gra ve</w>
er ía</w>
em pi
consecu encias</w>
ci al</w>
asig nación</w>
am amos</w>
Jo h
AD N</w>
w en</w>
ts ʼun
tek sto</w>
s puk
rí n</w>
re yes</w>
pa ñ
ovej as</w>
orig en</w>
ol la</w>
minister i
le al
leal tad</w>
jtʼun tik</w>
ir se</w>
in dica</w>
imag in
ik xan</w>
i te</w>
ex isti
eng añ
dios etik</w>
def en
cre er</w>
car on</w>
cam paña</w>
aʼi yi
anali ce</w>
al to</w>
ac er</w>
a te
Saned rín</w>
P RI
M aba</w>
C am
9 5</w>
20 20</w>
tex tos</w>
tendr emos</w>
recibi ó</w>
prometi do</w>
objeti vos</w>
nujpun el</w>
lej al</w>
k nax</w>
hu bo</w>
h ambre</w>
gri e
cuán do</w>
c oʼtan</w>
bor ra
ant os</w>
ach ol</w>
ab lemente</w>
Es te</w>
0 1</w>
w 13</w>
tij bot</w>
swenta in</w>
sali ó</w>
s man
religi ones</w>
qu il</w>
princi pal</w>
orah il</w>
mostr ó</w>
mo des
ma ch</w>
laj em</w>
jnopo jel</w>
jkʼayin beytik</w>
i jki
foy eto</w>
ex e</w>
em ente</w>
di vi
d arse</w>
cre e</w>
contr ario</w>
co pi
ba em</w>
Sil as</w>
H oy</w>
wi ʼ
vol u
ti to</w>
soldad os</w>
slekub tes</w>
skanan tayel</w>
segui dores</w>
pon ga</w>
má xi
lajem ikixe</w>
jwol wanejetik</w>
enfr enta
econ ómi
constru ir</w>
chajp nax</w>
bal etik</w>
aʼiy el</w>
awuʼ uni
Jaʼ bal</w>
CO VID</w>
Aca b</w>
y n</w>
w ayel</w>
tradu cción</w>
recu per
r me</w>
permi te</w>
nujpun em
nacion al</w>
maj tan</w>
l tes
j chajpan</w>
for mas</w>
b lan
a ku
KO L
J axan</w>
tar án</w>
sts alel</w>
schajpan el</w>
r ob
mi go</w>
men udo</w>
llen a</w>
li ci
gol pe
fi esta</w>
ex ten
cui dar</w>
ci miento</w>
chʼichʼ e</w>
c aba</w>
aw aʼiy
arti kulo</w>
T a
P e</w>
J TA
9 6</w>
7 4</w>
ti que</w>
sle ik</w>
mej orar</w>
jtso jb</w>
i rá</w>
ex per
chaʼox chajp</w>
cambi ó</w>
al co
ac ción</w>
X CH
S nopel</w>
O P</w>
yakal ik</w>
ya ku
spi r
sir ven</w>
s á
puer sa
pl á
moti v
kʼop etike</w>
k an
jm il</w>
il otik</w>
fuer tes</w>
espa da</w>
encontr amos</w>
emp le
chʼi chʼ</w>
X C
N uestr
y on</w>
xbo on</w>
tseʼel nax</w>
stu quel</w>
sab en</w>
s mi
res ol
pri sión</w>
porno grafía</w>
p ed
nuj pʼ
mo el</w>
luch ar</w>
li mi
kʼax toxan</w>
id enti
ga se</w>
eli min
baj tik</w>
19 14</w>
óni ca</w>
y orahil</w>
y ajwal</w>
vi eran</w>
uk nax</w>
ten cia</w>
su ger
sta te</w>
sbah tel</w>
rápi do</w>
resul tados</w>
qʼu el</w>
que tic</w>
or asi
ob ser
naʼ beyel</w>
me dic
kal bey
joʼ one</w>
joch ol</w>
hon r
go zo</w>
e uke</w>
ch ete</w>
an da</w>
S am
PR O
M A</w>
G ali
E C
D EL</w>
9 2</w>
yu tsʼin</w>
win ic</w>
versi dad</w>
sol dado</w>
s no
opo si
mal dad</w>
lab or</w>
jich uke</w>
bay alix</w>
awoʼtan e</w>
apoya r</w>
an d
Can adá</w>
CU R
A na</w>
14 5</w>
ʼ ue
yox ebal</w>
yo tses
xcʼ oht</w>
tak tike</w>
sut bey</w>
rom ano</w>
qui si
q ʼue
p ik</w>
man d
k me</w>
hacer se</w>
en seguida</w>
cu ʼun</w>
contr ol</w>
con sol
cas as</w>
Dis fru
C é
A J
yel aw</w>
ver so</w>
tsoblej e</w>
tran qui
t xan</w>
sj ok
reliji on</w>
pun tos</w>
pap el</w>
pa rado</w>
p ena</w>
m en</w>
kʼaj kʼ</w>
jnop ilan</w>
jkʼopl altik</w>
imag en</w>
im pli
guer ras</w>
f recu
en en</w>
ele l
ej er
ch ah
baj tʼik</w>
ayi ke</w>
arri ba</w>
ad ul
N M</w>
M elel
Ec l</w>
Au str
7 7</w>
y ec
xkoltay wanik</w>
xchaʼkuxaj ik</w>
vali ente</w>
sjoʼ tak</w>
si dad</w>
qui so</w>
preocu pa</w>
plan eta</w>
pare d</w>
pantal ón</w>
ocur ri
o tses
nichʼ an</w>
na h</w>
lo m</w>
ku ela</w>
koʼtan e</w>
jchʼi el</w>
j sitin
j an</w>
guer ra
g ra</w>
es a
ec er</w>
deber íamos</w>
cu al</w>
ci da</w>
bol ob
apli cación</w>
an c
W il
ST OJ
S BA
Cr ón</w>
B ar
B RA</w>
A TIK</w>
É f
Éf eso</w>
vir tió</w>
vi ven</w>
ta te</w>
stojob tes
segu ra</w>
s el</w>
pu esta</w>
pas ando</w>
m ba</w>
j ol
il awilik</w>
em otik</w>
descu bri
chʼul tes
bi x</w>
bey ele</w>
T esta
T RA
P ʼi
Mu lana</w>
I g
BEY TIK</w>
7 ,
2 Re</w>
0 9</w>
últi mo</w>
yakʼoj botik</w>
wokol e</w>
w ak
v esti
tra tado</w>
tor etik</w>
señ a</w>
se is</w>
reg al
pudi era</w>
nujp ʼ</w>
li sta</w>
li dad</w>
fili ste
esfuer zo</w>
e buk</w>
don os</w>
dibu jo</w>
compr ar</w>
c ó
ba yuk</w>
M igu
H a
Cé sar</w>
éxi co</w>
y endo</w>
ti do</w>
sk aj
sba hic</w>
ro e</w>
re as</w>
r on</w>
parti r</w>
manda to</w>
jchol beytik</w>
ig lesia</w>
fru to</w>
ex ist
esfuer zos</w>
el to</w>
dr as</w>
di señ
di era</w>
con o
com e
can s
bo tike</w>
Testa mento</w>
RESPON DA</w>
M éxico</w>
Jojkʼoy eletik</w>
8 ,
ʼi x</w>
wan otik</w>
tel é
te y
tal es</w>
segu imos</w>
sbi kʼtal</w>
respon de</w>
religi onetik</w>
recor dar</w>
pʼi j
pu kel</w>
pregún tese</w>
parec er</w>
pan dem
paci ente</w>
orgu llo
necesi dad</w>
máxi mo</w>
mu si
mu lile</w>
lo do</w>
kʼopon axan</w>
jT atik</w>
ex iste</w>
ern áculo</w>
deci dió</w>
cʼahcʼ al</w>
con tiene</w>
con den
c os
b alumilale</w>
aw ichʼ
al ma</w>
OʼTAN IL</w>
O r
M e
I sa</w>
E u
20 19</w>
y el</w>
w0 5</w>
uni verso</w>
ta ciones</w>
so por
skontra tak</w>
s en
res al
najal sitil</w>
in for
impri mir</w>
h inel</w>
gr ab
estab le
es pec
doc tor</w>
dese os</w>
con st
com pens
c elo</w>
T s
Sig nifi
Mar i
J ay
BIBLI AE</w>
2 Co</w>
wiʼ nal</w>
w ocol</w>
w 16
tab ernáculo</w>
ta til</w>
ta j
swenta in
sam ari
ri co</w>
qui ero</w>
qued aron</w>
po llo</w>
ox tul</w>
mu ri
me ta</w>
kʼax em
i lele</w>
hist ori
h ch</w>
gra ti
gan ar</w>
fo to</w>
fi car</w>
equi po</w>
ent re
emp ec
dej aron</w>
confi r
chʼu un</w>
aw a</w>
Qu e</w>
Es dras</w>
Disfru te</w>
D ónde</w>
CI ONES</w>
9 ,
y ej
tu l
toj il</w>
termin ar</w>
tendr án</w>
sti tu
smam alal</w>
schʼuun ej</w>
qui énes</w>
oy e</w>
on el</w>
mu t</w>
min i
llam ó</w>
kʼay oji
he tic</w>
enseñ an</w>
en as</w>
en al</w>
eli o</w>
ch as</w>
can tidad</w>
c ad
br a
bo la</w>
ah ab</w>
S naʼ
MACHʼ ATIK</w>
LE C
Feli pe</w>
F l
E x
B o
AN Z
w 12</w>
u b</w>
ton ax</w>
super ar</w>
soci ales</w>
sir ve</w>
que as</w>
pro ve
ob er
ma chete</w>
llen o</w>
ju luk</w>
jm am
h un</w>
espa ñ
dec lar
consu l
con ven
chopo le</w>
cabal lo</w>
asamb leas</w>
ar reg
anim ó</w>
alnichʼ an
ac ʼ</w>
PAS EL</w>
Mi queas</w>
Kʼopon a</w>
I MP
í ni
w entain
u x
tor ti
schaʼkuxaj tes</w>
s nujpʼ</w>
re des</w>
pa cto</w>
on etike</w>
ma ts</w>
lajun eb</w>
l aniwan</w>
jajch ik</w>
j kontra
in os</w>
im pr
d á
cʼ ax</w>
aʼteji baletik</w>
analiz ar</w>
a chʼi
O ETIK</w>
N e
J Kʼ
A BA</w>
1 Re</w>
yikʼ al</w>
yaw il</w>
x jelon</w>
vi ento</w>
so l</w>
skʼop ik</w>
sku y</w>
sig an</w>
sbajtʼ el
s pʼ
princi p
piens an</w>
necesi taba</w>
medi tar</w>
lokʼ emik</w>
jw enta
jtojol tike</w>
jkʼ ases
in am
g ando</w>
difer encia</w>
circunci sión</w>
cheʼox ebuk</w>
car go</w>
cami sa</w>
c k</w>
anim ar</w>
akʼ bil</w>
acom pañ
ab ue
a re
Y o
Pre par
N ec
M E</w>
LE J
G o
Cor n
AKʼBE Y</w>
1 10</w>
xkʼopo j</w>
w0 8</w>
stoj olike</w>
stij bey</w>
st ó</w>
sn aʼi
sig amos</w>
sfamili aik</w>
sexu ales</w>
se x
sch e
sbajtʼ el</w>
sabi o</w>
perdon ar</w>
per ten
pap á</w>
oposi ción</w>
opini ón</w>
om e</w>
ok l
mini str
materi ales</w>
maestr o</w>
in spir
impor tar</w>
hi bi
d ó
ci pl
cas tig
ba ele</w>
alcan zar</w>
acu s
V AN
S E</w>
OT R
I r
yil otik</w>
yi x</w>
yi t</w>
ulaʼ tayel</w>
tsʼ ak
termin ó</w>
seman as</w>
quer ían</w>
or d
or ando</w>
mantal e</w>
ju stos</w>
jich niwan</w>
jchʼuun jel</w>
j ti
j pensar
esta rá</w>
cʼ axel</w>
chap al
ch ay
be le</w>
ad ap
Ed én</w>
D ER
Austr alia</w>
A R</w>
1 39</w>
0 8</w>
0 000</w>
yal bat</w>
wini quetic</w>
w0 4</w>
ti vos</w>
ta kin</w>
señ or</w>
re compens
pu ra</w>
pon en</w>
pi er
peligr o</w>
p ón
p in
nom bres</w>
llev an</w>
lec tores</w>
j le
hab lan</w>
ex c
ent ífi
e gip
dis cipl
difer ente</w>
cu c</w>
control ar</w>
cari ñ
cab o</w>
cab ello</w>
beyi c</w>
anaʼ beyxan</w>
an oetike</w>
T EM
R ahab</w>
Migu el</w>
Cri stoe</w>
Ay niwan</w>
É N
x na
w 14</w>
st rado</w>
snojptes otik</w>
servi rle</w>
rela tos</w>
prácti cas</w>
obj e
o sidad</w>
nujp un</w>
llev aba</w>
kar ta</w>
jk ojt</w>
j lu
i kʼ</w>
i b</w>
fun cion
fuer an</w>
en erg
emp e
edu cación</w>
des cargar</w>
cu alidad</w>
correc to</w>
con tó</w>
cay ó</w>
cambi ado</w>
ba etik</w>
amu lan</w>
ador etik</w>
ad ol
aba ik</w>
aba hic</w>
T seʼ
P e
DIS CUR
Cuán do</w>
AN I
8 1</w>
í do</w>
yaʼte like</w>
w ol
ver dades</w>
un e</w>
ul ar</w>
ref lej
puku jetik</w>
p eso</w>
nue vos</w>
mu lti
maj el</w>
lle ga</w>
kʼay emik</w>
jpa se</w>
ixi me</w>
imperfec tos</w>
ho gar</w>
fortal e
españ ol</w>
equi voc
enci ma</w>
deb ía</w>
con migo</w>
chik naj
chaʼkuxaj el</w>
ay to</w>
aparec en</w>
am in
agradeci dos</w>
F I
Corn elio</w>
C hi
2 5
énd ose</w>
te c
ta t</w>
ta kʼine</w>
stʼun ik</w>
skontra in</w>
recibi eron</w>
posi ción</w>
podr íamos</w>
n ar
mukʼ e</w>
lo t</w>
llu via</w>
lej alil</w>
kʼ tik</w>
jun etike</w>
is la</w>
in medi
ha bilidades</w>
h as</w>
fi cia</w>
est emos</w>
d am
car tas</w>
ca er</w>
bene ficia</w>
am o</w>
M i</w>
J ap
C ʼ
10 5</w>
ánd ole</w>
yil oj</w>
yi j
yamigo tak</w>
w0 9</w>
ti er
telé fono</w>
t ú
t se
sa bios</w>
regu lar</w>
okl yn</w>
i ta</w>
hac ían</w>
e tas</w>
di ciendo</w>
ci entífi
ch uj
cer ro</w>
ca t
biluk etik</w>
ayud arlo</w>
an u
Ver dad</w>
STOJ OL</w>
Por que</w>
Nú meros</w>
N I
LEJ AL</w>
EN TE</w>
Bro oklyn</w>
A bi
2 Sa</w>
tsoblej etike</w>
sj j</w>
se c
salv ación</w>
r lo</w>
precurso ra</w>
mon taña</w>
mil las</w>
laj ik</w>
kijki tay</w>
inc lin
il le</w>
i j</w>
haʼ uc</w>
deb ían</w>
ci gar
chʼ ay
chan eb</w>
ca pi
bo on</w>
bi ke</w>
ba ción</w>
ayud arán</w>
analiz aremos</w>
an tik</w>
ab el</w>
a familia</w>
Mu kʼul</w>
M ac
KUX LEJAL</w>
E sta</w>
20 15</w>
yijki tayik</w>
yi h
y aʼiyi
ti cas</w>
testig o
taji b</w>
sac ar</w>
r é</w>
puersa uk</w>
prote ger
paci entes</w>
or ó</w>
milagr os</w>
mencion a</w>
logr arlo</w>
le emos</w>
kux u
kilóme tros</w>
jo y
ho n</w>
esa rea</w>
err or</w>
er le</w>
empec é</w>
e volu
d ale</w>
cuenta hinel</w>
ay nix</w>
al eltik</w>
a par
Po demos</w>
Nec esi
C esarea</w>
B en
AW AKʼBEY</w>
y antsil</w>
tam ba</w>
sbajtʼel kʼinal</w>
s loʼl
recor demos</w>
públi co</w>
públi ca</w>
pued an</w>
prob ablemente</w>
pla ta</w>
partici par</w>
p ʼu
mu k
kuʼun kotik</w>
j p</w>
de pen
culti var</w>
com por
ci en</w>
cham eletik</w>
bus ca</w>
be h</w>
aʼte liletik</w>
anteri or</w>
T sa
S CH
P E
L á
Jap ón</w>
H ab
El í</w>
C ho
14 7</w>
xiw ik</w>
wokol uk</w>
versi culoetik</w>
tsʼum b
tsa bilik</w>
tr am
stsak xan</w>
re co
ocu pa
miembr o</w>
mam á</w>
koltay otik</w>
jun ax</w>
j pʼaj
i jkʼi
es kuela</w>
en or
cor ro</w>
chaʼbe je</w>
c é</w>
beyi x</w>
ba tal
ayi c</w>
antigu o</w>
an d</w>
a ver
R es
Pʼi jub
KOL TAY
Gali lea</w>
Estu dio</w>
Eli seo</w>
E spa
Al beya</w>
8 5</w>
zar o</w>
ven ir</w>
u lan
tu los</w>
tso jb</w>
ts aj</w>
tor m
tom ó</w>
ti les</w>
su t</w>
snopo j</w>
sexu al</w>
sbiilin ej</w>
s ale</w>
re vel
qu es</w>
pa ces</w>
okol e</w>
mo de
lengu a</w>
juk eb</w>
jtu hl</w>
jsitin taytik</w>
jm ama</w>
ho ʼ
ho l</w>
enfer mo</w>
ej e</w>
di ez
cristi anas</w>
cre to</w>
carr era</w>
c emos</w>
be ber</w>
ba ya</w>
am ar
agu ante</w>
adol esc
ach a</w>
a koltay</w>
T NM</w>
Sab es</w>
Lá zaro</w>
IK NA
G ran
D an</w>
0 6</w>
0 4</w>
xchʼ i</w>
weʼ el</w>
w entainel</w>
w 2
vivi mos</w>
visi tar</w>
tribu lación</w>
tr iste</w>
tes tik</w>
tes a</w>
tak ik</w>
suc esos</w>
sor pren
sbakʼe tal</w>
r ol
pro yec
pe da
or e</w>
llegu e</w>
kux aj</w>
jaʼ bile</w>
e el</w>
dis poni
aw ale</w>
ar re
aparec e</w>
VAN CE</w>
L O
In formación</w>
IKNA J</w>
I mag
E sa
A VANCE</w>
á genes</w>
ya kix</w>
y en</w>
x leku
tra tó</w>
tra go</w>
tendr ía</w>
sts aj
schol beyik</w>
sa b</w>
podr á</w>
peque ña</w>
och o</w>
nujpun emik</w>
lokʼomba kʼop</w>
kol el</w>
kanan tay
k r</w>
im ágenes</w>
famili ar</w>
ex tr
ex puls
deci mos</w>
célu la</w>
cul pa
conten tos</w>
bi a</w>
ayu c</w>
XCH IKNAJ</w>
Snaʼ ojibal</w>
OTR OS</w>
M elel</w>
L TA</w>
KIL BEYTIK</w>
K ol
G ran</w>
DES CRI
C ajwal
C AS</w>
B u
1 Pe</w>
yikʼ ik</w>
vi vían</w>
vi vo</w>
tan a</w>
sá bado</w>
smukʼu lin
si ga</w>
refu gi
propi as</w>
pandem ia</w>
ne ga
ki xe</w>
ka p
k aʼtel</w>
ji chuk
jar dí
jardí n</w>
cu esta</w>
c ón
benefici os</w>
au i</w>
aprendi endo</w>
Mal aui</w>
M ER
Jo se
En señ
DES CU
CH OS</w>
B U
A sia</w>
éxi to</w>
ve amos</w>
tuun tes</w>
tar ía</w>
taji mal</w>
sue ño</w>
spʼaj ik</w>
so lici
so br
sjel tay</w>
re bi
qu en</w>
pʼijubtes wanej</w>
prometi ó</w>
pro voc
oj a</w>
ne u
n ab
mision eros</w>
k risti
ju ez</w>
jaʼ at</w>
j familia</w>
ixi m</w>
in forme</w>
il ot</w>
gra ves</w>
con tar</w>
ciu dades</w>
cal ma</w>
cal le</w>
am aba</w>
ali c</w>
alco hol</w>
alal etike</w>
a consej
U N</w>
T O
R O
P ER
MA T
Esa ú</w>
DI CE</w>
DESCU BRA</w>
A YU
terri tori
tay bey</w>
superinten dentes</w>
smi lik</w>
senti rse</w>
s nujpʼ
quer idos</w>
prepar ar</w>
pr acti
p ʼ</w>
ofrec e</w>
o ta</w>
ne go
l ógi
kil e</w>
juʼ em</w>
jchʼuun j
hon ra</w>
e lec
c lo
apa reció</w>
ansi edad</w>
ad mi
ad em
V ER
UE LTA</w>
T EN
SBA BI
SBABI AL</w>
S im
P CIÓN</w>
N e</w>
LE S</w>
Ju eces</w>
Ig lesia</w>
IC H</w>
H u
Gu erra</w>
EN ES</w>
DESCRI PCIÓN</w>
1 000</w>
- 1</w>
xkux in
utili z
tsa el</w>
trib unal</w>
ti c
tem or</w>
ta ki
su mo</w>
stsa kotik</w>
sj ach
si tik</w>
scʼ uxul</w>
ri que
publica cionetik</w>
propi os</w>
pri vi
presenta r</w>
pe le
paj k</w>
och in
o fi
ni dad</w>
meʼ el</w>
l v
kʼ etik</w>
kijki taytik</w>
jpensar tik</w>
jnop beytik</w>
jchʼuun beytik</w>
ej e
cón yu
chol el</w>
ban tito</w>
ayud arlos</w>
am on
a chʼ</w>
Y o</w>
QU I
P U
Melel nix</w>
J ICH</w>
Fr ancia</w>
Eze q</w>
Eu ropa</w>
DI C
B UELTA</w>
yijkʼi tay</w>
w p
terr emo
sobrevi vi
snojptes on</w>
sm ali
skʼases ik</w>
skʼan beyik</w>
schʼuun beyik</w>
schajpan ik</w>
s as
ra dio</w>
pres entes</w>
pr em
plan es</w>
pa tan
p anza</w>
laj uk</w>
kʼat pʼu
kuxlejal ile</w>
is las</w>
gan as</w>
for d</w>
espiritu e</w>
ej el</w>
di da</w>
dej ado</w>
deci dido</w>
d ame</w>
bi kʼtal</w>
asi st
alim entos</w>
aj an</w>
P UE
ESI S</w>
B ri
AL GO</w>
xi ʼ</w>
ví cti
u x</w>
tra ta
tar le</w>
swenta ik</w>
suger encias</w>
skʼu ʼ</w>
skʼopl alik</w>
sa ciones</w>
oc rá
o tik
mo d
milagr oetik</w>
mi yon</w>
maʼ uk</w>
llev aron</w>
ko m</w>
kamigoin tik</w>
jtso b</w>
jna tik</w>
jkʼop tik</w>
il lo</w>
h ch
fal sas</w>
escri to</w>
es ca
e ji
di endo</w>
dese an</w>
cion e</w>
aʼ el</w>
ay inik</w>
apro bación</w>
ant ó</w>
P ara
L ot</w>
JU AN</w>
J wol
Alg unos</w>
AN OP
20 21</w>
1 27</w>
1 20</w>
yermano tak</w>
yaj tal
ww w
vi vía</w>
vali entes</w>
tar an</w>
ta reas</w>
stuk elik</w>
stal ele</w>
sigui eron</w>
sbi ilin</w>
sba h</w>
sacerdo teetik</w>
sT ate</w>
prof undo</w>
pre kur
pr u
po z
perfec to</w>
pens ando</w>
pa ti
or al</w>
opo j</w>
maʼ uke</w>
lleg ado</w>
le xi
k ik</w>
jmul awil
g al
el tike</w>
bin a</w>
aprendi ó</w>
anaʼ bey</w>
an op
al í
ad ver
acab ará</w>
To wer</w>
S n
LI K</w>
J ES
IMP OR
ENSEÑ ANZ
CO N</w>
v és</w>
v ale</w>
u j</w>
tseʼel uk</w>
tra i
ro de
respon der</w>
qu em
progr es
poz ol</w>
po cos</w>
peque ños</w>
oy entes</w>
orasi on</w>
or den</w>
on al</w>
o tic</w>
na kʼbil</w>
n an
médic o</w>
medi da</w>
manten erse</w>
ma tar</w>
kʼ inik</w>
kanan tayel</w>
jtu luk</w>
jnaʼ bey</w>
impor ta</w>
evolu ción</w>
en tan
em on</w>
e go
con vi
comen z
c li
aʼ ba
am en
ajwal ile</w>
aj el</w>
a tuuntes</w>
a etike</w>
Sal ones</w>
S í</w>
Je f
IMPOR TAN
C lar
9 3</w>
20 11</w>
y eron</w>
x lokʼo
x lokʼik</w>
x jalaj</w>
waka xe</w>
tr ist
skʼ ayin
skʼ ases</w>
pón gase</w>
pa se</w>
o le
neu tr
maravillo so</w>
l v</w>
kʼopo j</w>
ik el</w>
h aría</w>
gi a</w>
entr ar</w>
con tra
c oʼtan
an ía</w>
SE AMOS</w>
Re be
Je z
Estu di
EM ÍAS</w>
D R
ANOP XAN</w>
án donos</w>
xmantal tes
x aw
w 10</w>
vi g
vac a</w>
u e</w>
u da</w>
tr ae</w>
tom a</w>
su l
sob re
sn aj
s Jun</w>
rela ciones</w>
r in
puer sa</w>
por tada</w>
parec ía</w>
or illa</w>
ob o
o te
ni xbal</w>
na he</w>
mode lo</w>
ma chi
kʼayoji letik</w>
kuʼun e</w>
jpʼaj tik</w>
j lokʼes
in an</w>
gobern ar</w>
gobern ador</w>
g all
enfer mos</w>
el tal</w>
aʼtej otik</w>
a gar
Le k
Kʼ inal</w>
HE CHOS</w>
2 4
1 Ti</w>
ÉN ESIS</w>
xlaj ik</w>
xkʼopoj at</w>
xbe en
ts es</w>
ti va</w>
ta me</w>
stal elike</w>
sta kʼinik</w>
sno pi
skanan tayotik</w>
sinago ga</w>
si vo</w>
se tike</w>
scʼ op</w>
s pe
ri bu
public ador</w>
pareci da</w>
obedi entes</w>
ni jk
logr ar</w>
j la
j kʼ</w>
in qui
im posible</w>
espec ífi
ed onia</w>
cer r
c tor</w>
bus cando</w>
bi en
asi t</w>
am or
adem ás</w>
abati n</w>
a pre
Wil li
U M
Sn t</w>
P r
G ÉNESIS</w>
El la</w>
As á</w>
A b
1 Cr</w>
ó s</w>
yichʼ ojix</w>
yaʼ be</w>
wan e</w>
tulan xan</w>
teni miento</w>
sma kat</w>
ser piente</w>
s t</w>
po bre</w>
permi tió</w>
of en
jwenta tik</w>
jpa m</w>
jal uk</w>
hacer nos</w>
h s</w>
h er</w>
gu í
g io</w>
estudi ando</w>
ele gir</w>
dist ribu
di ez</w>
desastr es</w>
des cendi
dedic ación</w>
c ana</w>
b hs</w>
apren der
apa ci
Tsoblej etik</w>
Qui énes</w>
Pʼijub tesel</w>
Pen te
P ens
MU Kʼ</w>
M E
E so</w>
C a
C AN
yajtal ul</w>
xiw otik</w>
v i</w>
tu ve</w>
ti vo</w>
st en
ras il</w>
pod amos</w>
nail pakʼ</w>
mision er
le vi
k ol</w>
jui cios</w>
jchʼuunj eletike</w>
jchol kʼopetik</w>
j chajpan
ijki tayel</w>
grati tud</w>
f g</w>
especi ales</w>
cu a</w>
conoci do</w>
camin ar</w>
az os</w>
ay otike</w>
ame ʼ</w>
al ta</w>
aj o</w>
Wat ch</w>
S te
R ec
Mu chos</w>
LEC CIÓN</w>
L AN</w>
B rasil</w>
10 6</w>
10 4</w>
1 18</w>
xw entain
xju ʼix</w>
ven ga</w>
tsi l
sj el</w>
resol ver</w>
progr am
ob e</w>
mision ero</w>
l ó</w>
kongregasi onetik</w>
inter ior</w>
há bi
hi ce</w>
fal sos</w>
ex presión</w>
ex cel
estr és</w>
escla vos</w>
discipl ina</w>
diez mo</w>
cumpli rá</w>
continu ación</w>
conten to</w>
centr al</w>
c án
b i</w>
ayud aron</w>
ari as</w>
ac tú
Bel én</w>
AʼI Y
A pren
1 33</w>
Ú S</w>
um en</w>
uk otik</w>
u bil</w>
te la</w>
ta das</w>
spʼ aj</w>
schʼuh unel</w>
schol beyel</w>
regi ón</w>
r al</w>
qu ina</w>
o h</w>
maestr os</w>
ma j</w>
logr ó</w>
i có</w>
esper aba</w>
dr ía</w>
cux lejal</w>
cuer da</w>
chambal am</w>
batal la</w>
aten der</w>
as co</w>
acep tó</w>
T al</w>
Jer icó</w>
Hebre as</w>
Fl p</w>
A le
8 2</w>
5 00</w>
0 ,
úni ca</w>
óli ca</w>
y aba
w 17
vay as</w>
val ora</w>
v ini
us an</w>
tra vés</w>
tien de</w>
ti ʼ
tab la</w>
t é
t etik</w>
spa j</w>
sj am
sj ach</w>
senta do</w>
re pu
r em
qui x</w>
princip ales</w>
pon erse</w>
pas an</w>
oji kix</w>
ocur rió</w>
ni ña</w>
mon te</w>
la t</w>
jte b
jpa so
j x
j koltay</w>
hospi tal</w>
ha z</w>
físi co</w>
frecu encia</w>
escribi r</w>
er án</w>
des i
contes tó</w>
comentari o</w>
cier tas</w>
apren dí</w>
aku y</w>
a kʼopon
Pu ku
Pa til</w>
N O</w>
M ant
JES ÚS</w>
H ar
G oli
D ur
Ch ʼul</w>
20 00</w>
19 19</w>
1 30</w>
ú til</w>
yaʼ tele</w>
vivi endo</w>
ts ʼu
to wer</w>
tan tas</w>
tan ta</w>
su h
stsʼibay ik</w>
spas botik</w>
sitin tay</w>
sex o</w>
sab ían</w>
respon sab
po cas</w>
per dió</w>
oli c</w>
nar an
mul wej</w>
man ix</w>
limpi a</w>
kʼo j</w>
kamigo taktik</w>
k as
jkʼ ajkʼ
jba kʼe
herman aetik</w>
h ú</w>
g ada</w>
fal sa</w>
dis cursos</w>
d era</w>
conoci ó</w>
ch tower</w>
ben deci
ba st
b esti
acab ar</w>
Wat chtower</w>
Te y</w>
E mpi
A ni
z can</w>
yal aj</w>
x nujpun
v in
v ec
u ch</w>
tsʼak al</w>
tin g</w>
t era</w>
stojob tes</w>
skanan tayik</w>
ri s</w>
que o</w>
pied ras</w>
pareci do</w>
pare ja</w>
meʼ ba</w>
ma h
kermano taktike</w>
kal tike</w>
jta t</w>
jel on
j tsʼ
in teli
in ele</w>
hici era</w>
habi tantes</w>
enor me</w>
ego í
di ga</w>
des anim
dej e</w>
conoc ía</w>
bautiz ó</w>
aʼte lile</w>
ayud arle</w>
au m
ale za</w>
agrad ar</w>
ab und
RESPON DER
N or
Jef té</w>
Jaʼ nax</w>
J tsojb</w>
BÍBLI CO</w>
ú tiles</w>
é lix</w>
z apa
yin ame</w>
y am
x lo
x baht</w>
uni versidad</w>
u lan</w>
tʼ an</w>
tin a</w>
ter c
sucurs ales</w>
stsʼum balik</w>
schʼ ik</w>
s ik</w>
respon der
res to</w>
pʼaj aw</w>
prote ger</w>
pastiklan bil</w>
o il</w>
natur aleza</w>
name ye</w>
na z
kʼ ayojil</w>
kux in</w>
ki t</w>
jchʼuun ej
hay an</w>
experi encias</w>
enseñ arles</w>
elec tr
di je</w>
cul ar</w>
conoc en</w>
compren der</w>
can ción</w>
au xi
apa ri
ala w</w>
al ele</w>
a kʼop
T OS</w>
Satan ase</w>
Ru t
RESPONDER ÍA</w>
N az
M ás</w>
J O
Fili pos</w>
F élix</w>
F esto</w>
DISCUR S
C o
A c
0 ,000</w>
ʼ e</w>
ya h
wanej e</w>
stsʼ ikel</w>
slokʼes ik</w>
sa cu
s pʼi
s lo
s antos</w>
regres ar</w>
regal os</w>
prof es
pregun te</w>
pens amos</w>
pa gar</w>
p len
me ti
m ental</w>
la u
kʼu ʼul</w>
ka h
jnichʼ nab
j me</w>
g aron</w>
el mente</w>
da tos</w>
cónyu ge</w>
cumpli ó</w>
convenci dos</w>
can an
bin wan</w>
aspec tos</w>
an un
am a
Sam aria</w>
SI L</w>
SA ÍAS</w>
S ch
Ru sia</w>
Pas cua</w>
Mar do
MAT EO</w>
MAN OS</w>
Lek bal</w>
L es</w>
L abal</w>
J ord
I SAÍAS</w>
F E
D em
Clar o</w>
BR E</w>
1 35</w>
ó r
www jworg</w>
viol encia</w>
ve ía</w>
uk me</w>
tu viera</w>
tu des</w>
tr ás</w>
tes bot</w>
te tike</w>
t ero</w>
spa t
snojp tesel</w>
snojp tes</w>
sigui endo</w>
si enta</w>
señ al</w>
se par
s é
re par
re bel
pun ta</w>
pró ji
próji mo</w>
prote cción</w>
proc lam
o dia</w>
n am
muestr an</w>
lengu aje</w>
kongregasi one</w>
jich e</w>
j kuxlejale</w>
j chaʼ
ist ra</w>
im pul
her ford</w>
her ed
estu viera</w>
es pal
encontr ará</w>
em al</w>
desi erto</w>
de trás</w>
colab orar</w>
clar a</w>
bo t
b á
aʼ bat</w>
amon ton
Y an</w>
Y OʼTAN</w>
Signifi cado</w>
Si ria</w>
Rut herford</w>
Mar ta</w>
Je o
3 00</w>
1 50</w>
1 15</w>
é rica</w>
vuel to</w>
vi endo</w>
tes bey</w>
tari o</w>
suce dió</w>
su puesto</w>
s esi
rep ente</w>
pre juicios</w>
plá tano</w>
ox chajp</w>
moti vos</w>
manten i
llam aba</w>
le ltik</w>
lad r
jyan lumetik</w>
jw eʼ
jtu kel</w>
j bey</w>
il bal</w>
il al</w>
farise os</w>
f il
equi libr
en da</w>
ej on</w>
d amente</w>
bus can</w>
bi bli
bar ro</w>
b tesel</w>
ant es
XC D</w>
Seg ún</w>
Pente cost
O n
Ni chimal</w>
H I
F OT
Empi ece</w>
C OR
A CIÓN</w>
10 2</w>
1 Jn</w>
yulaʼ tayel</w>
y eh</w>
ver sión</w>
uj t</w>
tron o</w>
ti f
tele visión</w>
so corro</w>
skʼ asesel</w>
rique zas</w>
reci ben</w>
r endi
qu in
pens aba</w>
pa ri
natur ales</w>
nan atik</w>
n abe</w>
lo c
fo toetik</w>
ex amin
en i
eli le</w>
discípu lo</w>
cui da</w>
chol beya</w>
c entro</w>
ba te</w>
aw an
ar d</w>
anichʼna bik</w>
an alí
a sutbey</w>
a propi
a hic</w>
TE X
Se amos</w>
S an</w>
Para íso</w>
P il
OR A</w>
Mac edonia</w>
LE TIK</w>
Ju e</w>
JTA TIK</w>
IN AL</w>
F ran
F il
2 6
árb oles</w>
É X
y alike</w>
xiw at</w>
x yakʼ</w>
x pu
x ane</w>
w ayi
vuel ve</w>
ts alaw</w>
ti a</w>
teni endo</w>
t enta</w>
stuk ele</w>
sma kʼ
sjel tayel</w>
revi sta
re fier
pu dieron</w>
pre parado</w>
oí r</w>
no j</w>
mu cʼul</w>
modes tia</w>
luk me</w>
kʼan beya</w>
k ox
jkʼases tik</w>
jal aj
jajch on</w>
inmedi ato</w>
i p</w>
gri pa</w>
esforz amos</w>
ec en</w>
cu bri
cre o</w>
comentari os</w>
científi cos</w>
cal or</w>
bey tikxan</w>
ay me</w>
aqu ías</w>
aprovech ar</w>
ami g
alu m
a tak</w>
Willi am</w>
V en
P rom
O KO
Mardo queo</w>
Mal aquías</w>
MU KʼU
M edi
L istra</w>
J a
Espa ña</w>
14 4</w>
1 1,
ó lo
á culos</w>
x yal</w>
w aj</w>
v endi
uni dos</w>
u so</w>
tsa bil</w>
tr as
ten íamos</w>
te j
tal mente</w>
ser emos</w>
sent í</w>
senci lla</w>
schaʼ ulaʼtayel</w>
s ci
s chʼi
resu men</w>
pu ta
prote ge</w>
pa m</w>
p ó</w>
och otik</w>
o tikxan</w>
ni ch</w>
mi sm
mi ra</w>
jwol wanej</w>
jnopo j</w>
jchʼ am</w>
jba t</w>
ir é</w>
il inik</w>
guerra etik</w>
gru pos</w>
gener osidad</w>
g la
fon do</w>
fir me</w>
fi ca</w>
ez as</w>
erman a</w>
des can
d ón</w>
be bi
ax ak
ar di
apa reci
analí celo</w>
alnichʼan etik</w>
al ej
Tesal ónica</w>
T om
R o
R ES
Nú m</w>
Lo kʼ
K on
Jwol wanejetik</w>
Jord án</w>
Jez abel</w>
I t
Es píritu</w>
E f</w>
B re
B EN
A gripa</w>
yijkʼi tayik</w>
yakʼ bonik</w>
x nojptes
vi vos</w>
to tal</w>
tik il</w>
smak oj</w>
sm an</w>
sitin tayik</w>
sban kil
res pec
re d</w>
produ ce</w>
pr esa</w>
pr e</w>
podr emos</w>
permi ti
pa usa</w>
oʼtan tik</w>
lá gri
kuxlej alike</w>
kin am</w>
kas tigo</w>
ka k</w>
jol al</w>
jo kin</w>
ikʼ a</w>
fun dam
expli car</w>
es par
encontr ó</w>
e be
di vino</w>
destru cción</w>
deb es</w>
d ora</w>
cʼu x
cariñ oso</w>
can o</w>
br in
bey oj</w>
ba an</w>
al tike</w>
ajw altik</w>
ad es</w>
Y AN
Seg unda</w>
SAL MOS</w>
Pentecost és</w>
Mi entras</w>
J un
J BA
In forme</w>
HAC ER</w>
EN TA
De b
Cuán to</w>
Bro ad
Bi deo</w>
4 000</w>
yichʼ ic</w>
y tik</w>
x oj
voluntari os</w>
ver lo</w>
tuminchi j</w>
tsʼi baya</w>
trabaj ando</w>
suce de</w>
smak ojbey</w>
signifi cado</w>
señ al
s loʼ
recibi mos</w>
recibi do</w>
realiz ar</w>
prue baetik</w>
pro hibi
positi va</w>
pi ern
nujpunem ike</w>
ni s
lu c</w>
leg io</w>
kʼu lejalil</w>
jtʼun beytik</w>
jtsaj tay</w>
jlu mal
j y
h en</w>
gu s
gu e</w>
especi almente</w>
envi dia</w>
encuentr a</w>
emple o</w>
emocion al</w>
ej ch
dar ía</w>
d ían</w>
cre ía</w>
cre y
cam a</w>
c oetik</w>
bra ille</w>
bo otik</w>
ban tik</w>
aʼtej on</w>
arr ol
ajw ali
Ser vi
S oci
O DO</w>
N aʼ
MACHʼ A</w>
G ra
F araón</w>
Cajwal tic</w>
C AM
1 34</w>
últi ma</w>
ÉX ODO</w>
ya x
ve o</w>
v ado</w>
tsob ol</w>
ts al
toj bey</w>
tien do</w>
tien da</w>
ten tación</w>
tar emos</w>
sjojkʼoy ik</w>
repres enta</w>
prof etas</w>
ocur re</w>
obje ción</w>
no tas</w>
menti ras</w>
lan da</w>
lab ores</w>
kʼax to</w>
k el
ju eces</w>
inqui e
inclu ye</w>
in g</w>
fi elmente</w>
f o</w>
f ac
espal da</w>
escri be</w>
encan ta</w>
con virtió</w>
cas ting</w>
car re
c tos</w>
c adas</w>
bar ko</w>
b t</w>
aw aʼiyej</w>
ani c</w>
a ec</w>
S TA
Prepar e</w>
P at
O B
KʼA Y
KI T</w>
Ir landa</w>
G ri
Cu áles</w>
Ci ro</w>
Broad casting</w>
Bin tikxan</w>
BI OS</w>
z on
xleku b</w>
uni dades</w>
tradu c
to talmente</w>
ti tu
ta rea</w>
t ér
sw okole</w>
sufri endo</w>
sufr en</w>
sni tojbey</w>
sna h</w>
slekub tesel</w>
si mo</w>
schʼ ay</w>
s í
s cuenta
r ami
presenta ción</w>
po tencia</w>
pe or</w>
par á
ning uno</w>
mad ero</w>
loʼl ay
le l
jta kʼin
joʼ eb</w>
jm an</w>
jkʼajkʼ aleltik</w>
j nojptes
j kʼax
inter nacional</w>
h í
extra ordin
expli car
entr ó</w>
energ ías</w>
encontr é</w>
eje cu
e ve</w>
du elo</w>
di r</w>
cu e
correc ta</w>
cor reg
consu ela</w>
cometi do</w>
can tar</w>
ca paz</w>
bu l</w>
bin ti</w>
aʼ tele</w>
aw u</w>
anunci os</w>
amista des</w>
al wanejetik</w>
PR OV
OJ TIK</w>
N E
K ajwaltik</w>
Jich bal</w>
C A</w>
Bibli aetik</w>
B er
2 3
14 1</w>
yaʼbil alike</w>
yamigo in</w>
x lok</w>
uk ix</w>
uk ik</w>
ti kixe</w>
ten el</w>
tem ente</w>
sta oj</w>
sj ap
señ ora</w>
sa f
saf at</w>
respe tar</w>
qui n</w>
prof eti
positi vos</w>
pla ta
on sitil</w>
obst ante</w>
necesi taban</w>
manten ernos</w>
kʼ ases
j xiʼ
in justi
impli ca</w>
il anel</w>
i pal</w>
hab le</w>
h un
h il
h echos</w>
estab lec
el en</w>
ej o</w>
edi ción</w>
dor mir</w>
di rección</w>
des cen
de bili
de bajo</w>
d ok
cuesti ón</w>
cu la</w>
costum bre
con tin
con ser
c ía</w>
at p
ara c</w>
an teetik</w>
Y ijkitayel</w>
Rebe ca</w>
RE VI
O L
Jeho safat</w>
EM P
Dur ante</w>
CH ʼ</w>
B arac</w>
A ten
A si
1 16</w>
yakʼ tiklanbey</w>
x ko
wak eb</w>
vícti mas</w>
vi enen</w>
tra di
ti n</w>
sweʼ el</w>
sju ltes
sin tamos</w>
se t</w>
re ali
r les</w>
privi legio</w>
pol vo</w>
pe ti
pa kʼ
oport unidades</w>
ok ol</w>
of reci
och at</w>
och an</w>
obst áculos</w>
ni chi
nain emik</w>
na hil</w>
na ció</w>
malv ados</w>
ley endo</w>
kʼ ayoj
kamigo tak</w>
ka x
injusti cias</w>
in te</w>
i lil</w>
her rami
gr os</w>
g enti
g ados</w>
electr óni
do poderoso</w>
dis kurso</w>
diri gi
di go</w>
des arrol
der ram
cu áles</w>
cor re
ci ales</w>
ch oj
ch ay</w>
br azos</w>
awuʼuni c</w>
awamigo tak</w>
ar las</w>
ambi ente</w>
ad ora</w>
acep ta</w>
acab ó</w>
ab ae</w>
U st
Ta til</w>
SKʼ OP</w>
S kʼoponel</w>
Pil ato</w>
L ec
I A</w>
Es d</w>
C al
xlaj e</w>
val or
v a
tulan uk</w>
ti smo</w>
tal ik</w>
superinten den
sob er
sober anía</w>
so los</w>
s jin</w>
puer tas</w>
pudi eran</w>
presi ones</w>
pas amos</w>
pará bola</w>
natur al</w>
na xme</w>
mor ales</w>
mer ece</w>
man so</w>
mam al
ku laʼ
j pʼij
in ej</w>
i lik</w>
fortalec e</w>
for mar</w>
enemi go</w>
eli x</w>
du ras</w>
du l
de termin
célu las</w>
cu ʼun
cre ado</w>
conver saciones</w>
ch el</w>
ch ebaj</w>
bu el
ad on
ac o
a de
Po tif
M AL</w>
It alia</w>
B ANT
BANT I</w>
énd ole</w>
ár amos</w>
ánd oles</w>
Ó N
z ías</w>
yuʼun uk</w>
yi pik</w>
yaʼ lel</w>
y amigo</w>
vuel tas</w>
vig il
vali oso</w>
vali osa</w>
ue la</w>
tu untes
tsʼumb alil</w>
tribu s</w>
tr á
torm enta</w>
ti vas</w>
ti kʼ
teʼ etik</w>
terremo tos</w>
temp or
te k</w>
te b</w>
tay wanej</w>
sts al
snujpʼ uk</w>
smaliy ik</w>
smali y</w>
sj ojkʼo
revi stas</w>
reci be</w>
pru dente</w>
pr os
pr on
po bres</w>
ofrec er</w>
o so
muer e</w>
mi sta</w>
mencion ó</w>
k to</w>
jy q</w>
j cʼ
ir án</w>
hoʼ on</w>
gall ina</w>
g e
er io</w>
e gas</w>
de vo
d aron</w>
d aban</w>
com er
clar amente</w>
c le
borra cho</w>
bautiz ado</w>
ba se</w>
aña dió</w>
auxi li
ar ás</w>
am án</w>
ac e
TU LAN</w>
R aquel</w>
Potif ar</w>
PRI MER
PA R
J KUXLEJAL</w>
J ER
IMPORTAN TE</w>
20 17</w>
10 1</w>
1 24</w>
1 23</w>
é ni
ándo lo</w>
yulaʼ tay</w>
yo tses</w>
xiʼ bantik</w>
x etik</w>
wanej etike</w>
vivi ó</w>
ti letik</w>
tay beyik</w>
tan tos</w>
t z
suj tes
suj tel</w>
snop ilan</w>
sma h
sjok inik</w>
sig los</w>
sfamili ae</w>
s al</w>
recuer de</w>
r ó</w>
pro bar</w>
plata forma</w>
pi da</w>
orgu llo</w>
mod estos</w>
lo grado</w>
jaʼ mal</w>
jap tik</w>
i ci
hi lo</w>
fí j
e ʼ</w>
e dio</w>
dis curso
desastr e</w>
dej é</w>
da ñ
cán cer</w>
confi amos</w>
be en
aña de</w>
ayud ara</w>
anteri ores</w>
anichʼna b</w>
al nax</w>
ac ci
a h</w>
SI TA</w>
Rec or
Pro póngase</w>
PROV ER
PROVER BIOS</w>
P ar
O ri
Mois ese</w>
KʼU X
Goli at</w>
E ra</w>
Abi ga
A mi
200 4</w>
yan mar</w>
w 18
vi uda</w>
ta ya
su y
su pli
snop ilanel</w>
skʼ atp
s kuxlejalike</w>
s chʼichʼ
refier e</w>
ref lexi
qued arse</w>
po j
perdon e</w>
p inas</w>
oʼtan e</w>
obedi encia</w>
ob tener</w>
ni xme</w>
nacion etic</w>
moti vo</w>
mi li
mam ale</w>
lógi co</w>
laj e</w>
kʼa j</w>
ko hel</w>
jlokʼes tik</w>
jkʼan bey</w>
jajch em</w>
j le</w>
ini ci
in mens
il las</w>
human a</w>
hospi tal
hici eran</w>
her ida</w>
gla ter
farise oetik</w>
f om
estudi os</w>
estu vieron</w>
estre llas</w>
espiritu etik</w>
em erg
dá frica</w>
dec ían</w>
cul tura</w>
cuesti ones</w>
car se</w>
camin os</w>
br o</w>
ba ño</w>
ba bil
aw aʼtel</w>
ant emente</w>
ace ite</w>
a yal</w>
Y ak</w>
U K</w>
TEX TO</w>
Su dáfrica</w>
S ol</w>
Pu bli
M yanmar</w>
M on
M esi
JU N</w>
In glater
Gran de</w>
Evangeli o</w>
Es t</w>
Chi pre</w>
Ch ʼ
Bre taña</w>
Alg unas</w>
20 18</w>
20 10</w>
2 Ti</w>
- 2</w>
yi kʼotik</w>
waka x</w>
ven za</w>
ve la</w>
tér min
tz h</w>
tri go</w>
tra to</w>
torti lla</w>
sw in
superintenden teetik</w>
smu k</w>
simp le</w>
se lo</w>
s lum
s amente</w>
respec to</w>
ra ciones</w>
pas aron</w>
o fr
nor mal</w>
mu liletik</w>
mos le</w>
mol de
mi do</w>
mej or
man i
m ari
lu me
le t</w>
kʼatpʼu j</w>
kom onsitil</w>
kichʼ ojtik</w>
jpa t
jaʼ bal</w>
im puls
ichʼ jaʼ</w>
habl amos</w>
g eo</w>
f echa</w>
est ábamos</w>
dó lares</w>
des per
dec ep
consej oetik</w>
co se
chu kul</w>
cham en
ch il</w>
car ac
bo j</w>
ayud ando</w>
ay otikix</w>
are t</w>
afron tar</w>
UN A</w>
T or
S U</w>
Naz aret</w>
N abal</w>
Joh n</w>
JCHʼUUN OJTIK</w>
J acha</w>
Inglater ra</w>
Eli sab
B us
Aten as</w>
An tes</w>
A qu
A Y
1 21</w>
1 11</w>
yil bey</w>
yan e</w>
yaku bele</w>
y ochin
x at</w>
ver á</w>
v í</w>
un es</w>
tsʼi h
tsak ot</w>
stsak ik</w>
sta tike</w>
som br
sjaj chi
seri e</w>
segu ía</w>
sa grado</w>
resuci tado</w>
refugi ados</w>
reac ción</w>
qui to</w>
pa g
orig inal</w>
mism as</w>
manteni miento</w>
luch ando</w>
l tes</w>
kil tikix</w>
ka ts</w>
jkʼu ʼ</w>
jbakʼe tal
inter esa</w>
inmor alidad</w>
in ju
i das</w>
fir mes</w>
excel ente</w>
escuch ó</w>
du ele</w>
distin tas</w>
debi ó</w>
de li
culpa ble</w>
convenci do</w>
chaʼ chajp</w>
cham nax</w>
cas arse</w>
cam pos</w>
bendi jo</w>
ayin otik</w>
ad op
a dic
T OJ
T AL</w>
Su s</w>
S y
R us
Kʼ ajkʼ
Kʼ INAL</w>
Je l
E v
Con go</w>
BI D
10 ,
én do
yuchʼ el</w>
x tijbot</w>
x pas
x nujpun</w>
uj te</w>
trans fu
trabaj adores</w>
to bal</w>
tendr ían</w>
temp loe</w>
tec n
t one</w>
su m</w>
stojobtes otik</w>
smam lal</w>
sla b</w>
skontra inik</w>
señ as</w>
sche balik</w>
s kuxlejale</w>
ri st
pʼi ju
pre cio</w>
o pi
o kʼel</w>
o kʼ
ni a</w>
n as</w>
misioner oetik</w>
la zo</w>
kʼ abal</w>
kar sel</w>
juz gar</w>
jnopoj eletike</w>
jkʼop lal</w>
jba e</w>
j t</w>
ho jas</w>
empi eza</w>
eb nax</w>
dro gas</w>
div ina</w>
descen dencia</w>
cumpli miento</w>
compañ ero</w>
col oc
chap bil
ch es</w>
capí tulos</w>
bi ilil</w>
bi ern
b ol</w>
ayud en</w>
ata te</w>
arrepenti do</w>
ansi anoetik</w>
an te
an och
abue lo</w>
Y an
W okol
W OKO
V al
Ti j
T Z
S ea</w>
Necesi dades</w>
N aciones</w>
I m
H ER
Fili pinas</w>
Cre e</w>
Ch aj
B il
3 8
200 9</w>
2 7
10 7</w>
yil beyik</w>
yi pal</w>
yaʼiy bey</w>
tu m
tu hl</w>
tra tan</w>
tem pr
tay on</w>
tar los</w>
t he</w>
t C</w>
stsʼ eel</w>
stso tsil</w>
st ej
smu lin</w>
sel l</w>
s ji
rein ta</w>
re du
pres encia</w>
perfec ta</w>
om a</w>
nopo l
men or</w>
medi das</w>
llam ar</w>
le tra</w>
laj emix</w>
l é
koltay wanej</w>
ki jkʼi
k ojt</w>
k awu
k an</w>
jpʼij iltik</w>
ji ke</w>
j tij
il l
herman ito</w>
habl aba</w>
ga stos</w>
g ü
for m
esta ría</w>
espiritu almente</w>
escri tor</w>
distin tos</w>
di fun
detal le</w>
descendi entes</w>
decidi dos</w>
cu ra</w>
corri endo</w>
con v
com unidad</w>
cier tos</w>
c ae</w>
c ados</w>
buel tae</w>
bey e</w>
ben dice</w>
ata t</w>
angusti a</w>
amu lan
akʼop lal</w>
ai re</w>
TEM A</w>
Sim ón</w>
Rus sell</w>
PRIMER A</w>
MA R
JER EMÍAS</w>
JA ʼ
J pisiltik</w>
Go g</w>
Cri sti
B ala
AʼIY EJ</w>
Al l
A nu
20 16</w>
1 38</w>
1 12</w>
íni ve</w>
Í CU
z co</w>
y clo
xkux in</w>
xkoltay wanotik</w>
vol vieron</w>
trist eza</w>
tom e</w>
st si
sobre llevar</w>
s pox
s col
resul ta</w>
per io</w>
pa tio</w>
pa jibal</w>
ora uk</w>
ni ñ
ll orar</w>
le quil</w>
l ados</w>
kilóme tro</w>
jta tike</w>
jmu ltik</w>
jap el</w>
j pʼ
impr enta</w>
g as
er me</w>
encar cel
e ci
du re
du das</w>
dis cu
dar é</w>
coʼtan tic</w>
costum bres</w>
con tigo</w>
con qui
clar idad</w>
ciu dad
chʼ el</w>
ch i</w>
bo te</w>
bil otik</w>
bas ado</w>
ay bal</w>
av an
aspec to</w>
a i</w>
Tij beya</w>
Si empre</w>
SI G
S on</w>
N ínive</w>
N opo
Mu chas</w>
L aj</w>
KʼAY OJ
K A
Ju ec</w>
J nop
El los</w>
D ES</w>
Ch ik
1 26</w>
yuʼuni x</w>
yal bonik</w>
x mukʼu
vu elta</w>
ver as</w>
uni ce</w>
tran j
tay bil</w>
su b
st án</w>
sinti eron</w>
sinc ero</w>
salv ar</w>
sal mo</w>
s mil
publi ka
predic amos</w>
pe lo</w>
os amente</w>
oper ación</w>
ofi cin
nombr ado</w>
nis án</w>
nijk el</w>
m oj
llegu é</w>
lab an
kux inik</w>
ki kʼtik</w>
jxiʼ tik</w>
jtal eltike</w>
jchajpan tik</w>
jba h
jaʼ laj</w>
j nu
il es</w>
i ores</w>
hon rar</w>
encuentr an</w>
emerg encia</w>
e v
e pi
di ver
desa fí
de z</w>
cre ían</w>
com enta</w>
cion al</w>
ci enti
car ri
bá si
bon dad
ben ix</w>
amen az
am ado</w>
adon de</w>
ac a</w>
a chaʼ
W all
TRA R</w>
REVI SITA</w>
R ober
M in
Le k</w>
Jay eb</w>
I N</w>
E unice</w>
- 3</w>
í sti
í do
yichʼ xan</w>
xbe en</w>
x cu
vol umen</w>
v ar
tor ia</w>
toj ol
ter son</w>
ter io</w>
t reinta</w>
swok olike</w>
super ior</w>
snichʼna bike</w>
skʼan e</w>
sk er
sa kal</w>
sa k</w>
ri cos</w>
reliji onetik</w>
religi osas</w>
r ama</w>
pu estas</w>
positi vo</w>
orden ó</w>
o ik</w>
o fici
muestr e</w>
li a</w>
l ale</w>
jnop tikxan</w>
jmulawil otik</w>
jku y</w>
in esper
i ra</w>
hu e
hah ch</w>
h arán</w>
go biern
gener oso</w>
esper ando</w>
e y</w>
cru el</w>
ca ciones</w>
c á
c lam
bon e</w>
be d</w>
b om
awi p</w>
awi jki
an an</w>
ale gra</w>
aj ojkʼoy
ah or
agradec emos</w>
S A</w>
Qui z
Pat terson</w>
O J</w>
No sotros</w>
L am
KʼAYOJ IL</w>
KʼA X</w>
K u
H asta</w>
Fil em
Elisab et</w>
E Z
BE Y</w>
A B
3 000</w>
14 6</w>
1 31</w>
yoʼtan uk</w>
xlaj ix</w>
x t</w>
w il</w>
utili za</w>
tsil kʼop
tra er</w>
t ía</w>
spaso tik</w>
spa mal</w>
sopor tar</w>
snop jibal</w>
si l
si entan</w>
servi rme</w>
refer irse</w>
pron unci
pon gamos</w>
polí ticos</w>
piern as</w>
person ales</w>
per la</w>
pari entes</w>
nojptes wanej</w>
neces arios</w>
na xbal</w>
mo vi
lí mi
li ter
l ol</w>
jpas kotik</w>
israeli ta</w>
in sul
herm oso</w>
ha ci
h p</w>
h o</w>
fu imos</w>
fu ente</w>
ex tranj
entan ax</w>
don ate
donate jworg</w>
doc toretik</w>
deci rle</w>
comple ta</w>
com puta
com pli
chap al</w>
c rí
bi t</w>
ba il</w>
ant setike</w>
al tar</w>
ah ch</w>
ab rió</w>
W ar
U zías</w>
Ti ene</w>
SE ʼ
PUE DE</w>
P ol
N unca</w>
Mesi ase</w>
I MA
G abri
D é
C R
BID EO</w>
AL E</w>
è le</w>
xlaj otike</w>
x yal
x tojobtes
x an
w axak
vi van</w>
ven drá</w>
vali osas</w>
un il</w>
u le</w>
tram pa</w>
su ra</w>
snu k</w>
snop ele</w>
smele li
slekub tes
sjojkʼo y</w>
senci llo</w>
se as</w>
sbi ilik</w>
sba kel</w>
sal mista</w>
resuci tar</w>
repu tación</w>
re presenta
prekur sor</w>
pi dieron</w>
oj otik</w>
multi tud</w>
mu tetik</w>
mantal tes
man á</w>
kʼo tuk</w>
kʼa t</w>
kil l</w>
kap ele</w>
jts atik</w>
jchʼ ik</w>
herrami entas</w>
hacer le</w>
gr o</w>
g arse</w>
fa ci
esforz arnos</w>
el as</w>
domin go</w>
cumpli endo</w>
conver ti
contin ú
const antemente</w>
con segui
chi tame</w>
ch ola</w>
be teli
at sum</w>
arti culoetik</w>
arr an
apa si
ac tos</w>
Ti ro</w>
T ES</w>
Su r</w>
SAL MO</w>
MUKʼU L</w>
M I</w>
LU CAS</w>
Kol taya</w>
K en
J am
IMA G
Ayu kme</w>
20 0</w>
14 3</w>
1 36</w>
É S</w>
z camos</w>
xkoltay wan</w>
tsʼun ubil</w>
ti rado</w>
tes or
tempr ano</w>
tecn ología</w>
te tic</w>
tan e</w>
suc ed
solu cion
sobrevivi r</w>
smu le</w>
smu l
skʼ in
sjel on
segur amente</w>
schʼuun bey</w>
s li
rom anos</w>
resuci tó</w>
r r</w>
pres entó</w>
pens ó</w>
patan etik</w>
pare zca</w>
pa hk</w>
p es</w>
or arle</w>
obe de
nop a</w>
ni ca</w>
médic os</w>
mon ta
laj ix</w>
jnaʼ oj</w>
ir ía</w>
forma to</w>
extr em
es píri
es cal
er la</w>
er ia</w>
entre tenimiento</w>
encar gó</w>
en das</w>
dist rito</w>
cuar enta</w>
confi able</w>
compr é</w>
comple tamente</w>
cigar ro</w>
chapbil kʼop</w>
capi tal</w>
ca í
ca p
c oc
besti a</w>
b os
ay xan</w>
ases in
ar que
apas ik</w>
am ables</w>
adul tos</w>
a za</w>
a kʼop</w>
a kom</w>
a chʼuun
Wall kill</w>
S of
S PI
Re pública</w>
PRO F
Jeho ás</w>
JO B</w>
J nop</w>
J T
ENSEÑANZ A</w>
Ch ap
AP O
A un</w>
A LI
yo bal</w>
yakʼoj bey</w>
y eʼ
yeʼ tal</w>
xtal uk</w>
x luj
x jel
viaj ar</w>
vi das</w>
u s</w>
tsʼ ajkʼ
tro pe
trabaj an</w>
tay ot</w>
spas beyik</w>
schʼuun ojik</w>
rápi damente</w>
rom pi
regu lar
r esta
publi k
podr án</w>
pe dia</w>
pa m
oí do</w>
ox ome</w>
on ar</w>
nail al</w>
na k
mo ch</w>
misericor di
mi sión</w>
me tro</w>
ma sa</w>
lí n
le r</w>
kʼaxem toxan</w>
jti empo
jba kotik</w>
j oy</w>
in stal
in st
hist ó
hi jas</w>
h p
g ón</w>
fí sica</w>
fi de
famili aetik</w>
esta rán</w>
es con
em at</w>
do cum
dej an</w>
de fec
cum pl
cuar to</w>
cualqui era</w>
cre ar</w>
chik in</w>
chajpan bil</w>
c yclo
ay er</w>
ade cu
ac or
a segura</w>
N ab
M ej
KʼA JKʼ
KʼAJKʼ AL</w>
Ju lukme</w>
H az
En cyclo
C lau
Ba al</w>
AM OR</w>
4 ,000</w>
3 9
1 29</w>
óli co</w>
á monos</w>
zon as</w>
xkʼo txan</w>
vi c
v ando</w>
uni ón</w>
u r</w>
ti pos</w>
tar me</w>
spuk ik</w>
skʼan el</w>
res isti
pueb los</w>
pa cí
or no</w>
obo am</w>
o tes</w>
n ari
nari z</w>
muri eron</w>
mon ía</w>
min a</w>
mi el</w>
lleg amos</w>
leg al</w>
le m</w>
kʼin etik</w>
kʼ e</w>
ko k</w>
ju día</w>
jpas beytik</w>
jko leltik</w>
j kʼo
j elel</w>
j be
ijkʼi tayel</w>
haʼ at</w>
gol pe</w>
g aba
filiste os</w>
expres ar</w>
espo sas</w>
esper amos</w>
ens a</w>
domin io</w>
disponi ble</w>
diri gir</w>
diri ge</w>
devo ción</w>
destru ir</w>
dese amos</w>
des anima
d on</w>
cʼ oh
cump le</w>
chuk ojibal</w>
ch abe</w>
bol kʼop
bin xan</w>
b l
aw on</w>
aver igu
asegur ó</w>
antigu a</w>
ama bilidad</w>
agrad able</w>
abier tas</w>
U L</w>
Testig oetike</w>
TA R</w>
Pens emos</w>
Gabri el</w>
Ev ae</w>
B au
Akʼ beya</w>
ʼ TAY
éni to</w>
én dice</w>
ÍCU LO</w>
z ados</w>
yulaʼ tayik</w>
yak an</w>
yaba kul</w>
xch ol
x yichʼ</w>
ve inte</w>
v enta
tu mba</w>
tr ajo</w>
terc era</w>
t ol
suj ton</w>
su mer
stikun ik</w>
st oetik</w>
spaso je</w>
sor prendi
sna e</w>
skoltay ejon</w>
ser ían</w>
sal ón</w>
s bolob
refu gio</w>
re cursos</w>
re be
ra za</w>
quiz á</w>
peque ñas</w>
pel í
pat ía</w>
oj bal</w>
ni w
nail uk</w>
mem oria</w>
mam alu
mad era</w>
lín ea</w>
l lan
kʼo n</w>
kʼay oj</w>
kʼ ik</w>
kux ul
kub el</w>
jokin tik</w>
jnojptes tik</w>
jk oj
je fe</w>
j paj
j ach
invi te</w>
influ encia</w>
i de
hi n</w>
h el
fin almente</w>
exac tamente</w>
en tamos</w>
dr án</w>
dom a</w>
descu bier
dej amos</w>
d ra
cux aj
cue va</w>
conoc erlo</w>
conf li
cometi ó</w>
chʼultes bil</w>
chʼi el</w>
celebr ar</w>
cas ados</w>
c lu
bal tik</w>
ba k</w>
b lemente</w>
aw a
auto control</w>
ap éndice</w>
anc la</w>
an dar</w>
aj chʼ
a sombr
a chʼu
YI CHʼ</w>
Ts aj
T ÍCULO</w>
Su curs
So doma</w>
O BTES
NA ʼ
Min ist
LA ʼTAY
Filem ón</w>
F in
EZ E
Ca ín</w>
CH ʼI
Anti gu
AR TÍCULO</w>
A C
5 000</w>
2 40</w>
1, 0
í s
é tica</w>
xmantal aj</w>
wokoli letike</w>
wi ts
wi ck</w>
ven ido</w>
utili zar</w>
un ik</w>
tsʼi bay</w>
ts ah
trabaj os</w>
tojobtes eletik</w>
tan il</w>
ta ble</w>
t alidad</w>
sw ayi
super vi
sti jel</w>
st oj</w>
snopo jik</w>
smaliy ele</w>
sim b
si o</w>
si lla</w>
schʼuun oj</w>
schʼichʼ el</w>
sch ik
prove cho</w>
presenta ciones</w>
peri odo</w>
pec adores</w>
past or</w>
pa do</w>
op inan</w>
mukʼ ik</w>
ministeri al</w>
mer cado</w>
man anix</w>
malv ado</w>
m abal</w>
lleg an</w>
jteb nax</w>
jkʼopon tike</w>
jkoltay beytik</w>
jkanan tay</w>
j sit</w>
j puk
j chʼuun</w>
j bi
in te
il to</w>
hábi tos</w>
ha go</w>
g ana</w>
fl ores</w>
fi cado</w>
ex ig
espíri tus</w>
es el</w>
er los</w>
enta do</w>
encontr aron</w>
edi ficio</w>
dro ga</w>
do y</w>
dic o</w>
descubri r</w>
demo strado</w>
dedic ar</w>
de presión</w>
cre ciendo</w>
comen cé</w>
co bre</w>
chʼ ojel</w>
chan chajp</w>
cha el</w>
bautiz ados</w>
au tom
arro g
amb os</w>
am am
alcan ce</w>
alab ar</w>
al uk</w>
ac os
abier ta</w>
a chʼ
ST E
S KOLTAY
S AM
PAR TE</w>
P O
Mi chael</w>
Ma estr
LE K
J teb</w>
Estudi antes</w>
Di ce</w>
Bi ble</w>
AʼI Y</w>
Ani me</w>
AL GUN
3 ,000</w>
1 14</w>
yakʼo jik</w>
vay an</w>
val ores</w>
v as
tu vieran</w>
ts alel</w>
toj el</w>
ti b</w>
tes oro</w>
ta yi
sts al</w>
st ro</w>
snaʼi c</w>
slajin bey</w>
sjok inel</w>
simp lemente</w>
sT at</w>
s pej
s adu
recuer do</w>
re conocer</w>
quier es</w>
pri sion
prepar ados</w>
pre di
person ajes</w>
otses el</w>
obedi ente</w>
n aje</w>
lleg ará</w>
li sto</w>
lar ga</w>
kʼax ix</w>
ku x</w>
judi oetike</w>
jtakʼin tik</w>
jel tay</w>
j pej
j lekub
ho bo
hobo am</w>
h aremos</w>
g al</w>
fo to
envi ado</w>
dé bi
di o
der rum
deci dí</w>
de por
cre cer</w>
cost al</w>
confi aba</w>
colab or
chol beyel</w>
che baj
chaʼ kuxaj</w>
car taetik</w>
bon ito</w>
bi de
ber si
asu sta
ar ra
ar ma
aqu ellas</w>
apo yan</w>
apari encia</w>
anci anoetike</w>
an ile</w>
am ali
alu l</w>
agradeci miento</w>
a di
Testig o
T on
Re hoboam</w>
O x
Mo ab</w>
H ist
Gra cias</w>
F or
F i
Esta s</w>
ENT O</w>
EN CON
Deb emos</w>
D ar
D am
D OS</w>
CI A</w>
4 8
3 7
1, 3
1 37</w>
ído los</w>
ÓN IC
yu chʼ</w>
yil in
yan tic</w>
y ej</w>
xnoptsaj otik</w>
xchi e</w>
x naʼ
x jilik</w>
w oj
w 19
vini eron</w>
v amente</w>
uestr o</w>
tra te</w>
ta bil</w>
stej kʼan</w>
st oy
snu kʼel</w>
smu lik</w>
sj oy
rom anoetik</w>
recuper ar</w>
recor dó</w>
reci b
rebi sita</w>
pʼaj el</w>
pu de</w>
proyec to</w>
prepar ó</w>
preocupa ciones</w>
pre para</w>
po dido</w>
plan ta</w>
permi ten</w>
per segui
peda zos</w>
pec ador</w>
p lan</w>
obedec e</w>
musi cal</w>
maravillo sas</w>
lágri mas</w>
lu cha</w>
lokʼomba e</w>
lev antó</w>
lec cion</w>
las ti
kʼo emik</w>
kristi anoetik</w>
koltay ele</w>
kar oe</w>
k m</w>
ju ven
jmulan beytik</w>
jk om
j toy</w>
j sitik</w>
j in
j ej
is a</w>
gl ori
envi aron</w>
entari o</w>
ent ales</w>
ens o</w>
en temente</w>
cuʼun tic</w>
cuenta s</w>
crey entes</w>
chaʼox pʼ
chaj puk</w>
cel ular</w>
bi o
be j</w>
b xan</w>
awuʼun ik</w>
au t
au dio</w>
atoj ole</w>
al oj
al ar
acercar se</w>
ac aba</w>
a z</w>
a con
YAN TIK</w>
War wick</w>
Tu r
TOJ OBTES
T ra
SPI SIL</w>
S alu
RE G
Quiz ás</w>
Pas axan</w>
KʼUX UL</w>
K i
JBA TIK</w>
JA ʼ</w>
IMAG EN</w>
Gri egas</w>
Est os</w>
Dam asco</w>
D escu
Cal eb</w>
CAM BI
C RE
C OS</w>
BI L</w>
Anu ario</w>
Ad ónde</w>
é se</w>
ÓNIC AS</w>
z al</w>
z adores</w>
z ador</w>
yuʼuni c</w>
yu t</w>
wentain wanej</w>
w ay
v ador</w>
us amos</w>
tikʼ uk</w>
testigo otik</w>
tan te</w>
ta ma
t ón</w>
t otik</w>
t hu
sta tik</w>
sta k</w>
spisi lic</w>
snichʼ ane</w>
sch an
sbi hil</w>
reaccion ó</w>
qui eran</w>
que br
prácti cos</w>
prem o</w>
precurso rado</w>
pele ar</w>
pakʼ al</w>
p el</w>
org e</w>
on ike</w>
of reció</w>
o este</w>
na cido</w>
má quina</w>
mili tar</w>
mi endo</w>
ma tarlo</w>
m bo
loc ales</w>
li stos</w>
lamal uk</w>
l on</w>
koʼtan kotik</w>
kakʼ bat</w>
k am
jyan lume
jw e</w>
joʼ otik
jchol bey</w>
j etike</w>
inter net</w>
in acti
h b</w>
gü en
grab ar</w>
genti les</w>
fu ér
fru tos</w>
fr ío</w>
famili ae</w>
ex pul
ex i
esti lo</w>
esp ías</w>
esfuer zan</w>
ej an</w>
destru ido</w>
der echos</w>
defen der
deci dieron</w>
cubri r</w>
cu bier
contes ta</w>
cla ve</w>
cion ario</w>
bey kotik</w>
ba sura</w>
ba e</w>
ay tik</w>
ap ʼi
aba cuc</w>
U LAʼTAY
S CHʼUUN
QUI EL</w>
Publi cación</w>
PR E</w>
OJ P
N CI
K ar
K ajwal</w>
H abacuc</w>
EZE QUIEL</w>
EST O</w>
E m
Des de</w>
BA YAL</w>
B LE
A wokoluk</w>
5 ,000</w>
yutsʼin otik</w>
yotses el</w>
yal a</w>
xmantaltes wan</w>
x weʼ
x chajpan
w aje</w>
tradu cir</w>
t y</w>
sufri mos</w>
solu ción</w>
smulan e</w>
smu cʼul</w>
smakʼ lin</w>
servi mos</w>
sec cion</w>
se creto</w>
sbankil tak</w>
sban kil</w>
ren unci
re un
pi den</w>
pas ará</w>
p ción</w>
oj uk</w>
obli g
nop tsaj</w>
neces arias</w>
mu l</w>
medic ina</w>
lum kʼinal</w>
l ada</w>
kʼux at</w>
ko lele</w>
jtiempo tik</w>
jpa pa</w>
j po
i tos</w>
ha t</w>
h ul</w>
gar anti
gan ado</w>
g oetik</w>
fu ri
fic ina</w>
fi estas</w>
fa z</w>
ez uela</w>
exper tos</w>
dor as</w>
demostr aron</w>
dedic ado</w>
deci de</w>
conoc emos</w>
col or</w>
cin cuenta</w>
ch in</w>
carac ter
bayal uk</w>
ba ñ
aw ile</w>
auxili ar</w>
apropi ado</w>
antigu os</w>
ant el
ani smo</w>
ani bal</w>
an ías</w>
am able</w>
al aj
ajkʼ nax</w>
adver tencia</w>
a ts</w>
a chajpan</w>
Y ijkʼitayel</w>
Ven ezuela</w>
ULAʼTAY WANEJ</w>
TOJOBTES EL</w>
T emplo</w>
T ER
Sucurs al</w>
Ste p
Servi cio</w>
PRI NCI
Mari ae</w>
M ero</w>
M ad
Jos af
Eli faz</w>
ENCON TRAR</w>
EN S
E t
Di jo</w>
CR ÓNICAS</w>
CAN CIÓN</w>
B a</w>
An anías</w>
AW OʼTAN</w>
3 0
ó v
ís ara</w>
z eltal</w>
z ada</w>
yil ay</w>
xlokʼo tik</w>
xi letik</w>
x chʼuun
wokol niwan</w>
tier no</w>
territori os</w>
ter cer</w>
ten gas</w>
sufr e</w>
som bra</w>
skʼayin beyik</w>
salv aje</w>
s mantale</w>
relacion ados</w>
regi str
rechaz ar</w>
re conoció</w>
profes or</w>
prof un
po xiletik</w>
perfec ción</w>
pens ado</w>
pa se
or emos</w>
ofici al</w>
neutr ales</w>
na b</w>
n er
menti ra</w>
mencion an</w>
materi al</w>
mal aj</w>
m íni
limpi ar</w>
laj emik</w>
kʼases bil</w>
kin ame</w>
jkʼu lej</w>
invi tar</w>
in justicia</w>
im presión</w>
gr anos</w>
gobern antes</w>
estr i
espiri tismo</w>
er ta</w>
entr ada</w>
emp o</w>
edi ficios</w>
eb to</w>
débi les</w>
dej emos</w>
dedic arse</w>
decep cion
deber ían</w>
con for
b ora</w>
ayin on</w>
ay nanix</w>
ay laj</w>
aw anik</w>
apren de</w>
am érica</w>
afir ma</w>
acon te
ab tik</w>
YA LIK</w>
T zeltal</w>
So lo</w>
S ísara</w>
RO MANOS</w>
Pi ense</w>
OJP TES
F AM
FAM ILI
D EMOS</w>
Chaj p
An t
An dr
Am ós</w>
A bel</w>
4 7
1, 000</w>
1 17</w>
xkʼo tix</w>
w e
vivi rán</w>
vi va</w>
vesti r</w>
uni c</w>
tra tamos</w>
tin el</w>
tik lam
sweʼ ik</w>
sweʼ elik</w>
sw entanax</w>
super iores</w>
sti empo
sta ix</w>
smu cʼu
skoltay onik</w>
sjo yobal</w>
si one</w>
satisf acción</w>
samari tan
salv ó</w>
sali eron</w>
sal en</w>
sadu ce
sac ó</w>
s l
resta ur
religi oso</w>
regres o</w>
proc eso</w>
pon emos</w>
pi ro</w>
pekʼ eluk</w>
pej kʼaj</w>
pedi mos</w>
past ores</w>
pas aba</w>
oʼ on</w>
oh lol</w>
obedec emos</w>
o z</w>
o to</w>
nega tivos</w>
monta ñas</w>
medic am
matrim onios</w>
mand amientos</w>
lu l</w>
ku ch</w>
jtu un
jpas bey</w>
j mil
inter eses</w>
ilu vio</w>
hor mi
hier ba</w>
hall ar</w>
gr aba
g ará</w>
ex presiones</w>
er amente</w>
em patía</w>
ele gido</w>
e tí
des obedeci
cumpli do</w>
cui dad
cru z</w>
cre cimiento</w>
coraz ones</w>
cor to</w>
congrega cione</w>
confi ables</w>
come ter</w>
ch ino</w>
ch ile</w>
cas ó</w>
c alidad</w>
bus que</w>
br o
bi ili
bendi cionetik</w>
aw o</w>
arre pi
Tsa a</w>
To do</w>
Pu erto</w>
Pe ter</w>
P ul
N OJPTES
Man as
Jeo ba</w>
In dia</w>
F IC
D iluvio</w>
Bala am</w>
A yuk</w>
20 23</w>
14 2</w>
y ile</w>
xlaj otik</w>
xkʼax ik</w>
xkoltay wan
visi tas</w>
vi eja</w>
val oramos</w>
und amente</w>
ulaʼ tay</w>
tu h
tra taba</w>
thu r</w>
te e</w>
te cho</w>
tama ño</w>
tab las</w>
swenta inel</w>
sufri ó</w>
stsaj tayel</w>
stsa h
sobr es
skʼan botik</w>
sjajchi bale</w>
sj oy</w>
sNichʼ ane</w>
s religi
s puk</w>
s enten
ref res
reci a</w>
prof undamente</w>
prepar arse</w>
poni endo</w>
pan el</w>
padr en
padren uestro</w>
p il</w>
orgullo sos</w>
obedec en</w>
o tuk</w>
noti cia</w>
n oj
mé todos</w>
mu r
medi os</w>
me le
lí n</w>
lí der</w>
ki p</w>
ki j
jtsaj tay
jnopoj tik</w>
j talel</w>
j pʼijubtes
j a
in bi
il pakʼ</w>
i la</w>
hier ro</w>
hablar les</w>
grie ga</w>
fortale ció</w>
f i</w>
ex actitud</w>
escri tos</w>
en vej
e vangeli
e ch</w>
direc tamente</w>
di gan</w>
di entes</w>
depen de</w>
defen der</w>
de partamento</w>
cʼux ul
cu entan</w>
cri sis</w>
compr ó</w>
com entar</w>
co la</w>
chik in
chamen ic</w>
cer e
cel u
car á</w>
caj a</w>
bendi sionetik</w>
baj a</w>
bahlumil ale</w>
ba tsʼ
b oj
awijki tay</w>
aw o
arr oj
anali cemos</w>
agr ada</w>
ador arlo</w>
achʼi xetik</w>
acci dente</w>
a bik</w>
W al
Tseʼ el
Se de
S M
Ne w</w>
Minist erio</w>
Manas és</w>
L le
Jesucri stoe</w>
JE L
G recia</w>
E se</w>
Descu bra</w>
D ej
Ar thur</w>
Antigu o</w>
An ali
ALGUN OS</w>
2, 0
10 9</w>
1 28</w>
1 25</w>
ʼu j
í ces</w>
z il
yichʼ oje</w>
yal ojix</w>
yal atak</w>
yakʼo tik</w>
xko lik</w>
x i</w>
vuel va</w>
versi culo</w>
ven tana</w>
ve y</w>
v ó</w>
trope zar</w>
trai cion
tier ras</w>
terr án
taki ke</w>
swenta ile</w>
suy os</w>
su l</w>
slaj inik</w>
skoltay bey</w>
senti rnos</w>
s be</w>
regres ó</w>
razon able</w>
r ías</w>
pʼaj awe</w>
pí dale</w>
prom o
prof esi
preocu par
pr eso</w>
pobre za</w>
po j</w>
orgullo so</w>
ni e
necesi te</w>
naran ja</w>
mor al</w>
minu tos</w>
ministeri ales</w>
me z
m ón</w>
lu ke</w>
llam an</w>
le el</w>
l ace</w>
kuxin em</w>
ki ch</w>
kaj al</w>
jkʼop tike</w>
jaʼ ix</w>
j ma
invi ta</w>
in oc
in idad</w>
in cu
in ado</w>
im pedir</w>
i in</w>
hu eso</w>
herm osa</w>
gener osos</w>
fin ales</w>
filiste oetik</w>
enci al</w>
ele kʼ</w>
ejer ci
ej as</w>
diseñ o</w>
discurso etik</w>
di vers
des car
cu este</w>
cu ello</w>
cu ales</w>
correg ir</w>
conoc í</w>
con mo
ci bi
chʼ in
caracter ísti
can al</w>
cam ina</w>
ca paces</w>
ayi kix</w>
asi ri
ar ena</w>
an uk</w>
am ak</w>
ali la</w>
al ter
aj o
afir man</w>
aco stum
ac el
ac as
a por
a chʼuun</w>
Yo ur</w>
W ikʼ
Uni das</w>
UM EN</w>
T ar
Salu d</w>
Sal mos</w>
SE RI
Ri co</w>
RES UMEN</w>
Pol onia</w>
PROF UN
PRINCI PI
Na amán</w>
N ig
Mari e</w>
Ma g
Lo gros</w>
J ai
I mi
Hi ch</w>
Har vey</w>
HAC ER
Gu ía</w>
G RA
En tr
ES TA</w>
D alila</w>
Bar zil
1, 8
Ñ O</w>
yotses ik</w>
yakʼ e</w>
yak alix</w>
x ta
w o
uni x</w>
torti llas</w>
tem aetik</w>
ta yaw
ta miento</w>
ta je</w>
sw e</w>
su elen</w>
st sob
spʼi jilik</w>
snopi ke</w>
sma kotik</w>
skʼop ike</w>
skʼaxun taybeyik</w>
skoltay oj</w>
sker em</w>
sKʼ ope</w>
resisti r</w>
res e</w>
que x</w>
qu il
pu se</w>
produ cir</w>
pres u
perman ecer</w>
peri ó
per í
pas ados</w>
parec en</w>
pa tas</w>
os ta</w>
or mente</w>
ol ógi
naj t</w>
mens ajes</w>
maʼ ba</w>
majtan iletik</w>
ma ta</w>
le cu
l la
k sion</w>
jtu k
jnop tike</w>
jmul awil</w>
jich nax</w>
ji b</w>
j tik</w>
j laj
influ ir</w>
in forma
il an
i so</w>
hubi eran</w>
h k
h ile</w>
gus tan</w>
fíj ese</w>
fra g
fer encia</w>
faci lidad</w>
escuch ando</w>
es pej
enter ó</w>
ent ero</w>
empr esa</w>
descri be</w>
dar me</w>
cur ó</w>
cu ch
costumbre etik</w>
condi ciones</w>
con fía</w>
compañ ía</w>
chaʼkuxaj ele</w>
cat ólica</w>
can asta</w>
c aban</w>
be tik</w>
ba co</w>
aw ili
ari amente</w>
ar monía</w>
an opoj</w>
an dando</w>
am pli
aj u
aj ane</w>
agu as</w>
adolesc ente</w>
a ya
a territorio</w>
a kʼope</w>
Y AKʼ
X I
U EL</w>
Sede quías</w>
Sch ebal</w>
ST O</w>
SI S</w>
SAM UEL</w>
S uj
S BA</w>
Rober t</w>
Re paso</w>
Puku je</w>
O LEL</w>
L es
L au
Josaf at</w>
Jo el</w>
Jich nix</w>
FOT OETIK</w>
FI CI
DISCURS OS</w>
Cristi anas</w>
C at
B ay
All í</w>
zapa tos</w>
yamigo inik</w>
xkuxin at</w>
xj in
xiʼ ik</w>
x lu
u das</w>
u bi
términ o</w>
tu le</w>
tsʼih ba
tom ado</w>
tig ü
tempor ada</w>
tar les</w>
tar la</w>
tal ele</w>
t í</w>
sujti be</w>
sufri do</w>
su ici
sor presa</w>
skʼ unil</w>
skontra in
si oetik</w>
señ ala</w>
s h
res i
reci piente</w>
re emp
re conoce</w>
ra ci
r íamos</w>
r oso</w>
puer co</w>
po zo</w>
permi ta</w>
peligr os</w>
par cial</w>
pa xi
ocrá tica</w>
o cul
nombr ó</w>
no ches</w>
ner vi
musi ka</w>
mo da</w>
minu to</w>
ministr os</w>
mencion ado</w>
mar ca</w>
man da</w>
ma dur
lv ania</w>
lo tiletik</w>
limpi o</w>
limi taciones</w>
le x</w>
laj chay
ku jch</w>
jlumal tik</w>
jku ytik</w>
jk anan</w>
j lokʼ
invi tó</w>
interes ante</w>
inten tó</w>
in tik</w>
in ar</w>
hu m
ho gares</w>
histori as</w>
her encia</w>
habl aban</w>
gra cia</w>
go g</w>
go e</w>
ga etik</w>
fide lidad</w>
fic oetik</w>
exist encia</w>
esco ger</w>
er ún</w>
equilibr ado</w>
enten der
encar gado</w>
ele v
el em
ejemp lares</w>
ed ades</w>
e kʼetik</w>
di ario</w>
der nos</w>
dej ará</w>
cri ti
consol ar</w>
compañ ías</w>
comien za</w>
comenz aron</w>
cienti ficoetik</w>
chan tul</w>
capaci tación</w>
bur l
bre ve</w>
bio grafía</w>
baj ó</w>
baj tʼ
aw okol</w>
asig n
apa so
ant si
ansi ano</w>
alim enta
alg uno</w>
akʼ an
ajchʼ al</w>
aj ik</w>
ai ca</w>
adu ra</w>
ad virtió</w>
ad amente</w>
actu al</w>
acep tado</w>
a xe</w>
W entain
Tr ac
SKʼOPL ALE</w>
SCH OLEL</w>
S ad
PROFUN DIC
PROFUNDIC EMOS</w>
P AS</w>
On é
MÁ G
MÁG ENES</w>
Mi ra</w>
Ma gog</w>
M en
Lec tura</w>
Ju ane</w>
J obe</w>
J ilbal</w>
J UN
I con
I MÁGENES</w>
G O
D om
D er
Chik an</w>
Cam erún</w>
C entr
BEN E
B RE
Aʼ T
AW IL</w>
AP AS</w>
200 3</w>
é li
áni co</w>
yo h
yaʼiyi ke</w>
yaʼbil ale</w>
y ok
xwentain wan</w>
x loʼlay
wi tse</w>
ver güen
ven ida</w>
v ine</w>
ulaʼtay e</w>
u fra
tí n</w>
tsak el</w>
trabaj ador</w>
tra taron</w>
ton etik</w>
ti sta</w>
tay ojik</w>
tay ele</w>
sí mbo
suj el</w>
sue ños</w>
suc edi
subi ó</w>
str ación</w>
snaʼ ulan</w>
se cre
schʼ ay
respe tamos</w>
ren o
recompens a</w>
re baño</w>
qʼu ic</w>
publi cado</w>
prim eras</w>
pres enta</w>
pregun tan</w>
predic ó</w>
polí tico</w>
n ego</w>
man do</w>
machi te</w>
ma kel</w>
llev aban</w>
lar gas</w>
kʼo otik</w>
kawu e</w>
k or
juven tud</w>
jts ak
jch ol</w>
j ach</w>
inmor ales</w>
in un
h alel</w>
gan se</w>
for man</w>
fl oj
etí ope</w>
estudi anteetik</w>
engañ ar</w>
encan taba</w>
dé bil</w>
du e
dob ló</w>
di mos</w>
desta ca</w>
descubier to</w>
des preci
der echa</w>
del incu
de do</w>
dar io</w>
d ero</w>
cʼ oht</w>
cristi anismo</w>
con so
com ba
chambalam etike</w>
cab ezas</w>
c aʼ
bus car
bil nax</w>
bien estar</w>
bar coetik</w>
ba il
awuʼuni ke</w>
awaʼiy ik</w>
agradeci do</w>
aba tetike</w>
a is
Y ak
Ust ed</w>
Ten emos</w>
T u</w>
T R
Ser á</w>
SM ELE
SKOLTAY OTIK</w>
SERI E</w>
Ma u
L ab
Je hú</w>
Jaʼ me</w>
Icon io</w>
F U
Escri ba</w>
EJ EMP
E di
Con o
CAMBI Ó</w>
Ben jam
B aj
As amb
A geo</w>
14 8</w>
1, 9
ólo go</w>
ñ ado</w>
é ste</w>
xkʼ ex
xjin awan</w>
w án</w>
uh t</w>
u m</w>
ts al</w>
trata miento</w>
tigü edad</w>
tes ot</w>
terrán eo</w>
tel es</w>
tek stoetik</w>
ta baco</w>
t alix</w>
su ele</w>
stʼun beyik</w>
stsa el</w>
snop e</w>
snichʼ nabe</w>
smeleli luk</w>
skoltay otike</w>
sju ltes</w>
si te</w>
si m</w>
schʼu um
schik naj
sal vo</w>
sal va</w>
rum bo</w>
rom p
responsab les</w>
res er
religi onetike</w>
reci én</w>
ra íces</w>
ra c</w>
r ás</w>
qʼu inale</w>
prote g
perfec tos</w>
pa e</w>
o lin</w>
nue ve</w>
nu mer
nom ás</w>
na ci
moso inel</w>
mi rar</w>
ma do</w>
logr ará</w>
llev amos</w>
le e</w>
kʼay em</w>
jw ex</w>
ju k</w>
ju ec
jtuun tes</w>
jts altik</w>
jtoj ole</w>
jpej t</w>
jnichʼnab tik</w>
jmul awi
ji p</w>
jej ch</w>
jchʼi el
j maj
j chameletik</w>
invi tados</w>
i jk</w>
hospital arios</w>
histori ador</w>
herman dad</w>
habi tada</w>
h aʼ</w>
f as
envi ar</w>
en rol
embar az
e gos</w>
dol or
dese aba</w>
defec tos</w>
cre emos</w>
conten ido</w>
confi ó</w>
comp lej
com entó</w>
chʼay em</w>
chu ku
chopo lik</w>
ca u
bon ita</w>
blan cos</w>
bey elxan</w>
ban kile</w>
aut én
atu kel</w>
ar co</w>
an tigüedad</w>
amor oso</w>
am en</w>
alg as</w>
ai wán</w>
ah u
Wentain ele</w>
T aiwán</w>
Step hen</w>
Sal vador</w>
Sad rac</w>
SE R</w>
Re cuer
Per sia</w>
O li
Nig eria</w>
Na ilpakʼ</w>
Mi q</w>
Mes ac</w>
Li dia</w>
Le v</w>
LE KIL
H on
H ol
H al
FIC A</w>
Es tamos</w>
Dé bora</w>
Dani ele</w>
D or
Asi ria</w>
4 9
200 6</w>
2 2
10 8</w>
yaʼ tel
yal oj
xkʼ ayoj
x awaʼiy</w>
w a</w>
ver nos</w>
uj bil</w>
tu vimos</w>
tsʼajkʼ etik</w>
tr en</w>
tik nax</w>
termin ado</w>
ter os</w>
swin ik
su a
stu ra</w>
stso boj</w>
spa kol</w>
soci al</w>
sn am
smulan el</w>
sloʼl ay</w>
sla p</w>
sk ole
sjach ik</w>
se jp</w>
sbe lal</w>
sas erdo
sal pi
sa gr
reemp la
re comen
qued ar</w>
pʼijubtes ele</w>
pri mi
poli cía</w>
pací fi
op ina</w>
of endi
och emik</w>
mé todo</w>
much ed
muched um
much a
mi tad</w>
medi a</w>
mantaltes wanej</w>
man tiene</w>
machi t</w>
m ío</w>
m ale</w>
loʼl ayel</w>
llen ó</w>
llegu en</w>
li ʼ
li do</w>
l bal</w>
kʼ ex
k tik</w>
jun tar</w>
ju ram
jtu l
jojkʼoy eletike</w>
jmul tike</w>
jkanan taytik</w>
j on</w>
j oj
in ser
i jkʼ
i as</w>
hor ario</w>
gusta ba</w>
guar di
fuér c
fal so</w>
estre cha</w>
estable ció</w>
espiritu alidad</w>
escuch e</w>
escla vi
ent ía</w>
enseñ ando</w>
en ek</w>
emo ciones</w>
el oj</w>
ech as</w>
e bix</w>
dé cadas</w>
do te</w>
div or
disponi bles</w>
diri g
di eran</w>
der ro
d ara</w>
cur ar</w>
consi dera</w>
conoci dos</w>
concentr ación</w>
compa sivo</w>
col o
ch on
ch en</w>
ba sta</w>
avi dad</w>
av es</w>
ati va</w>
anoch e</w>
ami ga</w>
a pi
XC H</w>
W IN
Tsoblej e</w>
TZ O
TZO XCH</w>
TI OS</w>
S pisi
Ru b
Nuestr o</w>
MI ENTO</w>
LI P
LE V
L AN
Kʼ IN</w>
K a
Imi temos</w>
F ue</w>
F echa</w>
Cuán tos</w>
Cor al</w>
Ch aʼ
COR IN
C ada</w>
Bel sas
Al ab
ANT S</w>
A naʼ
A YI
4 00</w>
ín ese</w>
yi li
yaʼiyi c</w>
y ol
y n
xyal otik</w>
x chʼi
x chaj
vergüen za</w>
ver dura</w>
tu a</w>
tso bo
tra erá</w>
tom amos</w>
te ji
te a</w>
t émonos</w>
t án</w>
swentain oj</w>
stʼun el</w>
stu r
stoj il
st en</w>
solici tud</w>
smaj kil</w>
sma j</w>
skontra inotik</w>
skanan tay
sj ap</w>
ser io</w>
se ksion</w>
scʼ opon
sche baj
s pukel</w>
revista etik</w>
religi osa</w>
que te</w>
po x</w>
perí odo</w>
person almente</w>
pas aje</w>
pan ax</w>
pa mos</w>
ot her</w>
ol xan</w>
oji ke</w>
obser var</w>
na do</w>
muri era</w>
mukʼ uk</w>
me tros</w>
me tió</w>
maravillo sa</w>
mal mente</w>
ma yu
m el
lf fi</w>
lan el</w>
la p</w>
ki ke</w>
jun uknax</w>
ju ju
jta j</w>
jta beytik</w>
jla ptik</w>
j man
j inel</w>
inteli gente</w>
inmor al</w>
indic an</w>
imperfec ción</w>
il bil</w>
ikʼ e</w>
ik nix</w>
ichʼ a</w>
hici mos</w>
hac es</w>
h echa</w>
gra tu
go al</w>
fl or</w>
fi ja</w>
fi cación</w>
f ar
eter nidad</w>
esforz arse</w>
empo e</w>
emocion ante</w>
elimin ar</w>
eli gió</w>
egip cios</w>
ech ó</w>
desafí os</w>
des ti
des apareci
de volver
cu las</w>
comien ce</w>
com and
co br
ci tos</w>
chebaj em</w>
chaʼkuxaj emix</w>
chah p</w>
cas ado</w>
c ed
bo tic</w>
beya hic</w>
ardi ente</w>
ajwali letic</w>
ador an</w>
Y aniwan</w>
V ol
TU LO</w>
Sau le</w>
S en
PRINCIPI O</w>
OR IA</w>
No panax</w>
N O
Mal ta</w>
Le kub
Lab án</w>
LIP SIS</w>
Kʼ ax
K ir
K akʼ
Jel on
G R
Est oy</w>
ENS ES</w>
Dani èle</w>
D a</w>
CORIN TIOS</w>
CA LIPSIS</w>
C ai
APO CALIPSIS</w>
AN DO</w>
A ri
A LES</w>
6 7
5 8
1, 6
ándo los</w>
yam ik
utili zó</w>
ts un
transfu siones</w>
tradu cciones</w>
tom é</w>
to có</w>
ti tulo</w>
tesor os</w>
termin a</w>
sw ohlol</w>
subi r</w>
sts ʼun
stij bon</w>
spʼaj el</w>
spa jbey</w>
sobres ali
sman el</w>
sir vió</w>
si ble</w>
scʼ ab</w>
samari tano</w>
s y
s lokʼesel</w>
ri es
reuni rse</w>
re quisi
requisi tos</w>
re ina</w>
progres ar</w>
produ cen</w>
posi bilidad</w>
pol los</w>
po st
plan e
pla to</w>
pl acer</w>
perdon ó</w>
pel ota</w>
paxi al</w>
pati le</w>
pa t</w>
pa piro</w>
oc olic</w>
nu tsel</w>
ni chim
n el</w>
mo h
manda tos</w>
man tuvo</w>
majtʼ an</w>
mah tanil</w>
ma tó</w>
ma ter
m aliy
luk ik</w>
llen os</w>
kʼa b</w>
kontra in
kil oj</w>
kalbey tikix</w>
k amig
kamig otik</w>
j oles</w>
j chuk
isra el</w>
hu ir</w>
ho mo
hay amos</w>
gu stó</w>
gr ano</w>
gan da</w>
fri joles</w>
frag mento</w>
fo tos</w>
expli cación</w>
esper an</w>
escri tores</w>
en z
en cor
en cendi
económi cos</w>
dó lar</w>
di spa
di cia</w>
descri bi
de tenga</w>
cur ru
cos ta</w>
consul ta</w>
conden a</w>
ci mientos</w>
bil tik</w>
be lik</w>
bayal niwan</w>
aʼ bot</w>
ayud aría</w>
au tor</w>
apaci bilidad</w>
ap las
anu al</w>
am arr
afir mó</w>
acostum br
achaʼ ulaʼtaye</w>
a tʼ
a curru
Y ILEL</w>
Y ES</w>
Tur quía</w>
TA LE
TA KʼIN</w>
T abi
SO ETIK</w>
SMELE LIL</w>
SIG NI
SIGNI FICA</w>
S AL</w>
RE YES</w>
PR ES
Nuestr a</w>
Na die</w>
NOP EL</w>
N avidad</w>
N atán</w>
Mu kʼ</w>
Medi terráneo</w>
Ma ch</w>
Kʼ OP
Jnop tik</w>
Jelon tesbot</w>
HACER LO</w>
Evangeli os</w>
De ber
D ía</w>
Clau dio</w>
Benjam ín</w>
B íbli
Al ber
Ad ane</w>
Abrah ame</w>
A lej
17 ,
í b
yu ch</w>
yichʼ ike</w>
xoj o
xj ilotik</w>
x wi
x pʼijubtes
x jajch
w 99</w>
vivi do</w>
vi ejo</w>
us emos</w>
u el</w>
ts eltal</w>
ton el
tik a</w>
tam al</w>
tal uk</w>
t ábamos</w>
su stitu
sor dos</w>
smukʼulin ej</w>
sma k</w>
slaj inel</w>
skʼaxun tayik</w>
skʼatp ʼun</w>
skontra inel</w>
sir ku
senti rá</w>
sen sa
sembr ar</w>
schʼuun beyel</w>
ru ido</w>
reuni dos</w>
responsab le</w>
re fi
qui la</w>
pá jar
pu jk
prim og
preocupa ba</w>
pregun tarnos</w>
po ten
po se
permi tir</w>
pens aban</w>
peligr oso</w>
parti do</w>
oficin as</w>
ocupa dos</w>
na x
na m</w>
na kal</w>
n ífi
mé dica</w>
muk en</w>
mu eve</w>
me ca
ma gia</w>
m entos</w>
le pr
kuxin emik</w>
ku b</w>
kaʼtel tike</w>
k antsil</w>
juec etik</w>
jlokʼ es</w>
jchʼi eletike</w>
j toy
j kʼop</w>
inteli g
inici ativa</w>
inam il</w>
im pres
ichʼ ot</w>
i dol
idol atr
i chʼ</w>
h y</w>
gi g
fundam ental</w>
extrem o</w>
exper im
existi rá</w>
exist en</w>
exac to</w>
esta remos</w>
esta cion
en vía</w>
en ví
en de</w>
en dario</w>
em per
el ote</w>
ed as</w>
económi ca</w>
ec a</w>
dra gón</w>
dis positivos</w>
dej en</w>
cu le
cre í
cre ci
conso lar
conc e
co dicia</w>
cla vo</w>
ci l
chopo luk</w>
cham bah
cen i
ca j</w>
blan co</w>
bide oetik</w>
bast ante</w>
aʼte letik</w>
aʼba tinel</w>
ayud as</w>
ay ú
aw aʼ
aw amigo</w>
auto dominio</w>
at ole</w>
asig naciones</w>
apli car</w>
an ojp
al ma
al as</w>
akʼopon e</w>
ajojkʼoy bey</w>
achʼi xe</w>
ac ate</w>
ab ón</w>
ab solu
a tura</w>
a kʼot</w>
a conse
Z ac</w>
YA BAL</w>
Sig amos</w>
SO L</w>
SEʼ E
SCHʼUUN EL</w>
Por tu
Pa í
Pa ul</w>
M úsica</w>
M er
Lekub tesa</w>
LO Kʼ
LEKIL AL</w>
Ju d</w>
IN A</w>
I DO</w>
H en
H ag
E V
E BAL</w>
DI U</w>
D on
Cu i
A t
A CIONES</w>
5 6
200 2</w>
18 ,
14 9</w>
í r
á c
yichʼ ojikix</w>
yi lele</w>
yan xan</w>
yakʼ beyxan</w>
xtal ik</w>
xcu hch</w>
xbo hon</w>
w0 3</w>
vir ti
vic toria</w>
ver se</w>
ven ía</w>
vec inos</w>
toj ol</w>
tiklam bey</w>
teʼ e</w>
terri ble</w>
t ol</w>
sut botik</w>
su yo</w>
su po</w>
sta kʼin</w>
spa jk
son ido</w>
sm ama</w>
skʼaxun tay</w>
skʼ ayoj
skole lik</w>
sju k
sent ían</w>
sem ej
se pa</w>
se de</w>
se d</w>
sci la</w>
schʼ ojik</w>
sch eb
s pu
s p</w>
s bolkʼop
s ar
respe tu
res bal
reg añ
r en</w>
qu ej
pregun taron</w>
poder osos</w>
po quito</w>
plan tas</w>
pi el</w>
perdon a</w>
parti cular</w>
op ía</w>
ol or</w>
oh etic</w>
novi a</w>
na cimiento</w>
n algas</w>
míni mo</w>
mo strado</w>
mayu quix</w>
man dar</w>
man dado</w>
ma yuk</w>
lo tike</w>
llev ado</w>
li bri
ley ó</w>
lekub tesel</w>
le ón</w>
lajem ikix</w>
lajem ike</w>
lajchay eb</w>
lab anel</w>
la v
kichʼ kotik</w>
kar ro</w>
k ale</w>
joʼotik nix</w>
jkʼax un
jkʼ abtik</w>
jaʼ nixme</w>
jaʼ at
jaʼ ale</w>
j pox
j il
j i</w>
j es</w>
invi taron</w>
inspir ada</w>
inci enso</w>
honr ados</w>
ha gas</w>
g or
fun ción</w>
f all
exac ta</w>
ex pec
estable cido</w>
er no</w>
emi xe</w>
embaraz ada</w>
em ikix</w>
em ano</w>
eji c</w>
difun to</w>
des ánimo</w>
des gracia</w>
dedic amos</w>
deci rse</w>
de le
de bilidades</w>
dar án</w>
d és</w>
cʼoh em</w>
cumpl en</w>
cu be
cre es</w>
conqui sta
comi té</w>
ci c
ch onel</w>
ch ik</w>
cam pa
c ante</w>
bo h
bo da</w>
bili c</w>
bene ficio</w>
bel otik</w>
ba da</w>
b ús</w>
ay tonax</w>
awakʼ ik</w>
auto bús</w>
ar ru
apren da</w>
anunci oetik</w>
ant emano</w>
an al</w>
ambi que</w>
am eri
ali vi
alab anza</w>
aj e
ah p</w>
acep taron</w>
abatin on</w>
a tike</w>
a kiltik</w>
a kaj</w>
a ike</w>
a al</w>
X AJ
Tsa h
T ú</w>
ST ORIA</w>
S ON
S ER
S AN
R oboam</w>
Prom edio</w>
Pri scila</w>
Portu gal</w>
Ped roe</w>
PER SON
P res
O seas</w>
M or
KʼO P</w>
Inter nacional</w>
In vi
IN O</w>
HI STORIA</w>
HE BRE
Eli hú</w>
EJEMP LO</w>
E ti
E c</w>
E LE</w>
DIC EN</w>
Chap al
C hu
Bri tan
Ami go
ANT ES</w>
A sa</w>
6 9
4 0
20 ,
é st
Ó V
ÓV ENES</w>
z ambique</w>
z ación</w>
yuchʼ ik</w>
yo tʼ
yakʼ botike</w>
xtu hun</w>
xlokʼo n</w>
xchaʼ kuxaj</w>
x h
x chikin</w>
x bi
wp 16
vo to</w>
viaj es</w>
ven gan</w>
val orar</w>
us aron</w>
un eb</w>
uestr e</w>
u c
tí o</w>
tsʼihba bil</w>
transmi tir</w>
tranqui li
tom an</w>
tien den</w>
t és</w>
stu l
st su
spas emal</w>
snojptes ik</w>
sjultes bey</w>
señal ó</w>
sem illa</w>
se tenta</w>
sch ap</w>
sac arle</w>
s hah
relacion adas</w>
reflexi onar</w>
recuer dos</w>
rec e</w>
rebe li
re r</w>
profun das</w>
prof unda</w>
pro vo
pro vin
presi dente</w>
predic aba</w>
precurso retik</w>
por tu
pon drá</w>
poli tika</w>
pens é</w>
pec ar</w>
os cu
om e
olvi dar</w>
oj beyik</w>
o a</w>
ne y</w>
n ac
modes to</w>
mo dos</w>
majtʼ anile</w>
ma dure
madure z</w>
lo cal</w>
lesi as</w>
lar se</w>
lamal nax</w>
l xan</w>
kulaʼ taytik</w>
kil tikixe</w>
kaʼ bil
jun tas</w>
jts ʼum
jta oj</w>
jnop il
jle kil
jkʼan tike</w>
j xiʼ</w>
j tsʼibay
j pi
investig ación</w>
in s
idolatr ía</w>
i z
i que</w>
i kʼot</w>
hi ch
habl ado</w>
hab erse</w>
gradu ar</w>
gi os</w>
ga to</w>
fu mar</w>
f abri
expli que</w>
et y</w>
especi ali
esfuer za</w>
escri tas</w>
enfr entó</w>
enfr entan</w>
em bra</w>
edu car</w>
dob lar</w>
difer encias</w>
d ental</w>
cump la</w>
cre as</w>
cost ó</w>
comuni cación</w>
chi c
chaʼkuxaj tesel</w>
bot ella</w>
ba ts</w>
ba h</w>
b alix</w>
aʼi x</w>
awichʼ ik</w>
awamigo in</w>
aw ulaʼtay</w>
aw in
ati x</w>
ata bey</w>
anop xan</w>
an ul</w>
am én</w>
am ul</w>
ai letik</w>
agr esi
abund ancia</w>
abi il</w>
abandon ar</w>
a zo</w>
a tsʼibay</w>
XAJ T
XAJT ʼ</w>
To dopoderoso</w>
Soci ety</w>
Se gu
SO BRE</w>
SI ON</w>
RI O</w>
PA SA
Mo zambique</w>
Mej ore</w>
Mar y</w>
M il
K al
J ÓVENES</w>
J XAJTʼ</w>
I chʼ
Hag eo</w>
FICI OS</w>
DA TOS</w>
D ON
D EM
Chʼ ama</w>
CON VER
Ber ea</w>
Belsas ar</w>
Anaʼ ojbal</w>
AM I
17 5</w>
17 3</w>
14 4000</w>
1 32</w>
1 1
ó bu
óbu los</w>
yij tsʼin</w>
xluj botik</w>
xkʼopoj on</w>
xkʼo at</w>
xj il
x yichʼik</w>
x pʼaj
x mil
x li
w 00</w>
ven ían</w>
var ones</w>
u btes</w>
tsaj el</w>
tradu ce</w>
trabaj a</w>
tey to</w>
ten taciones</w>
te ó</w>
str emos</w>
spa m
spam lej</w>
smukʼu btes
smam alale</w>
smah li
sku x</w>
sirku ito</w>
sil enci
si vos</w>
sem illas</w>
schʼ oj</w>
sch ap
sba k</w>
sa kil</w>
s ú
s ó</w>
rompi ó</w>
rom ana</w>
rol lo</w>
ri do</w>
resal tada</w>
repres entan</w>
reliji one</w>
rebi sta</w>
re quiere</w>
ra te</w>
que dado</w>
program as</w>
pro por
pres os</w>
predic arles</w>
posi bles</w>
pon ernos</w>
polí ticas</w>
po ste</w>
pas beyele</w>
pareci das</w>
p ese</w>
opini ones</w>
on ías</w>
ocupa do</w>
naʼ ame</w>
mur al
muchedum bre</w>
mostr arles</w>
mil aw</w>
mantal tesel</w>
mal ab</w>
m tC</w>
logr aron</w>
le ído</w>
lan dia</w>
kʼat kotik</w>
kuxaj tik</w>
ki kʼatkotik</w>
jpa t</w>
jnichʼ an</w>
jkʼayin tik</w>
j ʼ
j biluk
inten ción</w>
indic ó</w>
in a
im pa
gobern ará</w>
fr anc
fij émonos</w>
fi car
fac tores</w>
estu vieran</w>
escribi eron</w>
es car
er les</w>
er emos</w>
er e</w>
enfrenta rse</w>
elimin ará</w>
electróni cos</w>
e f
due ño</w>
dist ra
destr o
desarrol lar</w>
demuestr e</w>
de di
d ándole</w>
cose cha</w>
cor ta</w>
comi endo</w>
ciudad anos</w>
ci dad</w>
chopo like</w>
chik anuk</w>
cham en</w>
cal endario</w>
c lic</w>
be e</w>
ba sa</w>
aʼte jibal</w>
ayud ante</w>
averigu ar</w>
asi a</w>
asegur arse</w>
ar o</w>
al ax
activi dad</w>
aconse ja</w>
acep te</w>
ac to</w>
ab e
a tiempo</w>
a kuxlejale</w>
Yu ʼun
Tabi ta</w>
TE K
T ro
T ri
T hom
T ex
T en</w>
Sof onías</w>
STA LEL</w>
S er</w>
Ri ta</w>
P arti
P an
P OR
O tra</w>
NA IL</w>
Men or</w>
MAR COS</w>
M enci
Im perio</w>
I O</w>
Ge orge</w>
FE LI
FE CH
Eti opía</w>
Enseñ e</w>
E no
Cono zca</w>
CONVER SA
Bíbli ca</w>
BÍBLI CAS</w>
B r
B ON</w>
Aqu í</w>
A ÑO</w>
7 7
3 3
200 8</w>
2, 9
19 43</w>
1, 5
1, 4
1 51</w>
ú s
é gu
á tico</w>
Á quila</w>
zapa to</w>
yu go</w>
ya ch</w>
y ajw
xnoptsaj otikxan</w>
x ma
x chʼuunel</w>
winik il</w>
v é
v es
v emente</w>
tsak bil</w>
traduc tores</w>
ti tul
ti empoe</w>
tem ores</w>
tar es</w>
t t</w>
t he
sw ix</w>
spi ca
spas tiklan
sku y
sj akʼ</w>
s pʼijubtes
ro stro</w>
recibi rán</w>
rechaz ó</w>
r i</w>
r ay
quisi era</w>
pu cu
proteger á</w>
predic an</w>
pre juicio</w>
pre fer
po m</w>
piens o</w>
pase ar</w>
p ér
p ando</w>
ote ca</w>
orig in
nujpun em</w>
nujpun ele</w>
no h
ne gó</w>
na xe</w>
mor ral</w>
mol é
mak ot</w>
lleg ada</w>
lan dés</w>
kʼ anel</w>
ko ʼ</w>
kil tike</w>
ju ego</w>
jpuk tik</w>
jpat xuj
jo venci
jnopil antik</w>
jkʼ ayoj
jkontra taktik</w>
ji lele</w>
jbakʼetal tik</w>
jaʼ bil
jajch el</w>
inten so</w>
ini cu
in ea</w>
in def
impa c
im puestos</w>
ij ka
ichʼ bil</w>
her idas</w>
hebre os</w>
hablar emos</w>
h ar
gu err
gu en</w>
gradu ación</w>
gra f
gr ani
gi eron</w>
forma da</w>
f am
eʼ el</w>
examin ar</w>
esta tua</w>
espej o</w>
esco gido</w>
entreg ar</w>
enfr entamos</w>
empez amos</w>
ejerci cio</w>
ec o</w>
diri gió</w>
dig nidad</w>
den se</w>
def endi
de tuvo</w>
cu ri
cu antos</w>
contribu ir</w>
conta min
cer cano</w>
bu jtsʼ
borra ch
bauti cé</w>
aʼ beya</w>
autom óv
as car</w>
ap al</w>
am ó</w>
am i</w>
am bey</w>
am as</w>
al bor
ak ti
ag ascar</w>
adul terio</w>
adic ción</w>
acti tudes</w>
abue la</w>
ab raz
ab o</w>
a koltay
UM IL
Trac t</w>
TI N
TA R
TA DA</w>
T alel</w>
Recor demos</w>
Puku j</w>
P au
Mad agascar</w>
Lam enta
In clu
Gu inea</w>
F E</w>
Cai f
CONVERSA CIÓN</w>
BENE FICIOS</w>
Andr és</w>
AW AʼIY</w>
2 ,000</w>
19 50</w>
19 18</w>
í l</w>
Í TI
yoh lil</w>
yichʼ beyik</w>
yak to</w>
xlo cʼ</w>
xkʼax otik</w>
x pejkʼaj</w>
x k
x aj
w el</w>
ver los</w>
venta jas</w>
utsʼin wanej</w>
un gido</w>
un g</w>
u chʼel</w>
tulan ik</w>
tsal tamba</w>
tsaj al</w>
trib un
tey nix</w>
tan ik</w>
ta tik</w>
ta sion</w>
stuk el
sti jbat</w>
so sten
snam alil</w>
slum alike</w>
skʼ anike</w>
skʼ abik</w>
sj am</w>
segui rá</w>
schiknaj tes</w>
san ti
sab es</w>
s me</w>
s es
s derecho</w>
ri t
res pi
r la</w>
puer to</w>
pu ros</w>
provin cia</w>
pro cur
poli tic
pobre etik</w>
per der
pal os</w>
pa ta</w>
or ra</w>
obst áculo</w>
nú m</w>
nego cios</w>
na ve
n amente</w>
misericordi oso</w>
mer ec
man el</w>
m amal</w>
laj an</w>
la bios</w>
kuʼun kotike</w>
kijkʼi taytik</w>
ki h
ka tse</w>
jlekil altik</w>
jkʼu lej
jaʼ exe</w>
j al</w>
inmens o</w>
inacti vos</w>
in akti
i tas</w>
ha ch</w>
grie goetik</w>
fr acas
fin es</w>
f áb
esp ina</w>
escuch ado</w>
entreg ó</w>
enseñ aba</w>
en co
emper ador</w>
emi ase</w>
ejemp lar</w>
egip ci
eb xan</w>
dul ce</w>
diri gen</w>
destru ida</w>
desti no</w>
descan so</w>
der son</w>
con ec
comand ante</w>
co ordin
choj ak</w>
chap bil</w>
camin ando</w>
ca ña</w>
c or</w>
c alum
bus camos</w>
bin tikxan</w>
be etik</w>
be en</w>
ba tik</w>
b rió</w>
ayu kix</w>
asi entos</w>
ap enas</w>
ante pasados</w>
anichʼ ane</w>
an s
amali el</w>
ador aba</w>
adolesc entes</w>
actú a</w>
a tsa</w>
Yuʼun bal</w>
WIN IK
Uni versidad</w>
U r</w>
Ti enen</w>
T ʼIL</w>
So f</w>
S PAS</w>
Re v</w>
Paí ses</w>
P aj
LEK IL</w>
L ine</w>
KU ʼU
K om
Jac k</w>
J ose</w>
Imag in
I I</w>
H or
H ace</w>
H ab</w>
G amaliel</w>
F u
Evangeli zadores</w>
EN CIA</w>
Dem ocrática</w>
Dar ío</w>
DISCURS O</w>
CON TES
Bin xan</w>
B ob</w>
Amigo ina</w>
Abiga íl</w>
A h
2, 4
17 1</w>
1, 7
úni cos</w>
éndo lo</w>
ác ter</w>
yal oje</w>
ya chʼu
xu b</w>
xna hin
xmantaltes wane</w>
xcʼ ax</w>
xchʼ ayotik</w>
x ni
w2 20
ve ían</w>
tu za</w>
tr om
tor o</w>
ter ía</w>
te kʼel</w>
te jpa
sw ol
super fici
su ci
stsak oj</w>
stoj el</w>
st o
spat xuj
spas bon</w>
snop beyik</w>
skʼaxun taybey</w>
skʼan beyel</w>
skoltay lan</w>
skoltay beyel</w>
skol taya
simb ólico</w>
si va</w>
secre tario</w>
schʼi tesel</w>
regi onal</w>
re cur
propor cion
pox il</w>
poder osa</w>
pekʼ elxan</w>
ped í</w>
paj a</w>
p ala
or aba</w>
op ción</w>
oj on</w>
ofrec en</w>
ob l
niw ak</w>
neces aria</w>
ne as</w>
nacion ales</w>
mi st
limpi eza</w>
libri o</w>
li da</w>
levi tas</w>
lan za</w>
la m</w>
kʼay emotik</w>
kʼax ik</w>
koltay wanik</w>
k oetik</w>
juram ento</w>
ju gar</w>
jpa kʼtik</w>
jmu l</w>
jm ajkʼnax</w>
ji j
jel taytik</w>
jay tul</w>
ini cio</w>
in creí
i t
hu r
hospi talidad</w>
hablar le</w>
h undi
gu é</w>
fortalec en</w>
fi gu
fav ori
expuls ado</w>
existi r</w>
esti ma</w>
ern es</w>
equi librio</w>
enfr entar</w>
energ ía</w>
encu entro</w>
enci aetik</w>
en tiende</w>
egoí sta</w>
ebe c</w>
e ar</w>
disfru tamos</w>
dis minu
di lu
destru yó</w>
desta có</w>
dej es</w>
deci den</w>
de terminar</w>
cí o</w>
cul turas</w>
cre ció</w>
consul tar</w>
conf ían</w>
con viene</w>
con ferencia</w>
compar ación</w>
ci v
característi cas</w>
c ol</w>
c elos</w>
bur ro</w>
bu lil</w>
bien venida</w>
beyi kxan</w>
bendeci rá</w>
bel on</w>
bar co
ayud arme</w>
awi ch</w>
aw alik</w>
avi ón</w>
ata kʼin</w>
apó sta
anunci ó</w>
antsi wej</w>
anim an</w>
an o
am an
ali vio</w>
al okʼ
aj ix</w>
agu ja</w>
ador aban</w>
ab re</w>
a str
a floj
Wikʼ ame</w>
VER DAD</w>
U S
Tr inidad</w>
Sy l
Salom one</w>
Qu ebec</w>
Oné simo</w>
OS OTROS</w>
O xch
NU EV
N OSOTROS</w>
M IN
LA J
Kʼ ux
Jeho i
Inclu so</w>
Imag ínese</w>
IL UK</w>
Haz te</w>
HEBRE OS</w>
H e</w>
ENSEÑANZ AS</w>
ELE TIK</w>
Di o
Cor é</w>
Ch arles</w>
Caif ás</w>
C H</w>
Bau tista</w>
BI TʼIL</w>
Ab salón</w>
AN Aʼ
6 000</w>
14 ,
1, 2
1 Te</w>
1 13</w>
í j
ÍTI CO</w>
Á S</w>
z aron</w>
yilin ba</w>
yamigo inel</w>
y ab
xu hk</w>
xtu lan
x mo
x kaj</w>
we en</w>
waxak eb</w>
w anike</w>
vuel van</w>
vi siones</w>
vi erte</w>
us aba</w>
uni ke</w>
un dar
undar ia</w>
u ʼ</w>
u y</w>
u tsil</w>
toy olxan</w>
tir ó</w>
tiklan el</w>
tien das</w>
terri bles</w>
ter as</w>
tele bi
tal emotik</w>
taki j</w>
sw aʼel</w>
stsa oj</w>
st se
sna kʼ</w>
sinc er
sin g</w>
signifi can</w>
si entes</w>
senti remos</w>
senti miento</w>
segu ían</w>
se la</w>
satisf echos</w>
ren cor</w>
quer er</w>
qued an</w>
públi cos</w>
prote gió</w>
propi edad</w>
prekur so
positi vas</w>
plen a</w>
pas ti
pas ajes</w>
pas aj
par on</w>
pa so
p h</w>
on tik</w>
ofreci eron</w>
obedeci ó</w>
nopol me</w>
naz i</w>
na hin
minist ro</w>
mer e
mencion ada</w>
maʼ yu
madur os</w>
ma te</w>
lo qʼuel</w>
llev arnos</w>
llam aban</w>
leg ales</w>
l awu
l abal</w>
kʼopon ot</w>
kʼo on</w>
kʼan beyel</w>
kristi anoetike</w>
kom e</w>
jpaso j</w>
jfamili ae</w>
jbah tic</w>
j yakubele</w>
j wokol</w>
j pisi
ix ta</w>
invi tamos</w>
inte gri
informa sion</w>
impresion ante</w>
im as</w>
ilin otik</w>
ilin on</w>
i ga</w>
human as</w>
ho yo</w>
hin ch
hab íamos</w>
gui r</w>
grie gos</w>
gl óbulos</w>
g on
g aba</w>
for mó</w>
ex hibi
est és</w>
esp esi
esfor zó</w>
esco gió</w>
esclavi tud</w>
esca par</w>
es encial</w>
entr en
enseñ arle</w>
em pu
ej tik</w>
ej chen
ej at</w>
ech ar</w>
dok tor</w>
direc tor</w>
di rá</w>
di cha</w>
des vi
des obedecer</w>
dedic ó</w>
decidi mos</w>
cʼ a</w>
cump le
cuer nos</w>
convi erte</w>
const ante</w>
con virti
compor tamiento</w>
comi ó</w>
col gado</w>
cli ma</w>
chʼ i</w>
chʼ ayel</w>
ch oj</w>
cer ni
bus có</w>
bondad oso</w>
bi enes</w>
bey tikix</w>
ban co</w>
babil onios</w>
aʼba tetic</w>
az u
ayud amos</w>
ata que</w>
asisti eron</w>
arri es
arrep inti
ant emos</w>
anichʼ an</w>
al ambre</w>
akʼ beyele</w>
aj ap</w>
agu ardiente</w>
ac as</w>
Ya tobal</w>
Tro as</w>
TI M
San tas</w>
San derson</w>
SI EM
SIEM PRE</w>
Qui enes</w>
Prom eti
PO DEMOS</w>
PASA DO</w>
OB TEN
Menci one</w>
L an
L aj
Jose e</w>
Jehoi adá</w>
Jai ro</w>
IL AWIL</w>
G om
G i
FAMILI A</w>
D ESP
Cor ea</w>
Ayu de</w>
AYU DA</w>
A mé
6 00</w>
Á N</w>
yin am
yamigo takik</w>
yakʼoj bon</w>
y eh
y alal</w>
xtojobtes wan</w>
xnujpun ik</w>
xbeen ik</w>
x tale</w>
x taj
w0 2</w>
vi vamos</w>
verdad eramente</w>
ve te</w>
ve inti
vali osos</w>
val entía</w>
un u
u yu
u ts</w>
u t</w>
tu luk</w>
tr ero</w>
to dopoderoso</w>
titu lado</w>
te com
tecom ate</w>
ta quin</w>
t ían</w>
sé ñ
swenta inik</w>
sw ol</w>
su ya</w>
su al</w>
stu pʼ
stsob el</w>
stsaj tay</w>
stsa ko
spo j
spica cia</w>
spasi x</w>
spasi kix</w>
sn an</w>
skaj nax</w>
sincer idad</w>
sfamili aike</w>
servi cios</w>
sel ular</w>
se tic</w>
se cta</w>
se ca</w>
sch onik</w>
sch am
sabi a</w>
s reliji
s cuxlejal</w>
ri sa</w>
respe tan</w>
refer ía</w>
recu ad
re pi
re comien
razon ables</w>
r é
qʼu e</w>
pueb loetik</w>
public adoretik</w>
próxi mo</w>
prision eros</w>
pre dica</w>
portu gu
pon gan</w>
po sesi
pi so</w>
per dieron</w>
pej kʼaj
p on</w>
ox om</w>
organiz ado</w>
or ae</w>
oni tas</w>
on kotike</w>
ocurri rá</w>
ni x
nego cio</w>
muk enal</w>
mos aica</w>
mir ando</w>
mar so</w>
man a</w>
mag nífi
ma duro</w>
m undi
m j
m esi
m alel</w>
lokʼomba etike</w>
lokʼo n</w>
lleg ara</w>
llam ados</w>
lam ente</w>
lajun tul</w>
kʼux ul
kʼan bot</w>
kʼ ayin
ku chʼ</w>
ku chʼ
kil ome
kax lan
kamigoin ej</w>
ka kʼoj</w>
jun uc</w>
jtal ele</w>
jta ojtik</w>
jch e
jay ebto</w>
j r</w>
j or
j nae</w>
j li
inun da
indic ar</w>
inbi tasion</w>
ijkʼ al</w>
hu mo</w>
hacer me</w>
hacer les</w>
h im
h aré</w>
guí e</w>
gui stán</w>
go z
fr an
farise o</w>
fa cul
ez an</w>
exper to</w>
exc ep
establec er</w>
esper aban</w>
específi co</w>
espa cio</w>
enfer ma</w>
el tic</w>
dur ó</w>
descan sar</w>
des pier
des pe
demasi ada</w>
de ten
d os
cumpli eron</w>
confi emos</w>
con siguió</w>
computa dora</w>
co bi
cier tamente</w>
cic lo</w>
ci dos</w>
ch il
car ácter</w>
capi tán</w>
cambi a</w>
cal les</w>
bast ón</w>
bal bil</w>
asegur arnos</w>
arrepenti miento</w>
apʼi jil</w>
aprender emos</w>
apo ya</w>
apas bey</w>
anali za</w>
am aban</w>
alegr e</w>
al ilto</w>
al i</w>
al erta</w>
a o</w>
a gri
Y OʼTAN
V amos</w>
Ton y</w>
TIM OT
TIMOT EO</w>
TEK STO</w>
Suj tib</w>
Soci edad</w>
Po co</w>
PA Í
NA X</w>
NA CI
MA L
LEV ÍTICO</w>
Kʼajkʼ ale</w>
Kʼajkʼ al</w>
KʼO T</w>
Kir guistán</w>
Ken ia</w>
Kakʼ tik</w>
K XAN</w>
IN TER
IN EL</w>
Hol oca
Hal lo
H ai
G l
F OR
En séñ
E F
Di os
D U
Con stru
Com pr
Bu enas</w>
Britan nica</w>
BE R</w>
B AL
Asamb leas</w>
Apo los</w>
AN OP</w>
A z
A ma
A li
A TA
8 0
3 5
2 14</w>
19 58</w>
1 22</w>
ó set</w>
ísi mo</w>
z an
yu tsʼ
yi sim</w>
yi kʼon</w>
yaʼiy beyik</w>
xu lu
xnaʼ bot</w>
x yilik</w>
x ya
x ti
x p</w>
x maj
wayi bal</w>
w eb</w>
vol ví</w>
visi tó</w>
uk xan</w>
tí tulos</w>
tsob el</w>
tsi tse
trib u</w>
tram pas</w>
tra goe</w>
tes otik</w>
te za</w>
ta qʼu
t bal</w>
sé pti
suj e
stso tsel</w>
stsa kel</w>
so lamente</w>
snop beyel</w>
smukʼulin xan</w>
skoltay beyik</w>
sjelon tes</w>
si tic</w>
sec undaria</w>
se lec
se co</w>
schaj pajibal</w>
sbi luk</w>
sbakʼe talik</w>
sbakʼe tale</w>
s ka
s hu
revi si
revel ó</w>
reuni ó</w>
regular idad</w>
rebeli ón</w>
re vela</w>
ra íz</w>
r aj
pueb lo
prepar arnos</w>
prem io</w>
pox tayel</w>
po xe</w>
po so</w>
plen amente</w>
pl ani
pin tero</w>
pes ada</w>
perió dico</w>
per cibi
pens amiento</w>
pendi entes</w>
peda zo</w>
pareci ó</w>
pala cio</w>
oy ó</w>
os pi
o qʼuel</w>
nor r</w>
mu kel</w>
mostr aron</w>
mostr ando</w>
mi lele</w>
me tal</w>
m ali
lími te</w>
llen ar</w>
llam ente</w>
liter al</w>
limpi os</w>
la de
kʼux on</w>
kʼ ejel</w>
ku ar
kom el</w>
kol tayaw
kilome tro</w>
kanantay bil</w>
kamigo in</w>
kal a</w>
jyanlume tike</w>
jichuk otik</w>
j tʼ
j pʼijubteswanej</w>
integri dad</w>
in si
in on</w>
impres cin
imprescin di
il ust
hor no</w>
físi cas</w>
fáb rica</w>
fortalec erá</w>
forma do</w>
fij ó</w>
fi a</w>
f undi
extraordin ario</w>
extranj ero</w>
eter no</w>
espesi al</w>
escri b
epi dem
electróni co</w>
dor mido</w>
doc tr
dob le</w>
dis cerni
di tos</w>
di ría</w>
di gi
demostr ando</w>
deli to</w>
dar lo</w>
cʼu xul</w>
cʼ ah
cube ta</w>
conoci da</w>
confir ma</w>
comen zar</w>
ci dental</w>
chaʼoxpʼ alnax</w>
car gas</w>
cal aba
cad ena</w>
ca ído</w>
c ep
c acʼ</w>
bási cas</w>
bre vemente</w>
biili letike</w>
bersi kulo</w>
benefici an</w>
be ju
bautiz aron</w>
ban j
ba yu
ba han</w>
b es</w>
ayud aba</w>
au to</w>
atu untes
at han</w>
asist entes</w>
arr esta
ar ro</w>
ar e</w>
aqu ello</w>
anaʼ xan</w>
an se</w>
ambi a</w>
am á</w>
alnichʼan etike</w>
albor o
al an</w>
akʼ bon</w>
ajwal tike</w>
ajo kin</w>
aj kʼ</w>
ah e</w>
agu j
acer có</w>
a talel</w>
U STE
Thom as</w>
S acer
S JEL
R ojo</w>
Prometi da</w>
Pre dic
PR EN
PAS E</w>
PA J
PA CI
P al
Man d
Maestr o</w>
M O
Les li</w>
K norr</w>
Ju lio</w>
Ju ez</w>
Jose ph</w>
Jerusal ene</w>
J ab
Entr e</w>
Eno c</w>
Eli ja</w>
E j
E banj
Dio son</w>
D ANI
DANI EL</w>
Cre es</w>
CONTES TE</w>
B O
Apren damos</w>
Ale x
7 000</w>
6 07</w>
4, 8
200 7</w>
2, 6
2, 5
199 9</w>
1 16
ólo gos</w>
ín ci
égu ele</w>
xju ʼe</w>
xch ebe
xch a</w>
x nichʼ
x kanantay
x at
utsʼin ot</w>
utili zan</w>
us ado</w>
uni do</w>
uk on</w>
ue lo</w>
u y
tí simo</w>
ts ʼ</w>
trabaj aba</w>
tra tando</w>
tori os</w>
tom aron</w>
tojobtes ele</w>
to kal</w>
to car</w>
terr estr
te oe</w>
tay wan</w>
tay e</w>
tari a</w>
tab les</w>
ta m</w>
ta jibal</w>
sy lvania</w>
swinik tak</w>
sw eʼ</w>
sw ayel</w>
stsʼum b
stsʼumb alike</w>
stsʼibay bey</w>
stsak ot</w>
stoj ik</w>
st uk</w>
spa kʼik</w>
sorpren de</w>
sman ik</w>
smam lale</w>
skʼu lejal</w>
skʼo tesik</w>
sk ejan</w>
sent ó</w>
segu í</w>
s pensar</w>
respon da</w>
res id
regres aron</w>
reaccion aron</w>
re ún
re t</w>
razon ar</w>
r y</w>
qued aba</w>
pʼiju ben
publika sionetik</w>
publik adoretik</w>
profeti zó</w>
produ ctos</w>
pro tes
primog énito</w>
prepar ación</w>
pr ínci
pr isa</w>
plan o</w>
piens en</w>
permi tido</w>
perman ente</w>
pe t</w>
p il
p en</w>
oj tike</w>
nichi m</w>
n y</w>
n sylvania</w>
mu darse</w>
mj jkʼ</w>
mem orasion</w>
mar ch
man tienen</w>
lu s</w>
lle ve</w>
li kto</w>
levan tar</w>
lev adura</w>
kar taetik</w>
kaj ik</w>
k aye</w>
k aw
jun ta</w>
ju stas</w>
ju l
jtuk eltik</w>
jtij beytik</w>
jo tike</w>
jelon em</w>
jel tayel</w>
j tikun
j pajk</w>
j ok
inter pre
inten te</w>
instal aciones</w>
ikʼ awan</w>
ig an</w>
hue vos</w>
h en
h cʼ
graf ías</w>
gobiern e</w>
g ani
g ales</w>
fortal eza</w>
fil oso
fi ca
fal le
extraordin aria</w>
estre cho</w>
espo sos</w>
escu chan</w>
es tando</w>
es quina</w>
equivoc ado</w>
en os</w>
empi ezan</w>
em pa
em ike</w>
em an
ech el</w>
e tal</w>
e ga</w>
dé j
du dar</w>
dok toretik</w>
di si
desanima dos</w>
des nu
des aparec
dej aran</w>
dej aba</w>
deci da</w>
crí ticos</w>
copi ar</w>
conv ento</w>
conser var</w>
cono zca</w>
confli ctos</w>
con tamos</w>
con fí
comp l
cli má
celebr ó</w>
caus ado</w>
c res
c anos</w>
bu l
bo txan</w>
bibli oteca</w>
ban ti
baj ar</w>
b óset</w>
aʼiy bil</w>
ay one</w>
awu chʼ</w>
awo tʼan</w>
ati vos</w>
ata ques</w>
apren den</w>
apa ra
anun sioetik</w>
anteri ormente</w>
alu mal</w>
aj okin
acti vo</w>
acercar nos</w>
abri r</w>
abati na
a fri
a familiae</w>
Z im
UN I
Ts ʼi
Si me
S O</w>
S KUXLEJAL</w>
Ri ch
Per son
Pen nsylvania</w>
PAÍ S</w>
Ori ente</w>
O h</w>
Nuestr os</w>
Nichʼ anil</w>
MA J
M í
M ir
LI BR
Kon memorasion</w>
K on</w>
K ON
Jeo bae</w>
Jehov a
Jac obe</w>
J PAS
Isra ele</w>
Imagin emos</w>
Hist oria</w>
Ha cia</w>
Esta ba</w>
E cu
D u
D emo
Co ordin
Ch ʼu
B ur
A w
A ust
A cʼa</w>
A BA
8 00</w>
6 ,000</w>
199 3</w>
19 88</w>
19 ,
15 ,
ín ti
á i</w>
z ando</w>
yuʼ ele</w>
yutsʼ inik</w>
yil ojik</w>
yichʼ tiklan</w>
yaʼiy botik</w>
yax al</w>
yal alilto</w>
xw ay</w>
xtu pʼ</w>
xojo bil</w>
xkʼo tike</w>
x le
x kʼatpʼuj</w>
wits tikil</w>
wi kʼ
ver de</w>
utiliz ando</w>
té c
tsʼum bil</w>
tsʼin ab</w>
tsitse letik</w>
titul ada</w>
tik i</w>
tay beyel</w>
t ora</w>
sw ocolic</w>
sw ocol</w>
sw ex</w>
st al</w>
spi k
so e</w>
sn oj
sm eloj</w>
skʼu bulil</w>
skol el</w>
sjojkʼoy bon</w>
sjel olin</w>
sjach el</w>
sinc eras</w>
si embra</w>
si aetik</w>
se pan</w>
schan ebal</w>
sch opo
sch on</w>
sch i
s tamente</w>
s bon
s alg
resuci tados</w>
repres en
represen tantes</w>
reali sta</w>
reaccion ar</w>
r oetik</w>
r aron</w>
qʼue tal</w>
quem ar</w>
qued é</w>
publi có</w>
prácti co</w>
proyec tos</w>
preocupa dos</w>
pregun taba</w>
pox etik</w>
portugu és</w>
pon ía</w>
po b
pi chʼil</w>
pe tate</w>
pa ganda</w>
ofr enda</w>
oc é
nix tamal</w>
nichim etik</w>
nichi me</w>
ni v
necesi ten</w>
nac í</w>
mundi ales</w>
mu e
motiv ación</w>
moti va</w>
moso in
me xa</w>
mani f
man tenemos</w>
mamal alil</w>
ma tri
logr é</w>
lo j</w>
li me
le en</w>
lan d</w>
lajun chajp</w>
l una</w>
kʼo tix</w>
ku adro</w>
kontra inele</w>
kerem to</w>
kal bat</w>
k ejch
jw ix</w>
jtoj ob
jpas tikxan</w>
jnaʼ beytikxan</w>
jchʼuunej tik</w>
is mo</w>
investig ar</w>
inten ciones</w>
inspir ación</w>
ing eni
in ido</w>
in dig
h áb
guerra e</w>
gi endo</w>
gi da</w>
ex p
estudi amos</w>
esc ena</w>
ermano etike</w>
enz imas</w>
enten día</w>
enten di
empe ño</w>
empe ñ
egoí stas</w>
efec tos</w>
diver siones</w>
dist ancia</w>
dij era</w>
dese ando</w>
des cans
dedic an</w>
deci rles</w>
deb o</w>
de tener</w>
cʼ o
cui dará</w>
cri ar</w>
cre encia</w>
corre o</w>
convenci ó</w>
conven cer
conv inc
con sci
comuni carse</w>
compren de</w>
comi sión</w>
come temos</w>
col el</w>
co pa</w>
cil mente</w>
ci aetik</w>
chuj kʼu
ch aye</w>
ch am</w>
cere bro</w>
celebr an</w>
cal mó</w>
c aʼiy</w>
bon xan</w>
biluk etike</w>
beju co</w>
been ik</w>
bar koetik</w>
babil oni
b abu
atoj olic</w>
at re
apo j</w>
and ro</w>
an álisis</w>
an g
ador as</w>
adap tarse</w>
ac lar
ac c
abier tos</w>
aba h</w>
a parte</w>
W I
Timo teoe</w>
Signifi ca</w>
San to</w>
Samu ele</w>
S ok
S mele
S ina
S hi
S PASEL</w>
Res puesta</w>
Pu edes</w>
Po dría</w>
Or gani
O s</w>
N op
N eh</w>
Mi s</w>
ME DI
M ayuc</w>
Lokʼ em</w>
KI CHʼ
K ajwaltike</w>
Jose fo</w>
J O</w>
Hallo ween</w>
Hab l
H E</w>
Gom orra</w>
G REG
Chajp ana</w>
Centr o
CH ʼIL</w>
B ah
A TE</w>
A LE
A JA
28 ,
2, 7
2, 3
19 23</w>
énd oles</w>
yo tʼan</w>
yo chibal</w>
yil on</w>
yichʼ bey</w>
yi kʼel</w>
yamigo in
yaj ch</w>
yab enal</w>
y ermano</w>
y b
xtu un
xcʼ oh
xchʼ ayotike</w>
xch ah
xbaj tʼ
x ʼi
x talix</w>
weʼ elile</w>
w 98</w>
visi tan</w>
vers al</w>
venci do</w>
ve hí
v ara</w>
utsʼin otik</w>
us aban</w>
un tik</w>
u ʼun
tra ten</w>
tr aje</w>
toj o</w>
telebi sion</w>
tele fono</w>
tati letike</w>
tar ían</w>
ta pa</w>
ta cto</w>
suj totik</w>
suc eso</w>
stsa ik</w>
sti co</w>
st ʼ
sk oj
sjokin otik</w>
sjojkʼoy beyik</w>
si ti
sch ah
salv ará</w>
sacerdo te
sa que</w>
s ín
s pʼijubtesel</w>
s canan
romp er</w>
rin am</w>
ri am</w>
resul te</w>
reliji onetike</w>
rechaz an</w>
re conocen</w>
publika sion</w>
pregun tado</w>
poli s</w>
pla ga</w>
pi do</w>
pi diendo</w>
peligr osa</w>
pedi do</w>
ped ía</w>
paso t</w>
organiz ar</w>
or idad</w>
olvi demos</w>
ol as</w>
oj tikix</w>
necesi tados</w>
ne gro</w>
n acer</w>
mé lec</w>
mucha chos</w>
motiv ó</w>
mi da</w>
meti eron</w>
mencion ar</w>
men ores</w>
man bajel</w>
maj tamba</w>
m ía</w>
lá mina</w>
llu vi
li g
la e</w>
kʼajkʼ alil</w>
kʼajkʼ alel</w>
ku ltik</w>
ku loetik</w>
koltay bilik</w>
kil ojtik</w>
ki stán</w>
kalbey tike</w>
kal beyex</w>
jtsajtay wanejetik</w>
joʼ chajp</w>
jmulawi letik</w>
jlu mal</w>
jkʼo testik</w>
jkoltay wanej</w>
jkoj kʼ
ji pil</w>
jel otik</w>
j ni
j kʼope</w>
j kolel</w>
j chʼu
j chajp</w>
inv a
in justos</w>
impul sa</w>
imag ina</w>
ilan dia</w>
hur ac
hue vo</w>
hu mill
hu esos</w>
hormi gas</w>
histó rico</w>
gu al</w>
gri tó</w>
gr á
g ale</w>
fuérc ese</w>
fu ria</w>
franc és</w>
fon dos</w>
fav or
esta bilidad</w>
escu elas</w>
erman aetik</w>
enseñ aron</w>
enoj a</w>
encontr aba</w>
emocion antes</w>
el ul</w>
el nanix</w>
ejér citos</w>
disfru tan</w>
di ji
destru irá</w>
des esper
dej ando</w>
d ele</w>
cuán tos</w>
cor tar</w>
continu ar</w>
consider aba</w>
cono zcamos</w>
con texto</w>
con tarles</w>
compr a</w>
com unes</w>
com prom
com prendi
com para</w>
chʼ en</w>
cham eletike</w>
cer rado</w>
caus an</w>
cat á
carri tos</w>
calum ni
ca uti
c all
bi luc</w>
bebi da</w>
ban dera</w>
babu e</w>
b era</w>
ay o</w>
aw ik</w>
aum entar</w>
atra ves
at xan</w>
ap el
anima doras</w>
anichʼna bike</w>
an tas</w>
amu ch</w>
alter na
alegr ó</w>
alco h
al tura</w>
al em
al beyele</w>
akʼ bilik</w>
ajwali letike</w>
aj tayel</w>
aj ol
agrad an</w>
ad qui
actú e</w>
aconte cimientos</w>
ac es</w>
ab o
a tos</w>
a pisi
a pe
a ge</w>
Zim babue</w>
Z el
YA ʼI
YA CHʼIL</w>
WINIK ETIK</w>
Uni ón</w>
Uni do</w>
U rías</w>
Tom ás</w>
TEM E</w>
T so
Su rinam</w>
Se ol</w>
Sacer dote</w>
SJEL BON</w>
S ec
R O</w>
P ʼ
OBTEN IDO</w>
L in
Kʼ ot</w>
Kom ite</w>
Kal beytik</w>
Jo pe</w>
Jich me</w>
Jer obo
Jer emiase</w>
Jehova hon</w>
J en
J OS
HER MAN
H oʼon</w>
F oto</w>
Est onia</w>
En contr
E X
Di ana</w>
DE CI
DA DES</w>
Con se
CI AS</w>
Barzil ai</w>
B i</w>
B LO</w>
Aust ria</w>
Abiga il</w>
A be
A DO</w>
9 00</w>
8 6
2 Pe</w>
2 39</w>
19 74</w>
ó ma
én donos</w>
Í n
É ch
yikʼ tiklan</w>
yikʼ onik</w>
yijkʼi tayel</w>
yi pi
yi like</w>
yermano takik</w>
ya cuc</w>
xwentain wanik</w>
xmukʼu bxan</w>
x takij</w>
x mo</w>
vi v
vel as</w>
ux ul
tu al</w>
tribun ales</w>
tori as</w>
tor cida</w>
tom emos</w>
tes on</w>
ten der</w>
tar las</w>
tal on</w>
tab let</w>
supli có</w>
su pi
su j</w>
stiempo ik</w>
sreligi onik</w>
spox il</w>
spa kʼ</w>
sna ike</w>
si mil
shah chibal</w>
señ ailetik</w>
senci llamente</w>
sel va</w>
segui do</w>
seg ú
schaʼ pasel</w>
sba j</w>
satisf acer</w>
san guí
s caj</w>
ru s</w>
ro cío</w>
ro bar</w>
ri endo</w>
reuni eron</w>
repar ar</w>
religi one</w>
rein ado</w>
reflej a</w>
refer encia</w>
realiz an</w>
qu í
pér dida</w>
pueblo hetic</w>
proteger nos</w>
progr eso</w>
profesi onal</w>
proclam ar</w>
proc edi
predic aban</w>
porno gra
pl as
peti ción</w>
pelí culas</w>
pas ara</w>
pa tri
pa mal</w>
p ene</w>
p ale</w>
ot ol</w>
ot cotic</w>
or en</w>
or eja</w>
och ix</w>
nujpun on</w>
naj tʼil</w>
n an</w>
mu tetike</w>
mor imos</w>
mi ó</w>
me za</w>
mar e</w>
man sos</w>
man ej
ma ʼ</w>
lími tes</w>
llan to</w>
libr es</w>
lej al
le tra
lam aj</w>
l era</w>
kuxu lotike</w>
kil kotik</w>
kermano tak</w>
kaʼiy tike</w>
kam paña</w>
ka ch</w>
k ilel</w>
ju es
jojkʼoy beyel</w>
jnop e</w>
jmu kʼu
jmam alal</w>
jkontra in
jel onel</w>
jch inam
jbakʼetal tike</w>
jaʼ etik</w>
j chamele</w>
inten tar</w>
inst ante</w>
ins cri
inclin ado</w>
in t
imi tarlo</w>
i ris</w>
ho ja</w>
golpe ó</w>
gaba onitas</w>
g lo
fir meza</w>
expul sión</w>
es col
ern a</w>
entr éguele</w>
ent err
enfrenta ron</w>
el uc</w>
el o
eh t</w>
ed or</w>
ed entes</w>
disfru temos</w>
disfru tarán</w>
discerni miento</w>
dis cul
di aria</w>
demostr aremos</w>
de fi
dar emos</w>
d ri
culpa bles</w>
cule bra</w>
cubier ta</w>
cre cen</w>
cor ru
coordin ador</w>
conta gi
conoc ían</w>
con stitu
compar ó</w>
com ente</w>
col um
ci ma</w>
ci egos</w>
chʼin onto</w>
chaʼox chajpuk</w>
ch aj</w>
caí da</w>
campa mento</w>
ca usar</w>
bu s</w>
bo tikxan</w>
bi lu
bi la</w>
be ltik</w>
ba kʼ
aʼ tel
aw okole</w>
automóv il</w>
atoj olik</w>
asi on</w>
arreg lar</w>
arra str
ar gu
anunci ar</w>
ants inel</w>
an i</w>
alcan z
afir ma
ach e</w>
acep tan</w>
acab e</w>
acab aba</w>
ac oso</w>
aba te</w>
a kʼotik</w>
Ya chʼil</w>
YU T
T su
T SO
Su premo</w>
Sina í</w>
SA BER</w>
S kʼajkʼalel</w>
S MUKʼUL</w>
S LU
SLU MAL</w>
Pri mero</w>
PREGUN TA</w>
OS AS</w>
OR ACIÓN</w>
Mor ris</w>
MI O</w>
KOLTAY EL</w>
Ja el</w>
JTA OJ</w>
JKʼ OP
EN TI
E du
D AS</w>
Cu r
Cam ino</w>
Bo az</w>
BU EN
BI LI
Alej andro</w>
AYI N</w>
AN TE</w>
A prove
A ST
A PASE</w>
8 9
5 0
4 3
2 50</w>
19 56</w>
17 8</w>
ʼ YU
íb amos</w>
z acate</w>
yol oj</w>
yamigo take</w>
yakʼo jix</w>
yakʼ xan</w>
y ol</w>
xnahin ic</w>
xbeen otik</w>
x ta</w>
x pʼ
x meʼel</w>
x lokʼ
w b
viol ento</w>
vi ética</w>
ven cer
vej ez</w>
utsʼin wan</w>
un ebal</w>
u yel</w>
u se</w>
téc ni
tuminchi jetike</w>
tulan e</w>
tron co</w>
tranqui lo</w>
tra st
ti vamente</w>
ti biltik</w>
tes bon</w>
te t</w>
tay oj</w>
tan ia</w>
ta etike</w>
t ó
sujtes ojix</w>
stul antes
stij beyik</w>
st on</w>
sorprendi ó</w>
snaj til</w>
smu k
skʼatp ʼun
skʼ ej</w>
skʼ ay
sk o
sinago gas</w>
ser ás</w>
scʼ ahcʼ
schʼuh unic</w>
schʼuh un
schajpan oj</w>
sbi lukik</w>
salu d
sabi as</w>
s naj</w>
ri r</w>
respon dieron</w>
rep enti
relacion ado</w>
reg oci
rebel ó</w>
re kuadro</w>
r ojos</w>
r ojo</w>
qui c</w>
prácti camente</w>
pros éli
prom e
prob ó</w>
pro hí
po stura</w>
permiti rá</w>
per judi
pelí cula</w>
pec es</w>
pa gar
op ti
oji c</w>
obedeci endo</w>
nu mero</w>
nombr aron</w>
muer en</w>
muchísi mos</w>
mi ca</w>
mer ecen</w>
meca te</w>
ma xe</w>
ma taron</w>
m wb
luj ben</w>
lokʼ em
lo gra</w>
llev arse</w>
letra etik</w>
lej ana</w>
le ones</w>
l inel</w>
l ay
kʼopo jan</w>
kʼo j
ko tses
kaʼiy beytik</w>
k on</w>
k i</w>
jues etik</w>
ju gando</w>
jtul nax</w>
jtsaj taytik</w>
jts ak</w>
joʼ tak</w>
ji kix</w>
jchuk eletik</w>
j meʼ
j cʼaxel</w>
j comentari
j ap</w>
ir me</w>
investig adores</w>
inoc ente</w>
inclu ir</w>
imagin ar</w>
ik me</w>
i cio</w>
hom bro</w>
hi li
habl emos</w>
gui ar</w>
gu era</w>
gi era</w>
ga ret</w>
g ober
g adas</w>
fas cin
far ero</w>
f an
exten dió</w>
expec tati
ex a
exa ger
escribi era</w>
equi pos</w>
enta y</w>
empez ado</w>
emocion ales</w>
el al</w>
e tel</w>
e k
dos cientos</w>
dis posición</w>
dio setike</w>
dig no</w>
dic cionario</w>
descu brió</w>
derrum b
da ños</w>
d ney</w>
d nego</w>
curi osidad</w>
cumple años</w>
cui dando</w>
cuer pos</w>
cu antas</w>
cru eles</w>
corre r</w>
cor ral</w>
conven i
consider an</w>
cono zco</w>
confi ando</w>
con sigue</w>
con junto</w>
compar ar</w>
col ores</w>
ci cle
chon bajel</w>
chaʼ cux
ch ul</w>
cas amos</w>
carre tera</w>
cari ote</w>
capaci tar</w>
cambi an</w>
c ías</w>
br ill
br il
bi o</w>
bi lat</w>
bayu knax</w>
bayal to</w>
bar ran
aʼi c</w>
ay ine</w>
awichʼ oj</w>
ar ma</w>
aprendi eron</w>
ap un
ani ch</w>
amb as</w>
am ik
alma cen
alax axe</w>
al am
ak anan
ajkʼ ab
aj oy</w>
aj on</w>
agra de
ad vierte</w>
acercar á</w>
acep tamos</w>
ab eja</w>
Zel anda</w>
Yo vi
Y ah
Y AL
Wokol awal</w>
WOKO LIL</w>
Tsaj taya</w>
Tri b
Testigo uk</w>
TI V
T er
Sa gr
SU S</w>
SE GUN
SCH EBAL</w>
SA B
S oy</w>
S ol
Recuer de</w>
Re p</w>
RE INO</w>
R el
Pu es</w>
Pad res</w>
PA Z</w>
P arte</w>
ON O
O tros</w>
O ficina</w>
NE H
NEH EMÍAS</w>
N ing
N i</w>
Mí riam</w>
Mar garet</w>
MA ʼYU
M ike</w>
Li ʼ</w>
K il
Ju icio</w>
Jam es</w>
J on</w>
J naʼ
J amal</w>
J CH
Is cariote</w>
H A</w>
G re
G er
F amili
Escu che</w>
Es per
ESI OS</w>
EF ESIOS</w>
C osta</w>
B as
B OTIK</w>
AʼT EJ
Aʼ TE
Ayu demos</w>
Abe dnego</w>
AKʼ A</w>
A yix</w>
A cu
4, 7
4 5
16 5</w>
16 0</w>
1 18
ú a</w>
óli cas</w>
í na</w>
æ dia</w>
yinam ik</w>
yaʼiy e</w>
yamigo inej</w>
yal be</w>
yakʼo jbat</w>
yakal on</w>
xtal on</w>
xkoltaywan at</w>
xiw ex</w>
xiw ele</w>
xi m</w>
xchaj paj</w>
xba h</w>
x ul
x mu
x jo
voluntari o</w>
vel oci
veloci dad</w>
vay amos</w>
u sto</w>
u me</w>
tsʼ ajkʼ</w>
tsa bilix</w>
tranqui la</w>
tradi ciones</w>
toy bail</w>
tor mento</w>
tor ció</w>
ton iwan</w>
to ca</w>
terc ero</w>
ter api
tendr ás</w>
ten te</w>
ten dencia</w>
tem en</w>
tem bl
te x</w>
te ar</w>
taj er
tajer jes</w>
t bol</w>
suger encia</w>
stsak on</w>
sti empo</w>
spajk al</w>
som brero</w>
so me
sni ch</w>
smucʼu lin</w>
slum ale</w>
sle beyik</w>
skaj tajib</w>
sjuk ebal</w>
sist encia</w>
sirvi éndole</w>
signifi caba</w>
si ri
ser vía</w>
sembr ado</w>
se y</w>
saduce os</w>
sa kubel</w>
s yu
s pensar
s nujpun
s lo</w>
s lej</w>
s laban
ri v
respon den</w>
respe ta</w>
recuer dan</w>
ram as</w>
princip almente</w>
pres entan</w>
pregun témonos</w>
pregun tarse</w>
pi s
pi ca</w>
perten ec
pe z</w>
pastiklan bile</w>
pa xyal</w>
p ædia</w>
p leto</w>
or y</w>
on ales</w>
olvi dó</w>
oh l</w>
ocu par</w>
obj eto</w>
ob ol</w>
niñ ito</w>
niv el</w>
naz are
nak lej</w>
n g
muchísi mas</w>
mu li
mostr amos</w>
minchi j</w>
mens aj
medi o
mak bil</w>
madr es</w>
m ár
m es
lv s</w>
loc alidad</w>
llev ara</w>
lleg aría</w>
libr oe</w>
levi ta</w>
l unes</w>
ku jch
kichʼ oj</w>
kaxlan etike</w>
kanan tayotik</w>
kakʼ kotik</w>
k ab
jojkʼoy bot</w>
jo k</w>
jn aʼix</w>
jmulawil otike</w>
jfamili atike</w>
jcomentari otik</w>
jaʼ xanix</w>
j tsʼin
j chʼix</w>
j acha</w>
ir ri
ir emos</w>
inmens a</w>
increí ble</w>
in ix</w>
impresion antes</w>
im pida</w>
ilu stración</w>
identi dad</w>
herm osas</w>
hered arán</w>
hal lar
hah ch
habi tación</w>
h lel</w>
gu emos</w>
gu ajol
grab ación</w>
g no</w>
g aj
f a</w>
ez er</w>
explicar le</w>
enoj ó</w>
eli c</w>
eji ke</w>
ed en</w>
dificul tad</w>
desta car</w>
demostr arles</w>
declar ó</w>
d oetik</w>
cʼuxul taywanej</w>
cʼ ope</w>
cʼ ax
có digo</w>
convi cción</w>
contes tar</w>
conmo vió</w>
concentr arse</w>
con temp
con taron</w>
con forme</w>
compañ era</w>
comba tir</w>
cobi ja</w>
chay etik</w>
cans ado</w>
ca fe
c ángel</w>
c es
bujtsʼ an</w>
bolob en</w>
beteli tas</w>
bar r
bar cos</w>
awoʼtan ike</w>
awil al</w>
aw acʼ</w>
au mento</w>
ata car</w>
arrepenti rse</w>
ar mas</w>
apósta tas</w>
apren dan</w>
apoy amos</w>
apo sta
apaso j</w>
apaci ble</w>
ap ʼ
al nich</w>
al d</w>
akʼ ab</w>
ak il</w>
aj oye</w>
abund ante</w>
ab ul</w>
ab or
ab ejas</w>
a prueba</w>
a ke</w>
Y aka
X w
Ust edes</w>
UT ER
UTER ONO
UTERONO MIO</w>
USTE D</w>
So viética</w>
So bre</w>
SEGUN DA</w>
S nichʼan</w>
S TA</w>
PRE DI
PR OP
PI TULO</w>
PE DR
PEDR O</w>
O b
NACI MIENTO</w>
Mon te</w>
Mar k</w>
Mant en
M ali
KUX LEJA
KA PITULO</w>
Ju li
J or
J aj
Holoca usto</w>
H an
Famili a</w>
Encyclo pædia</w>
E M</w>
Di c
DISCUR SOETIK</w>
DE UTERONOMIO</w>
Cu m
Con greg
Ch eʼ
Car ta</w>
CH Aʼ
C en
C ali
Bi stuk</w>
BIBLI OT
B e</w>
B anti
Atal ía</w>
Ar tajerjes</w>
Alab emos</w>
A ETIK</w>
7 ,000</w>
3 2
200 1</w>
20 2</w>
2 41</w>
1 40</w>
1 3,
ór d
órd enes</w>
óma go</w>
ár selo</w>
É ufra
Éufra tes</w>
yili mba</w>
yil beyel</w>
yichʼ beyel</w>
ya kubel</w>
y e
xpas bot</w>
xchʼ ayik</w>
x noj</w>
x lekub
x kol
wokol ayal</w>
woj ey</w>
w0 1</w>
vivi rá</w>
valor aba</w>
val le</w>
v ille</w>
us en</w>
ue gos</w>
u tsilal</w>
tsʼ akaj</w>
tsu l</w>
tsaj tay
trist es</w>
tr u
tes bat</w>
terremo to</w>
te letik</w>
tar ra</w>
sur gir</w>
sufri eron</w>
su erte</w>
stsʼi jk</w>
stso bik</w>
stal elnanix</w>
st ʼuj
spas botike</w>
solucion ar</w>
snaʼ botik</w>
sn aba
slajin beyik</w>
skʼo tesel</w>
skʼin ul</w>
sjo quin
sjam alel</w>
sj ole</w>
sir vamos</w>
silenci o</w>
si bles</w>
servi do</w>
sbah ik</w>
samari tana</w>
salu do</w>
salu dar</w>
sali da</w>
sacri fi
s yan
ru tina</w>
ro ca</w>
responder emos</w>
repres entan
relacion ada</w>
regular mente</w>
recibi rá</w>
re pasar</w>
re laj
ra dez</w>
quisi eron</w>
qu inc
pun toetik</w>
pu lem
pu l</w>
pre fier
pod íamos</w>
po s
pla ti
perten ece</w>
per seguir</w>
pe gado</w>
partici pan</w>
pare jas</w>
p p</w>
p lu
opo j
op on</w>
oni ae</w>
on xan</w>
on ja</w>
om as</w>
ol vida</w>
oj k</w>
odi ar</w>
o d</w>
nojptes wan</w>
ni jkʼ
ni do</w>
n es
mé rito</w>
mu ros</w>
mu dó</w>
mon tón</w>
men sual</w>
medicam ento</w>
matri z</w>
mal etik</w>
ma kal</w>
ma di
m bil</w>
lum qʼuinal</w>
luj ben
llev emos</w>
ll orando</w>
lej alic</w>
le tos</w>
ladr ón</w>
l y</w>
kʼu knax</w>
ku m</w>
kotses tik</w>
kil in
kichʼ beytik</w>
kaʼbil altik</w>
k toe</w>
k la
jujun chajp</w>
ju gu
joʼ tul</w>
jokin bil</w>
jel aw
jchol kʼop</w>
j oetik</w>
j l</w>
imprescindi ble</w>
im perio</w>
identi ficar</w>
identi fica</w>
háb lele</w>
hu yendo</w>
hu ele</w>
hch aj</w>
hab rían</w>
h i</w>
gran ja</w>
gol pes</w>
gobern ando</w>
fá cilmente</w>
fi bóset</w>
fal taba</w>
extra ñ
evi dente</w>
estr uc
est ómago</w>
es to
er las</w>
entr aron</w>
entendi miento</w>
enseñ arnos</w>
enoj ado</w>
empu j
em ale</w>
elem entos</w>
ele kʼetik</w>
el p</w>
ech ado</w>
docum ento</w>
di ente</w>
desper tar</w>
der á</w>
demostr arle</w>
deci rlo</w>
de udas</w>
dam érica</w>
d ada</w>
cʼu h
cʼah cʼ</w>
cu ad
cos taba</w>
corri gió</w>
cor te</w>
cor re</w>
contr ola</w>
consider ado</w>
consider ación</w>
consi ste</w>
consecu encia</w>
congrega cion
con tienen</w>
compren dí</w>
compar e</w>
cometi eron</w>
clar as</w>
chopo lil</w>
ch aw
car pintero</w>
cabal los</w>
c ú
c anci
bur go</w>
bu hts</w>
beyi kix</w>
bey tike</w>
benefici ado</w>
baj ik</w>
ayu kme</w>
ay ex</w>
awi h
aw ak</w>
as a</w>
ar oe</w>
ar cángel</w>
ap ens
anun cio</w>
ani e</w>
angu age</w>
ami n</w>
am il</w>
am emos</w>
ale tic</w>
akʼan bey</w>
ador amos</w>
ad ónde</w>
ad mir
acu dir</w>
actu ó</w>
aconsej ó</w>
aconsej ar</w>
ac o</w>
ac a
a turas</w>
a pu
Tseʼ el</w>
Tsah taya</w>
Trib unal</w>
To das</w>
Ta ilandia</w>
TO Y
TI EMP
T ras</w>
Su damérica</w>
Sok nix</w>
S ʼI
S é</w>
S om
R U
Qui ero</w>
Pul emale</w>
Pau lo</w>
Pas aik</w>
Pa kistán</w>
PREDI CA
PA LA
P UN
Oxch uc</w>
Ori ental</w>
Nor te</w>
Nor te
Nopo l</w>
Nab ot</w>
N athan</w>
Me fibóset</w>
Mant én
Ma t
Ma di
Le ku
Le ah</w>
L anguage</w>
Kon g</w>
KUʼU NTIK</w>
KICHʼ TIK</w>
Jun uk</w>
JAʼ ATE</w>
Il awilik</w>
I kʼ
Hon g</w>
Hai tí</w>
HER MANOS</w>
Fr anci
Encyclo pedia</w>
Ecu ador</w>
E uti
Con oc
CON T
Bil l</w>
Babil oniae</w>
BEY XAN</w>
BAL UMIL
B ER
Al tísimo</w>
AYU DA
7 00</w>
5 5
29 ,
200 5</w>
10 000</w>
últi mas</w>
í smo</w>
yil onik</w>
yil ojibal</w>
yi ke</w>
yax inal</w>
yal bone</w>
yakʼ ike</w>
yakʼ bey
xu ch</w>
xnoptsaj ik</w>
xkʼo on</w>
xj okin
xi kʼ</w>
xch ebal</w>
x noptsaj</w>
x nam
x makot</w>
x ko</w>
x jalaj
x ik</w>
x hahch</w>
x al
x ach</w>
voluntari as</w>
vol viera</w>
vivi eron</w>
viaj ó</w>
viaj ante</w>
ver ás</w>
ven der</w>
vari edad</w>
vac ío</w>
us cri
uni da</w>
trans por
ton to</w>
tikun ot</w>
tes be</w>
termin e</w>
terapi a</w>
tel as</w>
te ocrá
taqʼu in</w>
ta tic</w>
símbo lo</w>
superfici e</w>
su kur
stsʼi bayel</w>
stoy bail</w>
st ʼun</w>
spastiklan oj</w>
spasi c</w>
soci edad</w>
sme ʼe</w>
sma chi
skʼin alik</w>
sku sel</w>
sku ch</w>
skontra takike</w>
skanan tayat</w>
sirvi entes</w>
sir vieron</w>
sinago gaetik</w>
ser vían</w>
segui remos</w>
sba bi
s nuj
s mos</w>
s mo
ro di
rit mo</w>
ries go</w>
ri cio</w>
reún en</w>
rep enten
repenten ax</w>
recibi remos</w>
qui tar</w>
prohibi do</w>
progres ando</w>
prof undi
pro paganda</w>
privi le
pri oridad</w>
preocupa do</w>
predic ado</w>
preci samente</w>
practi car</w>
pornogra fia</w>
po sa</w>
pi ezas</w>
pi dá
pidá mosle</w>
persegui dos</w>
per s
pekʼ elto</w>
pe ch</w>
pas ik</w>
on ce</w>
obje tos</w>
nujp unike</w>
neutr alidad</w>
nacion alidad</w>
na in</w>
mural las</w>
movi miento</w>
ministeri aletik</w>
mi se</w>
manten ga</w>
ll ó</w>
liʼ i</w>
liber ar</w>
lengu as</w>
leku ke</w>
leku b</w>
le trero</w>
le ta</w>
le kix</w>
laj ibal</w>
kʼ aʼel</w>
kuxin ele</w>
kaʼ tele</w>
kap el</w>
kakʼ tike</w>
ju go</w>
ju días</w>
ju ch</w>
jtu kel
jtsak tik</w>
jteb xanix</w>
joy taybil</w>
jich bal</w>
jchʼi elto</w>
jam ale</w>
j paj</w>
j lok</w>
j kongregasi
j ilbal</w>
j am</w>
j abón</w>
iz quier
instru cción</w>
inclu idos</w>
in tenta</w>
in justo</w>
in fer
in fec
in aetik</w>
ilust raciones</w>
igu ales</w>
i y
i kʼotik</w>
hon rado</w>
hon radez</w>
hebre oetik</w>
habi do</w>
grati s</w>
gradu ados</w>
gr os
gen oma</w>
g énito</w>
fun ciones</w>
fra se</w>
f lu
f lo
eʼ il</w>
ex ili
eter namente</w>
esta dio</w>
esta ción</w>
específi cas</w>
escuch arlo</w>
escuch amos</w>
envi di
ens as</w>
en caj
em el</w>
ejecu tado</w>
económi co</w>
e tes</w>
dure za</w>
docum entos</w>
distribu ir</w>
direc ta</w>
di eci
destru idos</w>
desapareci do</w>
dej ara</w>
def ini
de volvió</w>
de primi
de pendi
dar an</w>
có lera</w>
cí r
cuán tas</w>
cu loe</w>
cu el
cu adro</w>
cri terio</w>
cre ados</w>
cre a</w>
cr ó
cor por
converti rse</w>
conver tido</w>
conf es
conc ep
con siguen</w>
con mem
compa sivos</w>
com ete</w>
coloc ó</w>
colo ca</w>
clo pedia</w>
ci ta</w>
ci ento</w>
chikin etik</w>
cheʼox ebnax</w>
chapal ukotik</w>
chapal otik</w>
chaj pajibal</w>
cerr ada</w>
celebr ación</w>
ce der</w>
car gando</w>
canci on
cali ente</w>
c aʼiy
bur las</w>
bu jts</w>
bra zo</w>
br as</w>
bi cicle
ber ia</w>
bendi ga</w>
bebi das</w>
barran co</w>
ban quete</w>
bah tik</w>
babiloni oetik</w>
aʼiy ot</w>
awuʼ el</w>
awil oj</w>
awi jkʼi
awaʼiy e</w>
ati le</w>
ati j</w>
ata car
arrepi enten</w>
apro xi
anim aron</w>
anim amos</w>
ani me</w>
amulan xan</w>
amam alal</w>
am be</w>
am arlo</w>
alu c</w>
alu b</w>
ali b</w>
al la</w>
akoltay ik</w>
aj otik</w>
ad ministr
actu aliz
acti va</w>
abo gado</w>
abier to</w>
ab ur
a u</w>
a quer
YI P</w>
V í
V ámonos</w>
V D</w>
U no</w>
Tar so</w>
TSO BLE
TI L</w>
Sam oa</w>
ST SEʼE
STSEʼE LIL</w>
S á
S lajibal</w>
S NAʼ
S MA
Re ina</w>
Pr onto</w>
PRES ENTA
OS O</w>
Mau ricio</w>
M eʼil</w>
M al</w>
LIBR O</w>
Jes sica</w>
Jerobo án</w>
Jaʼ naxbal</w>
JOJKʼOY ELE</w>
J koltay
I gual</w>
Hab ía</w>
H ospi
H anan
Gl oria</w>
Gala cia</w>
FU ER
Estudi anteetik</w>
Enseñ anza</w>
Eli ezer</w>
Ebanj eli
ER RA</w>
ENSEÑ A</w>
DON ACIONES</w>
D en
D VD</w>
D AN</w>
Col om
Cheʼ oxeb</w>
Ch risti
Centro américa</w>
Cajwal tique</w>
CO M
C OSAS</w>
C AR
Bay al
B l
Amé rica</w>
Ad ri
AM A</w>
A pú
A la</w>
2, 8
2 12</w>
199 2</w>
úni camente</w>
é c
Ú MER
ÚMER OS</w>
yok ik</w>
yil at</w>
yi pe</w>
yaʼ bat</w>
xpu jk</w>
xnojptes wanik</w>
xlo kʼat</w>
xj u</w>
xh u</w>
xchebe t</w>
xbe hen</w>
xaw acʼ</w>
x hil</w>
x e
w ul
vuel ven</w>
vivi remos</w>
vi ernes</w>
vi enes</w>
vendi ó</w>
val en</w>
utsʼin ele</w>
unu co</w>
un ul</w>
u chu
tʼuj bilnax</w>
tuuntes ele</w>
tu untesa</w>
tsʼun bil</w>
tsobo lic</w>
tra temos</w>
tom ando</w>
to li
tic lam
ti kʼuknax</w>
ti jib</w>
tes beytik</w>
ten bil</w>
te ando</w>
tay ame</w>
ta ul</w>
super a</w>
suced erá</w>
sua ve</w>
su premo</w>
su ero</w>
su be</w>
stu pʼ</w>
stsal otik</w>
stojob tesel</w>
stij botik</w>
sti clam
spa h
snaʼi kix</w>
sna sion
sme ʼ
skʼu lej
skʼayin beyel</w>
skontra take</w>
skom ik</w>
sigui eran</w>
si x</w>
si dia</w>
senci llas</w>
se cciones</w>
schol botik</w>
salu dos</w>
s lek
s co
s ano</w>
ru mpi
res te</w>
recomien da</w>
re í
re confor
r te</w>
r emo
r ada</w>
quinc e</w>
pusi era</w>
puku jetike</w>
provoc ó</w>
proteg erse</w>
prepar ando</w>
pre dicho</w>
pon go</w>
plan e</w>
pla za</w>
perdon ado</w>
pe cho</w>
pat naj</w>
past or
pas beya</w>
parec ían</w>
par ada</w>
pa tr
pa kʼetik</w>
p into</w>
oscu ridad</w>
organiz ada</w>
ora uknax</w>
or é</w>
on dr
ofendi do</w>
océ ano</w>
oc ote</w>
oblig ación</w>
ob vio</w>
o tʼ
o ficina</w>
o culti
nu p</w>
nu be</w>
nor malmente</w>
nojptes ele</w>
no vio</w>
ni eve</w>
necesi to</w>
neces ariamente</w>
nail ale</w>
na te</w>
na etike</w>
n ace</w>
mukʼu b</w>
molé cula</w>
mision era</w>
mir ó</w>
mi gr
mem ente</w>
medicam entos</w>
may or
mar tes</w>
mar cha</w>
mand amiento</w>
man go</w>
majtʼ ani
lo qʼu
levan ta</w>
le che</w>
le amos</w>
la var</w>
la tín</w>
la h
kʼin ike</w>
kerem etike</w>
kax lan</w>
kakʼ xan</w>
ka kan</w>
k antel
ju sta</w>
jte hk
jman tik</w>
jkʼ ases</w>
jkanan tuminchij</w>
jij panel</w>
jbiluk tik</w>
jaʼ naxme</w>
jay ebix</w>
jach el</w>
j olol</w>
ix in</w>
inter nacionales</w>
intelig entes</w>
inju stamente</w>
in di
ili x</w>
il nix</w>
il los</w>
ik to</w>
i ck</w>
hich uc</w>
hi pó
haʼ bil</w>
h anie</w>
h ana</w>
guar dar</w>
gri tos</w>
grani zo</w>
graba ciones</w>
gr o
furi oso</w>
fr ía</w>
fortal ez
facul tades</w>
f ara
exc eso</w>
estudi e</w>
estu ve</w>
estre lla</w>
esco gidos</w>
entr a</w>
ent era</w>
enseñ aban</w>
enfr ente</w>
enci ales</w>
en ce</w>
empi ece</w>
emo ción</w>
ejer ce</w>
edi ficar</w>
ec erá</w>
e lek</w>
e fica
e balik</w>
divers os</w>
divers as</w>
distin guir</w>
dis positivo</w>
dilu vio</w>
di dos</w>
di das</w>
des pi
derram ó</w>
der ri
demuestr en</w>
dec er</w>
de quiera</w>
dad or</w>
cʼ om
cír culo</w>
cui dan</w>
cuesti on
cu xul</w>
cre ce</w>
cor té</w>
cor responde</w>
cor on
continú a</w>
comprom iso</w>
co ti
cigar roe</w>
ci f
chi tam</w>
chi can</w>
ch eh
ch ab</w>
caus ó</w>
car ros</w>
cap tur
can di
calaba za</w>
caj as</w>
c l</w>
bol sa</w>
benefici arse</w>
benefici arnos</w>
bendeci do</w>
awaʼiy oj</w>
aw el
aver gon
asesin ato</w>
ar ka</w>
apasi c</w>
angusti ado</w>
an ope</w>
alaj in</w>
alab anzas</w>
al dea</w>
akʼ ases</w>
aj oʼ
aj ol</w>
aj el
acu saciones</w>
abatina t</w>
ab ru
Z ambia</w>
Z O</w>
Yaka tbal</w>
Y O</w>
X chʼul</w>
WOKO L</w>
Ver sión</w>
V en</w>
Ti empo</w>
Ten go</w>
TU L</w>
T í
T si
T oj
Ser món</w>
S ó
S ue
S cʼop</w>
S MO</w>
Rich ard</w>
Res umen</w>
Prepar emos</w>
Pi sidia</w>
POR TADA</w>
PERSON AS</w>
P am</w>
No ta</w>
N ÚMEROS</w>
Man uel</w>
Madi án</w>
MEDI TAR</w>
M uestre</w>
M aniwan</w>
Lo u
LI DA</w>
LA J</w>
L ESI
K onik</w>
Jpas tik</w>
Jo ven</w>
Jac k
JPAS TIK</w>
JOJKʼOYELE TIK</w>
I BAL</w>
Ge or
G hana</w>
G AR</w>
Feli sa</w>
Euti co</w>
EC A</w>
E len
E L
D O
CU ANDO</w>
C CIÓN</w>
Bil dad</w>
Bas ado</w>
Baj os</w>
BIBLIOT ECA</w>
Anali cemos</w>
Anali ce</w>
An na</w>
AJ W
5 9
4 6
20 8</w>
2 11</w>
199 1</w>
19 76</w>
17 4</w>
ü e</w>
ín as</w>
í s</w>
ánd ome</w>
Éch ale</w>
yi p
yaʼiy bat</w>
yal ele</w>
xmaj awan
xchʼ ay
wanej etic</w>
vícti ma</w>
volver á</w>
visi tantes</w>
vi ga</w>
ver án</w>
ver siones</w>
ver duras</w>
ven g
vas o</w>
v or</w>
v ano</w>
u ben</w>
tsʼu bil</w>
tso l</w>
ts ik</w>
ts ele</w>
trabaj ó</w>
tojol nax</w>
ti z
ti tud</w>
ti onal</w>
ti lel</w>
tes wan</w>
tes at</w>
terrestr e</w>
te buk</w>
tayi c</w>
sw o
sur gió</w>
sujtes oj</w>
stsa kat</w>
sta ike</w>
st ro
spa j
sman dar</w>
slaj unebal</w>
skʼopon otik</w>
skuy oj</w>
sj akʼ
ses enta</w>
scʼahcʼ alel</w>
schʼu j
sbankil take</w>
saduce oetik</w>
sab roso</w>
s contra
scontra hin</w>
rí os</w>
revel an</w>
res ist
repu g
representan te</w>
renunci ar</w>
reg ist
recor rer</w>
reco ger</w>
rechaz aron</w>
re v
re produ
re le</w>
re conocimiento</w>
qued ara</w>
pun ti
pudi mos</w>
provoc ado</w>
prote ínas</w>
produ cti
posesi ones</w>
pobre il</w>
pob lación</w>
pe qʼuel</w>
pastiklan beya</w>
pasti zal</w>
pas é</w>
pas en</w>
pas aría</w>
pa dos</w>
pa da</w>
oí dos</w>
or ado</w>
op ciones</w>
ol on
oj an</w>
ofr endas</w>
oculti smo</w>
ocu pa</w>
oc ol
ober ano</w>
obedec erle</w>
o tix</w>
nuj kul</w>
noti ciaetik</w>
nopol xan</w>
nombr ados</w>
nijkʼ el</w>
ne g
n er</w>
mu tu
mostr arle</w>
mon edas</w>
mo dernos</w>
mi co</w>
mere cida</w>
medi tando</w>
medi tamos</w>
mand ari
majtʼani letik</w>
maj anel</w>
maestr a</w>
ma da</w>
lágri ma</w>
lluvi as</w>
llev en</w>
llev ando</w>
lle vo</w>
le bi
lan tik</w>
lamal kʼinale</w>
la go</w>
l om
kuxaj tike</w>
koltay wan</w>
ki lix</w>
kah pe</w>
k etik</w>
k erman
k e
jw eluk</w>
jtsʼum baltik</w>
jtoy ba</w>
jpisi l
jpat beytik</w>
jpaso jtik</w>
jnichʼ nab</w>
jmukʼu btes
jmeʼ e</w>
jk an</w>
ji h
jchʼuunej tike</w>
jch on
jbah tik</w>
j nich</w>
j chi
j can
jcan an</w>
izquier da</w>
interes ado</w>
insul tos</w>
influ ya</w>
in merecida</w>
im pide</w>
ilu sión</w>
ilu min
ili ke</w>
il bilik</w>
il beyel</w>
ikʼ bot</w>
ijka tsil</w>
ichʼ jaʼe</w>
human i
hu c
ho mi
hi po
hall ado</w>
gi ca</w>
gener ación</w>
funcion ario</w>
fru tas</w>
experi enciaetik</w>
exig e</w>
ex cu
especiali sta</w>
esi a</w>
escri bas</w>
esc oja</w>
es ik</w>
er é</w>
equilibr ada</w>
enter aron</w>
ent revi
enfr enta</w>
encarcel ado</w>
en agua</w>
egipci oetik</w>
ech aron</w>
divor ci
distin to</w>
distin ta</w>
der r
dej aremos</w>
defendi ó</w>
debi eron</w>
de bilidad</w>
cumpli era</w>
cru zar</w>
cor ona</w>
copi as</w>
conveni ente</w>
congrega cion</w>
confli cto</w>
confir man</w>
com probar</w>
com e</w>
ci ego</w>
chaʼcux ajel</w>
ch uk</w>
ch o
centr arnos</w>
caus as</w>
cas co</w>
car rito</w>
cancion ero</w>
cad enas</w>
ca tivo</w>
br us
bili ke</w>
bil on</w>
besti as</w>
be lle
be he</w>
be h
bas an</w>
ban kil
bal uneb</w>
ayud arla</w>
awi hts</w>
au men
ata ke</w>
arro di
aprovech ó</w>
anima j</w>
analiz ará</w>
an z
ampli ar</w>
alim enta</w>
alem án</w>
agu ay</w>
afloj ó</w>
ador ando</w>
acom o
ac emos</w>
abandon ó</w>
a tado</w>
a preci
a chi
Z e
Z AR
YOʼTAN IK</w>
X BA
W inst
U nos</w>
Te ocrá
TIEMP O</w>
T emp
T atile</w>
So corro</w>
Si ón</w>
Sec ción</w>
S plane</w>
S oberano</w>
S hun</w>
S KʼUXUL</w>
S JOJKʼOY
Rub én</w>
Ru te</w>
Par aguay</w>
P á
P ap
Organi zación</w>
Nopo lix</w>
Ne w
NUESTR O</w>
NOJPTES WANEJ</w>
Mar tin</w>
MAʼYU K</w>
MA BA</w>
M UN
M ON
M EL</w>
LA MAL
L y
Jer sey</w>
J CHʼI
J CH</w>
G I
Fran z</w>
For tal
FOT O</w>
Et hel</w>
Ent re
Deber ía</w>
D anos</w>
Cre ta</w>
Constru cción</w>
Colom bia</w>
CU I
C ari
Apren da</w>
An ci
Ami gos</w>
Al go</w>
Ac ep
3, 3
3 6
2 22</w>
199 4</w>
19 8</w>
19 75</w>
19 57</w>
17 2</w>
16 7</w>
10 ,000</w>
ó so
é sti
é pocas</w>
é i</w>
Á r
yu tsilkʼop
yotʼ anik</w>
yi le
yaʼte lic</w>
yan ax</w>
yakʼ beyex</w>
yajw ale</w>
ya ke</w>
y era</w>
xʼ aʼbot</w>
xnoptsaj atxan</w>
xlaj in
xlaj ike</w>
x yalik</w>
x yaku
x kanantayotik</w>
x ej
x cuxaj
x bon</w>
wokol xan</w>
visi taron</w>
ve dad</w>
uni versal</w>
ulan el</w>
u ra</w>
u chʼ
tu pʼ
tu lik</w>
tseʼ elxan</w>
trata mientos</w>
tras lad
traduc toretik</w>
tra en</w>
tonel adas</w>
ton o</w>
tol er
ti ʼ</w>
ti rar</w>
testigo onkotik</w>
territori oetik</w>
t kotik</w>
swin kilel</w>
sut bot</w>
sur gen</w>
sucedi do</w>
su st
stum bre
stukel nax</w>
stikun bey</w>
sta r
sta kʼ</w>
sreliji onik</w>
spa jal
sorpren dente</w>
son risa</w>
so ñ
snichʼ anik</w>
sni jan</w>
sle kilal</w>
sle kil
skʼayoj tayik</w>
skʼan xan</w>
skoltaya te</w>
skoltay ojotik</w>
skaj tijib</w>
signifi car</w>
ser é</w>
senti rme</w>
senten cia</w>
selec cion
se quía</w>
scʼopon el</w>
schʼuun ejike</w>
schap ik</w>
san tu
samaritan os</w>
s pʼij
s ho
revisi tas</w>
resuci tará</w>
repug n
rein ar</w>
reci entes</w>
re ver
ra bia</w>
qʼu ex
qu inas</w>
públi camente</w>
pájar os</w>
pu xub</w>
promo ver</w>
pro bado</w>
privile gios</w>
pri ori
priori dades</w>
prepar ada</w>
preocupa ción</w>
pren da</w>
pregun tarle</w>
pr estar</w>
pr esta
pi o</w>
peti ciones</w>
perten ecer</w>
peri odi
pel o
pe z
pe ores</w>
pe lea</w>
pas emos</w>
pas bot</w>
paj alik</w>
pa ga</w>
or as</w>
or an</w>
or ador</w>
ondr es</w>
oj at</w>
odi an</w>
ocurri r</w>
obser v
nujpun otik</w>
nor oeste</w>
ni h
naʼ biluk</w>
muestr as</w>
mu lel</w>
mo che</w>
mil bil</w>
mesi ánico</w>
men e</w>
me tido</w>
me lel
mayor dom
maestr oetik</w>
ma y</w>
ma taran</w>
ma k</w>
m uni
lá m
lu chan</w>
lo y
liber ación</w>
levi taetik</w>
le o</w>
las f
la to</w>
l ay</w>
kʼay emon</w>
kʼaxem to</w>
kʼajkʼ el</w>
kʼ am
ko lik</w>
ki ta</w>
kalbey kotik</w>
k tike</w>
k ri
k er</w>
k bankile</w>
jun xan</w>
judi oil</w>
ju ltes
jnaʼ oj
jkʼulej etik</w>
jkʼayoj taytik</w>
jch ahp</w>
j lej
j et</w>
j bankile</w>
ix al</w>
ir nos</w>
invi tado</w>
invi sible</w>
inesper ado</w>
indef inido</w>
inclu yó</w>
inclu ido</w>
in ta</w>
in gr
impresion ó</w>
imperfec ciones</w>
im par
igu al
ig lesias</w>
ichʼ otik</w>
i sta</w>
i so
hu c</w>
hi ji
h n</w>
gu es</w>
gig ante</w>
gan arse</w>
gan ando</w>
funcion arios</w>
fr acciones</w>
for nia</w>
fil óso
fi lo</w>
fi co</w>
f os</w>
f es</w>
expres ó</w>
ex presa</w>
estudi a</w>
est ó</w>
est es</w>
escuch aron</w>
esco ge</w>
er ro</w>
equivoc adas</w>
equi vo
epidem ias</w>
eng or
enfer m
encu ad
encar gará</w>
en du
em ic</w>
eli kto</w>
ej inan</w>
egip cio</w>
edi tado</w>
edi fic
ed re
ec in
e unuco</w>
don ación</w>
domin ar</w>
dom ésti
doc e</w>
disi embre</w>
dis te</w>
dic es</w>
di fundi
dese e</w>
descendi ente</w>
depor tes</w>
de dica</w>
d ándoles</w>
d s</w>
cʼ an</w>
cumpli ría</w>
cuenta hin
cres ía</w>
cre an</w>
convirti eron</w>
conven ce</w>
contribu yen</w>
contribu ye</w>
consi go</w>
con tarle</w>
compa raciones</w>
com pe
co lec
ci das</w>
chuk ele</w>
chiknaj uk</w>
chi je</w>
chap alik</w>
ch in
canan e
cafe tal</w>
bus caba</w>
bu t</w>
btes be</w>
bos que</w>
borra chos</w>
bol kʼop</w>
biluk nax</w>
bicicle ta</w>
bibli as</w>
beteli taetik</w>
be lat</w>
be hetic</w>
bas adas</w>
bar ca</w>
bah em</w>
bah e</w>
ba yuc</w>
b lasf
aʼiy bot</w>
aya te</w>
awu chʼ
awili c</w>
awil bey</w>
awa kʼoj</w>
aten tos</w>
ast ro</w>
aprendi mos</w>
apo yó</w>
apasi ke</w>
ant é</w>
anima do</w>
and ra</w>
anci an
an tec
an hel
an h
am ante</w>
alcan za</w>
ala tak</w>
al tas</w>
akʼ ane</w>
ah m</w>
afec tar</w>
achʼ am</w>
acel i</w>
ac á</w>
abu so</w>
abier tamente</w>
abandon ado</w>
ab ol
a tor
a tamente</w>
a kʼo
a fuera</w>
Yovi dón</w>
YI CHʼ
Y ox
Winst on</w>
Val era</w>
Tu t</w>
Te y
TZ E</w>
TOY OL</w>
TA D</w>
Segu ro</w>
SIGUI ENTE</w>
SER VI
SA B</w>
S no
S jun
S ar
RA Z
Person alidad</w>
PRESENTA CIÓN</w>
PE RI
PA SI
O tro</w>
Na dia</w>
NE T</w>
N ah
Me dic
MI RA</w>
MAJ TAN</w>
MA ME</w>
M ayukix</w>
Le ye</w>
Lamenta blemente</w>
LESI AST
LESIAST ÉS</w>
L ondres</w>
Ju sti
Jack son</w>
Jab ín</w>
JAʼ BIL</w>
JA ʼU
J SI
Ichʼ a</w>
INTER NET</w>
I BA
IBA LETIK</w>
Her d</w>
H amán</w>
Geor gia</w>
Gali ón</w>
Es lo
Eli ase</w>
ER A</w>
EC LESIASTÉS</w>
Dios at</w>
Der echos</w>
DESP U
D on</w>
D o
D ec
Cʼ op</w>
Con fi
Cat ólica</w>
Cari be</w>
Car ol
Cali fornia</w>
CU Á
CU ER
CO R</w>
C entro</w>
C LA
Bo x</w>
Bo oz</w>
Bibli as</w>
Ben ín</w>
BEY EL</w>
BE YA</w>
BALUMIL AL</w>
AʼTEJ IBALETIK</w>
Ar aceli</w>
An d
Ale xan
A suero</w>
A la
7 9
4 4
3, 0
28 8</w>
19 89</w>
19 54</w>
19 41</w>
17 6</w>
yochin tayik</w>
yih qui
yaw al</w>
yal ojik</w>
yaku be
yak ex</w>
ya chʼi
xna inik</w>
xiw on</w>
xcʼoh ex</w>
xcu sticlam
xcusticlam bot</w>
xa ul</w>
x nu
x chamel</w>
x M
xM ale</w>
wini que</w>
wan at</w>
w ol</w>
w elta</w>
w ayal</w>
w 89</w>
voc es</w>
viol enta</w>
vigil antes</w>
vi gi
ver la</w>
ven ado</w>
vac ía</w>
v enta</w>
u tsilkʼop
u jul</w>
términ os</w>
té li
téli te</w>
tsʼumb aliletik</w>
tsʼu su
tsi le</w>
tsak bilik</w>
tradu cido</w>
tir ada</w>
tem per
tar je
ta dor</w>
sue gra</w>
stuk elike</w>
stojob tesik</w>
sto yolil</w>
st es</w>
spuk bey</w>
slokʼ ib</w>
slam antes
skʼan ikxan</w>
skon tra</w>
ska xaul</w>
sjo quin</w>
sigui era</w>
señ ores</w>
sesi ón</w>
senti rán</w>
segú rese</w>
scuenta hin
scol tay</w>
scheb ale</w>
sbolob tes
saserdo teetik</w>
sanguí neas</w>
sali do</w>
sal etik</w>
sab erlo</w>
sa télite</w>
sa k
s lok</w>
s car
rode ado</w>
ri f
reuni rnos</w>
resal tados</w>
regu lares</w>
regi ones</w>
refi rió</w>
redu cir</w>
recuer den</w>
recuad ros</w>
rebel des</w>
realiz ó</w>
re ú
re to</w>
ra e</w>
r estri
qʼue t</w>
qui tarse</w>
qued aban</w>
que za</w>
pá rese</w>
prínci pes</w>
program aetik</w>
prof é
produ cción</w>
pri vado</w>
pregún teles</w>
pregun té</w>
prefier en</w>
post eri
pon erlo</w>
poli siaetik</w>
podr ás</w>
plas ma</w>
pier da</w>
parti ó</w>
pajal otik</w>
p esta
opon en</w>
ok o
ofi sin
obl alic</w>
obedeci eron</w>
obedec ían</w>
obede zcan</w>
o x</w>
nu bes</w>
necesi tábamos</w>
nax niwan</w>
nain em</w>
na sione</w>
molde ar</w>
mist erio</w>
mez c
me x
me te</w>
mater na</w>
manej ar</w>
man uscri
man u
man ojos</w>
man ia</w>
mal di
mak ina</w>
m esti
llev ará</w>
llam aron</w>
lla ve</w>
li bera</w>
levan tada</w>
le lal</w>
le cuc</w>
lam enta
ladr ones</w>
l al
kʼo emix</w>
kʼayoji letike</w>
ku la</w>
kontrain ot</w>
kom pleto</w>
kol taya</w>
kaʼiy oj</w>
kaʼiy kotik</w>
kar o</w>
kan an</w>
kamigo taktike</w>
k ej
jweʼ tik</w>
jujun tule</w>
ju b</w>
jtu le</w>
jtu h
jti ʼ
jte bu
jpa six</w>
jpa pae</w>
jpa k</w>
jnopoj ele
jna tike</w>
jkʼ ej</w>
jkanan tuminchijetik</w>
jch in</w>
jaʼ ex</w>
j eh
ir ían</w>
inunda ciones</w>
inti mi
inten tan</w>
insi sti
inquie tudes</w>
inmedi atamente</w>
inam arca</w>
in ae</w>
ilin ba</w>
hon ran</w>
hipo cresía</w>
herman oe</w>
haʼ ex</w>
habl aron</w>
h chaj
h an
gui tarra</w>
guar dia</w>
gobiern a</w>
gi miendo</w>
garanti za</w>
gar ant
garant ía</w>
fron tera</w>
fr ases</w>
fon os</w>
fom entar</w>
fl or
fij arse</w>
esta rían</w>
esforz ándonos</w>
escuch é</w>
escri ba</w>
escon dió</w>
erman aetike</w>
er ón</w>
er al</w>
equi val
en lace</w>
en f
en ale</w>
efica z</w>
efec tu
ech an</w>
e kʼ</w>
e der</w>
e da</w>
e ban
e ando</w>
du raz
dro gaetik</w>
dr emos</w>
doctr ina</w>
disfru tando</w>
diseñ ó</w>
dis creto</w>
diji mos</w>
digi tal</w>
di chas</w>
di ag
desta que</w>
describi ó</w>
demostr ará</w>
dej arse</w>
deci ó</w>
de uda</w>
dañ ar</w>
dar te</w>
dad os</w>
da te</w>
cux aj</w>
cuer das</w>
cuch illo</w>
cu l</w>
condi ción</w>
conclu ir</w>
comuni dades</w>
compa ti
comer ciales</w>
comer cial</w>
com partir</w>
colum nas</w>
col gada</w>
ci eron</w>
chʼ ayik</w>
chap el</w>
ch et</w>
ch ar
cel da</w>
castig ó</w>
capaci dades</w>
can tando</w>
ca í</w>
c aʼbat</w>
c ador</w>
brill ante</w>
belle za</w>
bautiz arme</w>
barco e</w>
ba ile</w>
ba dos</w>
b lu
aʼteji ke</w>
az aroe</w>
awal beyik</w>
awakʼ bon</w>
aw otik</w>
aw aʼiyi
atu quel</w>
ata da</w>
asist encia</w>
asiri os</w>
asig nasion</w>
asi tin
arrog ante</w>
arran car</w>
apren día</w>
anima da</w>
anim alnax</w>
amulan e</w>
am te</w>
alim entar</w>
ali smo</w>
al bote</w>
akʼ uʼ</w>
aj a</w>
ah ni
agradeci da</w>
ador emos</w>
acus aron</w>
acus ado</w>
ac aban</w>
absolu to</w>
abi ile</w>
abati ni
a se
a kongregasion</w>
a hi
Yo ung</w>
X A</w>
W ENTA
VI G
VIG IL
US AMOS</w>
U TI
Tseʼ ejinan</w>
Tim or</w>
Temp loe</w>
Sjun al</w>
Ser ge</w>
Seg undo</w>
Santi dad</w>
Sab er</w>
SJOJKʼOY IK</w>
S ant
S LAJ
Ru anda</w>
Re cuerda</w>
R an
Qui ere</w>
Pul emal</w>
Pro gr
OR T</w>
Naʼ ame</w>
Na cional</w>
N A</w>
Mu kʼ
Maestr os</w>
LAMAL KʼINAL</w>
L oh
L azaroe</w>
L am</w>
Jor dan</w>
Jaʼ to</w>
JU EC
J ax
J NAʼ
Invi te</w>
Ikʼ a</w>
IMPORTAN TES</w>
Hu manos</w>
Ha ga</w>
H om
H arán</w>
F er
Ex pli
Entre tenimiento</w>
Edi ficio</w>
Dic cionario</w>
DESPU ÉS</w>
D inamarca</w>
D ina</w>
Cur so</w>
Cu enta</w>
Cen creas</w>
CI O</w>
C ha
C ajwal</w>
Be tele</w>
Ba anik</w>
ANZ A</w>
ANAʼ BEYXAN</w>
AN A
AL TIK</w>
A ʼi
A PREN
6 5
3, 8
3 4
2 26</w>
2 21</w>
199 5</w>
19 85</w>
19 52</w>
18 0</w>
0 0
ín te
ér qu
ã o</w>
áni ca</w>
É N</w>
yij tsʼinab</w>
yaʼiy ojik</w>
yamik otak</w>
yamik o
yal ulan
yakʼ bon
yak otikix</w>
xya hl</w>
xtulan u
xkʼax e</w>
xkʼ ayik</w>
xcʼ opoj</w>
xchi c
xch oh
xch e
xbe hen
xba tsʼ
x wok
x toj
x kʼuxul</w>
x kol</w>
x kakʼ</w>
x col
x chiknaj
w16 07</w>
w n</w>
w in</w>
w 95</w>
volver ía</w>
viaj aron</w>
vi amente</w>
vendi eron</w>
ven go</w>
vali ó</w>
vac as</w>
v áli
uni génito</w>
ulan tik</w>
uj pun
ue ve</w>
u ma
tsʼibay ele</w>
tsʼi ʼ
tsajtay biluk</w>
tsah bil</w>
ts ak</w>
trá ete</w>
tri un
tra tados</w>
tr en
tr aj
tom en</w>
to h
ti on</w>
tey me</w>
te oría</w>
te jk</w>
taj tik</w>
t alal</w>
símbo los</w>
swayi ch</w>
supervi sa</w>
supervi s
sukur sal</w>
suj tesel</w>
suj otik</w>
su alidad</w>
stuuntes oj</w>
stojil uke</w>
sta kʼinike</w>
sta e</w>
spʼij ile</w>
spas xan</w>
spa te</w>
spa pa</w>
spa k</w>
solici tar</w>
sol tero</w>
so etik</w>
snu kʼ</w>
snojptes onik</w>
snaʼ bat</w>
snaba teʼ</w>
slokʼ tayik</w>
slo qʼu
slekub tesbey</w>
sle tra
sla poj</w>
skontra takik</w>
skom otik</w>
sj in
sj akʼbotik</w>
sinc eros</w>
simil ar</w>
si tay</w>
si as</w>
ser lo</w>
scuenta hil</w>
sbe h
s tan</w>
s pʼijub
spʼijub tes</w>
s cu
s ame
ru ta</w>
reun ían</w>
rela ta</w>
re pe
r los</w>
qʼue x</w>
qui tó</w>
qued arnos</w>
quebr an
pu jk</w>
pu ente</w>
pros titu
program ae</w>
prepar e</w>
preocupar nos</w>
pregun temos</w>
posi blemente</w>
pon ían</w>
pol li
plan te
pla zo</w>
pier de</w>
perfec tamente</w>
per sa</w>
per ros</w>
per ju
peque ñ
pedi rles</w>
pe he</w>
pan es</w>
pam bil</w>
paj tik</w>
pa pa</w>
pa go</w>
origin ales</w>
organiz ó</w>
or an
opi c</w>
op ile</w>
om al</w>
olvi de</w>
ol on</w>
ofisin aetik</w>
oficin aetik</w>
nu cle
no k</w>
ni s</w>
na sion
na h
n ale</w>
mu ést
mu ro</w>
mos lo</w>
mo difi
mi h</w>
mi dos</w>
mari posa</w>
mari do</w>
maravil las</w>
mandari letic</w>
malv ada</w>
mad amente</w>
machʼa uk</w>
machʼ anix</w>
machʼ anax</w>
ma to
ma quin
ma pa</w>
lí qu
lokʼes bil</w>
llam as</w>
lek ik</w>
le tras</w>
le erla</w>
lawu xe</w>
lam ó</w>
laj inele</w>
laj elto</w>
lad inos</w>
l nanix</w>
kʼex lal</w>
kuxul to</w>
kom ite</w>
kal ak</w>
k amigo</w>
jweʼ eltik</w>
jw ol</w>
jw enta</w>
ju ʼix</w>
ju da
jtsʼibay tik</w>
jtso ba
jpas tikix</w>
jojkʼoy ele</w>
jnop junetik</w>
jlumal tike</w>
jkʼan kotik</w>
jkom el</w>
jche baltik</w>
jch enek</w>
jaʼat nix</w>
jaʼ iknix</w>
j kon
interes antes</w>
interes an</w>
inter rumpi
inter medio</w>
infor mes</w>
imi tan</w>
im parcial</w>
il i</w>
il beyaik</w>
ig nor
i taje</w>
i bale</w>
hábi to</w>
hor ri
hipó cri
hi o</w>
hab lo</w>
gro en
gaba onetik</w>
g im
g esto</w>
fru ta</w>
fran queza</w>
fortale ciendo</w>
f lexi
f ik
f ama</w>
extranj eros</w>
expuls ados</w>
exc lu
ex kotik</w>
escal era</w>
es cen
er ce</w>
encarcel ados</w>
en tando</w>
en ojo</w>
empr es
elev adas</w>
el kʼaj
e u
e ció</w>
dé cada</w>
dur ará</w>
disfru taremos</w>
descri ben</w>
des obediencia</w>
derrumb ó</w>
dedic arle</w>
deci dan</w>
dad as</w>
d oso</w>
d ones</w>
cul to</w>
cuel ga</w>
coti di
corri ente</w>
cor tó</w>
conver tir</w>
constru yó</w>
consci entes</w>
confir mó</w>
conf undi
conden ó</w>
comi das</w>
colabor an</w>
co inci
co dici
ci tas</w>
ci ar</w>
chʼ into</w>
chaʼ sujt</w>
chambal ame</w>
chah panel</w>
cha por
ch emos</w>
celu laetik</w>
ce dió</w>
caʼ beyex</w>
catá stro
ca sualidad</w>
ca iga</w>
c rom
c ro
c ant
blan ca</w>
bi letik</w>
bas ados</w>
baj eletik</w>
ayú de
ayud arte</w>
ayin uk</w>
ay tes</w>
awin am</w>
awakʼ beyik</w>
aw okol
avi s
auto estima</w>
aten der
ata s
as ka</w>
as al
arresta ron</w>
aquer ib</w>
aprender án</w>
apari encias</w>
apa t</w>
antec edentes</w>
anaʼ ik</w>
an es
an at</w>
ami ta</w>
ameri cano</w>
amen aza</w>
alterna tiva</w>
alokʼ es</w>
alcoh ólicas</w>
akanan tay</w>
ajwal inel</w>
aj et</w>
aj ach</w>
agrad ables</w>
agar ró</w>
afron tamos</w>
adecu ado</w>
acurru cado</w>
actú an</w>
actu almente</w>
ac am
ab ul
ab akʼ
a xi
a tem
a gi
Yox ebal</w>
Yan xan</w>
YUT SIL</w>
Y akʼel</w>
Y AN</w>
WI Kʼ
WIKʼ ILUK</w>
VIGIL ANTES</w>
VID E
U K
Ti enes</w>
TI BIL
TIBIL TIK</w>
TAR DE</w>
T ab
T SEʼ
TSEʼ EL</w>
Sy dney</w>
Sue cia</w>
Sof ía</w>
Sen aquerib</w>
Sagr adas</w>
SE A</w>
S ri</w>
S as
Rub y</w>
Ri ca</w>
R osa</w>
R ed
Per ú</w>
Pan amá</w>
PA DR
P regún
O hio</w>
O X
Nú mero</w>
N erón</w>
N EC
Melel bal</w>
Mali gno</w>
M ol
Lokʼ esa</w>
Lec ciones</w>
Le tt</w>
Le on
Lan ka</w>
Kʼ ux</w>
KU R
KO TIK</w>
K oʼtan
K ing</w>
K anan
Jkoltay tik</w>
Je an</w>
JSI TIK</w>
J tat</w>
J oʼon</w>
I lu
I RI
H an</w>
H acer</w>
Ge of
GREG ACIÓN</w>
G OS</w>
F re
Es fuércese</w>
EST EMOS</w>
EST AS</w>
ESP IRI
Don aciones</w>
Dom ini
Des cargar</w>
DIS KUR
D C</w>
Cʼ ax</w>
Cu anto</w>
Comi tés</w>
Ci ty</w>
Cho l
Ch rist
Ch ris</w>
Ch ina</w>
Ch an
CON FI
CO MO</w>
CH AM
Be tania</w>
Be t
B os
B at</w>
B an
B abel</w>
B E</w>
Ayu da</w>
An ne</w>
Alex andra</w>
AYU K</w>
AY BAL</w>
A quel</w>
A gu
A UT
7 8
4 55</w>
4 45</w>
3, 5
2 13</w>
19 63</w>
19 62</w>
18 2</w>
14 4,000</w>
1 13
- 4</w>
án tate</w>
Á ng
zar las</w>
yutsʼin at</w>
yoʼ tik</w>
yn dale</w>
yip tajib</w>
yichʼ ojbey</w>
yichʼ ikix</w>
yakʼ ix</w>
yaba ku
ya ka
ya j</w>
y et</w>
y ajk</w>
xwi lik</w>
xw ol
xw ayon</w>
xpu h
xi me</w>
xchʼi xan</w>
xch ik</w>
x pe
x nujpunike</w>
x noh
x naj
x botik</w>
wo tsʼ
w ay</w>
volver án</w>
viol entos</w>
vi entos</w>
verdad eras</w>
venta ja</w>
ven drán</w>
ven de</w>
ven ción</w>
vehí culo</w>
utili ce</w>
un en</w>
uk a</w>
u bel</w>
tʼ el</w>
técni cas</w>
té p
tép hanie</w>
tsʼ oʼ
tso ts</w>
tro pi
transfu sión</w>
to cando</w>
tiʼ nail</w>
tir ados</w>
termin é</w>
tendr é</w>
tem er</w>
tari os</w>
tar é</w>
tar dó</w>
tan tik</w>
tal il</w>
ta yix</w>
ta c</w>
só lida</w>
sépti mo</w>
swenta inotik</w>
suy as</w>
suj tat</w>
suh ton</w>
sufr amos</w>
sub título</w>
su s
stojil uc</w>
star co</w>
st er
st anul</w>
spuk beyik</w>
spaso jike</w>
spas beyex</w>
sol ía</w>
sol teros</w>
snaʼi x</w>
snaʼ be</w>
sna k
sna h
sm oral</w>
slekil alik</w>
sle bey</w>
slajin oj</w>
skʼaxun tayel</w>
skoltay one</w>
si tayel</w>
si li
si enti
sienti fik
senta da</w>
se pul
schʼuh un</w>
sbi h
sba qʼuetal</w>
salv ado</w>
sal a</w>
sa kub</w>
s nail</w>
s h</w>
s discurso</w>
rob o</w>
rif le</w>
ri cas</w>
resuci ten</w>
resuci tarán</w>
resbal ó</w>
res pal
rem edio</w>
rela toetik</w>
reci entemente</w>
reci ente</w>
rec to</w>
realiz ado</w>
re loj</w>
re construir</w>
qui ta</w>
qu é
pʼij ilal</w>
pulem al</w>
puku j</w>
pucu je</w>
pu ñado</w>
pu c</w>
proséli tos</w>
propi edades</w>
preocu pan</w>
pre ten
pr ens
pr emi
po etik</w>
pi di
pidi éndole</w>
permi tía</w>
perju dic
per diendo</w>
pejkʼaj em</w>
pareci dos</w>
par raf
pajal nax</w>
pacífi co</w>
pa f
p ones</w>
p ali
ox ol</w>
ori da</w>
organiz ados</w>
oport uno</w>
oc es</w>
ob el</w>
no bi
nobi embre</w>
nichʼ anil</w>
nega tivas</w>
naran jo</w>
mu s
mor irá</w>
mol ino</w>
mo lecu
mo hel</w>
mis os</w>
mem br
manuscri tos</w>
man tuvieron</w>
mali ya</w>
mal eza</w>
ma tea</w>
ma stur
m bre</w>
logr os</w>
logr amos</w>
lo có</w>
llen as</w>
li jk</w>
lejal ile</w>
le í</w>
le beyel</w>
laj in
kʼop ile</w>
kuxul otik</w>
kuxu lik</w>
kujch em</w>
kub tes</w>
kuar to</w>
kox tale</w>
ko e</w>
kla se</w>
ka fe
kafe he</w>
k oj
jwokol e</w>
jun xanix</w>
judi cial</w>
jtiʼ awal</w>
jpʼ al</w>
jpaj tik</w>
joʼ taktik</w>
jol aletik</w>
jo m</w>
jlekub testik</w>
jkontra taktike</w>
ji c</w>
jchʼuunej kotik</w>
jch on</w>
jaʼbil niwan</w>
jal wanej</w>
j tsʼi
j ka
j chameletike</w>
invi tarlo</w>
inten taron</w>
inju sta</w>
influ yen</w>
inclin ó</w>
in ó</w>
in stitu
in cul
in ando</w>
im pre
il ob
ik niwan</w>
ik nax</w>
ik a</w>
ijki tayot</w>
i za</w>
i taj</w>
hurac án</w>
hubi éramos</w>
homi cida</w>
hal lan</w>
haci éndolo</w>
habl é</w>
ha m</w>
h ú
h t
guar da</w>
gi e</w>
gal lo</w>
g ía</w>
g encia</w>
g em
g alo</w>
fr e</w>
fortale cido</w>
form aron</w>
figu ra</w>
fer vor</w>
fara on</w>
explicar les</w>
existi do</w>
eti x</w>
estudi an</w>
esta d</w>
esper ábamos</w>
eri e</w>
er ían</w>
enti erro</w>
enrol lado</w>
encontr aremos</w>
enci clopedia</w>
ele cción</w>
dá di
dob lada</w>
dis locó</w>
dirigi endo</w>
di s</w>
di pl
di gamos</w>
di ariamente</w>
determin ación</w>
desanima do</w>
desafí o</w>
des pej
deli tos</w>
del ant
def ensa</w>
de tes
de posi
d al
cʼ op
cé monos</w>
cui dó</w>
cu yo</w>
cu lares</w>
copi a</w>
contribu yó</w>
contr ah
conoci eron</w>
con taba</w>
complej as</w>
civ iles</w>
científi co</w>
ci tó</w>
chʼi on</w>
chʼi c</w>
chuku lik</w>
chopo lic</w>
chi kʼel</w>
chay ote</w>
ch ol</w>
cer em
centr ó</w>
centr arse</w>
castig ar</w>
car o</w>
capaci tados</w>
cambi aron</w>
cambi ando</w>
cal ami
cab e</w>
c í</w>
brus camente</w>
bri t
bon ic</w>
bom ba</w>
bo tex</w>
blu sa</w>
bin al</w>
be t</w>
bayal me</w>
ban kil</w>
bakʼ et</w>
bail ar</w>
b é
b ando</w>
aʼiy ele</w>
ay toxan</w>
awu tsilal</w>
ata ik</w>
ata beyxan</w>
asu stó</w>
arrog ancia</w>
arreg lar
arreg l
ar chi
aproxi madamente</w>
apa rato</w>
anim arlos</w>
anichʼ nabe</w>
amar ga</w>
akʼ ayin
aj em</w>
aguan tando</w>
agrade zco</w>
adolesc encia</w>
admi te</w>
adecu ada</w>
aconte cimiento</w>
achʼi x
acep té</w>
ac ari
a kux
a ho
Z o
Y ichʼ
X BAL</w>
V EN
Ten er</w>
T yndale</w>
T al
Sá bado</w>
Si erra</w>
STE RIO</w>
S téphanie</w>
S tan
S erie</w>
S LOKʼ
S I</w>
R Á</w>
Qui eres</w>
QU E
Po dr
Parti tura</w>
Par ís</w>
PU ESTA</w>
PI ZAR
PAJ INA</w>
P ast
O bed</w>
Naʼ a</w>
NU ESTROS</w>
N ada</w>
Mo stremos</w>
MIN I
Ly die</w>
Libr o</w>
Li sias</w>
Le ona</w>
Lau ra</w>
LA YA</w>
L lé
L TIK</w>
JBA TIKE</w>
J ajch</w>
IL KʼINAL</w>
H ades</w>
H U
H O
Go bier
G Á
G r
G en
FELI Z</w>
FECH AS</w>
Ex amin
Escri tura</w>
Es kuela</w>
ESP ER
ES TI
ES CU
ER MAN
ENSEÑ AN
ENSEÑAN SA</w>
E sa</w>
E paf
E TIKE</w>
D ENTE</w>
Cum pli
Cu lti
Cor dero</w>
Co ok</w>
CON GREGACIÓN</w>
CO L
CH E
CAN CIONES</w>
Bin ti</w>
BEN DI
BA UTI
B al
Ari starco</w>
Ari matea</w>
Apo y
Alg una</w>
ATA LAYA</w>
A migo</w>
A Z
4, 9
4 54</w>
3, 9
2 73</w>
2 30</w>
199 7</w>
19 65</w>
19 4</w>
18 8</w>
17 0</w>
1 52</w>
ʼi ke</w>
ús queda</w>
ú m</w>
óli cos</w>
é sta</w>
á tica</w>
á m
Ár tem
Ártem is</w>
zar ra</w>
z ará</w>
z amos</w>
yo yal</w>
yih nam</w>
yichʼ e</w>
yam akʼ
yal ojbey</w>
yal beyex</w>
ya e</w>
xulu b</w>
xuj k</w>
xtulanu bxan</w>
xnojptes wan</w>
xna in</w>
xlaj on</w>
xkʼayoj inik</w>
xjokin ot</w>
xcʼ o
xchajpan wan</w>
xch oj
xba hat</w>
xaw ak</w>
x yil</w>
x yakʼik</w>
x tek</w>
x pi
x kakʼtik</w>
x ho
x hal
x bat</w>
x bah
wokol awalik</w>
woj e
wikʼ iluk</w>
weʼ eli
w16 05</w>
w oje</w>
w el
w 88</w>
voluntari amente</w>
vo tos</w>
vivi endas</w>
visi te</w>
vers ario</w>
vendi endo</w>
venci dos</w>
ven tan
valor an</w>
v asi
uyu l</w>
utsʼin wanik</w>
uni eron</w>
ul naj</w>
tu ri
tu c</w>
tsʼ il</w>
transmi te</w>
trabaj é</w>
trabaj aron</w>
tr es
tr ab
torm entas</w>
tonel ada</w>
toj uk</w>
toj bil</w>
to mut</w>
tik to</w>
ti ra</w>
tex toe</w>
ten cias</w>
tejpa tane</w>
te lo</w>
te atro</w>
ta tu
t la
t k</w>
sue gro</w>
suce da</w>
su ministr
su m
su ht</w>
stsʼum bale</w>
stsʼibay e</w>
stso bi
sti ʼ</w>
sti con</w>
sta bey</w>
spisi lnanix</w>
spas elxan</w>
spas bat</w>
son e</w>
soldad oil</w>
so le
so las</w>
snojptes lan</w>
smali b</w>
smak on</w>
smaj tʼan</w>
sma ts</w>
sm ilel</w>
slu mil</w>
sloʼl ayel</w>
slajin lan</w>
skon gregasi
skom oj</w>
sj olik</w>
situ ada</w>
siti os</w>
simp les</w>
si tiletik</w>
si ma</w>
señ ales</w>
senti ría</w>
semej ante</w>
se pamos</w>
schʼuun ike</w>
schʼuum beyik</w>
schʼuj tʼ</w>
scham ele</w>
sbabi ale</w>
saserdo te</w>
santu ario</w>
san tidad</w>
sal ía</w>
sal í</w>
sal ario</w>
sacri ficar</w>
sac a</w>
sa h
s lokʼomba</w>
s lab
s hach</w>
s comentari
ri o</w>
reú ne</w>
reun imos</w>
resul tó</w>
rem ol
relacion a</w>
regu e</w>
regist ro</w>
reflexi on
refer encias</w>
recompens ará</w>
re d
ra son</w>
ra dic
r uego</w>
r aro</w>
qu eb</w>
pʼi sbi
pú r
pájar o</w>
prue be</w>
prote gen</w>
pros per
pro mueve</w>
presenta ron</w>
predic adores</w>
preci oso</w>
pre fi
pr olon
port á
politic ae</w>
pobre ik</w>
pi zarra</w>
pi damos</w>
pes cado</w>
permi tan</w>
percibi r</w>
pasaj eros</w>
pas bile</w>
partam entos</w>
pap eles</w>
p é
p á</w>
or aron</w>
on ido</w>
on ic</w>
ológi co</w>
oli via</w>
odi aba</w>
ocur ra</w>
obli ga</w>
obedec erlo</w>
ob sesi
o kʼ</w>
o ficio</w>
o el</w>
nojptes eletik</w>
no sti
niw anix</w>
nie tos</w>
na ufra
n ad
mutu amente</w>
mue ven</w>
moti var</w>
mol esta</w>
mo ik</w>
milagr osa</w>
menti roso</w>
me ter</w>
me ter
mayordom o</w>
mari hu
marihu ana</w>
manten gan</w>
mamal etike</w>
maldi ción</w>
madi ani
ma tan</w>
m y</w>
m ales</w>
m aban</w>
lokʼomba kʼopetik</w>
llam amos</w>
liber ado</w>
lepr a</w>
lek me</w>
le que</w>
le h
la zos</w>
kʼop tayel</w>
kʼax un
kʼajkʼ e</w>
kʼ aʼ
koʼtan uk</w>
kongregasi onetike</w>
ko ik</w>
kil beytikix</w>
ki kʼ</w>
kakʼ beykotik</w>
k ele</w>
jx an
ju e
jts ʼun
jta kotik</w>
jta h</w>
jpʼijubtes tik</w>
jpo koʼ</w>
jokin lan</w>
jojkʼoy beytik</w>
jmam ae</w>
jla p</w>
jkʼax ele</w>
jkojkʼ chikinetik</w>
jko ht</w>
jk aj
jichuk nix</w>
jaʼuk ix</w>
j u</w>
j sejp</w>
j naj</w>
j etic</w>
j eron</w>
is laetik</w>
is bol</w>
invi sibles</w>
inf ini
in t</w>
in migr
im pon
im pidió</w>
ilin emik</w>
ij kʼ</w>
identi fi
i yel</w>
hu yó</w>
hu queb</w>
hor mon
hon y</w>
hinch ó</w>
hier bas</w>
hi ri
hi guera</w>
her e
hebre a</w>
hall ará</w>
hac íamos</w>
hab erlo</w>
ha bilidad</w>
guardi án</w>
gri tar</w>
genti na</w>
gan an</w>
fu éramos</w>
fu turas</w>
frecu entes</w>
foto grafías</w>
for ni
fir memente</w>
filoso fía</w>
fij arnos</w>
excel entes</w>
ex teri
eti que</w>
estudi aba</w>
escuch en</w>
er e
ep el</w>
entreg a</w>
enfrenta rnos</w>
encendi do</w>
encar ga</w>
en vuelto</w>
en fu
ele g
el son</w>
ej xan</w>
egoí smo</w>
ecin ueve</w>
don ativos</w>
dom ici
dob la</w>
dob l
divi dir</w>
disfru ten</w>
disfru ta</w>
discu tir</w>
dis puesta</w>
dig na</w>
diag nosti
di rán</w>
di ecinueve</w>
desobedeci eron</w>
descu br
delincu encia</w>
dej aría</w>
dej aban</w>
de teri
de dos</w>
de ber</w>
cui dara</w>
cu ente</w>
cru el
crom oso
cristi an
cr on
converti rá</w>
constru yeron</w>
con t
con creto</w>
con cre
comien zo</w>
colabor adores</w>
col gando</w>
co a</w>
cir se</w>
cigar r
chaʼox tulik</w>
ch ar</w>
ch al</w>
cerr ó</w>
centr a</w>
ceni za</w>
carri toetik</w>
cal mar</w>
cad á
c antó</w>
bé isbol</w>
bili kix</w>
bi sio</w>
bi il</w>
beya xan</w>
be tic</w>
bauti ce</w>
bal te</w>
baj ele</w>
bah il</w>
b úsqueda</w>
b os</w>
b alil</w>
az ar</w>
ayu kxan</w>
ay onix</w>
awijkʼi tay</w>
awan otik</w>
aw enta</w>
aw alatak</w>
aumen tando</w>
atʼ un</w>
atr ae</w>
ati vo</w>
atem ala</w>
ata xan</w>
ata oj</w>
asitin tay</w>
asist en</w>
arrepinti ó</w>
arrepenti dos</w>
ar íamos</w>
aprovech ando</w>
aparec er</w>
apar tar</w>
an es</w>
amonton ada</w>
aman ecer</w>
amali y</w>
am ados</w>
alum ale</w>
alu pe</w>
aloj amiento</w>
alivi ar</w>
al tos</w>
al oʼ
al on</w>
al etike</w>
akʼo tes</w>
ajojkʼoy beyoj</w>
aj tal</w>
aj at</w>
aj al</w>
ahor rar</w>
ahcʼ abal</w>
agradec en</w>
afec ta</w>
ador e</w>
ad alupe</w>
acos tado</w>
acom entario</w>
achʼu btesel</w>
acc eso</w>
abandon aron</w>
ab og
a tin
Zo om</w>
Y H
YH W
YHW H</w>
Vi vi
Vi da</w>
U ʼU
Tu mba</w>
Tu lan</w>
Ti t</w>
TI KXAN</w>
TAY EL</w>
T SA
T EL</w>
Syl via</w>
Su d
Som os</w>
Sno taul</w>
Ser gio</w>
SLOKʼ EL</w>
SCH OL</w>
SAN TI
SA LIDA</w>
S ta
S ir
S enti
S KUXLEJA
S ENTI
RI L</w>
R af
R a
Qu ería</w>
Pres ente</w>
Pi erce</w>
Per spicacia</w>
Pa z</w>
PU ENTE</w>
PREGUN TAN</w>
PA RA
ON U</w>
OB JE
O f
O be
Ni lo</w>
Nab onido</w>
Mer oz</w>
Maʼ yukix</w>
M y
M ay
Lou is</w>
Leon ard</w>
L i</w>
KʼOP E</w>
KOL TA
K AʼIY</w>
K AʼIY
KAʼIY TIK</w>
Ju sto</w>
Ju luk</w>
Ju jun</w>
Joh an
JUEC ES</w>
J kʼaxel</w>
J koltaywanej</w>
I S
Hor st</w>
Hen ry</w>
H un
H emos</w>
Gu atemala</w>
Gu adalupe</w>
Gobier no</w>
Fre der
Franci s
Fl orida</w>
Fi lem</w>
Feli ces</w>
FECH AETIK</w>
F e
F R
Espa ñ
Enseñ emos</w>
En seña</w>
ESPIRI TU
EN DO</w>
E vi
Den nis</w>
Demo stremos</w>
DEM ÁS</w>
D í
D os</w>
D el</w>
Cuán tas</w>
Congreg ación</w>
Com entario</w>
Ch eca</w>
CH O</w>
CA P
Ben e
Barzil ái</w>
B é
B olivia</w>
B ON
At lan
Ar gentina</w>
Ant hony</w>
Ala in</w>
Al farero</w>
Ac án</w>
AB RIL</w>
A pó
A caso</w>
8 000</w>
5, 5
4 50</w>
3 32</w>
29 7</w>
29 5</w>
20 6</w>
2 76</w>
2 38</w>
2 35</w>
16 6</w>
16 1</w>
16 ,
15 9</w>
ándo la</w>
án gu
Ín dice</w>
z adas</w>
yutsʼin bey</w>
yu tsʼinel</w>
yoʼtan ique</w>
yin g</w>
yaʼiy beyel</w>
yaʼ beyex</w>
yan tique</w>
yamakʼ ul</w>
yal tiklambey</w>
ya qʼue</w>
y ochel</w>
y eran</w>
xpas taj</w>
xmukʼu b</w>
xma kotik</w>
xkʼo ex</w>
xkʼayoj inotik</w>
xkanantay ot</w>
xjil on</w>
xchaʼ sujt</w>
xch on
x tik</w>
x pa
x lamaj</w>
x jin</w>
x apas</w>
wits etik</w>
w ale</w>
vol có</w>
vide oj
vi udas</w>
vi entre</w>
ver ano</w>
ven dría</w>
v arón</w>
ur gente</w>
un dos</w>
uh un</w>
tʼ ilnix</w>
tʼ elul</w>
tu un</w>
tu ales</w>
tsal awe</w>
trá eme</w>
trom pe
trast orno</w>
tranqui lidad</w>
tradi cional</w>
tra taban</w>
tra ge
trage dia</w>
tr opo
tr ay
toy el</w>
tik un</w>
tic lan</w>
testig otak</w>
terr enos</w>
termin aron</w>
tayi ke</w>
tay beytik</w>
tati le</w>
tan os</w>
tal ón</w>
tal entos</w>
t alike</w>
swentain ej</w>
sufri mientos</w>
suci edad</w>
suce der</w>
su reste</w>
su cia</w>
sta beyik</w>
st eʼel</w>
spej kʼan
spasi kxan</w>
soldad oetike</w>
sobr ino</w>
snu pʼ
snasion ik</w>
sn ej</w>
smaj tʼ
sm al
slokʼes bey</w>
slam antes</w>
slab anik</w>
skʼop iknix</w>
skʼases bey</w>
skʼ ex
sjoʼ take</w>
sj oh
sist em
sir van</w>
si tos</w>
ser le</w>
scol tay
schaʼ pasik</w>
sch ikʼ
sch amel</w>
sbon il</w>
sbolob tesbey</w>
san ta</w>
sali era</w>
sagr ada</w>
sacu dida</w>
s costumbre
s bo
rol los</w>
ro gó</w>
ro d</w>
responder á</w>
respon día</w>
respe taban</w>
resi du
rein os</w>
rein ará</w>
regal ó</w>
recor damos</w>
rech aza</w>
reali za</w>
re tos</w>
re ja</w>
re don
re construcción</w>
re ales</w>
r las</w>
r c
qʼue tic</w>
qui h
qui chʼ
quer ida</w>
qued ará</w>
quebr ó</w>
que de</w>
pʼijuben ik</w>
puk nax</w>
pu ñ
provoc ar</w>
prote ja</w>
produ cto</w>
pro viene</w>
pri mo</w>
pre para
pre dice</w>
practi can</w>
politic oetik</w>
pier den</w>
perse ver
pens aron</w>
patri arca</w>
pat nah</w>
pas bilik</w>
partici pando</w>
pandem ias</w>
p ciones</w>
ovej a</w>
ori ental</w>
ora etik</w>
or to
or th</w>
or il</w>
op lal</w>
olvi dado</w>
ocurri do</w>
och enta</w>
ob o</w>
nú meros</w>
noptsaj el</w>
nijk eletik</w>
nichʼ ane</w>
nega tiva</w>
najal sitiletik</w>
na y
má quinas</w>
multi pli
moso etik</w>
mo der
mi cro
membr ana</w>
me lo</w>
may e</w>
mar in
mand aron</w>
majtan ile</w>
lé alo</w>
lu tuhl</w>
lo gran</w>
llam adas</w>
ll ying</w>
limi tado</w>
li c
levan tará</w>
leku knax</w>
la ta</w>
l los</w>
l ine</w>
kʼop tay</w>
kʼo tike</w>
kʼayoj tayel</w>
kʼayoj ile</w>
kʼayoj e</w>
kʼaxem niwan</w>
ku ts</w>
ku m
ku el
kox o</w>
kijkʼi tay</w>
k ae</w>
justi fi
jul tesel</w>
juk tul</w>
juda ísmo</w>
jtsʼin uk</w>
jtsoba w</w>
jtsajtay wanejetike</w>
jta kʼin</w>
jta b</w>
jovenci tos</w>
jo ch</w>
jnopojele x</w>
jnaʼ tike</w>
jku x</w>
ji lix</w>
jchol kʼopetike</w>
jajch otik</w>
j ole</w>
j lek
j col
j bankil</w>
j at</w>
j ah
ix ta
is èle</w>
inten sa</w>
ingr esos</w>
influ ye</w>
inf ancia</w>
inclu yen</w>
in yec
in voc
in sensa
in dí
in divi
indivi du
in d
impul sos</w>
imi tamos</w>
ilin em</w>
ilin at</w>
il ana</w>
ih n</w>
i endo</w>
humani taria</w>
hici ste</w>
hi gi
he chi
har ina</w>
h echas</w>
h arían</w>
h arás</w>
gusta do</w>
gui la</w>
guajol ote</w>
gu ían</w>
gri ta</w>
gor ri
gober nación</w>
go tas</w>
gener aciones</w>
gen io</w>
g ámonos</w>
g es</w>
fíj ate</w>
fu iste</w>
fol letos</w>
fl aco</w>
fam oso</w>
f en
expul sar</w>
expectati vas</w>
exp lo
ev alu
estudi ado</w>
estu vimos</w>
estr es
est all
esp inas</w>
es sing</w>
es kuel
entr an</w>
enta ba</w>
ent revista</w>
ent orno</w>
enseñ amos</w>
eni cia</w>
en sia</w>
en lo
em borrach
eli ge</w>
el on</w>
eje cución</w>
ej chʼ
du er
dolor osa</w>
do li
divi siones</w>
divi dido</w>
div inas</w>
discu sión</w>
dirig ían</w>
dibu jos</w>
desanim emos</w>
desanim arnos</w>
des ilu
der se</w>
d ox
cumpli rse</w>
cui de</w>
cu br
cruel dad</w>
cristian dad</w>
cor rección</w>
conver tir
contribu ciones</w>
constru ido</w>
conoc erán</w>
confi esa</w>
confi aron</w>
confi aban</w>
conc edi
con vencer</w>
comuni car
compar arse</w>
climá tico</w>
cla v
cion ik</w>
cion ales</w>
cin tur
chʼu lelal</w>
chʼi uk</w>
chik anik</w>
che wa</w>
che buk</w>
chan etik</w>
chambah lam
ch on</w>
cer teza</w>
cer do</w>
cay eron</w>
cariñ osa</w>
car gos</w>
can to</w>
camin ó</w>
cal bat</w>
cal ambre</w>
c ón</w>
c tores</w>
c adores</w>
bu llying</w>
bre ves</w>
blasf em
bi ó</w>
bersi kuloetik</w>
be jk</w>
bauti za</w>
bar ba</w>
bal to</w>
ba ños</w>
aʼte li
ayud arlas</w>
ayin ix</w>
awu tsil</w>
aw ermano
aw ane</w>
autén tico</w>
autén tica</w>
ati no
ati mal</w>
arro yo</w>
arra ig
ar ina</w>
apli caciones</w>
apara toetik</w>
ap la
ap a</w>
ant setic</w>
anojp tes</w>
anim en</w>
anim arnos</w>
anaʼ oj</w>
an ujpun
amor osa</w>
amik o
amig oetik</w>
ama ts</w>
am aj
alim entó</w>
alcan zarlas</w>
alab arlo</w>
akʼayin bey</w>
ahu ec
agradec erle</w>
agradec er</w>
ag ach
afirma ción</w>
af il
adul to</w>
acus ó</w>
acer can</w>
abri eron</w>
ab et</w>
ab ar
a pres
Ze us</w>
YUʼU N
YAN TIKE</w>
Y EL</w>
X ch
X KʼOT</w>
V ir
V E</w>
UN OS</w>
U É</w>
U s
Tu minchij</w>
Tsaj tayame</w>
To da</w>
TRA BA
TALE LIL</w>
Sime ón</w>
Sim one</w>
Si dón</w>
Sant ísimo</w>
San ta</w>
Sab emos</w>
S ʼ</w>
S testigotak</w>
S ex
Ru mania</w>
Red acción</w>
Ran di</w>
R az
R AS</w>
Pre párese</w>
PU BLI
PRO BLE
PA BLO</w>
Oli vos</w>
Ning ún</w>
Ni co
Naʼ beya</w>
N ojp
N ep
N OP</w>
Mu y</w>
Mar co</w>
Ma x
MUN DO</w>
MU ER
MINI STERIO</w>
M as
Le ví</w>
L Í
Kʼ an
Jes é</w>
Jer oboam</w>
Jaʼ niwan</w>
JOS UÉ</w>
JCHʼI ELETIK</w>
J tatic</w>
J pa
J letik</w>
J kanan
I KE</w>
Hist ory</w>
Hab rá</w>
H o
H able</w>
GUI EN</w>
G isèle</w>
G A</w>
F Í
Enséñ eles</w>
En lace</w>
Eli ú</w>
EST OS</w>
E ri
E LO</w>
E LI
Dor cas</w>
Dom in
Di ez</w>
DI BU
DE BE
DE A</w>
Col osas</w>
CRE ER</w>
COR AZ
CORAZ ÓN</w>
C ed
Bl essing</w>
B ayel</w>
Apren dí</w>
Ad ol
Ac érqu
AW UʼU
ANI MA
AM E
AL GUIEN</w>
A ños</w>
A bed</w>
A S
A GU
8 8
8 3
7 0
6, 7
6 8
5 50</w>
4, 3
3, 2
20 7</w>
20 5</w>
20 1</w>
2, 2
2 37</w>
2 25</w>
199 0</w>
19 87</w>
19 70</w>
19 67</w>
19 60</w>
ʼ il</w>
ó ne
í os</w>
z or
z arse</w>
z aba</w>
yochin tay</w>
yo li
yih kita</w>
yi hts</w>
yej etik</w>
yej chen</w>
yb 16</w>
yaʼte ji
yaʼiy bon</w>
yakʼ beyoj</w>
yah lel</w>
ya x</w>
xʼ aʼ
xʼ ayin
xweʼ ik</w>
xw ayat</w>
xuj ke</w>
xu t</w>
xtu unix</w>
xmil ot</w>
xkʼopo jotike</w>
xkʼopo jike</w>
xkʼax un
xjajch otik</w>
xiw eltic</w>
xcʼ opoj
xchic naj</w>
xa ts</w>
x toy</w>
x oral</w>
x kʼu
weʼeli letik</w>
w amal</w>
ví n
vín culo</w>
vol viendo</w>
vivi eran</w>
visi tamos</w>
vini era</w>
vide oe</w>
ven imos</w>
vec ino</w>
v ul
v ol</w>
us ará</w>
uni versi
uma ir</w>
uj k</w>
u mpi
u lix</w>
u ju
u btes
tʼun el</w>
tul nax</w>
tsʼun u
ts eman
ts ana</w>
triun f
tradu cen</w>
tradi ción</w>
toy xan</w>
tor re</w>
tor ce</w>
toj otik</w>
toj e</w>
tiklan bil</w>
tien dan</w>
ti le</w>
ti l
ti erna</w>
tes ele</w>
ten se</w>
tay tike</w>
tar te</w>
tal ler</w>
ta dores</w>
ta beyel</w>
t re
t p</w>
t nax</w>
t h
t ali
swenta e</w>
sut bon</w>
sumer gido</w>
su el
stʼuj bilal</w>
stsʼun u
stsah tay</w>
sts alik</w>
sta xan</w>
spʼ ol</w>
spensar ik</w>
sor es</w>
son ó</w>
so sti
snujpun elik</w>
snu ts</w>
snopi kxan</w>
snop xan</w>
snaʼ ojix</w>
snaʼ beyelxan</w>
snaj tʼil</w>
smulan beyik</w>
smul anike</w>
smak ik</w>
smak bey</w>
smaj tantes</w>
slokʼes oj</w>
slaj im
skʼu xul
skoltay ex</w>
sjokin ej
sjokin at</w>
sj inel</w>
sir vo</w>
sir va</w>
sim pli
si me</w>
si kil</w>
señ o</w>
senti dos</w>
segui dor</w>
se ver
se ts</w>
se du
scomentari oik</w>
schʼu jt</w>
schol tiklanbey</w>
schikʼ ik</w>
sch el</w>
sbi ilinik</w>
sbi ilike</w>
sba ikix</w>
satisf ac
salg a</w>
sal drán</w>
sac aron</w>
sa hb</w>
s ped
s ello</w>
s cux
s ch</w>
s anos</w>
s ana</w>
ru edas</w>
rode an</w>
rode ados</w>
ri qu
ri da</w>
revista e</w>
resal tó</w>
reflej an</w>
recib í</w>
reci ban</w>
rec titud</w>
re velación</w>
re partir</w>
re admi
razon amientos</w>
raci mo</w>
ra cial</w>
r u</w>
r guí
rguí s</w>
qued amos</w>
que tique</w>
que tas</w>
que ta</w>
qu ini
qu enal</w>
qu ema</w>
qu em</w>
púr pura</w>
pudi éramos</w>
prohí be</w>
profundi dad</w>
prepara tivos</w>
prendi ó</w>
prekurso ra</w>
preci pi
preci osas</w>
preci osa</w>
poli sia</w>
podr é</w>
plá stico</w>
pla gas</w>
pi eza</w>
person aje</w>
perdon ará</w>
perd amos</w>
per siguen</w>
per cep
peli cu
pelicu laetik</w>
pec ó</w>
pec tiva</w>
patan il</w>
partici pamos</w>
pari ente</w>
paj kʼ</w>
p é</w>
p le
oy eron</w>
os tas</w>
orah uc</w>
op her</w>
oli x</w>
ol d</w>
ol al</w>
oh lil</w>
oh li
ofrec erle</w>
odi aban</w>
ochin tayel</w>
oc cidental</w>
oblig aciones</w>
obli gó</w>
o he</w>
o dón</w>
nujpunem at</w>
nojptes a</w>
no hp
no etik</w>
ni co</w>
neutr al</w>
necesi tas</w>
naj tʼ</w>
nain em
nail to</w>
nahin em</w>
nacion etike</w>
n ón</w>
n é
muni ci
mu daron</w>
mu dado</w>
mos ca</w>
mor irán</w>
mon d</w>
molde e</w>
mo ler</w>
mo e</w>
mision al</w>
mil lan</w>
mi stas</w>
mi mos</w>
mez cl
mer k
medi anoche</w>
mam alix</w>
ma gu
m ín</w>
m oso</w>
m osa</w>
m ol</w>
lokʼ tayel</w>
lo cali
llev arlo</w>
liter almente</w>
liber ados</w>
li ta</w>
lesi aetik</w>
lengu ajes</w>
le an</w>
las o</w>
lan e</w>
l on
l ino</w>
l en</w>
kʼo jom</w>
kʼo emotik</w>
kʼan bil</w>
kʼ etike</w>
kulaʼ tay</w>
kuchʼ tik</w>
kon tra</w>
kom puta
ko h
kij tsʼin</w>
ki rguís</w>
ki lo</w>
kaʼiy e</w>
k ajwal</w>
jx i</w>
jugu ete</w>
ju kul</w>
ju bil
jts a</w>
jti j</w>
jtehk lum</w>
jmulan tike</w>
jmaj kʼ</w>
jle beytik</w>
jkongregasi ontik</w>
jich laj</w>
jich ik</w>
jel tik</w>
jchinam tik</w>
ja pon
j ya
j tiempo</w>
j amos</w>
inten to</w>
inten samente</w>
intelig encia</w>
inicu os</w>
inicu o</w>
infor mó</w>
infor má
inclu ía</w>
in volu
in correc
impuls ó</w>
impr entas</w>
impac tante</w>
imagin amos</w>
ik il</w>
ijkʼi tay
ichʼ awan</w>
i jkʼu
i be</w>
há bil</w>
hum or</w>
hu yeron</w>
hu eco</w>
ho sped
here dado</w>
hal la</w>
hablar a</w>
ha z
h une</w>
h am
gus ano</w>
guerr eros</w>
guardi as</w>
gu ste</w>
gu ero</w>
gru pi
gru eso</w>
gri tando</w>
gra vedad</w>
gr ía</w>
gr am
go ta</w>
gar me</w>
fun da</w>
fru str
fl ojo</w>
famili aetike</w>
falle ció</w>
f ér
expli caron</w>
ex hor
ex el</w>
evangeli zador</w>
ev ento</w>
est rech
espiritu etike</w>
esfor cémonos</w>
escuch aban</w>
escribi eran</w>
escla va</w>
es tan
es bey</w>
enter rado</w>
enta ción</w>
ent emos</w>
en cerrado</w>
emo tikix</w>
ej apa</w>
eh uk</w>
eh l</w>
e zo</w>
e ves</w>
e ta
[...]
