#version: 0.2
t e</w>
t i
o s</w>
t a</w>
a n
y a</w>
k ʼ
e l</w>
e r
e s
ti k</w>
e n
a l
c h
a l</w>
l a</w>
q u
d e</w>
t a
b i
p a
ʼ u
i n
o n
c i
e s</w>
a s</w>
qu e</w>
l i
a n</w>
y u
@ -
@- @</w>
s o
e m
l e
i l</w>
e n</w>
a b
a ʼ
i k</w>
yu ʼu
o r
u n
r e
a m
kʼ o
yuʼu n</w>
a r
s t
i c
d o</w>
h o
s i
l o</w>
t r
so k</w>
p o
J e
b a
Je ho
c o
Jeho v
d i
o ʼ
ó n</w>
Jehov á</w>
bi n</w>
ch ʼ
l os</w>
s e</w>
t u
c u
b e
i l
j u
a j
D i
B i
y a
m u
v i
o j
e tik</w>
a r</w>
e l
t o</w>
p r
o l
p er
ic h</w>
r a</w>
t an
d e
m a
j a
ci ón</w>
c on
y i
Di os</w>
m an
s e
j ich</w>
pa s
b li
a y</w>
y al</w>
a d
r i
kʼo p
n o
p u
o n</w>
m a</w>
m o</w>
t ʼ
k e</w>
í a</w>
tʼ il</w>
l as</w>
n i
s u
ta n</w>
t e
m i
ja ʼ</w>
s kʼ
p i
oʼ tan
k ʼ</w>
k u
a c
al al</w>
Bi bli
u n</w>
o l</w>
n a
s w
b r
en ta</w>
an t
l e</w>
pa ra</w>
n o</w>
kʼ alal</w>
e r</w>
t o
Bibli a</w>
g u
a w
em os</w>
oʼ tan</w>
o tik</w>
ma chʼ
s kʼop
co n</w>
ta y
po r</w>
J es
d a</w>
o r</w>
á s</w>
d a
t es
s u</w>
n os</w>
t en
m e
m e</w>
sw enta</w>
Bi n</w>
a s
be y
l u
l al</w>
j aʼ
a ción</w>
em p
ti ke</w>
i m
be y</w>
T e</w>
k ol
skʼ an</w>
a y
n u
aʼ i
e c
ju ʼ</w>
un a</w>
b a</w>
st oj
ú s</w>
Jes ús</w>
ab a</w>
x juʼ</w>
s ch
il el</w>
en te</w>
i k
an do</w>
r a
pr o
ch ʼ</w>
er man
skʼop lal</w>
da d</w>
es tr
b u
1 0</w>
y al
a kʼ
ju n</w>
d el</w>
re g
y oʼtan</w>
bi tʼil</w>
per o</w>
l o
K ʼ
1 5</w>
v er
w in
e j
on es</w>
al i
stoj ol</w>
no p
am os</w>
le k</w>
yi chʼ</w>
kʼ a
t s
er a</w>
am i
ni x</w>
kʼ u
br e</w>
pas el</w>
t em
a tik</w>
h erman
li l</w>
u tʼil</w>
g o</w>
n tik</w>
d es
ya kʼ</w>
d os</w>
qu i
k oʼtan
ba yal</w>
kʼo p</w>
1 1</w>
kol tay
a yu
in i</w>
le tik</w>
s pa
x an</w>
m in
a do</w>
1 2</w>
d r
machʼ atik</w>
Q u
d ic
en t
h ac
s pi
es ta
or a</w>
f u
h i
f i
pu e
nu estr
h ab
ya kʼ
koʼtan tik</w>
o etik</w>
1 3</w>
y an
m ás</w>
ant s</w>
tu l</w>
qu é</w>
a e</w>
su s</w>
l es</w>
g r
k i
b al</w>
n aʼ
1 4</w>
tem e</w>
é n</w>
bi l</w>
t al
p á
l a
ó mo</w>
Qu é</w>
s ti
s ba
s il</w>
win ik
l an</w>
á n</w>
ku x
es t
m aba</w>
pa r
co mo</w>
s o</w>
m en
t al</w>
o k
bi ntik</w>
c a</w>
m il
B I
T E</w>
s a
u k</w>
í as</w>
er o</w>
1 6</w>
spi sil</w>
r es
p or
1 7</w>
y oʼtan
yi chʼ
p re
an i
T I
le j
t er
o se</w>
c ri
es i
J u
cu ando</w>
machʼ a</w>
l aj
aʼi y
ch ʼu
s on
mu ch
ta m
e li
per son
na x</w>
winik etik</w>
o b
ci ones</w>
Di ose</w>
s ta
u k
emp lo</w>
E S
o tr
gu i
el e</w>
M a
s ta</w>
c a
j o</w>
e x
L I
ab lo</w>
aʼi y</w>
co m
g reg
mi n</w>
1 9</w>
é s</w>
kʼo t</w>
ʼ i
s i</w>
kʼa x</w>
d u
1 8</w>
ab i</w>
b o
P ablo</w>
T A</w>
s mu
s ba</w>
d em
é l</w>
en ta
p e
j i
li k</w>
e ch
ci a</w>
r o
h a</w>
s kʼop</w>
s er
spa s</w>
i o</w>
2 0</w>
min s</w>
in al</w>
m o
ta s</w>
er on</w>
an te</w>
mu kʼ</w>
O S</w>
í an</w>
c o</w>
yoʼtan ik</w>
f or
sch ʼu
jaʼ nix</w>
ti l</w>
en s
o j</w>
k a
d ar
ti g
aʼ yu
ab a
e m</w>
w an</w>
d ad
c ción</w>
ant i</w>
ej emplo</w>
t os</w>
t es</w>
tu lan</w>
am e</w>
tr a
L E
k il
g i
w ok
l an
e j</w>
de ci
al e</w>
s pas
st r
in o</w>
al u
el el</w>
b anti</w>
u s
o s
m aʼyu
c ar
l le
i s
ad a</w>
A N
j tul</w>
kʼu l</w>
c h</w>
aj kʼ
C ómo</w>
Ju an</w>
R e
bey tik</w>
cu r
ami li
so bre</w>
po d
ch aʼ
f amili
es ta</w>
ti emp
p on
2 1</w>
s koltay
m elel</w>
se r</w>
di s
ba j
h a
e letik</w>
e b</w>
te o</w>
so b
vi da</w>
m os</w>
se ñ
aʼ te
con greg
i x</w>
pá r
ja ʼu
yuʼu n
j pas
nop el</w>
s j
bi én</w>
ta r</w>
al es</w>
in el</w>
maʼyu k</w>
hac er</w>
bey el</w>
de b
l am
ti k
2 2</w>
ti c</w>
P or</w>
kux lej
or a
TI K</w>
tiemp o</w>
L a</w>
2 4</w>
e tike</w>
v o</w>
d as</w>
z a</w>
s pasel</w>
tes el</w>
al g
j kʼ
st o</w>
pue de</w>
en tr
ba el</w>
h u
k o
es tu
ti en
ta r
ci on
ch uk
i n</w>
tam bién</w>
person as</w>
a ñ
c as
Y A</w>
S al
w an
c ʼ
di o</w>
un i
le k
g o
con tr
kʼa x
al ab
v e
schʼu un
yan tik</w>
de o</w>
st e
í bli
g a</w>
es o</w>
t el</w>
2 0
to do</w>
es te</w>
ta y</w>
an a</w>
b íbli
dic e</w>
ar on</w>
b otik</w>
y an</w>
t u</w>
ku ʼu
k akʼ
2 3</w>
mu y</w>
alu mil
congreg ación</w>
t oj
kʼ inal</w>
j ba
J a
er ra</w>
al il</w>
si on</w>
j w
r o</w>
j un
a u
t or
r as</w>
oj kʼo
c re
p li
B LI
j nop
f r
se ʼ
sba ik</w>
s as</w>
o x
x kʼot</w>
u e
3 0</w>
t sob
yal bey</w>
v a</w>
en do</w>
ojkʼo y
P e
lo kʼ
p ens
di jo</w>
x u
herman os</w>
a h
kʼ ajkʼ
bey ik</w>
o c
c am
no po
st u
re c
pr en
ya k</w>
cu lo</w>
un os</w>
sch ol
jpas tik</w>
T a</w>
ci as</w>
j aj
an os</w>
i a</w>
bu en
nuestr a</w>
aj w
chuk me</w>
s ab
k on
kʼo po
BI BLI
te y</w>
s bi
reg un
f ic
d ar</w>
v en
skʼop on
i bal</w>
0 0</w>
y il</w>
x i
s me
m bre</w>
en ti
spas ik</w>
so n</w>
de r</w>
to dos</w>
g ra
g ar</w>
as í</w>
yichʼ ik</w>
c ómo</w>
d on
s naʼ
pa til</w>
pa j
t í
en señ
ay oj
z o</w>
si ón</w>
m i</w>
pod emos</w>
bu el
st s
D E</w>
aw il</w>
y aʼiy</w>
ab al</w>
en cia</w>
k al
BIBLI A</w>
y aʼ
s em
n a</w>
T i
S a
jaʼ bil</w>
á n
C an
s laj
2 5</w>
or ación</w>
L A</w>
a vi
li br
a pa
est á</w>
ad os</w>
buel ta</w>
J o
le c
u ste
or es</w>
alumil al</w>
ku k</w>
1 9
c as</w>
co sas</w>
famili a</w>
Ma teo</w>
b en
2 8</w>
d en</w>
al el</w>
en to</w>
in a</w>
vi deo</w>
hab ía</w>
p í
kil tik</w>
otr os</w>
dad es</w>
D I
n ec
P ro
kʼajkʼ al</w>
si g
ent es</w>
k otik</w>
Jes u
l ar
C H
ji ch
i ke</w>
bo t</w>
d es</w>
pu és</w>
Sal mo</w>
su j
kʼop on
qu e
a p
pre dic
e lil</w>
s m
cri sti
man chukme</w>
an ci
C u
un do</w>
jba tik</w>
re ci
es to</w>
aw oʼtan</w>
j naʼ
O R
n oj
bi en</w>
jnop tik</w>
J er
ay ik</w>
skʼopon el</w>
L u
R o
fu e</w>
y ilel</w>
ant es</w>
Pe dr
sme le
o po
ch aj
por que</w>
d ía</w>
y aʼiy
2 7</w>
yuʼun e</w>
dem ás</w>
el los</w>
tr os</w>
a yi
Pedr o</w>
m al
D avi
es pi
a t</w>
2 6</w>
chʼu un
bi l
akʼ a</w>
e b
des pués</w>
im por
ver s
ar á</w>
o ch
herman o</w>
espi ri
ayoj il</w>
wok ol</w>
p ʼi
t h</w>
p o</w>
añ os</w>
pr es
es per
pr im
k oʼtan</w>
L e
tes tig
d o
x baj
pr e</w>
R I
j os</w>
s a</w>
p regun
2 9</w>
c es</w>
le j</w>
j ta
E L</w>
A L</w>
mi s
skoltay otik</w>
xu l</w>
a x</w>
v os</w>
Kʼ ayojil</w>
ar tí
l em
mu kʼul</w>
ve z</w>
er n
pár r</w>
V I
em pre</w>
M ar
c os</w>
Can ción</w>
ti n
se gui
jaʼu k
smele lil</w>
de j
tay el</w>
ch am
a pren
so tros</w>
E N
ES T
ni wan</w>
d er
E s
es tig
ch ik
fu er
pa j</w>
noj p
Davi d</w>
Re ino</w>
am or</w>
ech os</w>
f ec
cu enta</w>
s na
s enti
wok o
V e
ú n</w>
v er</w>
ʼ U
ten er</w>
si n</w>
v ol
si empre</w>
c an
é n
sem ana</w>
kuʼu ntik</w>
h an</w>
u l
C or
ec h</w>
o p</w>
man os</w>
no sotros</w>
ayu dar
j ojkʼoy
S an
la j</w>
herman oetik</w>
H ech</w>
uste d</w>
me j
e ʼ
no p</w>
p a</w>
nuestr o</w>
f er
yi p</w>
ya kuk</w>
A S</w>
kakʼ tik</w>
much o</w>
bi al</w>
bi os</w>
j am
so c</w>
re li
E S</w>
n i</w>
impor tan
be ya</w>
schʼuun el</w>
is ra
ver dad</w>
artí culo</w>
B alumilal</w>
nec esi
me to</w>
y ame</w>
oʼtan il</w>
T ES
y o</w>
se gu
o t</w>
skʼ an
BI N</w>
schol el</w>
ech o</w>
un tes
ts ʼ
E l</w>
pro b
g ente</w>
in ti
ci o</w>
men os</w>
ta k</w>
esta ba</w>
b an</w>
espiri tu
j chʼuun
h ay</w>
ʼi ba
yakʼ bey</w>
ayu da</w>
e le
smu kʼul</w>
so lo</w>
tien e</w>
es e</w>
si gui
libr o</w>
ki chʼ
estu di
alab ras</w>
I sa
3 1</w>
win ik</w>
re uni
U N
tsob lej</w>
ka j</w>
b ar
wan ej</w>
re vi
qu er
du r
chʼ i
z ón</w>
ab aj
v e</w>
l lam
si s</w>
ni chʼ
ch opo
m undo</w>
p un
H echos</w>
jaj ch</w>
er an</w>
pí ri
par r</w>
g os</w>
pu bli
Jesu se</w>
ent os</w>
il e</w>
jaʼu k</w>
J ich</w>
ar a</w>
tu ra</w>
0 00</w>
f eli
i r</w>
pa dr
lek il</w>
ki x</w>
lu m</w>
tr abaj
f e</w>
hab l
s ac
alg unos</w>
hi zo</w>
deb emos</w>
píri tu</w>
es cu
ser vi
tik xan</w>
s kol
b le</w>
m br
P ero</w>
k an
E n</w>
skʼ u
c lu
lle v
A po
chʼu l
a m</w>
le cción</w>
mu er
u ʼu
ab an</w>
pue den</w>
j pa
Sa tan
3 3</w>
u ti
m aj
es a</w>
koltay el</w>
ar se</w>
ic a</w>
en es</w>
Jehov ae</w>
le a</w>
much os</w>
ajw alil</w>
po si
Bibli ae</w>
ch ol
Y a</w>
j eletik</w>
ar i
pá g</w>
sba bial</w>
de c
p ec
an za</w>
M A
n e
1 0
nuestr os</w>
con se
cu er
A n
kuxlej al
es píritu</w>
VI D
con fi
un que</w>
cristi anos</w>
t ó</w>
k aʼiy</w>
T A
E R
m ente</w>
k ik</w>
Lu cas</w>
vi vi
kʼopo n</w>
3 2</w>
yal ik</w>
3 5</w>
h echo</w>
b e</w>
C ri
sbi il</w>
Jo b</w>
us al
a si
Jer usal
kʼax el</w>
kʼu x</w>
m ar</w>
kan an
i li
c or
as ta</w>
lu gar</w>
reli gi
aj e</w>
or g
Satan ás</w>
sw enta
esta s</w>
ali dad</w>
Isa ías</w>
T im
mi ento</w>
ch an</w>
i st
t seʼ
kichʼ tik</w>
bu s
te x
s nop
e z
3 4</w>
ver bios</w>
hi jos</w>
s kaj</w>
jam al</w>
in ci
c ora
Pro verbios</w>
p an
aʼiy ej</w>
lu k</w>
el la</w>
E J
i chʼ
est os</w>
Jerusal én</w>
nu j
3 7</w>
k aʼiy
I l
C I
en contr
M o
B in
an o</w>
ó n
yuʼun ik</w>
Tim o
nu e
con oc
t ʼu
ten ía</w>
Ja ʼ</w>
di ó</w>
O N
e uk</w>
N o
j nopo
s í</w>
hac e</w>
t etik</w>
st seʼ
mej or</w>
a qu
J A
chʼu l</w>
al go</w>
slaj ibal</w>
org ani
qui er
p ʼ
mis mo</w>
J os
prob lem
est án</w>
par te</w>
inti os</w>
ami go
ʼ I
s al
i c</w>
b on</w>
r á</w>
m on
es cri
in ter
es ti
cora zón</w>
da do</w>
Timo teo</w>
j oʼ
jaʼuk meto</w>
testig os</w>
cu i
c ada</w>
Cor intios</w>
m al</w>
ju jun</w>
eb re
dem o
a t
J aʼ
jnaʼ tik</w>
e go</w>
jaʼ nax</w>
er os</w>
h asta</w>
bi li
Ti erra</w>
person a</w>
al l
B a
jta tik</w>
stseʼ elil</w>
much as</w>
ñ o</w>
yichʼ oj</w>
ts il</w>
st uk
s an
chopo l</w>
pr ue
o kol
skʼu xul</w>
Il awil</w>
e lo</w>
res pon
x tu
cu m
q ʼu
sna ʼ</w>
kon tra
pr inci
in ik</w>
ad or</w>
yakʼ ik</w>
pue b
ah ora</w>
so k
segui r</w>
ho mbre</w>
lec tura</w>
ben di
me di
kon greg
m as</w>
a ciones</w>
J U
p alabras</w>
a unque</w>
Q U
4 0</w>
s nopel</w>
chʼ il</w>
aw uʼu
con vers
s le
sok nix</w>
ob ern
aba tetik</w>
em e</w>
d ó</w>
I n
j mu
kuxlej al</w>
Y abal</w>
es po
L os</w>
tam os</w>
ec es</w>
demo str
alab ra</w>
f í
pá g
y ora
chʼul chan</w>
ten emos</w>
pu k</w>
LI L</w>
men to</w>
aʼte lil</w>
Ma t</w>
un as</w>
on ces</w>
to das</w>
D ani
o be
I s
bíbli co</w>
Ve a</w>
Cri sto</w>
ad u
e p
qui enes</w>
N o</w>
lo kʼ</w>
des e
Kʼ U
gui en</w>
kʼop etik</w>
j ki
w 0
ap ó
m ar
al guien</w>
importan te</w>
A Y</w>
un o</w>
su per
ya chʼil</w>
otr as</w>
chaʼ ox
esta r</w>
v al
si er
Mo is
kaʼiy tik</w>
oj ik</w>
le c</w>
cur so</w>
in ten
man era</w>
re y</w>
cu l
kʼ in</w>
T estig
or g</w>
ta do</w>
o so</w>
tien en</w>
O S
tan to</w>
an im
am ente</w>
ba t</w>
a j</w>
jw org</w>
ayu k</w>
yu tsil</w>
mbr es</w>
b on
o lik</w>
j toj
cas a</w>
tor io</w>
c í
buen as</w>
L O</w>
P A
lle g
o f
1 4
O P
po dr
apó st
ra f
pueb lo</w>
ic o</w>
woko lil</w>
no mbre</w>
j m
o p
d ías</w>
yi lik</w>
c ali
am u
si on
in g
Is ra
t el
st sa
a gu
so l
po co</w>
for ma
S e
Jos é</w>
jkʼ an
i g
ta d</w>
ayi x</w>
pa ñ
ex pli
cam bi
a gr
é r
ko m
em ik</w>
j puk</w>
Mois és</w>
yakʼ botik</w>
y el</w>
or ar</w>
yan tike</w>
deci r</w>
Dani el</w>
j te
c er
v en</w>
estu dio</w>
l en
j tu
j ik</w>
aw aʼiy</w>
Y U
naʼ el</w>
si ta</w>
j ts
t ʼ</w>
R E
xtu un</w>
tu lo</w>
m ame</w>
Isra el</w>
to da</w>
organi z
d í
A demás</w>
aʼ tel</w>
T eme</w>
str u
S al</w>
kʼopon a</w>
LE L</w>
reci bi
fr u
d an</w>
cur so
yaʼ tel</w>
pro f
i do</w>
ch i
apa s</w>
i dad</w>
ayu dar</w>
gr an</w>
ac ti
am a</w>
si ones</w>
pa ci
cali p
LE JA
fi ci
dur ante</w>
entr e</w>
nuestr as</w>
escu ch
calip sis</w>
ya t</w>
kʼ el</w>
ent onces</w>
t emplo</w>
al e
tsob lej
jaj ch
re la
m or
winik etike</w>
ba uti
ma y
quier e</w>
ar io</w>
a sion</w>
in clu
Apo calipsis</w>
yora il</w>
v eces</w>
le to</w>
d emos</w>
se a</w>
problem as</w>
ka kʼ</w>
c la
H ebre
xbaj t</w>
s nop</w>
enta inel</w>
j il</w>
s nichʼ
ya kʼo
st alel</w>
chaj p</w>
C o
3 8</w>
ni fic
A L
z as</w>
de as</w>
ar nos</w>
LEJA LIL</w>
jich uk</w>
r e</w>
cum pli
x kʼax</w>
ma to</w>
suj ti
e la</w>
ju b
n am
aw i
ami gos</w>
S I
E z
m ero</w>
dis cí
discí pu
TES OR
stuk el</w>
a ya</w>
j e
TESOR OS</w>
x kʼopo
ci r
tex to</w>
KʼU LEJALIL</w>
ya kik</w>
pa z</w>
l í
i wan</w>
j ilel</w>
c ʼu
stu un
kongreg asion</w>
f al
el es</w>
yaʼiy ik</w>
C RI
un ca</w>
B E
sta ik</w>
pas ele</w>
e qui
esi s</w>
a etik</w>
3 6</w>
tseʼ el</w>
princi pi
I N
A N</w>
x chʼ
Ro manos</w>
nojp tesel</w>
r ía</w>
j o
én esis</w>
G énesis</w>
B e
y il
c e
A br
ci u
cham el</w>
sts ʼiba
ist er
b al
y o
Bin tik</w>
padr es</w>
cur s
anci anos</w>
res u
3 9</w>
contr a</w>
emp ez
muer te</w>
x tal</w>
pre curso
f ri
an oetik</w>
CH ʼU
pro pi
re cu
C on
a po
O J
se g
posi ble</w>
ol e</w>
li n</w>
ta kʼin</w>
na j</w>
ani x</w>
skʼop l
ho mbres</w>
ti go</w>
en cias</w>
Kʼ alal</w>
per mi
k il</w>
hac er
don de</w>
a z
sier vos</w>
pregun tas</w>
ali letik</w>
ad as</w>
herman a</w>
sujti b</w>
otr o</w>
bíbli ca</w>
F ili
VID A</w>
n or
ci l</w>
C or</w>
g ri
fi n</w>
pens ar</w>
e x</w>
di a</w>
San ti
x koltay
for ma</w>
I LEL</w>
A l
akʼ bot</w>
ci er
E f
ver dad
raf o</w>
c l
an ax</w>
alg unas</w>
per las</w>
i t</w>
su fri
Hebre os</w>
r u
n unca</w>
sigui ente</w>
ja y
nojp tes
lo kʼo
g ar
mu kʼ
di do</w>
as es
A d
kux aj
discípu los</w>
CHʼU UN
ox eb</w>
W entainel</w>
reuni ones</w>
kʼop il</w>
c ti
í amos</w>
r s</w>
min ister
isra eli
a go</w>
kʼo em</w>
jkʼ an</w>
S i</w>
A kʼ
5 0</w>
ac ep
u estr
ali z
tu d</w>
t si
nuj pun
o ci
d in
co men
chik naj</w>
T u
g a
ac er
aba tin
pár rs</w>
en ten
OS E</w>
pa n</w>
Santi ago</w>
E M
tr i
DI OSE</w>
ma g
vivi r</w>
j kuxlejal
j el
an e</w>
s kanan
YU ʼU
o tike</w>
jpa s</w>
jnopo jeletik</w>
E N</w>
1 ,
pr esi
per d
gu erra</w>
com p
á l</w>
ay in
S TI
sig nific
s cʼ
forma ción</w>
E O</w>
jtoj ol
al mente</w>
A Kʼ
predic ar</w>
or ia</w>
di o
bi er
4 5</w>
pág ina</w>
in vi
pʼi jub
toj ob
o tak</w>
EST R
tik lan
habl ar</w>
AN A</w>
or anax</w>
yaʼiy el</w>
paj al</w>
YUʼU N</w>
P on
A y</w>
otr a</w>
j chol
em ías</w>
bi lal</w>
si r
a v
si tu
s ma
spi si
pr i
men s
all í</w>
hi ci
M i
woko li
ten dr
ta yat</w>
me ʼ
e bal</w>
D e
sw ok
j kʼopon
an op</w>
mi s</w>
smu kʼu
h on
C h
h ich</w>
em bre</w>
tay ik</w>
es pe
ts a
o ch</w>
hi jo</w>
organiz ación</w>
kʼ in
U ni
4 1</w>
xi w
ju dí
esper anza</w>
aw oʼtan
Jaʼ nix</w>
añ o</w>
skol tay</w>
machʼ a
kʼo tik</w>
o cu
J CHʼUUN
gra cias</w>
er do
chik an</w>
jojkʼoy eletik</w>
c al
Cu ando</w>
yan tikxan</w>
x a</w>
publi c
mu j
tʼu j
lek sion</w>
c lar
E sta
CRI STI
des de</w>
chaʼox tul</w>
4 4</w>
man tal</w>
v o
tr o
sch aj
israeli tas</w>
ami go</w>
R u
espe ci
P alabra</w>
ta ri
un di
c el
CRISTI ANA</w>
b er
a kʼopon</w>
a b</w>
pu es</w>
on e</w>
x laj</w>
res pu
n ada</w>
g en
el tik</w>
E n
tal el</w>
c ar</w>
b an
s chʼ
lu ego</w>
ho y</w>
res pe
l ti
S u
A M
mo str
man tal
A tal
skʼopl ale</w>
sab er</w>
ci endo</w>
p en
obern ante</w>
na il</w>
kuʼu n
al ik</w>
sw ol
trabaj o</w>
pas a</w>
lokʼ es
o pon
h er
enseñ a</w>
wan ej
to y
k er
ba yal
N a
em bar
on ia</w>
kal tik</w>
spa so
S amu
A y
j kʼaxel</w>
akʼ an</w>
s ino</w>
pro te
N ue
ʼu m
ay niwan</w>
M a</w>
ku b
E J</w>
S o
l tik</w>
S E
Be tel</w>
ts ʼiba
hu man
c e</w>
M u
anci anoetik</w>
ad ores</w>
ta k
r se</w>
qui en</w>
ú n
g an</w>
tsoblej etik</w>
au di
S Kʼ
swenta il</w>
me ti
sac erdo
kakʼ beytik</w>
T o
Ó N</w>
un ci
sba j
ciu dad</w>
a ta</w>
Atal aya</w>
sig lo</w>
j nop</w>
escri bi
Ma chʼ
kal beytik</w>
hab ían</w>
espiritu ales</w>
aw al</w>
a ta
ku j
machʼa tic</w>
g an
ens es</w>
ba h
bi n
bíbli cos</w>
j a</w>
swol ol</w>
Pon ga</w>
Akʼ a</w>
po der</w>
j ba</w>
x kux
hi st
pu er
nopo l</w>
a x
awuʼu n</w>
ti erra</w>
sa bi
a tr
si tin
per i
di fí
di eron</w>
s kuxlejal</w>
pa í
c ʼ</w>
D e</w>
skol tayat</w>
mens aje</w>
h e</w>
O ʼ
d ente</w>
I s</w>
tu ras</w>
tr es</w>
pʼ aj
n ing
lokʼo m
, 000</w>
tsʼ in
smu lan</w>
s in
mil l
gi p
l ab
en vi
jay eb</w>
esta ban</w>
Ve amos</w>
Testig os</w>
x lokʼ</w>
pa rec
audi torio</w>
pro gr
jchʼuun jeletik</w>
f o
en fer
H eb</w>
tr an
ol es</w>
minister io</w>
tʼuj bil</w>
Samu el</w>
lam al
kʼop e</w>
ab le</w>
y es</w>
k el</w>
x e</w>
tu vo</w>
Qu i
stuun tes</w>
snop ik</w>
fu tu
espiritu al</w>
EJ TIK</w>
1 7
st al
senti do</w>
j chʼi
feli z</w>
es as</w>
em i
1 6
w enta</w>
predic ación</w>
LE K</w>
JCHʼUUN EJTIK</w>
publi ca
a ik</w>
4 2</w>
g amos</w>
Es cri
yoʼtan e</w>
x ch
convers ar</w>
bu k</w>
al qui
si t</w>
san to</w>
in formación</w>
M t</w>
prue ba</w>
prim era</w>
P ad
st o
segu r
c entr
Ad án</w>
stsʼiba y</w>
pár rafo</w>
ju di
futu ro</w>
al a
Mar cos</w>
man ch
lo gr
koʼtan tike</w>
isra eletik</w>
W AN
cas o</w>
á cti
ti kix</w>
ay otik</w>
án g
embar go</w>
com pañ
bu en</w>
espo sa</w>
ci elo</w>
Jesu cri
ad or
yakʼ el</w>
v ali
Le y</w>
1 8
ob ra</w>
no ti
for tal
entr as</w>
ar lo</w>
E l
spa se</w>
s kontra
obe dec
na ción</w>
c ab
bauti z
S l</w>
esta mos</w>
C U
y aʼte
sm ali
o m
i gu
em ix</w>
padr e</w>
inclu so</w>
tay tik</w>
s Kʼ
dis curso</w>
cion etik</w>
vi eron</w>
am b
BI L
v ía</w>
os a</w>
erman o
cu alqui
par ti
con oci
ch eʼ
E s</w>
A W
en ci
eli k</w>
w i
i deas</w>
so mos</w>
se amos</w>
pr ácti
n aj
jkuxlejal tik</w>
al al
tro du
to r</w>
ter min
tar on</w>
paj el</w>
b alumilal</w>
prim ero</w>
ac tu
yal botik</w>
servi r</w>
no ta</w>
em o
bi k</w>
4 3</w>
w eʼ
per fec
jtojol tik</w>
de dic
a ten
WAN EJ</w>
oj el</w>
ej emp
snaʼ ik</w>
P regun
l aʼ
jkʼopon tik</w>
CI ÓN</w>
e y</w>
apóst ol</w>
yichʼ el</w>
hac en</w>
Pad re</w>
untes a</w>
s cuenta</w>
mu lil</w>
ca pí
yi jki
tem a</w>
j koltay
i dio
aba t</w>
revi sita</w>
B TES
di fer
a k
ic as</w>
T AN
pʼi jil</w>
dis fru
t so
qui z
in trodu
con di
co mi
Lu c</w>
B A
smu lan
li ke</w>
á li
reuni ón</w>
hu mil
conoc er</w>
Ba bil
M an
ter ri
lu m
ben e
ar ti
con stru
buen a</w>
undi al</w>
ser á</w>
hi c</w>
fu eron</w>
ele tike</w>
chaʼ be
ar a
J E
Abr ah
ti v
s ku
qu emos</w>
pi si
vol un
manch uk</w>
quer ía</w>
gr u
super inten
stu untes
snichʼ na
pre par
yan iwan</w>
res ul
es os</w>
di e</w>
conse jos</w>
alumil ale</w>
Pro v</w>
4 8</w>
yaʼ bilal</w>
E li
p lan
mukʼ xan</w>
ta ba</w>
m í</w>
e dad</w>
ad ro</w>
E st
ñ os</w>
to mar</w>
o etike</w>
ayu dó</w>
testig oetik</w>
pro fec
jkʼ i
din ero</w>
si gu
qʼu inal</w>
pro v
o ca
mil agr
ik ix</w>
a gra
Tu untesa</w>
Jesucri sto</w>
spa si
revi sta</w>
judi oetik</w>
uste des</w>
rec or
Ja co
ten ían</w>
Kʼ opon
s mo</w>
s ja
deb e</w>
ar ía</w>
ta ción</w>
respu esta</w>
bi lik</w>
Ro m</w>
Mar ía</w>
y in
jaʼuk nax</w>
Uni dos</w>
Esta dos</w>
x laj
sol dad
sKʼ op</w>
os os</w>
chaʼ kuxaj
S O
ú lti
j na
introdu cción</w>
aw a
t en</w>
apren der</w>
feli ces</w>
con su
ar án</w>
VID EO</w>
Babil onia</w>
ar emos</w>
pu esto</w>
ok in
mu estr
a te</w>
EST RI
5 5</w>
á r
vers í
k aʼ
abatin el</w>
tojob tesel</w>
S e</w>
tu un
smukʼu lin</w>
sal v
fu era</w>
cualqui er</w>
car i
ch eb</w>
ayudar á</w>
y oʼ
st és</w>
kʼu x
pun to</w>
jun etik</w>
A r
áli sis</w>
lo etik</w>
estr u
d en
ayi n</w>
st estig
hu manos</w>
jw okol
judí os</w>
ri ó</w>
nue vo</w>
in i
el las</w>
r án</w>
go bier
e di
OR ES</w>
Escri turas</w>
pro m
er po</w>
O V
ESTRI BIL
ESTRIBIL LO</w>
ñ a</w>
tr adu
pas o</w>
m il</w>
to j</w>
ta dos</w>
signific a</w>
lokʼ el</w>
f á
G obernante</w>
uni dad</w>
si do</w>
pre ocu
convers ación</w>
be ya
stestig otak</w>
se cción</w>
schol bey</w>
nec es
j ta</w>
e ta</w>
c en
kom on</w>
al im
ti vos</w>
tak tik</w>
du c
P ʼI
fi r
ale gr
R A</w>
QU É</w>
principi o</w>
lokʼ em</w>
jkʼan tik</w>
esi a
m pi
l len
E gip
er r
n e</w>
gr an
dem uestr
xchʼ ay</w>
religi ón</w>
mo mento</w>
mi entras</w>
er es</w>
Cu erpo</w>
C re
Abrah án</w>
s na</w>
on i
aʼte j</w>
on to</w>
an a
quiz ás</w>
gen er
esi os</w>
ser es</w>
por t
ko m</w>
b as</w>
al beyel</w>
M EJ
A jw
vi de
publica ciones</w>
k amigo
capí tulo</w>
S i
In ter
ESTR OS</w>
ta ti
akʼ el</w>
PʼI JU
y amigo
per don
S A
ʼu n
maj tan
al bil
men cion
kʼu xul</w>
S T
ob je
j al
de a</w>
Ro ma</w>
xbaj tʼ</w>
PʼIJU BTES
Egip to</w>
Ba yal</w>
s alu
pod ía</w>
kʼax em</w>
er as</w>
20 0
y e</w>
x chiknaj</w>
to etik</w>
skʼan ojel</w>
i letik</w>
perd ón</w>
v el
jpas tike</w>
au tor
Jer emías</w>
Jaco b</w>
v an
recu adro</w>
noti cias</w>
deci siones</w>
x kʼo
pe di
ne t</w>
hici eron</w>
h emos</w>
Ef esios</w>
ya kotik</w>
x ju
C r
o h
d estru
c ó</w>
ó ven
óven es</w>
v ari
t é</w>
An álisis</w>
ʼu k</w>
wanej etik</w>
toy ol</w>
pu l
li c</w>
buen o</w>
6 5</w>
p es
kuxlejal ik</w>
chaj pan
S U
lokʼom ba
Y A
PʼIJUBTES WANEJ</w>
L o</w>
vi o</w>
ra do</w>
P R
bo lil</w>
Ti m</w>
MEJ ORES</w>
yoʼ bolil</w>
schʼuun ik</w>
r en
lamal kʼinal</w>
jajch ibal</w>
a go
MA ESTROS</w>
st so
m é
deb en</w>
U se</w>
sac ri
lo til</w>
g e</w>
b re
S jajchibal</w>
ú l</w>
vi si
servi cio</w>
pres enta
e tic</w>
deci sión</w>
d ol
cu los</w>
tes tigo</w>
sj o
j letik</w>
ti co</w>
on ik</w>
k al</w>
aba ti
QU E</w>
m er
cam ino</w>
akʼ beyel</w>
4 6</w>
j óvenes</w>
ic e</w>
bus quemos</w>
awa kʼ</w>
an to</w>
al bot</w>
v í
maj tʼ
estudi ar</w>
d amos</w>
k ar
ad el
J on
É x</w>
u l</w>
slaj in</w>
pas ado</w>
es condi
an ti
Sa úl</w>
J n</w>
g as</w>
fuer zas</w>
á b
re cuer
m el</w>
yakʼ beyik</w>
oj tik</w>
in as</w>
en e</w>
L i
C O
wokoli letik</w>
on etik</w>
M es
2 ,
yuʼu ni
val or</w>
sj ojkʼoy
f ol
r an
apóst oles</w>
na die</w>
man t
I L</w>
De u
ma tr
jaʼ to</w>
le y</w>
ki n</w>
ch a</w>
ʼu k
li ber
l ado</w>
il in
fi eles</w>
ch e</w>
ra z
le n</w>
jun uk</w>
ha ga</w>
escondi das</w>
ana ʼ</w>
ʼ el</w>
w okol
k ermano
e vi
con clu
ya c</w>
x jajch</w>
tu r
s kuxlejalik</w>
o port
m em
ju sti
con ven
ami sta
Apo c</w>
le kuk</w>
g obern
c in
Pe d</w>
s kʼopon</w>
matr im
anci ano</w>
Ja ʼuk
AKʼ BE
us ar</w>
su curs
igu al</w>
i mi
escribi ó</w>
bili dad</w>
al tik</w>
P alabras</w>
N e
to m
tan do</w>
nam ey</w>
enten der</w>
comp leto</w>
ch ap
a w</w>
N A
lle gar</w>
j e</w>
gru po</w>
ex peri
P ara</w>
meʼ il</w>
li x</w>
ji bal</w>
hist oria</w>
Jaʼuk meto</w>
ti vo</w>
I L
sch aʼ
k oj
f un
schʼu un</w>
en fr
buen os</w>
E cl
y ik</w>
tam ente</w>
g l
beya ik</w>
bendi ción</w>
Ay bal</w>
jte buk</w>
V i
Ecl esia
ti ca</w>
sts ʼum
re p
pr ó
Y ilel</w>
Eclesia stés</w>
D O</w>
stoj ole</w>
li le</w>
chaʼbe j</w>
situ ación</w>
pisi ltik</w>
j otik</w>
H i
sj el
p la
mant aliletik</w>
T r
v u
sj aj
espo so</w>
an il</w>
ac ab
us a</w>
Oʼ TAN
tu s</w>
el xan</w>
ani a</w>
JE H
pe kʼel</w>
encontr ado</w>
yan yantik</w>
ma dr
fá cil</w>
es for
as es</w>
Kʼ O
JEH OV
reg al
r le</w>
p ó
le er</w>
kuxlej alil</w>
j kʼop
Machʼ a</w>
un al</w>
pi ens
clar o</w>
P as
yal el</w>
spisi luk</w>
prue bas</w>
le le</w>
j el</w>
ha ciendo</w>
as amb
ac ʼ
z ar</w>
stuuntes ik</w>
l ación</w>
h or
car ta</w>
an el</w>
Sal om
Inter net</w>
fol leto</w>
en emi
an aʼ
ali dades</w>
seg ún</w>
s ent
on io</w>
ma yu
especi al</w>
a ha
JEHOV Á</w>
yoʼtan ike</w>
llam ado</w>
kuʼun tike</w>
jojkʼoy el</w>
ch o</w>
cer ca</w>
s ali
p alabra</w>
laj el</w>
er se</w>
L as</w>
stoj olik</w>
or i
man o</w>
jmu lan
dej ar</w>
c er</w>
pens es</w>
pec ado</w>
co l
cir c
an aliz
alg ún</w>
T es
B alumilale</w>
ts aj
muj er</w>
me dio</w>
kuʼu n</w>
im os</w>
h ará</w>
D A</w>
sab ía</w>
s nopo
di ri
deb er
ar an</w>
Salom ón</w>
snaʼ oj</w>
resu ci
es cla
segu ro</w>
s jun</w>
paj ina</w>
ʼI L</w>
yaʼte lik</w>
vu el
skʼan ik</w>
mi entos</w>
con si
ora ciones</w>
dur ía</w>
aw akʼ
U T
L AS</w>
C ol
P ri
5 1</w>
z ca</w>
v an</w>
sabi duría</w>
pu so</w>
man ten
jaʼ me</w>
es fuer
a toj
P u
skoltay el</w>
s nojptes
jte b</w>
jo ven</w>
fortal ec
chʼ ix</w>
ar le</w>
Fili penses</w>
ón de</w>
sm el</w>
sab emos</w>
ca p</w>
í n</w>
tuun tesel</w>
spasi ke</w>
bin tic</w>
yal e</w>
x bo
sch ol</w>
paí s</w>
p e</w>
l oʼ
cheʼ oxeb</w>
hac emos</w>
h ora</w>
Tes al
C o</w>
quer emos</w>
jchʼuun tik</w>
P o
án d
re cción</w>
pe que
majtan il</w>
difí cil</w>
ab é</w>
ab r
podr ía</w>
p os</w>
lo e</w>
jtu untes
fi el</w>
cu alidades</w>
cir cui
ES P
5 2</w>
áb amos</w>
wan ik</w>
spas ele</w>
may or</w>
llev ar</w>
E R</w>
tati letik</w>
o cur
kuj ch</w>
e za</w>
ad oración</w>
Kʼ ax</w>
v as</w>
po lí
o do</w>
mi sion
cier to</w>
Mes ías</w>
ya k
madr e</w>
jkoltay tik</w>
Nue va</w>
É l</w>
sem an
li ʼ</w>
l ar</w>
ka t</w>
hacer lo</w>
e ter
co stu
bi deo</w>
agu a</w>
G e
uti li
i ch
m undial</w>
kʼ e
kʼ ay
baj tʼ</w>
L A
A sí</w>
yal oj</w>
ul aʼ
skoltay on</w>
pas ó</w>
of rec
in otik</w>
i mag
des a
B ern
tiklan bey</w>
hab er</w>
bene fici
SKʼ OP
tran s
ka p</w>
conse jo</w>
Na il</w>
yi kʼ
schaj pan
och ik</w>
cla se</w>
circui to</w>
c to</w>
z ó</w>
yakʼo j</w>
mo do</w>
cu án
bili dades</w>
Pregun ta</w>
Man chukme</w>
Ez equi
t emos</w>
precurso r</w>
in dic
G u
Bern abé</w>
sbaj tel
li bre</w>
fuer te</w>
cham bal
No é</w>
No pa</w>
D A
smulan ik</w>
com pa
ar les</w>
acti tud</w>
4 7</w>
lek nax</w>
im al</w>
a c</w>
medi ante</w>
tal eli
o e</w>
laj inel</w>
importan tes</w>
hab la</w>
G é</w>
E va</w>
to y</w>
sta s</w>
Co mo</w>
prim er</w>
min chi
matrim onio</w>
K E</w>
f on
ch ibal</w>
J ojkʼoy
E TIK</w>
CH ʼ
skʼ ajkʼ
dar á</w>
A l</w>
si to</w>
sbajtel kʼinal</w>
pʼijub tes
fi cio</w>
T sob
si a</w>
principi os</w>
pe kʼ
os as</w>
mal as</w>
expli ca</w>
conclu sión</w>
a cu
ca paci
SKʼOP L
G UN
s Nail</w>
o g
in f
ichʼ el</w>
d or</w>
acer ca</w>
Hi jo</w>
yakʼ bon</w>
sle kub
na cion
mayu c</w>
c r
tʼ ik</w>
sbi ile</w>
s lu
D es
volun tad</w>
ver emos</w>
s kʼo
lec c</w>
g er
escu ela</w>
en se</w>
n ú
m es</w>
le y
koltay ot</w>
ic os</w>
en car
R A
4 9</w>
versí culo</w>
kʼ an</w>
ci do</w>
yuʼuni ke</w>
ts el</w>
mill ones</w>
i kʼ
confi anza</w>
amista d</w>
ali ke</w>
pro pó
j y</w>
ha ya</w>
yal beyik</w>
t on
s mantal</w>
p ej
oj ix</w>
Ezequi el</w>
su ce
p l
di ente</w>
apren demos</w>
P RE
6 0</w>
u r
swok ol</w>
so r
reli ji
o mi
ning ún</w>
j pisiltik</w>
c an</w>
u ke</w>
terri torio</w>
progr ama</w>
presi ón</w>
le ke</w>
in e</w>
il awil</w>
h il</w>
e do</w>
bar co</w>
O R</w>
N OP
te etik</w>
s familia</w>
C ON
í si
yaʼ bil
tor es</w>
superinten dente</w>
kʼin ale</w>
f inal</w>
demostr ar</w>
apa rec
J un</w>
respon sa
kʼ an
gar es</w>
bon ik</w>
bi luk</w>
p ti
lu k
da vía</w>
S er
tal elil</w>
skʼ ab</w>
rela to</w>
jich nix</w>
i r
ch u
aʼte jik</w>
S au
yin am</w>
taleli letik</w>
e d
congreg aciones</w>
be yi
G U
EN T
pr onto</w>
pon er</w>
p ú
in stru
feli ci
a sig
sucurs al</w>
skʼajkʼ alel</w>
s os</w>
pʼijub tesel</w>
lu mil
jtuuntes tik</w>
empez ó</w>
de f
alg una</w>
L e</w>
K O
Es cu
yu ʼel</w>
i ba</w>
as un
ani chʼ
Re y</w>
tar de</w>
no che</w>
na ciones</w>
gr e</w>
esfor z
cuer do</w>
com pren
awi chʼ</w>
ant s
SU J
Ru t</w>
N U
qui én</w>
p al</w>
lleg ó</w>
ju jun
il tik</w>
bah lumil
ajw aliletik</w>
x kujch</w>
w t
sjaj chibal</w>
s lekil</w>
na il
di os
san gre</w>
salu d</w>
s pʼijil</w>
s le</w>
propó sito</w>
li mpi
ku r
enfer me
atr o</w>
aqu el</w>
al beyaik</w>
wt st
wtst y</w>
win ike</w>
v amos</w>
ra zón</w>
p eli
n wtsty</w>
i or</w>
hab len</w>
San t</w>
O T
DI OS</w>
5 4</w>
tik un
re ch
mi edo</w>
kermano taktik</w>
gu sta
vi aj
ts ʼi
to davía</w>
st an
so ke</w>
li o</w>
curs os</w>
b les</w>
Y a
Se ñ
K U
ser ía</w>
la tas</w>
l f
k xan</w>
confi ar</w>
c ele
t i</w>
sm am
sab e</w>
pes ar</w>
b ri
T U
SUJ TI
su é</w>
pod er
necesi tamos</w>
m á
kontra inel</w>
k aj
c ciones</w>
agu an
a ch
SUJTI B</w>
M U
K ʼ</w>
Jo sué</w>
á latas</w>
a pli
X JU
M al
L u</w>
vol ver</w>
tsi lal</w>
t ú</w>
mar zo</w>
m am
human idad</w>
ch an
c ru
Señ or</w>
tem as</w>
or ía</w>
inter es
bey xan</w>
ba j</w>
U n</w>
P r</w>
x cʼ
v ino</w>
ts es
e z</w>
cari ño</w>
ya cʼ</w>
tr as</w>
majtʼ anil</w>
f ía</w>
estudi ante</w>
d ando</w>
cristi ano</w>
ba jo</w>
autor idad</w>
an al
G én</w>
G ál</w>
tu minchi
sir vi
mis ma</w>
aw al
Ez e
su t
re alidad</w>
pa reci
lu ch
kux inel</w>
erman oetik</w>
di era</w>
bayal xan</w>
G álatas</w>
vi sita</w>
st os</w>
prácti ca</w>
ki chʼ</w>
ker em</w>
j tso
enemi gos</w>
sacerdo te</w>
pú bli
p tik</w>
oport unidad</w>
ju sto</w>
jich me</w>
j tʼu
fi er
d oc
E LE
soldad oetik</w>
muestr a</w>
de bi
bi le</w>
XJU ʼ</w>
y tik</w>
ten ga</w>
ón icas</w>
verdad ero</w>
tu lan
tseʼ el
tal em</w>
ta etik</w>
re ac
nue va</w>
kil al</w>
e fec
deci di
cele br
Ef es</w>
gobier no</w>
enta in
cuer po</w>
bíbli cas</w>
a d</w>
yu til</w>
pro meti
ku n</w>
justi cia</w>
jaʼ e</w>
esta do</w>
ar r
5 3</w>
yakʼo j
yakʼ bat</w>
vi sto</w>
ti ó</w>
snaʼ el</w>
s ica</w>
on ic
m era</w>
in to</w>
aten ción</w>
a cuerdo</w>
M ame</w>
I deas</w>
H ch</w>
s es</w>
s bu
reg res
obedec er</w>
maʼyu kix</w>
experi encia</w>
em br
asi sti
ajkʼ abal</w>
abr il</w>
G ala
j tal
cu enta
ay el</w>
TI KE</w>
C r</w>
sigu e</w>
prov ech
nor mas</w>
neces ario</w>
con ta
ci os</w>
baj t</w>
UT ʼIL</w>
J W</w>
3 ,
í o</w>
onic enses</w>
muj eres</w>
jaʼ ik</w>
ayudar nos</w>
SKʼOPL AL</w>
L OS</w>
t s</w>
os enses</w>
Je r</w>
Col osenses</w>
yi jkʼi
sme ʼ</w>
smali yel</w>
re paso</w>
paj al
man tener</w>
chuk el</w>
al wanej</w>
al can
U na</w>
M O</w>
Cre ador</w>
í so</w>
áng eles</w>
x w
ju k</w>
dese a</w>
ba yel</w>
T am
or o</w>
oj ibal</w>
much a</w>
jchol tik</w>
idio ma</w>
di fic
ci ó</w>
b ol
ants etik</w>
an unci
7 0</w>
un da</w>
sch ebal</w>
ma estr
lem ente</w>
j b</w>
gu ía</w>
gu er
N TIK</w>
Cr ónicas</w>
weʼ elil</w>
tay wanej</w>
sle el</w>
se an</w>
r emos</w>
jmu l
cʼ op</w>
at án</w>
So k</w>
S a</w>
í fic
swok olik</w>
s lam
pregun ta</w>
jwokol tik</w>
estu vo</w>
cu atro</w>
a chʼix</w>
oni os</w>
kal bey</w>
j famili
U DI
Tesal onicenses</w>
stoj ob
sti n
pas ar</w>
mi embr
ases el</w>
ami entos</w>
agra deci
N ichʼ
2 8
áng el</w>
stso b</w>
sion etik</w>
kʼo el</w>
kil beytik</w>
b o</w>
agr ad
5 6</w>
xju l</w>
sti j
sta el</w>
si dad</w>
pa r</w>
dol or</w>
dej ó</w>
d í</w>
d é</w>
con tes
ci e
cel esti
ajw al
a ti
Pri mera</w>
sts ʼ
si ente</w>
recibi r</w>
pró xi
ni ños</w>
lum etik</w>
smu l</w>
segur os</w>
s kom
resu r
regal o</w>
problem a</w>
lu gares</w>
e baj</w>
con ten
P a
OJ KʼO
J OJKʼO
vi sta</w>
ta ban</w>
t on</w>
sti kun</w>
r es</w>
pue do</w>
m ilel</w>
entr o</w>
L o
JOJKʼO Y
vi aje</w>
u tsʼin
snichʼna bik</w>
much ísi
Nue vo</w>
AKʼBE YA</w>
spaso j</w>
il kʼinal</w>
S ba
5 8</w>
vi sión</w>
tu vieron</w>
tiemp os</w>
se pti
septi embre</w>
r á
peli gr
jnaʼ beytik</w>
ejemp los</w>
dar le</w>
cumpli r</w>
I LI
yu laʼ
tari o</w>
lam al</w>
D ES
skanan tay</w>
sigui entes</w>
mor ir</w>
lokʼes el</w>
jts ʼ</w>
escuch ar</w>
d á</w>
d el
d aba</w>
ar es</w>
an si
yakʼ beyel</w>
pro du
parti ci
paci encia</w>
may oría</w>
jna ʼ</w>
hu bi
du da</w>
be l
Sba bial</w>
Qui én</w>
yal beyel</w>
ya to</w>
xkʼopo jotik</w>
tu t</w>
si endo</w>
en tan</w>
2 9
reg i
or ig
kaʼ tel
joʼ on</w>
jm el</w>
di stin
chaʼ tul</w>
bahlumil al</w>
av il
aqu í</w>
to xan</w>
schaj pan</w>
pro me
na tur
mon os</w>
man eras</w>
jm ali
estudi antes</w>
EST UDI
xi w</w>
vel ación</w>
sbu jtsʼ</w>
resur rección</w>
prof eta</w>
on omi
h ebre
f av
di j
congreg a
alegr ía</w>
R e</w>
C E</w>
v ej
stal elik</w>
or k</w>
o co
mar avil
jaʼ niwan</w>
g eli
emo cion
e br
dic en</w>
com par
c ación</w>
Sau lo</w>
Ju dá</w>
H er
Gala ad</w>
ter onomi
teronomi o</w>
ta des</w>
t ele</w>
profec ía</w>
on a</w>
ol vi
kʼ bil</w>
I C
Deu teronomio</w>
Í AS</w>
tsʼ inel</w>
ta da</w>
s inti
respe to</w>
pu estos</w>
pas bil</w>
ju i
il u
il an</w>
celesti al</w>
Y ork</w>
G o
y abal</w>
situ aciones</w>
se xu
ro pa</w>
j okin
ab les</w>
tu bre</w>
si ti
si m
qu ías</w>
le tike</w>
le g
kʼ un</w>
kʼ ayoj
is te</w>
inf lu
aha m</w>
M e</w>
Abr aham</w>
8 3</w>
5 7</w>
ó li
mis mos</w>
man iwan</w>
lek xan</w>
dific ul
b en</w>
asamb lea</w>
anti gu
a se</w>
Tr adu
R ESP
van geli
so r</w>
si st
s famili
prom esa</w>
mal o</w>
kongreg asi
ker em
en ero</w>
ec e</w>
Kʼ A
yu tsilal</w>
ti r</w>
ter i
que dar
loʼ l
lf f</w>
encontr ar</w>
SO K</w>
19 9
tik lan</w>
sti j</w>
oca sión</w>
nú mero</w>
la etik</w>
ent al</w>
b el</w>
Ne h
É x
sj unal</w>
sbaj tʼ
s nuj
pa ra
en cu
bon dad</w>
ay on</w>
ay e</w>
PA S
A R
vo z</w>
ti j
sitin tayel</w>
p ʼ</w>
oʼtan ile</w>
laj em
est é</w>
co ʼ
J pas
yichʼ ojik</w>
ni mo</w>
j kʼu
j ch
es co
des cu
cu x
con ver
abati no
stsʼum bal</w>
ha cia</w>
consi der
cambi ar</w>
bendi sion</w>
awuʼu ne</w>
Y AL</w>
Tradu cción</w>
BI NTIK</w>
re tik</w>
in v
idio mas</w>
demostr ó</w>
an zas</w>
T a
6 1</w>
Éx odo</w>
v es</w>
tsʼiba y
re a</w>
no vi
mi ser
l in
jel on</w>
fr ica</w>
d ónde</w>
ba eltik</w>
a provech
E ste
profec ías</w>
pro ba
kʼax emix</w>
ki jki
gri ego</w>
gi ó</w>
es es</w>
awoʼtan ik</w>
ara ón</w>
ad orar</w>
U E
Neh emías</w>
A yu
v emos</w>
mi r</w>
felici dad</w>
ej ik</w>
de tal
PRE GUN
uni ver
s lokʼ
parec e</w>
miser ic
miseric or
jchʼi eletik</w>
ili n</w>
ci les</w>
Testig oetik</w>
P re
Ajw alil</w>
ʼu n</w>
xi ʼ
tsʼiba yel</w>
so ci
po li
ma yo</w>
le al</w>
jw ol
jun tos</w>
ar ia</w>
Re velación</w>
RESP ON
últi mos</w>
vi ol
ter r
re gu
nop tsaj
ha bi
for me</w>
espiri tu</w>
es toy</w>
chambal am
ar rep
an ik</w>
Tam bién</w>
An ti
1 5
vi r
tar á</w>
st ʼun
par ta
oc tubre</w>
awoʼtan ic</w>
TA N</w>
T esti
GU I
E stu
stuun tesel</w>
sba e</w>
re ino</w>
nor te</w>
ci encia</w>
chʼi chʼ
Isa ac</w>
Cu ál</w>
yi kʼ</w>
y ó</w>
u tsʼinel</w>
to tik</w>
ri a</w>
o br
kʼop iletik</w>
kʼ tal</w>
ju lio</w>
ho spi
ent en</w>
di st
di endo</w>
cor rec
Y uʼu
P I
Kʼopon aik</w>
Í A</w>
s ar</w>
próxi ma</w>
pa re
m en</w>
llam a</w>
ic u
ar los</w>
M Á
x bal</w>
sent ía</w>
le kilal</w>
kʼ un
jmulan tik</w>
hac ía</w>
bey ex</w>
ab u
B A</w>
s enci
re lación</w>
jkʼan beytik</w>
i s</w>
cre ación</w>
sufri miento</w>
slam alil</w>
sch olik</w>
sba ike</w>
res ca
re aliz
pi dió</w>
lokʼ ik</w>
j chʼ
i xe</w>
esper a</w>
Escu ela</w>
C on</w>
yal xan</w>
skʼo tes</w>
rela cion
lle va</w>
esi a</w>
d é
Testi go</w>
Este ban</w>
6 2</w>
1 Co</w>
ten go</w>
s n
milagr o</w>
imi tar</w>
il uk</w>
Le an</w>
ESTUDI O</w>
Cu án
B ro
í n
ta ya</w>
si til</w>
no mbr
fal ta</w>
e c</w>
ax un
atoj ol</w>
Re yes</w>
R o</w>
M AN
J NOP
tsi tsel</w>
tes ti
ta b
snaʼ bey</w>
skʼ inal</w>
el lo</w>
difer entes</w>
demuestr a</w>
ba s
an gu
T en
Sa m</w>
H A
s ju
paí ses</w>
parta mento</w>
le ku
hon r
difí ciles</w>
cʼ alal</w>
ani ma
alal etik</w>
a fir
V er
Co mi
7 2</w>
én es</w>
xbaj tik</w>
trabaj ar</w>
tr o</w>
senti r</w>
qui era</w>
qu ía</w>
oj os</w>
n anix</w>
kʼ aj
di entes</w>
cul pa</w>
c é
a to</w>
El ías</w>
A u
A D
so y</w>
laj un
dificul tades</w>
albil kʼop</w>
acti vi
TA Y
N ú
yoʼtan ic</w>
mon io</w>
m eses</w>
i d
fici os</w>
em a</w>
bendi ciones</w>
aw il
a il</w>
NU ESTR
Ma ʼuk</w>
IN I</w>
EM OS</w>
te ʼ</w>
sna ik</w>
nam al</w>
jmu lan</w>
instru cciones</w>
gusta ría</w>
gran des</w>
cui dado</w>
awakʼ bey</w>
ani wan</w>
P ue
Bin wan</w>
A ʼ
x chaʼ
per se
mo des
h l</w>
d ores</w>
apo yo</w>
Y ame</w>
PA RA</w>
Ju das</w>
vi era</w>
rech az
pen diente</w>
k o</w>
f ari
di ci
di cho</w>
constru cción</w>
a segur
Fili p</w>
8 0</w>
7 3</w>
ti va</w>
qu el</w>
nue vas</w>
ko tike</w>
cu ción</w>
cam bios</w>
am ar</w>
aguan tar</w>
Vi deo</w>
verdad era</w>
te r</w>
te k
skʼan bey</w>
re f
mu rió</w>
eter na</w>
bu r
au to
T AS</w>
O L</w>
M aʼyu
J ich
B AL</w>
ta j
pre ci
och el</w>
m entos</w>
d or
ah cʼ
X AN</w>
H o
H a
ér ci
testi monio</w>
ta el</w>
sw eʼ
sto y</w>
ser án</w>
prom esas</w>
mé dic
llam ada</w>
i da</w>
fari se
famili ares</w>
dese o</w>
cambi o</w>
bi luk
a un</w>
MA CHʼ
Con mem
ti x</w>
ti po</w>
ti nu
ten ido</w>
tal e</w>
stan cias</w>
skoltay ik</w>
senti mientos</w>
organi sa
necesi dades</w>
lu me</w>
gu l
gra fía</w>
Jon atán</w>
xkux inik</w>
sta t</w>
s pu
po ca</w>
perd on</w>
maravil lo
jkʼ ayin
f in
esta b
enseñ ar</w>
ej érci
e o</w>
cie los</w>
ar me</w>
alim ento</w>
I K</w>
Conmem oración</w>
C ol</w>
A s
4 ,
t emp
skʼ axun
sigui ó</w>
prome te</w>
mal a</w>
m ol
len gu
j kanan
erman o</w>
cre encias</w>
senti mos</w>
s pekʼ
spekʼ elil</w>
piens a</w>
kʼajkʼ ale</w>
hab rá</w>
es pa
err ores</w>
1 19</w>
vol u
s nu
kuxlej ale</w>
jba tike</w>
inter és</w>
i sti
ent ó</w>
e te</w>
da ño</w>
compañ eros</w>
com ún</w>
circ un
cas i</w>
al beya</w>
adel anto</w>
1 3
yak on</w>
ve a</w>
seman ae</w>
propi a</w>
ni ch
i dos</w>
do min
co sa</w>
bus car</w>
tri bu
tor i
s Nichʼ
necesi tan</w>
mu kʼu
lle gu
lar es</w>
kʼopon el</w>
jun to</w>
chʼ in</w>
akʼ botik</w>
T O</w>
SE Ñ
xbo otik</w>
vi ene</w>
tar se</w>
r nos</w>
prim eros</w>
preocu pa
on kotik</w>
mill ón</w>
mil es</w>
im perfec
ech a</w>
con tinu
chaʼ naʼel</w>
ca us
F eli
ue go</w>
ta ke</w>
suj t</w>
schʼu l</w>
o like</w>
muer to</w>
i kʼel</w>
i dea</w>
g ó</w>
escla vo</w>
enseñ ó</w>
efec to</w>
con duc
chaj pan</w>
bauti smo</w>
S ig
M undo</w>
Ajw al
6 8</w>
w w
sti ʼ
s f
person alidad</w>
pec ados</w>
or gul
gra do</w>
e dr
dem asi
consu elo</w>
ar é</w>
S chaʼnaʼel</w>
én d
sm aj
presi on
pa kʼ</w>
kaʼtel tik</w>
fuer za</w>
er nos</w>
cum p
cl ases</w>
awi lik</w>
arti culo</w>
ant er
am bi
ajw al</w>
J tul</w>
Al g
ser v
pañ a</w>
m an</w>
jojkʼoy bey</w>
j kuxlejal</w>
isra eletike</w>
e to</w>
cristi ana</w>
ali a</w>
aj es</w>
T E
ya kat</w>
xkoltay otik</w>
x kʼotik</w>
w0 6</w>
vari as</w>
ten gamos</w>
reac cion
organisa sion</w>
oca siones</w>
mi r
jmali ytik</w>
ex pres
evi tar</w>
Ti to</w>
S ab
P er
tí tulo</w>
sku yik</w>
sier vo</w>
schʼ am</w>
raz ones</w>
muer tos</w>
mantal il</w>
kol tay</w>
gi r</w>
enseñ ado</w>
cre ó</w>
contr ol
co me
c lam
a xan</w>
En t
6 6</w>
vi ó</w>
s ón</w>
pʼi j</w>
pres ente</w>
pod ían</w>
op e</w>
mostr ar</w>
gi dos</w>
di os</w>
ayu dan</w>
apa se</w>
M ar</w>
L U
K iltik</w>
u c</w>
le ales</w>
j ku
hab lar
d entro</w>
co lab
aw an</w>
alal to</w>
Jpas wanej</w>
ENT ES</w>
A unque</w>
8 6</w>
6 3</w>
xkʼopo jik</w>
ulaʼ taywanej</w>
sto e</w>
sigu en</w>
quier en</w>
herman as</w>
er lo</w>
er g
an as</w>
albil kʼopetik</w>
ab an
a chol
San són</w>
SI GUI
S in</w>
ʼu l</w>
z os</w>
yal bon</w>
tan tes</w>
skʼopon ik</w>
sba kʼe
re pres
pi sil</w>
ob st
na sion</w>
muchísi mo</w>
lec ciones</w>
expli có</w>
en tu
circun stancias</w>
P or
K OʼTAN
E vangeli
B o
. .</w>
. ..</w>
us ando</w>
p al
och em</w>
ma teri
jfamili atik</w>
in mor
cʼu x</w>
cre en</w>
cin co</w>
anichʼ na
S W
BE Y
w er</w>
suj tik</w>
stoj il</w>
reg ún
re in
polí tica</w>
poder oso</w>
perse cución</w>
ka pi
jujun tul</w>
com pr
anim ales</w>
ago sto</w>
T es</w>
S pisil</w>
8 9</w>
xkoltay ot</w>
ví tico</w>
su r
s kom</w>
des ta
cu esti
awal bey</w>
angu sti
Se g
Le vítico</w>
ES I
y el
ri dad</w>
public adores</w>
na etik</w>
fr on
enseñ anzas</w>
d entes</w>
contr i
com er</w>
Maʼyu k</w>
Jos ías</w>
Davi de</w>
tojob tes
si ete</w>
sacri ficio</w>
para íso</w>
may ores</w>
joʼ otike</w>
ebr ero</w>
def en
arrep enti
ar ías</w>
F ran
ya w
predic ando</w>
po x
ol og
och on</w>
novi embre</w>
liber tad</w>
kamigo in
j kʼopon</w>
f a
entu si
contri bu
ayu de</w>
aw u
ab loe</w>
W at
Di ablo</w>
Ar mag
1 00</w>
xch ebaj</w>
tsʼibay bil</w>
tay otik</w>
s pʼaj
public ación</w>
obr as</w>
o í
l l
jaʼ ate</w>
jam ás</w>
jal aj</w>
importan cia</w>
f ebrero</w>
ari os</w>
To dos</w>
Li br
5 9</w>
ún ico</w>
x noptsaj
w0 7</w>
vide os</w>
skom el</w>
li letik</w>
judí o</w>
j as</w>
humil dad</w>
en can
aban don
PREGUN TAS</w>
P abloe</w>
M I
ten i
tar lo</w>
su fr
senci l
schʼu h
s ni
le yes</w>
lar go</w>
dij eron</w>
chaj p
ayu dado</w>
Y I
C A
0 5</w>
ó me
x be
wokoli le</w>
vari os</w>
tuminchi j
sti k
siti o</w>
propi o</w>
p el</w>
oco l</w>
mal os</w>
kʼ alalto</w>
j nichʼ
cé lu
ant sil</w>
NUESTR A</w>
JNOP TIK</w>
Her o
AN T
7 6</w>
é monos</w>
x ba
suj tes</w>
slaj in
na in
n ab
kʼ asesel</w>
il beya</w>
hubi era</w>
famili as</w>
ex tra
Sal ón</w>
D E
20 13</w>
á nimo</w>
yaʼbil alik</w>
y ox
tex toetik</w>
pul s
puer ta</w>
oh t</w>
lokʼomba etik</w>
fav or</w>
ar ca</w>
ant se</w>
activi dades</w>
S wenta</w>
L uego</w>
Eze quías</w>
2 Cr</w>
t h
sj okin
recuer da</w>
re fer
pregun tó</w>
kil óme
gi do</w>
conse j
conduc ta</w>
ba yu
b tes
ami ento</w>
EN SEÑ
A m
ó m
vide oetik</w>
ts ʼu
ti sf
tari os</w>
na inel</w>
kʼun kʼun</w>
ik ixe</w>
fon o</w>
enfr enta
ed ón</w>
ch ane</w>
añ a
aw amigo
M r</w>
Jojkʼoy el</w>
JOJKʼOY ELE
á culo</w>
tri b
tr a</w>
sjojkʼoy bey</w>
s lokʼes
par rafo</w>
ju k
jnopo j
g er</w>
est re
conse cu
conoci miento</w>
com un
cab eza</w>
Ju dea</w>
H ay</w>
ú sica</w>
stsa k</w>
stoj iluk</w>
snaʼ beyik</w>
sist ema</w>
sa tisf
pi ense</w>
oj e</w>
k a</w>
hon or</w>
ejérci to</w>
debi do</w>
chambalam etik</w>
c ado</w>
am an</w>
abatino tik</w>
a kuxlejal</w>
Yuʼu n</w>
ñ ana</w>
z ar
xbaj tʼik</w>
x me</w>
tam poco</w>
pu si
pu do</w>
necesi ta</w>
le as</w>
kux in
joʼ otik</w>
human o</w>
h aʼ
apa reci
Armag edón</w>
tes e</w>
tar je
person al</w>
mej ores</w>
fi li
entusi as
dr o
des car
asisti r</w>
abatin ik</w>
Tsob lej</w>
MÁ S</w>
5 ,
sufri r</w>
stik un
sjo kin</w>
po bre
me ʼ</w>
compa sión</w>
co meti
ar y</w>
aqu ellos</w>
N os</w>
KOʼTAN TIK</w>
H E
Comi té</w>
Can a
ʼu laʼ
yu tsʼin
yal tiklanbey</w>
xkux inotik</w>
x hu
win i
vi mos</w>
sm il</w>
libr oetik</w>
le kub
ku lo</w>
h á
esper ar</w>
envi ó</w>
di bu
acʼ a</w>
acep tar</w>
a bi
S AL
KU X
Ajwal inel</w>
AM OS</w>
ó g
x mantal
s te</w>
s el
obe deci
o vej
misericor dia</w>
le tic</w>
l el</w>
ko el</w>
jwokol tike</w>
jaʼ al</w>
fi j
disfru tar</w>
des cen
chʼ ay</w>
adel ante</w>
achol bey</w>
aba totik</w>
K IL
Est er</w>
A hora</w>
7 9</w>
10 3</w>
yan anix</w>
pue des</w>
na cionetik</w>
man da
lu z</w>
jtal eltik</w>
ji lik</w>
a fec
P OR</w>
Ez e</w>
Cana án</w>
0 7</w>
ér amos</w>
vers icu
precurso res</w>
por no
o bli
habl ó</w>
g enes</w>
g ado</w>
er to</w>
empez ar</w>
dem onios</w>
al bil</w>
ad á</w>
T i</w>
ON ES</w>
Jon ás</w>
20 14</w>
wi ts</w>
verdad eros</w>
ve an</w>
te le
spisi lik</w>
sj oʼ
resul tado</w>
re fu
prob able</w>
p regún
ja t</w>
en a</w>
don aciones</w>
desa str
cu anto</w>
con centr
Ge de
Di s
D t</w>
9 7</w>
20 22</w>
scʼ ob
schʼuun ejik</w>
j kom</w>
hor as</w>
e ʼ</w>
cas tigo</w>
bautiz arse</w>
ac ciones</w>
SIGUI ENTES</w>
Re visita</w>
O N</w>
C i
9 0</w>
ts ʼum
sor pren
scʼ an</w>
pon i
pens amientos</w>
pas os</w>
n al</w>
mo mentos</w>
me tas</w>
ju z
j ar
in fier
di rec
cuenta h
cier ta</w>
b h</w>
ar ón</w>
ac e
Z ac
Hero des</w>
EN TA</w>
7 1</w>
6 4</w>
snichʼna b</w>
slaj el</w>
re de
o di
ning una</w>
naʼ bil</w>
ma ñana</w>
al botik</w>
Pregun tas</w>
yo lil</w>
pág s</w>
noj el</w>
k in
jun io</w>
di v
chʼuun el</w>
c ando</w>
aqu ella</w>
Gede ón</w>
DI S
C O</w>
6 7</w>
vol ver
sbi ilin
s T
re zca</w>
raf os</w>
pár rafos</w>
ni ño</w>
m ó</w>
kakʼ bey</w>
invi tación</w>
der echo</w>
V ER</w>
Mu ch
L E</w>
G O</w>
slu mal
sj ol</w>
mo tiv
mo so
k nax</w>
esper tad</w>
ent reg
ejemp loetik</w>
d i</w>
ci r</w>
cam po</w>
a pas
D espertad</w>
si enten</w>
libr os</w>
koj t</w>
jnaʼ ojtik</w>
j ti
e a</w>
don o
dici embre</w>
demasi ado</w>
co dono
cheʼ ox
al rede
agra dec
abu codono
Zac arías</w>
Oʼ TAN</w>
N abucodono
8 8</w>
é poca</w>
ánd ose</w>
án do
yijki tay</w>
v aya</w>
segu ridad</w>
r an</w>
pág inas</w>
men ti
mal v
ki ptik</w>
em po
e t
del ante</w>
cʼ ahcʼ
comi da</w>
car r
akʼ beya</w>
T he</w>
S il
Machʼ atik</w>
K AKʼ
I K
A p</w>
x chaʼkuxaj
tendr á</w>
slumal ik</w>
schaʼ kuxaj
resca te</w>
or din
o y
mu cʼ</w>
min i
lu ga
ha gamos</w>
g obernante</w>
ex ac
cu ál</w>
conoc e</w>
O TIK</w>
H a</w>
De partamento</w>
B el
AW ILI
Á frica</w>
xhu ʼ</w>
x jil</w>
te ʼ
su fici
spaso jik</w>
s la
re almente</w>
pens ar
laj ele</w>
ja pa</w>
j il
enseñ anza</w>
cu ar
circ unci
c amos</w>
b ra</w>
a ʼulaʼ
YA Kʼ</w>
Kʼ AL
AWILI X</w>
6 9</w>
1 2
tra ta</w>
ti cos</w>
tal emik</w>
su c
so lu
sin ago
sacri ficios</w>
nop ele</w>
jts aj
h al
gu ar
em í</w>
eli ke</w>
dist ri
dis puestos</w>
comi en
cas os</w>
cam in
asun tos</w>
acer car
No emí</w>
Nabucodono sor</w>
A ca
7 5</w>
á les</w>
ta ña</w>
seg undo</w>
responsa bilidad</w>
raz on
prof e
pens emos</w>
op ini
luga retik</w>
kapi tulo</w>
inv estig
infier no</w>
her mo
enti fic
cul tiv
conta cto</w>
comp le
c l</w>
apren dido</w>
DA D</w>
vi ve</w>
señ ail</w>
que dó</w>
nich imal</w>
mini str
miembr os</w>
lan a</w>
gran de</w>
est én</w>
enferme dades</w>
en g
chajpan el</w>
aʼte ji
P en
M abal</w>
KʼAL AL</w>
E sto</w>
8 4</w>
0 2</w>
yijki tayel</w>
xch i</w>
tra tar</w>
spas bey</w>
snichʼ an</w>
ing l
hebre o</w>
gu sta</w>
f araón</w>
er á</w>
e ño</w>
e con
di g
as pec
N ú</w>
M undial</w>
KAKʼ TIK</w>
Cor into</w>
C a
9 8</w>
1 Sa</w>
ten gan</w>
skʼop e</w>
kʼux otik</w>
kerem etik</w>
fí s
ci on</w>
ay an</w>
apo y
ali x</w>
a ún</w>
A ʼI
7 8</w>
z an</w>
w 15</w>
snopo jibal</w>
snaʼ beyel</w>
re al</w>
o quía</w>
l á
j ol
deber ía</w>
can ciones</w>
c ár
Libr ary</w>
JOJKʼOYELE TIKE</w>
J os</w>
Deu t</w>
D eb
Anti oquía</w>
8 7</w>
0 3</w>
versí culos</w>
te li
stojob tes
stiʼ il</w>
scʼob lal</w>
rá pi
responsa bilidades</w>
respon dió</w>
religi osos</w>
r ían</w>
per man
kʼux uk</w>
kʼin e</w>
jui cio</w>
ju ʼ
j yan
ik xan</w>
humil des</w>
gl oria</w>
fo y
entusias mo</w>
encu entr
demostr amos</w>
cion e</w>
bah el</w>
N OS</w>
M P
M OS</w>
A E</w>
9 4</w>
9 1</w>
xiw el</w>
x kʼax
tuminchij etik</w>
tarje ta</w>
skʼ ases
s ban
j meʼ</w>
fortalec er</w>
dar nos</w>
costu mbre</w>
con ciencia</w>
ci dos</w>
ar la</w>
am el</w>
al ale</w>
ab ri
SKʼ AN</w>
Ent onces</w>
E d
B R
20 12</w>
trans mi
tikun el</w>
se c
pon e</w>
podr ían</w>
kur so</w>
jtoj ol</w>
i e</w>
herman oetike</w>
gener al</w>
du ro</w>
dr á</w>
dis puesto</w>
des cri
cʼu l</w>
c aj
artí culos</w>
VI D</w>
S ara</w>
Pue de</w>
B anti</w>
x ʼ
tsʼi n</w>
snop elxan</w>
smele lile</w>
sNichʼ an</w>
respu estas</w>
per dido</w>
pajal uk</w>
of rezca</w>
o per
nopo lix</w>
na sionetik</w>
kʼa t
im pri
f ra
ent er
demuestr an</w>
dec ía</w>
cuán to</w>
capaci dad</w>
aʼte j
A arón</w>
yu chʼ
w 11</w>
sim p
quer ido</w>
pedi r</w>
pas beyel</w>
o dio</w>
naj al
jkuxlejal tike</w>
j T
im presion
empez aron</w>
detal les</w>
der es</w>
decidi r</w>
chʼul chane</w>
alrede dor</w>
S u</w>
Le a</w>
K I
C Ó
A lem
v oc
su r</w>
sta ojik</w>
segui da</w>
pi de</w>
or amos</w>
olog ía</w>
lí deres</w>
lleg aron</w>
kaʼ bilal</w>
ha gan</w>
gobier nos</w>
es p
el uk</w>
dar les</w>
co tic</w>
ci entos</w>
awuʼu ni
U cr
Des pués</w>
A P
xkʼo otik</w>
un d
tu k</w>
ti dad</w>
se o</w>
r as
lokʼom ba</w>
ley etik</w>
i ores</w>
hab ría</w>
fr ente</w>
cʼ ax
congrega cionetik</w>
ani ma</w>
al nichʼ
actu ar</w>
a fron
Ucr ania</w>
Tsob lej
SW ENTA</w>
Pas a</w>
P i
CÓ MO</w>
B Í
9 9</w>
6 ,
z ona</w>
sob revi
snaʼ ojik</w>
s am
pre dijo</w>
pas tiklan
pa st
lej os</w>
humil de</w>
gr adu
er te</w>
dios es</w>
d encia</w>
con f
chi kʼbil</w>
asun to</w>
actu alidad</w>
a yat</w>
HA C
BÍ BLI
Alem ania</w>
yichʼ ix</w>
un gidos</w>
ti que</w>
spas beyel</w>
slokʼ es</w>
sirvi endo</w>
si quiera</w>
sacerdo tes</w>
pu kuj
per laetik</w>
pedi rle</w>
or den
obje tivo</w>
jojkʼoy beya</w>
jkʼop l
ingl és</w>
er ía</w>
e t</w>
e buk</w>
consecu encias</w>
asig nación</w>
am amos</w>
ac e</w>
San edr
C ar
AD N</w>
us ó</w>
tek sto</w>
tar án</w>
tar nos</w>
sma k
sinti ó</w>
sali r</w>
re yes</w>
permi so</w>
ovej as</w>
minister i
le al
leal tad</w>
jtʼu ntik</w>
indic a</w>
habl ando</w>
fili ste
ex isti
erman otak</w>
enferme dad</w>
dios etik</w>
ci al</w>
cam paña</w>
aʼi yi
apo ya
ani ke</w>
anal ice</w>
Sanedr ín</w>
P RI
M aba</w>
9 5</w>
20 20</w>
tiv as</w>
tex tos</w>
slu mal</w>
s cʼu
pue da</w>
prometi do</w>
obje tivos</w>
o f</w>
lej al</w>
ja do</w>
imag in
coʼ tan</w>
con seguir</w>
co pi
al a</w>
Es te</w>
0 1</w>
ñ as</w>
w 13</w>
ven cer</w>
tij bot</w>
ta ra</w>
t xan</w>
swenta in</w>
religi ones</w>
qu il</w>
orig en</w>
mostr ó</w>
jnopo jel</w>
jkʼayin beytik</w>
j och
hi ja</w>
fu ego</w>
foy eto</w>
escuch a</w>
en oj
contr ario</w>
ab lemente</w>
a tu
Sil as</w>
Ho y</w>
C am
wi ʼ
u do</w>
tendr emos</w>
sti tu
slekub tes</w>
segui dores</w>
recibi ó</w>
má xi
lajem ikixe</w>
jwol wanejetik</w>
g en</w>
econ óm
cre e</w>
chajp nax</w>
be r</w>
aʼiy el</w>
ar ían</w>
Jaʼ bal</w>
CO VID</w>
Aca b</w>
y n</w>
tradu cción</w>
r me</w>
of en
nujpun em
nacion al</w>
lu j
di vi
dar se</w>
cár c
ba do</w>
O r
M é
KO L
sts alel</w>
seg unda</w>
schajpan el</w>
princi pal</w>
permi te</w>
o lil</w>
nujpun el</w>
li ci
laj em</w>
i jki
cuán do</w>
cre er</w>
chʼichʼ e</w>
bal etik</w>
aw aʼiy
autor i
arti kulo</w>
ach ol</w>
P e</w>
J TA
9 6</w>
7 4</w>
tak tike</w>
sts a</w>
recu per
pon ga</w>
per der</w>
maj tan</w>
kux ul</w>
jtso jb</w>
i ban</w>
gu sto</w>
g ol
ex per
em ente</w>
de pen
chaʼox chajp</w>
be el</w>
ac ción</w>
X CH
S nopel</w>
O P</w>
Ja xan</w>
skanan tayel</w>
r ío</w>
l tes
kʼop etike</w>
ko t</w>
j chajpan</w>
i rse</w>
espa da</w>
cor ri
chʼi chʼ</w>
ban ti
al etik</w>
X C
ó r
v ían</w>
tseʼel nax</w>
sufici ente</w>
stu quel</w>
soldad os</w>
sle ik</w>
pri sión</w>
porno grafía</w>
mej orar</w>
m eros</w>
luch ar</w>
le van
kʼax toxan</w>
ji n</w>
ig l
i rá</w>
h am
ga se</w>
fuer tes</w>
emp le
eli min
di eran</w>
dej a</w>
cárc el</w>
ci miento</w>
ca usa</w>
a su
a g
N uestr
Est á</w>
19 14</w>
ón ica</w>
xu l
vol vió</w>
ten cia</w>
su ger
spi r
so la</w>
sba h
ri sti
resul tados</w>
qʼu el</w>
que tic</w>
pu n</w>
naʼ beyel</w>
men udo</w>
li mi
kal bey
joʼ one</w>
j k</w>
gra ve</w>
go zo</w>
e uke</w>
e duc
e du
ant os</w>
ac er</w>
PR O
M A</w>
G ali
E C
D EL</w>
B ar
9 2</w>
yu tsʼin</w>
ya kal
win ic</w>
uk nax</w>
to e</w>
sol dado</w>
sbah tel</w>
puer sa
opo si
ma d
m úsica</w>
for mas</w>
encontr amos</w>
awoʼtan e</w>
al co
Jo h
Can adá</w>
CU R
A na</w>
14 5</w>
xcʼ oht</w>
ter ren
sut bey</w>
si ento</w>
sa f
s á
ro mano</w>
p ik</w>
mu l
mi go</w>
man d
lo c
lab or</w>
hu bo</w>
cu ʼun</w>
contr ol</w>
bayal ix</w>
Dis fru
C é
A J
yox ebal</w>
yo tses
sj ok
reliji on</w>
qui si
man dó</w>
kʼaj kʼ</w>
jnop ilan</w>
jkʼopl altik</w>
jich uke</w>
imag en</w>
im pli
guer ras</w>
gri e
f recu
en seguida</w>
cui dar</w>
comen zó</w>
be b
baj tʼik</w>
baj el</w>
S am
N M</w>
E cl</w>
Au str
7 7</w>
xkoltay wanik</w>
xchaʼkuxaj ik</w>
vali ente</w>
tal es</w>
sjoʼ tak</w>
sir ven</w>
plan eta</w>
pi e</w>
par tes</w>
of reci
ocur ri
o la</w>
nichʼ an</w>
ku l</w>
koʼtan e</w>
jchʼi el</w>
j sitin
h all
guer ra
ele l
deber íamos</w>
apoya r</w>
apli cación</w>
W il
ST OJ
S BA
M elel
Cr ón</w>
B RA</w>
A TIK</w>
É f
Éf eso</w>
x tal
w ej</w>
vi eran</w>
pen a</w>
parec er</w>
min u
mal dad</w>
m ba</w>
k me</w>
il awilik</w>
em otik</w>
cambi ó</w>
ayi ke</w>
T esta
T RA
P ʼi
BEY TIK</w>
7 ,
2 Re</w>
0 9</w>
ʼu c</w>
yakʼoj botik</w>
x ico</w>
wokol e</w>
wan otik</w>
vir tió</w>
tor etik</w>
segu ra</w>
ro man
pun tos</w>
pu diera</w>
preocu pa</w>
ham bre</w>
hacer se</w>
eng añ
em pi
dibu jo</w>
descu bri
bili x</w>
an u
Mu lana</w>
M e
Cé sar</w>
tra tado</w>
sba hic</w>
saf at</w>
s ko
o tses
llev ó</w>
li sta</w>
li dad</w>
ku ela</w>
jchol beytik</w>
es a
dr as</w>
di señ
chʼul tes
bey ele</w>
b or
a compañ
Testa mento</w>
RESPON DA</w>
Jojkʼoy eletik</w>
I gl
8 ,
ʼi x</w>
vi ven</w>
tel é
te y
sbi kʼtal</w>
respon de</w>
religi onetik</w>
recor dar</w>
qui so</w>
pregún tese</w>
peque ño</w>
pan dem
orgul lo
necesi dad</w>
máxi mo</w>
jT atik</w>
j k
ex iste</w>
esfuer zos</w>
esfuer zo</w>
ern áculo</w>
don os</w>
deci dió</w>
cʼahcʼ al</w>
con sol
con den
bo tike</w>
b alumilale</w>
aw ichʼ
OʼTAN IL</w>
Kʼopon axan</w>
I sa</w>
E u
20 19</w>
x a
w0 5</w>
univer so</w>
skontra tak</w>
señ a</w>
najal sitil</w>
mu lile</w>
jel on
j an</w>
impri mir</w>
es pec
ec er</w>
cu al</w>
com pens
ari tan
Sig nific
Mé xico</w>
BIBLI AE</w>
2 Co</w>
últi mo</w>
wiʼ nal</w>
w ocol</w>
w 16
tab ernáculo</w>
swenta in
sam aritan
manda to</w>
kʼax em
joch ol</w>
jm il</w>
in for
i lele</w>
hist ori
h etic</w>
gra ti
ex ist
equi po</w>
enta s</w>
dese os</w>
constru ir</w>
confi r
chʼu un</w>
a tra
Mi gu
Es dras</w>
Disfru te</w>
CI ONES</w>
9 ,
v esti
tran qui
tendr án</w>
segu imos</w>
se is</w>
schʼuun ej</w>
qui énes</w>
paci ente</w>
o z
l aniwan</w>
fru to</w>
eli o</w>
ej er
doc tor</w>
atr ás</w>
ad ul
MACHʼ ATIK</w>
LE C
Feli pe</w>
F l
AN Z
yora hil</w>
x anix</w>
w 12</w>
ton ax</w>
super ar</w>
soci ales</w>
s el</w>
que as</w>
pas ando</w>
ox tul</w>
llam ó</w>
ju luk</w>
enseñ an</w>
el to</w>
dec lar
consu l
chopo le</w>
cham ele</w>
asamb leas</w>
alnichʼ an
al to</w>
aj o
Qu e</w>
PAS EL</w>
Mi queas</w>
Kʼopon a</w>
I MP
w entain
ta ciones</w>
snuj pʼ</w>
schʼuh un
schaʼkuxaj tes</w>
sab en</w>
s man
r am
permi ti
pa cto</w>
p ʼu
llen a</w>
kar ta</w>
jajch ik</w>
gr ab
fo to</w>
en en</w>
d á
cʼ ax</w>
c elo</w>
bayu k</w>
b ol</w>
aʼteji baletik</w>
analiz ar</w>
al ma</w>
a ku
S naʼ
Pre par
O ETIK</w>
J Kʼ
A BA</w>
1 Re</w>
yikʼ al</w>
y ajwal</w>
x jelon</w>
vo y</w>
terren o</w>
ta e</w>
skʼop ik</w>
sig an</w>
sbajtʼ el
s pʼ
re as</w>
pusi eron</w>
pi es</w>
pa s</w>
ob er
medi tar</w>
lokʼ emik</w>
jtojol tike</w>
jkʼ ases
in spir
in am
emp ec
difer encia</w>
circunci sión</w>
cheʼox ebuk</w>
anim ó</w>
akʼ bil</w>
aha b</w>
a chʼi
P r
N ec
M E</w>
LE J
Cor n
AKʼBE Y</w>
1 10</w>
yel aw</w>
xkʼopo j</w>
w0 8</w>
stoj olike</w>
stij bey</w>
sta te</w>
sn aʼi
sig amos</w>
sfamili aik</w>
sbajtʼ el</w>
sabi o</w>
s mi
r os</w>
pres a</w>
piens an</w>
perdon ar</w>
per ten
oposi ción</w>
materi ales</w>
l yn</w>
jw enta
jun e</w>
ji b</w>
j kontra
impor tar</w>
i ta</w>
hi bi
estab le
es pañ
d ó
con tiene</w>
ci pl
chap al
anim ar</w>
an c
V AN
OT R
Bro ok
yil otik</w>
w ak
tsoblej e</w>
toj il</w>
t ía</w>
st ó</w>
seman as</w>
quer ían</w>
p ón
mantal e</w>
ju stos</w>
jich niwan</w>
jchʼuun jel</w>
j pensar
es c
cʼax el</w>
chol el</w>
cas tig
ca t
autori dades</w>
anim al</w>
ad ap
a proba
Ed én</w>
D ER
Austr alia</w>
A R</w>
1 39</w>
0 8</w>
0 000</w>
xbo on</w>
wini quetic</w>
w0 4</w>
tsʼ ak
ta til</w>
sexu ales</w>
s kaj
res ol
re compens
peligr o</w>
necesi taba</w>
lec tores</w>
kʼ tik</w>
j kʼ</w>
ent ífic
e gip
e baj
dis cipl
control ar</w>
comun ic
cas as</w>
cari ñ
cab o</w>
beyi c</w>
ba em</w>
anaʼ beyxan</w>
acu s
ac ʼ</w>
T EM
R ahab</w>
Cri stoe</w>
Ay niwan</w>
yakal ik</w>
w 14</w>
tu l
snojptes otik</w>
sku y</w>
servi rle</w>
s é</w>
rela tos</w>
prácti cas</w>
parti r</w>
opini ón</w>
i kʼ</w>
esta rá</w>
en erg
descar gar</w>
cu alidad</w>
car on</w>
ba etik</w>
amu lan</w>
ador etik</w>
aba hic</w>
T seʼ
S E</w>
F I
DIS CUR
AN I
8 1</w>
É N
yaʼte like</w>
xba at</w>
w ol
ver dades</w>
se x
sch eb
pukuj etik</w>
on etike</w>
o tikix</w>
o sidad</w>
llev aba</w>
kʼay emik</w>
imperfec tos</w>
ho gar</w>
fuer an</w>
dej aron</w>
deb ía</w>
cu c</w>
chaʼkuxaj el</w>
c ó
ba ele</w>
ay to</w>
aparec en</w>
am in
agradeci dos</w>
I r
Corn elio</w>
2 5
y on</w>
ta kʼine</w>
stʼun ik</w>
s po
recibi eron</w>
princi p
podr íamos</w>
mukʼ e</w>
lej alil</w>
jpa se</w>
is la</w>
ha bilidades</w>
gan ar</w>
fi cia</w>
difer ente</w>
d am
d aban</w>
car tas</w>
bene ficia</w>
M i</w>
C ʼ
10 5</w>
yamigo tak</w>
yal bat</w>
w0 9</w>
utili z
u m
termin ar</w>
telé fono</w>
t ú
so por
skontra in</w>
sa bios</w>
regu lar</w>
posi ción</w>
nuj pun</w>
nue vos</w>
mil las</w>
llev an</w>
j kojt</w>
ci entífic
can tidad</w>
cambi ado</w>
c ón
c ep
c ad
bi ke</w>
ayudar lo</w>
aw e</w>
Ver dad</w>
STOJ OL</w>
Por que</w>
Nú meros</w>
N I
Migu el</w>
LEJ AL</w>
EN TE</w>
Brook lyn</w>
A bi
2 Sa</w>
yil oj</w>
y ec
tsoblej etike</w>
sj j</w>
salv ación</w>
s é
s en
re des</w>
precurso ra</w>
mu ri
in medi
il le</w>
hac ían</w>
ha ʼuc</w>
g eo</w>
fortal e
españ ol</w>
deb ían</w>
correc to</w>
chʼ ay
biluk etik</w>
ayudar án</w>
analiz aremos</w>
all á</w>
a familia</w>
Y o
Mu kʼul</w>
KUX LEJAL</w>
E sta</w>
20 15</w>
yijki tayik</w>
y aʼiyi
testig o
tes ik</w>
st rado</w>
prote ger
paci entes</w>
p ón</w>
milagr os</w>
mencion a</w>
maestr o</w>
logr arlo</w>
le emos</w>
kilóme tros</w>
est emos</w>
esa rea</w>
err or</w>
educ ación</w>
e volu
di ciendo</w>
cuentah inel</w>
c ero</w>
ay nix</w>
Po demos</w>
Nec esi
J or
E x
C esarea</w>
B en
AW AKʼBEY</w>
ul ar</w>
tsʼum b
smam alal</w>
sbajtʼel kʼinal</w>
s pʼi
s loʼl
recor demos</w>
r on</w>
que da</w>
públi co</w>
públi ca</w>
pue dan</w>
pla ta</w>
partici par</w>
ol esc
me ta</w>
kuʼun kotik</w>
kijki tay</w>
jun etike</w>
cultiv ar</w>
comen tario</w>
cham eletik</w>
aʼte liletik</w>
ar te</w>
anter ior</w>
S CH
P E
L á
Ja pón</w>
El í</w>
14 7</w>
ér ica</w>
ánd ole</w>
y antsil</w>
xiw ik</w>
w ayel</w>
versicu loetik</w>
tsa bilik</w>
tr on
su bi
stsa kxan</w>
re bi
prob ablemente</w>
pon en</w>
miembr o</w>
ma ʼu
jun ax</w>
j pʼaj
i jkʼi
hab lan</w>
g ra</w>
con migo</w>
ci en</w>
chaʼbe je</w>
ba tal
ayi c</w>
an d</w>
alcan zar</w>
ad ver
ab el</w>
R es
Pʼi jub
KOL TAY
H ab
Gali lea</w>
Estu dio</w>
Eli seo</w>
E spa
Al beya</w>
8 5</w>
zar o</w>
tu los</w>
tso jb</w>
tradu c
ti les</w>
snopo j</w>
sbiilin ej</w>
s enta
qu in
puersa uk</w>
pu esta</w>
pi er
pa ces</w>
mo de
lajun eb</w>
laj ik</w>
juk eb</w>
jsitin taytik</w>
jm ama</w>
ho ʼ
h in
di ez
cristi anas</w>
conver ti
bol ob
b lan
agu ante</w>
a koltay</w>
T e
T NM</w>
Lá zaro</w>
IK NA
G ran
D an</w>
0 6</w>
0 4</w>
xchʼ i</w>
weʼ el</w>
w entainel</w>
w 2
tribu lación</w>
tien es</w>
ti cas</w>
termin ó</w>
ta kik</w>
suc esos</w>
sbakʼe tal</w>
pr u
m enta</w>
l ad
koltay otik</w>
kanan tay
jaʼ bile</w>
j in
est ás</w>
er le</w>
empec é</w>
ej ch
dis poni
cre to</w>
con tó</w>
antigu o</w>
a re
VAN CE</w>
L O
In formación</w>
IKNA J</w>
I mag
E sa
A VANCE</w>
é xi
tra tó</w>
schol beyik</w>
ref lej
r lo</w>
podr á</w>
or ando</w>
nujpun emik</w>
lokʼomba kʼop</w>
llegu e</w>
le v
kux aj</w>
k r</w>
famili ar</w>
es kuela</w>
célu la</w>
baj tik</w>
ayu c</w>
ad olesc
ad ic
a ver
XCH IKNAJ</w>
Snaʼ ojibal</w>
OTR OS</w>
L TA</w>
KIL BEYTIK</w>
H u
G ran</w>
DES CRI
Cuán do</w>
C ajwal
C AS</w>
1 Pe</w>
á genes</w>
yikʼ ik</w>
y endo</w>
wokol uk</w>
vi vían</w>
tendr ía</w>
smukʼu lin
si ga</w>
sexu al</w>
s ic
refu gi
re vel
re pi
propi as</w>
pandem ia</w>
ne u
ne ga
kux u
k aʼtel</w>
jar dí
jardí n</w>
j le
im ágenes</w>
h as</w>
ex puls
en or
di mos</w>
ci gar
car ne</w>
ca pi
beyi x</w>
benefici os</w>
au i</w>
aparec e</w>
an oetike</w>
a te
Sab es</w>
Mal aui</w>
M ER
Jo se
En señ
DES CU
CH OS</w>
B U
A sia</w>
éxi to</w>
y och
x na
x leku
tuun tes</w>
spʼaj ik</w>
r in
pʼijubtes wanej</w>
okol e</w>
no mbres</w>
mu lti
mision eros</w>
jaʼ at</w>
j familia</w>
in forme</w>
ho l</w>
gra ves</w>
equi voc
en as</w>
comen z
ciu dades</w>
ci da</w>
chan eb</w>
car a</w>
cal ma</w>
c aba</w>
beb é</w>
b ale</w>
am aba</w>
U N</w>
T O
R O
P ER
MA T
M elel</w>
K ol
Esa ú</w>
DI CE</w>
DESCU BRA</w>
A YU
yichʼ oj
vivi mos</w>
terri tori
superinten dentes</w>
senti rse</w>
quer idos</w>
pro yec
pro duc
pr acti
ofrec e</w>
ob serv
ob o
ne go
m bre
l óg
juʼ em</w>
jchʼuun j
ic k</w>
hon ra</w>
cul pa
conten tos</w>
con st
ansi edad</w>
ad em
V ER
UE LTA</w>
T EN
SBA BI
SBABI AL</w>
S im
P CIÓN</w>
N e</w>
LE S</w>
Ju eces</w>
Igl esia</w>
IC H</w>
Gu erra</w>
EN ES</w>
DESCRI PCIÓN</w>
1 000</w>
- 1</w>
tsa el</w>
trib unal</w>
ti smo</w>
tem or</w>
tar ía</w>
sá bado</w>
su mo</w>
sjel tay</w>
scʼu xul</w>
s as
ri que
publica cionetik</w>
propi os</w>
prometi ó</w>
pri vi
presenta r</w>
ni dad</w>
meʼ el</w>
lle ga</w>
l as
kʼat pʼu
kʼ etik</w>
kol el</w>
kijki taytik</w>
jpensar tik</w>
jnop beytik</w>
jchʼuun beytik</w>
ist ra</w>
ex e</w>
cón yu
banti to</w>
ayudar los</w>
a chʼ</w>
Y o</w>
QU I
P U
Melel nix</w>
J ICH</w>
Fran cia</w>
Eze q</w>
Eu ropa</w>
DI C
B UELTA</w>
yijkʼi tay</w>
y en</w>
xkux in
w p
tra ta
terr emo
stsa kotik</w>
sobrevi vi
smi lik</w>
skʼases ik</w>
skʼan beyik</w>
sja ch
schʼuun beyik</w>
schajpan ik</w>
pres entes</w>
pr em
plan es</w>
pa ti
or ó</w>
ocu pa
och o</w>
nojp tes</w>
ni xbal</w>
llen o</w>
kuxlejal ile</w>
ju l</w>
j tsʼin
is las</w>
g al
fun cion
for d</w>
espiritu e</w>
e lec
com por
c n
bi kʼtal</w>
ar ro
ar ri
alim entos</w>
ah í</w>
aba ik</w>
P UE
ESI S</w>
B ri
AL GO</w>
í do</w>
xi ʼ</w>
ví cti
uni dades</w>
swenta ik</w>
suger encias</w>
so lici
skʼu ʼ</w>
skʼopl alik</w>
sa ciones</w>
oc rá
no pi
milagr oetik</w>
mi yon</w>
ma ʼuk</w>
kamigoin tik</w>
jna tik</w>
jkʼop tik</w>
id entific
i to</w>
hi er
fal sas</w>
ej e
dese an</w>
der á</w>
deci dido</w>
c lo
aʼ el</w>
ay inik</w>
apren diendo</w>
alco hol</w>
P ara
L ot</w>
JU AN</w>
J wol
Alg unos</w>
AN OP
20 21</w>
1 27</w>
1 20</w>
y ermanotak</w>
x kʼ
ww w
vi vía</w>
ve amos</w>
vali entes</w>
tes tik</w>
tay bey</w>
stal ele</w>
snojptes on</w>
sbi ilin</w>
sacerdo teetik</w>
sT ate</w>
pre kur
perfec to</w>
ora sion</w>
or e</w>
on ix</w>
maʼu ke</w>
l las</w>
jtʼu n
jmul awil
in an</w>
il ot</w>
h ch</w>
di ver
d án</w>
car go</w>
aproba ción</w>
anaʼ bey</w>
acab ará</w>
To wer</w>
S n
LI K</w>
J ES
IMP OR
ENSEÑ ANZ
CO N</w>
yuʼu nu
yaw il</w>
tseʼel uk</w>
tar an</w>
stuk elik</w>
sts aj
prov oc
prepar ar</w>
pa rado</w>
oy entes</w>
na kʼbil</w>
llev aron</w>
kʼ inik</w>
ju ez</w>
jnaʼ bey</w>
evolu ción</w>
c eso</w>
br a
bi na</w>
aʼ ba
asi st
an op
ad mi
a tuuntes</w>
Sal ones</w>
Je f
IMPOR TAN
C lar
9 3</w>
20 11</w>
x lokʼo
x lokʼik</w>
x jalaj</w>
skʼ ayin
skʼ ases</w>
sa b</w>
respon der</w>
ra dio</w>
pón gase</w>
pe le
neu tr
maravillo so</w>
manten erse</w>
lo t</w>
l v</w>
kʼopo j</w>
kanan tayel</w>
jtu hl</w>
jnichʼ nab
im pr
her e
h aría</w>
ej e</w>
e go
coʼ tan
be ber</w>
an ía</w>
an cia</w>
SE AMOS</w>
Re be
Je z
F u
Estu di
EM ÍAS</w>
D R
ANOP XAN</w>
y aj
xmantal tes
w 10</w>
visi tar</w>
ta kin</w>
stsʼ ik
sigui eron</w>
si tik</w>
s Jun</w>
qu en</w>
prof undo</w>
por tada</w>
pens ando</w>
or den</w>
mode lo</w>
medi da</w>
l v
kʼayoj iletik</w>
kuʼun e</w>
jpʼaj tik</w>
j lokʼes
j ko
gobern ar</w>
gobern ador</w>
fic ar</w>
el tike</w>
de jado</w>
aʼte jotik</w>
apareci ó</w>
am en
Le k
Kʼ inal</w>
HE CHOS</w>
A pren
2 4
1 Ti</w>
ÉN ESIS</w>
xlaj ik</w>
xkʼopo jat</w>
wan e</w>
v ic
su t</w>
stal elike</w>
sta kʼinik</w>
sob re
skanan tayotik</w>
sinago ga</w>
scʼ op</w>
s nopi
rela ciones</w>
public ador</w>
pareci da</w>
pa tan
on al</w>
obe dientes</w>
na e</w>
logr ar</w>
jtso b</w>
impor ta</w>
gu í
ex tr
ex ten
espec ífic
don ia</w>
bi a</w>
aw ale</w>
adem ás</w>
abati n</w>
Wil li
U M
Sn t</w>
S í</w>
G ÉNESIS</w>
El la</w>
As á</w>
A le
1 Cr</w>
án donos</w>
yichʼ ojix</w>
yaʼ be</w>
y eron</w>
v ale</w>
tulan xan</w>
teni miento</w>
ta reas</w>
su l
so cor
sma kat</w>
qui ero</w>
progr es
permi tió</w>
parec ía</w>
médic o</w>
mu k
ma do</w>
lleg ado</w>
le vi
la juk</w>
ki xe</w>
jpa m</w>
ji chuk
im posible</w>
igl esia</w>
hacer nos</w>
h s</w>
g io</w>
fu i</w>
enfer mos</w>
en ik</w>
desastr es</w>
dedic ación</w>
cu esta</w>
b hs</w>
apren dió</w>
apa ci
a par
Tsoblej etik</w>
Qui énes</w>
Pʼijub tesel</w>
Pen te
P ens
MU Kʼ</w>
M E
E so</w>
C AN
w a
vi u
v és</w>
ts es</w>
tra go</w>
s be
re pu
ras il</w>
r ob
pu k
pod amos</w>
pa se</w>
o te</w>
nail pakʼ</w>
mision er
jwenta tik</w>
jui cios</w>
jtu luk</w>
jm am
jchʼuunj eletike</w>
jchol kʼopetik</w>
jal uk</w>
ijki tayel</w>
ic ó</w>
grati tud</w>
gi a</w>
f g</w>
estudi ando</w>
especi ales</w>
distri bu
bi en
an da</w>
am eʼ</w>
al eltik</w>
Wat ch</w>
S te
Much os</w>
LEC CIÓN</w>
L AN</w>
B rasil</w>
10 6</w>
10 4</w>
1 18</w>
yo k</w>
xw entain
xju ʼix</w>
xiw otik</w>
vi g
sch aʼulaʼ
r é</w>
progr am
po cos</w>
o fic
mision ero</w>
ma tar</w>
kʼu k</w>
kongregasi onetik</w>
k risti
há bi
ex presión</w>
ex cel
estr és</w>
escri to</w>
escla vos</w>
discipl ina</w>
diez mo</w>
deci mos</w>
d ían</w>
cumpli rá</w>
continu ación</w>
conoci do</w>
co etik</w>
centr al</w>
c é</w>
c án
ayudar on</w>
ajwal ile</w>
ac tú
a bier
S ch
Bel én</w>
AʼI Y
A b
1 33</w>
Ú S</w>
vi vo</w>
vi a</w>
tsi l
tom ó</w>
tar le</w>
t her
spʼ aj</w>
schʼuhun el</w>
schol beyel</w>
sac ar</w>
regi ón</w>
j chajpan
in os</w>
fal sos</w>
esper aba</w>
ele gir</w>
dr ía</w>
cux lejal</w>
ch a
carr era</w>
bo on</w>
batal la</w>
ay otike</w>
aten der</w>
al ta</w>
a co
Jer icó</w>
J am
Hebre as</w>
Fl p</w>
8 2</w>
5 00</w>
0 ,
óli ca</w>
w 17
val ora</w>
tra vés</w>
st er
ro de
qui x</w>
po bre</w>
jts ʼi
j tsʼ
hospi tal</w>
fís ico</w>
frecu encia</w>
enci ma</w>
des i
des can
cu a</w>
cier tas</w>
bal ik</w>
ari as</w>
am or
ali c</w>
aku y</w>
acep tó</w>
a kʼopon
T s
Pa til</w>
N O</w>
M ant
JES ÚS</w>
H ar
Go li
Ch ʼul</w>
20 00</w>
19 19</w>
1 30</w>
ó s</w>
énd ose</w>
yaʼ tele</w>
ur ante</w>
to wer</w>
ti er
tan tas</w>
t é
stsʼiba yik</w>
spas botik</w>
spa j</w>
spa j
sma koj
sitin tay</w>
si vo</w>
respon sab
puer sa</w>
pa pel</w>
ocur rió</w>
mul wej</w>
me tro</w>
maestr os</w>
kʼo j</w>
kamigo taktik</w>
jta te</w>
jkʼ ajkʼ
jba kʼe
inter ior</w>
in qui
herman aetik</w>
h ú</w>
fal sa</w>
dis cursos</w>
dar on</w>
d ale</w>
contes tó</w>
conoci ó</w>
con tra
ch tower</w>
ben deci
b esti
a p</w>
Wat chtower</w>
T al</w>
M en
ú til</w>
ó lo
yal aj</w>
tsʼak al</w>
tin g</w>
su eño</w>
skanan tayik</w>
que o</w>
pu ra</w>
pon erse</w>
na z
meʼ ba</w>
ki ke</w>
kermano taktike</w>
ju dio
jpa so
hici era</w>
gan as</w>
ego í
conoc ía</w>
bautiz ó</w>
aʼte lile</w>
apren dí</w>
agrad ar</w>
acab ar</w>
a i
a etike</w>
T ey</w>
RESPON DER
N or
Jef té</w>
Jaʼ nax</w>
J tsojb</w>
E mpi
C ha
BÍBLI CO</w>
ú tiles</w>
é lix</w>
univer sidad</w>
tʼ an</w>
tsʼu nu
tr iste</w>
sucurs ales</w>
stsʼum balik</w>
stojob tes</w>
sja ch</w>
sj el</w>
schʼ ik</w>
res to</w>
pʼaj aw</w>
prote ger</w>
pastiklan bil</w>
pareci do</w>
p eso</w>
p el
o tic</w>
man ix</w>
logr ó</w>
kʼ ayojil</w>
kux in</w>
kongregasi one</w>
k as
jchʼuun ej
il an
experi encias</w>
enseñ arles</w>
elec tr
conoc en</w>
compren der</w>
chambal am</w>
ch ay
can ción</w>
au xi
au men
ar d</w>
an te
a kʼop
a consej
T OS</w>
Satan ase</w>
RESPONDER ÍA</w>
N az
M ás</w>
J O
Fili pos</w>
F élix</w>
F esto</w>
DISCUR S
0 ,000</w>
ún ica</w>
x chi
tra i
stsʼik el</w>
slokʼes ik</w>
sj am
prof es
pens amos</w>
p len
mo el</w>
m ental</w>
lu c</w>
kʼu ʼul</w>
kal tike</w>
jte b
ji x</w>
j paj
j koltay</w>
in g</w>
entr ar</w>
en tan
el mente</w>
d ora</w>
cónyu ge</w>
conven cidos</w>
chik naj
can an
c li
bin wan</w>
aspec tos</w>
apa ri
ale za</w>
al ele</w>
Sam aria</w>
SI L</w>
SA ÍAS</w>
Ru sia</w>
Pas cua</w>
Mar do
MAT EO</w>
MAN OS</w>
Lek bal</w>
L es</w>
L abal</w>
I SAÍAS</w>
F E
D em
Clar o</w>
BR E</w>
1 35</w>
www jworg</w>
viol encia</w>
ther ford</w>
tay e</w>
taj imal</w>
ta jib</w>
st ʼu
señ al</w>
sex o</w>
sban kil
sali ó</w>
s nojptesel</w>
s nojptes</w>
s antos</w>
ro m
resol ver</w>
re co
pró ji
próji mo</w>
pro clam
natur aleza</w>
lengu aje</w>
le xi
ki t</w>
j la
j kuxlejale</w>
er án</w>
encontr ará</w>
ej a</w>
di ga</w>
di da</w>
desi erto</w>
dej e</w>
colab orar</w>
car ga</w>
bus cando</w>
aʼ bat</w>
ayudar le</w>
ar reg
Y an</w>
Y OʼTAN</w>
Signific ado</w>
Si ria</w>
Ru therford</w>
N ich
Mar ta</w>
Je o
Co m
3 00</w>
1 50</w>
1 15</w>
ʼ e</w>
ve ía</w>
v ac
u so</w>
tu ve</w>
tu des</w>
tes bot</w>
tan ta</w>
su puesto</w>
slekub tes
s esi
re tenimiento</w>
re bel
prote cción</w>
princip ales</w>
pregun te</w>
pre juicios</w>
po cas</w>
ox chajp</w>
mo tivos</w>
manten i
llam aba</w>
jyan lumetik</w>
jw eʼ
im pul
h ayan</w>
farise os</w>
enor me</w>
des anim
conten to</w>
bus can</w>
bi bli
am o</w>
XC D</w>
Seg ún</w>
Pente co
O n
Nich imal</w>
H I
F OT
Empi ece</w>
C OR
A CIÓN</w>
10 2</w>
1 Jn</w>
yulaʼ tayel</w>
x nujpun
vivi endo</w>
us an</w>
tu viera</w>
ti f
suce dió</w>
spa t
socor ro</w>
skʼ asesel</w>
sin cer
sigui endo</w>
rique zas</w>
reci ben</w>
pens aba</w>
opo j</w>
nam e
kʼ ik</w>
fo toetik</w>
ex amin
estu viera</w>
em on</w>
discípu lo</w>
da tos</w>
chol beya</w>
bus ca</w>
anichʼna bik</w>
anal í
ace donia</w>
a sutbey</w>
a propi
V en
TE X
Se amos</w>
Para íso</w>
OR A</w>
M acedonia</w>
LE TIK</w>
Ju e</w>
JTA TIK</w>
IN AL</w>
D ónde</w>
2 6
É X
ya kix</w>
xiw at</w>
x yakʼ</w>
ven ir</w>
ti ʼ
ti a</w>
teni endo</w>
t enta</w>
sma kʼ
sjel tayel</w>
sab ían</w>
ro e</w>
revi sta
re fier
r les</w>
pre parado</w>
oí r</w>
natur ales</w>
muestr an</w>
mu cʼul</w>
mon taña</w>
modes tia</w>
luk me</w>
kʼan beya</w>
jkʼases tik</w>
inmedi ato</w>
esforz amos</w>
dar ía</w>
compr ar</w>
comen tarios</w>
científic os</w>
bey tikxan</w>
ay me</w>
arti cu
arr ol
aqu ías</w>
aprovech ar</w>
ant es
an atik</w>
ami g
ala w</w>
ab und
a z</w>
Willi am</w>
P il
O KO
Mardo queo</w>
Mal aquías</w>
MU KʼU
M edi
L istra</w>
Espa ña</w>
C hi
A ni
14 4</w>
1 1,
á culos</w>
yaj tal
x ane</w>
uni dos</w>
uk me</w>
tsa bil</w>
tes a</w>
sir ve</w>
ser emos</w>
sencil la</w>
schaʼulaʼ tayel</w>
s chʼi
resu men</w>
qu es</w>
pu dieron</w>
prote ge</w>
peque ños</w>
pe ti
pas an</w>
no j</w>
n anatik</w>
mi sm
jwol wanej</w>
jnopo j</w>
jich e</w>
jchʼ am</w>
j chaʼ
il otik</w>
il inik</w>
guerra etik</w>
gri pa</w>
gener osidad</w>
g la
es ca
erman a</w>
en tien
der emos</w>
cumpli ó</w>
con tar</w>
br es</w>
bo la</w>
analí celo</w>
an un
alnichʼan etik</w>
Tesal ónica</w>
R ES
P au
Nú m</w>
K on
Jwol wanejetik</w>
Jor dán</w>
Jez abel</w>
Es píritu</w>
E f</w>
B re
B EN
A gripa</w>
yijkʼi tayik</w>
yakʼ bonik</w>
x nojptes
vi vos</w>
ven ga</w>
ue la</w>
ts alaw</w>
tele visión</w>
tar emos</w>
sitin tayik</w>
s ci
ru m
ri s</w>
podr emos</w>
peque ña</w>
pa usa</w>
oʼtan tik</w>
kuxlej alike</w>
kas tigo</w>
jol al</w>
jba t</w>
ikʼ a</w>
fun dam
fir me</w>
f il
en i
e el</w>
di vino</w>
d era</w>
cariñ oso</w>
c era</w>
c ae</w>
b á
Y AN
Seg unda</w>
SAL MOS</w>
Penteco stés</w>
Mi entras</w>
J BA
In forme</w>
HAC ER</w>
G re
EN TA
Bro ad
Bi deo</w>
4 000</w>
yin ame</w>
yichʼ ic</w>
yal ike</w>
tuminchi j</w>
tsʼiba ya</w>
to tal</w>
ten íamos</w>
suce de</w>
smali y
smakoj bey</w>
smak oj</w>
signific ado</w>
s loʼ
regal os</w>
recibi mos</w>
realiz ar</w>
re par
pu ta
prue baetik</w>
pro hibi
posi tiva</w>
o tik
nujpunem ike</w>
ni s
leg io</w>
kʼu lejalil</w>
k ol</w>
jtʼun beytik</w>
jtu kel</w>
jtsaj tay</w>
jta t</w>
jo kin</w>
j pʼi
in ele</w>
ic emos</w>
expli car</w>
especi almente</w>
emp e
emocion al</w>
ec en</w>
e be
destru cción</w>
cul ar</w>
cre ía</w>
bra ille</w>
bo otik</w>
ba an</w>
aʼtej on</w>
alal etike</w>
ajw ali
S oci
O DO</w>
MACHʼ A</w>
I t
G ra
F il
F araón</w>
Cajwal tic</w>
C AM
1 34</w>
últi ma</w>
í ni
ÉX ODO</w>
z ado</w>
tsa k
tron o</w>
toj bey</w>
ten tación</w>
tal mente</w>
stuk ele</w>
spa t</w>
sjojkʼoy ik</w>
rápi do</w>
repres enta</w>
recibi do</w>
profe tas</w>
pare ja</w>
p h
ocur re</w>
obje ción</w>
no tas</w>
ma du
lá gri
lan da</w>
lab ores</w>
kʼax to</w>
jajch on</w>
j lu
inqui e
inclu ye</w>
habi tantes</w>
fi elmente</w>
f o</w>
equi libr
encan ta</w>
emple o</w>
ej on</w>
des arrol
cas ting</w>
bey oj</w>
bar ko</w>
aw aʼiyej</w>
ani c</w>
a ec</w>
S TA
Prepar e</w>
O B
N aʼ
KʼA Y
KI T</w>
Ir landa</w>
G ri
Cu áles</w>
Ci ro</w>
Broad casting</w>
Bin tikxan</w>
BI OS</w>
x lo
t ér
sufr en</w>
spu k
sni tojbey</w>
slekub tesel</w>
si mo</w>
si enta</w>
schʼ ay</w>
pru dente</w>
po tencia</w>
pe or</w>
pa ri
och otik</w>
menti ras</w>
mad ero</w>
ma h
loʼl ay
le l
ko lik</w>
jta kʼin
joʼ eb</w>
jkʼajkʼ aleltik</w>
j nojptes
j kʼax
inter nacional</w>
i te</w>
h ilel</w>
extra ordin
expli car
energ ías</w>
en da</w>
eje cu
du elo</w>
di ez</w>
consu ela</w>
con virtió</w>
con ce
cometi do</w>
clar a</w>
ca paz</w>
b tesel</w>
b t</w>
aʼ tele</w>
ax ak
anunci os</w>
amista des</w>
alim enta
al wanejetik</w>
PR OV
OJ TIK</w>
N E
K ʼu
Jich bal</w>
J un
C A</w>
Bibli aetik</w>
B er
2 3
14 1</w>
yaʼbil alike</w>
yamigo in</w>
xleku b</w>
ver sión</w>
tr am
ti kixe</w>
ta t</w>
sufri endo</w>
sta oj</w>
s í
s naj
regres ar</w>
qui n</w>
pu kel</w>
profe ti
pr on
posi tivos</w>
pla ta
par á
on as</w>
obst ante</w>
necesi taban</w>
manten ernos</w>
le ltik</w>
kʼ ases
jal aj
j xiʼ
in teli
in justi
impli ca</w>
i f
h ice</w>
h echos</w>
estab lec
edi ción</w>
di rección</w>
d ok
cux aj
cuesti ón</w>
cuer da</w>
costu mbre
con oz
centr o</w>
can tar</w>
aw an
ara c</w>
an teetik</w>
Y ijkitayel</w>
Rebe ca</w>
RE VI
R ec
P at
O L
Jeho safat</w>
EM P
D urante</w>
CH ʼ</w>
B arac</w>
A ten
A si
1 16</w>
yakʼ tiklanbey</w>
yajtal ul</w>
x jil
vícti mas</w>
ver lo</w>
to talmente</w>
to ma</w>
sweʼ el</w>
stsa k
sju ltes
sin tamos</w>
se par
ri to</w>
re ba
r ami
privi legio</w>
presenta ción</w>
pa g
p ʼuk</w>
oport unidades</w>
obst áculos</w>
obli g
o tikxan</w>
nain emik</w>
malv ados</w>
limpi a</w>
ley endo</w>
lengu a</w>
la u
kin am</w>
kamigo tak</w>
injusti cias</w>
il anel</w>
i p</w>
g enti
fon do</w>
encuentr a</w>
en al</w>
electr ón
do poderoso</w>
dis kurso</w>
diri gi
cu áles</w>
correc ta</w>
cor reg
ci ales</w>
awuʼuni c</w>
awamigo tak</w>
at p
am ik
am a
al nax</w>
ad ora</w>
ab ae</w>
U ste
Ta til</w>
Ser vi
SKʼ OP</w>
S kʼoponel</w>
Pil ato</w>
L ec
I A</w>
Es d</w>
xlaj e</w>
val or
tulan uk</w>
ten el</w>
ta yi
superinten den
su elo</w>
sob er
sober anía</w>
s jin</w>
respe tar</w>
pu dieran</w>
presi ones</w>
pará bola</w>
oj bey</w>
na xme</w>
mor ales</w>
mer ece</w>
ku laʼ
fortalec e</w>
for mar</w>
escribi r</w>
envi dia</w>
en so</w>
de termin
célu las</w>
cre ado</w>
conver saciones</w>
con tin
ch ebaj</w>
c le
be bi
Po tif
M AL</w>
It alia</w>
B ANT
BANT I</w>
énd ole</w>
ár amos</w>
ánd oles</w>
z ías</w>
yuʼunu k</w>
yi pik</w>
yaʼ lel</w>
y q</w>
y amigo</w>
xiʼ ban
vuel ve</w>
volun tarios</w>
vali oso</w>
vali osa</w>
uk otik</w>
tsʼumb alil</w>
tribu s</w>
teʼ etik</w>
terremo tos</w>
tal ik</w>
ta rea</w>
sw okole</w>
so los</w>
snuj pʼuk</w>
smali yik</w>
sj ojkʼo
revi stas</w>
r ar</w>
pro ce
pa gar</w>
o dia</w>
ning uno</w>
natur al</w>
mi sta</w>
mencion ó</w>
l tes</w>
j yq</w>
i b</w>
hoʼ on</w>
her rami
h un</w>
gu e</w>
gr os</w>
gol pe
encar g
el tal</w>
deb es</w>
de z
de vo
cu bri
clar amente</w>
bautiz ado</w>
aña dió</w>
auxi li
am án</w>
alu m
a tak</w>
TU LAN</w>
R aquel</w>
Potif ar</w>
PRI MER
PA R
N i
M on
J KUXLEJAL</w>
J ER
IMPORTAN TE</w>
B u
20 17</w>
10 1</w>
1 24</w>
1 23</w>
én do
ár bol</w>
yo tses</w>
xiʼban tik</w>
x etik</w>
vi enen</w>
tay ot</w>
tay beyik</w>
t z
suj tes
stsʼiba y
st en
snop ilan</w>
sjok inik</w>
sig los</w>
sfamili ae</w>
recuer de</w>
puer tas</w>
po bres</w>
plata forma</w>
orgul lo</w>
o zca</w>
muer e</w>
modes tos</w>
man so</w>
mam á</w>
lo grado</w>
li c
ko mon
k to</w>
jtu k
jaʼ mal</w>
ja ptik</w>
hospi tal
hab le</w>
gru pos</w>
enemi go</w>
encontr ó</w>
dis curso
di r</w>
desastr e</w>
cán cer</w>
confi amos</w>
ch ah
aña de</w>
anter iores</w>
anichʼna b</w>
ambi ente</w>
ad on
SI TA</w>
Pro póngase</w>
PROV ER
PROVER BIOS</w>
P ar
Mois ese</w>
KʼU X
Goli at</w>
E ra</w>
Abi ga
A mi
200 4</w>
yulaʼ tay</w>
yan mar</w>
y aba
wanej e</w>
wak eb</w>
w 18
vuel to</w>
viu da</w>
tu untes
ts al
t ero</w>
snop ilanel</w>
smali y</w>
se lo</w>
s pe
s lum
s kuxlejalike</w>
s chʼichʼ
res pec
regi str
refier e</w>
r ico</w>
perdon e</w>
p inas</w>
oʼtan e</w>
oj o</w>
obe di
obedi encia</w>
o h</w>
ni xme</w>
nacion etic</w>
mu sic
mi li
lóg ico</w>
kʼa j</w>
ju eces</w>
jlokʼes tik</w>
jkʼan bey</w>
human a</w>
hici eran</w>
gla ter
fi esta</w>
farise oetik</w>
espiritu etik</w>
em erg
ele n</w>
dá frica</w>
dec ían</w>
cui da</w>
cuesti ones</w>
ca er</w>
ba bil
ayudar a</w>
aw aʼtel</w>
ar ás</w>
an ías</w>
Ya k</w>
U K</w>
TEX TO</w>
T sa
Su dáfrica</w>
S ol</w>
Pu bli
O ri
M yanmar</w>
K A
JU N</w>
In glater
Gran de</w>
Evangeli o</w>
Es t</w>
Chi pre</w>
Ch ʼ
Bre taña</w>
Alg unas</w>
20 18</w>
20 10</w>
2 Ti</w>
- 2</w>
Ó N
yi kʼotik</w>
x at</w>
wanej etike</w>
volun tari
ven za</w>
tér min
tz h</w>
tsob ol</w>
tra to</w>
ter son</w>
tam ba</w>
t su
superintenden teetik</w>
su y
so br
skʼ atp
se tike</w>
rep ente</w>
ra ciones</w>
quedar se</w>
proba r</w>
ofrec er</w>
nor mal</w>
ni e
mu liletik</w>
mo vi
mo sle</w>
mej or
kʼatpʼu j</w>
komon sitil</w>
kichʼ ojtik</w>
jpa t
jaʼ bal</w>
jajch em</w>
j cʼ
im puls
ichʼ jaʼ</w>
i das</w>
g e
ez as</w>
escri be</w>
dó lares</w>
dec ep
consej oetik</w>
com er
br in
ayu dando</w>
ay amos</w>
are t</w>
afron tar</w>
acep ta</w>
UN A</w>
T or
S an</w>
S U</w>
Naz aret</w>
N abal</w>
Mar i
L am
Joh n</w>
JCHʼUUN OJTIK</w>
Inglater ra</w>
Eli sab
C al
Aten as</w>
An tes</w>
1 21</w>
1 11</w>
yil bey</w>
vivi ó</w>
vig il
tan tos</w>
ta ya
sta tike</w>
sjaj chi
simp le</w>
señ al
ser ie</w>
segu ía</w>
resuci tado</w>
respec to</w>
refugi ados</w>
reci be</w>
reac ción</w>
ra í
po l
orig inal</w>
ob tener</w>
nab e</w>
má qu
mol de
mism as</w>
manteni miento</w>
m aʼ
lí ne
luch ando</w>
l la</w>
kʼ e</w>
jpʼi j
jo y
jkʼu ʼ</w>
jbakʼe tal
j le</w>
j kel</w>
inter esa</w>
inmor alidad</w>
in ju
i lil</w>
h í
fir mes</w>
excel ente</w>
est ábamos</w>
es con
es cen
debi ó</w>
dar án</w>
culpa ble</w>
cu la</w>
conven cido</w>
chaʼ chajp</w>
cham nax</w>
cam pos</w>
cal le</w>
ayin otik</w>
asi t</w>
ar w
ant emente</w>
a so
T OJ
T AL</w>
Su s</w>
S y
R us
Kʼ ajkʼ
Kʼ INAL</w>
K ajw
E v
Cuán to</w>
Con go</w>
BI D
A Y
10 ,
yuchʼ el</w>
yoch in
x tijbot</w>
x nujpun</w>
ver á</w>
trans fu
tor menta</w>
to bal</w>
tendr ían</w>
temp loe</w>
te cn
stojobtes otik</w>
sna ʼu
skʼ in
skontra inik</w>
scheb alik</w>
s kuxlejale</w>
produ ce</w>
pa m</w>
o kʼel</w>
o cul
ni a</w>
misioner oetik</w>
me dic
maj el</w>
lab an
kʼ abal</w>
kil tikix</w>
juz gar</w>
jkʼop lal</w>
jba e</w>
j pʼ
j na</w>
j beya</w>
ini ci
in men
in cl
i lik</w>
f l
eb nax</w>
dro gas</w>
div ina</w>
distin tas</w>
di go</w>
descen dencia</w>
cumpli miento</w>
cre y
compañ ero</w>
chol beyel</w>
chap bil
ch on
ch el</w>
cas arse</w>
capí tulos</w>
cam ente</w>
bi ilil</w>
ben dijo</w>
ayu den</w>
arrepenti do</w>
ansi anoetik</w>
ali za</w>
ac ci
ab e</w>
W okol
W OKO
V al
T Z
Se a</w>
Rec or
Necesi dades</w>
N aciones</w>
Lo kʼ
K u
Ja cha</w>
J ac
H ER
Fili pinas</w>
F i
Cre e</w>
3 8
200 9</w>
2 7
10 7</w>
yil beyik</w>
yaʼiy bey</w>
x pas
v ec
tra tan</w>
t he</w>
t C</w>
stsʼ eel</w>
st ej
sel l</w>
s tan</w>
rein ta</w>
perfec ta</w>
per dió</w>
pas amos</w>
och at</w>
och an</w>
nopo l
le tra</w>
laj emix</w>
la t</w>
koltay wanej</w>
ki jkʼi
kar sel</w>
jpʼij iltik</w>
habl aba</w>
ga stos</w>
espiritu almente</w>
escri tor</w>
em pa
di je</w>
detal le</w>
descen dientes</w>
decidi dos</w>
cul tura</w>
cier tos</w>
car ro</w>
buel tae</w>
bey e</w>
ben dice</w>
az os</w>
amu lan
akʼop lal</w>
a hic</w>
TEM A</w>
Sim ón</w>
Rus sell</w>
PRIMER A</w>
MA R
Kajw altik</w>
JER EMÍAS</w>
JA ʼ
J pisiltik</w>
Go g</w>
E un
Cri sti
B ala
AʼIY EJ</w>
20 16</w>
1 38</w>
1 12</w>
íni ve</w>
Í CU
yan e</w>
y clo
xkux in</w>
xkoltay wanotik</w>
te tike</w>
suj tel</w>
su b
sts al
sobre llevar</w>
s lo
s col
resul ta</w>
quedar on</w>
pi da</w>
per io</w>
ora uk</w>
n ik</w>
n as</w>
mo tivo</w>
ma k
m ali
li a</w>
le quil</w>
laj e</w>
kilóme tro</w>
jmu ltik</w>
ja pel</w>
impr enta</w>
habl amos</w>
f ac
enfer mo</w>
du das</w>
distin tos</w>
dis cu
d amente</w>
cu ʼun
coʼtan tic</w>
costu mbres</w>
con qui
ciu dad
chʼ el</w>
ch ic
bil otik</w>
bas ado</w>
ay bal</w>
aspec to</w>
al tar</w>
Y an
Ti jbeya</w>
Si empre</w>
SI G
N ínive</w>
N opo
Much as</w>
KʼAY OJ
Ju ec</w>
J nop
J ay
El los</w>
D o
D ES</w>
1 26</w>
í sti
ándo lo</w>
yuʼu nix</w>
yal bonik</w>
xtu un
x mukʼu
ver as</w>
tsʼi h
tri go</w>
tran j
tem ente</w>
su m</w>
st án</w>
smu cʼu
sinti eron</w>
sin cero</w>
sal mo</w>
sa cu
s mil
s k
publi ka
pres encia</w>
predic amos</w>
p á</w>
oper ación</w>
o pi
nis án</w>
mi ra</w>
kux inik</w>
ki kʼtik</w>
jxiʼ tik</w>
jtal eltike</w>
jnopoj eletike</w>
jchajpan tik</w>
jaʼ laj</w>
j tij
emerg encia</w>
desa fí
da ñ
cre ían</w>
com enta</w>
c ía</w>
c en</w>
br il
ar repi
angusti a</w>
TRA R</w>
S on</w>
REVI SITA</w>
R ober
M in
I N</w>
Eun ice</w>
D é
- 3</w>
í do
é ni
yichʼ xan</w>
x cu
volu men</w>
vi erte</w>
v ini
toj ol
to me</w>
tien da</w>
tay bil</w>
tar los</w>
t reinta</w>
swok olike</w>
super ior</w>
stsa kik</w>
snichʼna bike</w>
skʼan e</w>
señ as</w>
salv ar</w>
s pox
reliji onetik</w>
religi osas</w>
posi tivo</w>
pi ente</w>
o te
o fici
ni jkel</w>
na hil</w>
muestr e</w>
medi das</w>
lad r
jnop tikxan</w>
jmulawil otik</w>
in esper
in c
i ra</w>
honr ar</w>
h arán</w>
estudi os</w>
estu vieron</w>
de bili
dar é</w>
cru el</w>
con tigo</w>
c adas</w>
bo ca</w>
be d</w>
ayu d
awi p</w>
aw o
as co</w>
ant ó</w>
ali sta</w>
aj ojkʼoy
agradec emos</w>
a ju
S A</w>
Qui z
Pat terson</w>
O J</w>
No sotros</w>
Le k</w>
KʼAYOJ IL</w>
KʼA X</w>
I m
Fil em
Elisab et</w>
E Z
Ch ik
BE Y</w>
A qu
A B
3 000</w>
14 6</w>
1 31</w>
yoʼtan uk</w>
xlaj ix</w>
utili za</w>
tsil kʼop
trabaj ando</w>
spa mal</w>
sopor tar</w>
snop jibal</w>
smu lin</w>
smu k</w>
si entan</w>
servi rme</w>
s amente</w>
refer irse</w>
r em
polí ticos</w>
person ales</w>
per la</w>
orden ó</w>
nombr ado</w>
nojptes wanej</w>
ne g
na xbal</w>
li ter
israeli ta</w>
in ej</w>
i rán</w>
fu ente</w>
ex tranj
esta ría</w>
esia se</w>
encuentr an</w>
don ate
donate jworg</w>
doc toretik</w>
deci rle</w>
de z</w>
cr í
com unidad</w>
com pli
clar idad</w>
cham en
car ac
can s
cab al
bon dad
ay otikix</w>
awi jki
ale gra</w>
adon de</w>
ace ite</w>
a de
W all
U zías</w>
Testig o
SE ʼ
PUE DE</w>
P ol
N unca</w>
M esiase</w>
I MA
G abri
C R
BID EO</w>
B us
AL E</w>
è le</w>
xlaj otike</w>
x tojobtes
vi van</w>
ven drá</w>
vali osas</w>
v i</w>
u kix</w>
tri ste
tor ia</w>
ta j</w>
t era</w>
su e
spaso tik</w>
snop ele</w>
smele li
smam lal</w>
sjojkʼo y</w>
sion e</w>
sent í</w>
sbi ilik</w>
sal mista</w>
resuci tar</w>
repu tación</w>
pron unci
prekur sor</w>
ok ol</w>
neces arios</w>
man á</w>
kʼo tuk</w>
kʼa t</w>
kil l</w>
jtsʼi n</w>
jts atik</w>
jpas kotik</w>
jchʼ ik</w>
j ese</w>
in sul
ic amente</w>
fa ci
esforz arnos</w>
cumpli endo</w>
co se
ci eron</w>
car re
camin os</w>
be teli
ba se</w>
at sum</w>
articu loetik</w>
apa si
am ado</w>
ac tos</w>
Ti ro</w>
T ES</w>
Su r</w>
SAL MO</w>
MUKʼU L</w>
M il
M I</w>
LU CAS</w>
Kol taya</w>
K en
IMA G
Ayu kme</w>
20 0</w>
14 3</w>
1 36</w>
É S</w>
ya ku
xkoltay wan</w>
vi ento</w>
ven tan
tsʼunu bil</w>
triste za</w>
tes wanej</w>
tes or
tecn ología</w>
te tic</w>
sobrevivi r</w>
smu l
segur amente</w>
schʼuun bey</w>
sa grado</w>
s ale</w>
ro manos</w>
resuci tó</w>
ref lexi
ra to</w>
r r</w>
pʼi ju
presenta ciones</w>
pres entó</w>
pon gamos</w>
pens ó</w>
patan etik</w>
pare zca</w>
o fr
nop a</w>
name ye</w>
médic os</w>
mon ta
lí mi
lu me
le lik</w>
jnaʼ oj</w>
in stal
herrami entas</w>
ha ci
h el</w>
forma to</w>
ent retenimiento</w>
encar gó</w>
en das</w>
ed ra</w>
distri to</w>
cuar enta</w>
confi able</w>
con segui
comple ta</w>
com puta
chapbil kʼop</w>
capi tal</w>
bá s
bi x</w>
besti a</w>
ay xan</w>
apas ik</w>
am ables</w>
adul tos</w>
a kʼop</w>
a chʼuun
Wall kill</w>
Ti ene</w>
S of
S PI
Re pública</w>
PRO F
Jeho ás</w>
JO B</w>
J te
J nop</w>
J T
ENSEÑANZ A</w>
Di o
AP O
A un</w>
A LI
yakʼoj bey</w>
y eʼ
yeʼ tal</w>
x ta
viaj ar</w>
v í</w>
tsʼ ajkʼ
ta das</w>
su pli
spas beyik</w>
sla b</w>
si ka</w>
sencil lo</w>
schʼuun ojik</w>
r esta
publi k
pri mi
pre cio</w>
podr án</w>
po j
pe dia</w>
pas aron</w>
pa jibal</w>
os amente</w>
or arle</w>
oj p
o il</w>
nail al</w>
multi tud</w>
mo s
misericor di
mi sión</w>
lo ti
l ale</w>
kʼaxem toxan</w>
jti empo
jku y</w>
jba kotik</w>
i t
i ría</w>
i pal</w>
hist ór
hermo so</w>
gener oso</w>
fí sica</w>
fu imos</w>
fi de
famili aetik</w>
extr em
esta rán</w>
escuch ó</w>
es píri
er la</w>
er ia</w>
cre ar</w>
contin ú
const antemente</w>
comple tamente</w>
chap al</w>
chajpan bil</w>
ch ay</w>
c yclo
bo te</w>
bar ro</w>
ba il</w>
b tes</w>
arri ba</w>
ade cu
a segura</w>
N ab
KʼA JKʼ
KʼAJKʼ AL</w>
Ju lukme</w>
H asta</w>
En cyclo
Ch aj
C lau
Ba al</w>
B il
Ale x
AM OR</w>
A ri
A c
4 ,000</w>
3 9
1 29</w>
z onas</w>
xkʼo txan</w>
x luj
w axak
uni ón</w>
u r</w>
ts aj</w>
sts ʼi
st sob
spu kik</w>
skʼan el</w>
se as</w>
res isti
re be
prov echo</w>
pari entes</w>
pa kʼ
pa cí
pací fic
or no</w>
obo am</w>
ni ña</w>
mu tetik</w>
mon ía</w>
mon te</w>
llam ar</w>
leg al</w>
kʼin etik</w>
ju día</w>
jpas beytik</w>
jko leltik</w>
ji ke</w>
j kʼo
in ik
ijkʼi tayel</w>
haʼ at</w>
ha z</w>
g as
g aba
filiste os</w>
expres ar</w>
ens a</w>
dor as</w>
domin io</w>
disponi ble</w>
diri gir</w>
devo ción</w>
destru ir</w>
dese amos</w>
des per
cʼ oh
cump le</w>
cor re
con serv
chuk ojibal</w>
chu kul</w>
ch ola</w>
bol kʼop
bin xan</w>
ba st
aver igu
ases in
asegur ó</w>
arr oj
am ali
ad op
U L</w>
Testig oetike</w>
TA R</w>
Pens emos</w>
H an
Gabri el</w>
Ev ae</w>
B au
Akʼ beya</w>
A nu
ʼ TAY
óli co</w>
éni to</w>
én dice</w>
ÍCU LO</w>
y ermano
x yichʼ</w>
x yal
v enta
v ar</w>
tro pe
trabaj adores</w>
tes bey</w>
stikun ik</w>
st oetik</w>
spaso je</w>
skoltay ejon</w>
ser ían</w>
sal ón</w>
sa kal</w>
regu lar
refu gio</w>
re cursos</w>
ra za</w>
quiz á</w>
qu em
pi edra</w>
oj bal</w>
nail uk</w>
muri eron</w>
mu e
mem oria</w>
lan el</w>
kʼo n</w>
kʼay oj</w>
jts ʼiba
jnojptes tik</w>
j on</w>
j elel</w>
invi te</w>
influ encia</w>
ic a
i de
hacer le</w>
for m
fin almente</w>
esper amos</w>
ej el</w>
dr án</w>
do ma</w>
diri ge</w>
cuar to</w>
conoc erlo</w>
co lo
chʼultes bil</w>
chʼi el</w>
celebr ar</w>
b lemente</w>
auto control</w>
aso mbr
ap éndice</w>
anc la</w>
ama bilidad</w>
aj chʼ
YI CHʼ</w>
T ÍCULO</w>
Su curs
So doma</w>
O BTES
NA ʼ
Min ister
M ej
LA ʼTAY
L aj</w>
Filem ón</w>
F in
EZ E
Ca ín</w>
CH ʼI
AR TÍCULO</w>
A C
5 000</w>
2 40</w>
1, 0
yulaʼ tayik</w>
xmantal aj</w>
wokoli letike</w>
w e
vol vieron</w>
uk ik</w>
tr as
tojobtes eletik</w>
ter io</w>
t alidad</w>
super vi
stan cia</w>
snopo jik</w>
smaliy ele</w>
sjel on
sim b
si o</w>
schʼuun oj</w>
schʼichʼ el</w>
sch ik
r ol
qu il
pi dieron</w>
peri odo</w>
pec adores</w>
past or</w>
p in
op inan</w>
o kʼ
mukʼ ik</w>
ministeri al</w>
man do</w>
man anix</w>
malv ado</w>
m abal</w>
líne a</w>
jteb nax</w>
jokin tik</w>
jkʼopon tike</w>
jkoltay beytik</w>
jkanan tay</w>
je fe</w>
j puk
j chʼuun</w>
in te
il bal</w>
hábi tos</w>
hi jas</w>
g ana</w>
exac tamente</w>
ex ig
er los</w>
encar cel
empi eza</w>
edi ficio</w>
dro ga</w>
descubri r</w>
der ía</w>
der nos</w>
demo strado</w>
dej an</w>
dej amos</w>
dedic ar</w>
de presión</w>
d ne
cigar ro</w>
chʼ ojel</w>
chan chajp</w>
cha el</w>
bi ta</w>
bi o
aw aʼ
as te</w>
alab ar</w>
a chʼ
W arw
ST E
S KOLTAY
S AM
PAR TE</w>
P O
N ic
Mi chael</w>
Ma estr
LE K
Jte b</w>
Gri e
Estudi antes</w>
D ice</w>
Bi ble</w>
AʼI Y</w>
Anti gu
Ani me</w>
AL GUN
3 ,000</w>
1 14</w>
yi pal</w>
yakʼo jik</w>
ve o</w>
val ores</w>
utili zar</w>
un il</w>
tu vieran</w>
ts alel</w>
tien do</w>
ti tu
tes oro</w>
temp or
st oj</w>
snaʼi c</w>
slajin bey</w>
sjok inel</w>
simp lemente</w>
sT at</w>
s adu
recuer do</w>
re presenta
re conocer</w>
pri sion
prepar ados</w>
pre di
person ajes</w>
pel í
mam alu
mam al
m í
lleg an</w>
li sto</w>
kʼax ix</w>
ker eme</w>
judio etike</w>
jtakʼin tik</w>
il to</w>
ho bo
hobo am</w>
g al</w>
estre llas</w>
espíri tus</w>
dic o</w>
des anima
de por
de fec
cualqui era</w>
confi aba</w>
colab or
chaʼ kuxaj</w>
cas ados</w>
car taetik</w>
ca p
bi de
ber si
bautiz ados</w>
av an
aqu ellas</w>
apo yan</w>
anci anoetike</w>
a chʼu
Re hoboam</w>
Mo ab</w>
H ist
H az
Gra cias</w>
F or
Esta s</w>
ENT O</w>
EN CON
Deb emos</w>
D escu
D am
D OS</w>
CI A</w>
4 8
3 7
1, 3
1 37</w>
ído los</w>
ÓN IC
yu ʼ
yu chʼ</w>
yi h
yan tic</w>
xtal uk</w>
xnoptsaj otik</w>
xchi e</w>
x naʼ
x jilik</w>
w 19
vi das</w>
uestr o</w>
tu hl</w>
tsa kot</w>
trabaj os</w>
tra te</w>
tan il</w>
ta ble</w>
suj ton</w>
sto y
stej kʼan</w>
snu kʼel</w>
smu lik</w>
smu le</w>
s ara</w>
roman oetik</w>
recuper ar</w>
recor dó</w>
reci b
rebi sita</w>
pʼaj el</w>
proyec to</w>
preocupa ciones</w>
po dido</w>
permi ten</w>
p lan</w>
oj otik</w>
music al</w>
much a
maravillo sas</w>
lu cha</w>
lokʼomba e</w>
ll orar</w>
lec cion</w>
kʼo emik</w>
koltay ele</w>
k m</w>
jmulan beytik</w>
jlu mal
j toy</w>
incl in
ic ana</w>
ha go</w>
h aremos</w>
gl ori
fo to
ex i
er me</w>
envi aron</w>
entr ó</w>
ent ales</w>
en temente</w>
ele v
deci dí</w>
cuʼun tic</w>
cometi ó</w>
co bre</w>
chaʼox pʼ
chaj puk</w>
c ay
br azos</w>
b xan</w>
awuʼu nik</w>
au dio</w>
atoj ole</w>
ar las</w>
apari encia</w>
an ile</w>
amb os</w>
alcan ce</w>
agradeci miento</w>
acercar se</w>
a kom</w>
a con
YAN TIK</w>
Warw ick</w>
TOJ OBTES
SPI SIL</w>
S í
RE G
Quiz ás</w>
Pas axan</w>
KʼUX UL</w>
JBA TIK</w>
JA ʼ</w>
IMAG EN</w>
Grie gas</w>
Est os</w>
Dam asco</w>
Cal eb</w>
CAM BI
C RE
C OS</w>
BI L</w>
Anu ario</w>
ÓNIC AS</w>
yuʼuni c</w>
yo bal</w>
yi x</w>
xbe en
x jel
wentain wanej</w>
us amos</w>
trabaj an</w>
tr ás</w>
ti kʼuk</w>
testigo otik</w>
ter cera</w>
t hu
sts al</w>
spisi lic</w>
solu cion
so l</w>
snichʼ ane</w>
se j
sch an
reaccion ó</w>
qui eran</w>
prácti cos</w>
prem o</w>
precurso rado</w>
per segui
pec ador</w>
pakʼ al</w>
otses el</w>
org e</w>
on ike</w>
on ar</w>
obe diente</w>
o m</w>
na ció</w>
mili tar</w>
loc ales</w>
lleg ará</w>
li stos</w>
lamal uk</w>
l on
kux ul
koʼtan kotik</w>
kom el</w>
kakʼ bat</w>
joʼ otik
jel tay</w>
inter net</w>
in acti
grab ar</w>
genti les</w>
famili ae</w>
ex pul
esti lo</w>
esper ando</w>
esp ías</w>
esfuer zan</w>
envi ado</w>
el nax</w>
el as</w>
e v
destru ido</w>
der ram
der echos</w>
deci dieron</w>
de trás</w>
d on</w>
contes ta</w>
con for
comen tari
cla ve</w>
cion ario</w>
bey kotik</w>
au tom
ap ʼi
antigu a</w>
am am
aba cuc</w>
U LAʼTAY
Tu r
S alu
S CHʼUUN
QUI EL</w>
Publi cación</w>
PR E</w>
OJ P
N CI
H abacuc</w>
EZE QUIEL</w>
EST O</w>
Des de</w>
BA YAL</w>
B LE
5 ,000</w>
é tica</w>
z ados</w>
yutsʼin otik</w>
yotses el</w>
xmantaltes wan</w>
x weʼ
wi ts
ts ʼun
tradu cir</w>
toj el</w>
tik il</w>
tar me</w>
t y</w>
sw entan
sti jel</w>
sta tik</w>
smulan e</w>
smu cʼul</w>
smakʼ lin</w>
servi mos</w>
sec cion</w>
sadu ce
s bolob
ren unci
r ó</w>
r en</w>
pi den</w>
pas ará</w>
p es</w>
p ción</w>
ofreci ó</w>
o ye</w>
o th
o ik</w>
neces arias</w>
men or</w>
lágri mas</w>
lum kʼinal</w>
l ol</w>
kʼux at</w>
ku j</w>
ko lele</w>
k am
jtiempo tik</w>
jpa pa</w>
jchol bey</w>
j sitik</w>
gar anti
g oetik</w>
fu ri
fa z</w>
ez uela</w>
exper tos</w>
en tamos</w>
edi fic
do y</w>
demostr aron</w>
deci de</w>
cui dar
conoc emos</w>
ci entific
carac ter
bayal uk</w>
auxili ar</w>
apropi ado</w>
al oj
ajkʼ nax</w>
ah or
adver tencia</w>
abaj o</w>
a chajpan</w>
Y ijkʼitayel</w>
Ven ezuela</w>
ULAʼTAY WANEJ</w>
TOJOBTES EL</w>
T emplo</w>
T ER
Sucurs al</w>
Servi cio</w>
PRI NCI
M ero</w>
H al
Eli faz</w>
ENCON TRAR</w>
EN S
Di jo</w>
D ej
CR ÓNICAS</w>
CAN CIÓN</w>
An anías</w>
AW OʼTAN</w>
A wokoluk</w>
3 0
ó v
z eltal</w>
z adores</w>
yil ay</w>
xlokʼo tik</w>
xi letik</w>
x pu
wokol niwan</w>
ven ido</w>
ti fic
territori os</w>
tay ele</w>
st en</w>
skʼayin beyik</w>
se creto</w>
sbankil tak</w>
salv aje</w>
s mantale</w>
relacion ados</w>
rechaz ar</w>
re un
re conoció</w>
qʼu in
pueb los</w>
profes or</w>
prof un
po xiletik</w>
perfec ción</w>
pele ar</w>
oí do</w>
or emos</w>
ofici al</w>
o este</w>
nop tsaj</w>
neutr ales</w>
n ica</w>
mencion an</w>
materi al</w>
mal aj</w>
ma tarlo</w>
le t</w>
laj emik</w>
kʼases bil</w>
kristi anoetik</w>
jkʼu lej</w>
j pej
j lekub
in te</w>
in justicia</w>
im presión</w>
i as</w>
gobern antes</w>
g ante</w>
fu ér
fi estas</w>
f echa</w>
espo sas</w>
espiri tismo</w>
er ta</w>
emp o</w>
edi ficios</w>
eb to</w>
e pi
dé bi
du ra</w>
dor mir</w>
domin go</w>
di ción</w>
dej emos</w>
dedic arse</w>
decep cion
deber ían</w>
d ón</w>
d ra
cu ra</w>
con so
ch es</w>
ch ebaj
ch e
cel ular</w>
ay nanix</w>
ay laj</w>
aw acʼ</w>
au t
ani smo</w>
ani bal</w>
am érica</w>
al uk</w>
al la</w>
ai re</w>
afir ma</w>
acon te
ach aʼulaʼ
a por
a k</w>
a i</w>
a f
YA LIK</w>
T zeltal</w>
T ra
Sí sara</w>
So lo</w>
RO MANOS</w>
Pi ense</w>
OJP TES
M ad
F AM
FAM ILI
D EMOS</w>
Chaj p
An dr
Am ós</w>
A bel</w>
4 7
1, 000</w>
1 17</w>
z ones</w>
yil in
xkʼo tix</w>
x chʼuun
vivi rán</w>
ve inte</w>
v ayan</w>
tu mba</w>
tra tamos</w>
ter cer</w>
sweʼ ik</w>
sweʼ elik</w>
swentan ax</w>
super iores</w>
skoltay onik</w>
satisf acción</w>
salv ó</w>
ri os</w>
religi oso</w>
re z</w>
pro ceso</w>
prepar ó</w>
pi ro</w>
pens ado</w>
pekʼ eluk</w>
pej kʼaj</w>
past ores</w>
pas aba</w>
oʼ on</w>
obedec emos</w>
ob e</w>
o z</w>
o to</w>
nega tivos</w>
na cido</w>
n er
monta ñas</w>
matrim onios</w>
j bi
invi tar</w>
ilu vio</w>
hall ar</w>
gr aba
ex presiones</w>
empa tía</w>
ele gido</w>
e tí
di gan</w>
des obedeci
dedic ado</w>
cumpli do</w>
cre cimiento</w>
cre cer</w>
congrega cione</w>
confi ables</w>
com ba
cin cuenta</w>
ch ino</w>
ca ciones</w>
bus que</w>
bi ili
bendi cionetik</w>
ata t</w>
antigu os</w>
W al
Tsa a</w>
To do</w>
T on
Ste ph
Pu erto</w>
Pe ter</w>
N OJPTES
Mari ae</w>
Man as
Jeo ba</w>
In dia</w>
F IC
D iluvio</w>
Bala am</w>
Ayu k</w>
20 23</w>
14 2</w>
y ile</w>
xlaj otik</w>
xkʼax ik</w>
xkoltay wan
vesti r</w>
val oramos</w>
uni ke</w>
und amente</w>
tra taba</w>
tik lam
ti n</w>
thu r</w>
t se
swenta inel</w>
stsaj tayel</w>
solu ción</w>
skʼan botik</w>
sjo y</w>
sjajchi bale</w>
ser piente</w>
sNichʼ ane</w>
s religi
s enten
rápi damente</w>
prof undamente</w>
prepar arse</w>
pedi mos</w>
padr en
padren uestro</w>
orgullo sos</w>
ol óg
obedec en</w>
noti cia</w>
mé todos</w>
máqu ina</w>
medi os</w>
lleg amos</w>
l lu
ju e
jtsaj tay
jnopoj tik</w>
jkʼ ab
j talel</w>
j pʼijubtes
interes es</w>
il pakʼ</w>
hier ro</w>
hablar les</w>
h er</w>
grie ga</w>
g ü
g ón</w>
g ía</w>
f i</w>
ex actitud</w>
escri tos</w>
es cal
ej an</w>
e vangeli
direc tamente</w>
defen der</w>
de partamento</w>
cʼu xul
cri ti
cri sis</w>
chamen ic</w>
car ri
bendi sionetik</w>
ba tsʼ
ba e</w>
aw on</w>
anal icemos</w>
an dar</w>
agr ada</w>
ador arlo</w>
achʼi xetik</w>
acci dente</w>
T ri
Se de
S M
Ne w</w>
Minister io</w>
Manas és</w>
Jesucri stoe</w>
JE L
Gre cia</w>
E se</w>
Descu bra</w>
Ar thur</w>
Antigu o</w>
An al
Al l
ALGUN OS</w>
2, 0
10 9</w>
1 28</w>
1 25</w>
z il
yichʼ oje</w>
yal ojix</w>
yal oj
yakʼo tik</w>
x ma
x kolik</w>
weʼ eli
vuel va</w>
versicu lo</w>
ve y</w>
u s</w>
trai cion
terr án
t ón</w>
t ol
swenta ile</w>
suy os</w>
sufri mos</w>
sufr e</w>
su h
sna e</w>
skoltay bey</w>
senti rnos</w>
re ún
razon able</w>
r ías</w>
pʼaj awe</w>
pí dale</w>
preocu par
orgullo so</w>
necesi te</w>
mir ar</w>
ministeri ales</w>
mil aw</w>
me le
m bo
le r</w>
lan u
l ace</w>
kuxin em</w>
ku x</w>
jkʼop tike</w>
jaʼ ix</w>
invi ta</w>
in oc
in cu
im pedir</w>
il es</w>
ho n</w>
gener osos</w>
filiste oetik</w>
enci al</w>
ele kʼ</w>
diseñ o</w>
discurso etik</w>
de li
cuenta s</w>
cu este</w>
cu entan</w>
cu ales</w>
correg ir</w>
comp lej
come ter</w>
cion al</w>
ci bi
caracter ísti
can al</w>
cal or</w>
ca paces</w>
c tor</w>
bo tic</w>
bo j</w>
ayi kix</w>
awijki tay</w>
asu sta
am able</w>
ali la</w>
al ter
aj o</w>
afir man</w>
ac el
a h</w>
a chʼuun</w>
Yo ur</w>
W ikʼ
Uni das</w>
UM EN</w>
T ar
Salu d</w>
Sal mos</w>
SE RI
RES UMEN</w>
R ico</w>
Pu kuj
Pol onia</w>
PROF UN
PRINCI PI
Na amán</w>
N ig
Mar ie</w>
Ma g
Lo gros</w>
Ja i
I mi
Har vey</w>
HAC ER
H ich</w>
Gu ía</w>
G RA
En tr
ES TA</w>
D alila</w>
Bar zil
1, 8
Ñ O</w>
yal atak</w>
yakʼ e</w>
yaba kul</w>
xbe en</w>
x oj
x chajpan
trope zar</w>
tem aetik</w>
ta kike</w>
t cotic</w>
su elen</w>
sti empo
spʼi jilik</w>
snopi ke</w>
sma kotik</w>
slaj inik</w>
skʼop ike</w>
skʼaxun taybeyik</w>
skoltay oj</w>
skanan tay
sjo yobal</w>
sban kil</w>
sKʼ ope</w>
s puk</w>
resisti r</w>
res e</w>
re du
r ás</w>
que x</w>
pre para</w>
perman ecer</w>
peri ó
o so
o li
o juk</w>
na b</w>
mens ajes</w>
maʼ ba</w>
majtan iletik</w>
m ari
lí der</w>
lar á</w>
lar ga</w>
ka t
k sion</w>
jnop tike</w>
jmul awil</w>
jich nax</w>
influ ir</w>
in idad</w>
in forma
in bi
hubi eran</w>
ha hch</w>
fí jese</w>
fortale ció</w>
fer encia</w>
faci lidad</w>
enter ó</w>
em presa</w>
débi les</w>
descri be</w>
depen de</w>
cubri r</w>
costumbre etik</w>
cora zones</w>
condi ciones</w>
con mo
con fía</w>
comen tar</w>
co sta
chaʼkuxaj ele</w>
ch as</w>
cat ólica</w>
bon e</w>
aw ili
ar monía</w>
apren de</w>
an opoj</w>
al aj
ac as
a territorio</w>
a kʼope</w>
a is
Y AKʼ
X I
U EL</w>
Sede quías</w>
Sch ebal</w>
ST O</w>
SI S</w>
SAM UEL</w>
S BA</w>
Rober t</w>
Re paso</w>
Pukuj e</w>
Pu lem
O LEL</w>
L au
Jo safat</w>
Jo el</w>
Jich nix</w>
FOT OETIK</w>
FI CI
DISCURS OS</w>
Cristi anas</w>
C at
ín ci
yotses ik</w>
yamigo inik</w>
xkuxin at</w>
xiʼ ik</w>
x kʼayoj
x jin
visi tas</w>
u fra
términ o</w>
tsʼih ba
tig ü
ti sta</w>
ti pos</w>
ten gas</w>
sujti be</w>
su i
sui ci
skʼ unil</w>
skontra in
si oetik</w>
señ ala</w>
sali eron</w>
s pej
s p
s kerem</w>
s cuenta
re emp
re conoce</w>
prof esi
pi edr
piedr as</w>
permi ta</w>
per í
peque ñas</w>
peligr os</w>
par cial</w>
ocrá tica</w>
mu sika</w>
mo da</w>
minu to</w>
ministr os</w>
menti ra</w>
mencion ado</w>
mand amientos</w>
lv ania</w>
loti letik</w>
limi taciones</w>
kar ro</w>
kan an</w>
jku ytik</w>
j lokʼ
interes ante</w>
inten tó</w>
il la</w>
i w
histori as</w>
habl aban</w>
go g</w>
fo men
er ún</w>
en vej
ejer ci
ejemp lares</w>
e kʼetik</w>
dej ará</w>
d ero</w>
consol ar</w>
compañ ías</w>
cientific oetik</w>
chan tul</w>
ch os</w>
capaci tación</w>
bre ve</w>
bor ra
bio grafía</w>
bier to</w>
asig n
apa so
ansi ano</w>
an dando</w>
amen az
alg uno</w>
akʼ an
ajchʼ al</w>
agrad able</w>
ad virtió</w>
actu al</w>
acep tado</w>
W entain
Tr ac
SKʼOPL ALE</w>
SCH OLEL</w>
S ad
PROFUN DIC
PROFUNDIC EMOS</w>
P AS</w>
On é
MÁ G
MÁG ENES</w>
Mi ra</w>
Ma gog</w>
M er
Lec tura</w>
Ju ane</w>
J obe</w>
J ilbal</w>
J UN
I con
I MÁGENES</w>
G O
Cam erún</w>
C entr
BEN E
B RE
Aʼ T
All í</w>
AW IL</w>
AP AS</w>
200 3</w>
ólo go</w>
yaʼiyi ke</w>
yaʼbil ale</w>
xwentain wan</w>
x loʼlay
vi va</w>
ts ah
tra taron</w>
tay ojik</w>
tan te</w>
sí mbo
sufri do</w>
sue ños</w>
str ación</w>
sor presa</w>
snaʼu lan</w>
sma h
se cre
s al</w>
ren di
reemp la
recompens a</w>
reba ño</w>
r íamos</w>
qʼu ic</w>
public ado</w>
produ cir</w>
prim eras</w>
pres enta</w>
pregun tan</w>
predic ó</w>
pon emos</w>
polí tico</w>
pol vo</w>
pobre za</w>
plan e
nu mer
ner vi
minu tos</w>
m bil</w>
llev aban</w>
le el</w>
le cu
kʼo otik</w>
ki p</w>
kaj al</w>
j koj
is mo</w>
invi tó</w>
inmor ales</w>
in s
in aetik</w>
il lo</w>
hi n</w>
her encia</w>
gan se</w>
fra g
fide lidad</w>
exist encia</w>
etí ope</w>
estudi anteetik</w>
estr ic
esco ger</w>
es par
encan taba</w>
em at</w>
di ario</w>
desta ca</w>
del incu
defen der
de u
cʼ oht</w>
cristi anismo</w>
compañ ía</w>
chambalam etike</w>
c aʼ
c aban</w>
bil nax</w>
bar coetik</w>
b ora</w>
ayin on</w>
awuʼuni ke</w>
awaʼiy ik</w>
aw okol</w>
aw anik</w>
ati va</w>
an uk</w>
am pli
agu as</w>
agradeci do</w>
adolesc ente</w>
aba tetike</w>
a za</w>
Uste d</w>
Ten emos</w>
T R
Sal v
SM ELE
SKOLTAY OTIK</w>
SERI E</w>
L ab
K i
Je hú</w>
Jaʼ me</w>
Icon io</w>
F U
Escri ba</w>
EJ EMP
D u
Chik an</w>
CAMBI Ó</w>
Ben jam
As amb
A geo</w>
14 8</w>
1, 9
án ico</w>
xkʼ ex
xjin awan</w>
x jajch
ven ida</w>
un tes</w>
trata miento</w>
tigü edad</w>
terrán eo</w>
tel es</w>
tek stoetik</w>
tar les</w>
stʼun beyik</w>
snop e</w>
snichʼ nabe</w>
smeleli luk</w>
skoltay otike</w>
sju ltes</w>
senta do</w>
sem br
schʼu um
schʼ ay
schik naj
sal vo</w>
sal va</w>
sacri fic
responsab les</w>
respe tamos</w>
res er
religi onetike</w>
ra c</w>
qʼuin ale</w>
pr eso</w>
po j</w>
parec en</w>
pan el</w>
pa xi
pa pá</w>
p ó</w>
oh lol</w>
moso inel</w>
mar ca</w>
logr ará</w>
laj chay
kʼay em</w>
jyan lume
ju ec
jtu untes</w>
jts altik</w>
jtoj ole</w>
jnichʼnab tik</w>
jmul awi
jchʼi el
j chameletik</w>
iw án</w>
ic ʼ</w>
hospital arios</w>
histori ador</w>
hermo sa</w>
herman dad</w>
habi tada</w>
ha ʼ</w>
h un
go e</w>
for man</w>
f as
equilibr ado</w>
envi ar</w>
di dos</w>
dese aba</w>
defec tos</w>
cur ó</w>
cui dad
cre emos</w>
confi ó</w>
comen cé</w>
com entó</w>
col or</w>
chʼay em</w>
chopo lik</w>
can o</w>
c alidad</w>
bien estar</w>
bi ern
bey elxan</w>
be le</w>
ba te</w>
aw ile</w>
ari amente</w>
an tigüedad</w>
amor oso</w>
Wentain ele</w>
Ta iwán</w>
Steph en</w>
Salv ador</w>
Sad rac</w>
SE R</w>
Re cuer
Per sia</w>
O li
Nig eria</w>
Na ilpakʼ</w>
Mi q</w>
Mes ac</w>
Li dia</w>
Le v</w>
LE KIL
H on
H ol
FIC A</w>
Es tamos</w>
E m
Dé bora</w>
Dani ele</w>
D or
C ho
Asi ria</w>
Alex an
4 9
200 6</w>
2 2
10 8</w>
yaʼ tel
x yal</w>
x awaʼiy</w>
vuel ta</w>
tu vimos</w>
tsʼajkʼ etik</w>
tr en</w>
to mado</w>
tik nax</w>
ta yaw
ta miento</w>
sufri ó</w>
su ele</w>
stsa el</w>
soci al</w>
smulan el</w>
sloʼl ay</w>
sjach ik</w>
sja p
sja kʼ
sas erdo
s ik</w>
re comen
r icos</w>
qʼu e
pʼijubtes ele</w>
poni endo</w>
poli cía</w>
perfec tos</w>
pa e</w>
op ina</w>
och emik</w>
nombr ó</w>
mé todo</w>
mor al</w>
min a</w>
mantal teswanej</w>
loʼl ayel</w>
llev amos</w>
llegu en</w>
le e</w>
l i</w>
kʼ ex
ju ram
jojkʼoy eletike</w>
jmul tike</w>
jmali y
jkanan taytik</w>
j chʼu
in un
i z
i jkʼ
hor ario</w>
ho gares</w>
ha h
gusta ba</w>
fin ales</w>
estre cha</w>
espiritu alidad</w>
escuch e</w>
ent ía</w>
enseñ ando</w>
engañ ar</w>
encar gado</w>
en o</w>
emo ciones</w>
e dades</w>
dé cadas</w>
div or
disponi bles</w>
crey entes</w>
consi dera</w>
concentr ación</w>
compa sivo</w>
aʼba tin
ayi ch
aw ulaʼ
avi dad</w>
ar que
ami ga</w>
am en</w>
ab og
a tsʼiba
XC H</w>
W IN
Tsoblej e</w>
TZ O
TZO XCH</w>
TI OS</w>
S pisi
Ru b
Ma u
MI ENTO</w>
LI P
LE V
L es
L AN
Kʼ ax
Kʼ IN</w>
K ar
Jay eb</w>
Imi temos</w>
Fu e</w>
F echa</w>
D ar
Cor al</w>
COR IN
C ada</w>
Bel sas
Al ab
ANT S</w>
A naʼ
A YI
4 00</w>
ín ese</w>
z ador</w>
yaʼiyi c</w>
xyal otik</w>
x chʼi
ven ci
tu a</w>
tra erá</w>
ter os</w>
t ían</w>
t onetik</w>
swentain oj</w>
sw inik
suj el</w>
stʼun el</w>
st ria</w>
spa kol</w>
solici tud</w>
skontra inotik</w>
ser io</w>
se ksion</w>
scʼ opon
schʼu j
sch ebaj
sbi lu
revista etik</w>
ren o
religi osa</w>
quier es</w>
pro mo
pregun t
person almente</w>
pas aje</w>
pas ados</w>
pan ax</w>
p lo
oth er</w>
ol xan</w>
oj ikix</w>
observ ar</w>
nue ve</w>
mukʼu k</w>
much edu
maravillo sa</w>
man tiene</w>
mal mente</w>
limpi o</w>
lf fi</w>
le x</w>
laj in
l ados</w>
kub el</w>
jun uknax</w>
jtu l
jta beytik</w>
inmor al</w>
indic an</w>
in st
imperfec ción</w>
il las</w>
il bil</w>
ikʼ e</w>
ik nix</w>
ichʼ a</w>
i x
hici mos</w>
h tic</w>
h e
gra tu
gra cia</w>
go al</w>
f ar
eter nidad</w>
esforz arse</w>
emocion ante</w>
elimin ar</w>
eli gió</w>
el oj</w>
egip cios</w>
e h
dur os</w>
descu bierto</w>
desafí os</w>
des ti
der ro
dej é</w>
de volver
cu las</w>
cre ciendo</w>
conoci dos</w>
comien ce</w>
co mand
co br
ci mientos</w>
chu ku
chebaj em</w>
chaʼkuxaj emix</w>
cer ebr
ca í
c á
beya hic</w>
ar ra
ajwali letic</w>
ador an</w>
a bik</w>
Y aniwan</w>
TU LO</w>
T ro
Sau le</w>
PRINCIPI O</w>
OR IA</w>
Nuestr o</w>
No panax</w>
N O
Mal ta</w>
Le kub
Lab án</w>
LIP SIS</w>
K ir
K akʼ
Je lon
J aj
G R
ENS ES</w>
E stoy</w>
Dani èle</w>
D a</w>
CORIN TIOS</w>
CA LIPSIS</w>
B ay
APO CALIPSIS</w>
AN DO</w>
A LES</w>
6 7
5 8
1, 6
ándo los</w>
y amik
w ay
utili zó</w>
transfu siones</w>
tradu cciones</w>
tom amos</w>
ti tulo</w>
tesor os</w>
tar la</w>
tal ele</w>
sw ohlol</w>
sts ʼu
stij bon</w>
spʼaj el</w>
spas em
sjo y
sirvi ó</w>
si ble</w>
sej p</w>
scʼ ab</w>
samaritan o</w>
s nam
s lokʼesel</w>
rom p
ri es
reuni rse</w>
res i
reci én</w>
re quisi
requisi tos</w>
progres ar</w>
posi bilidad</w>
pl acer</w>
perí odo</w>
pa piro</w>
oco lic</w>
o ma</w>
o k</w>
nu tsel</w>
na do</w>
mer cado</w>
manda tos</w>
man tuvo</w>
man da</w>
majtʼ an</w>
mah tanil</w>
llam an</w>
l la
kʼa b</w>
kontra in
kalbey tikix</w>
k amig
kamig otik</w>
isra el</w>
invi tados</w>
h cʼ
h ayamos</w>
gu stan</w>
gan da</w>
frag mento</w>
expli cación</w>
esper an</w>
escri tores</w>
escla vi
encontr aron</w>
empo e</w>
económ icos</w>
dó lar</w>
descri bi
der echa</w>
de tenga</w>
dar io</w>
consul ta</w>
conden a</w>
comenz aron</w>
co sta</w>
cas ado</w>
blan cos</w>
bayal niwan</w>
bahlumil ale</w>
aʼ bot</w>
ayudar ía</w>
au tor</w>
ata te</w>
apaci bilidad</w>
anu al</w>
ant si
afir mó</w>
adu ra</w>
achaʼulaʼ taye</w>
ac or
ab rió</w>
a gar
a costu
a conse
Y ILEL</w>
Y ES</w>
Uni ver
Tur quía</w>
TA LE
TA KʼIN</w>
T u</w>
Ser á</w>
SO ETIK</w>
SMELE LIL</w>
SIG NI
SIGNI FICA</w>
S AL</w>
RE YES</w>
PR ES
Nuestr a</w>
NOP EL</w>
N avidad</w>
N atán</w>
Mu kʼ</w>
Medi terráneo</w>
Kʼ OP
Jnop tik</w>
Jelon tesbot</w>
HACER LO</w>
Evangeli os</w>
D ía</w>
Clau dio</w>
Benjam ín</w>
B íbli
Al ber
Ad ane</w>
Abrah ame</w>
A lej
17 ,
yichʼ ike</w>
ya x
xoj o
x pʼijubtes
w 99</w>
ventan a</w>
us emos</w>
un dar
tsa kel</w>
ton el
tik a</w>
ta te</w>
stso boj</w>
spo j
spaj bey</w>
sor dos</w>
smukʼulin ej</w>
slaj inel</w>
skʼaxun tayik</w>
skʼatp ʼun</w>
skontra inel</w>
sir ku
senti rá</w>
schʼuun beyel</w>
sch u
sal en</w>
sacerdo te
responsab le</w>
re fi
re d</w>
qui la</w>
pu estas</w>
pres u
preocupa ba</w>
pregun tarnos</w>
po ten
po se
permi tir</w>
pens aban</w>
pa mos</w>
ofic inas</w>
n ífic
médic a</w>
me tros</w>
ma kel</w>
ma gia</w>
kuxin emik</w>
kuj ch
kaʼtel tike</w>
juec etik</w>
jpej t</w>
jpas bey</w>
jnop ilan
jlokʼ es</w>
jla ptik</w>
jchʼi eletike</w>
jch ol</w>
j toy
j nu
j kʼop</w>
j ej
inici ativa</w>
inam il</w>
im pres
ichʼ ot</w>
i dol
idol atr
i chʼ</w>
go biern
fundam ental</w>
fi ja</w>
exper im
existi rá</w>
exac to</w>
estable ció</w>
esta remos</w>
es pej
en ví
em per
el em
ej ic</w>
económ ica</w>
dra gón</w>
dol or
do te</w>
dis positivos</w>
dej en</w>
dar me</w>
conso lar
conoc í</w>
chopo luk</w>
cel u
caj a</w>
ca j</w>
bide oetik</w>
ben ix</w>
ba sta</w>
ba kʼe
aʼte letik</w>
aʼbatin el</w>
ayu das</w>
aw amigo</w>
auto dominio</w>
atu kel</w>
asig naciones</w>
an ojp
am er
al o</w>
al ma
akʼopon e</w>
ajojkʼoy bey</w>
ad amente</w>
achʼi xe</w>
acab ó</w>
ab solu
a tura</w>
a pe
a kʼot</w>
a kʼ</w>
Z ac</w>
YA BAL</w>
Tseʼ el
Sig amos</w>
SO L</w>
SEʼ E
SCHʼUUN EL</w>
Por tu
Pau l</w>
Pa í
M úsica</w>
Lekub tesa</w>
LO Kʼ
LEKIL AL</w>
L le
K ajwal</w>
Ju d</w>
IN A</w>
I DO</w>
H en
E V
E BAL</w>
DI U</w>
D on
D er
Cu i
A CIONES</w>
5 6
200 2</w>
18 ,
14 9</w>
z can</w>
yichʼoj ikix</w>
yan xan</w>
yakʼ beyxan</w>
xtal ik</w>
xjil otik</w>
xcu hch</w>
w0 3</w>
vir ti
vi eja</w>
ver nos</w>
v ar
un e</w>
u e</w>
tiklam bey</w>
tier no</w>
teʼ e</w>
terri ble</w>
t án</w>
sut botik</w>
sta kʼin</w>
spu kel</w>
smaj kil</w>
skʼaxun tay</w>
skʼ ayoj
sko lelik</w>
sja p</w>
señ a
sent ían</w>
sem ej
se t</w>
se pa</w>
se de</w>
sci la</w>
schʼ ojik</w>
s bolkʼop
respe tu
r í
r ue
r la</w>
pro cur
pregun taron</w>
poder osos</w>
plan te
perdon ó</w>
perdon a</w>
paxi al</w>
pati le</w>
parti cular</w>
p ala
op ía</w>
o lic</w>
no h
na cimiento</w>
mí nimo</w>
mu t</w>
mu r
mon e</w>
mo strado</w>
medi a</w>
mayu quix</w>
man dar
ma ter
m ío</w>
li bri
ley ó</w>
lekub tesel</w>
lan tik</w>
lajem ikix</w>
lajem ike</w>
lab anel</w>
l é
l bal</w>
ko tikix</w>
kichʼ kotik</w>
ju ven
jpaso j
joʼotik nix</w>
jkʼax un
jkʼab tik</w>
jkontra in
jaʼ nixme</w>
jaʼ at
jaʼ ale</w>
ja ch
j inel</w>
invi taron</w>
inspir ada</w>
in icu
honr ados</w>
h ile</w>
gu stó</w>
fun ción</w>
fal so</w>
extrem o</w>
exac ta</w>
ex pec
esi as</w>
ent ero</w>
emi xe</w>
em ikix</w>
em ano</w>
des ánimo</w>
des apareci
der án</w>
dedic amos</w>
deci rse</w>
de bilidades</w>
cʼoh em</w>
conqui sta
ci c
cab ezas</w>
c ados</w>
bo m
bili c</w>
b ús</w>
ay tonax</w>
awakʼ ik</w>
av es</w>
auto bús</w>
aut én
anunci oetik</w>
ant emano</w>
an h
alab anza</w>
al ej
akʼ bo
aj ik</w>
acep taron</w>
abatino n</w>
a ts
X AJ
T ho
ST ORIA</w>
S ON
S ER
S AN
R oboam</w>
Pro medio</w>
Pri scila</w>
Portu gal</w>
Pedr oe</w>
PER SON
P res
O seas</w>
KʼO P</w>
Inter nacional</w>
In vi
IN O</w>
HI STORIA</w>
HE BRE
Eli hú</w>
EJEMP LO</w>
E ti
E c</w>
E LE</w>
DIC EN</w>
Bri tan
An t
Ami go
ANT ES</w>
6 9
4 0
20 ,
í b
Ó V
ÓV ENES</w>
z ambi
zambi que</w>
z ación</w>
yuchʼ ik</w>
yo tʼ
yi lele</w>
yi jtsʼin
yakʼ botike</w>
xlokʼo n</w>
xchaʼ kuxaj</w>
wp 16
vo to</w>
vivi do</w>
vi endo</w>
val orar</w>
us aron</w>
ulaʼ tay
uestr e</w>
tsʼihba bil</w>
transmi tir</w>
th e
tes ot</w>
tem pr
su yo</w>
su po</w>
str o</w>
spasem al</w>
son ido</w>
snojptes ik</w>
sma k</w>
sjultes bey</w>
sec undar
se tenta</w>
sch ap</w>
relacion adas</w>
recuer dos</w>
rebi sta</w>
rebe li
prov in
profun das</w>
predic aba</w>
precurso retik</w>
por tu
pon drá</w>
poli tika</w>
pec ar</w>
oh etic</w>
ocupa dos</w>
o ta</w>
modes to</w>
majtʼ anile</w>
m ón</w>
loc al</w>
llev ado</w>
llen os</w>
llegu é</w>
le ón</w>
lamal nax</w>
kulaʼ taytik</w>
kin ame</w>
kil tikixe</w>
kil oj</w>
kaʼ bil
jts ʼum
jta oj</w>
jle kil
jkʼan tike</w>
j xiʼ</w>
j po
j n
j maj
j ka
j es</w>
j chuk
j biluk
investig ación</w>
idolatr ía</w>
i tos</w>
i kʼot</w>
hu r
hu ir</w>
hu c</w>
habl ado</w>
hab erse</w>
h alel</w>
gü en
gradu ar</w>
f e
exist en</w>
et y</w>
escri tas</w>
entr ada</w>
enfr entó</w>
enfr entan</w>
en vía</w>
ejch en
du ras</w>
dor mi
difer encias</w>
des preci
d és</w>
d ental</w>
cump len</w>
cump la</w>
cru z</w>
cre es</w>
con du
comunic ación</w>
chaʼkuxaj tesel</w>
bel otik</w>
aʼi x</w>
awulaʼ tay</w>
awichʼ ik</w>
awamigo in</w>
atsʼiba y</w>
ata bey</w>
anop xan</w>
am én</w>
am ar
adic ción</w>
ac aba</w>
abund ancia</w>
abandon ar</w>
a kaj</w>
a ike</w>
XAJ T
XAJT ʼ</w>
V í
To dopoderoso</w>
Soci ety</w>
Se gu
SO BRE</w>
SI ON</w>
RI O</w>
PA SA
Mo zambique</w>
Mej ore</w>
Mar y</w>
J ÓVENES</w>
J XAJTʼ</w>
I chʼ
Ha geo</w>
H e
FICI OS</w>
E di
DA TOS</w>
D ON
D EM
Chʼ ama</w>
CON VER
Ber ea</w>
Belsas ar</w>
Anaʼ ojbal</w>
Alej an
AM I
A t
A sa</w>
17 5</w>
17 3</w>
14 4000</w>
1 32</w>
1 1
ó bu
óbu los</w>
ár b
árb oles</w>
z ada</w>
yi jtsʼin</w>
xluj botik</w>
xkʼopo jon</w>
xkʼo at</w>
x yichʼik</w>
x pʼaj
w 00</w>
vic toria</w>
ven ían</w>
u bi
tʼu n
tradu ce</w>
tom an</w>
tey to</w>
ten taciones</w>
t és</w>
stu l
sta ix</w>
st raciones</w>
smukʼu btes
sirku ito</w>
sen sa
schʼ oj</w>
sch ap
roman a</w>
resta ur
repres entan</w>
reliji one</w>
raí ces</w>
program as</w>
pro por
pri v
pres os</w>
predic arles</w>
posi bles</w>
polí ticas</w>
pas beyele</w>
pareci das</w>
p ese</w>
opini ones</w>
on ías</w>
ni ñ
naʼ ame</w>
mucha cho</w>
mostr arles</w>
mantal tesel</w>
man dado</w>
madu rez</w>
ma tó</w>
m tC</w>
m bra</w>
lo tike</w>
li ʼ
le ído</w>
lan dia</w>
lajchay eb</w>
kʼat kotik</w>
ki kʼatkotik</w>
jnichʼ an</w>
jkʼayin tik</w>
j ʼ
indic ó</w>
i que</w>
ho mo
h ech
gobern ará</w>
g encia</w>
fr anc
fo tos</w>
fij émonos</w>
fac tores</w>
expli que</w>
escuch ando</w>
escribi eron</w>
er les</w>
er e</w>
enfrenta rse</w>
en z
elimin ará</w>
electrón icos</w>
el o
edu car</w>
e f
dr og
di miento</w>
desarrol lar</w>
demuestr e</w>
de le
de di
d ándole</w>
d ra</w>
conten ido</w>
ciudad anos</w>
chu c</w>
chopo like</w>
chik anuk</w>
c lic</w>
bene ficio</w>
bah t</w>
ba sa</w>
aʼte jibal</w>
averigu ar</w>
asi a</w>
asegur arse</w>
apli car</w>
ant setike</w>
aconse ja</w>
acep te</w>
a ya
a tiempo</w>
a kuxlejale</w>
Ta bita</w>
TE K
T ú</w>
T ex
Sof onías</w>
STA LEL</w>
S in
S er</w>
R ita</w>
R i
P arti
P an
P OR
O tra</w>
Na die</w>
NA IL</w>
Men or</w>
MAR COS</w>
M or
Im perio</w>
Ge orge</w>
FE LI
FE CH
Eti opía</w>
Enseñ e</w>
E no
D ic
Con ozca</w>
CONVER SA
Bíbli ca</w>
BÍBLI CAS</w>
B ON</w>
A ÑO</w>
7 7
3 3
200 8</w>
2, 9
19 43</w>
1, 5
1, 4
1 51</w>
Á quila</w>
yu go</w>
xnoptsaj otikxan</w>
x wi
x chʼuunel</w>
ven ía</w>
ven gan</w>
v emente</w>
un eb</w>
ue lo</w>
traduc tores</w>
ti do</w>
tem ores</w>
tar es</w>
t ábamos</w>
t t</w>
spas tiklan
sm an</w>
sju k
sja kʼ</w>
sch am
sac arle</w>
s pʼijubtes
s be</w>
recibi rán</w>
rechaz ó</w>
r i</w>
quisi era</w>
pu cu
proteger á</w>
prof unda</w>
prim og
presi dente</w>
predic an</w>
pre juicio</w>
pre fer
pon ernos</w>
poli ti
po b
pi enso</w>
parti do</w>
pa mento</w>
pa c
ote ca</w>
or ae</w>
olvi dar</w>
nujpun em</w>
nujpun ele</w>
ne gó</w>
muchedu mbre</w>
mon e
mol é
man i
logr aron</w>
lan dés</w>
laj ix</w>
la v
l ó</w>
l ando</w>
kʼ anel</w>
kuxaj tik</w>
kon tra</w>
ko ʼ</w>
jpuk tik</w>
jpat xu
jnopilan tik</w>
jkʼ ayoj
jkontra taktik</w>
ji lele</w>
ji j
jbakʼetal tik</w>
jaʼ bil
ja te</w>
j mil
in ea</w>
im puestos</w>
ichʼ bil</w>
her idas</w>
hebre os</w>
hablar emos</w>
gradu ación</w>
gra f
gi os</w>
fu mar</w>
forma da</w>
f am
f abr
examin ar</w>
estable cido</w>
esta tua</w>
esco gido</w>
enfr entamos</w>
ejerci cio</w>
e ci
dé bil</w>
diri gió</w>
dig nidad</w>
d ob
cu ri
contribu ir</w>
co ordin
chʼ in
cer r
c al</w>
bus car
bu jtsʼ
bauti cé</w>
bast ante</w>
aʼ beya</w>
ay ú
autom óv
as car</w>
apren da</w>
ali vi
ak ti
agr esi
ag ascar</w>
acti tudes</w>
acostu mbr
ac to</w>
a di
Yuʼu n
V ol
UM IL
Trac t</w>
TI N
TA R
TA DA</w>
T alel</w>
S en
Recor demos</w>
Mad agascar</w>
Lam enta
In clu
Gu inea</w>
F E</w>
Do min
Cha pal
Ca if
CONVERSA CIÓN</w>
BENE FICIOS</w>
Andr és</w>
AW AʼIY</w>
2 ,000</w>
19 50</w>
19 18</w>
ú s
í l</w>
é st
Í TI
yo h
yichʼ beyik</w>
yak to</w>
y n
y ajw
xlo cʼ</w>
xkʼax otik</w>
x pejkʼaj</w>
winik il</w>
vi ej
ver se</w>
ver los</w>
venta jas</w>
vec inos</w>
ve la</w>
v é
v as
utsʼin wanej</w>
un gido</w>
un g</w>
u chʼel</w>
tulan ik</w>
ts un
trib un
tranqui li
tram pa</w>
ti tul
ti empoe</w>
tey nix</w>
tes otik</w>
tempr ano</w>
ta bil</w>
su stitu
sti jbat</w>
slum alike</w>
skʼ anike</w>
skʼ abik</w>
sku y
sku x</w>
si vos</w>
si len
segui rá</w>
schiknaj tes</w>
sbi hil</w>
s óli
s y
s t</w>
s derecho</w>
ri t
re za</w>
re ina</w>
que te</w>
qu ej
puer to</w>
pu se</w>
pu j
pu de</w>
provin cia</w>
pobre etik</w>
pens é</w>
orig in
obst áculo</w>
obedec e</w>
nú m</w>
na ve
muk en</w>
mo dos</w>
misericordi oso</w>
meti da</w>
mer ec
m ic
lleg ada</w>
kʼo j
kuʼun kotike</w>
kil tike</w>
kijkʼi taytik</w>
ju ego</w>
ju c</w>
jlekil altik</w>
jkʼu lej
jaʼ exe</w>
j kanan</w>
inten so</w>
inten ción</w>
inmen so</w>
inacti vos</w>
in akti
ha t</w>
h l
h ar
grie goetik</w>
gr adas</w>
gan ado</w>
fá br
fr acas
fabr ic
esfuer za</w>
er emos</w>
enten der
enseñ aba</w>
en dario</w>
emper ador</w>
emi ase</w>
ejemp lar</w>
egip ci
eb xan</w>
eb an
diri gen</w>
di rá</w>
di cia</w>
des gracia</w>
der son</w>
de bajo</w>
cre o</w>
comand ante</w>
co r</w>
co dicia</w>
ci dad</w>
cer cano</w>
camin ar</w>
bin tikxan</w>
bil tik</w>
bi lu
be etik</w>
bar co
au l</w>
ap las
anichʼ ane</w>
amali el</w>
am i</w>
am as</w>
alu l</w>
ador aba</w>
adolesc entes</w>
actú a</w>
a fr
Yuʼun bal</w>
WIN IK
Univer sidad</w>
U r</w>
Ti enen</w>
T ʼIL</w>
So f</w>
S PAS</w>
Re v</w>
Pu kuj</w>
Pre dic
Paí ses</w>
LEK IL</w>
L ine</w>
KU ʼU
K al
Jac k</w>
J ose</w>
Imag in
I I</w>
H or
H ab</w>
G amaliel</w>
Evangeli zadores</w>
EN CIA</w>
Dem ocrática</w>
Dar ío</w>
DISCURS O</w>
CON TES
Bo b</w>
Bin xan</w>
Amigo ina</w>
Abiga íl</w>
2, 4
17 1</w>
1, 7
ún icos</w>
ólo gos</w>
é gu
á tico</w>
yal oje</w>
ya chʼu
y ej
xna hin
xmantaltes wane</w>
xcʼ ax</w>
xchʼ ayotik</w>
wa ka
w2 20
tso bo
trabaj ador</w>
trabaj a</w>
to mar
termin ado</w>
te kʼel</w>
stsa koj
spat xu
snop beyik</w>
smam alale</w>
sma j</w>
skʼaxun taybey</w>
skʼan beyel</w>
skoltay lan</w>
skoltay beyel</w>
skol taya
simb ólico</w>
si va</w>
si te</w>
señal ó</w>
secre tario</w>
schʼi tesel</w>
rol lo</w>
regres ó</w>
re quiere</w>
re cur
propor cion
produc en</w>
poder osa</w>
plan ta</w>
pekʼ elxan</w>
pas aj
paj k</w>
paj a</w>
p ér
or aba</w>
op ción</w>
ofrec en</w>
o mone</w>
o a</w>
no ches</w>
neces aria</w>
nacion ales</w>
n ac
muri era</w>
mue ve</w>
man dar</w>
limpi eza</w>
libri o</w>
levi tas</w>
lar se</w>
lan za</w>
kʼay emotik</w>
kʼax ik</w>
ku chʼ
koltay wanik</w>
k oetik</w>
juz g
juram ento</w>
jpa kʼtik</w>
jo venci
jm ajkʼnax</w>
jel taytik</w>
jej ch</w>
j sit</w>
inv a
inteli gente</w>
i tas</w>
hospi talidad</w>
hablar le</w>
fortalec en</w>
fin es</w>
fav ori
expuls ado</w>
existi r</w>
esti ma</w>
ern es</w>
er amente</w>
equi librio</w>
entreg ó</w>
enti dad</w>
enfrenta r</w>
energ ía</w>
enci aetik</w>
egoí sta</w>
ebe c</w>
du l
disfru tamos</w>
desti no</w>
desta có</w>
def in
deci den</w>
de terminar</w>
cul turas</w>
cu bier
cose cha</w>
conta min
consul tar</w>
conf ían</w>
con ferencia</w>
compar ación</w>
co l</w>
ci v
ci l
chik in
chap bil</w>
característi cas</w>
bu lil</w>
bo da</w>
bien venida</w>
beyi kxan</w>
bendeci rá</w>
be en</w>
avi ón</w>
apó sta
apas bey</w>
anunci ó</w>
anim an</w>
ali vio</w>
al okʼ
ador aban</w>
activi dad</w>
a takʼin</w>
a pi
a koltay
Wikʼ ame</w>
VER DAD</w>
U S
Sy l
Sal omone</w>
Qu ebec</w>
P al
Oné simo</w>
OS OTROS</w>
NU EV
N OSOTROS</w>
M IN
LA J
Jeho i
Inclu so</w>
Imag ínese</w>
IL UK</w>
I O</w>
Haz te</w>
HEBRE OS</w>
ENSEÑANZ AS</w>
ELE TIK</w>
Cor é</w>
Ch arles</w>
Caif ás</w>
C H</w>
Bau tista</w>
BI TʼIL</w>
B r
B aj
Ab salón</w>
AN Aʼ
6 000</w>
14 ,
1, 2
1 Te</w>
1 13</w>
éndo lo</w>
á fic
ÍTI CO</w>
Á S</w>
yilin ba</w>
yi li
yamigo inel</w>
xbe h
x mil
we en</w>
waxak eb</w>
w anike</w>
vuel van</w>
vini eron</w>
viaj es</w>
vi siones</w>
tra er</w>
tr ae</w>
toy olxan</w>
ti r
ti na</w>
terri bles</w>
tal uk</w>
tal emotik</w>
ta sion</w>
ta ba
sw aʼel</w>
stsa oj</w>
snam alil</w>
sna kʼ</w>
sja m</w>
sin g</w>
signific an</w>
señ ora</w>
senti remos</w>
senti miento</w>
segu ían</w>
satisf echos</w>
s contra
rum bo</w>
ren cor</w>
regres o</w>
regi onal</w>
reflexi onar</w>
públi cos</w>
prote gió</w>
prekur so
posi tivas</w>
plen a</w>
peligr oso</w>
pe lo</w>
pas ajes</w>
pa so
p h</w>
ofreci eron</w>
ocupa do</w>
obedeci ó</w>
obe dez
o tsʼ
o fi
nopol me</w>
nich im
nego cios</w>
naz i</w>
ministr o</w>
mencion ada</w>
lo qʼuel</w>
llev arnos</w>
llam aban</w>
leg ales</w>
kʼopon ot</w>
kʼo on</w>
kʼan beyel</w>
kristi anoetike</w>
jun tas</w>
jlumal tik</w>
jfamili ae</w>
jba htic</w>
ja p
j pisi
j man
invi tamos</w>
inte gri
ini cio</w>
informa sion</w>
impresion ante</w>
im pac
im as</w>
ilin on</w>
human as</w>
hu mill
hier ba</w>
gui r</w>
gu en</w>
grie gos</w>
gl óbulos</w>
gi eron</w>
ex hibi
estu vieran</w>
esp esi
esco gió</w>
es encial</w>
es el</w>
entr en
enseñ arle</w>
empe ñ
e jat</w>
e fic
dok tor</w>
direc tor</w>
di cha</w>
decidi mos</w>
de primi
cump le
cre í
con virti
con ec
comien za</w>
chʼ i</w>
chʼ ayel</w>
car á</w>
bus có</w>
bey tikix</w>
be lik</w>
babil onios</w>
b rió</w>
aʼba tetic</w>
ayudar me</w>
ayud ante</w>
ayu damos</w>
aw alik</w>
atu untes
ata que</w>
asisti eron</w>
asi entos</w>
arri es
antsi wej</w>
ant emos</w>
anichʼ an</w>
ale tic</w>
akʼ beyele</w>
aj ap</w>
Ya tobal</w>
Ts aj
Tro as</w>
TI M
San tas</w>
San derson</w>
SI EM
SIEM PRE</w>
Qui enes</w>
PO DEMOS</w>
PASA DO</w>
OB TEN
Men cione</w>
K a
Jose e</w>
Jehoi adá</w>
Jai ro</w>
IL AWIL</w>
FAMILI A</w>
D ESP
Cor ea</w>
Ayu de</w>
AYU DA</w>
6 00</w>
á monos</w>
Á N</w>
yamigo takik</w>
yakʼoj bon</w>
xtojobtes wan</w>
xnujpun ik</w>
xbe enik</w>
x kaj</w>
x chaj
w0 2</w>
vi vamos</w>
verdad eramente</w>
ven g
ve ían</w>
ve inti
vali osos</w>
val entía</w>
uni c</w>
tsaj el</w>
tra di
tor men
to dopoderoso</w>
titu lado</w>
tiklan el</w>
tien das</w>
terr estr
ta quin</w>
t ora</w>
swenta inik</w>
sw ol</w>
su al</w>
stu pʼ
stsʼum b
stsak oj</w>
stsaj tay</w>
st si
spasi kix</w>
sp ica
spica cia</w>
smah li
skaj nax</w>
sincer idad</w>
sfamili aike</w>
servi cios</w>
sec ta</w>
se tic</w>
se la</w>
sch onik</w>
sbe lal</w>
sabi a</w>
sab es</w>
sa ica</w>
s reliji
s cuxlejal</w>
ro mpi
respe tan</w>
refer ía</w>
recu ad
re comien
razon ables</w>
qʼu e</w>
pueb loetik</w>
public adoretik</w>
próxi mo</w>
prote g
prision eros</w>
predic a</w>
portu gu
pon gan</w>
po stu
po sesi
per dieron</w>
organiz ado</w>
oni tas</w>
on kotike</w>
ocurri rá</w>
oca u
mo saica</w>
mi ster
mens aj
me z
mar ch
mal ab</w>
mag nífic
ma duros</w>
m undi
m lej</w>
lí n</w>
lokʼomba etike</w>
lokʼo n</w>
llam ados</w>
le m</w>
kʼan bot</w>
kʼ ayin
ku chʼ</w>
kil o
kamigoin ej</w>
ka kʼoj</w>
juven tud</w>
jun uc</w>
jti b</w>
jtal ele</w>
jta ojtik</w>
jpaso j</w>
jokin ot</w>
jay ebto</w>
j r</w>
j ma
indic ar</w>
ilin otik</w>
ijkʼ al</w>
i os</w>
hacer les</w>
hab íamos</w>
guí e</w>
gui stán</w>
gu err
go z
g on
farise o</w>
fa cul
exper to</w>
ex cep
establec er</w>
esper aban</w>
espej o</w>
específic o</w>
escuch ado</w>
esclavi tud</w>
empez amos</w>
el tic</w>
el a
destru ida</w>
descan so</w>
den se</w>
d os
d al
cʼ a</w>
cumpli eron</w>
confi emos</w>
cli ma</w>
cic lo</w>
cay ó</w>
cas ó</w>
cal les</w>
cal endario</w>
ca u
bondad oso</w>
bi enes</w>
ban co</w>
bal bil</w>
ba r</w>
b alix</w>
az u
asegur arnos</w>
arrepenti miento</w>
arrep inti
apʼi jil</w>
apren deremos</w>
apo ya</w>
an aliza</w>
am ó</w>
am aban</w>
ali stas</w>
al ilto</w>
al erta</w>
a str
Y OʼTAN
V amos</w>
Tr inidad</w>
Ton y</w>
TIM OT
TIMOT EO</w>
TEK STO</w>
Su jtib</w>
Soci edad</w>
Po co</w>
PA Í
NA X</w>
NA CI
MA L
LEV ÍTICO</w>
Kʼajkʼ ale</w>
Kʼajkʼ al</w>
KʼO T</w>
Kir guistán</w>
Ken ia</w>
Kakʼ tik</w>
K XAN</w>
IN TER
IN EL</w>
Hol ocau
Hal lo
H e</w>
F OR
E F
D U
Con stru
Britan nica</w>
BE R</w>
B AL
Asamb leas</w>
Apo los</w>
AN OP</w>
A z
A TA
8 0
3 5
2 14</w>
19 58</w>
1 22</w>
ó set</w>
á c
ác ter</w>
yu tsʼ
yi kʼon</w>
yaʼiy beyik</w>
xtu hun</w>
xnaʼ bot</w>
x maj
w eb</w>
vuel tas</w>
visi tó</w>
vide o
u co</w>
tí tulos</w>
tí n</w>
tu le</w>
tsak bil</w>
trib u</w>
tra goe</w>
ti l
ter ía</w>
taba co</w>
sé ñ
sé pti
subi r</w>
su ya</w>
stsob el</w>
spasi x</w>
spas bon</w>
spa mlej</w>
snop beyel</w>
sn an</w>
smukʼulin xan</w>
skoltay beyik</w>
sjelon tes</w>
si tic</w>
secundar ia</w>
schaj pajibal</w>
sbakʼe talik</w>
sbakʼe tale</w>
revi si
reuni ó</w>
regular idad</w>
rec e</w>
rebeli ón</w>
re vela</w>
quer er</w>
que dado</w>
pueb lo
propi edad</w>
prepar arnos</w>
prem io</w>
po zo</w>
plen amente</w>
perió dico</w>
per cibi
pe dí</w>
partici p
oj ike</w>
o yó</w>
o qʼuel</w>
nor r</w>
na xe</w>
mostr aron</w>
mostr ando</w>
mi lele</w>
mar so</w>
mali y
lleg ara</w>
llam ente</w>
liter al</w>
kʼux on</w>
kʼ ejel</w>
ku ar
kilo metro</w>
kanantay bil</w>
kamigo in</w>
kaj ik</w>
jyanlume tike</w>
ju ju
jts ak
jichuk otik</w>
ji p</w>
jay tul</w>
ja ch</w>
j pʼijubteswanej</w>
integri dad</w>
inci enso</w>
impres cin
imprescin di
hac es</w>
h qui
fís icas</w>
fábr ica</w>
fortalec erá</w>
fij ó</w>
fi a</w>
ez an</w>
extraordin ario</w>
extranj ero</w>
eter no</w>
espesi al</w>
esca par</w>
entien de</w>
electrón ico</w>
ej tik</w>
dur ó</w>
dr o</w>
don a
doc tr
dis cer
discer ni
di ría</w>
di gi
des obedecer</w>
demostr ando</w>
de ten
cʼu xul</w>
cʼ ah
conoci da</w>
confir ma</w>
con viene</w>
con v
comi té</w>
ci dental</w>
chaʼoxpʼ alnax</w>
c ese</w>
c alum
c acʼ</w>
bás icas</w>
bre vemente</w>
biili letike</w>
bersi kulo</w>
benefici an</w>
be en
bautiz aron</w>
ban j
baj a</w>
ayu daba</w>
au to</w>
at han</w>
asist entes</w>
arr esta
aqu ello</w>
anaʼ xan</w>
ambi a</w>
am á</w>
am bey</w>
alnichʼan etike</w>
alma cen
ajo kin</w>
aj kʼ</w>
ab o</w>
Y ak
U STE
Tho mas</w>
S acer
S JEL
R ojo</w>
Pro metida</w>
PR EN
PAS E</w>
PA J
PA CI
Maestr o</w>
M O
Les li</w>
L an
Kʼu x
K norr</w>
Ju lio</w>
Ju ez</w>
Jose ph</w>
Jerusal ene</w>
J ta
J ab
Go mor
Entr e</w>
Eno c</w>
En séñ
Eli ja</w>
E j
E banj
Dio son</w>
D ANI
DANI EL</w>
CONTES TE</w>
B O
Aqu í</w>
Apren damos</w>
7 000</w>
6 07</w>
4, 8
200 7</w>
2, 6
2, 5
199 9</w>
1 16
égu ele</w>
yoh lil</w>
yin am
y ol
xju ʼe</w>
xch ebe
x yilik</w>
x nichʼ
x kanantay
vers os</w>
ver güen
var ones</w>
utsʼin ot</w>
us ado</w>
tí simo</w>
tsi tse
ts ʼ</w>
tra tando</w>
tori os</w>
tojobtes ele</w>
ter as</w>
tele bi
te oe</w>
tay wan</w>
sy lvania</w>
swinik tak</w>
sw eʼ</w>
sw ay
stsʼumb alike</w>
stsʼibay bey</w>
stsa kel</w>
str emos</w>
stoj ik</w>
spa kʼik</w>
sorpren de</w>
sman ik</w>
sman el</w>
smam lale</w>
skʼu lejal</w>
skʼo tesik</w>
sbi luk</w>
san guí
sanguí ne
respon da</w>
reaccion aron</w>
razon ar</w>
qʼu in</w>
que daba</w>
pʼiju ben
publika sionetik</w>
publik adoretik</w>
profeti zó</w>
pro vo
pro tes
primog énito</w>
pr ínci
permiti do</w>
pala cio</w>
or e
nego cio</w>
n y</w>
n sylvania</w>
mu kel</w>
mu darse</w>
mi tad</w>
mem orasion</w>
ma s
ma dos</w>
m or</w>
m j
mj jkʼ</w>
m esi
m esa</w>
lle ve</w>
lic tos</w>
li kto</w>
lev adura</w>
le tr
le en</w>
kar taetik</w>
ju stas</w>
jtsʼum bal
jtij beytik</w>
jpaj k</w>
jo tike</w>
jna ʼu
jmu l</w>
jfamili a
jelon em</w>
ja m</w>
j wokol</w>
inter pre
inten te</w>
instal aciones</w>
inbi tasion</w>
in si
in am</w>
ikʼ awan</w>
ic ano</w>
i ga</w>
hor no</w>
ha gas</w>
graf ías</w>
gol pe</w>
gobiern e</w>
g entes</w>
g ani
g ales</w>
fr an
fortal eza</w>
forma do</w>
for mó</w>
fil oso
extraordin aria</w>
espo sos</w>
esfor zó</w>
epi dem
embar az
em ike</w>
ech ó</w>
e bix</w>
du eño</w>
du dar</w>
dok toretik</w>
di si
di lu
desanima dos</w>
des aparec
dej aran</w>
deci da</w>
d estr
cur ar</w>
cuentah in
crí ticos</w>
copi ar</w>
conven to</w>
conserv ar</w>
conf lictos</w>
con vic
con tamos</w>
con ozca</w>
computa dora</w>
comp l
cli má
cier tamente</w>
chaʼ cuxaj
celebr ó</w>
caus ado</w>
car gar</w>
cad ena</w>
cabal lo</w>
c es
bibli oteca</w>
bel on</w>
b óset</w>
aʼiy bil</w>
ay one</w>
awu chʼ</w>
awo tʼan</w>
ata ques</w>
ar ma</w>
apren den</w>
apa ra
anun sioetik</w>
ante pasados</w>
al em
aj okin
acercar nos</w>
abi il</w>
abati na
a familiae</w>
Z im
UN I
T í
Si me
S O</w>
S KUXLEJAL</w>
R ich
Per son
Pen nsylvania</w>
PAÍ S</w>
P ʼ
Ori ente</w>
Nuestr os</w>
Nichʼ anil</w>
MA J
LI BR
Kon memorasion</w>
K omi
K ON
Jeo bae</w>
Jehov a
Jaco be</w>
J PAS
Isra ele</w>
Imagin emos</w>
Hist oria</w>
G l
Esta ba</w>
E cu
D emo
D a
Co ordin
Co men
Ch ʼu
Ch ri
B ur
A cʼa</w>
A BA
8 00</w>
6 ,000</w>
199 3</w>
19 88</w>
15 ,
ín ti
á i</w>
yuʼ ele</w>
yutsʼ inik</w>
yil ojik</w>
yichʼ tiklan</w>
yaʼiy botik</w>
yal alilto</w>
xtu pʼ</w>
xtu lanu
xojo bil</w>
xkʼo tike</w>
x taj
x lu
x kʼatpʼuj</w>
x baht</w>
wi kʼ
w a</w>
utiliz ando</w>
té cn
tsʼum bil</w>
tsitse letik</w>
tri z</w>
tom aron</w>
titul ada</w>
tay beyel</w>
sw ocolic</w>
sw ocol</w>
stu r
st ro
skʼu bulil</w>
skol el</w>
sjojkʼoy bon</w>
sjel o
sjelo lin</w>
sjach el</w>
sincer as</w>
si aetik</w>
sel ular</w>
se pan</w>
se lec
schan ebal</w>
sch opo
sch on</w>
s tamente</w>
s pensar</w>
s mo
ri o</w>
revel ó</w>
res pi
repres en
represen tantes</w>
reaccion ar</w>
re alista</w>
r oetik</w>
qʼue tal</w>
public ó</w>
prácti co</w>
proyec tos</w>
prepar ación</w>
preocupa dos</w>
pregun taba</w>
portugu és</w>
pon ía</w>
pl ani
piens en</w>
pi chʼil</w>
pens amiento</w>
pen dientes</w>
pej kʼaj
pe da
pa ganda</w>
oj tike</w>
oc é
nichim etik</w>
ni v
necesi ten</w>
mundi ales</w>
muk enal</w>
motiv ación</w>
moso in
mo tiva</w>
man tienen</w>
man tenemos</w>
man if
mamal alil</w>
mad era</w>
lími te</w>
llen ó</w>
limpi os</w>
lan d</w>
lajun tul</w>
lajun chajp</w>
la m</w>
l abal</w>
kʼo tix</w>
ku adro</w>
kontra inele</w>
kerem to</w>
k or
jta tike</w>
jpas tikxan</w>
jnaʼ beytikxan</w>
je x</w>
jchʼuunej tik</w>
investig ar</w>
inun da
inspir ación</w>
ing eni
ilu c</w>
ilan dia</w>
ig an</w>
i or
i letike</w>
hacer me</w>
guerra e</w>
f all
estudi amos</w>
escu chan</w>
escri b
escen a</w>
es tando</w>
ermano etike</w>
equivoc ado</w>
enz imas</w>
enten día</w>
empi ezan</w>
emp eño</w>
egoí stas</w>
efec tos</w>
diver siones</w>
dese ando</w>
dej aba</w>
defin ido</w>
dedic ó</w>
deci rles</w>
cʼ o
cui dará</w>
cu antos</w>
cre encia</w>
corri endo</w>
corre o</w>
conven ció</w>
conven cer
conv inc
con siguió</w>
con fí
comunic arse</w>
compor tamiento</w>
come temos</w>
col el</w>
co stó</w>
cil mente</w>
ci aetik</w>
chu jkʼu
chu jku
ch oj
celebr an</w>
ce los</w>
car ácter</w>
cambi a</w>
c aʼiy</w>
bus camos</w>
bur l
bon xan</w>
be enik</w>
bar koetik</w>
babil oni
b abu
ay tik</w>
ay o</w>
atoj olic</w>
at re
an álisis</w>
al as</w>
akʼ u
adul terio</w>
adap tarse</w>
ad es</w>
a zo</w>
a tien
a o</w>
W I
Timo teoe</w>
Sin a
Signific a</w>
Samu ele</w>
S hi
S PASEL</w>
Res u
Res puesta</w>
Po dría</w>
Or gani
O s</w>
O h</w>
Ne h</w>
Mi s</w>
ME DI
M í
M ayuc</w>
Lokʼ em</w>
KI CHʼ
Jose fo</w>
J i
J O</w>
Hallo ween</w>
H ace</w>
H E</w>
Gomor ra</w>
G REG
Chajp ana</w>
Ch aʼ
Centr o
CH ʼIL</w>
A TE</w>
A LE
A JA
28 ,
2, 7
2, 3
19 23</w>
19 ,
énd oles</w>
áb lele</w>
yo tʼan</w>
yichʼ bey</w>
yi kʼel</w>
yamigo in
y ermano</w>
y b
xcʼ oh
xchʼ ayotike</w>
xbaj tʼ
wits tikil</w>
weʼeli le</w>
w 98</w>
visi tan</w>
vers al</w>
ven cido</w>
ve hí
utsʼin otik</w>
us aban</w>
us aba</w>
uk xan</w>
u tsil</w>
u lan
tsal tamba</w>
trabaj aba</w>
ti c
telebi sion</w>
tele fono</w>
te j
tar ían</w>
ta cto</w>
suj totik</w>
suj e
suc eso</w>
stsa ik</w>
stsa h
sm eloj</w>
sm ama</w>
sk ejan</w>
sjokin otik</w>
sjojkʼoy beyik</w>
sinago g
sch ah
salv ará</w>
s pʼijubtesel</w>
s canan
romp er</w>
rin am</w>
ri do</w>
ri am</w>
resul te</w>
resuci tados</w>
reliji onetike</w>
re r</w>
re conocen</w>
r y</w>
publika sion</w>
pregun tado</w>
poli s</w>
pla ga</w>
perman ente</w>
peligr osa</w>
pe dido</w>
paso t</w>
on tik</w>
ol as</w>
oj tikix</w>
necesi tados</w>
na hin
mé lec</w>
motiv ó</w>
mencion ar</w>
men ores</w>
man bajel</w>
m w
m pe
l lan
kʼajkʼ alil</w>
kʼajkʼ alel</w>
ku loetik</w>
koltay bilik</w>
kol tayaw
kil ojtik</w>
ki stán</w>
kalbey tike</w>
k el
jtuk eltik</w>
jtsajtay wanejetik</w>
joʼ chajp</w>
jo y</w>
jmulawi letik</w>
jkʼo testik</w>
jkoltay wanej</w>
jkoj kʼ
ji p
jel tayel</w>
jel otik</w>
j l</w>
j kʼope</w>
j chajp</w>
is a</w>
inten ciones</w>
in justos</w>
in creí
imag ina</w>
hur ac
histór ico</w>
h c</w>
gri tó</w>
g ale</w>
fuér cese</w>
fu ria</w>
franc és</w>
fon dos</w>
fi gu
esta bilidad</w>
escu elas</w>
erman aetik</w>
enseñ aron</w>
emocion antes</w>
eli x</w>
el nanix</w>
ejérci tos</w>
du ele</w>
disfru tan</w>
dij era</w>
di fun
destru irá</w>
descan sar</w>
des esper
dej ando</w>
def ini
deb o</w>
d ele</w>
d ame</w>
continu ar</w>
consider aba</w>
conoz camos</w>
con texto</w>
con tarles</w>
con sci
comun es</w>
compren de</w>
co pa</w>
chʼ en</w>
cham eletike</w>
caus an</w>
cat á
carri tos</w>
ca uti
c esi
c ana</w>
blan co</w>
bi luc</w>
ban dera</w>
babu e</w>
b era</w>
aumen tar</w>
ar e</w>
anima doras</w>
anichʼna bike</w>
anci an
an och
alter na
alco h
al las</w>
al beyele</w>
akʼ bilik</w>
ajwali letike</w>
ajwal tike</w>
ajkʼ ab
agrad an</w>
ad qui
actú e</w>
acti vo</w>
aconte cimientos</w>
a yal</w>
a ge</w>
Zim babue</w>
Z el
YA ʼI
YA CHʼIL</w>
WINIK ETIK</w>
Uni ón</w>
Uni do</w>
U rías</w>
TEM E</w>
Su rinam</w>
Se ol</w>
Sacer dote</w>
SJEL BON</w>
S ok
S mele
S ec
R O</w>
OBTEN IDO</w>
Kʼ ot</w>
Komi te</w>
Kal beytik</w>
K il
K ajwaltike</w>
Jo pe</w>
Jich me</w>
Jer obo
Jer emiase</w>
Jehova hon</w>
J OS
Ha cia</w>
HER MAN
H oʼon</w>
F oto</w>
Est onia</w>
En contr
E X
Di ana</w>
DE CI
DA DES</w>
CI AS</w>
Barzil ai</w>
B as
B LO</w>
Au stria</w>
Abiga il</w>
A be
A DO</w>
9 00</w>
8 6
2 Pe</w>
2 39</w>
19 74</w>
én donos</w>
Í n
yoch ibal</w>
yikʼ tiklan</w>
yikʼ onik</w>
yijkʼi tayel</w>
yi like</w>
yermano takik</w>
ya cuc</w>
y ok
xwentain wanik</w>
xmukʼu bxan</w>
x t
x mo</w>
x le
x ej
wa k</w>
vol ví</w>
vergüen za</w>
ulaʼ tayel</w>
tribun ales</w>
tra ten</w>
tori as</w>
toj ol</w>
tay on</w>
tati letike</w>
tab let</w>
sé li
super fici
stsa kot</w>
stoj el</w>
stiempo ik</w>
sreligi onik</w>
spi k
spa kʼ</w>
son ri
si mil
seña iletik</w>
senci llamente</w>
sem illas</w>
seg ú
schʼuun ej
schaʼ pasel</w>
satisf acer</w>
s ín
s per
s caj</w>
res id
religi one</w>
rein ado</w>
regres aron</w>
reflej a</w>
refer encia</w>
rechaz an</w>
pér dida</w>
pueblo hetic</w>
pu ro</w>
proteger nos</w>
progr eso</w>
profesi onal</w>
produc tos</w>
proclam ar</w>
predic aban</w>
pr a</w>
pox tayel</w>
porno gra
po c
pelí culas</w>
pe día</w>
pas ara</w>
pa tri
organiz ar</w>
or ro</w>
or en</w>
olvi demos</w>
ob ser
nujpun on</w>
nuj pʼ
ni wak</w>
naj tʼil</w>
n amente</w>
mer e
me za</w>
man el</w>
ma ʼ</w>
ma duro</w>
m ía</w>
lími tes</w>
llen ar</w>
libr es</w>
lev antó</w>
lej al
le tra
l y</w>
kil kotik</w>
kil e</w>
kaʼiy tike</w>
kat bal</w>
kam paña</w>
k aye</w>
k antsil</w>
ju l
jpatxu jk
jojkʼoy beyel</w>
jmu kʼu
jmam alal</w>
jelon el</w>
jch inam
jbakʼetal tike</w>
jaʼ etik</w>
j ile</w>
j ban
inten tar</w>
ins cri
in dig
in ado</w>
impul sa</w>
imi tarlo</w>
il al</w>
ik me</w>
i letic</w>
h im
h aré</w>
gr o</w>
gaba onitas</w>
fir meza</w>
fi que</w>
expul sión</w>
entr éguele</w>
enfrenta ron</w>
encontr aba</w>
em pres
disfru temos</w>
disfru tarán</w>
discerni miento</w>
dis cul
di aria</w>
destru yó</w>
der r
demostr aremos</w>
de fi
dar a</w>
culpa bles</w>
cre as</w>
cor ru
coordin ador</w>
conta gi
const ante</w>
conoc ían</w>
con vierte</w>
con stitu
compar ó</w>
comi sión</w>
com para</w>
com ente</w>
cion tik</w>
cie gos</w>
ci era</w>
chʼin onto</w>
chaʼox chajpuk</w>
car gas</w>
capi tán</w>
cam pamento</w>
ca usar</w>
bi la</w>
aʼ tel
aw okole</w>
aw ik</w>
automóv il</w>
atoj olik</w>
ati x</w>
ar gu
ar co</w>
anunci ar</w>
alu mal</w>
alegr ó</w>
alegr e</w>
aj tayel</w>
afir ma
ador as</w>
aco so</w>
acep tan</w>
ac h</w>
a talel</w>
a pisi
a kʼotik</w>
Ya chʼil</w>
YU T
To más</w>
T SO
Su premo</w>
Sina í</w>
SA BER</w>
S kʼajkʼalel</w>
S MUKʼUL</w>
S LU
SLU MAL</w>
Pri mero</w>
PREGUN TA</w>
OS AS</w>
OR ACIÓN</w>
Mor ris</w>
MI O</w>
Kʼ o
KOLTAY EL</w>
Ja el</w>
JTA OJ</w>
JKʼ OP
J en
G er
EN TI
E th
D AS</w>
Cu r
Cre es</w>
Cam ino</w>
Bo az</w>
BU EN
BI LI
Alejan dro</w>
AYI N</w>
AN TE</w>
A li
A ST
A PASE</w>
8 9
5 0
4 3
2 50</w>
19 56</w>
17 8</w>
ʼ YU
ísi mo</w>
z aron</w>
z ando</w>
yil on</w>
yi pi
yamigo take</w>
yakʼo jix</w>
yakʼ xan</w>
xu lu
xnahin ic</w>
x ʼi
x tale</w>
x pʼ
x meʼel</w>
x lokʼ
viol ento</w>
vi ética</w>
ven cer
v a
utsʼin wan</w>
uni do</w>
undi r</w>
un es</w>
tuminchij etike</w>
tulan e</w>
tram pas</w>
tiv amente</w>
ti biltik</w>
tari a</w>
tar las</w>
tan ia</w>
ta etike</w>
sujtes ojix</w>
su pi
su a
stul antes
stij beyik</w>
sorpren dió</w>
skʼ ej</w>
skʼ ay
sinago gas</w>
señ or</w>
ser ás</w>
scʼ ahcʼ
schʼuh unic</w>
schajpan oj</w>
sbilu kik</w>
sba kel</w>
salu d
sabi as</w>
s noj
s hah
s an</w>
s alg
ro so</w>
ri r</w>
respon dieron</w>
relacion ado</w>
reg oci
rebel ó</w>
realiz an</w>
re t</w>
re kuadro</w>
r genes</w>
que dar</w>
prácti camente</w>
prote gi
pro séli
pro hí
postu ra</w>
po m</w>
peti ción</w>
permiti rá</w>
pareci ó</w>
pa gar
os cu
op ti
obedeci endo</w>
nuj p
nu mero</w>
nu be</w>
nombr aron</w>
no n</w>
ni chi
na m</w>
mw b
muchísi mos</w>
mor imos</w>
mer ecen</w>
me tal</w>
mar e</w>
man sos</w>
man ej
m ica</w>
luj ben</w>
lokʼ em
letra etik</w>
lej ana</w>
le ones</w>
kʼopo jan</w>
kaʼiy beytik</w>
k ermanotak</w>
jtul nax</w>
joʼ tak</w>
jchuk eletik</w>
jch eb
j tikun
j ok
j meʼ
j kolel</w>
j cʼaxel</w>
j comentari
investig adores</w>
inoc ente</w>
inclu ir</w>
imagin ar</w>
i cio</w>
habl emos</w>
gui ar</w>
ga ret</w>
g or
g ober
g lo
g antes</w>
fas cin
far ero</w>
extra ñ
estre cho</w>
escribi era</w>
entreg ar</w>
emocion ales</w>
embaraz ada</w>
dos cientos</w>
dne y</w>
dne go</w>
dist ra
dis posición</w>
dio setike</w>
dig no</w>
dic cionario</w>
di stancia</w>
di rán</w>
destr oz
descu brió</w>
des pier
dar emos</w>
da ños</w>
curi osidad</w>
cumple años</w>
cuer pos</w>
cru eles</w>
cre ció</w>
cor to</w>
cor respon
consider an</w>
confi ando</w>
con vi
compar ar</w>
com o
ci cle
chon el</w>
chon bajel</w>
chah p</w>
ch oj</w>
ce dentes</w>
cari ote</w>
capaci tar</w>
bon ita</w>
be ltik</w>
bayu knax</w>
bayal to</w>
ba tik</w>
aʼi c</w>
ayin e</w>
awichʼ oj</w>
at xan</w>
apren dieron</w>
amu l</w>
amb as</w>
ajo y</w>
ad vierte</w>
acercar á</w>
acep tamos</w>
acab aba</w>
a tʼu
Zel anda</w>
Yo vi
Y AL
Wokol awal</w>
WOKO LIL</w>
Tri b
Testigo uk</w>
TI V
T er
So y</w>
SU S</w>
SE GUN
SCH EBAL</w>
SA B
Recuer de</w>
Re p</w>
RE INO</w>
Pu es</w>
Pad res</w>
PA Z</w>
P arte</w>
ON O
O tros</w>
O fic
NE H
NEH EMÍAS</w>
N ing
N i</w>
Mí riam</w>
Mar garet</w>
MA ʼYU
Li ʼ</w>
L in
Ju icio</w>
Joh an
Jam es</w>
Jam al</w>
J on</w>
J naʼ
J CH
Is cariote</w>
I gu
H A</w>
G i
F r
F amili
Escu che</w>
ESI OS</w>
EF ESIOS</w>
Co sta</w>
B OTIK</w>
AʼT EJ
Aʼ TE
Ayu demos</w>
Abe dnego</w>
AKʼ A</w>
4, 7
4 5
16 5</w>
16 0</w>
1 18
óli cas</w>
í na</w>
æ dia</w>
yi p
yaʼiy e</w>
yamigo inej</w>
yakʼo jbat</w>
xkoltaywan at</w>
xiw ex</w>
xiw ele</w>
xchaj paj</w>
x niwan</w>
w ayi
volun tario</w>
vej ez</w>
un ebal</w>
u se</w>
tʼ el</w>
tu al</w>
tsʼ ajkʼ</w>
tsob el</w>
tsa bilix</w>
tradi ciones</w>
tra st
toy bail</w>
tor mento</w>
ton iwan</w>
tom emos</w>
tier ras</w>
termin a</w>
ter cero</w>
ter api
tendr ás</w>
ten dencia</w>
tem en</w>
taj er
tajer jes</w>
t án
suger encia</w>
sti empo</w>
st es</w>
spox il</w>
spaj kal</w>
sobr es
snuj pʼ
smucʼu lin</w>
sle beyik</w>
sla p</w>
skʼatp ʼun
skaj tajib</w>
sjuk ebal</w>
sjo quin
sirvi éndole</w>
signific aba</w>
ser vía</w>
se y</w>
san tific
saduce os</w>
sac ó</w>
s ó</w>
s pensar
s h
ri v
reuni eron</w>
reno v
recuer dan</w>
prob ó</w>
princip almente</w>
pres entan</w>
pregunt émonos</w>
pregun tarse</w>
po ster
pin tero</w>
perten ec
pastiklan bile</w>
par on</w>
p ædia</w>
p leto</w>
or y</w>
or al</w>
on el</w>
on ales</w>
obje to</w>
niv el</w>
naz are
nac í</w>
n ic
muchísi mas</w>
mostr amos</w>
minchi j</w>
medic ina</w>
medic am
medi o
man u
lv s</w>
loc alidad</w>
lleg aría</w>
llan to</w>
limpi ar</w>
libr oe</w>
levi ta</w>
lam enta
kuxu lotike</w>
ko x
ko tses
kichʼ oj</w>
kanan tayotik</w>
kakʼ kotik</w>
jojkʼoy bot</w>
jn aʼix</w>
jmulawil otike</w>
jfamilia tike</w>
jcomentari otik</w>
jaʼ xanix</w>
j chʼix</w>
inmen sa</w>
impresion antes</w>
im pida</w>
ilu stración</w>
id entidad</w>
ho mbr
hermo sas</w>
here darán</w>
habi tación</w>
grab ación</w>
g no</w>
g ando</w>
fl ores</w>
fier en</w>
fic ación</w>
fal le
ez er</w>
explicar le</w>
espa cio</w>
er ían</w>
empez ado</w>
eli c</w>
el ul</w>
ech ar</w>
di án</w>
desta car</w>
der se</w>
demostr arles</w>
dej es</w>
dedic an</w>
declar ó</w>
de tener</w>
d y</w>
d re
d oetik</w>
cʼuxul taywanej</w>
cʼ ope</w>
có digo</w>
convic ción</w>
contes tar</w>
concentr arse</w>
con temp
con forme</w>
compañ era</w>
comba tir</w>
co lum
chay etik</w>
cerebr o</w>
cas amos</w>
c ángel</w>
bur ro</w>
bujtsʼ an</w>
bu s</w>
bolob en</w>
bo tikxan</w>
bo s
beteli tas</w>
bebi da</w>
bar cos</w>
ay ex</w>
awoʼtan ike</w>
awil al</w>
au mento</w>
ata car</w>
arrepenti rse</w>
ar mas</w>
apósta tas</w>
apoy amos</w>
apo sta
apaso j</w>
apaci ble</w>
ap ʼ
ants inel</w>
al d</w>
akʼ ab</w>
ajo ye</w>
ad mir
ac a</w>
abund ante</w>
ab or
a prueba</w>
Uste des</w>
UT ER
UTER ONO
UTERONO MIO</w>
USTE D</w>
So viética</w>
So bre</w>
SEGUN DA</w>
S ol
S nichʼan</w>
S TA</w>
Qu e
Pue des</w>
PRE DI
PR OP
PI TULO</w>
PE DR
PEDR O</w>
Ofic ina</w>
NACI MIENTO</w>
Mon te</w>
Mar k</w>
Mant en
L aj
KUX LEJA
KA PITULO</w>
K an
Holocau sto</w>
Famili a</w>
F e
Es co
Encyclo pædia</w>
E vi
E M</w>
DISCUR SOETIK</w>
DE UTERONOMIO</w>
Cu m
Con greg
Ch eʼ
Car ta</w>
CH Aʼ
C en
Bu enas</w>
BIBLI OT
B e</w>
B anti
Atal ía</w>
Ar tajerjes</w>
Alab emos</w>
A cu
A ETIK</w>
7 ,000</w>
3 2
200 1</w>
20 2</w>
2 41</w>
1 40</w>
1 3,
íb amos</w>
ár selo</w>
á sti
É ufra
Éufra tes</w>
yil beyel</w>
yichʼ beyel</w>
xpas bot</w>
xchʼ ayik</w>
x lekub
x chol
wokol ayal</w>
w0 1</w>
w anix</w>
vivi rá</w>
viej o</w>
valor aba</w>
val le</w>
v ille</w>
uti na</w>
tsʼ akaj</w>
tsaj tay
tranqui la</w>
to có</w>
terremo to</w>
te x</w>
ta jibal</w>
sur gir</w>
sufri eron</w>
su j</w>
su erte</w>
stʼu j
stsʼi jk</w>
stso bik</w>
stal elnanix</w>
spas botike</w>
so sten
snaʼ botik</w>
sna ike</w>
sn aba
slajin beyik</w>
skʼo tesel</w>
skʼin ul</w>
sjam alel</w>
sist encia</w>
sir vamos</w>
silen cio</w>
si entes</w>
shah chibal</w>
sel va</w>
segui do</w>
samaritan a</w>
salu dar</w>
s laban
s ka
respon deremos</w>
respe ta</w>
repres entan
repar ar</w>
relacion ada</w>
recibi rá</w>
re pasar</w>
ra dez</w>
r utina</w>
r ojos</w>
quisi eron</w>
que br
pun toetik</w>
pod íamos</w>
po so</w>
pl as
pi el</w>
pi diendo</w>
perten ece</w>
pelí cula</w>
partici pan</w>
pare jas</w>
pa do</w>
p p</w>
p ant
oni ae</w>
oj beyik</w>
odi ar</w>
och in
o d</w>
nojptes wan</w>
ni jkʼ
n es
mé rito</w>
muer en</w>
mu dó</w>
mo ik</w>
meti eron</w>
men sual</w>
maj tamba</w>
ma triz</w>
ma taron</w>
ma t</w>
ma di
m ár
lum qʼuinal</w>
luj ben
lu s</w>
llev emos</w>
llev arse</w>
lej alic</w>
lam ente</w>
l inel</w>
l era</w>
l ada</w>
kʼu knax</w>
kʼu bu
kotses tik</w>
kil in
kichʼ beytik</w>
kaʼbil altik</w>
kal beyex</w>
k toe</w>
jujun chajp</w>
judi cial</w>
jtoj ob
joʼ tul</w>
jokin bil</w>
jnop e</w>
jchol kʼop</w>
ja p</w>
it í</w>
ior mente</w>
in di
imprescindi ble</w>
im perio</w>
identific ar</w>
identific a</w>
hi lo</w>
hal lar
hab rían</w>
h áblele</w>
gr o
gr ano</w>
gobern ando</w>
g aron</w>
fá cilmente</w>
fi bóset</w>
fal taba</w>
evi dente</w>
estru c
es tal
er las</w>
envej e
enten dimiento</w>
enseñ arnos</w>
enfer ma</w>
encu entro</w>
en cen
elem entos</w>
ele kʼetik</w>
diri g
di éramos</w>
demostr arle</w>
de tuvo</w>
dam érica</w>
cʼu h
cʼah cʼ</w>
cí o</w>
cux aj</w>
costa ba</w>
contr ola</w>
consider ado</w>
consi ste</w>
consecu encia</w>
conmo vió</w>
con tienen</w>
con taron</w>
compar e</w>
cometi eron</w>
comen zar</w>
clar as</w>
caí da</w>
cambi an</w>
calum ni
c emos</w>
bur go</w>
biluk etike</w>
bi lat</w>
bey tike</w>
benefici ado</w>
baj tʼu
ayu kme</w>
ata car
ar cángel</w>
ap el
anun cio</w>
ani e</w>
angu age</w>
ami n</w>
am emos</w>
al tura</w>
akʼan bey</w>
akʼ bon</w>
agra dez
ador amos</w>
acu dir</w>
actu ó</w>
aconsej ar</w>
acab e</w>
ab ru
a turas</w>
Tseʼ el</w>
Trib unal</w>
To das</w>
Ta ilandia</w>
TO Y
TI EMP
Su damérica</w>
Sok nix</w>
San to</w>
S ʼI
S é</w>
S ar
R U
Qui ero</w>
Pulem ale</w>
Pau lo</w>
Pa kistán</w>
PREDI CA
PA LA
P aj
P UN
Ori ental</w>
Nor te</w>
Nor te
Nopo l</w>
No p
Nab ot</w>
N athan</w>
Me fibóset</w>
Mant én
M ac
Le ah</w>
L anguage</w>
L a
Kon g</w>
KUʼU NTIK</w>
KICHʼ TIK</w>
Jun uk</w>
Ju li
JAʼ ATE</w>
Il awilik</w>
I kʼ
Hon g</w>
Ha ití</w>
HER MANOS</w>
Encyclo pedia</w>
Ecu ador</w>
E uti
Con oc
CON T
Bil l</w>
Babil oniae</w>
BEY XAN</w>
BAL UMIL
B ER
Al tísimo</w>
AYU DA
A yix</w>
7 00</w>
5 5
29 ,
200 5</w>
10 000</w>
últi mas</w>
ó polis</w>
í smo</w>
yinam ik</w>
yil onik</w>
yil ojibal</w>
yi ke</w>
yakʼ ike</w>
yakʼ bey
xt alix</w>
xnoptsaj ik</w>
xma kot</w>
xkʼo on</w>
xi kʼ</w>
x noptsaj</w>
x noj</w>
x nam
x kʼu
voluntari as</w>
vol viera</w>
viaj ó</w>
viaj ante</w>
ver ás</w>
vel oci
veloci dad</w>
us en</w>
us cri
trans por
tr ist
tr ajo</w>
tikun ot</w>
termin e</w>
terapi a</w>
te ocrá
tay oj</w>
ta qʼuin</w>
símbo lo</w>
sw ix</w>
su kur
stsʼiba yel</w>
stoy bail</w>
st ʼun</w>
st al</w>
spastiklan oj</w>
spasi c</w>
soci edad</w>
so lamente</w>
sme ʼe</w>
slum ale</w>
skʼin alik</w>
sku sel</w>
skontra takike</w>
skanan tayat</w>
sirvi entes</w>
sir vieron</w>
sinagog aetik</w>
si bles</w>
segui remos</w>
sbolob tes
sba bi
sa kil</w>
s mos</w>
s koj
ru s</w>
rit mo</w>
ries go</w>
ri cio</w>
reún en</w>
rep enten
repenten ax</w>
recibi remos</w>
raí z</w>
qui c</w>
pu lem
prohibi do</w>
progres ando</w>
pro paganda</w>
privi le
pri or
prior idad</w>
predic ado</w>
preci samente</w>
practi car</w>
pornogra fia</w>
pi dá
pidá mosle</w>
persegui dos</w>
per seguir</w>
pekʼ elto</w>
pati l
p lí
on xan</w>
on ja</w>
olvi dó</w>
ofr enda</w>
ofic ina</w>
obje tos</w>
o tcotic</w>
nujp unike</w>
neutr alidad</w>
nacion alidad</w>
na kal</w>
n g
mur allas</w>
movi miento</w>
mor ir
mir ando</w>
ministeri aletik</w>
meti ó</w>
manten ga</w>
liʼ i</w>
li letic</w>
letr ero</w>
lengu as</w>
leku ke</w>
leku b</w>
le tos</w>
laj ibal</w>
kʼ aʼel</w>
kuxin ele</w>
ko tik
kaʼ tele</w>
kakʼ tike</w>
justi fic
ju días</w>
jteb xanix</w>
joy taybil</w>
jil bal</w>
jich bal</w>
jchʼi elto</w>
jam ale</w>
ja cha</w>
j pox
j kongregasi
iz quier
instru cción</w>
inclu idos</w>
in tenta</w>
in on</w>
in justo</w>
in fer
in cul
ilu straciones</w>
il los</w>
ic ʼ
i kʼotik</w>
hu c
hon radez</w>
hebre oetik</w>
habi do</w>
h echa</w>
grati s</w>
gradu ados</w>
gen oma</w>
g énito</w>
g aba</w>
fun ciones</w>
fra se</w>
f an
eʼ il</w>
ex ili
ex a
exa ger
eter namente</w>
esta dio</w>
esta ción</w>
específic as</w>
entr aron</w>
ens as</w>
en caj
em pren
ejecu tado</w>
económ ico</w>
eb alik</w>
e ti
e k
direc ta</w>
destru idos</w>
có lera</w>
cuer nos</w>
cri terio</w>
cre ados</w>
cre a</w>
cor por
converti rse</w>
converti do</w>
consider ación</w>
conoz co</w>
conf es
con siguen</w>
con mem
con junto</w>
con cep
compren dí</w>
compa sivos</w>
come te</w>
clo pedia</w>
cion etike</w>
ci ento</w>
chikin etik</w>
cheʼox ebnax</w>
chaʼox tu
chapal ukotik</w>
chapal otik</w>
chaj pajibal</w>
celebr ación</w>
ce der</w>
can cion
c ías</w>
c aʼiy
bur las</w>
bi cicle
ber ia</w>
bendi ga</w>
ban quete</w>
babiloni oetik</w>
b es</w>
aʼiy ot</w>
awu ʼel</w>
awil oj</w>
awi jkʼi
awaʼiy e</w>
arrepi enten</w>
ar ru
ar ran
ap enas</w>
anim aron</w>
anim amos</w>
ani me</w>
amulan xan</w>
amam alal</w>
am arlo</w>
alu c</w>
ad ministr
actu aliz
acti va</w>
aco sta
ac lar
ac es</w>
abog ado</w>
a quer
YI P</w>
V D</w>
U no</w>
Tar so</w>
TSO BLE
TI L</w>
T ati
Sam oa</w>
ST SEʼE
STSEʼE LIL</w>
S á
S lajibal</w>
S NAʼ
S MA
Re ina</w>
Pr onto</w>
PRES ENTA
OS O</w>
Mau ricio</w>
M ike</w>
M eʼil</w>
Le ku
LIBR O</w>
Jes sica</w>
Jerobo án</w>
Jaʼ naxbal</w>
JOJKʼOY ELE</w>
J koltay
Igu al</w>
Hab ía</w>
Gl oria</w>
Gala cia</w>
FU ER
Estudi anteetik</w>
Enseñ anza</w>
Eli ezer</w>
Ebanj eli
ER RA</w>
ENSEÑ A</w>
E du
DON ACIONES</w>
D VD</w>
D AN</w>
Con se
Col om
Cheʼ oxeb</w>
Ch risti
Centro américa</w>
Cajwal tique</w>
CO M
C ali
C OSAS</w>
C AR
Bay al
B l
Am érica</w>
Ad ri
AM A</w>
A w
A h
2, 8
2 12</w>
199 2</w>
ún icamente</w>
ú a</w>
í s</w>
á g
Ú MER
ÚMER OS</w>
yil at</w>
yi si
yi pe</w>
yaʼ bat</w>
yal be</w>
xnojptes wanik</w>
xlo kʼat</w>
xchebe t</w>
x awacʼ</w>
vuel ven</w>
vivi remos</w>
vi ernes</w>
vari edad</w>
val en</w>
v ayamos</w>
utsʼin ele</w>
utili zan</w>
u tsilal</w>
u j
tʼuj bilnax</w>
tuuntes ele</w>
tu untesa</w>
tsʼun bil</w>
tsobo lic</w>
tsaj al</w>
tranqui lo</w>
tra temos</w>
to car</w>
to ca</w>
ti kʼuknax</w>
ti jib</w>
ti clam
tes beytik</w>
ten te</w>
ten bil</w>
te letik</w>
te cho</w>
te a</w>
tay ame</w>
ta bles</w>
super a</w>
suce derá</w>
su premo</w>
su ero</w>
stu pʼ</w>
stso tsil</w>
stojob tesel</w>
stij botik</w>
sti clam
snaʼi kix</w>
sna sion
sme ʼ
skʼu lej
skʼayin beyel</w>
skontra take</w>
skom ik</w>
sigui eran</w>
si dia</w>
servi do</w>
serv ían</w>
sencil las</w>
segu í</w>
se d</w>
se cciones</w>
schol botik</w>
schebaj tes
schaʼ pas
s nujpun
s l
s bon
res te</w>
regular mente</w>
recomien da</w>
re laj
re confor
pukuj etike</w>
proteg erse</w>
pro mi
promi so</w>
prepar ando</w>
pre dicho</w>
pox etik</w>
plan e</w>
pi ezas</w>
perdon ado</w>
per ju
parec ían</w>
pare d</w>
pa kʼetik</w>
oscu ridad</w>
organiz ada</w>
ora uknax</w>
on dr
on baj
ofen dido</w>
océ ano</w>
ob vio</w>
o tʼ
nu tri
nor malmente</w>
nie ve</w>
ni jk
necesi to</w>
nail ale</w>
mukʼu b</w>
molé cula</w>
mo der
mision era</w>
mis os</w>
mem ente</w>
me ter
may or
mar cha</w>
mand amiento</w>
majtʼ ani
ma da</w>
lo y
lo qʼu
llev ara</w>
liber ar</w>
le amos</w>
lam aj</w>
la tín</w>
l al
kʼo jo
kʼin ike</w>
kakʼ xan</w>
jw ix</w>
ju sta</w>
jkʼ ases</w>
jkanan tuminchij</w>
jij panel</w>
jaʼ naxme</w>
jay ebix</w>
ja chel</w>
j ol</w>
inter nacionales</w>
inju stamente</w>
in fec
in cen
il nix</w>
i jka
hon rado</w>
hi pó
hi chuc</w>
haʼ bil</w>
h ana</w>
graba ciones</w>
gr ani
gr ada</w>
furi oso</w>
fortal ez
facul tades</w>
f ara
ex ceso</w>
estudi e</w>
escuch arlo</w>
escri ba</w>
esco gidos</w>
es enta</w>
envi di
ent era</w>
enseñ aban</w>
enoj a</w>
enci ales</w>
en de</w>
en ce</w>
emo ción</w>
edi ficar</w>
e va</w>
e un
dob le</w>
distribu ir</w>
distin guir</w>
dis positivo</w>
dilu vio</w>
di versos</w>
di s</w>
di eci
di das</w>
demuestr en</w>
deci rlo</w>
dar lo</w>
dad or</w>
cʼ om
cui dan</w>
cuesti on
cu xul</w>
cu adro</w>
corri gió</w>
cor responde</w>
conven i
continú a</w>
con sigue</w>
com promiso</w>
co ti
cigar roe</w>
ci ma</w>
ci f
chik na
chic an</w>
caus ó</w>
can di
cam a</w>
borra ch
bon ito</w>
beyi kix</w>
benefici arse</w>
benefici arnos</w>
bendeci do</w>
bebi das</w>
awaʼiy oj</w>
ar ka</w>
apasi c</w>
angusti ado</w>
an taya</w>
an ope</w>
an g
alcan z
alaj in</w>
alab anzas</w>
al dea</w>
akʼ ases</w>
aj oʼ
aj el
acu saciones</w>
abatina t</w>
aba te</w>
a kanan
Z ambia</w>
Z O</w>
Ya katbal</w>
Y O</w>
X chʼul</w>
WOKO L</w>
Ver sión</w>
Ti empo</w>
Ten go</w>
TU L</w>
Ser món</w>
S ue
S cʼop</w>
S MO</w>
Rich ard</w>
Resu men</w>
Prepar emos</w>
Pi sidia</w>
POR TADA</w>
PERSON AS</w>
P am</w>
O b
No ta</w>
N ÚMEROS</w>
Ma t
Ma dián</w>
MEDI TAR</w>
M uestre</w>
M ic
M aniwan</w>
Lo u
LI DA</w>
LA J</w>
L ESI
Jpas tik</w>
Jo ven</w>
Jac k
JPAS TIK</w>
JOJKʼOYELE TIK</w>
I BAL</w>
Ge or
G hana</w>
G AR</w>
Feli sa</w>
Euti co</w>
Es per
EC A</w>
E len
E L
Dio sa
D O
CU ANDO</w>
C CIÓN</w>
Bil dad</w>
Bas ado</w>
Baj os</w>
BIBLIOT ECA</w>
Anal icemos</w>
Anal ice</w>
An na</w>
AJ W
A provech
5 9
4 6
20 8</w>
2 11</w>
199 1</w>
19 76</w>
17 4</w>
ü e</w>
ó ne
ín as</w>
é c
ándo me</w>
yaʼiy bat</w>
yal ele</w>
xw ay</w>
xpu jk</w>
xmaj awan
xchʼ ay
xbeen otik</w>
x ya
x ko</w>
x bi
wanej etic</w>
vícti ma</w>
volver á</w>
vivi eron</w>
visi tantes</w>
vi gi
ver án</w>
ver siones</w>
tʼu no
tsʼu bil</w>
trist es</w>
tra u
tojol nax</w>
to kal</w>
ti tud</w>
ti onal</w>
terrestr e</w>
tayi c</w>
taj im
tab la</w>
sur gió</w>
supli có</w>
sujtes oj</w>
subi ó</w>
su alidad</w>
stsa kat</w>
sta ike</w>
solucion ar</w>
so mbra</w>
so e</w>
smu k
sman dar</w>
slaj unebal</w>
skʼopon otik</w>
skuy oj</w>
skoltay oj
si as</w>
scʼahcʼ alel</w>
scontra hin</w>
sch i
sch apo
sbankil take</w>
saduce oetik</w>
sa kubel</w>
s ú
s li
s esenta</w>
s cu
s co
s ano</w>
ri endo</w>
revel an</w>
representan te</w>
renunci ar</w>
ref res
rechaz aron</w>
re conocimiento</w>
r los</w>
r al</w>
quedar a</w>
que dan</w>
pu ros</w>
pu dimos</w>
provoc ado</w>
prote ínas</w>
produ cti
preocupa do</w>
posesi ones</w>
pobre il</w>
pob lación</w>
pla za</w>
pi do</w>
perju dic
per s
pe qʼuel</w>
pastiklan beya</w>
pas aría</w>
op ciones</w>
ofr endas</w>
ocul tismo</w>
ocu par</w>
oc orro</w>
ober ano</w>
obedec erle</w>
noti ciaetik</w>
nopol xan</w>
nombr ados</w>
nijkʼ el</w>
na k
n er</w>
mostr arle</w>
mo dernos</w>
mic ro
mi endo</w>
mere cida</w>
medicam entos</w>
medi tando</w>
medi tamos</w>
majtʼani letik</w>
maj anel</w>
maestr a</w>
madr es</w>
m ico</w>
lágri ma</w>
logr é</w>
llu vi
llev en</w>
le ta</w>
le kix</w>
lamal kʼinale</w>
l alic</w>
kuxaj tike</w>
koltay wan</w>
jtsʼumbal tik</w>
jtoy ba</w>
jpisi l
jpat beytik</w>
jpasoj tik</w>
jnichʼ nab</w>
jmukʼu btes
jmeʼ e</w>
jman tik</w>
jk an</w>
jip il</w>
jchʼuunej tike</w>
jbiluk tik</w>
jalaj ik</w>
j lajin
j can
jcan an</w>
j be
izquier da</w>
ir ri
interes ado</w>
insul tos</w>
influ ya</w>
in merecida</w>
im pide</w>
ilu sión</w>
ili ke</w>
il bilik</w>
ikʼ bot</w>
ichʼ jaʼe</w>
i so</w>
human i
ho mi
her ida</w>
hall ado</w>
hac h</w>
guar dar</w>
gr áfic
gener ación</w>
funcion ario</w>
f a</w>
experi enciaetik</w>
exig e</w>
ex cu
especi alista</w>
escuch amos</w>
escri bas</w>
er é</w>
er no</w>
enter aron</w>
ent revi
enfr enta</w>
encontr é</w>
empi ece</w>
egipci oetik</w>
ec erá</w>
du reza</w>
divor ci
distin to</w>
distin ta</w>
di tos</w>
deu das</w>
desapareci do</w>
demasi ada</w>
dej aremos</w>
dej ara</w>
defen dió</w>
debi eron</w>
de volvió</w>
de bilidad</w>
cumpli era</w>
cor ona</w>
copi as</w>
congrega cion</w>
confir man</w>
com probar</w>
ci ta</w>
chʼ aj
chopo lil</w>
chaʼcuxaj el</w>
cham en</w>
centr arnos</w>
caus as</w>
carr os</w>
car rito</w>
cancion ero</w>
camin ando</w>
caj as</w>
cad enas</w>
cabal los</w>
c eros</w>
bril l
bili ke</w>
besti as</w>
bas an</w>
bar r
baj ar</w>
b é
ayudar la</w>
awaʼ be</w>
aw aʼiyi
aver gon
asesin ato</w>
aprovech ó</w>
apren dan</w>
analiz ará</w>
ampli ar</w>
am an
alem án</w>
al oʼ
akoltay ik</w>
agu ay</w>
ador ando</w>
acer có</w>
ac emos</w>
a parte</w>
Z e
Z AR
YOʼTAN IK</w>
X BA
W inst
V en</w>
U nos</w>
To m
Te ocrá
Tati le</w>
TIEMP O</w>
T emp
Si ón</w>
Sec ción</w>
S plane</w>
S ocorro</w>
S oberano</w>
S hun</w>
S KʼUXUL</w>
S JOJKʼOY
Rub én</w>
Ru te</w>
R an
Par aguay</w>
P ap
Organi zación</w>
Nopo lix</w>
NUESTR O</w>
NOJPTES WANEJ</w>
Mar tin</w>
MAʼYU K</w>
MA BA</w>
M ali
M al</w>
M UN
M ON
M EL</w>
LA MAL
L y
Jer sey</w>
J CHʼI
J CH</w>
Ho spi
G r
G I
Fran z</w>
For tal
FOT O</w>
Eth el</w>
Deb ería</w>
D en
D anos</w>
Cre ta</w>
Constru cción</w>
Colom bia</w>
CU I
C ari
Apren da</w>
An ci
Ami gos</w>
Al go</w>
A cep
3, 3
3 6
2 22</w>
199 4</w>
19 8</w>
19 75</w>
19 57</w>
17 2</w>
16 7</w>
10 ,000</w>
ó so
ést re
é pocas</w>
é i</w>
Á r
yu tsilkʼop
yotʼ anik</w>
yaʼte lic</w>
yax inal</w>
yan ax</w>
yakʼ beyex</w>
ya ke</w>
y era</w>
y ejch
xʼ aʼbot</w>
xnoptsaj atxan</w>
xlaj ike</w>
xcʼ opo
x yalik</w>
x yaku
x kʼa
x kanantayotik</w>
wokol xan</w>
w ul
w s</w>
visi taron</w>
ven to</w>
ve dad</w>
uʼu n
uni versal</w>
u chʼ
tʼ oj
tseʼ elxan</w>
ts ele</w>
trata mientos</w>
tras lad
traduc toretik</w>
tor o</w>
tonel adas</w>
ti ʼ</w>
testigo onkotik</w>
territori oetik</w>
tam entos</w>
t í</w>
sut bot</w>
sur gen</w>
suce dido</w>
stuk elnax</w>
stu mbre
stoj il
stikun bey</w>
sta r
sta kʼ</w>
sreliji onik</w>
spa jal
sorpren dente</w>
sonri sa</w>
snichʼ anik</w>
sni jan</w>
skʼayoj tayik</w>
skʼan xan</w>
skoltaya te</w>
skoltay ojotik</w>
skaj tijib</w>
signific ar</w>
si l
senten cia</w>
scʼopon el</w>
schʼuunej ike</w>
schap ik</w>
san tu
samaritan os</w>
s yu
ro ca</w>
revisi tas</w>
resuci tará</w>
res ía</w>
res ist
rein ar</w>
ra bia</w>
qʼu ex
qui tar</w>
pusi era</w>
promo ver</w>
proba do</w>
privile gios</w>
pri ori
priori dades</w>
pregun tarle</w>
pr esta
poc resía</w>
peti ciones</w>
perten ecer</w>
peri odi
pe ores</w>
pas emos</w>
pas bot</w>
pas beya</w>
paj alik</w>
or an</w>
or ador</w>
ondr es</w>
ocurri r</w>
nujpun otik</w>
nor oeste</w>
nojptes ele</w>
naʼ biluk</w>
na in</w>
muestr as</w>
mu lel</w>
mo j</w>
mil bil</w>
mi gr
mesi ánico</w>
me lel
maestr oetik</w>
ma taran</w>
lu chan</w>
llu via</w>
llev ando</w>
lle vo</w>
li que</w>
levi taetik</w>
le pro
las f
lar gas</w>
lan ik</w>
la se</w>
kʼay emon</w>
kʼaxem to</w>
kʼajkʼ el</w>
kʼ am
ki jtsʼin
kalbey kotik</w>
k i</w>
k er</w>
k ale</w>
jun xan</w>
jue gos</w>
judio il</w>
ju ltes
ju es
jkʼulej etik</w>
jkʼayoj taytik</w>
jch ah
j paj</w>
invi sible</w>
inteli gentes</w>
inmedi a
inesper ado</w>
inclu yó</w>
inclu ido</w>
in gr
in definido</w>
impresion ó</w>
imperfec ciones</w>
im par
igl esias</w>
ichʼ otik</w>
hu eso</w>
guar di
gi gante</w>
gan arse</w>
funcion arios</w>
fr acciones</w>
for nia</w>
fil óso
fav or
f os</w>
f es</w>
expres ó</w>
expres a</w>
ex ter
eun uco</w>
estudi a</w>
escuch aron</w>
ern as</w>
er ón</w>
equivoc adas</w>
epidem ias</w>
enoj ó</w>
encu ad
encarg ará</w>
em ic</w>
eli kto</w>
ej inan</w>
egip cio</w>
edi tado</w>
ec in
e tes</w>
don ación</w>
domin ar</w>
do cum
diver sas</w>
disi embre</w>
dese e</w>
depor tes</w>
d ándoles</w>
cumpli ría</w>
cubier ta</w>
cru zar</w>
convirti eron</w>
conven ce</w>
contribu yen</w>
contribu ye</w>
consi go</w>
con tarle</w>
compa raciones</w>
com uni
co cin
ci ego</w>
chikna juk</w>
chap alik</w>
cham bah
cans ado</w>
canan e
c all
bus caba</w>
br o
bol kʼop</w>
biluk nax</w>
bicicle ta</w>
bibli as</w>
beteli taetik</w>
be lle
be hetic</w>
bayu c</w>
bas adas</w>
bar ca</w>
bal uneb</w>
ba da</w>
b lasf
aʼiy bot</w>
awu chʼ
awili c</w>
awil bey</w>
awa kʼoj</w>
ata ke</w>
ar ro</w>
apren dimos</w>
apo yó</w>
apasi ke</w>
anima do</w>
alim enta</w>
akʼ ane</w>
aj el</w>
afec tar</w>
ad ónde</w>
achʼ am</w>
acel i</w>
abu so</w>
abier tamente</w>
abandon ado</w>
a preci
a kʼo
Yovi dón</w>
YI CHʼ
Y ox
Winst on</w>
Val era</w>
V ic
Te y
TZ E</w>
TOY OL</w>
TA D</w>
Segu ro</w>
SIGUI ENTE</w>
SER VI
SA B</w>
S no
RA Z
Person alidad</w>
Pas aik</w>
PRESENTA CIÓN</w>
PE RI
PA SI
O tro</w>
No h
Na dia</w>
NE T</w>
Me dic
MI RA</w>
MAJ TAN</w>
MA ME</w>
Le ye</w>
Lamenta blemente</w>
LESI AST
LESIAST ÉS</w>
L ondres</w>
Ju sti
Jack son</w>
Jab ín</w>
JAʼ BIL</w>
JA ʼU
J SI
Ichʼ a</w>
INTER NET</w>
I BA
IBA LETIK</w>
Her d</w>
H amán</w>
Geor gia</w>
Gali ón</w>
Es lo
Eli ase</w>
ER A</w>
EC LESIASTÉS</w>
Diosa t</w>
Der echos</w>
DESP U
D on</w>
D ec
Cʼ op</w>
Con fi
Cat ólica</w>
Cari be</w>
Car ol
Cali fornia</w>
CU Á
CU ER
CO R</w>
C entro</w>
C LA
Bo x</w>
Bo oz</w>
Bibli as</w>
Ben ín</w>
BEY EL</w>
BALUMIL AL</w>
AʼTEJ IBALETIK</w>
Ar aceli</w>
A suero</w>
A la
7 9
4 4
3, 0
28 8</w>
19 89</w>
19 54</w>
19 41</w>
17 6</w>
é ste</w>
yochin tayik</w>
yih qui
yal ojik</w>
yal bone</w>
yak ex</w>
yajw ale</w>
ya chʼi
xna inik</w>
xcʼoh ex</w>
xcu sticlam
xcusticlam bot</w>
wini que</w>
w 89</w>
voc es</w>
viol enta</w>
vigil antes</w>
ver la</w>
v es
uni da</w>
u tsilkʼop
términ os</w>
té li
téli te</w>
tu lu
tsʼumb aliletik</w>
tsʼu su
tsak bilik</w>
transmi ti
tradu cido</w>
trabaj ó</w>
ton o</w>
to c
ti lel</w>
tes wan</w>
tem per
ta ul</w>
stuk elike</w>
stojobtes ik</w>
sto yolil</w>
spuk bey</w>
sobres ali
snaj til</w>
slokʼ ib</w>
sle kilal</w>
sle kil
slam antes
skʼan ikxan</w>
sjo quin</w>
sion etike</w>
sigui era</w>
sesi ón</w>
senti rán</w>
senti rme</w>
segú rese</w>
scol tay</w>
scheb ale</w>
saserdo teetik</w>
sanguíne as</w>
sal etik</w>
sa télite</w>
rí os</w>
ro stro</w>
ro bar</w>
reuni rnos</w>
regu lares</w>
regi ones</w>
refi rió</w>
recuer den</w>
recuad ros</w>
reci entes</w>
rebel des</w>
realiz ó</w>
re to</w>
re pren
r é
r estric
qʼu et</w>
quin ce</w>
que za</w>
que daban</w>
pá rese</w>
pá jar
prínci pes</w>
program aetik</w>
prof é
prof undi
produ cción</w>
pro xi
priv ado</w>
pren da</w>
pregún teles</w>
pregun té</w>
pre fieren</w>
pon erlo</w>
poli siaetik</w>
podr ás</w>
plas ma</w>
pajal otik</w>
or ado</w>
opon en</w>
on i</w>
on ce</w>
ol vida</w>
ofi sin
odi an</w>
oblig ación</w>
obedez can</w>
obedeci eron</w>
necesi tábamos</w>
neces ariamente</w>
najal siti
nain em</w>
na xniwan</w>
na sione</w>
na etike</w>
n acer</w>
n ace</w>
mu ros</w>
mone das</w>
mon tón</w>
mister io</w>
mayor do
man uscri
man ia</w>
mak bil</w>
madu ra</w>
lu ke</w>
lo gra</w>
llev ará</w>
liber ación</w>
li jkʼ</w>
li bera</w>
le o</w>
le cuc</w>
la to</w>
kʼo emix</w>
kʼayoj iletike</w>
kontrain ot</w>
kom pleto</w>
kol taya</w>
ki lix</w>
kaʼiy oj</w>
kaʼiy kotik</w>
kamigo taktike</w>
k etik</w>
k ejch
jweʼ tik</w>
jw eluk</w>
jun al</w>
jujun tule</w>
jues etik</w>
jtu le</w>
jtu h
jtsaj taytik</w>
jti ʼ
jte bu
jnopoj ele
jnaʼ oj
jna tike</w>
jlu mal</w>
jkʼ ej</w>
jkanan tuminchijetik</w>
jil al</w>
jaʼ ex</w>
ir nos</w>
invi tado</w>
inunda ciones</w>
inti mi
inten tan</w>
inquie tudes</w>
increí ble</w>
inam arca</w>
ilin ba</w>
il beyel</w>
ik niwan</w>
ijka tsil</w>
i ris</w>
honr an</w>
hombr o</w>
hi pocresía</w>
herman oe</w>
haʼ ex</w>
h undi
gri tos</w>
gran ja</w>
gol pes</w>
gobier na</w>
garanti za</w>
gar ant
garant ía</w>
fron tera</w>
fr ases</w>
fomen tar</w>
fij arse</w>
esta rían</w>
esforz ándonos</w>
es pal
es col
erman aetike</w>
equilibr ada</w>
equi vo
equi val
ent err
enfr ente</w>
en lace</w>
en f
em an
ejer ce</w>
efic az</w>
ech an</w>
e kʼ</w>
drog aetik</w>
doctr ina</w>
disfru tando</w>
diseñ ó</w>
dis creto</w>
digi tal</w>
dificul tad</w>
di to</w>
di chas</w>
di ag
desta que</w>
desper tar</w>
describi ó</w>
descen diente</w>
des vi
des pi
der lo</w>
demostr ará</w>
deli to</w>
dej arse</w>
def ensa</w>
dec er</w>
de quiera</w>
cu le
cu l</w>
cor on
conf li
condi ción</w>
conclu ir</w>
compa ti
comer ciales</w>
comer cial</w>
com unidades</w>
com partir</w>
colum nas</w>
cion ik</w>
ci das</w>
chʼ ayik</w>
ch en
cel da</w>
castig ó</w>
cas co</w>
car g
capaci dades</w>
c ro
c aʼbat</w>
c ami
bil on</w>
bi o</w>
bautiz arme</w>
barco e</w>
aʼteji ke</w>
az ar
azar oe</w>
awal beyik</w>
awakʼ bon</w>
aw eʼ
atu quel</w>
asist encia</w>
asig nasion</w>
asi tin
asi rios</w>
arro gante</w>
ar ena</w>
apren día</w>
anima j</w>
anima da</w>
anim alnax</w>
amulan e</w>
ali smo</w>
ala tak</w>
al tike</w>
al bote</w>
akʼu ʼ</w>
aj tik</w>
agradeci da</w>
ador emos</w>
acʼ ob
acus ado</w>
ac aban</w>
absolu to</w>
abati ni
a u</w>
a kongregasion</w>
Yo ung</w>
X A</w>
W ENTA
VI G
VIG IL
US AMOS</w>
U TI
Tseʼ ejinan</w>
Tim or</w>
Temp loe</w>
T ʼu
T ras</w>
Ser ge</w>
Seg undo</w>
Santi dad</w>
Sab er</w>
SJOJKʼOY IK</w>
S junal</w>
S LAJ
Ru anda</w>
Re cuerda</w>
R a
Qui ere</w>
Pulem al</w>
Pro gr
Pal esti
OR T</w>
Naʼ ame</w>
Na cional</w>
N A</w>
Maestr os</w>
LAMAL KʼINAL</w>
L azaroe</w>
L am</w>
Jor dan</w>
Jaʼ to</w>
JU EC
J NAʼ
Invi te</w>
Ikʼ a</w>
IMPORTAN TES</w>
Hu manos</w>
Ha ga</w>
H arán</w>
F er
Ex pli
Ent retenimiento</w>
Edi ficio</w>
E t
Dic cionario</w>
DESPU ÉS</w>
D inamarca</w>
D ina</w>
Cur so</w>
Cu enta</w>
Cen creas</w>
CI O</w>
C ajwal</w>
Be tele</w>
Ba anik</w>
BE YA</w>
B an
ANZ A</w>
ANAʼ BEYXAN</w>
AN A
AL TIK</w>
A PREN
6 5
3, 8
3 4
2 26</w>
2 21</w>
199 5</w>
19 85</w>
19 52</w>
18 0</w>
0 0
ín te
ér qu
ã o</w>
É N</w>
yijtsʼin ab</w>
yaʼiy ojik</w>
yamik otak</w>
yamik o
yal ulan
yakʼ bon
ya kotikix</w>
y am
xta ʼ
xlaj in
xkʼax e</w>
xkʼ ayik</w>
xiw on</w>
xcʼ opoj</w>
xch ic
xba tsʼ
x wok
x kʼuxul</w>
x kol
x kakʼ</w>
w16 07</w>
w n</w>
w 95</w>
volver ía</w>
viaj aron</w>
vi amente</w>
ven der</w>
vali ó</w>
v áli
uni génito</w>
u lan</w>
tu pʼ
tsʼibay ele</w>
tsajtay biluk</w>
tri un
tra tados</w>
toj otik</w>
to mando</w>
to li
tey me</w>
tes at</w>
te oría</w>
ta ma
ta dor</w>
símbo los</w>
sway ich</w>
supervi sa</w>
sukur sal</w>
suj tesel</w>
suj otik</w>
su ra</w>
stuuntes oj</w>
stso tsel</w>
stsal otik</w>
sts ʼun
stojil uke</w>
sta kʼinike</w>
sta e</w>
spʼi jile</w>
spas xan</w>
spa pa</w>
solici tar</w>
so ñ
so etik</w>
snu kʼ</w>
snojptes onik</w>
snaʼ bat</w>
snaba teʼ</w>
slokʼ tayik</w>
slo qʼu
slekubtes bey</w>
skontra takik</w>
skom otik</w>
sjakʼ botik</w>
sj in
sin ceros</w>
simil ar</w>
si x</w>
ser é</w>
ser lo</w>
selec cion
scuenta hil</w>
sali da</w>
sab erlo</w>
s pʼijub
spʼijub tes</w>
s kar
ru mpi
reun ían</w>
respon der
rem e
rela ta</w>
qʼu ex</w>
quedar nos</w>
quebr an
que dé</w>
provoc ó</w>
program ae</w>
pro stitu
prepar e</w>
preocupar nos</w>
pregun temos</w>
posi blemente</w>
pon ían</w>
po s
plí qu
pla zo</w>
pier da</w>
pi so</w>
perfec tamente</w>
pedi rles</w>
pe z</w>
pa mbil</w>
pa go</w>
pa ga</w>
pa dos</w>
p il
origin ales</w>
organiz ó</w>
or é</w>
or an
oran ax
opi c</w>
op ile</w>
olvi de</w>
ofisin aetik</w>
ofic inaetik</w>
nu cle
novi a</w>
ni s</w>
ni c</w>
na te</w>
mé sti
mos lo</w>
molde ar</w>
mo ch</w>
maravil las</w>
manej ar</w>
mandar iletic</w>
machʼa uk</w>
machʼ anix</w>
machʼ anax</w>
ma to
ma quin
ma pa</w>
lokʼes bil</w>
lo j</w>
le tras</w>
le lal</w>
le erla</w>
laj inele</w>
laj elto</w>
l nanix</w>
kʼex lal</w>
kʼ ix
kuxul to</w>
ku b</w>
ko mi
kal bat</w>
k amigo</w>
jweʼ eltik</w>
jun ta</w>
ju ʼix</w>
ju da
jtsʼiba ytik</w>
jtso ba
jpas tikix</w>
jpa pae</w>
jojkʼoy ele</w>
jna e</w>
jkʼan kotik</w>
jcheb altik</w>
jaʼat nix</w>
jaʼ iknix</w>
j pi
j komel</w>
j al</w>
interes antes</w>
inter medio</w>
insi sti
infor mes</w>
in ar</w>
imi tan</w>
im parcial</w>
il beyaik</w>
ig nor
ic ul
i za</w>
i sta</w>
hábi to</w>
hu esos</w>
hor ri
hipó cri
hi o</w>
gu era</w>
gro en
gaba onetik</w>
g im
g esto</w>
g arse</w>
fran queza</w>
f lexi
f ik
f ama</w>
extranj eros</w>
expuls ados</w>
experim enta
ex kotik</w>
ex clu
equi pos</w>
encarcel ados</w>
elev adas</w>
el uc</w>
el kʼaj
efec tu
ec a</w>
e u
e etik</w>
dé cada</w>
dur ará</w>
doc e</w>
do mésti
do mi
do cu
diver ti
disfru taremos</w>
di éndole</w>
descri ben</w>
des obediencia</w>
der ech
dedic arle</w>
dedic a</w>
deci dan</w>
d s</w>
cul to</w>
cui dando</w>
coti di
conver tir</w>
conveni ente</w>
constru yó</w>
consci entes</w>
confir mó</w>
conden ó</w>
colabor an</w>
co inci
ci mos</w>
ci li
chʼ into</w>
chaʼ sujt</w>
chap el</w>
celu laetik</w>
ce dió</w>
caʼ beyex</w>
catá stro
carre tera</w>
car pintero</w>
ca ído</w>
ca sualidad</w>
brill ante</w>
bi letik</w>
belle za</w>
bas ados</w>
baj tʼ
ayú de
ayudar te</w>
ayin uk</w>
aya te</w>
awakʼ beyik</w>
aw otik</w>
aw okol
aw inam</w>
auto estima</w>
ats a</w>
ati j</w>
as ka</w>
arresta ron</w>
aquer ib</w>
apren derán</w>
apari encias</w>
ante cedentes</w>
anh el
anaʼ ik</w>
an es
amer icano</w>
amen aza</w>
alterna tiva</w>
alokʼ es</w>
alcoh ólicas</w>
alcan zar
al bor
al ar
akʼ e
akanan tay</w>
ajwal inel</w>
agrad ables</w>
agar r
afron tamos</w>
adecu ado</w>
actú an</w>
actu almente</w>
aconsej ó</w>
abri r</w>
ab uelo</w>
ab raz
ab akʼe
a xu
a tem
a proxi
a pre
Yox ebal</w>
Yan xan</w>
YUT SIL</w>
Y akʼel</w>
Y AN</w>
WI Kʼ
WIKʼ ILUK</w>
VIGIL ANTES</w>
VID E
U K
TI BIL
TIBIL TIK</w>
TAR DE</w>
T ran
T ab
T SEʼ
TSEʼ EL</w>
Sy dney</w>
Sue cia</w>
Sof ía</w>
Sen aquerib</w>
Sa gradas</w>
SE A</w>
S ri</w>
S ci
S as
Rub y</w>
R osa</w>
R ica</w>
Po dr
Per ú</w>
Pan amá</w>
PA DR
P regún
O hio</w>
O X
Nú mero</w>
N erón</w>
N EC
Melel bal</w>
Mali gno</w>
Lokʼ esa</w>
Lec ciones</w>
Le tt</w>
Le on
Lan ka</w>
Kʼu x</w>
KU R
KO TIK</w>
K oʼtan
K ing</w>
Jkoltay tik</w>
Je an</w>
JSI TIK</w>
J tat</w>
J oʼon</w>
I lu
I RI
H an</w>
H acer</w>
Ge of
GREG ACIÓN</w>
G OS</w>
F re
Es fuércese</w>
EST EMOS</w>
EST AS</w>
ESP IRI
Don aciones</w>
Des cargar</w>
DIS KUR
D C</w>
Cʼ ax</w>
Cuán tos</w>
Cu anto</w>
Comi tés</w>
Ci ty</w>
Ch ris</w>
CON FI
CO MO</w>
CH AM
C as
Be tania</w>
B at</w>
B abel</w>
B E</w>
Ayu da</w>
An ne</w>
Alexan dra</w>
AYU K</w>
AY BAL</w>
A quel</w>
A la</w>
A UT
7 8
4 55</w>
4 45</w>
3, 5
2 13</w>
19 63</w>
19 62</w>
18 2</w>
14 4,000</w>
1 13
- 4</w>
z amos</w>
yutsʼin at</w>
yoʼ tik</w>
yok ik</w>
yn dale</w>
yip tajib</w>
yichʼoj bey</w>
yichʼ ikix</w>
yaw al</w>
yakʼ ix</w>
yaba ku
ya kubel</w>
ya kon
y ej</w>
xwi lik</w>
xchʼi xan</w>
x nujpunike</w>
x noh
x hil</w>
x hahch</w>
x e
x chiknaj
x aul</w>
x at
w otsʼ
viol entos</w>
vi entos</w>
verdad eras</w>
venta ja</w>
ven drán</w>
ven dieron</w>
ven ción</w>
vehí culo</w>
v or</w>
v amente</w>
utili ce</w>
un en</w>
ue ve</w>
u m</w>
u el</w>
técn icas</w>
té ph
téph anie</w>
tsʼi ʼ
tsʼ oʼ
ts ik</w>
ts eltal</w>
transfu sión</w>
tr u
tom en</w>
tol er
tiʼ nail</w>
tendr é</w>
tem er</w>
ta tivas</w>
ta c</w>
sóli da</w>
sépti mo</w>
swenta inotik</w>
sw ayel</w>
suy as</w>
suj tat</w>
sufr amos</w>
sub título</w>
su el
stoj iluc</w>
star co</w>
spuk beyik</w>
spaso jike</w>
spas beyex</w>
sol ía</w>
snaʼi x</w>
snaʼ be</w>
sna il</w>
slekil alik</w>
sle bey</w>
slajin oj</w>
skʼaxun tayel</w>
ska xaul</w>
si tayel</w>
si enti
sienti fik
se quía</w>
schʼuh un</w>
sba qʼuetal</w>
salv ado</w>
s lab
s hu
s discurso</w>
s anos</w>
ru ta</w>
ru ido</w>
rode ado</w>
ro cío</w>
resuci ten</w>
resuci tarán</w>
rela toetik</w>
reci entemente</w>
realiz ado</w>
re í
re loj</w>
re construir</w>
ra ci
r te</w>
qui to</w>
qu í
pʼi jilal</w>
públi camente</w>
pucu je</w>
pu c</w>
proséli tos</w>
propi edades</w>
pro ve
preocu pan</w>
pr estar</w>
pr emi
po etik</w>
pi diéndole</w>
permi tía</w>
pejkʼaj em</w>
pec es</w>
pas é</w>
pareci dos</w>
par raf
pal o</w>
pajal nax</w>
pacífic o</w>
pa f
organiz ados</w>
ora m</w>
oport uno</w>
oj a</w>
och ix</w>
oc es</w>
o tuk</w>
no bi
nobi embre</w>
nichʼ anil</w>
nega tivas</w>
na ufra
mu éstre
mostr emos</w>
mor irá</w>
mo dific
mir ó</w>
mem br
mater na</w>
manuscri tos</w>
man tuvieron</w>
ma tea</w>
ma kal</w>
logr os</w>
llen as</w>
llam aron</w>
lejal ile</w>
le í</w>
le che</w>
le beyel</w>
l ones</w>
kʼop ile</w>
kuxul otik</w>
kuxu lik</w>
kujch em</w>
kuar to</w>
ko ik</w>
jwokol e</w>
jw ol</w>
jun xanix</w>
ju gar</w>
jts ak</w>
jtiʼ awal</w>
jpʼ al</w>
jpaj tik</w>
joʼ taktik</w>
jol aletik</w>
jkontra taktike</w>
jel aw
jchʼuunej kotik</w>
jaʼbil niwan</w>
jaʼ mal
jal wanej</w>
jajch el</w>
j kom
j chameletike</w>
invi tarlo</w>
inten taron</w>
inmedia tamente</w>
inju sta</w>
influ yen</w>
in stitu
im pre
ilu min
igu al
hurac án</w>
homi cida</w>
hal lan</w>
glori fic
gi e</w>
gan ando</w>
gal o</w>
g ica</w>
fru ta</w>
fr e</w>
fortale ciendo</w>
fortale cido</w>
fon os</w>
fer vor</w>
fara on</w>
f en
explicar les</w>
existi do</w>
estudi an</w>
estu ve</w>
esta d</w>
esper ábamos</w>
esco ge</w>
es ik</w>
er ce</w>
enoj ado</w>
enci clopedia</w>
encarcel ado</w>
ele cción</w>
ech aron</w>
dá di
dormi do</w>
do li
dirigi endo</w>
dij imos</w>
di plo
di gamos</w>
di f
di ariamente</w>
determin ación</w>
desafí o</w>
deli tos</w>
de tes
dañ ar</w>
dar an</w>
d ales</w>
cʼ op
cé monos</w>
cuán tas</w>
cui dó</w>
cu yo</w>
cu ad
cre an</w>
cre a
cor re</w>
copi a</w>
contribu yó</w>
confli cto</w>
con taba</w>
complej as</w>
com pe
civ iles</w>
científic o</w>
ci tó</w>
ci ar</w>
chʼi on</w>
chʼi c</w>
chuku lik</w>
chopo lic</w>
chi kʼel</w>
centr ó</w>
centr arse</w>
castig ar</w>
capaci tados</w>
cap tur
cambi aron</w>
cam ina</w>
cal ami
ca tivo</w>
c ant
bon ic</w>
bo mba</w>
bayal me</w>
bakʼe t</w>
baj ó</w>
aʼiy ele</w>
ay toxan</w>
ay tes</w>
awu tsilal</w>
atra ves
aten tos</w>
ata beyxan</w>
asi ri
ar chi
anoch e</w>
anim arlos</w>
anichʼ nabe</w>
an o
amik o
ami ta</w>
alimenta r</w>
akʼ ayin
aj ach</w>
aguan tando</w>
agradez co</w>
adolesc encia</w>
admi te</w>
adecu ada</w>
acus aron</w>
aconte cimiento</w>
achʼi x
acep té</w>
ac as</w>
ac am
abier tos</w>
abandon ó</w>
a kiltik</w>
a fuera</w>
Z o
Y ichʼ
X BAL</w>
V EN
Ten er</w>
T yndale</w>
T oj
T an
Sá bado</w>
Si erra</w>
Ser ie</w>
STE RIO</w>
S téphanie</w>
S tan
S h
S ant
S LOKʼ
S I</w>
R Á</w>
QU E
Parti tura</w>
Par ís</w>
Pa st
PU ESTA</w>
PI ZAR
PAJ INA</w>
O x
O bed</w>
Naʼ a</w>
NU ESTROS</w>
MIN I
Ly die</w>
Libr o</w>
Li sias</w>
Le ona</w>
Lau ra</w>
LA YA</w>
L TIK</w>
Jaj ch</w>
JBA TIKE</w>
IL KʼINAL</w>
H ades</w>
H U
H O
Go bier
G Á
G en
FELI Z</w>
FECH AS</w>
Ex amin
Escri tura</w>
Es kuela</w>
ESP ER
ES TI
ES CU
ER MAN
ENSEÑ AN
ENSEÑAN SA</w>
E sa</w>
E paf
E TIKE</w>
D ENTE</w>
Cum pli
Cu lti
Cor dero</w>
Co ok</w>
CON GREGACIÓN</w>
CO L
CH E
CAN CIONES</w>
BEN DI
BA UTI
B os
Ari starco</w>
Ari matea</w>
Apo y
Alg una</w>
ATA LAYA</w>
A migo</w>
A Z
4, 9
4 54</w>
3, 9
2 73</w>
2 30</w>
199 7</w>
19 65</w>
19 4</w>
18 8</w>
17 0</w>
1 52</w>
ʼi ke</w>
ús queda</w>
ú m</w>
óli cos</w>
Ár tem
Ártem is</w>
zar ra</w>
yu k</w>
yichʼ e</w>
yam akʼ
yal ojbey</w>
yal beyex</w>
ya kal</w>
xul tay</w>
xtulanu bxan</w>
xnojptes wan</w>
xna in</w>
xkʼayoj inik</w>
xcʼ o
x yakʼik</w>
x naj
x kakʼtik</w>
x jokinot</w>
x ho
x cuxaj
wokol awalik</w>
wikʼ iluk</w>
w16 05</w>
w 88</w>
vé an
volver án</w>
voluntari amente</w>
vo tos</w>
vivi endas</w>
visi te</w>
vers ario</w>
ven cidos</w>
valor an</w>
vac ío</w>
v enta</w>
utsʼin wanik</w>
tu c</w>
tsʼ il</w>
transmi te</w>
tormen tas</w>
tonel ada</w>
toj bil</w>
to juk</w>
tik to</w>
ti on</w>
tex toe</w>
ten cias</w>
te za</w>
te la</w>
te atro</w>
tar é</w>
t te</w>
sw ayich
superfici e</w>
suce da</w>
su ministr
stʼu noj
stsʼum bale</w>
stsʼiba ye</w>
stso bi
sti ʼ</w>
sti con</w>
sta bey</w>
st su
spisi lnanix</w>
spas elxan</w>
spas bat</w>
spa te</w>
soldad oil</w>
sol teros</w>
so las</w>
snu pʼ
snojptes lan</w>
snichʼ an
smak on</w>
smaj tʼan</w>
smaj tan
sm ilel</w>
sloʼl ayel</w>
slajin lan</w>
skoltay one</w>
sko moj</w>
situ ada</w>
siti os</w>
simp les</w>
senti ría</w>
semej ante</w>
se pamos</w>
schʼuum beyik</w>
schʼuj tʼ</w>
schʼu unike</w>
scham ele</w>
sbabi ale</w>
saserdo te</w>
santu ario</w>
san tidad</w>
salu dos</w>
sal a</w>
sacri ficar</w>
s lokʼomba</w>
s cuentah
s comentari
reún e</w>
res pal
reme dio</w>
relacion a</w>
regu e</w>
registr o</w>
refer encias</w>
redu cir</w>
recompens ará</w>
reci ente</w>
re d
ra son</w>
r uego</w>
r emo
r ama</w>
qu eb</w>
pú r
pájar os</w>
pulem al</w>
pu ñ
pu ente</w>
prue be</w>
pru dentes</w>
prote gen</w>
pro sper
pro mueve</w>
presenta ron</w>
preocupa ción</w>
predic adores</w>
preci oso</w>
pre fi
port á
politi cae</w>
pobre ik</w>
pi zarra</w>
pes ada</w>
permi tan</w>
percibi r</w>
peli ku
peda zos</w>
pasaj eros</w>
pas bile</w>
oí dos</w>
ori da</w>
ora etik</w>
or aron</w>
on ido</w>
on ic</w>
ológ ico</w>
odi aba</w>
ocur ra</w>
obli ga</w>
obedec ían</w>
obedec erlo</w>
ob sesi
o kʼ</w>
nojptes eletik</w>
no sti
n ar
motiv ar</w>
milagr osa</w>
menti roso</w>
men tari
mari hu
marihu ana</w>
manten gan</w>
malv ada</w>
mal dición</w>
madi ani
m y</w>
m amente</w>
m ales</w>
m aban</w>
lá m
lokʼomba kʼopetik</w>
logr amos</w>
lluvi as</w>
lla ve</w>
ll orando</w>
liber ado</w>
li via</w>
lel xan</w>
lek me</w>
le que</w>
le pra</w>
l beya</w>
kʼop tayel</w>
kʼax un
kʼajkʼ e</w>
kʼ aʼ
koʼtan uk</w>
kongregasi onetike</w>
kil beytikix</w>
ki kʼ</w>
kakʼ beykotik</w>
k lase</w>
k erman
judi ciales</w>
ju kotik</w>
jtuk el
jtsʼiba y
jta kotik</w>
jpʼijubtes tik</w>
jpo koʼ</w>
jpa six</w>
jol ol</w>
jokin lan</w>
jojkʼoy beytik</w>
jmam ae</w>
jkʼax ele</w>
jkojkʼ chikinetik</w>
jichuk nix</w>
je tic</w>
jch in</w>
jaʼu kix</w>
j or
j eron</w>
is laetik</w>
is bol</w>
invi sibles</w>
interes an</w>
inf ini
in migr
im pon
im pidió</w>
im o
ilin emik</w>
ijki tayot</w>
i jkʼ</w>
hu queb</w>
hor mon
hon y</w>
hi ri
hi guera</w>
hebre a</w>
hal lará</w>
haci éndolo</w>
habl é</w>
habl aron</w>
hab erlo</w>
ha m</w>
ha bilidad</w>
h t
genti na</w>
g ámonos</w>
fun er
frecu entes</w>
fr ío</w>
foto grafías</w>
fir memente</w>
filoso fía</w>
fij arnos</w>
f lu
exten dió</w>
excel entes</w>
estudi aba</w>
estre lla</w>
esta cion
est ó</w>
escuch en</w>
es qu
er ro</w>
entreg a</w>
enfrenta rnos</w>
enfer m
encar ga</w>
en tando</w>
el son</w>
ej xan</w>
ej chʼ
egoí smo</w>
ecin ueve</w>
dul ce</w>
dona tivos</w>
disfru ten</w>
disfru ta</w>
discu tir</w>
dis puesta</w>
dig na</w>
dibu j
diag nosti
di mientos</w>
di ecinueve</w>
di am
desobedeci eron</w>
descu br
der os</w>
delincu encia</w>
dej aría</w>
de ber</w>
dad os</w>
d ones</w>
cʼu x
có moda</w>
cum pl
cuidar a</w>
cu lares</w>
cu ente</w>
cru el
cro moso
cristi an
cri ar</w>
cr é
corre r</w>
cor te</w>
converti rá</w>
conoci eron</w>
con t
con creto</w>
con cre
comien zo</w>
colabor adores</w>
col ores</w>
co st
cir se</w>
cigar r
ci to</w>
ci tas</w>
chuk ele</w>
chu j
chaʼoxtu lik</w>
chah panel</w>
ch ik</w>
ch i</w>
cer em
centr a</w>
carri toetik</w>
cambi ando</w>
cab e</w>
bé isbol</w>
bo tex</w>
bili kix</w>
bi sio</w>
bi il</w>
beya xan</w>
be tic</w>
bauti ce</w>
bah il</w>
ba dos</w>
b úsqueda</w>
az ar</w>
ayu kxan</w>
awijkʼi tay</w>
aw alatak</w>
atʼu n</w>
atr ae</w>
atem ala</w>
ata xan</w>
ata oj</w>
asitin tay</w>
asist en</w>
arrepenti dos</w>
arra str
ar am
aprovech ando</w>
aparec er</w>
apa rato</w>
an tas</w>
amali y</w>
am ados</w>
alum ale</w>
alu pe</w>
aloj amiento</w>
alivi ar</w>
al an</w>
akʼo tes</w>
ajojkʼoy beyoj</w>
ahor rar</w>
ahcʼ abal</w>
agradec en</w>
afec ta</w>
ador e</w>
ad alupe</w>
achʼu btesel</w>
ac ceso</w>
abandon aron</w>
ab ur
a st
a comentario</w>
a cia</w>
Zo om</w>
Y H
YH W
YHW H</w>
Vi vi
Vi da</w>
U ʼU
Tu mba</w>
Tu lan</w>
Ts ʼiba
Ti t</w>
TI KXAN</w>
TAY EL</w>
T SA
T EL</w>
Syl via</w>
So mos</w>
So lici
Sno taul</w>
Si r
Ser gio</w>
SLOKʼ EL</w>
SCH OL</w>
SAN TI
SA LIDA</w>
S KUXLEJA
S ENTI
RI L</w>
R ela
R af
Qu ería</w>
Pres ente</w>
Pi erce</w>
Per spicacia</w>
Pa z</w>
PU ENTE</w>
PREGUN TAN</w>
PA RA
ON U</w>
OB JE
O f
O be
No u
Ni lo</w>
Nab onido</w>
N ada</w>
Mer oz</w>
Maʼyu kix</w>
M y
M ol
Lou is</w>
Leon ard</w>
KʼOP E</w>
KOL TA
K AʼIY</w>
K AʼIY
KAʼIY TIK</w>
Ju sto</w>
Ju luk</w>
Ju jun</w>
JUEC ES</w>
J kʼaxel</w>
J koltaywanej</w>
J an
I S
Hor st</w>
Hen ry</w>
H un
H emos</w>
Gu atemala</w>
Gu adalupe</w>
Gobier no</w>
Fre der
Fl orida</w>
Fi lem</w>
Feli ces</w>
FECH AETIK</w>
F í
F R
Espa ñ
Enseñ emos</w>
En seña</w>
ESPIRI TU
EN DO</w>
Den nis</w>
Demo stremos</w>
DEM ÁS</w>
D í
D os</w>
D el</w>
Congreg ación</w>
Comen tario</w>
Chri st
CH O</w>
CA P
Bo livia</w>
Ben e
Be t
Barzil ái</w>
B ON
At lan
Ar gentina</w>
Ant hony</w>
Ala in</w>
Al farero</w>
Ac án</w>
AB RIL</w>
A pó
8 000</w>
5, 5
4 50</w>
3 32</w>
29 7</w>
29 5</w>
20 6</w>
2 76</w>
2 38</w>
2 35</w>
16 6</w>
16 1</w>
16 ,
15 9</w>
án gu
Ín dice</w>
Á ng
z ará</w>
yutsʼin bey</w>
yu tsʼinel</w>
yu t</w>
yoʼtan ique</w>
yin g</w>
yili mba</w>
yaʼiy beyel</w>
yaʼ beyex</w>
yan tique</w>
yamakʼ ul</w>
yal tiklambey</w>
yak ik
ya qʼue</w>
y ochel</w>
y eran</w>
xw ol
xpas taj</w>
xmukʼu b</w>
xma kotik</w>
xlaj on</w>
xkʼo ex</w>
xkʼayoj inotik</w>
xkanantay ot</w>
xchaʼ sujt</w>
xch uc</w>
xch ebal</w>
x mu
x jin</w>
wits etik</w>
wan at</w>
viu das</w>
ver ano</w>
ven dría</w>
v ine</w>
v ara</w>
ur gente</w>
un dos</w>
ue los</w>
tʼoj an</w>
tʼ ilnix</w>
tʼ elul</w>
tí mi
tu ales</w>
tu aje</w>
tsal awe</w>
tsah bil</w>
tro mpe
trast orno</w>
tranqui lidad</w>
trabaj aron</w>
tra taban</w>
tra ge
trage dia</w>
tr opo
tr es
tr ay
tic lan</w>
testig otak</w>
tes ele</w>
tayi ke</w>
tay tike</w>
tay beytik</w>
tal ón</w>
tal entos</w>
t ó
t bol</w>
swentain ej</w>
suce der</w>
su reste</w>
ste ʼel</w>
sta beyik</w>
spej kʼan
spasi kxan</w>
soldad oetike</w>
snasion ik</w>
smaj tʼ
slokʼes bey</w>
slam antes</w>
slab anik</w>
skʼop iknix</w>
skʼases bey</w>
skʼ ex
sjoʼ take</w>
sist em
sir van</w>
si li
ser le</w>
ser i
se co</w>
scol tay
schaʼpas ik</w>
sch o
sch ikʼ
sch amel</w>
sbolob tesbey</w>
salu do</w>
sali era</w>
s ía</w>
s kontra</w>
s ji
s h</w>
s en</w>
s costumbre
ro d</w>
reun imos</w>
resul tó</w>
respon den</w>
respe taban</w>
rein os</w>
rein ará</w>
recor damos</w>
rech aza</w>
re tos</w>
re pe
re construcción</w>
re aliza</w>
re ales</w>
r ó
r las</w>
r g
r c
qʼu etic</w>
qui chʼ
quer ida</w>
que dará</w>
pʼijuben ik</w>
pʼi sbi
pu knax</w>
pu jk</w>
provoc ar</w>
prote ja</w>
pro viene</w>
pri mo</w>
pres tig
pre para
pre dice</w>
practi can</w>
politi coetik</w>
plan tas</w>
pier den</w>
pi damos</w>
perse ver
pens aron</w>
pe hcʼ
patri arca</w>
pati o</w>
pas en</w>
pas bilik</w>
particip ando</w>
pandem ias</w>
pa tr
p en</w>
p ciones</w>
ovej a</w>
ori ental</w>
or to
or th</w>
or illa</w>
opo n</w>
olvi dado</w>
ol on
ocurri do</w>
och enta</w>
o tix</w>
nú meros</w>
nu bes</w>
noptsaj el</w>
nijk eletik</w>
nichʼ ane</w>
nega tiva</w>
ne go</w>
najalsiti letik</w>
máqu inas</w>
mue ven</w>
much ach
moso etik</w>
mo lecu
mez cl
membr ana</w>
me lo</w>
mayordo mo</w>
mar in
mak ina</w>
majtan ile</w>
m ent
m alel</w>
lé alo</w>
lo gran</w>
lle n</w>
llam adas</w>
ll ying</w>
limi tado</w>
levan tará</w>
levan ta</w>
leku knax</w>
lej ch</w>
las ti
ladr ones</w>
la zo</w>
l unes</w>
kʼop tay</w>
kʼo tike</w>
kʼayoj tayel</w>
kʼayoj ile</w>
kʼayoj e</w>
kʼaxem niwan</w>
ku tsʼin
ku el
kijkʼi tay</w>
k ech
k an</w>
k ae</w>
jw enta</w>
jul tesel</w>
juk tul</w>
juda ísmo</w>
jtsʼin uk</w>
jtsoba w</w>
jtsajtay wanejetike</w>
jta kʼin</w>
jovenci tos</w>
jnopojele x</w>
jnop junetik</w>
jnaʼ tike</w>
jlekub testik</w>
ji bik</w>
jchol kʼopetike</w>
jban kil</w>
jajch otik</w>
j pun
j kon
j col
j amos</w>
is èle</w>
ir me</w>
inv oc
inten sa</w>
ingr esos</w>
influ ye</w>
inf ancia</w>
inclu yen</w>
in ta</w>
in t</w>
in sensa
in divi
indivi du
impul sos</w>
imi tamos</w>
ilin at</w>
il ob
il ana</w>
i bale</w>
humani taria</w>
hu yendo</w>
ho spe
hi gi
hech ic
h t</w>
h lo
h arían</w>
h arás</w>
gusta do</w>
guar dia</w>
gu ían</w>
gu emos</w>
gri ta</w>
gor ri
gober nación</w>
gi era</w>
gen io</w>
gan cia</w>
gan an</w>
g es</w>
fí jate</w>
fru tos</w>
form aron</w>
fol letos</w>
fam oso</w>
f ór
expul sar</w>
expec tativas</w>
ev alu
estudi ado</w>
estr es
espal da</w>
esco ja</w>
es sing</w>
es kuel
es fuér
err óne
enti erro</w>
ent revista</w>
ent orno</w>
enseñ amos</w>
eni cia</w>
en sia</w>
en fu
eli ge</w>
eje cución</w>
ec o</w>
divi siones</w>
divi dir</w>
divi dido</w>
div inas</w>
discu sión</w>
dirig ían</w>
desanim arnos</w>
des ilu
der ri
dar te</w>
d ox
d enes</w>
d acción</w>
cʼu btes
cumpli rse</w>
cui de</w>
cu ch
cu antas</w>
cruel dad</w>
cristian dad</w>
cre ce</w>
cor rección</w>
conven cer</w>
constru yeron</w>
constru ido</w>
conoc erán</w>
confi aron</w>
confi aban</w>
compar arse</w>
comi endo</w>
com prob
co lec
climá tico</w>
chʼultes bilu
chʼu lelal</w>
chʼi uk</w>
chik anik</w>
che wa</w>
ch ebuk</w>
cer teza</w>
cariñ osa</w>
cal bat</w>
cad á
ca iga</w>
c í</w>
c esa</w>
c ador</w>
bu llying</w>
bre ves</w>
blasf em
blan ca</w>
bersi kuloetik</w>
be lat</w>
be e</w>
be cer
bauti za</w>
bal to</w>
ba y
aʼ bal</w>
ayudar las</w>
ay as</w>
awu tsil</w>
aw enta</w>
aw aʼte
aumen tando</w>
atu k
ata ik</w>
as cen
arro gancia</w>
arrepinti ó</w>
arra ig
ar íamos</w>
ar ina</w>
ar do</w>
apli caciones</w>
apara toetik</w>
anu jpun
ant setic</w>
anojp tes</w>
anim arnos</w>
anaʼ oj</w>
an es</w>
amor osa</w>
amig oetik</w>
alim entó</w>
alcanzar las</w>
alab arlo</w>
al tos</w>
akʼayin bey</w>
ah ni
agradec erle</w>
agradec er</w>
afirma ción</w>
adul to</w>
acus ó</w>
acer can</w>
abier to</w>
abi ile</w>
ab e
ab ar
Ze us</w>
YUʼU N
YAN TIKE</w>
Y EL</w>
Y E
X KʼOT</w>
V o
V E</w>
UN OS</w>
U É</w>
Tu minchij</w>
Tsaj tayame</w>
To da</w>
TRA BA
TALE LIL</w>
Sime ón</w>
Sim one</w>
Si dón</w>
Sant ísimo</w>
San ta</w>
Sab emos</w>
S ʼ</w>
S testigotak</w>
S ta
S ex
Ru mania</w>
Re dacción</w>
Ran di</w>
R AS</w>
Pro te
Pre párese</w>
PU BLI
PRO BLE
PA BLO</w>
Oli vos</w>
O c
Ning ún</w>
Nic o
Naʼ beya</w>
N ojp
N ah
N OP</w>
Mu y</w>
Mar co</w>
MUN DO</w>
MU ER
MINI STERIO</w>
Le ví</w>
L Í
Kʼ an
Jta tic</w>
Jes é</w>
Jer oboam</w>
Jaʼ niwan</w>
JOS UÉ</w>
JCHʼI ELETIK</w>
J pa
J letik</w>
J kanan
I KE</w>
Hist ory</w>
Hab rá</w>
H able</w>
GUI EN</w>
G isèle</w>
G A</w>
F Í
Enséñ eles</w>
En lace</w>
Eli ú</w>
EST OS</w>
E LO</w>
E LI
Dor cas</w>
Di ez</w>
DI BU
DE BE
DE A</w>
Col osas</w>
Ch ina</w>
CRE ER</w>
COR AZ
CORAZ ÓN</w>
Bl essing</w>
Aʼ te
Apren dí</w>
Ac érqu
AW UʼU
ANI MA
AM E
AL GUIEN</w>
A ʼi
A ños</w>
A bed</w>
A S
A GU
8 8
8 3
7 0
6, 7
6 8
5 50</w>
4, 3
3, 2
20 7</w>
20 5</w>
20 1</w>
2, 2
2 37</w>
2 25</w>
199 0</w>
19 87</w>
19 70</w>
19 67</w>
19 60</w>
ʼ il</w>
ór denes</w>
yol oj</w>
yochin tay</w>
yo li
yisi m</w>
yb 16</w>
yaʼiy bon</w>
yakʼ beyoj</w>
y s</w>
xʼ aʼ
xʼ ayin
xweʼ ik</w>
xtuun ix</w>
xnam aj
xkʼopo jotike</w>
xkʼopo jike</w>
xkʼax un
xjajch otik</w>
xiw eltic</w>
xchic naj</w>
x toy</w>
x kol</w>
weʼeli letik</w>
ví n
vín culo</w>
vivi eran</w>
visi tamos</w>
vide oe</w>
v íamos</w>
v ol</w>
us ará</w>
univer si
tʼun el</w>
tí o</w>
tul nax</w>
tu un</w>
tu m
tseʼ ej
ts eman
triun f
traduc en</w>
tra dición</w>
toy xan</w>
tor ce</w>
to yel</w>
ti kʼ
termin aron</w>
tempor ada</w>
tayi x</w>
tama ño</w>
tal ler</w>
ta pa</w>
t ánico</w>
t niwan</w>
swenta e</w>
sut bon</w>
stʼuj bilal</w>
stsak on</w>
stsah tay</w>
sts alik</w>
sta xan</w>
spʼ ol</w>
spensar ik</w>
sor es</w>
sol tero</w>
sobr ino</w>
so le
snujpun elik</w>
snopi kxan</w>
snop xan</w>
snaʼ ojix</w>
snaʼ oj
snaʼ beyelxan</w>
snaj tʼil</w>
smulan beyik</w>
smul anike</w>
smali b</w>
smak bey</w>
sma kik</w>
slokʼes oj</w>
skoltay ex</w>
sjokin ej
sjokin at</w>
sj inel</w>
sir va</w>
sim pli
si tos</w>
señ o</w>
señ ales</w>
senti dos</w>
segui dor</w>
se ver
scomentari oik</w>
schʼuj t</w>
schʼay tes
schol tiklanbey</w>
schikʼ ik</w>
sch el</w>
sbi ilinik</w>
sbi ilike</w>
sba ikix</w>
satisf ac
sali do</w>
sal drán</w>
sal ario</w>
sacu dida</w>
s ina</w>
s hach</w>
s cux
s ch</w>
s ana</w>
rue das</w>
rompi ó</w>
rode an</w>
rode ados</w>
ro gó</w>
revista e</w>
respon derá</w>
repu g
repug n
reflej an</w>
recib í</w>
reci ó</w>
reci ban</w>
rec titud</w>
re z
re velación</w>
re admi
razon amientos</w>
ra cial</w>
r guí
rguí s</w>
r amos</w>
qui tó</w>
qui tarse</w>
que tique</w>
que tas</w>
qu é
qu ini
qu enal</w>
qu em</w>
púr pura</w>
pu diéramos</w>
prohí be</w>
prepara tivos</w>
prekurso ra</w>
preci osas</w>
preci osa</w>
pre ten
pr olon
pox il</w>
poli sia</w>
po quito</w>
pier de</w>
pi o</w>
person aje</w>
perdon ará</w>
perd amos</w>
per siguen</w>
per sa</w>
per diendo</w>
per cep
peli cu
pelicu laetik</w>
pec ó</w>
pec tiva</w>
partici pamos</w>
paj kʼ</w>
pa mal</w>
oy eron</w>
ora huc</w>
or as</w>
op her</w>
on tes</w>
om ía</w>
ol d</w>
ofrec erle</w>
odi aban</w>
ocu pa</w>
ochin tayel</w>
oc cidental</w>
oblig aciones</w>
nujpunem at</w>
nojptes a</w>
no vio</w>
no etik</w>
ni wanix</w>
neutr al</w>
naj tʼ</w>
nain em
nail to</w>
nacion etike</w>
n ón</w>
n é
mu daron</w>
mu dado</w>
mor irán</w>
mon d</w>
molde e</w>
mo e</w>
mision al</w>
mil lan</w>
mi stas</w>
mer k
medi anoche</w>
man daron</w>
mad amente</w>
ma ta</w>
ma stur
ma ir</w>
m ín</w>
lokʼ tayel</w>
lo cali
llam as</w>
liter almente</w>
liber ados</w>
li lic</w>
lengu ajes</w>
lek ik</w>
le ju
le an</w>
la zos</w>
la go</w>
l on</w>
l lanu
l ino</w>
l adas</w>
kʼojo m</w>
kʼo emotik</w>
kʼan ik</w>
kʼan bil</w>
kʼ etike</w>
kulaʼ tay</w>
kuchʼ tik</w>
kom puta
ki rguís</w>
ki jtsʼin</w>
kaʼiy e</w>
k ab
ju bil
jpa t</w>
jo quin
jmulan tike</w>
jmaj kʼ</w>
jle beytik</w>
jla p</w>
jku x</w>
jkongregasi ontik</w>
jich laj</w>
ji c</w>
jchinam tik</w>
jch onbaj
ja pon
j tiempo</w>
j sejp</w>
j chi
inter rumpi
inten to</w>
inicu os</w>
inicu o</w>
infor mó</w>
infor má
inclu ía</w>
in volu
in correc
impuls ó</w>
impr entas</w>
impac tante</w>
imagin amos</w>
ilin em</w>
ijkʼi tay
ichʼ awan</w>
ic en</w>
ic anos</w>
i jkʼu
há bil</w>
hubi éramos</w>
hu yeron</w>
hu a</w>
hi ro</w>
here dado</w>
hal la</w>
hac íamos</w>
hablar a</w>
h o</w>
guerr eros</w>
guardi as</w>
gu é</w>
gra vedad</w>
gr ía</w>
gr am
gi endo</w>
fu éramos</w>
fru str
for nic
for mar
fl or
famili aetike</w>
expli caron</w>
ex hor
evangeli zador</w>
espiritu etike</w>
esi aetik</w>
esfor cémonos</w>
escuch aban</w>
escribi eran</w>
ep al</w>
entr a</w>
emo tikix</w>
e ves</w>
e vento</w>
dé cima</w>
dolor osa</w>
docum entos</w>
docu mento</w>
doc tor
discurso e</w>
dis te</w>
dis minu
direc to</w>
dibu jos</w>
di ll
di eta</w>
di arias</w>
determin ado</w>
despier tos</w>
desanima do</w>
des obedientes</w>
der ían</w>
defender te</w>
de do</w>
dal ena</w>
dad a</w>
da ción</w>
cʼo pe
cʼ an</w>
cumpli rán</w>
cuer das</w>
cru s</w>
cri min
cre yeron</w>
corri ente</w>
convinc entes</w>
contribu ciones</w>
continú e</w>
continu aron</w>
conoz can</w>
conmo ve
confi esa</w>
compor tarnos</w>
comi das</w>
com odi
co hel</w>
cla v
chujkʼu luk</w>
choj etik</w>
chaʼoxpʼ al</w>
chaʼ sujtik</w>
chaj puknax</w>
ces ar</w>
cer cana</w>
centr amos</w>
celebr aban</w>
candi datos</w>
can ti
cam bien</w>
ca torce</w>
c antó</w>
bás icos</w>
ben tan
batsʼ ejel</w>
bar ko
ba ño</w>
b oetik</w>
b lín</w>
ayudar les</w>
ayin ix</w>
ay ana</w>
awokol uk</w>
awili x</w>
awaʼiyi c</w>
awaʼiy eje</w>
awan otik</w>
awamigo take</w>
aw enta
auto bus</w>
ati no
asig nado</w>
as mín</w>
articu loe</w>
arrepi ente</w>
arreg lar
argu mentos</w>
ar madura</w>
ar agua</w>
apoy ando</w>
apli car
apar tar</w>
apaci bles</w>
apa t</w>
ap un
ant el
anop ilan</w>
anima dos</w>
anim en</w>
an tik</w>
an opo
an bil</w>
amer icana</w>
aman ecer</w>
am arán</w>
am aj
akʼbo txan</w>
akʼ ele</w>
akʼ bote</w>
agrad arle</w>
agr icul
ago bi
acʼ am
acus ación</w>
ach el</w>
abatino tikxan</w>
abandon ará</w>
ab ón</w>
ab uela</w>
ab re</w>
a terr
a segúrese</w>
YA ʼ
Y asmín</w>
Wokol bal</w>
Wal ter</w>
W eʼ
Tor onto</w>
To m</w>
Tim es</w>
Tam poco</w>
TO DOS</w>
TI EN
TI C</w>
TEN ER</w>
T U</w>
Su pongamos</w>
Su mo</w>
Su dán</w>
Sig an</w>
Ser ía</w>
Se ba</w>
SO N</w>
SKUXLEJA LIK</w>
SI TIN
SE GUI
SANTI A
SANTIA GO</w>
SA R</w>
S ó
S ep
S aba</w>
RAZ ONES</w>
R ÍA</w>
R az
R achel</w>
Parti ci
PROP IA</w>
PRO V</w>
P A</w>
On tario</w>
OS I
O DI
Nou mair</w>
Nic aragua</w>
NU J
NOP A</w>
N epal</w>
Mau d</w>
Mag dalena</w>
Machʼ a
Mac millan</w>
M ay
M as
Li fe</w>
LI LETIK</w>
Kʼan beya</w>
Kil beytik</w>
Kan antaya</w>
KOʼTAN TIKE</w>
KON TRA
K en</w>
Jojkʼoy beya</w>
Jaco bo</w>
JT ʼ
JKʼOP ON
JCHʼUUN TIK</w>
J kʼayin
Is ma
Igl esias</w>
Hun gría</w>
Hen schel</w>
Han anías</w>
H ay
H AY</w>
Gu ayana</w>
Goli ate</w>
Freder ick</w>
Fran cesa</w>
F al
Esta r</w>
Escu ch
Encontr ará</w>
En ví
Eli e</w>
EST AR
Du blín</w>
Di seño</w>
Di ría</w>
Culti vemos</w>
Christ opher</w>
Ch am
C antemos</w>
C abo</w>
C ER
Bus quemos</w>
Bri an</w>
BON DAD</w>
Am nón</w>
Alexan der</w>
Ale x</w>
Ab días</w>
AW AL</w>
AR ÍAS</w>
ALE GR
AJA P</w>
A LIL</w>
9 0
4, 4
4 83</w>
3 41</w>
29 1</w>
199 8</w>
19 59</w>
19 49</w>
19 2</w>
17 7</w>
1 54</w>
- 7</w>
- 5</w>
ʼi c</w>
ú bli
úbli ca</w>
ó vu
óvu lo</w>
í gen
ígen o</w>
é l
ándo la</w>
á tica</w>
Í TULO</w>
z it</w>
yuʼ elik</w>
yin amin</w>
yihqui tay</w>
yi kʼoj</w>
yaʼtel in
yaʼ bon</w>
yaloj beyix</w>
yaku bele</w>
y e
y ce</w>
xw ayon</w>
xul tay
xnoh poj</w>
xmil ot</w>
xloʼlay wan</w>
xlekub xan</w>
xkol otik</w>
xiw ike</w>
xej tʼelul</w>
xcʼo hat</w>
xchʼ ayike</w>
xchajpan wanik</w>
xbeh en
x lamaj</w>
x kʼan
x col</w>
x cholel</w>
wok lajel</w>
wentain bil</w>
waka xetik</w>
waka x</w>
wak tul</w>
w ayich
vol vamos</w>
vo tar</w>
visi taban</w>
vini era</w>
viaj aban</w>
vi rus</w>
ver ía</w>
val ía</w>
vac ía</w>
v ul
utsʼin bot</w>
utiliz ado</w>
us arlo</w>
ur gencia</w>
uni ó</w>
un ik</w>
u le</w>
u g
tum bas</w>
tul niwan</w>
tseman í</w>
tsa kotik</w>
tro pi
trata doetik</w>
trai ción</w>
tra ído</w>
tra ul</w>
tor re</w>
tom é</w>
tojobtes ot</w>
tiklan bil</w>
tey niwan</w>
tes oj</w>
teocrá ticas</w>
tal em
ta dores</w>
t ácti
t nax</w>
sur ge</w>
sufri mientos</w>
sufr ían</w>
suce dería</w>
su tik</w>
su min
su mer
su ales</w>
sta beyel</w>
st on</w>
spej tsʼ</w>
so sti
so que</w>
so kuk</w>
sna il
smukʼu btes</w>
smu lic</w>
sm al
sloʼl ayotik</w>
sloʼ beyik</w>
slekub tesik</w>
sle traul</w>
sle beyel</w>
skʼulej alik</w>
skʼopon ele</w>
skʼayin bey</w>
skʼatpʼun ik</w>
skʼan oj</w>
skanan taybey</w>
sjoʼ takik</w>
sjel tayik</w>
sjap botik</w>
sjajchi balto</w>
sin gu
sin cera</w>
si go</w>
sexu alidad</w>
sent íamos</w>
segui ría</w>
se cará</w>
se ca</w>
scux lejalic</w>
schʼuhun ejic</w>
schʼ amel</w>
schol beyxan</w>
schah pan</w>
satisf echo</w>
salv ajes</w>
sal ía</w>
sab íamos</w>
sa k</w>
s moso
s lokʼomba
s ello</w>
s comentario</w>
ru so</w>
ro gar
ro gamos</w>
ries gos</w>
resu el
restric ciones</w>
rep enti
reno var</w>
reflexi on
reflej ar</w>
recor daba</w>
recompens ó</w>
rech azo</w>
rebel aron</w>
re por
re pas
rc unci
r ab
qui tarnos</w>
qui sito</w>
quedar ía</w>
que h
pʼ ol
puk beyel</w>
puj kxan</w>
pu kuj</w>
prote ína</w>
propó sitos</w>
pro cari
prision ero</w>
presi ona</w>
pres enci
predic arle</w>
predic ador</w>
predi que</w>
pr isa</w>
po pu
pers pectiva</w>
per sigan</w>
pen as</w>
pej ch</w>
pas aban</w>
pare des</w>
pant alla</w>
pan es</w>
pa gó</w>
ox ígeno</w>
organiz aciones</w>
orden aron</w>
obli gó</w>
o b</w>
nú cle
núcle o</w>
nichi m</w>
neg aron</w>
necesi tas</w>
naʼ ele</w>
n ale</w>
multi media</w>
mukʼu bel</w>
muk en
mu seo</w>
mu ro</w>
mu quenal</w>
movi do</w>
mo so</w>
mi dad</w>
mencion amos</w>
mencion ados</w>
melel bal</w>
marin eros</w>
manu al</w>
mam ail</w>
magnífic o</w>
ma ten</w>
m uni
m entales</w>
lóg ica</w>
lá mina</w>
lum kʼinale</w>
lokʼ ele</w>
llev aran</w>
lleg ando</w>
llam amos</w>
levan tar</w>
lel tike</w>
lek niwan</w>
lan z
lan bey</w>
lam ento</w>
l lo
l ay</w>
kʼun uk</w>
kʼay em
kʼax uk</w>
kujch ix</w>
kox o</w>
kor ne
komi te</w>
koltayaw on</w>
ko mo
ko b</w>
k ilel</w>
ju ltes</w>
jtsʼiba y</w>
jtakʼin tike</w>
jta tikxan</w>
jpʼijubtes wanejetik</w>
joʼ onkotike</w>
jnop tikix</w>
jk em</w>
jin etes</w>
jel tik</w>
jcʼ an</w>
jchʼuun jelotik</w>
jaʼmal etik</w>
jaʼbil nix</w>
jT at</w>
j xu
j sut
j sujtes</w>
j ikix</w>
j ense</w>
j alix</w>
interes aba</w>
inst ante</w>
inspir ó</w>
infor malmente</w>
inesper ada</w>
inci rcunci
in correcto</w>
in b
inb estig
im pedi
il bilix</w>
ik nax</w>
igu almente</w>
igu ales</w>
ig üe</w>
ide al</w>
i endo</w>
hor mi
ho yo</w>
ho tel</w>
histór ica</w>
har ina</w>
ha z
h oram</w>
h il
h em
gu ste</w>
groen landés</w>
gri tar</w>
gi da</w>
gen til</w>
g abo</w>
furi osos</w>
fundam entales</w>
fo menta</w>
fi jado</w>
felici tó</w>
fal la</w>
f ér
f lo
ez co</w>
ex posición</w>
evi tamos</w>
est rech
espa das</w>
esfor cemos</w>
escon dió</w>
escol ar</w>
escen i
escal era</w>
es to
entr an</w>
entien den</w>
enten dido</w>
enseñ ará</w>
encontr arse</w>
encan tados</w>
en vían</w>
emi so
eli ktoe</w>
eb tonax</w>
e v</w>
dádi va</w>
dr am
dis puestas</w>
diri ja</w>
dio setic</w>
dig nas</w>
dibuj oetik</w>
diagnosti caron</w>
di re
devolver á</w>
desa ho
deprimi dos</w>
den unci
demostr aba</w>
dej aban</w>
dedic ados</w>
decepcion ado</w>
debili tar</w>
deb amos</w>
de teri
dad as</w>
cʼope tic</w>
cuán tos</w>
cur saletik</w>
cui daría</w>
cu eva</w>
cu br
corru pción</w>
cor ta</w>
constru yendo</w>
condu ce</w>
con ser
compren día</w>
compr ó</w>
compor tarse</w>
complej o</w>
comenz amos</w>
come ten</w>
civ il</w>
chʼu um
chʼi tesel</w>
chi chewa</w>
ch icas</w>
ch am</w>
cer rado</w>
cas adas</w>
cas ada</w>
car gos</w>
canti dades</w>
can taron</w>
cal mar</w>
cal enta
cal beyex</w>
cad en
c adores</w>
bur len</w>
bril la</w>
bi tʼilnix</w>
bel la</w>
bas ándose</w>
bas ada</w>
bajtʼu k</w>
ba tix</w>
ba c
b y</w>
b all
aʼte liletic</w>
aʼiy bon</w>
az o
ayu n
autén tico</w>
atra í
ata e</w>
ara one</w>
aproxi madamente</w>
apren derá</w>
ape dre
anojp tese</w>
analiz ando</w>
an ote</w>
amu ch</w>
ami gas</w>
amen a
amena zas</w>
al nix</w>
al bal</w>
adver tencias</w>
ad oetik</w>
acʼ ope</w>
achʼuun bey</w>
acer camos</w>
acep temos</w>
aba ku
a tsa
a kuxlejalik</w>
Y aʼbal</w>
X LAJ</w>
W AN</w>
V a</w>
Tseʼel ukme</w>
Tsaj taya</w>
Ten ía</w>
Ten ga</w>
TU UN
TI ERRA</w>
T al
T SEʼE
Sex o</w>
Samu elson</w>
S kʼop</w>
S BU
SBU JT
SBUJT Sʼ</w>
Ri ana</w>
RI MON
RE Y</w>
RE LA
Pue den</w>
Progr ama</w>
Pi ensa</w>
PIZAR RA</w>
Or pá</w>
Oc cidental</w>
OS ENSES</w>
OR A
O tras</w>
Ne ws</w>
Me dio</w>
MEJ OR</w>
MAT RIMON
M BRE</w>
Lin da</w>
Leku kme</w>
Le kil</w>
L una</w>
Kʼ opo
Kar en</w>
K o
K at
Jun ukme</w>
Jpas waneje</w>
Joh n
Je horam</w>
Ja son</w>
Ja kob</w>
JKʼOPON TIK</w>
J oʼ
Isma el</w>
In trodu
Il beya</w>
I X</w>
Ha gamos</w>
H á
H il
Ge tsemaní</w>
Fe der
F araone</w>
F AL
Evi te</w>
Evangeli oetik</w>
Est her</w>
E ri
E res</w>
E qui
Cʼ opile</w>
Coordin adoretik</w>
Coordin adores</w>
Con tr
Chajp nax</w>
Can tar</w>
Cam paña</w>
COL OSENSES</w>
CH I
CH A
CAP ÍTULO</w>
C ER</w>
Bri zit</w>
BAUTI SMO</w>
B ru
B ayel</w>
Atlan ta</w>
Am án</w>
Ajwal inele</w>
Acérqu ense</w>
ANIMA DA</w>
AMI GO
AJW ALIL</w>
A gu
A gar</w>
A T
8 7
7, 7
6 6
6 0
5, 4
5 71</w>
20 9</w>
19 71</w>
19 66</w>
19 42</w>
19 31</w>
19 22</w>
19 20</w>
19 10</w>
19 0</w>
18 79</w>
18 6</w>
ʼ ik</w>
ó ni
ínti mos</w>
ínci pe</w>
ér co
érco les</w>
é z
é gr
égr ense</w>
ár sela</w>
Ñ OS</w>
Ñ A</w>
Áng eles</w>
z o
z arse</w>
yuʼuni n</w>
yox eb
yol ojuk</w>
yo kʼ
yijki tayotik</w>
yichʼ ojuk</w>
yi t</w>
yi kʼat</w>
yi c</w>
yej etik</w>
yaʼiy be</w>
yax al</w>
yal botike</w>
yal bon
ya qʼuel</w>
ya chʼ
xʼi lin</w>
xya hl</w>
xulu b</w>
xul tayel</w>
xu le</w>
xtuun e</w>
xnujpun e</w>
xnoptsaj at</w>
x yil</w>
x pʼiju
x mo
x jalaj
x awaʼbe</w>
wp16 3</w>
wp 173</w>
wiʼ nale</w>
winik otik</w>
wini quetique</w>
w17 03</w>
w ilel</w>
w enta
w ard</w>
volver se</w>
vol vía</w>
vol vieran</w>
vi ven
vi entre</w>
ver io</w>
v án</w>
v arón</w>
uni eron</w>
uni das</w>
uk sili
u chʼ</w>
tʼu na</w>
tʼu na
tʼ om</w>
tuminchi jetic</w>
tu ri
tu ag
tuag inta</w>
trabaj ado</w>
tra d</w>
tom ará</w>
to mas</w>
tikʼ nax</w>
ti kuk</w>
tati le</w>
ta beyel</w>
t émonos</w>
t onto</w>
t one</w>
t kotik</w>
t bal</w>
t alike</w>
sú b
sw otsʼ
sw ak
super ado</w>
sufri era</w>
stʼu tʼil</w>
stseʼ ej
stikun onik</w>
sti jik</w>
sreligi on</w>
spas tiklan</w>
spa h
spah mal</w>
sobresali ente</w>
so me
snu ts</w>
snojptes at</w>
snaʼ beyxan</w>
smul anic</w>
slokʼomba il</w>
slo ʼ</w>
slaj im
skʼopl alike</w>
skʼayoj tayel</w>
skʼajkʼ al</w>
skʼ ej
skʼ abe</w>
sjokin lan</w>
sistem as</w>
singu lar</w>
sincer amente</w>
simb ólica</w>
sim bo
simbo li
si lvania</w>
si ase</w>
ser bisio</w>
seg undos</w>
se is
scʼopon ic</w>
schʼuum bey</w>
schol bon</w>
schapo j</w>
sbiilin oj</w>
sbakʼe talike</w>
santific ado</w>
samaritan oetik</w>
salv arse</w>
salud able</w>
sab al</w>
sa kub</w>
sa gradas</w>
s ho
ro ik</w>
ro dea</w>
ri qu
resul tará</w>
resuci te</w>
respon día</w>
respe tado</w>
rem ol
regres a</w>
regoci j
red ac
recibi endo</w>
re ver
re for
re alistas</w>
ra m</w>
qʼu et
qui ta</w>
que de</w>
qu émonos</w>
pʼijub en</w>
pusi eran</w>
pul ar</w>
public ar</w>
publi cidad</w>
prohibi da</w>
profesi onales</w>
produc to</w>
produ jo</w>
produ cido</w>
prepar ada</w>
predic arán</w>
preci pi
pr endo</w>
por ción</w>
podr é</w>
pla gas</w>
piens as</w>
perten ecen</w>
perió dic
periodi ko</w>
perfec tas</w>
per spicacia</w>
per ci
pej tsʼ
pe leas</w>
pe lea</w>
patan il</w>
pas bilotik</w>
pari ente</w>
par ar</w>
pa gado</w>
p ic
orgullo sa</w>
oranax e</w>
ora sione</w>
opti mismo</w>
opi letic</w>
oper asion</w>
oper a
ofrec erse</w>
ofrec ernos</w>
ofen de</w>
of ar</w>
ocur ren</w>
obli gado</w>
obli ga
obe de
ob viamente</w>
o tor
o mas</w>
nu ra</w>
nop ilana</w>
nop bil</w>
nichʼ an
ni h
naʼ bot</w>
nave gar</w>
naj t</w>
nain ele</w>
n á</w>
n ico</w>
mu tu
mu li
mor iría</w>
mol esta</w>
mo tor</w>
mi tr
mi sa</w>
meti do</w>
mensaj eros</w>
men es</w>
mele luk</w>
medi temos</w>
maravil la</w>
mamalu botik</w>
mal trato</w>
ma xe</w>
m es
m bi
llanu ra</w>
liber ó</w>
li g
len te
leg almente</w>
le ʼ</w>
le ojibal</w>
lan o</w>
l ine</w>
l d</w>
l alil</w>
kʼo em
kʼajkʼ aleltik</w>
kuxu le</w>
kux aje</w>
kichʼ tike</w>
ki j</w>
kejch aj</w>
kar roe</w>
kar re
kamigoin tikxan</w>
kakʼ tikxan</w>
k abaku
jweʼ el</w>
juz gar
juju tuhl</w>
jti j</w>
jta bey</w>
jsut beytik</w>
jpox taywanej</w>
jpatxujk tik</w>
jpaj beytik</w>
jnopoj tike</w>
jnaʼu lantik</w>
jmulan tikxan</w>
jmam lale</w>
jkʼayin bey</w>
jkʼases ej</w>
jkom tik</w>
jkanan etik</w>
jichuk nax</w>
jchʼ aytik</w>
jchonbaj eletik</w>
jch on</w>
j nojptes</w>
j laj
j kʼab</w>
j chap
inten tando</w>
inten tado</w>
inteli gencia</w>
instru ctor</w>
inquie tud</w>
ing er</w>
inakti boetik</w>
in fiel</w>
in depen
in compar
in ami
impuls ado</w>
impresion ar</w>
impor tan</w>
im bil</w>
il ukme</w>
ide on</w>
ichʼ bilik</w>
i b
i al</w>
hu yó</w>
hu mor</w>
hu m
horri ble</w>
honr amos</w>
hi li
hermo sos</w>
hab rán</w>
h n</w>
h emo
gui la</w>
guerr ero</w>
guar da</w>
gratu ita</w>
gorri ones</w>
go ta</w>
gi as</w>
fís icos</w>
fr en
fer r
fal samente</w>
f red</w>
f f</w>
f ech
exili o</w>
exig ía</w>
ex plo
ex clam
ex amen</w>
evi ta</w>
et z
estruc tura</w>
esta do
estado uni
est es</w>
especi alistas</w>
esp ina</w>
escla va</w>
es tan
es h</w>
epi dé
entrevi ste</w>
enten demos</w>
ent revistas</w>
ent regue</w>
ent emos</w>
en du
el al</w>
ek s
e zo</w>
e tr
e japa</w>
divor cio</w>
div inos</w>
disfru tará</w>
disfru taba</w>
destru yendo</w>
descubri eron</w>
descri pción</w>
desanim emos</w>
des pedi
des e</w>
des anime</w>
dem anda</w>
delincu entes</w>
dej aré</w>
declar ación</w>
deci ó</w>
dec ente</w>
d oraetik</w>
cʼax ix</w>
cʼ opiletic</w>
cʼ abal</w>
cónyu ges</w>
cá l
cultiv ando</w>
cuidad os</w>
cu én
cri aturas</w>
cri atura</w>
crey ente</w>
cr ónica</w>
cose ch
corpor ación</w>
cor dero</w>
conven cida</w>
contr aste</w>
contes te</w>
consul te</w>
consolar nos</w>
consol ó</w>
confí e</w>
conden ados</w>
conclu yó</w>
comun ismo</w>
computa doras</w>
compr a</w>
com ponen</w>
com pon
co dici
clam or</w>
ciudad ano</w>
cin e</w>
cie gas</w>
[...]
