#version: 0.2
t e</w>
t i
t a</w>
o s</w>
a n
y a</w>
e l</w>
k ʼ
e s
e r
e n
c h
ti k</w>
a l
l a</w>
a l</w>
q u
t a
d e</w>
b i
p a
ʼ u
i n
o n
c i
e s</w>
a s</w>
qu e</w>
a n</w>
l i
y u
s o
@ -
@- @</w>
e m
e n</w>
l e
i l</w>
a b
a ʼ
o r
i k</w>
u n
a m
yu ʼu
r e
a r
kʼ o
d o</w>
s t
yuʼu n</w>
d i
s i
l o</w>
h o
t r
a j
o n</w>
p o
so k</w>
s e</w>
ch ʼ
J e
Je ho
Jeho v
o ʼ
ó n</w>
i c
b a
l os</w>
bi n</w>
Jehov á</w>
c u
t u
i l
b e
m u
j u
y a
a r</w>
D i
e l
t o</w>
B i
o j
o l
v i
o m
e tik</w>
p r
m a
r a</w>
p er
ic h</w>
d e
t an
j a
y i
s e
c on
ci ón</w>
pa s
Di os</w>
a y</w>
j ich</w>
m an
a d
b li
kʼo p
p u
r i
y al</w>
k e</w>
m a</w>
t ʼ
t e
s u
a c
n o
l as</w>
n i
p i
í a</w>
k ʼ</w>
o l</w>
k u
n a
s kʼ
ta n</w>
ja ʼ</w>
tʼ il</w>
u n</w>
n o</w>
oʼ tan
b r
l e</w>
al al</w>
m i
an t
Bi bli
s w
pa ra</w>
e r</w>
g u
m e</w>
en ta</w>
a w
kʼ alal</w>
c on</w>
o tik</w>
Bibli a</w>
oʼ tan</w>
em os</w>
s kʼop
o r</w>
d a</w>
c om
s u</w>
po r</w>
ma chʼ
a s
t o
ta y
l u
d a
á s</w>
m o</w>
J es
t es
n os</w>
t en
ti ke</w>
t s
a y
Bi n</w>
m e
sw enta</w>
be y
n u
b a</w>
j aʼ
i m
l al</w>
em p
un a</w>
a ción</w>
e c
be y</w>
skʼ an</w>
aʼ i
T e</w>
k ol
an do</w>
x ju
en te</w>
st oj
r a
ab a</w>
il el</w>
ú s</w>
Jes ús</w>
d el</w>
b u
i k
ch ʼ</w>
ch ʼu
xju ʼ</w>
a kʼ
l o
er man
es tr
es t
da d</w>
y al
skʼop lal</w>
re g
ju n</w>
1 0</w>
kʼ a
y oʼtan</w>
e j
o s
bi tʼil</w>
w in
per o</w>
al i
K ʼ
am os</w>
v er
kʼ u
1 5</w>
br e</w>
le k</w>
g o</w>
er a</w>
on es</w>
yi chʼ</w>
stoj ol</w>
t em
d os</w>
a do</w>
no p
pr o
am i
d es
h erman
ni x</w>
qu i
li l</w>
pas el</w>
a tik</w>
u tʼil</w>
f u
n tik</w>
e d
ya kʼ</w>
s pa
kʼo p</w>
ba yal</w>
k oʼtan
h i
h ac
a yu
i x</w>
in i</w>
en t
1 1</w>
kol tay
di c
x an</w>
es ta
le tik</w>
l a
Q u
1 2</w>
or a</w>
machʼ atik</w>
g r
m in
s pi
nu estr
t al</w>
f i
b al</w>
h ab
su s</w>
qu é</w>
tem e</w>
o etik</w>
ya kʼ
y an
á n</w>
a e</w>
koʼtan tik</w>
tu l</w>
t al
m ás</w>
ant s</w>
bi l</w>
1 3</w>
c a</w>
l es</w>
s ti
n aʼ
é n</w>
mu ch
o k
1 4</w>
pa r
l an</w>
ó mo</w>
p á
Qu é</w>
s il</w>
m aba</w>
win ik
er o</w>
u k</w>
ku x
com o</w>
m il
r es
s a
p or
r o</w>
s ba
s ch
bi ntik</w>
B I
í as</w>
ʼ i
T E</w>
na x</w>
spi sil</w>
p re
l aj
p e
t er
ta m
1 6</w>
yi chʼ
y oʼtan
le j
1 7</w>
cu ando</w>
c a
o b
el e</w>
T I
machʼ a</w>
c ri
J u
s on
o se</w>
es i
aʼi y
u k
en ta
al e</w>
b aj
o tr
s ta
k a
li k</w>
pu e
per son
chʼu un
e x
b o
en s
k i
gu i
winik etik</w>
ci ones</w>
s i</w>
Di ose</w>
est á</w>
emp lo</w>
E S
d r
kʼa x</w>
M a
aʼi y</w>
en ci
c o</w>
s ta</w>
L I
ab lo</w>
é s</w>
j i
g reg
e ch
mi n</w>
an i
kʼo t</w>
d u
ad a</w>
s o</w>
1 9</w>
j o</w>
i o</w>
s ba</w>
s mu
ab i</w>
c ar
ta s</w>
d em
1 8</w>
h a
P ablo</w>
T A</w>
é l</w>
in al</w>
s er
er on</w>
h a</w>
ti en
spa s</w>
i n</w>
s kʼop</w>
t es</w>
in o</w>
an te</w>
2 0</w>
e li
min s</w>
aʼ yu
o j</w>
mu kʼ</w>
e m</w>
ti l</w>
o c
ti k
f or
t os</w>
ab a
í an</w>
l an
O S</w>
tr a
w an</w>
m i</w>
yoʼtan ik</w>
am e</w>
ant i</w>
e j</w>
r o
k il
jaʼ nix</w>
ti g
m aʼyu
l le
g i
s j
c as
tu lan</w>
d ad
c ción</w>
de ci
al u
ayu d
w ok
ej emplo</w>
z a</w>
kʼu l</w>
L E
b anti</w>
u s
s pas
ch aʼ
el el</w>
i s
h u
aj kʼ
st r
p on
es ta</w>
so bre</w>
j tul</w>
cu r
se ñ
a h
A N
en to</w>
C ómo</w>
c or
Ju an</w>
m os</w>
ti emp
e b</w>
bey tik</w>
R e
ami li
po d
e tike</w>
an os</w>
aʼ te
di s
ar on</w>
f amili
se r</w>
so b
m elel</w>
maʼyu k</w>
s koltay
2 1</w>
j kʼ
l am
e letik</w>
hac er</w>
v o</w>
al es</w>
vi da</w>
ta r</w>
t u</w>
te o</w>
j pas
con greg
pá r
yuʼu n
bi én</w>
mu y</w>
ja ʼu
en tr
nop el</w>
de b
bey el</w>
in el</w>
ta r
P or</w>
tiemp o</w>
di o</w>
al g
t el</w>
d as</w>
c am
ti c</w>
2 2</w>
kux lej
g a</w>
an a</w>
pue de</w>
ba el</w>
TI K</w>
L a</w>
st o</w>
es tu
s pasel</w>
a ñ
tes el</w>
m o
es o</w>
2 4</w>
v e
tam bién</w>
ch uk
w an
person as</w>
t or
c h</w>
un i
con tr
kʼa x
o x
v a</w>
le k
en do</w>
Y A</w>
S al
al ab
ta y</w>
g o
c ʼ
j un
ku ʼu
y an</w>
kʼ inal</w>
s chʼuun
x u
j w
es te</w>
to do</w>
r as</w>
x i
yan tik</w>
de o</w>
er ra</w>
dic e</w>
ar á</w>
í bli
t oj
2 0
b otik</w>
c re
f r
an ci
b íbli
a si
a p
k akʼ
lo kʼ
j ba
as í</w>
c o
al il</w>
a u
2 3</w>
z o</w>
alu mil
congreg ación</w>
e b
os as</w>
st u
en di
oj kʼo
en ti
y aʼ
se ʼ
sba ik</w>
t sob
j nop
st s
B LI
ya k</w>
s ab
x kʼot</w>
so n</w>
tien e</w>
3 0</w>
kʼ ajkʼ
yal bey</w>
ya k
cu lo</w>
ojkʼo y
j aj
ci on
un os</w>
ch i
herman os</w>
te y</w>
ts ʼ
s k
p ens
s bi
no po
bu en
bey ik</w>
pa j
n a</w>
nuestr a</w>
g ar</w>
aj w
di jo</w>
jpas tik</w>
in a</w>
sch ol
T a</w>
i a</w>
fu e</w>
y il</w>
de r</w>
i ke</w>
to dos</w>
s me
f ic
chuk me</w>
reg un
s em
ad os</w>
á n
BI BLI
skʼop on
g ra
c ómo</w>
d on
spas ik</w>
0 0</w>
ho m
a pa
u st
bi en</w>
s naʼ
yichʼ ik</w>
t í
en señ
aw il</w>
u c
p li
a t</w>
pa til</w>
el ta</w>
ay oj
si ón</w>
ab al</w>
pod emos</w>
y aʼiy</w>
enci a</w>
or es</w>
D E</w>
al el</w>
s m
T i
s laj
c osas</w>
k al
S a
BIBLI A</w>
jaʼ bil</w>
p a</w>
li br
por que</w>
ent es</w>
a vi
C an
J o
bu elta</w>
le c
L A</w>
2 5</w>
ku k</w>
or ación</w>
re ci
a z
kil tik</w>
hab ía</w>
alumil al</w>
1 9
e d</w>
famili a</w>
Ma teo</w>
otr os</w>
2 8</w>
u e
n ec
l ar
su j
bo t</w>
vi deo</w>
p í
kʼajkʼ al</w>
D I
C u
ch aj
pu és</w>
m al
dad es</w>
es to</w>
J a
m en
ji ch
j ta
o ch
Jes u
C H
la j</w>
kʼop on
e ʼ
a yi
e lil</w>
n oj
Sal mo</w>
un do</w>
p ʼi
v en
aw oʼtan</w>
pre dic
j naʼ
jba tik</w>
re c
cri sti
man chukme</w>
ant es</w>
ay ik</w>
y ilel</w>
de j
much o</w>
O R
jnop tik</w>
chʼ i
J er
P ed
em pr
P ro
el los</w>
skʼopon el</w>
tr os</w>
y aʼiy
o po
h ay</w>
d ía</w>
sme le
s na
bi l
dem ás</w>
yuʼun e</w>
2 7</w>
ab aj
herman o</w>
le j</w>
akʼ a</w>
ch am
Ped ro</w>
p o</w>
wok ol</w>
des pués</w>
k o
es pi
D avi
pr im
k oʼtan</w>
ch ik
añ os</w>
2 6</w>
im por
L e
c an
c es</w>
s a</w>
es per
x baj
espi ri
j os</w>
ayoj il</w>
l em
empr e</w>
pr en
xu l</w>
t h</w>
c os</w>
lu m</w>
ti n
mu kʼul</w>
ú n</w>
tes tig
v os</w>
v ol
fu er
R I
ve z</w>
v e</w>
p regun
er n
a x</w>
2 9</w>
es a</w>
M ar
tay el</w>
v er</w>
mi s
E L</w>
A L</w>
b e</w>
si empre</w>
ts ʼi
hab l
skoltay otik</w>
Kʼ ayojil</w>
f er
si n</w>
pa j</w>
se gui
so tros</w>
si g
ar tí
tr abaj
jaʼu k
pár r</w>
V I
Can ción</w>
é n
k on
E s
smele lil</w>
ci a</w>
ver s
es tig
u l
pu ed
nuestr o</w>
h an</w>
ni wan</w>
be ya</w>
d er
o t</w>
E N
ten er</w>
ES T
noj p
s enti
cu enta</w>
y o</w>
Davi d</w>
f ec
Re ino</w>
wok o
ec h</w>
am or</w>
g ente</w>
est án</w>
ech os</w>
no sotros</w>
e a</w>
ʼ U
kuʼu ntik</w>
cas a</w>
al l
pr es
me j
ar a</w>
sem ana</w>
o p</w>
ar se</w>
C or
qu e
es e</w>
yi p</w>
pro b
no p</w>
si on</w>
S an
bi os</w>
j ojkʼoy
esta ba</w>
p un
herman oetik</w>
am al</w>
k otik</w>
b ar
H ech</w>
ust ed</w>
il e</w>
n i</w>
skʼ an
kakʼ tik</w>
ya kuk</w>
bi al</w>
A S</w>
i r</w>
ech o</w>
nec esi
ver dad</w>
so c</w>
re li
impor tan
E S</w>
or a
x kʼo
se gu
schʼuun el</w>
ni chʼ
ka j</w>
is ra
ci o</w>
artí culo</w>
B alumilal</w>
oʼtan il</w>
me to</w>
y ame</w>
T ES
so lo</w>
re uni
ta k</w>
BI N</w>
un tes
schol el</w>
win ik</w>
E l</w>
men os</w>
in ti
hi zo</w>
l lam
e le
espiri tu
j chʼuun
p alab
ar i
du r
pa dr
ayu da</w>
a gu
yakʼ bey</w>
smu kʼul</w>
j pa
m aj
an o</w>
estu di
skʼ u
p ʼ
si gui
libr o</w>
ki chʼ
qu er
i bal</w>
es cu
ch opo
re vi
I sa
tsob lej</w>
3 1</w>
wan ej</w>
m undo</w>
U N
g os</w>
ba y
s ac
jaj ch</w>
aw u
er an</w>
ent os</w>
ñ o</w>
si s</w>
d o
a m</w>
H echos</w>
b on</w>
pí ri
much os</w>
aj e</w>
lle v
par r</w>
d ar</w>
pu bli
Jesu se</w>
t ó</w>
p an
tu ra</w>
jaʼu k</w>
n om
J ich</w>
em e</w>
chʼu l
f eli
t om
a j</w>
0 00</w>
in c
alg unos</w>
b an</w>
lek il</w>
chʼu l</w>
ser vi
f e</w>
mu er
s kol
en es</w>
hom bre</w>
deb emos</w>
cu er
Y a</w>
píri tu</w>
b le</w>
e lo</w>
E n</w>
bu s
a qu
ab an</w>
tik xan</w>
i st
ci as</w>
pued en</w>
t ʼu
as ta</w>
P ero</w>
u ti
an an
ar nos</w>
A po
le cción</w>
ch ol
ó n
d es</w>
le a</w>
k aʼiy</w>
al ik</w>
p ec
Sa tan
3 3</w>
po si
nuestr os</w>
m al</w>
koltay el</w>
de c
e go</w>
Jehov ae</w>
ajw alil</w>
hac e</w>
j eletik</w>
con se
Bibli ae</w>
sba bial</w>
an za</w>
ch an</w>
A n
pá g</w>
kʼax el</w>
R om
e z
M A
1 0
m ente</w>
kʼu x</w>
h echo</w>
en contr
es píritu</w>
un que</w>
lu k</w>
vi vi
L uc
i chʼ
con fi
VI D
cristi anos</w>
T A
est os</w>
E R
os o</w>
Luc as</w>
3 2</w>
s al
yal ik</w>
lu gar</w>
C ri
sbi il</w>
3 5</w>
qui er
i li
esta s</w>
a pren
el la</w>
j oʼ
aba t
o y</w>
hi jos</w>
Jo b</w>
or g
us al
Jer usal
mi ento</w>
nu j
c ada</w>
a t
t seʼ
s kaj</w>
da do</w>
reli gi
nu e
in ci
ali dad</w>
n e
Satan ás</w>
prob lem
sw enta
cor az
Isa ías</w>
T im
par te</w>
al e
s nop
kichʼ tik</w>
te x
j amal</w>
k aʼiy
3 4</w>
ver bios</w>
ts il</w>
B in
J os
cu i
Pro verbios</w>
much as</w>
aʼiy ej</w>
st uk
ten ía</w>
yuʼun ik</w>
M o
al go</w>
N o
h asta</w>
I l
E J
es ti
Jerusal én</w>
s an
mej or</w>
Ja ʼ</w>
3 7</w>
con oc
C I
ʼu n</w>
es cri
ec es</w>
s í</w>
Tim o
pue b
bi li
er os</w>
st seʼ
s kuxlej
j nopo
mis mo</w>
coraz ón</w>
O N
C h
in ter
cu m
ju jun</w>
x tu
e uk</w>
m on
slaj ibal</w>
org ani
b endi
chʼ il</w>
sna ʼ</w>
J A
r á</w>
pr om
B a
jta tik</w>
inti os</w>
ami go
ʼ I
jnaʼ tik</w>
ad or</w>
chopo l</w>
lo kʼ</w>
i c</w>
al tik</w>
Timo teo</w>
jaʼuk meto</w>
testig os</w>
Cor intios</w>
eb re
dem o
J aʼ
es po
yichʼ oj</w>
y o
person a</w>
x e</w>
o kol
skʼu xul</w>
jaʼ nax</w>
hu man
ah ora</w>
Ti erra</w>
stseʼ elil</w>
j m
in ik</w>
br es</w>
ta do</w>
s le
Il awil</w>
res pon
pr inci
kʼ in</w>
j mu
segui r</w>
palab ras</w>
c er
me di
q ʼu
x chʼ
f í
greg asi
b on
yakʼ ik</w>
po co</w>
so k
a unque</w>
a ciones</w>
lec tura</w>
ba t</w>
j te
on ces</w>
P alab
J U
e p
s nopel</w>
ic a</w>
4 0</w>
f ri
Q U
tien en</w>
o be
con vers
ten emos</w>
t ʼ</w>
sok nix</w>
ob ern
ba h
un as</w>
esta r</w>
abat etik</w>
I n
lle g
j ki
to das</w>
tam os</w>
kon gregasi
un o</w>
tan to</w>
chʼul chan</w>
gui en</w>
Y abal</w>
an im
pu k</w>
aʼ tel</w>
L os</w>
demo str
al guien</w>
pá g
am ente</w>
st sa
LI L</w>
chaʼ ox
aʼte lil</w>
pueb lo</w>
di ó</w>
Ma t</w>
N o</w>
D ani
Cri sto</w>
I s
v al
qui enes</w>
bíbli co</w>
ñ a</w>
V ea</w>
j kuxlej
cu l
v en</w>
j il</w>
Kʼ U
otr as</w>
su per
ya chʼil</w>
o p
m ar
kaʼiy tik</w>
k il</w>
kʼop etik</w>
w 0
importan te</w>
ap ó
b en
man era</w>
A Y</w>
oj ik</w>
ayu k</w>
si er
in ten
am u
r u
k er
qu ed
Mo is
d ías</w>
nom bre</w>
mu j
e ti
le c</w>
l en
i do</w>
cur so</w>
ayi x</w>
j toj
re y</w>
T estig
so l
d ar
o lik</w>
or g</w>
a ch
j tu
x ch
O S
t el
v eces</w>
i g
jw org</w>
yu tsil</w>
buen as</w>
o f
kʼ el</w>
in g
j ilel</w>
deci r</w>
tor io</w>
c ol
a b</w>
m ero</w>
ya t</w>
cam bi
L O</w>
P A
c ali
woko lil</w>
po dr
1 4
c as</w>
c ab
O P
apó st
ra f
in e</w>
an e</w>
aw i
h e</w>
escu ch
e x</w>
m or
yi lik</w>
ta d</w>
c la
am a</w>
c í
a gr
é r
quier e</w>
ma y
jkʼ an
for ma
Is ra
entr e</w>
to da</w>
on e</w>
j k
fr u
Jos é</w>
sts ʼi
si ta</w>
ex pli
bay el</w>
na j</w>
em ik</w>
or ar</w>
ʼu n
yan tike</w>
winik etike</w>
aw aʼiy</w>
i dad</w>
a k
y ora
j puk</w>
j ik</w>
yaʼ tel</w>
r e</w>
ent onces</w>
don de</w>
ad as</w>
Mois és</w>
yakʼ botik</w>
estu dio</w>
Dani el</w>
stuk el</w>
xtu un</w>
apa s</w>
naʼ el</w>
Y U
nuestr as</w>
organi z
d í
c al
S e
j ts
gr an</w>
reci bi
pro f
m ame</w>
fi ci
tu lo</w>
j o
dur ante</w>
R E
Isra el</w>
A demás</w>
g ar
ol e</w>
kʼopon a</w>
S al</w>
T eme</w>
b al
ac ti
ayud ar</w>
LE L</w>
pa ci
ka kʼ</w>
cur so
ar io</w>
A l
problem as</w>
e la</w>
se a</w>
tsob lej
si ones</w>
os a</w>
LE JA
p sis</w>
xbaj t</w>
st alel</w>
cali psis</w>
ya kʼo
s nichʼ
t emplo</w>
re la
ic o</w>
an ix</w>
g a
ba uti
x kʼax</w>
kʼop on</w>
yora il</w>
s nop</w>
oc h</w>
le to</w>
cham el</w>
a ya</w>
inc lu
Apo calipsis</w>
z as</w>
u c</w>
chaj p</w>
si t</w>
j a</w>
ju b
H ebre
si on
ni fic
enta inel</w>
jich uk</w>
bi er
xkʼo po
l í
3 8</w>
cum pli
A L
emp ez
de as</w>
otr o</w>
f al
an oetik</w>
me ʼ
e qui
d emos</w>
LEJA LIL</w>
x tal</w>
el es</w>
ma to</w>
all í</w>
ami gos</w>
un ca</w>
y il
padr es</w>
S I
E z
B e
dis cí
discí pu
TES OR
t si
TESOR OS</w>
yak ik</w>
mi s</w>
tex to</w>
suj ti
pu er
li n</w>
T u
KʼU LEJALIL</w>
chi bal</w>
o m</w>
pa z</w>
i wan</w>
yaʼiy ik</w>
i r
E st
B E
stu un
g ri
C RI
sta ik</w>
princi pi
tseʼ el</w>
pas ele</w>
hom bres</w>
ci r
kongregasi on</w>
herman a</w>
esi s</w>
d in
3 6</w>
A N</w>
Rom anos</w>
I N
ci l</w>
anci anos</w>
a po
ta kʼin</w>
nojp tesel</w>
min ist
s ma
én esis</w>
G énesis</w>
A br
k om
ci u
á r
w i
Bin tik</w>
A d
se g
res u
muer te</w>
c ʼu
trabaj o</w>
hac er
com pa
contr a</w>
cur s
for ma</w>
enci as</w>
3 9</w>
otr a</w>
pro pi
pa n</w>
m as</w>
ja y
pre curso
lo kʼo
a tr
per mi
hi jo</w>
re cu
CH ʼU
C on
aba tin
O J
c ar</w>
su fri
posi ble</w>
ti go</w>
ac er
ra z
o h
jkʼ an</w>
fi n</w>
skʼop l
di a</w>
chik an</w>
Kʼ alal</w>
ta k
pregun tas</w>
n unca</w>
sier vos</w>
ci endo</w>
ali letik</w>
tr es</w>
m ens
j el
a etik</w>
sujti b</w>
bíbli ca</w>
ali y
ad u
F ili
n or
i t</w>
h ich</w>
ci er
cam ino</w>
VID A</w>
C or</w>
mu kʼ
jpa s</w>
as es
tal el</w>
San ti
ver dad
b an
x koltay
kux aj
I LEL</w>
pens ar</w>
nojp tes
alg unas</w>
akʼ bot</w>
E f
A kʼ
si r
raf o</w>
ox eb</w>
am e
ʼ e</w>
í amos</w>
per las</w>
tu d</w>
r ía</w>
a go</w>
Hebre os</w>
sigui ente</w>
an ax</w>
o tike</w>
nuj pun
agu a</w>
m ar</w>
ti erra</w>
on ia</w>
discípu los</w>
chik naj</w>
ac ep
CHʼU UN
W entainel</w>
C om
A y</w>
reuni ones</w>
kʼop il</w>
r s</w>
minist er
isra eli
v ía</w>
kʼo em</w>
S i</w>
com i
ali z
5 0</w>
u estr
des e
o ci
sk anan
en ten
com p
pár rs</w>
OS E</w>
Santi ago</w>
ti ca</w>
a v
a ta
E M
DI OSE</w>
paj al</w>
l esi
h er
vivi r</w>
per d
bi n
o cu
jnopo jeletik</w>
á l</w>
x a</w>
tʼu j
toj ob
ma g
hi ci
P on
to y
pr esi
gu erra</w>
con c
YU ʼU
n ada</w>
in vi
E N</w>
1 ,
jtoj ol
habl ar</w>
sig nific
pr i
h on
yaʼiy el</w>
ar lo</w>
s chʼu
pʼi jub
i gu
forma ción</w>
en fer
al mente</w>
S TI
A Kʼ
s cʼ
or ia</w>
bi lal</w>
x laj</w>
sw ok
E O</w>
tik lan
e bal</w>
des de</w>
el tik</w>
pu es</w>
predic ar</w>
erman o
4 5</w>
pág ina</w>
ta yat</w>
j chol
EST R
tay ik</w>
AN A</w>
si tu
or anax</w>
j kʼopon
spi si
a x
YUʼU N</w>
D e
ten dr
em ías</w>
añ o</w>
k ix</w>
xi w
v as</w>
ay in
E n
woko li
gra cias</w>
es pe
an op</w>
aw al</w>
tr o
aw oʼtan
S u
smu kʼu
w eʼ
c lar
em bre</w>
un di
ol es</w>
man tal</w>
pas a</w>
organiz ación</w>
m b
U ni
4 1</w>
ol ol</w>
ju dí
g en
esper anza</w>
skol tay</w>
pr ue
g an
Jaʼ nix</w>
c el
n aj
machʼ a
er do
e ta</w>
lokʼ es
J CHʼUUN
E sta
jojkʼoy eletik</w>
e te</w>
Cu ando</w>
yan tikxan</w>
u l</w>
ho y</w>
espe ci
ku b
ba y</w>
lu ego</w>
lek sion</w>
chaʼox tul</w>
ami go</w>
CRI STI
e h
M u
4 4</w>
qui en</w>
kuʼu n
Ma chʼ
sch aj
k aʼ
israeli tas</w>
b er
R u
l ti
Palab ra</w>
o y
ch e</w>
em bar
ar án</w>
CRISTI ANA</w>
m om
l tik</w>
ju di
t so
a kʼopon</w>
wan ej
str u
res pu
res pe
muj er</w>
N a
tik ix</w>
kʼop e</w>
publi c
man tal
s chʼ
na il</w>
sab er</w>
kal tik</w>
pro te
awu ʼun</w>
A M
tr i
A tal
x lokʼ</w>
skʼopl ale</w>
gr an
akʼ an</w>
ú n
ba yal
spa so
obern ante</w>
enseñ a</w>
escri bi
ad ores</w>
v oy</w>
mo str
ed es</w>
o pon
di fí
M a</w>
j kʼaxel</w>
g an</w>
A y
S amu
te ʼ</w>
a kʼ</w>
s ino</w>
s baj
ku j
N ue
tʼuj bil</w>
ay niwan</w>
un ci
j ba</w>
e za</w>
E J</w>
d en</w>
au di
a te</w>
S E
Be tel</w>
ts a
o e</w>
bu k</w>
a ta</w>
anci anoetik</w>
Qu i
esta mos</w>
D e</w>
sac erdo
j nop</w>
tsoblej etik</w>
swenta il</w>
S Kʼ
r om
kakʼ beytik</w>
ciu dad</w>
Ó N</w>
ts ʼu
nopo l</w>
hab ían</w>
Atal aya</w>
sig lo</w>
V e
pa rec
kal beytik</w>
jay eb</w>
á c
tu vo</w>
espiritu ales</w>
sk on
n ing
al a
machʼa tic</w>
ens es</w>
c e</w>
x kux
po der</w>
par ti
padr e</w>
man ch
ñ os</w>
tsʼ in
ter min
en e</w>
bíbli cos</w>
tr an
sw olol</w>
p lan
lokʼo m
tu ras</w>
smu lan</w>
hi st
em ix</w>
Pon ga</w>
Akʼ a</w>
ra do</w>
kʼ in
espo sa</w>
pʼ aj
esta ban</w>
e di
skuxlej al</w>
sa bi
S o
per i
pa í
mens aje</w>
skol tayat</w>
si tin
O ʼ
paj el</w>
l ado</w>
en vi
y es</w>
es as</w>
I s</w>
din ero</w>
ab le</w>
senti do</w>
j chʼi
c ʼ</w>
, 000</w>
gi p
al al
pro gr
a ik</w>
em i
d ente</w>
ay otik</w>
Ve amos</w>
Testig os</w>
mil l
audi torio</w>
pr endi
jchʼuun jeletik</w>
H eb</w>
win ike</w>
minister io</w>
lo gr
s ku
Samu el</w>
lam al
cas o</w>
ci elo</w>
al qui
prim era</w>
obe dec
fu tu
feli z</w>
stuun tes</w>
snop ik</w>
r í
prim ero</w>
lokʼ el</w>
espiritu al</w>
EJ TIK</w>
1 7
am b
ad or
ar ía</w>
J ac
w enta</w>
prue ba</w>
gr u
yoʼtan e</w>
j na
g amos</w>
bu en</w>
P ad
1 6
vi eron</w>
san to</w>
predic ación</w>
k el</w>
LE K</w>
JCHʼUUN EJTIK</w>
yakʼ el</w>
publi ca
hac en</w>
4 2</w>
tar on</w>
Es cri
tom ar</w>
o etike</w>
convers ar</w>
con di
so mos</w>
in formación</w>
s ja
M t</w>
ust edes</w>
segu r
futu ro</w>
Ad án</w>
án g
tay tik</w>
stsʼi bay</w>
pár rafo</w>
koʼtan tike</w>
fu eron</w>
entr as</w>
Mar cos</w>
isra eletik</w>
c ó</w>
W AN
ob ra</w>
spa se</w>
ac tu
Jesu cri
for tal
embar go</w>
cu alqui
oj el</w>
no ti
er es</w>
al o</w>
E l
v o
p l
de dic
t or</w>
Le y</w>
v ali
a ten
1 8
skon tra
bauti z
y aʼte
o li
na ción</w>
n ame
S l</w>
E s</w>
to j</w>
d an</w>
C U
tro du
t on
l len
qui z
inclu so</w>
i di
bi k</w>
v amos</w>
snaʼ ik</w>
s Kʼ
dis curso</w>
cion etik</w>
o tak</w>
l aʼ
BI L
t en</w>
servi r</w>
pr u
jkuxlej altik</w>
di fer
ch eʼ
em o
buen a</w>
A W
t s</w>
reuni ón</w>
pr ác
os os</w>
jtojol tik</w>
i deas</w>
b alumilal</w>
yi jki
se amos</w>
no ta</w>
es os</w>
aba t</w>
m il</w>
deb e</w>
M an
yal botik</w>
ser á</w>
ha ʼ</w>
con oci
Pad re</w>
P regun
E c
manch uk</w>
g as</w>
e t</w>
pre par
per fec
j e</w>
j al
4 3</w>
st so
kon tra
WAN EJ</w>
ter r
mu lil</w>
jkʼopon tik</w>
in i
ele tike</w>
ej emp
di e</w>
M i
yichʼ el</w>
ri ó</w>
o b</w>
CI ÓN</w>
in trodu
apóst ol</w>
ik ix</w>
untes a</w>
s cuenta</w>
j koltay
idi om
con stru
ca pí
tem a</w>
re cor
hu mil
chaʼ be
B TES
revi sita</w>
pʼi jil</w>
e dad</w>
Mar ía</w>
ar a
T AN
smu lan
di eron</w>
ta ba</w>
si gu
dis fru
ta dos</w>
pu esto</w>
m í</w>
m pi
L uc</w>
B A
vol un
á li
ter ri
conoc er</w>
ben e
Ba bil
y in
qu emos</w>
pi si
ar ti
to y</w>
fu era</w>
conse jos</w>
undi al</w>
su elo</w>
lu m
hi c</w>
J E
Abr ah
v an
m er
snichʼ na
quer ía</w>
o ca
jkʼ i
ar emos</w>
super inten
stu untes
res ul
nue vo</w>
ch eb</w>
a gra
yan iwan</w>
alumil ale</w>
Pro v</w>
4 8</w>
tu s</w>
tan do</w>
pro v
li ʼ</w>
au tor
yaʼ bilal</w>
p e</w>
li x</w>
ad ro</w>
E li
mukʼ xan</w>
ayi n</w>
skʼ ab</w>
s na</w>
ayud ó</w>
an a
Jesucri sto</w>
A r
testig oetik</w>
ta ción</w>
t é</w>
sj ok
pro fec
x laj
spa si
qʼu inal</w>
mil agr
Tu untesa</w>
T o
ten ían</w>
sol dad
s mo</w>
revi sta</w>
judi oetik</w>
da vía</w>
j ta</w>
chaʼ kuxaj
ú lti
y oʼ
much ach
apren der</w>
Kʼ opon
bi lik</w>
si do</w>
respu esta</w>
d estr
R om</w>
ón de</w>
pe di
mu estr
jaʼuk nax</w>
Uni dos</w>
Esta dos</w>
sKʼ op</w>
al im
S O
su c
introdu cción</w>
cualqui er</w>
tojob tesel</w>
ch u
v u
tu un
pre ocu
k ar
feli ces</w>
d en
abatin el</w>
a w</w>
VID EO</w>
S e</w>
Babil onia</w>
sal v
kʼu x
al ale</w>
P u
nec es
kuʼu n</w>
jun etik</w>
car i
EST RI
5 5</w>
vers í
v el
v ari
ta ti
ch o</w>
sts ʼu
p es
el las</w>
ar le</w>
quiz ás</w>
pun to</w>
smukʼu lin</w>
er r
ayud ará</w>
st és</w>
jw okol
anci ano</w>
xchʼ ay</w>
to davía</w>
pas o</w>
go bier
áli sis</w>
s ali
lo etik</w>
jkʼan tik</w>
human os</w>
f á
er as</w>
d ol
b el</w>
st estig
signific a</w>
judí os</w>
t i</w>
pu l
ale gr
L i
uni dad</w>
ti co</w>
OR ES</w>
Escri turas</w>
s alu
mom ento</w>
gen er
er po</w>
O V
ESTRI BIL
ESTRIBIL LO</w>
r se</w>
se cción</w>
principi o</w>
ju ʼ</w>
fi r
be ya
aʼte j</w>
G obernante</w>
toy ol</w>
convers ación</w>
chʼ ix</w>
buen o</w>
stestig otak</w>
schol bey</w>
akʼ el</w>
ʼu k</w>
v an</w>
p la
tak tik</w>
on to</w>
on i
es condi
de a</w>
P ʼI
on ik</w>
kom on</w>
R A</w>
QU É</w>
mi entras</w>
lokʼ em</w>
l oʼ
C re
E gip
kʼo tik</w>
S i
dem uestr
hici eron</w>
al beyel</w>
vi si
t on</w>
religi ón</w>
pe que
m am
Cu erpo</w>
Abrah án</w>
kʼu xul</w>
in as</w>
x bo
maj tan
m enci
esi os</w>
ch a</w>
ser es</w>
k al</w>
g e</w>
a prendi
por t
M EJ
In ter
A jw
vi de
publica ciones</w>
per don
kʼax em</w>
k amigo
com en
capí tulo</w>
ESTR OS</w>
pas ado</w>
f un
aw akʼ</w>
aqu í</w>
PʼI JU
y amigo
j el</w>
ic as</w>
ha ciendo</w>
h emos</w>
e tic</w>
S A
vi o</w>
ad el
x chiknaj</w>
perd ón</w>
m el</w>
jaj ch
al bil
S T
xbaj tʼ</w>
re p
pod ía</w>
ob j
an ti
Rom a</w>
chaj pan
PʼIJU BTES
Egip to</w>
Ba yal</w>
sm aliy
20 0
to etik</w>
slaj in</w>
skʼan ojel</w>
jpas tike</w>
ó ven
óven es</w>
me dio</w>
i letik</w>
ac ab
ro pa</w>
menci on
k ermano
h or
Jer emías</w>
Jac ob</w>
yak otik</w>
recu adro</w>
noti cias</w>
destr u
deci siones</w>
ne t</w>
Ef esios</w>
pu so</w>
deb en</w>
a go
lokʼom ba
cu los</w>
an to</w>
L o</w>
C r
á b
kʼ e</w>
An álisis</w>
wanej etik</w>
6 5</w>
l ar</w>
entr o</w>
S U
z ar</w>
v í
na die</w>
in otik</w>
d ó</w>
Y A
T r
PʼIJUBTES WANEJ</w>
estudi ar</w>
P R
ʼ el</w>
pres enta
ic e</w>
bo lil</w>
Ti m</w>
MEJ ORES</w>
yoʼ bolil</w>
y e</w>
ts aj
schʼuun ik</w>
lo til</w>
lamal kʼinal</w>
jaj chibal</w>
Machʼ a</w>
MA ESTROS</w>
tu r
j óvenes</w>
compa ñ
al bot</w>
U se</w>
sac ri
jo ven</w>
S jajchibal</w>
ú l</w>
servi cio</w>
pru eb
pi ens
oj tik</w>
ma dr
j letik</w>
deci sión</w>
val or</w>
tes tigo</w>
s ent
fuer zas</w>
QU E</w>
J on
di do</w>
bus quemos</w>
akʼ beyel</w>
4 6</w>
z ó</w>
án d
x ʼ
tam ente</w>
r án</w>
maj tʼ
M es
name y</w>
ma yu
e vi
É x</w>
ji bal</w>
ana ʼ</w>
Sal om
Sa úl</w>
J n</w>
re cuer
qued ó</w>
li le</w>
jte buk</w>
an el</w>
yakʼ beyik</w>
jun uk</w>
ar r
C O
wokoli letik</w>
sj ojkʼoy
man o</w>
ha ga</w>
2 ,
yuʼu ni
or i
man t
im os</w>
gru po</w>
f ol
escondi das</w>
ant se</w>
w okol
ma tr
buen os</w>
apóst oles</w>
pas ó</w>
le y</w>
I L</w>
De u
m em
jaʼ to</w>
x jajch</w>
li ber
igu al</w>
espo so</w>
dej ar</w>
an il</w>
us a</w>
conc lu
Ja ʼu
le kuk</w>
fi eles</w>
a ti
tsʼi n</w>
sj el
lle gar</w>
l ab
ju sti
i mi
bili dad</w>
P ara</w>
AKʼ BE
meʼ il</w>
ya c</w>
us ar</w>
skʼop on</w>
skuxlej alik</w>
sj ol</w>
o port
matr im
m é
ch ap
ami sta
Apo c</w>
pro du
g obern
escribi ó</w>
comp leto</w>
chaʼbe j</w>
P ed</w>
yal el</w>
much a</w>
hist oria</w>
cer ca</w>
Jaʼu k
su curs
sj aj
palab ra</w>
p al</w>
en a</w>
baj t</w>
Palab ras</w>
ex peri
es toy</w>
enten der</w>
en fr
N A
le le</w>
laj el</w>
ar an</w>
Jaʼuk meto</w>
s lu
difí cil</w>
I L
ta da</w>
ta b
sch aʼ
s in
p ó
j otik</w>
bendi ción</w>
schʼu un</w>
may or</w>
h aʼ
beya ik</w>
Ec lesi
stoj ole</w>
er se</w>
as es</w>
Ay bal</w>
vu el
pr ó
c in
Eclesi a
seg ún</w>
pisi ltik</w>
Y ilel</w>
Eclesia stés</w>
D O</w>
j kʼop
fá cil</w>
be b
situ ación</w>
pe kʼel</w>
no che</w>
mant aliletik</w>
H i
P as
un al</w>
p os</w>
le er</w>
es for
clar o</w>
Oʼ TAN
yan yantik</w>
lu k
encontr ado</w>
el xan</w>
baj tʼ</w>
aw akʼ
ani a</w>
adu cción</w>
JE H
especi al</w>
as amb
alg ún</w>
v ino</w>
spisi luk</w>
fuer te</w>
d amos</w>
a ha
Kʼ O
JEH OV
kuxlej alil</w>
car ta</w>
c er</w>
en emi
V i
prueb as</w>
el lo</w>
L as</w>
ár b
stuuntes ik</w>
l ación</w>
kuʼun tike</w>
j ch
e ter
an aʼ
aba ti
Inter net</w>
h ora</w>
fol leto</w>
ali dades</w>
ac ʼ
on io</w>
l in
jmu lan
JEHOV Á</w>
s ni
r le</w>
madr e</w>
kʼ an</w>
cu án
yoʼtan ike</w>
yal e</w>
skʼan ik</w>
sab emos</w>
llam ado</w>
jojkʼoy el</w>
com pr
s nopo
i ch
es cla
pec ado</w>
on etik</w>
kʼin ale</w>
ts el</w>
stoj olik</w>
sab ía</w>
s jun</w>
h ará</w>
d om
pens es</w>
mo ti
jte b</w>
con si
cir c
atr o</w>
an aliz
a toj
T es
C ol
B alumilale</w>
ti ʼ
resu ci
llev ar</w>
j ok
di ri
deb er
D A</w>
snaʼ oj</w>
quer emos</w>
ni ño</w>
es fuer
Salom ón</w>
z ca</w>
ten go</w>
mi entos</w>
il in
hac emos</w>
ci ó</w>
sm el</w>
segu ro</w>
paj ina</w>
li mpi
ker eme</w>
j am
c to</w>
ʼI L</w>
yaʼte lik</w>
sab e</w>
s bu
lleg ó</w>
ka t</w>
im al</w>
x w
ora ciones</w>
jaʼ me</w>
dur ía</w>
dej ó</w>
U T
L AS</w>
s nojptes
p ej
al a</w>
P ri
5 1</w>
sabi duría</w>
kʼ e
fortal ec
enfer me
áb amos</w>
v enci
skoltay el</w>
kʼ ay
gr e</w>
en se</w>
P o
Fili penses</w>
uti li
spasi ke</w>
pon er</w>
paí s</w>
pa re
man ten
lo e</w>
hacer lo</w>
ca p</w>
tuun tesel</w>
sts ʼ
bin tic</w>
sch ol</w>
f o
cheʼ oxeb</w>
cham bal
h l</w>
ar les</w>
Tes al
C o</w>
u r
majtan il</w>
jchʼuun tik</w>
j kʼu
en car
ba j</w>
ab r
wan ik</w>
spas ele</w>
re cción</w>
kuj ch</w>
jtu untes
cier to</w>
ab é</w>
podr ía</w>
ha cia</w>
fi el</w>
cu alidades</w>
cir cui
ES P
5 2</w>
o cur
m es</w>
E R</w>
yi kʼ
tati letik</w>
tar de</w>
o do</w>
des a
ad oración</w>
Kʼ ax</w>
po lí
och ik</w>
co stu
a cu
Mes ías</w>
of rec
jkoltay tik</w>
hab er</w>
cla se</w>
Nue va</w>
Na il</w>
É l</w>
tran s
skoltay on</w>
bi deo</w>
ta ri
sem an
hab la</w>
baj o</w>
D es
A sí</w>
s kʼo
mi sion
m undial</w>
i mag
ay el</w>
Pregun ta</w>
L A
yal oj</w>
ul aʼ
san gre</w>
mo do</w>
ch an
B ern
tiklan bey</w>
schaj pan
ka p</w>
jaʼ e</w>
conse jo</w>
bene fici
b ol
a se</w>
SKʼ OP
G u
yakʼo j</w>
tal eli
ma ʼ</w>
l el</w>
kʼ an
e do</w>
u m
li bre</w>
f on
circui to</w>
fi cio</w>
bili dades</w>
beb é</w>
No pa</w>
Man chukme</w>
Ez equi
t emos</w>
precurso r</w>
in dic
es pa
acti tud</w>
Bern abé</w>
ver si
tʼ ik</w>
sti ʼ
sbaj tel
prim er</w>
l la</w>
bi luk</w>
ar los</w>
No é</w>
D A
tu t</w>
ti ó</w>
smulan ik</w>
p ú
li c</w>
er i
Se ñ
4 7</w>
p al
oj os</w>
lu mil
lek nax</w>
escu ela</w>
cu atro</w>
acer ca</w>
a c</w>
skʼ ajkʼ
medi ante</w>
importan tes</w>
T s
so r
s ó
reg res
pʼijub tes
oj ix</w>
matrim onio</w>
laj inel</w>
d or</w>
G é</w>
E va</w>
x a
h il</w>
Com o</w>
yu til</w>
t ele</w>
si to</w>
s Nail</w>
min chi
in f
ichʼ el</w>
K E</w>
g er
c ru
J ojkʼoy
E TIK</w>
CH ʼ
pr onto</w>
ki chʼ</w>
ani chʼ
Señ or</w>
A l</w>
sbi ile</w>
sbajtel kʼinal</w>
pe kʼ
mal as</w>
l lo</w>
ha ya</w>
expli ca</w>
empez ó</w>
awi chʼ</w>
T sob
r á
principi os</w>
conclu sión</w>
í si
sm am
mi edo</w>
enta ri
ca paci
SKʼOP L
Hi jo</w>
G UN
ning ún</w>
ni ños</w>
i ba</w>
b re
G e
yakʼ bon</w>
sle kub
sk om
si a</w>
na cion
n e</w>
mayu c</w>
volun tad</w>
ver emos</w>
u ke</w>
puer ta</w>
lec c</w>
ali ke</w>
swok ol</w>
n ú
le y
koltay ot</w>
gar es</w>
chʼ in</w>
bon ik</w>
bah lumil
ant s
R A
4 9</w>
versí culo</w>
s mantal</w>
pro pó
confi anza</w>
autor idad</w>
yuʼuni ke</w>
sta s</w>
mill ones</w>
g ado</w>
en o</w>
c an</w>
amista d</w>
qui én</w>
j y</w>
il tik</w>
aw al
apren demos</w>
yal beyik</w>
trabaj ar</w>
s te</w>
s as</w>
j pisiltik</w>
e z</w>
aqu el</w>
al can
Ezequi el</w>
terri torio</w>
si ca</w>
maʼyu kix</w>
le ke</w>
all á</w>
P RE
6 0</w>
respon sa
reli ji
bar co</w>
alg una</w>
t ú</w>
s n
re ch
progr ama</w>
presi ón</w>
p ti
j ol</w>
il awil</w>
cuer do</w>
be yi
awu ʼun
apa rec
O R</w>
N OP
L e</w>
te etik</w>
stsa k
s familia</w>
problem a</w>
ku r
dic en</w>
C ON
yin am</w>
yaʼ bil
yakʼo j
tor es</w>
superinten dente</w>
pe li
na il
f inal</w>
demostr ar</w>
d el
anci a</w>
a chʼix</w>
J un</w>
vi ó</w>
muj eres</w>
feli ci
cab eza</w>
aʼte jik</w>
li c
em br
d ará</w>
as un
Es cu
tal elil</w>
rela to</w>
jich nix</w>
S au
taleli letik</w>
t st
st al
in to</w>
de f
congreg aciones</w>
G U
EN T
skʼajkʼ alel</w>
pʼijub tesel</w>
ju jun
jtuuntes tik</w>
j tso
dol or</w>
cuer po</w>
asi g
ab e</w>
yu ʼel</w>
vi aj
tr as</w>
sucurs al</w>
K O
vol ver</w>
sme ʼ</w>
b ri
Re y</w>
sjaj chibal</w>
na ciones</w>
man os</w>
m ento</w>
esfor z
a chʼi
SU J
Ru t</w>
N U
í z</w>
tik un
so ke</w>
s pʼijil</w>
s nu
s lekil</w>
propó sito</w>
pa p
ajw aliletik</w>
x kujch</w>
vi sita</w>
si ente</w>
ser ía</w>
salu d</w>
estu vo</w>
di os
raz ón</w>
p ʼ</w>
c ele
al beyaik</w>
w tst
wtst y</w>
v ar</w>
ts es
n wtsty</w>
li o</w>
habl en</w>
gu sta
en e
bi le</w>
bah el</w>
San t</w>
O T
DI OS</w>
5 4</w>
pa r</w>
kermano taktik</w>
j tʼu
ali x</w>
agu an
lu ch
li ke</w>
la tas</w>
curs os</w>
comi da</w>
an al
K U
ta ya</w>
pes ar</w>
l f
es es</w>
confi ar</w>
com er</w>
sigu e</w>
pod er
kʼ aj
kil al</w>
i kʼ
con ten
c entr
T U
SUJ TI
tsi lal</w>
tal e</w>
su é</w>
o te</w>
necesi tamos</w>
kontra inel</w>
SUJTI B</w>
M al
M U
K ʼ</w>
Jo sué</w>
á latas</w>
w a
su t
pa reci
p endi
nue va</w>
mar zo</w>
ic os</w>
X JU
L u</w>
tu lan
p tik</w>
human idad</w>
S er
tem as</w>
tal em</w>
pas ar</w>
or ía</w>
bey xan</w>
b en</w>
aten ción</w>
Y a
U n</w>
Qui én</w>
P r</w>
x cʼ
st os</w>
s es</w>
pi ed
jna ʼ</w>
f ía</w>
cari ño</w>
árb ol</w>
ya cʼ</w>
vi sto</w>
obj eti
o g
neces ario</w>
mis ma</w>
majtʼ anil</w>
m á
is te</w>
fi er
estudi ante</w>
d oc
cristi ano</w>
ci os</w>
bus car</w>
a cuerdo</w>
G én</w>
G ál</w>
tu minchi
sacerdo te</w>
pú bli
prác tica</w>
chuk el</w>
ay e</w>
Ez e
re alidad</w>
pue do</w>
muestr a</w>
kux inel</w>
erman oetik</w>
enemi gos</w>
bayal xan</w>
G álatas</w>
só lo</w>
on a</w>
ju sto</w>
gobier no</w>
cele br
ajkʼ abal</w>
oport unidad</w>
kʼo el</w>
kʼ un</w>
ker em</w>
jich me</w>
E LE
verdad ero</w>
soldad oetik</w>
mon os</w>
ku n</w>
j chʼ
deci di
de bi
XJU ʼ</w>
tsʼi bay
tseʼ el
justi cia</w>
esta do</w>
e fec
cu enta
ón icas</w>
ta etik</w>
re ac
prom eti
oj ibal</w>
ma estr
le tike</w>
ech a</w>
di fic
con su
b or
Ef es</w>
weʼ elil</w>
obedec er</w>
j as</w>
f e
enta in
di st
bíbli cas</w>
a d</w>
un da</w>
ten ga</w>
stso b</w>
r emos</w>
paj al
lam al</w>
an ik</w>
5 3</w>
yakʼ bat</w>
snaʼ el</w>
smu l</w>
se an</w>
os enses</w>
or o</w>
on ic
m era</w>
jts ʼ</w>
j ko
experi encia</w>
T am
M ame</w>
I deas</w>
H ch</w>
s os</w>
r es</w>
och el</w>
j tal
i to</w>
asi sti
abr il</w>
G ala
z os</w>
s lam
ker em
agr ad
TI KE</w>
P a
C r</w>
sti j
nor mas</w>
man tener</w>
g ó</w>
UT ʼIL</w>
J W</w>
3 ,
te ʼe</w>
str uc
onic enses</w>
muchach o</w>
jaʼ ik</w>
des ea</w>
chʼ el</w>
ayud arnos</w>
ay on</w>
ants etik</w>
U na</w>
SKʼOPL AL</w>
L OS</w>
yak al</w>
vi sta</w>
ta j
lu me</w>
ku l</w>
gu ía</w>
con ta
ar es</w>
Je r</w>
Cu án
Cre ador</w>
Col osenses</w>
yi jkʼi
smaliy el</w>
re paso</w>
i da</w>
e los</w>
dar le</w>
com pren
al wanej</w>
ajw al
M O</w>
í so</w>
áng eles</w>
jwokol tik</w>
idiom a</w>
ar me</w>
ʼu l</w>
sle el</w>
si endo</w>
oni os</w>
mal o</w>
lem ente</w>
jchol tik</w>
e lik</w>
ci do</w>
ases el</w>
an unci
7 0</w>
swok olik</w>
sch ebal</w>
r an
j b</w>
hu bi
gu er
d ando</w>
cam in
ami entos</w>
N TIK</w>
Cr ónicas</w>
yi kʼ</w>
tay wanej</w>
sti n
lu gares</w>
cʼ op</w>
at án</w>
So k</w>
S a</w>
í fic
áng el</w>
vi ene</w>
sma k
re a</w>
pregun ta</w>
peli gr
mi embr
kal bey</w>
k anan
d ónde</w>
stoj ob
spaso j</w>
much ísi
m ol
joʼ on</w>
j famili
d é</w>
con tes
agra deci
U DI
Tesal onicenses</w>
mor ir</w>
m ilel</w>
lum etik</w>
fu ego</w>
en tan</w>
N ichʼ
2 8
ti o</w>
sti kun</w>
reg alo</w>
recibi r</w>
ma íz</w>
kil beytik</w>
b les</w>
M e</w>
5 6</w>
xju l</w>
x ba
vi sión</w>
sta el</w>
pró xi
on om
l l
ec e</w>
e baj</w>
cel esti
Pri mera</w>
AKʼBE YA</w>
vi aje</w>
u tsʼin
bahlumil al</w>
tu vieron</w>
segur os</w>
sbu jtsʼ</w>
resu r
n anix</w>
lokʼes el</w>
il an</w>
f av
OJ KʼO
L o
J OJKʼO
yo k</w>
ter i
pu k
posi ti
kʼ ine</w>
jmu l
JOJKʼO Y
yu laʼ
snichʼna bik</w>
pas bil</w>
en cu
Nue vo</w>
tiemp os</w>
sion etik</w>
prov ech
no vi
k aj
il kʼinal</w>
cumpli r</w>
S ba
5 8</w>
se pti
septi embre</w>
s ju
parec e</w>
paci encia</w>
or ig
n amal</w>
jnaʼ beytik</w>
gran de</w>
g l
est é</w>
escuch ar</w>
ejemp los</w>
di j
I LI
ta ban</w>
skanan tay</w>
kaʼ tel
jm el</w>
f l
chaʼ tul</w>
c l
ad uc
a ún</w>
D ES
sigui entes</w>
pu di
parti ci
na tur
encontr ar</w>
dific ul
di stin
an si
ab u
a bi
yakʼ beyel</w>
xkʼopo jotik</w>
xi ʼ
vo z</w>
v ej
ts ʼ</w>
r ar</w>
may oría</w>
ko el</w>
gran des</w>
du da</w>
Sba bial</w>
ñ ana</w>
yal beyel</w>
ya to</w>
v es</w>
v emos</w>
s nuj
kʼ bil</w>
estudi antes</w>
anti gu
2 9
xi w</w>
ti j
terr eno</w>
ta des</w>
rí o</w>
re f
pʼi j</w>
llam a</w>
des cu
d or
av il
alegr ía</w>
H er
to xan</w>
se xu
schaj pan</w>
ol vi
mi r</w>
man eras</w>
in struc
d é
d á</w>
EST UDI
vel ación</w>
so r</w>
s inti
resur rección</w>
prof eta</w>
kʼ un
h ebre
fuer za</w>
congreg a
c en
R e</w>
C E</w>
st ale
stale lik</w>
or k</w>
mar avil
k o</w>
jaʼ niwan</w>
g eli
emo cion
d entro</w>
com par
ab les</w>
Sau lo</w>
Ju dá</w>
Gala ad</w>
ter onom
teronom io</w>
respe to</w>
pu estos</w>
profec ía</w>
pa kʼ</w>
m bal</w>
j ku
i xe</w>
ha bi
asamb lea</w>
I C
Deu teronomio</w>
Í AS</w>
tsʼ inel</w>
oca sión</w>
ju i
jm aliy
celesti al</w>
be l
Y ork</w>
y abal</w>
sti j</w>
situ aciones</w>
si st
kʼ ayoj
gi ó</w>
aha m</w>
tu bre</w>
tik lan</w>
qu ías</w>
mis mos</w>
inf lu
in v
cui dado</w>
Abr aham</w>
8 3</w>
5 7</w>
man iwan</w>
loʼ l
lek xan</w>
jun tos</w>
cambi ar</w>
R ESP
van geli
so y</w>
sj unal</w>
s famili
prom esa</w>
ma ñana</w>
en ero</w>
Y u
Kʼ A
yu tsilal</w>
st ʼun
sir vi
s lokʼ
po x
par tam
lf f</w>
e to</w>
awuʼun e</w>
aw il
ar é</w>
SO K</w>
19 9
ra to</w>
pa ra
nú mero</w>
ni mo</w>
laj em
la etik</w>
kuxlej al</w>
ent al</w>
consi der
con du
bon dad</w>
N eh
É x
ti r</w>
ti cas</w>
stsʼu mbal</w>
sbaj tʼ
oʼtan ile</w>
jok in
inter es
dem asi
b ale</w>
an zas</w>
PA S
A R
sitin tayel</w>
s ar</w>
mi ser
lle va</w>
le g
laj un
ch ane</w>
c r
J pas
yichʼ ojik</w>
vi ol
len gu
cu x
con ver
vi r
ti x</w>
t emp
re tik</w>
pro c
pro ba
l las</w>
kʼ tal</w>
ki jki
felici dad</w>
bendi sion</w>
ani ma
Y AL</w>
Tr aducción</w>
BI NTIK</w>
sw eʼ
so ci
idiom as</w>
i s</w>
fal ta</w>
demostr ó</w>
ajw al</w>
Est eb
6 1</w>
Éx odo</w>
x anix</w>
skʼ inal</w>
nom br
jel on</w>
fr ica</w>
ej ik</w>
d í</w>
cor rec
ba eltik</w>
awoʼtan ik</w>
yak on</w>
sku y
sba e</w>
profec ías</w>
kʼax emix</w>
gri ego</w>
difer entes</w>
chambal am
ara ón</w>
ad orar</w>
U E
Neh emías</w>
Cu ál</w>
A yu
x be
wi ts</w>
sufri miento</w>
reg i
pi e</w>
miser ic
miseric or
jw ol
ili n</w>
i xi
hac ía</w>
de tal
bu r
ar rep
PRE GUN
P re
sta t</w>
re gu
nop tsaj
ma yo</w>
le al</w>
jchʼi eletik</w>
g ol
for me</w>
ci les</w>
Testig oetik</w>
Tam bién</w>
Ajw alil</w>
x chaʼ
tsʼi bayel</w>
il uk</w>
h un
em a</w>
ar ia</w>
Re velación</w>
RESP ON
C on</w>
An ti
últi mos</w>
te r</w>
tar se</w>
o br
lesi a</w>
espiri tu</w>
b o</w>
1 5
oc tubre</w>
nor te</w>
me ʼ</w>
ent en</w>
cul pa</w>
bey ex</w>
awoʼtan ic</w>
TA N</w>
T esti
GU I
E stu
tr o</w>
stuun tesel</w>
s la
re ino</w>
qui era</w>
lle gu
ci encia</w>
al tike</w>
Isa ac</w>
u tsʼinel</w>
si til</w>
próxi ma</w>
oj e</w>
le ku
kʼop iletik</w>
ju lio</w>
jmu lan</w>
ho spi
a g
P I
Kʼopon aik</w>
Í A</w>
tar á</w>
s le</w>
s enci
m ó</w>
jmulan tik</w>
ent ó</w>
com entari
c é
M Á
Esteb an</w>
Com i
í o</w>
y ó</w>
xbaj tik</w>
x bal</w>
sent ía</w>
ri a</w>
re aliz
pi dió</w>
obe di
le kilal</w>
esper a</w>
B A</w>
ya w
re lación</w>
mu rió</w>
lokʼ ik</w>
jkʼan beytik</w>
cre ación</w>
a i
tes ti
slam alil</w>
sch olik</w>
sba ike</w>
res ca
muer to</w>
atoj ol</w>
alal etik</w>
Escu ela</w>
én d
yal xan</w>
sm aj
skʼo tes</w>
rela cion
i d
costu m
con venci
ca f
ba s
Testi go</w>
6 2</w>
1 Co</w>
p ʼu
milagr o</w>
m eses</w>
imi tar</w>
an gu
a to</w>
a il</w>
Le an</w>
ESTUDI O</w>
tsi tsel</w>
qu ía</w>
jun to</w>
esta b
cas i</w>
ax un
a provech
Sa m</w>
Re yes</w>
R o</w>
M AN
J NOP
ta ki
snaʼ bey</w>
pre ci
lar go</w>
kʼo po
di cho</w>
demuestr a</w>
caf é</w>
c ta</w>
b tes
acti vi
H A
í n</w>
ta el</w>
paí ses</w>
partam ento</w>
h ilel</w>
difí ciles</w>
dificul tades</w>
di ci
cʼ alal</w>
bi luk
a fir
V er
M aʼyu
7 2</w>
én es</w>
vi era</w>
senti r</w>
rá pi
mal a</w>
famili ares</w>
cambi o</w>
anci as</w>
El ías</w>
A D
ti nu
te ʼ
es co
apo yo</w>
ant eri
anim ales</w>
albil kʼop</w>
TA Y
N ú
Ma ʼuk</w>
yoʼtan ic</w>
pendi ente</w>
mon io</w>
gusta ría</w>
fici os</w>
f in
e o</w>
bendi ciones</w>
am ar</w>
NU ESTR
IN I</w>
B ro
A ʼ
í n
v ac
sna ik</w>
instruc ciones</w>
i kʼel</w>
e c</w>
d ores</w>
br ero</w>
awakʼ bey</w>
aw an</w>
ani wan</w>
J ich
EM OS</w>
Bin wan</w>
ti po</w>
rech az
per se
on kotik</w>
jaʼ al</w>
il la</w>
enseñ ar</w>
c ado</w>
ab an
a segur
Y ame</w>
PA RA</w>
Ju das</w>
verdad era</w>
ti cos</w>
nue vas</w>
ni ch
mé dic
llam ada</w>
f ari
enta r</w>
enseñ ó</w>
constru cción</w>
c osa</w>
Fili p</w>
8 0</w>
7 3</w>
x hu
ten ido</w>
te k
qu el</w>
eter na</w>
est re
d ob
cu ción</w>
com ún</w>
cam bios</w>
aguan tar</w>
a xan</w>
Vi deo</w>
ú sica</w>
y aj
x chʼu
ve a</w>
skʼan bey</w>
sigui ó</w>
pa ña</w>
mil pa</w>
en tu
ci to</w>
alim ento</w>
T AS</w>
O L</w>
B AL</w>
t su
senti mos</w>
pu si
ko tike</w>
cre encias</w>
compañ eros</w>
ah cʼ
X AN</w>
A s
vari as</w>
testi monio</w>
ser án</w>
prom esas</w>
preocu pa
po ca</w>
organi sa
no tik</w>
i dos</w>
hab rá</w>
gra fía</w>
fari se
dese o</w>
cin co</w>
a un</w>
T e
MA CHʼ
Con mem
skoltay ik</w>
senti mientos</w>
quier en</w>
perd on</w>
oli ke</w>
necesi dades</w>
mu kʼu
jk anan
ja t</w>
gra do</w>
au to
Jon atán</w>
xkux inik</w>
ti r
ta ke</w>
sba kʼe
s pekʼ
maravil lo
m esa</w>
jkʼ ayin
inter és</w>
ej ér
e t
dom in
ci elos</w>
car ne</w>
an as</w>
I K</w>
Conmem oración</w>
C ol</w>
4 ,
tan tes</w>
suj t</w>
skʼ axun
propi a</w>
prom ete</w>
piens a</w>
m an</w>
kʼajkʼ ale</w>
j nichʼ
erman o</w>
chʼ ay</w>
car ga</w>
Ch ʼ
stiʼ il</w>
spekʼ elil</w>
err ores</w>
ant sil</w>
akʼ botik</w>
1 19</w>
su r
lej os</w>
jba tike</w>
i sti
gi dos</w>
des ta
da ño</w>
contr ol
con tinu
cl ases</w>
circ un
adel anto</w>
T en
1 3
ó li
xbo otik</w>
vari os</w>
suc e
seman ae</w>
or gu
er nos</w>
chʼ e</w>
chaj pan</w>
aj es</w>
achʼi xe</w>
T E
tor i
s Nichʼ
prim eros</w>
necesi tan</w>
lu z</w>
kʼopon el</w>
gi do</w>
circun st
ar la</w>
am bi
T O</w>
SE Ñ
pec ados</w>
mill ón</w>
mil es</w>
m os
im perfec
escla vo</w>
chaʼ naʼel</w>
ca us
a bier
yal bon</w>
ue go</w>
tuminchi j
s chʼul</w>
o í
kaʼtel tik</w>
i dea</w>
i bu
efec to</w>
bauti smo</w>
S ig
M undo</w>
Ajw al
6 8</w>
ya kat</w>
w w
su e
r en
person alidad</w>
p el
oj t</w>
oca siones</w>
mu te</w>
le van
kʼ al</w>
kol tay</w>
h el</w>
con suelo</w>
S chaʼnaʼel</w>
y ox
skʼopon ik</w>
s f
presi on
muchísi mo</w>
gi r</w>
evi tar</w>
cul ti
awi lik</w>
arti culo</w>
ari os</w>
apa se</w>
aban don
J tul</w>
F eli
En t
Al g
st e
r an</w>
jojkʼoy bey</w>
jmaliy tik</w>
jkuxlej al</w>
j on</w>
isra eletike</w>
er lo</w>
cristi ana</w>
atr ás</w>
ali a</w>
ñ as</w>
y el
xkʼo tik</w>
xkoltay otik</w>
w0 6</w>
ten gamos</w>
reac cion
r as
pres ente</w>
pied ra</w>
organisa sion</w>
op e</w>
och em</w>
na e</w>
lar es</w>
c ando</w>
am bre</w>
Ti to</w>
P er
Al beya</w>
xkʼopo jik</w>
tí tulo</w>
skuy ik</w>
sier vo</w>
schʼ am</w>
raz ones</w>
muer tos</w>
mantal il</w>
ju k
h in
enseñ ado</w>
enferme dad</w>
cre ó</w>
L U
6 6</w>
s ón</w>
r os</w>
pod ían</w>
per ro</w>
p en
mostr ar</w>
j il
herman as</w>
es p
ayud an</w>
Maʼyu k</w>
M ar</w>
K iltik</w>
tr aduc
sigu en</w>
si m
le ales</w>
ed uc
conse j
col ab
alal to</w>
P or
Jpas wanej</w>
ENT ES</w>
A unque</w>
8 6</w>
6 3</w>
ulaʼ taywanej</w>
tay otik</w>
s be
oh t</w>
och on</w>
lec ciones</w>
k un
j tsʼ
gu ar
er g
albil kʼopetik</w>
a chol
San són</w>
SI GUI
S in</w>
P i
B anti</w>
us ando</w>
re pres
pi sil</w>
ob st
na sion</w>
may ores</w>
j kʼopon</w>
hubi era</w>
fri jol</w>
expli có</w>
es c
en g
demasi ado</w>
dej a</w>
circunst ancias</w>
awal bey</w>
K OʼTAN
E vangeli
. .</w>
. ..</w>
ánd ose</w>
wa ka
tojob tes
tar lo</w>
suj tik</w>
stoj il</w>
sk om</w>
si tio</w>
r nos</w>
poder oso</w>
ma teri
jfamili atik</w>
in mor
fav or</w>
d aba</w>
cʼu x</w>
cre en</w>
anichʼ na
angu sti
S W
BE Y
w er</w>
tri bu
skʼu ʼ</w>
s inc
reg ún
reci ó</w>
re in
pon e</w>
polí tica</w>
perse cución</w>
ka pi
jujun tul</w>
fr on
ex tra
ago sto</w>
T es</w>
S pisil</w>
8 9</w>
é monos</w>
xkoltay ot</w>
ví tico</w>
k a</w>
fu i</w>
fr ente</w>
di os</w>
cu esti
arrep enti
ar ías</w>
Se g
Le vítico</w>
ES I
si ete</w>
s pʼaj
ri dad</w>
public adores</w>
na etik</w>
mal os</w>
importan cia</w>
enseñ anzas</w>
dij eron</w>
ayu de</w>
ac om
S ab
Jos ías</w>
Davi de</w>
sacri ficio</w>
para íso</w>
on ix</w>
novi embre</w>
n al</w>
l á
kamigo in
joʼ otike</w>
j ar
contr ibu
ch ene
bo ca</w>
xch ebaj</w>
v aya</w>
ta ña</w>
st oe</w>
si ento</w>
predic ando</w>
necesi ta</w>
liber tad</w>
k in
jaʼ ate</w>
jal aj</w>
hab lar
famili as</w>
entu si
ba yu
ami ento</w>
ab loe</w>
W at
Di ablo</w>
Ar mag
1 00</w>
ún ico</w>
tu k</w>
tsʼibay bil</w>
su fr
public ación</w>
obr as</w>
kʼun kʼun</w>
jam ás</w>
fe brero</w>
empez ar</w>
To dos</w>
AN T
5 9</w>
x noptsaj
w0 7</w>
vide os</w>
vi a</w>
stsa k</w>
skom el</w>
kʼ asesel</w>
judí o</w>
humil dad</w>
gu sta</w>
en can
em po
d i</w>
car ro</w>
ar ca</w>
PREGUN TAS</w>
P abloe</w>
M I
Li br
Armag ed
ten i
suj tes</w>
stsʼi bay
s enta
s el
propi o</w>
ol og
m enti
li letik</w>
le yes</w>
il u
g er</w>
f a
cor ri
ayu dado</w>
Y I
C A
0 5</w>
ó me
á nimo</w>
wokoli le</w>
slaj in
pul s
oc ol</w>
o t
kʼ alalto</w>
jnopo j
il beya</w>
er á</w>
cé lu
am an</w>
NUESTR A</w>
JNOP TIK</w>
Her o
7 6</w>
ó m
vi mos</w>
tr a</w>
pu do</w>
oj o</w>
noj el</w>
na in
joʼ otik</w>
habl ó</w>
esper ar</w>
chaj p
car gar</w>
Sal ón</w>
D E
20 13</w>
yaʼbil alik</w>
x tal
volun tari
tex toetik</w>
sm il</w>
s lokʼes
pued es</w>
pa s</w>
lokʼomba etik</w>
i kʼ</w>
fon o</w>
be el</w>
ar ri
activi dades</w>
S wenta</w>
L uego</w>
Eze quías</w>
2 Cr</w>
yo lil</w>
tam poco</w>
recuer da</w>
re fer
pregun tó</w>
oj bey</w>
kil óme
j meʼ</w>
ik ixe</w>
hi ja</w>
condu cta</w>
añ a
ah í</w>
adel ante</w>
ab ri
EN SEÑ
A u
vide oetik</w>
ti sf
tes e</w>
sist ema</w>
sba h
re de
po li
na inel</w>
human o</w>
h al
conoci miento</w>
chambalam etik</w>
car a</w>
aw amigo
ar ón</w>
M r</w>
Jojkʼoy el</w>
JOJKʼOY ELE
á culo</w>
xhu ʼ</w>
x jil</w>
v ay
tri b
te le
stoj iluk</w>
sjojkʼoy bey</w>
po bre
par rafo</w>
ju ʼ
h á
cu ar
conse cu
com un
a kuxlejal</w>
Yu ʼun</w>
Ju dea</w>
H ay</w>
snaʼ beyik</w>
sa tisf
pi ense</w>
o bli
le kub
kux in
hon or</w>
h un</w>
ejér cito</w>
desa str
debi do</w>
cu loetik</w>
com eti
abati notik</w>
A m
ér amos</w>
xbaj tʼik</w>
x me</w>
person al</w>
le as</w>
fi j
ent reg
ci r</w>
aqu ellos</w>
Armaged ón</w>
tar j
slaj el</w>
pi es</w>
mej ores</w>
lan a</w>
l lo
fi li
er ía</w>
entusi as
del ante</w>
cu anto</w>
asisti r</w>
al rede
al nichʼ
abatin ik</w>
Tsob lej</w>
MÁ S</w>
5 ,
yu tsʼin
win i
sufri r</w>
sti kun
sjok in</w>
pon i
pas os</w>
ex pres
di bu
compa sión</w>
cam po</w>
ar y</w>
O N</w>
N os</w>
KOʼTAN TIK</w>
H E
Comi té</w>
Can a
ʼu laʼ
ó g
yijki tay</w>
yal tiklanbey</w>
xkux inotik</w>
xch i</w>
spa t</w>
misericor dia</w>
man da
ma d
libr oetik</w>
ku lo</w>
er to</w>
envi ó</w>
dr o
der echo</w>
acʼ a</w>
acep tar</w>
S AL
KU X
Ajwal inel</w>
AM OS</w>
x mantal
ts ak
sj oʼ
obe deci
o vej
le tic</w>
jwokol tike</w>
ju z
i or</w>
ej ch
disfru tar</w>
achol bey</w>
abat otik</w>
K IL
Est er</w>
A hora</w>
7 9</w>
10 3</w>
yan anix</w>
vol vió</w>
su fici
p ant
ning una</w>
na cionetik</w>
jtal eltik</w>
ji lik</w>
g enes</w>
comi en
aqu ella</w>
ac ciones</w>
a fec
P OR</w>
Ez e</w>
Cana án</w>
0 7</w>
z an</w>
ve an</w>
ta kʼine</w>
spisi lik</w>
precurso res</w>
por no
pant al
me tas</w>
j kʼ</w>
dem onios</w>
comp le
ad á</w>
T i</w>
ON ES</w>
Jon ás</w>
20 14</w>
verdad eros</w>
tien es</w>
st oy</w>
resul tado</w>
re fu
prob able</w>
p regún
p alo</w>
o di
m úsica</w>
llev ó</w>
jko m</w>
hor as</w>
don aciones</w>
di v
conc entr
chʼ al</w>
cham ele</w>
autor i
Ge de
Di s
D t</w>
C i
9 7</w>
20 22</w>
x kʼax
so lu
snichʼna b</w>
scʼ ob
schʼuun ejik</w>
po l
jun e</w>
invi tación</w>
chʼuun el</w>
cas tigo</w>
bautiz arse</w>
a yat</w>
a su
SIGUI ENTES</w>
Re visita</w>
B el
9 0</w>
v oc
scʼ an</w>
pens amientos</w>
mom entos</w>
in fier
h t</w>
di rec
cier ta</w>
ch a
b h</w>
Z ac
Hero des</w>
EN TA</w>
7 1</w>
6 4</w>
un d
tra ta</w>
s ban
r am
o sor</w>
naʼ bil</w>
kʼaj kʼ</w>
jts aj
du ro</w>
dec ía</w>
c ár
ar ían</w>
al botik</w>
Pregun tas</w>
vol ver
st ó</w>
s é</w>
s T
pág s</w>
jun io</w>
b ra</w>
ar te</w>
al bil</w>
Gede ón</w>
DI S
C O</w>
6 7</w>
vi ve</w>
te li
ta e</w>
snichʼ an</w>
slu mal
re zca</w>
raf os</w>
pár rafos</w>
libr os</w>
kakʼ bey</w>
j k</w>
cu ál</w>
V ER</w>
Mu ch
L E</w>
G O</w>
Ch aʼ
z ar
x chi
x chaʼkuxaj
tendr á</w>
si enten</w>
muchach a</w>
mal v
le ña</w>
ko t</w>
ja do</w>
esper tad</w>
ejemp loetik</w>
S il
P ue
D espertad</w>
v ían</w>
skʼop e</w>
sbi ilin
pi ente</w>
jnaʼ ojtik</w>
ja pa</w>
enseñ anza</w>
empez aron</w>
eli ke</w>
dici embre</w>
co don
cheʼ ox
c amos</w>
c aj
abu codon
a pas
Zac arías</w>
Oʼ TAN</w>
N abucodon
8 8</w>
ʼu ni
é poca</w>
slumal ik</w>
segu ridad</w>
responsa bilidad</w>
pág inas</w>
pu ro</w>
ki ptik</w>
ju l</w>
ha gamos</w>
ex ac
ent er
cʼ ahcʼ
conoc e</w>
c al</w>
baj el</w>
ar ro
ap lic
alrede dor</w>
akʼ beya</w>
T he</w>
Machʼ atik</w>
K AKʼ
I K
A p</w>
ó r
y ermano
ven cer</w>
tra tar</w>
tes ik</w>
seg undo</w>
schaʼ kuxaj
resca te</w>
re almente</w>
pedi r</w>
op ini
o lil</w>
mu cʼ</w>
lu ga
laj ele</w>
ji b</w>
i ta</w>
her m
ha h
g obernante</w>
escuch a</w>
enferme dades</w>
en oj
aprendi do</w>
O TIK</w>
H a</w>
De partamento</w>
AW ILI
Á frica</w>
spaso jik</w>
sali r</w>
ri to</w>
p el</w>
or den
mi r
inv estig
enta s</w>
em í</w>
circ unci
acer car
YA Kʼ</w>
Kʼ AL
AWILI X</w>
6 9</w>
1 2
tal emik</w>
ta j</w>
snopo jibal</w>
sin ago
sacri ficios</w>
peque ño</w>
or din
nop ele</w>
miembr os</w>
kerem etik</w>
k xan</w>
ing l
encu entr
dis puestos</w>
cum p
chajpan el</w>
cas os</w>
c endi
asun tos</w>
apo y
No emí</w>
Nabucodon osor</w>
N e
E d
A ca
7 5</w>
á les</w>
raz on
per man
pens emos</w>
o la</w>
luga retik</w>
kapi tulo</w>
j T
infier no</w>
enti fic
cuán to</w>
conta cto</w>
comen zó</w>
cab al
bah t</w>
aw aʼ
ani ma</w>
DA D</w>
ti dad</w>
so la</w>
señ ail</w>
pens ar
nopo lix</w>
est én</w>
er te</w>
el uk</w>
al etik</w>
P en
M abal</w>
KʼAL AL</w>
E sto</w>
D eb
8 4</w>
0 2</w>
z ado</w>
yijki tayel</w>
xiw el</w>
wi ʼ
spas bey</w>
s chʼi
nich imal</w>
min u
l as
kʼa t
j chʼu
hebre o</w>
fí si
f araón</w>
est ás</w>
ej a</w>
e con
costum bre</w>
con f
as pec
N ú</w>
M undial</w>
KAKʼ TIK</w>
Cor into</w>
9 8</w>
1 Sa</w>
z ona</w>
ten gan</w>
su bi
sj o
re al</w>
o per
l lu
l ad
kʼux otik</w>
di g
bili x</w>
am el</w>
a tra
L u
Ent onces</w>
B u
A ʼI
7 8</w>
xba at</w>
w ej</w>
w 15</w>
u do</w>
sni ʼ</w>
snaʼ beyel</w>
que da</w>
permi so</w>
o quía</w>
kʼux uk</w>
j yan
j och
habl ando</w>
des cri
deber ía</w>
cár c
ci on</w>
ch e
can ciones</w>
c ay
be r</w>
aʼte ji
ac e</w>
a tu
Libr ary</w>
JOJKʼOYELE TIKE</w>
J os</w>
Deu t</w>
Anti oquía</w>
8 7</w>
0 3</w>
versí culos</w>
trans mi
sem br
scʼob lal</w>
responsa bilidades</w>
respon dió</w>
religi osos</w>
jui cio</w>
jtoj ol</w>
ik xan</w>
humil des</w>
gl oria</w>
entusias mo</w>
demostr amos</w>
d arnos</w>
car r
agra dec
N OS</w>
M P
M OS</w>
A E</w>
9 4</w>
9 1</w>
án do
tuminchij etik</w>
tarj eta</w>
ta ra</w>
skʼ ases
s po
pi de</w>
per der</w>
par tes</w>
lleg aron</w>
kux ul</w>
fortalec er</w>
f oy
dar les</w>
con ciencia</w>
ah il</w>
a ʼulaʼ
SKʼ AN</w>
B R
20 12</w>
us ó</w>
tr on
tikun el</w>
smele lile</w>
quer ido</w>
podr ían</w>
per dido</w>
man dó</w>
lokʼom ba</w>
kur so</w>
hi er
herman oetike</w>
h all
gener al</w>
du ra</w>
dr á</w>
dis puesto</w>
d encia</w>
asun to</w>
artí culos</w>
VI D</w>
S ara</w>
Pue de</w>
yichʼ ix</w>
su r</w>
snop elxan</w>
slokʼ es</w>
sim p
se o</w>
sNichʼ an</w>
respu estas</w>
pusi eron</w>
pue da</w>
pajal uk</w>
p ic
of rezca</w>
o tikix</w>
na sionetik</w>
kʼa b</w>
ji n</w>
im pri
ha gan</w>
demuestr an</w>
cárc el</w>
capaci dad</w>
autori dades</w>
apo ya
F r
A arón</w>
yaʼ lel</w>
xkʼo otik</w>
w 11</w>
sts a</w>
sjok in
segui da</w>
s pʼ
pas beyel</w>
p ik</w>
o dio</w>
naj al
le v
jkuxlej altike</w>
im presion
f ra
detal les</w>
der es</w>
decidi r</w>
d entes</w>
ci entos</w>
chʼul chane</w>
chʼi chʼ</w>
ca usa</w>
ba do</w>
b tes</w>
anim al</w>
S u</w>
Le a</w>
K I
C Ó
A lem
sufici ente</w>
sta ojik</w>
sob revi
r ían</w>
or amos</w>
lí deres</w>
lu j
kaʼ bilal</w>
jta te</w>
j e
ingl és</w>
h ay
gobier nos</w>
awu ʼuni
actu alidad</w>
abaj o</w>
U cr
Jo h
Des pués</w>
A P
x ba</w>
weʼ el</w>
sinti ó</w>
si quiera</w>
ri sti
pu kuj
pa st
o f</w>
ley etik</w>
j ti
i x
i ban</w>
humil de</w>
hab ría</w>
g en</w>
cʼ ax
congrega cionetik</w>
co tic</w>
aʼi yi
actu ar</w>
a fron
Ucr ania</w>
Tsob lej
San ed
SW ENTA</w>
Pas a</w>
Est á</w>
CÓ MO</w>
B Í
B o
9 9</w>
6 ,
xu l
tar nos</w>
tan o</w>
snaʼ ojik</w>
pre dijo</w>
pas tiklan
mu l
gu sto</w>
gr adu
dios es</w>
con seguir</w>
chi kʼbil</w>
ch el</w>
c ami
ani ke</w>
al to</w>
HA C
C ar
BÍ BLI
Alem ania</w>
un gidos</w>
to e</w>
stsʼu mb
spas beyel</w>
slu mal</w>
sirvi endo</w>
seg unda</w>
sacerdo tes</w>
s puk
s am
per laetik</w>
pedi rle</w>
pa t
olog ía</w>
objeti vo</w>
mo so
jtʼu ntik</w>
jojkʼoy beya</w>
jkʼop l
j ol
gra ve</w>
em pi
def en
consecu encias</w>
ci al</w>
chʼi chʼe</w>
aʼiy el</w>
aw aʼiy
asig nación</w>
am amos</w>
M é
AD N</w>
w en</w>
tsʼi ʼe</w>
tek sto</w>
rí n</w>
re yes</w>
pa ñ
ovej as</w>
orig en</w>
ol la</w>
minister i
le al
leal tad</w>
ir se</w>
indic a</w>
imag in
i te</w>
ex isti
eng añ
dios etik</w>
cre er</w>
cam paña</w>
anal ice</w>
ac er</w>
T a
Saned rín</w>
P RI
M aba</w>
C am
9 5</w>
20 20</w>
tex tos</w>
tendr emos</w>
s cʼu
recibi ó</w>
prometi do</w>
objeti vos</w>
nujpun el</w>
lej al</w>
k nax</w>
hu bo</w>
h ambre</w>
gri e
cuán do</w>
c oʼtan</w>
bor ra
ant os</w>
ach ol</w>
ab lemente</w>
Es te</w>
0 1</w>
w 13</w>
tij bot</w>
swenta in</w>
se c
sali ó</w>
s man
religi ones</w>
qu il</w>
pu n</w>
princi pal</w>
or ahil</w>
mostr ó</w>
mo des
laj em</w>
l tes
jnopo jel</w>
jkʼayin beytik</w>
j ʼ
i jki
foy eto</w>
ex e</w>
em ente</w>
di vi
d arse</w>
cre e</w>
contr ario</w>
co pi
ba em</w>
a te
a f
Sil as</w>
H oy</w>
ti to</w>
soldad os</w>
slekub tes</w>
skanan tayel</w>
segui dores</w>
pon ga</w>
nichʼ an</w>
má xi
lajem ikixe</w>
jwol wanejetik</w>
ho ʼ
enfr enta
econ óm
constru ir</w>
chajp nax</w>
c ti
bal etik</w>
aj tik</w>
Jaʼ bal</w>
CO VID</w>
Aca b</w>
y n</w>
w ayel</w>
tr aducción</w>
recu per
r me</w>
permi te</w>
nujpun em
nacion al</w>
maj tan</w>
kʼa h
joʼ one</w>
j chajpan</w>
for mas</w>
e ʼ</w>
cʼu l</w>
b lan
awoʼtan e</w>
KO L
Ja xan</w>
tar án</w>
sts alel</w>
schajpan el</w>
r ob
mi go</w>
men udo</w>
llen a</w>
li ci
gol pe
fi esta</w>
ex ten
cui dar</w>
ci miento</w>
aw ichʼ
arti kulo</w>
a ku
P e</w>
J TA
9 6</w>
7 4</w>
ti que</w>
tak tike</w>
sle ik</w>
mej orar</w>
kʼop etike</w>
jtso jb</w>
i rá</w>
ex per
chaʼox chajp</w>
cambi ó</w>
c en</w>
an u
al co
ac ción</w>
X CH
S nopel</w>
O P</w>
yak alik</w>
ya ku
wiʼ nal</w>
spi r
sir ven</w>
s á
puer sa
pl á
moti v
m eros</w>
jm il</w>
j ka
fuer tes</w>
espa da</w>
encontr amos</w>
emp le
chʼ ay
X C
N uestr
yu tsʼin</w>
yo tses
y on</w>
xbo on</w>
tseʼel nax</w>
stu quel</w>
sab en</w>
res ol
pri sión</w>
porno grafía</w>
p ed
mo el</w>
luch ar</w>
li mi
kʼax toxan</w>
ga se</w>
eli min
baj tik</w>
aw e</w>
ap li
19 14</w>
ón ica</w>
y orahil</w>
y ajwal</w>
vi eran</w>
uk nax</w>
ten cia</w>
su ger
sta te</w>
sbah tel</w>
rápi do</w>
resul tados</w>
qʼu el</w>
que tic</w>
or asi
naʼ beyel</w>
me dic
kal bey
joch ol</w>
hon r
go zo</w>
e uke</w>
ch ete</w>
an da</w>
a chʼ</w>
S am
PR O
P ʼi
M A</w>
H a
G ali
E C
D EL</w>
9 2</w>
yi h
win ic</w>
versi dad</w>
t xan</w>
sol dado</w>
pi er
opo si
mal dad</w>
m en</w>
m br
lab or</w>
kʼ tik</w>
jich uke</w>
bayal ix</w>
apoya r</w>
an d
an c
alnichʼ an
Can adá</w>
CU R
A na</w>
14 5</w>
yox ebal</w>
xcʼ oht</w>
sut bey</w>
sbi kʼtal</w>
s el</w>
rom ano</w>
qui si
ob ser
man d
k an
hacer se</w>
h inel</w>
en seguida</w>
cu ʼun</w>
contr ol</w>
con sol
cas as</w>
as te</w>
Dis fru
C é
A J
yel aw</w>
xkʼopo j</w>
ver so</w>
tsoblej e</w>
tran qui
ti er
s mi
reliji on</w>
pun tos</w>
pap el</w>
pa rado</w>
p ena</w>
jnop ilan</w>
jkʼopl altik</w>
imag en</w>
im pli
guer ras</w>
f recu
en en</w>
ele l
ej er
car on</w>
baj tʼik</w>
ayi ke</w>
arri ba</w>
ad ul
N M</w>
M elel
Ec l</w>
Au str
7 7</w>
y ec
xkoltay wanik</w>
xchaʼkuxaj ik</w>
x ico</w>
vali ente</w>
sjoʼ tak</w>
si dad</w>
qui so</w>
preocu pa</w>
plan eta</w>
pare d</w>
pantal ón</w>
ocur ri
o tses
na h</w>
lo m</w>
ku ela</w>
koʼtan e</w>
jchʼi el</w>
j sitin
guer ra
g ra</w>
eʼ el</w>
es a
ec er</w>
e tas</w>
deber íamos</w>
cu al</w>
ci da</w>
bol ob
aplic ación</w>
al ile</w>
W il
ST OJ
S BA
Cr ón</w>
B ar
B RA</w>
A TIK</w>
É f
Éf eso</w>
vir tió</w>
vi ven</w>
ta te</w>
stojob tes
segu ra</w>
pu esta</w>
pas ando</w>
m ba</w>
k me</w>
il awilik</w>
i e</w>
em otik</w>
descu bri
chʼul tes
bi x</w>
bey ele</w>
T esta
T RA
P e
Mu lana</w>
I g
BEY TIK</w>
7 ,
2 Re</w>
0 9</w>
últi mo</w>
yakʼoj botik</w>
wokol e</w>
wan otik</w>
v esti
tra tado</w>
tor etik</w>
señ a</w>
se is</w>
reg al
pudi era</w>
li sta</w>
li dad</w>
fili ste
esfuer zo</w>
e buk</w>
don os</w>
dibu jo</w>
compr ar</w>
c e
bayu k</w>
M igu
Cé sar</w>
y endo</w>
tsʼ ak
ti do</w>
te y
snuj pʼ</w>
sk aj
sba hic</w>
s no
ro e</w>
re as</w>
r on</w>
parti r</w>
manda to</w>
k aʼtel</w>
ju k</w>
jchol beytik</w>
j an</w>
ig lesia</w>
fru to</w>
ex ist
esfuer zos</w>
el to</w>
dr as</w>
di señ
di era</w>
con o
ch ah
can s
bo tike</w>
Testa mento</w>
RESPON DA</w>
Mé xico</w>
Jojkʼoy eletik</w>
8 ,
ʼu c</w>
tr adu
tel é
tal es</w>
segu imos</w>
respon de</w>
religi onetik</w>
recor dar</w>
pu kel</w>
pregún tese</w>
parec er</w>
pan dem
paci ente</w>
orgu llo
necesi dad</w>
máxi mo</w>
mu si
mu lile</w>
lo do</w>
kʼax em
jT atik</w>
ex iste</w>
ern áculo</w>
deci dió</w>
cʼahcʼ al</w>
con tiene</w>
con den
c os
b alumilale</w>
al ma</w>
OʼTAN IL</w>
O r
Kʼopon axan</w>
J ay
I sa</w>
E u
20 19</w>
w0 5</w>
uni verso</w>
ta ciones</w>
so por
skontra tak</w>
s en
res al
najal sitil</w>
in for
impri mir</w>
gr ab
estab le
es pec
doc tor</w>
dese os</w>
con st
com pens
c elo</w>
a chʼu
Sig nific
BIBLI AE</w>
2 Co</w>
w ocol</w>
w ak
w 16
tab ernáculo</w>
ta til</w>
swenta in
skʼop ik</w>
sam ari
qui ero</w>
qued aron</w>
po llo</w>
mu ri
me ta</w>
i lele</w>
hist ori
gra ti
gan ar</w>
fo to</w>
equi po</w>
ent re
emp ec
dej aron</w>
confi r
com e
Qu e</w>
M e
Es dras</w>
Disfru te</w>
D ónde</w>
CI ONES</w>
9 ,
yikʼ al</w>
toj il</w>
termin ar</w>
tendr án</w>
sti tu
smam alal</w>
schʼuun ej</w>
qui énes</w>
oy e</w>
ox tul</w>
on el</w>
mu t</w>
min i
llam ó</w>
l aniwan</w>
i b</w>
h etic</w>
enseñ an</w>
en as</w>
en al</w>
eli o</w>
con tra
can tidad</w>
br a
bo la</w>
aha b</w>
MACHʼ ATIK</w>
LE C
Feli pe</w>
F l
E x
AN Z
w 12</w>
vol u
ton ax</w>
super ar</w>
soci ales</w>
sn aʼi
sir ve</w>
que as</w>
ob er
ma chete</w>
llen o</w>
ju luk</w>
jm am
espa ñ
dec lar
consu l
con ven
chopo le</w>
cabal lo</w>
asamb leas</w>
ar reg
anim ó</w>
Y o
PAS EL</w>
Mi queas</w>
Kʼopon a</w>
I MP
x chʼi
w entain
tor ti
ti tu
t se</w>
schʼu hun
schaʼkuxaj tes</w>
re des</w>
pa cto</w>
on etike</w>
lajun eb</w>
jkʼ ases
jajch ik</w>
j kontra
in os</w>
d á
cʼ ax</w>
c ad
c ación</w>
aʼteji baletik</w>
analiz ar</w>
S naʼ
Pre par
O ETIK</w>
J Kʼ
A BA</w>
1 Re</w>
yaw il</w>
x jelon</w>
vi ento</w>
so l</w>
sku y</w>
sig an</w>
sbakʼe tal</w>
sbajtʼ el
princi p
piens an</w>
p ón
necesi taba</w>
medi tar</w>
lokʼ emik</w>
jw enta
jtojol tike</w>
in am
g ando</w>
difer encia</w>
circunci sión</w>
cheʼox ebuk</w>
car go</w>
cami sa</w>
anim ar</w>
akʼ bil</w>
acom pañ
ab ue
N ec
M E</w>
LE J
G o
Cor n
C hi
AKʼBE Y</w>
1 10</w>
w0 8</w>
stoj olike</w>
stij bey</w>
sig amos</w>
sfamili aik</w>
sexu ales</w>
se x
sbajtʼ el</w>
sabi o</w>
perdon ar</w>
per ten
pap á</w>
oposi ción</w>
opini ón</w>
om e</w>
ok l
mini str
materi ales</w>
maestr o</w>
in spir
impor tar</w>
hi bi
ej e</w>
d ó
ci pl
chol el</w>
cas tig
ba ele</w>
alcan zar</w>
acu s
V AN
OT R
K u
I r
yil otik</w>
yi x</w>
termin ó</w>
seman as</w>
quer ían</w>
or d
or ando</w>
mantal e</w>
maj el</w>
ju stos</w>
jich niwan</w>
jchʼuun jel</w>
j pensar
esta rá</w>
e h</w>
cʼax el</w>
chap al
ch ay
be le</w>
ad ap
a proba
T seʼ
Mu kʼul</w>
Ed én</w>
D ER
Austr alia</w>
A R</w>
1 39</w>
0 8</w>
0 000</w>
yi t</w>
yal bat</w>
wini quetic</w>
w0 4</w>
ti vos</w>
taki n</w>
señ or</w>
re compens
pʼu j</w>
pu ra</w>
pon en</w>
peligr o</w>
p in
nom bres</w>
mukʼ e</w>
llev an</w>
lec tores</w>
j le
i h
hab lan</w>
ex c
ent ífic
e gip
dis cipl
difer ente</w>
control ar</w>
comun ic
cari ñ
cab o</w>
cab ello</w>
beyi c</w>
anaʼ beyxan</w>
an oetike</w>
am a
ac ʼ</w>
T EM
R ahab</w>
Migu el</w>
H u
F I
Cri stoe</w>
Ay niwan</w>
yaʼte like</w>
x na
w 14</w>
ul ar</w>
ti ʼ</w>
st rado</w>
snojptes otik</w>
servi rle</w>
rela tos</w>
prác ticas</w>
obj e
o sidad</w>
nuj pun</w>
meʼ el</w>
ma ʼu
llev aba</w>
kar ta</w>
jk ojt</w>
j lu
fun cion
fuer an</w>
en erg
emp e
educ ación</w>
des cargar</w>
cu c</w>
cu alidad</w>
correc to</w>
con tó</w>
cay ó</w>
cambi ado</w>
ba etik</w>
amu lan</w>
ador etik</w>
ad ol
aba ik</w>
aba hic</w>
S E</w>
DIS CUR
Cuán do</w>
AN I
8 1</w>
í do</w>
É N
xi ʼ</w>
xchʼ i</w>
w ol
ver dades</w>
t se
s pʼi
pukuj etik</w>
p eso</w>
nue vos</w>
mu lti
lle ga</w>
kʼay emik</w>
jpa se</w>
imperfec tos</w>
ho gar</w>
fortal e
españ ol</w>
equi voc
enci ma</w>
deb ía</w>
con migo</w>
chʼ aj
chik naj
chaʼkuxaj el</w>
ay to</w>
aparec en</w>
am in
agradeci dos</w>
J ap
Corn elio</w>
C ho
2 5
énd ose</w>
y aʼiyi
te c
ta t</w>
stʼun ik</w>
skontra in</w>
sch eb
recibi eron</w>
posi ción</w>
podr íamos</w>
n ar
llu via</w>
lej alil</w>
jun etike</w>
ixi me</w>
is la</w>
in medi
ha bilidades</w>
h as</w>
fi cia</w>
est emos</w>
d am
car tas</w>
ca er</w>
c ó
bene ficia</w>
am o</w>
M i</w>
C ʼ
10 5</w>
ánd ole</w>
yil oj</w>
yamigo tak</w>
w0 9</w>
telé fono</w>
t ú
sa bios</w>
regu lar</w>
okl yn</w>
kʼ etik</w>
im pr
hac ían</w>
di ciendo</w>
ci entífic
chene kʼe</w>
cer ro</w>
ca t
biluk etik</w>
bi ke</w>
ayud arlo</w>
a re
Ver dad</w>
STOJ OL</w>
Por que</w>
Nú meros</w>
N I
LEJ AL</w>
EN TE</w>
Bro oklyn</w>
A bi
2 Sa</w>
tsoblej etike</w>
tak ik</w>
sj j</w>
salv ación</w>
r é</w>
r lo</w>
precurso ra</w>
mon taña</w>
mil las</w>
laj ik</w>
kijki tay</w>
inc lin
il le</w>
ha ʼuc</w>
deb ían</w>
ci gar
chan eb</w>
cam ente</w>
ca pi
bo on</w>
ayud arán</w>
analiz aremos</w>
ab el</w>
a familia</w>
M ac
KUX LEJAL</w>
E sta</w>
20 15</w>
ér ica</w>
yijki tayik</w>
x lokʼo
x kʼ
tsʼi h
testig o
ta jib</w>
sts aj
sac ar</w>
s loʼl
puersa uk</w>
prote ger
paci entes</w>
or ó</w>
milagr os</w>
mencion a</w>
logr arlo</w>
le emos</w>
kuʼun kotik</w>
kux u
kilóme tros</w>
j t</w>
ho n</w>
esa rea</w>
err or</w>
er le</w>
empec é</w>
e volu
d ale</w>
cuenta hinel</w>
ay nix</w>
al eltik</w>
al beya</w>
a par
Po demos</w>
Nec esi
K ol
C esarea</w>
AW AKʼBEY</w>
y antsil</w>
tsʼu mb
tam ba</w>
sbajtʼel kʼinal</w>
ref lej
recor demos</w>
re co
públi co</w>
públi ca</w>
pued an</w>
prob ablemente</w>
pla ta</w>
partici par</w>
ma h
de pen
culti var</w>
com por
ci en</w>
cham eletik</w>
bus ca</w>
be h</w>
aʼte liletik</w>
anteri or</w>
S CH
P E
Jap ón</w>
H ab
El í</w>
14 7</w>
yikʼ ik</w>
y el</w>
xiw ik</w>
wokol uk</w>
versi culoetik</w>
tsa bilik</w>
tr am
stsak xan</w>
ocu pa
miembr o</w>
mam á</w>
kʼo j</w>
kuʼun e</w>
koltay otik</w>
jun ax</w>
j pʼaj
i jkʼi
es kuela</w>
en or
chaʼbe je</w>
beyi x</w>
ba tal
ayi c</w>
antigu o</w>
an d</w>
ame ʼ</w>
a ver
R es
Pʼi jub
KOL TAY
Gali lea</w>
Estu dio</w>
Eli seo</w>
E spa
8 5</w>
á zar
ázar o</w>
ven ir</w>
tu los</w>
tso jb</w>
tor m
tom ó</w>
ti les</w>
snopo j</w>
sexu al</w>
sbiilin ej</w>
s ale</w>
re vel
qu es</w>
pa ces</w>
okol e</w>
mo de
lengu a</w>
kʼu k</w>
juk eb</w>
jtu hl</w>
jsitin taytik</w>
jm ama</w>
jkʼu ʼ</w>
j in
ho l</w>
enfer mo</w>
di ez
cristi anas</w>
cre to</w>
carr era</w>
be ber</w>
ba ya</w>
am ar
agu ante</w>
adol esc
a koltay</w>
T NM</w>
Sab es</w>
L ázaro</w>
IK NA
G ran
D an</w>
C a
0 6</w>
0 4</w>
ya h
xju ʼ
w entainel</w>
w 2
vivi mos</w>
visi tar</w>
tsʼu nu
tribu lación</w>
tr iste</w>
ti va</w>
tes tik</w>
suc esos</w>
sor pren
r ol
pro yec
pe da
or e</w>
ne go
llegu e</w>
kux aj</w>
jaʼ bile</w>
jaʼ at</w>
e el</w>
dis poni
c ón
aw ale</w>
aparec e</w>
aj chʼal</w>
VAN CE</w>
L O
In formación</w>
IKNA J</w>
I mag
E sa
A VANCE</w>
é xi
á genes</w>
yaʼ be</w>
yak ix</w>
y en</w>
x leku
tʼ an</w>
ts aj</w>
tra go</w>
tendr ía</w>
schol beyik</w>
sa b</w>
podr á</w>
peque ña</w>
och o</w>
o le
nujpun emik</w>
mu k
maʼu ke</w>
lokʼomba kʼop</w>
kol el</w>
k r</w>
im ágenes</w>
famili ar</w>
ex tr
ex puls
deci mos</w>
célu la</w>
cul pa
conten tos</w>
bi a</w>
ayu c</w>
akʼ u
XCH IKNAJ</w>
Snaʼ ojibal</w>
OTR OS</w>
M elel</w>
L TA</w>
KIL BEYTIK</w>
G ran</w>
DES CRI
C ajwal
C AS</w>
1 Pe</w>
vi vían</w>
vi vo</w>
tan a</w>
sá bado</w>
smukʼu lin
si ga</w>
refu gi
propi as</w>
pandem ia</w>
ne ga
kanan tay
jnaʼ bey</w>
ji chuk
jar dí
jardí n</w>
j pʼ
cu esta</w>
c é</w>
bi kʼtal</w>
benefici os</w>
au i</w>
aprendi endo</w>
Mal aui</w>
M ER
Jo se
En señ
DES CU
CH OS</w>
B U
A sia</w>
éxi to</w>
yuʼu nu
ve amos</w>
tuun tes</w>
tra tó</w>
tes a</w>
tar ía</w>
taj imal</w>
sue ño</w>
spʼaj ik</w>
so br
sjel tay</w>
re bi
qu en</w>
pʼijubtes wanej</w>
prov oc
prometi ó</w>
ne u
n ab
mision eros</w>
ma k
m aʼ
k risti
ju ez</w>
j lokʼes
j familia</w>
ixi m</w>
in forme</w>
il ot</w>
gra ves</w>
con tar</w>
ciu dades</w>
chʼ en</w>
cal ma</w>
cal le</w>
aʼ tele</w>
am aba</w>
alco hol</w>
alal etike</w>
U N</w>
T O
R O
P ER
MA T
Esa ú</w>
DI CE</w>
DESCU BRA</w>
A YU
ti c
terri tori
tay bey</w>
superinten dentes</w>
smi lik</w>
senti rse</w>
quer idos</w>
prepar ar</w>
pr acti
ofrec e</w>
o ta</w>
o kʼ
n an
l óg
kʼa j</w>
juʼ em</w>
jkʼop tik</w>
jchʼuun j
ic k</w>
hon ra</w>
e lec
ar re
apa reció</w>
ansi edad</w>
ad mi
ad em
V ER
UE LTA</w>
T EN
SBA BI
SBABI AL</w>
S im
P CIÓN</w>
N e</w>
LE S</w>
Ju eces</w>
Ig lesia</w>
IC H</w>
Gu erra</w>
EN ES</w>
DESCRI PCIÓN</w>
1 000</w>
- 1</w>
xkux in
weʼ eli
utili z
tsa el</w>
trib unal</w>
tem or</w>
su mo</w>
stsa kotik</w>
si tik</w>
scʼu xul</w>
s naj
ri que
publica cionetik</w>
propi os</w>
pri vi
presenta r</w>
pe le
och in
ni dad</w>
mb re
l v
kijki taytik</w>
jpensar tik</w>
jnop beytik</w>
jchʼuun beytik</w>
ej e
cón yu
ban tito</w>
ayud arlos</w>
am on
a consej
Y o</w>
QU I
P U
Melel nix</w>
J ICH</w>
Fr ancia</w>
Eze q</w>
Eu ropa</w>
DI C
B UELTA</w>
yijkʼi tay</w>
w p
terr emo
sobrevi vi
snojptes on</w>
skʼases ik</w>
skʼan beyik</w>
schʼuun beyik</w>
schajpan ik</w>
s as
ra dio</w>
pres entes</w>
pr em
plan es</w>
pan za</w>
pa tan
nojp tes</w>
ma ʼuk</w>
lo t</w>
laj uk</w>
kuxlej alile</w>
jo y
j kʼab</w>
is las</w>
gan as</w>
for d</w>
espiritu e</w>
ej el</w>
di da</w>
deci dido</w>
de jado</w>
d ame</w>
con v
c aba</w>
asi st
alim entos</w>
P UE
ESI S</w>
C ha
B ri
AL GO</w>
ví cti
uni dades</w>
tar le</w>
swenta ik</w>
suger encias</w>
su t</w>
so lici
skʼopl alik</w>
sa ciones</w>
oc rá
milagr oetik</w>
mi yon</w>
llev aron</w>
kamigoin tik</w>
jtso b</w>
jna tik</w>
il lo</w>
id entific
ichʼ a</w>
fal sas</w>
escri to</w>
es ca
di endo</w>
dese an</w>
cion e</w>
c án
c lo
aʼte lile</w>
ay inik</w>
ant ó</w>
P ara
N aʼ
L ot</w>
JU AN</w>
J wol
Alg unos</w>
AN OP
20 21</w>
1 27</w>
1 20</w>
yermano tak</w>
yaj tal
ww w
vi vía</w>
vali entes</w>
tseʼel uk</w>
tar an</w>
ta reas</w>
stuk elik</w>
stal ele</w>
sm ali
sigui eron</w>
sbi ilin</w>
sba h</w>
sacerdo teetik</w>
sT ate</w>
prof undo</w>
pre kur
po z
perfec to</w>
pens ando</w>
pa ti
or al</w>
lleg ado</w>
le xi
l ada</w>
kʼopo j</w>
kʼ inik</w>
kʼ aʼ
ko m</w>
jtʼu n
jmul awil
g al
en tan
el tike</w>
bi na</w>
aproba ción</w>
aprendi ó</w>
anaʼ bey</w>
an op
ad ver
acab ará</w>
To wer</w>
S n
LI K</w>
J ES
IMP OR
ENSEÑ ANZ
CO N</w>
x lokʼik</w>
v és</w>
v ale</w>
tra i
sti ʼ</w>
ro de
respon der</w>
qu em
progr es
poz ol</w>
po cos</w>
peque ños</w>
oy entes</w>
orasi on</w>
or den</w>
on al</w>
oj a</w>
o tik
o tic</w>
na kʼbil</w>
médic o</w>
medi da</w>
manten erse</w>
ma tar</w>
le ʼ</w>
kanan tayel</w>
j tsʼin</w>
impor ta</w>
evolu ción</w>
en ik</w>
comen z
aʼ ba
am en
ajwal ile</w>
a tuuntes</w>
a p</w>
Sal ones</w>
S í</w>
Je f
IMPOR TAN
C lar
9 3</w>
20 11</w>
y eron</w>
x jalaj</w>
wan e</w>
waka xe</w>
tra ta
tr ist
skʼ ayin
skʼ ases</w>
pón gase</w>
pa se</w>
neu tr
maravillo so</w>
l v</w>
in ale</w>
ik el</w>
h aría</w>
gi a</w>
entr ar</w>
c oʼtan
c li
aʼte jotik</w>
an ía</w>
a kʼop
SE AMOS</w>
Re be
Je z
F u
Estu di
EM ÍAS</w>
D R
ANOP XAN</w>
xmantal tes
xkʼopo jat</w>
xjuʼ ix</w>
w 10</w>
vi g
vac a</w>
u da</w>
tr ae</w>
tom a</w>
su l
sob re
s Jun</w>
rela ciones</w>
r in
puer sa</w>
por tada</w>
parec ía</w>
or illa</w>
ob o
ni xbal</w>
na he</w>
mode lo</w>
ma chi
kʼayoj iletik</w>
ki xe</w>
jw eʼ
jpʼaj tik</w>
in an</w>
h er</w>
gobern ar</w>
gobern ador</w>
g all
fic ar</w>
enfer mos</w>
em on</w>
el tal</w>
e go
a gar
Le k
Kʼ inal</w>
HE CHOS</w>
2 4
1 Ti</w>
án donos</w>
ÉN ESIS</w>
yichʼ ojix</w>
yaʼ tele</w>
xlaj ik</w>
ts es</w>
ti vo</w>
ta me</w>
stal elike</w>
sta kʼinik</w>
st al</w>
sno pi
skanan tayotik</w>
sinago ga</w>
si vo</w>
se tike</w>
scʼ op</w>
ri bu
public ador</w>
pareci da</w>
obedi entes</w>
ni jk
logr ar</w>
jtu luk</w>
in qui
im posible</w>
espec ífic
ed onia</w>
cer r
bus cando</w>
bi en
am or
adem ás</w>
abati n</w>
a pre
Wil li
Sn t</w>
P r
G ÉNESIS</w>
El la</w>
As á</w>
A b
1 Cr</w>
ó s</w>
tulan xan</w>
teni miento</w>
sweʼ el</w>
so cor
sma kat</w>
ser piente</w>
po bre</w>
permi tió</w>
of en
o te
l ó</w>
jwenta tik</w>
jpa m</w>
jal uk</w>
j na</w>
j la
j chajpan
hacer nos</w>
h s</w>
gu í
g io</w>
estudi ando</w>
ele gir</w>
dist ribu
di ez</w>
desastr es</w>
des cendi
dedic ación</w>
b hs</w>
asi t</w>
apren der
apa ci
U M
Tsoblej etik</w>
Qui énes</w>
Pʼijub tesel</w>
Pen te
P ens
MU Kʼ</w>
M E
E so</w>
C AN
yajtal ul</w>
xiw otik</w>
x ta
v i</w>
tu ve</w>
t etik</w>
s pe
ras il</w>
pod amos</w>
o kʼel</w>
nail pakʼ</w>
mo d
mision er
le vi
k ol</w>
jui cios</w>
jchʼuunj eletike</w>
jchol kʼopetik</w>
jba kʼe
jaʼ mal</w>
j tsʼin
j pʼi
ijki tayel</w>
h e
grati tud</w>
f g</w>
especi ales</w>
conoci do</w>
camin ar</w>
az os</w>
ay otike</w>
al ta</w>
aj o</w>
a kʼopon
Wat ch</w>
S te
R ec
N i
Much os</w>
LEC CIÓN</w>
L AN</w>
B rasil</w>
10 6</w>
10 4</w>
1 18</w>
xw entain
ven ga</w>
tsi l
sch aʼulaʼ
sban kil
resol ver</w>
ob e</w>
mision ero</w>
kongregasi onetik</w>
inter ior</w>
ic ó</w>
há bi
h ice</w>
fal sos</w>
ex presión</w>
ex cel
estr és</w>
escla vos</w>
discipl ina</w>
diez mo</w>
cumpli rá</w>
continu ación</w>
conten to</w>
centr al</w>
ayud aron</w>
ari as</w>
ac tú
a etike</w>
Ts ʼ
Bel én</w>
AʼI Y
A pren
1 33</w>
Ú S</w>
x lo
um en</w>
tsʼak al</w>
te la</w>
ta das</w>
su h
spʼ aj</w>
sj el</w>
schʼuhun el</w>
schol beyel</w>
regi ón</w>
r al</w>
qu ina</w>
progr am
o h</w>
o fic
no j</w>
maestr os</w>
logr ó</w>
kʼu ʼul</w>
j paj
esper aba</w>
dr ía</w>
cux lejal</w>
cuer da</w>
chambal am</w>
batal la</w>
aten der</w>
as co</w>
an tik</w>
acep tó</w>
a k</w>
T al</w>
Jer icó</w>
Hebre as</w>
Fl p</w>
B en
A le
8 2</w>
5 00</w>
0 ,
ún ica</w>
óli ca</w>
y am
y aba
x yakʼ</w>
w 17
vay as</w>
val ora</w>
us an</w>
tra vés</w>
tien de</w>
tab la</w>
t é
st ʼu
spa j</w>
sj am
senta do</w>
s lo
re pu
r em
qui x</w>
princip ales</w>
pon erse</w>
pas an</w>
ocur rió</w>
ni ña</w>
mon te</w>
jte b
jpa so
j koltay</w>
hospi tal</w>
ha z</w>
h ch</w>
físi co</w>
frecu encia</w>
escribi r</w>
er án</w>
des i
cu a</w>
contes tó</w>
comentari o</w>
cier tas</w>
aʼte jon</w>
apren dí</w>
ali c</w>
aku y</w>
Pa til</w>
N O</w>
M ant
JES ÚS</w>
H ar
G oli
D ur
Ch ʼul</w>
A ni
20 00</w>
19 19</w>
1 30</w>
ú til</w>
y eʼ
yeʼ tal</w>
x nujpun
vivi endo</w>
to wer</w>
te tike</w>
tan tas</w>
tan ta</w>
stsʼibay ik</w>
spas botik</w>
sitin tay</w>
sex o</w>
sab ían</w>
s loʼ
respon sab
r ico</w>
po cas</w>
per dió</w>
oli c</w>
oj ikix</w>
o k</w>
nar an
mul wej</w>
man ix</w>
limpi a</w>
kamigo taktik</w>
k as
jkʼ ajkʼ
j xiʼ
herman aetik</w>
h ú</w>
g ada</w>
fal sa</w>
dis cursos</w>
d era</w>
conoci ó</w>
ch tower</w>
ben deci
ba st
b esti
acab ar</w>
Wat chtower</w>
Te y</w>
E mpi
z can</w>
yal aj</w>
v ec
tin g</w>
t era</w>
stojob tes</w>
skanan tayik</w>
ri s</w>
que o</w>
pied ras</w>
pareci do</w>
pare ja</w>
meʼ ba</w>
m bil</w>
la u
kermano taktike</w>
kal tike</w>
jta t</w>
jel on
j chaʼ
in teli
hoʼ on</w>
hici era</w>
habi tantes</w>
enor me</w>
ego í
di ga</w>
des anim
dej e</w>
conoc ía</w>
bautiz ó</w>
ayud arle</w>
au m
ale za</w>
agrad ar</w>
ab und
RESPON DER
N or
Jef té</w>
Jaʼ nax</w>
J tsojb</w>
BÍBLI CO</w>
ú tiles</w>
é lix</w>
z apa
yin ame</w>
x baht</w>
uni versidad</w>
tsʼi baya</w>
teʼ etik</w>
ter c
sucurs ales</w>
stsʼumb alik</w>
sja ch</w>
schʼ ik</w>
respon der
res to</w>
pʼaj aw</w>
prote ger</w>
pastiklan bil</w>
o il</w>
natur aleza</w>
name ye</w>
na z
kʼ ayojil</w>
kux in</w>
jchʼuun ej
hay an</w>
experi encias</w>
enseñ arles</w>
elec tr
di je</w>
conoc en</w>
compren der</w>
can ción</w>
au xi
apa ri
ala w</w>
al ele</w>
T OS</w>
Satan ase</w>
S ch
Ru t
RESPONDER ÍA</w>
N ich
N az
M ás</w>
J O
Fili pos</w>
F élix</w>
F esto</w>
DISCUR S
C o
A c
0 ,000</w>
x pu
wanej e</w>
v ini
stsʼ ikel</w>
slokʼes ik</w>
sa cu
s antos</w>
regres ar</w>
regal os</w>
re par
re d</w>
prof es
pregun te</w>
pens amos</w>
pa gar</w>
p ʼuk</w>
p len
oʼtan tik</w>
me ti
ma j</w>
m ental</w>
l xan</w>
ki t</w>
ka x
jnichʼ nab
in g</w>
g aron</w>
el mente</w>
cónyu ge</w>
cumpli ó</w>
cul ar</w>
convenci dos</w>
can an
bin wan</w>
aʼ bat</w>
aspec tos</w>
an un
Sam aria</w>
SI L</w>
SA ÍAS</w>
Ru sia</w>
Pas cua</w>
Mar do
MAT EO</w>
MAN OS</w>
Lek bal</w>
L es</w>
L abal</w>
J ord
I SAÍAS</w>
F E
D em
Clar o</w>
BR E</w>
1 35</w>
www jworg</w>
viol encia</w>
ve ía</w>
tu viera</w>
tsʼ e</w>
tr ás</w>
tes bot</w>
tay e</w>
t ero</w>
spa t
skʼ asesel</w>
sigui endo</w>
si enta</w>
señ al</w>
se par
s nojptesel</w>
s nojptes</w>
re bel
pun ta</w>
pró ji
próji mo</w>
prote cción</w>
proc lam
opo j</w>
o dia</w>
n am
muestr an</w>
lengu aje</w>
kʼ abal</w>
kongregasi one</w>
ka h
jkuxlej ale</w>
jich e</w>
jal aj
ist ra</w>
im pul
her ford</w>
her ed
estu viera</w>
es pal
encontr ará</w>
desi erto</w>
de trás</w>
colab orar</w>
clar a</w>
bo t
ba tsʼ
b á
amon ton
achʼi x
a so
Y an</w>
Y OʼTAN</w>
Signific ado</w>
Si ria</w>
Rut herford</w>
Mar ta</w>
Je o
3 00</w>
1 50</w>
1 15</w>
vuel to</w>
vi endo</w>
tes bey</w>
tari o</w>
suce dió</w>
su puesto</w>
si ʼ</w>
s ik</w>
s esi
ru mb
rep ente</w>
pre juicios</w>
plá tano</w>
ox chajp</w>
moti vos</w>
manten i
lo c
llam aba</w>
le ltik</w>
lad r
jyan lumetik</w>
jtu kel</w>
j bey</w>
h ch
farise os</w>
f il
equi libr
en da</w>
ej on</w>
d amente</w>
cux aj
bus can</w>
bi bli
bar ro</w>
b tesel</w>
aw aʼtel</w>
ant es
XC D</w>
Ts ʼi
T sa
Seg ún</w>
Pente co
O n
Nich imal</w>
H I
F OT
Empi ece</w>
C OR
A CIÓN</w>
10 2</w>
1 Jn</w>
yulaʼ tayel</w>
yu chʼ
y eh</w>
ver sión</w>
ts ah
tron o</w>
ti f
tele visión</w>
st en
socor ro</w>
sma kʼ
s é
rique zas</w>
reci ben</w>
r endi
qu in
pens aba</w>
pa ri
natur ales</w>
nan atik</w>
n abe</w>
la t</w>
ku laʼ
jts ʼu
ikʼ a</w>
fo toetik</w>
ex amin
discípu lo</w>
da tos</w>
cui da</w>
chol beya</w>
c entro</w>
ar d</w>
anichʼna bik</w>
anal í
a sutbey</w>
a propi
TE X
Se amos</w>
S an</w>
Para íso</w>
P il
OR A</w>
O x
Mac edonia</w>
LE TIK</w>
Ju e</w>
JTA TIK</w>
IN AL</w>
F ran
F il
C al
2 6
árb oles</w>
É X
yal ike</w>
xiw at</w>
x jil
x ane</w>
vuel ve</w>
ts alaw</w>
ti a</w>
teni endo</w>
t enta</w>
stuk ele</w>
sjel tayel</w>
revi sta
re fier
pu dieron</w>
pre parado</w>
oí r</w>
mu cʼul</w>
modes tia</w>
luk me</w>
kʼo l</w>
kʼan beya</w>
kʼ ik</w>
jkʼases tik</w>
jajch on</w>
inmedi ato</w>
il otik</w>
i p</w>
gri pa</w>
esforz amos</w>
ec en</w>
cu bri
cre o</w>
comentari os</w>
científic os</w>
cal or</w>
bey tikxan</w>
ay me</w>
au l</w>
aqu ías</w>
aprovech ar</w>
ami g
alnichʼan etik</w>
a z</w>
Willi am</w>
P rom
O KO
Mardo queo</w>
Mal aquías</w>
MU KʼU
M edi
L istra</w>
Espa ña</w>
14 4</w>
1 1,
ʼ i</w>
ó lo
á culos</w>
xu h
x yal</w>
x oj
weʼeli le</w>
w aj</w>
v endi
uni dos</w>
uk otik</w>
uk me</w>
u so</w>
tu des</w>
tsa bil</w>
tr as
ten íamos</w>
tal mente</w>
ser emos</w>
sent í</w>
senci lla</w>
schaʼulaʼ tayel</w>
s ci
resu men</w>
pu ta
prote ge</w>
pa m</w>
p ó</w>
och otik</w>
o tikxan</w>
mi sm
mi ra</w>
jwol wanej</w>
jnopo j</w>
jchʼ am</w>
jba t</w>
j kʼo
ir é</w>
il inik</w>
guerra etik</w>
gru pos</w>
gener osidad</w>
g la
fon do</w>
fir me</w>
ez as</w>
erman a</w>
des can
d ón</w>
be bi
ax ak
ar di
apa reci
analí celo</w>
alu m
Tesal ónica</w>
T om
R o
R ES
Nú m</w>
K on
Jwol wanejetik</w>
Jord án</w>
Jez abel</w>
Es píritu</w>
E f</w>
B re
B EN
A gripa</w>
yijkʼi tayik</w>
yakʼ bonik</w>
x nojptes
vi vos</w>
to tal</w>
tik il</w>
st ro</w>
smak oj</w>
sm an</w>
sitin tayik</w>
res pec
produ ce</w>
pr esa</w>
pr e</w>
podr emos</w>
permi ti
pa usa</w>
lá gri
kin am</w>
kas tigo</w>
jol al</w>
jok in</w>
jkʼ al</w>
in ele</w>
i lil</w>
fun dam
expli car</w>
es par
encontr ó</w>
e be
di vino</w>
destru cción</w>
deb es</w>
d ora</w>
cariñ oso</w>
br in
bey oj</w>
ba an</w>
aw an
ajw altik</w>
ad es</w>
Y AN
Seg unda</w>
SAL MOS</w>
Penteco stés</w>
Mi entras</w>
J un
J BA
In forme</w>
HAC ER</w>
EN TA
Cuán to</w>
Bro ad
Bi deo</w>
4 000</w>
yuʼunu k</w>
yichʼ ic</w>
voluntari os</w>
ver lo</w>
tuminchi j</w>
trabaj ando</w>
suce de</w>
smak ojbey</w>
signific ado</w>
señ al
s í
recibi mos</w>
recibi do</w>
realiz ar</w>
prue baetik</w>
pro hibi
positi va</w>
pa h
nujpunem ike</w>
ni s
lu c</w>
leg io</w>
l on</w>
kʼu lejalil</w>
jtʼun beytik</w>
jtsaj tay</w>
jta kʼin
jlu mal
j y
ic emos</w>
h il
h en</w>
gu s
gu e</w>
especi almente</w>
ern as</w>
envi dia</w>
encuentr a</w>
emple o</w>
emocion al</w>
dar ía</w>
d ían</w>
cre ía</w>
cre y
cam a</w>
bra ille</w>
bo otik</w>
b i</w>
arr ol
ajw ali
S oci
P at
O DO</w>
MACHʼ A</w>
K ʼu
I t
G ra
F araón</w>
Cajwal tic</w>
C AM
1 34</w>
últi ma</w>
í ni
ÉX ODO</w>
ve o</w>
v ado</w>
tsob ol</w>
ts al
toj bey</w>
tien do</w>
tien da</w>
ten tación</w>
tar emos</w>
sjojkʼoy ik</w>
repres enta</w>
prof etas</w>
po j
ocur re</w>
obje ción</w>
no tas</w>
menti ras</w>
lí n
loʼl ay
lan da</w>
lab ores</w>
kʼax to</w>
kil e</w>
k el
ju eces</w>
j meʼ
inqui e
inclu ye</w>
fi elmente</w>
f o</w>
f ac
espal da</w>
escri be</w>
encan ta</w>
con virtió</w>
ch ic
cas ting</w>
car re
bu l</w>
bar ko</w>
aʼte j
aw aʼiyej</w>
ani c</w>
a ec</w>
S TA
Prepar e</w>
O B
KʼA Y
KI T</w>
Ir landa</w>
G ri
Cu áles</w>
Ci ro</w>
Broad casting</w>
Bin tikxan</w>
BI OS</w>
z on
xleku b</w>
to talmente</w>
ti smo</w>
ta rea</w>
t ér
sw okole</w>
sufri endo</w>
sufr en</w>
sni tojbey</w>
sna h</w>
slekub tesel</w>
si mo</w>
schʼ ay</w>
s cuenta
s al</w>
r ami
pru dente</w>
presenta ción</w>
po tencia</w>
pe or</w>
ning uno</w>
mad ero</w>
joʼ eb</w>
jm an</w>
jkʼajkʼ aleltik</w>
jaʼ ale</w>
j nojptes
j kʼax
inter nacional</w>
h í
extra ordin
expli car
entr ó</w>
energ ías</w>
encontr é</w>
en i
eje cu
e ve</w>
du elo</w>
di r</w>
cu e
correc ta</w>
cor reg
consu ela</w>
cometi do</w>
ch oj
can tar</w>
ca paz</w>
bin ti</w>
b t</w>
anunci os</w>
amista des</w>
al wanejetik</w>
ad ora</w>
a chʼ
PR OV
OJ TIK</w>
N E
K ajwaltik</w>
Jich bal</w>
Bibli aetik</w>
B er
2 3
14 1</w>
yaʼbil alike</w>
yamigo in</w>
ti n</w>
ti kixe</w>
ten el</w>
tem ente</w>
sta oj</w>
snuj pʼuk</w>
snu kʼ</w>
señ ora</w>
sa f
saf at</w>
respe tar</w>
qui n</w>
prof eti
positi vos</w>
pla ta
par á
oʼtan e</w>
on sitil</w>
obst ante</w>
necesi taban</w>
manten ernos</w>
kʼ ases
in justi
impli ca</w>
i pal</w>
hab le</w>
h echos</w>
estab lec
el en</w>
ej o</w>
edi ción</w>
dor mir</w>
di rección</w>
des cen
de bili
de bajo</w>
d ok
cuesti ón</w>
cu la</w>
con tin
con ser
ara c</w>
ar las</w>
an teetik</w>
Y ijkitayel</w>
V en
Rebe ca</w>
RE VI
O L
Jeho safat</w>
EM P
Dur ante</w>
CH ʼ</w>
C A</w>
B arac</w>
A ten
A si
1 16</w>
yu chʼel</w>
yu chʼ</w>
yakʼ tiklanbey</w>
wak eb</w>
vícti mas</w>
vi enen</w>
tra di
sju ltes
sin tamos</w>
r les</w>
privi legio</w>
pol vo</w>
pe ti
oport unidades</w>
ok ol</w>
of reci
och at</w>
och an</w>
obst áculos</w>
ni chi
nain emik</w>
na hil</w>
na ció</w>
n el</w>
malv ados</w>
ley endo</w>
kʼa t</w>
kamigo tak</w>
injusti cias</w>
il anel</w>
her rami
gr os</w>
g enti
g ados</w>
electr ón
e v
do poderoso</w>
dis kurso</w>
diri gi
di go</w>
des arrol
der ram
cu áles</w>
costu mbre
ci ales</w>
ch ay</w>
br azos</w>
awuʼuni c</w>
awamigo tak</w>
at p
ambi ente</w>
acep ta</w>
acab ó</w>
ab ae</w>
a tak</w>
U st
Ta til</w>
Ser vi
SKʼ OP</w>
S kʼoponel</w>
Pil ato</w>
L ec
I A</w>
Es d</w>
ya x
xlaj e</w>
x ko
x an
tulan uk</w>
ti vas</w>
tay ot</w>
tal ik</w>
superinten den
sob er
sober anía</w>
so los</w>
s jin</w>
puer tas</w>
pudi eran</w>
presi ones</w>
pas amos</w>
pará bola</w>
natur al</w>
na xme</w>
mor ales</w>
mer ece</w>
me le
man so</w>
mam al
k ox
jxiʼ tik</w>
fortalec e</w>
for mar</w>
enemi go</w>
eli x</w>
du ras</w>
du l
de termin
célu las</w>
cu ʼun
cre ado</w>
conver saciones</w>
ch ebaj</w>
bu el
ad on
ac o
Po tif
M AL</w>
It alia</w>
B ANT
BANT I</w>
énd ole</w>
ár amos</w>
ánd oles</w>
z ías</w>
yi pik</w>
y amigo</w>
xiʼ ban
w ayi
vuel tas</w>
vig il
vali oso</w>
vali osa</w>
val or
ue la</w>
tu untes
tsʼumb alil</w>
tribu s</w>
tr á
torm enta</w>
terremo tos</w>
temp or
sts al
smaliy ik</w>
smali y</w>
sj ojkʼo
revi stas</w>
reci be</w>
r ó</w>
pr os
pr on
po bres</w>
p ele</w>
ofrec er</w>
o so
muer e</w>
mi sta</w>
mencion ó</w>
k ik</w>
jy q</w>
ir án</w>
i lik</w>
gall ina</w>
g e
er io</w>
e gas</w>
de vo
d aron</w>
d aban</w>
com er
clar amente</w>
borra cho</w>
bautiz ado</w>
ba se</w>
aña dió</w>
auxi li
ar ás</w>
am án</w>
al nax</w>
ac e
TU LAN</w>
R aquel</w>
Potif ar</w>
PRI MER
PA R
Mar i
M on
J KUXLEJAL</w>
J ER
IMPORTAN TE</w>
20 17</w>
10 1</w>
1 24</w>
1 23</w>
ándo lo</w>
yo tses</w>
xiʼban tik</w>
wanej etike</w>
vivi ó</w>
un e</w>
ti letik</w>
tay beyik</w>
tan tos</w>
t z
suj tes
suj tel</w>
snop ilan</w>
sma h
sjok inik</w>
sig los</w>
sfamili ae</w>
recuer de</w>
proba r</w>
plata forma</w>
pi da</w>
pa kʼal</w>
orgu llo</w>
mod estos</w>
maʼ ba</w>
lo grado</w>
l ale</w>
kʼat pʼuj</w>
k to</w>
jlokʼes tik</w>
jbakʼe tal
ja ptik</w>
j tsʼi
i ci
hospi tal
hi lo</w>
e k</w>
e dio</w>
dis curso
desastr e</w>
dej é</w>
da ñ
cán cer</w>
confi amos</w>
aʼ beya</w>
aña de</w>
ayud ara</w>
anteri ores</w>
anichʼna b</w>
ac ci
T ʼ
SI TA</w>
Rec or
Pro póngase</w>
PROV ER
PROVER BIOS</w>
P ar
O ri
Mois ese</w>
KʼU X
Goli at</w>
E ra</w>
Abi ga
A mi
200 4</w>
yulaʼ tay</w>
yan mar</w>
x at</w>
w 18
vi uda</w>
vi erte</w>
ta ya
su y
su pli
snop ilanel</w>
skuxlej alike</w>
se lo</w>
refier e</w>
ref lexi
qued arse</w>
perdon e</w>
p inas</w>
obedi encia</w>
ob tener</w>
ni xme</w>
nacion etic</w>
n aje</w>
moti vo</w>
mi li
mam ale</w>
m ari
lóg ico</w>
laj e</w>
ko hel</w>
ki kʼtik</w>
jkʼan bey</w>
jajch em</w>
j le</w>
ini ci
in mens
il las</w>
human a</w>
hici eran</w>
her ida</w>
gla ter
farise oetik</w>
f om
estudi os</w>
estu vieron</w>
estre llas</w>
espiritu etik</w>
em erg
dá frica</w>
dec ían</w>
cuesti ones</w>
ch ik</w>
camin os</w>
ba ño</w>
ba bil
aʼ el</w>
ant emente</w>
ace ite</w>
Ya k</w>
U K</w>
TEX TO</w>
Su dáfrica</w>
S ol</w>
Pu bli
M yanmar</w>
M esi
K A
JU N</w>
In glater
Gran de</w>
Evangeli o</w>
Es t</w>
Chi pre</w>
Bre taña</w>
Alg unas</w>
20 18</w>
20 10</w>
2 Ti</w>
- 2</w>
Ó N
yi kʼotik</w>
xch u
waka x</w>
ven za</w>
ve la</w>
tér min
tz h</w>
tri go</w>
tra to</w>
torti lla</w>
te b</w>
sw in
superintenden teetik</w>
skʼ atp
simp le</w>
s lum
s amente</w>
respec to</w>
ra ciones</w>
pas aron</w>
pa kʼe</w>
o fr
nor mal</w>
mu liletik</w>
mos le</w>
mol de
mi do</w>
mej or
man i
lu me
le t</w>
kom onsitil</w>
kichʼ ojtik</w>
jpa t
jaʼ bal</w>
j tij
j cʼ
in ej</w>
im puls
ichʼ jaʼ</w>
habl amos</w>
g eo</w>
f echa</w>
est ábamos</w>
dó lares</w>
des per
dec ep
consej oetik</w>
co se
ci c
chu kul</w>
car ac
bo j</w>
ba te</w>
ayud ando</w>
ay otikix</w>
are t</w>
afron tar</w>
UN A</w>
T or
T OJ
S U</w>
Naz aret</w>
N abal</w>
Joh n</w>
Ja cha</w>
JCHʼUUN OJTIK</w>
Inglater ra</w>
Eli sab
B us
Aten as</w>
An tes</w>
A qu
1 21</w>
1 11</w>
yuʼu nix</w>
yil bey</w>
yan e</w>
yaku bele</w>
y ochin
ver á</w>
v í</w>
uk ix</w>
tsa kot</w>
stsak ik</w>
sta tike</w>
st eʼel</w>
skʼan e</w>
skʼ in
sjaj chi
ser ie</w>
segu ía</w>
sa grado</w>
resuci tado</w>
refugi ados</w>
reac ción</w>
re r</w>
qui to</w>
pa g
orig inal</w>
mism as</w>
manteni miento</w>
luch ando</w>
l tes</w>
kil tikix</w>
jpʼi j
jkʼ ab
inter esa</w>
inmor alidad</w>
in ju
i das</w>
fir mes</w>
excel ente</w>
escuch ó</w>
du ele</w>
distin tas</w>
debi ó</w>
culpa ble</w>
convenci do</w>
chʼi el</w>
chaʼ chajp</w>
cham nax</w>
cas arse</w>
cam pos</w>
br o</w>
bendi jo</w>
ayin otik</w>
ar w
ali za</w>
aj ok
ad op
a ts
a dic
V al
T AL</w>
Su s</w>
S y
R us
Kʼ ajkʼ
Kʼ INAL</w>
E v
Con go</w>
BI D
A Y
10 ,
én do
é ni
x tijbot</w>
x pas
x nujpun</w>
tsʼunu bil</w>
trans fu
trabaj adores</w>
to bal</w>
tendr ían</w>
temp loe</w>
tec n
t one</w>
su m</w>
stojobtes otik</w>
st si
sna ʼu
smam lal</w>
sla b</w>
skuxlej ale</w>
skontra inik</w>
señ as</w>
scheb alik</w>
pre cio</w>
om a</w>
o pi
ni a</w>
n as</w>
misioner oetik</w>
la zo</w>
kar sel</w>
k awu
juz gar</w>
joʼ tik</w>
jnopoj eletike</w>
jkʼop lal</w>
jba e</w>
j ix</w>
ho jas</w>
h tsʼ
empi eza</w>
eb nax</w>
dro gas</w>
div ina</w>
descen dencia</w>
cumpli miento</w>
compañ ero</w>
col oc
chol beyel</w>
chap bil
ch es</w>
capí tulos</w>
bi ilil</w>
b ol</w>
ayud en</w>
ata te</w>
arrepenti do</w>
ansi anoetik</w>
an te
an och
amu lan
abue lo</w>
W okol
W OKO
T Z
S ea</w>
Necesi dades</w>
N aciones</w>
I m
H ER
Fili pinas</w>
F i
Cre e</w>
Ch aj
B il
3 8
200 9</w>
2 7
10 7</w>
yil beyik</w>
yi pal</w>
yaʼiy bey</w>
x yal
x mukʼu
tu hl</w>
tra tan</w>
tem pr
tay on</w>
tar los</w>
t he</w>
t C</w>
su b
stsʼ eel</w>
stso tsil</w>
st ej
smu lin</w>
sel l</w>
rein ta</w>
re du
pres encia</w>
perfec ta</w>
no h
men or</w>
medi das</w>
llam ar</w>
le tra</w>
lan el</w>
laj emix</w>
l é
l on
kʼo n</w>
koltay wanej</w>
ki jkʼi
k ojt</w>
k an</w>
jpʼij iltik</w>
herman ito</w>
haʼ at</w>
habl aba</w>
ga stos</w>
g ü
for m
esta ría</w>
espiritu almente</w>
escri tor</w>
distin tos</w>
di fun
detal le</w>
descendi entes</w>
decidi dos</w>
cul tura</w>
cu ra</w>
corri endo</w>
com unidad</w>
cier tos</w>
c ae</w>
buel tae</w>
bey e</w>
ben dice</w>
ba r</w>
ata t</w>
angusti a</w>
akʼop lal</w>
ai re</w>
a hic</w>
Ti j
TEM A</w>
Sim ón</w>
Rus sell</w>
PRIMER A</w>
MA R
JER EMÍAS</w>
JA ʼ
J pisiltik</w>
Go g</w>
E un
Cri sti
B ala
AʼIY EJ</w>
Al l
A nu
20 16</w>
1 38</w>
1 12</w>
íni ve</w>
Í CU
z co</w>
y clo
xkux in</w>
xkoltay wanotik</w>
vol vieron</w>
v a
trist eza</w>
tom e</w>
tay bil</w>
sobre llevar</w>
s pox
s col
ri st
resul ta</w>
per io</w>
pa tio</w>
pa jibal</w>
ora uk</w>
ni ñ
ll orar</w>
le quil</w>
l ados</w>
kilóme tro</w>
jta tike</w>
jmu ltik</w>
ja pel</w>
impr enta</w>
g as
er me</w>
encar cel
e ci
e baj
du re
du das</w>
dis cu
dar é</w>
coʼtan tic</w>
costum bres</w>
con tigo</w>
con qui
clar idad</w>
ciu dad
chene kʼ</w>
cham en
c adas</w>
bo te</w>
bil otik</w>
ben ix</w>
bas ado</w>
ay bal</w>
av an
aspec to</w>
Tij beya</w>
Si empre</w>
SI G
S on</w>
N ínive</w>
N opo
Much as</w>
L aj</w>
KʼAY OJ
Ju ec</w>
J nop
El los</w>
D é
D ES</w>
Ch ik
1 26</w>
vu elta</w>
ver as</w>
tran j
st án</w>
smu cʼu
sinti eron</w>
sinc ero</w>
salv ar</w>
sal mo</w>
s mil
publi ka
predic amos</w>
pe lo</w>
os amente</w>
oper ación</w>
nombr ado</w>
nis án</w>
nijk el</w>
mb ra</w>
m oj
llegu é</w>
lab an
l ol</w>
kux inik</w>
jtal eltike</w>
jchajpan tik</w>
jba h
jaʼ laj</w>
j nu
il es</w>
i ores</w>
hon rar</w>
encuentr an</w>
emerg encia</w>
di ver
desa fí
de z</w>
cre ían</w>
com enta</w>
cion al</w>
ch os</w>
ch il</w>
car ri
bá si
bon dad
amen az
am ado</w>
ali sta</w>
adon de</w>
ac a</w>
a kʼop</w>
W all
TRA R</w>
REVI SITA</w>
R ober
M in
Le k</w>
Jay eb</w>
I N</w>
Eun ice</w>
- 3</w>
ʼ al</w>
í sti
í do
yichʼ xan</w>
yal bonik</w>
y tik</w>
xbe en</w>
x cu
w il</w>
vol umen</w>
v ar
uk ik</w>
tsʼ aj
ts ʼun
tor ia</w>
toj ol
ter son</w>
ter io</w>
t reinta</w>
swok olike</w>
super ior</w>
snichʼna bike</w>
sk er
sa kal</w>
ru m
reliji onetik</w>
religi osas</w>
r ama</w>
pu estas</w>
positi vo</w>
orden ó</w>
o ik</w>
o fici
muestr e</w>
li a</w>
jnop tikxan</w>
jmulawil otik</w>
jku y</w>
in esper
i ra</w>
hu e
h arán</w>
gener oso</w>
esper ando</w>
e y</w>
cru el</w>
bon e</w>
be d</w>
b om
awuʼun ik</w>
awi p</w>
awi jki
ale gra</w>
aj ojkʼoy
ah or
agradec emos</w>
S A</w>
Qui z
Pat terson</w>
O J</w>
No sotros</w>
L am
KʼAYOJ IL</w>
KʼA X</w>
H asta</w>
Fil em
Elisab et</w>
E Z
BE Y</w>
A B
3 000</w>
14 6</w>
1 31</w>
yoʼtan uk</w>
xlaj ix</w>
x aw
w ay
v ic
utili za</w>
tsil kʼop
tra er</w>
t ía</w>
st sob
spaso tik</w>
spa mal</w>
sopor tar</w>
snop jibal</w>
smu k</w>
skʼan el</w>
skʼ a
si entan</w>
servi rme</w>
refer irse</w>
pʼi ju
pron unci
pon gamos</w>
polí ticos</w>
pi ernas</w>
person ales</w>
per la</w>
pari entes</w>
nojptes wanej</w>
neces arios</w>
na xbal</w>
mo vi
lí mi
li ter
jpas kotik</w>
jchʼ ik</w>
israeli ta</w>
in sul
herm oso</w>
ha ci
fu imos</w>
fu ente</w>
ex tranj
entan ax</w>
don ate
donate jworg</w>
doc toretik</w>
deci rle</w>
comple ta</w>
com puta
com pli
chap al</w>
c rí
aw a
ant setike</w>
an an</w>
al tar</w>
ab rió</w>
a de
U zías</w>
Ts ʼu
Ti ene</w>
SE ʼ
PUE DE</w>
P ol
N unca</w>
Mesi ase</w>
I MA
G abri
C R
BID EO</w>
AL E</w>
è le</w>
á monos</w>
yakʼoj bey</w>
y ej
xlaj otike</w>
x weʼ
x tojobtes
x ma
w axak
vi van</w>
ven drá</w>
vali osas</w>
tram pa</w>
su ra</w>
snop ele</w>
smele li
slekub tes
sjojkʼo y</w>
senci llo</w>
se as</w>
sbi ilik</w>
sba kel</w>
sal mista</w>
resuci tar</w>
repu tación</w>
re presenta
prekur sor</w>
pi dieron</w>
oj p
oj otik</w>
multi tud</w>
mu tetik</w>
mantal tes
man á</w>
l bal</w>
kʼo tuk</w>
ku x</w>
kil l</w>
ju e
jts atik</w>
j ese</w>
herrami entas</w>
haʼ e</w>
hacer le</w>
gr o</w>
g arse</w>
fa ci
esforz arnos</w>
em al</w>
el as</w>
domin go</w>
cumpli endo</w>
conver ti
contin ú
const antemente</w>
con segui
chi tame</w>
ch ola</w>
c oc
be teli
b as</w>
at sum</w>
arti culoetik</w>
arr an
apa si
ac tos</w>
Ti ro</w>
T ES</w>
Su r</w>
SAL MO</w>
MUKʼU L</w>
M ej
M I</w>
LU CAS</w>
Kol taya</w>
K en
IMA G
Ayu kme</w>
20 0</w>
14 3</w>
1 36</w>
É S</w>
z camos</w>
xkoltay wan</w>
tʼ el</w>
ti rado</w>
tes or
tempr ano</w>
tecn ología</w>
te tic</w>
t ol
suc ed
sta kʼin</w>
solu cion
sobrevivi r</w>
snichʼ ane</w>
smu le</w>
sjel on
si l
segur amente</w>
schʼuun bey</w>
s li
rom anos</w>
resuci tó</w>
r r</w>
pres entó</w>
po j</w>
pens ó</w>
patan etik</w>
pare zca</w>
p es</w>
or arle</w>
obe de
nop a</w>
médic os</w>
mon ta
li to</w>
laj ix</w>
l i</w>
jnaʼ oj</w>
j be
ir ía</w>
forma to</w>
fi de
extr em
es píri
es cal
er la</w>
er ia</w>
entre tenimiento</w>
encar gó</w>
en das</w>
dist rito</w>
cuar enta</w>
confi able</w>
compr é</w>
comple tamente</w>
cigar ro</w>
chapbil kʼop</w>
capi tal</w>
ca í
ca p
besti a</w>
ay xan</w>
ases in
ar que
apas ik</w>
am ables</w>
adul tos</w>
a za</w>
a kom</w>
a i</w>
a chʼuun
Wall kill</w>
S of
S PI
Re pública</w>
PRO F
Lo kʼ
Jeho ás</w>
JO B</w>
J nop</w>
ENSEÑANZ A</w>
AP O
A un</w>
A h
A LI
yo bal</w>
xtal uk</w>
x luj
x jel
w e
viaj ar</w>
vi das</w>
tsʼ ajkʼ
tro pe
trabaj an</w>
t otik</w>
spas beyik</w>
si ʼe</w>
schʼuun ojik</w>
s ji
rápi damente</w>
rom pi
regu lar
r esta
publi k
podr án</w>
pe dia</w>
oí do</w>
ox ome</w>
on ar</w>
nail al</w>
na k
misericor di
mi sión</w>
me tro</w>
ma tsʼ</w>
ma sa</w>
li ʼi</w>
le r</w>
kʼay oj</w>
kʼaxem toxan</w>
ku j</w>
jti empo
jba kotik</w>
j oy</w>
j bi
in stru
in stal
in st
hist ór
hi jas</w>
hah ch</w>
g ón</w>
fí sica</w>
famili aetik</w>
esta rán</w>
es con
em at</w>
ele kʼ</w>
do cum
dej an</w>
de fec
cum pl
cuar to</w>
cualqui era</w>
cre ar</w>
chik in</w>
chajpan bil</w>
c yclo
ba il</w>
ay er</w>
al uk</w>
ade cu
ac or
a segura</w>
a kuxlej
a h</w>
P ʼ
N ic
N ab
KʼA JKʼ
KʼAJKʼ AL</w>
Ju lukme</w>
H az
En cyclo
Ch ʼu
C lau
Ba al</w>
B au
AM OR</w>
4 ,000</w>
3 9
1 29</w>
óli co</w>
zon as</w>
xlokʼo tik</w>
xkʼo txan</w>
xbe en
x yichʼ</w>
x aj
w o
v ando</w>
uni ón</w>
u r</w>
u b</w>
tu l
ti pos</w>
tar me</w>
spuk ik</w>
res isti
pueb los</w>
prov echo</w>
pa cí
pací fic
or no</w>
obo am</w>
o tes</w>
n ari
nari z</w>
muri eron</w>
mon ía</w>
min a</w>
mi el</w>
lleg amos</w>
leg al</w>
le m</w>
kʼin etik</w>
kʼax ix</w>
kʼ ex
ju día</w>
jpas beytik</w>
jko leltik</w>
j elel</w>
in te</w>
il l
ijkʼi tayel</w>
gol pe</w>
g aba
filiste os</w>
expres ar</w>
espo sas</w>
esper amos</w>
ens a</w>
ej an</w>
domin io</w>
disponi ble</w>
diri gir</w>
diri ge</w>
devo ción</w>
destru ir</w>
dese amos</w>
des anima
d on</w>
cʼ oh
cump le</w>
chʼ ojel</w>
chuk ojibal</w>
ch abe</w>
c á
c oetik</w>
bol kʼop
bin xan</w>
aver igu
aso mbr
asegur ó</w>
antigu a</w>
ama bilidad</w>
agrad able</w>
abier tas</w>
a di
Y an
U L</w>
Testig oetike</w>
TA R</w>
Pens emos</w>
O BTES
K i
Gabri el</w>
Ev ae</w>
Akʼ beya</w>
ʼ TAY
éni to</w>
én dice</w>
ÍCU LO</w>
z ados</w>
yak an</w>
yaba kul</w>
x naʼ
ve inte</w>
v enta
tu mba</w>
tr ajo</w>
terc era</w>
suj ton</w>
su mer
stikun ik</w>
st oetik</w>
spaso je</w>
sor prendi
sna e</w>
smu l
skoltay ejon</w>
ser ían</w>
sal ón</w>
s bolob
refu gio</w>
re cursos</w>
re be
ra za</w>
quiz á</w>
peque ñas</w>
pel í
pat ía</w>
oj bal</w>
nail uk</w>
mukʼ ik</w>
mem oria</w>
mam alu
mah tan
mad era</w>
m í
lín ea</w>
l lan
kux ul
kub el</w>
jokin tik</w>
jnojptes tik</w>
jk oj
ji ke</w>
je fe</w>
j lokʼ
invi te</w>
influ encia</w>
il al</w>
i kʼe</w>
i de
hi n</w>
h el
fin almente</w>
exac tamente</w>
en tamos</w>
dr án</w>
dom a</w>
descu bier
dej amos</w>
d ra
cue va</w>
conoc erlo</w>
cometi ó</w>
chʼultes bil</w>
chaʼox pʼ
celebr ar</w>
cas ados</w>
c lu
bu jtsʼ
b lemente</w>
aʼ bot</w>
aw o
auto control</w>
ap éndice</w>
anc la</w>
an dar</w>
YI CHʼ</w>
Ts aj
T ÍCULO</w>
Su curs
So doma</w>
NA ʼ
Min ist
LA ʼTAY
J i
Filem ón</w>
F in
EZ E
Ca ín</w>
CH ʼI
Anti gu
AR TÍCULO</w>
A C
5 000</w>
2 40</w>
1, 0
ʼ il</w>
í s
é tica</w>
yulaʼ tayik</w>
xmantal aj</w>
wokoli letike</w>
wi ts
ven ido</w>
utili zar</w>
trabaj os</w>
tojobtes eletik</w>
ta ble</w>
t alidad</w>
super vi
sti jel</w>
st oj</w>
snu kʼel</w>
snopo jik</w>
smaliy ele</w>
si o</w>
si mb
si lla</w>
se t</w>
schʼuun oj</w>
schʼi chʼel</w>
sch ik
presenta ciones</w>
peri odo</w>
pec adores</w>
past or</w>
pa do</w>
op inan</w>
ministeri al</w>
mer cado</w>
man anix</w>
malv ado</w>
m abal</w>
lleg an</w>
li tos</w>
kʼ et</w>
jteb nax</w>
jkʼopon tike</w>
jkoltay beytik</w>
jkanan tay</w>
jchʼu un</w>
j sit</w>
j puk
in te
il bal</w>
hábi tos</w>
ha go</w>
g ana</w>
fl ores</w>
ex ig
espíri tus</w>
er los</w>
enta do</w>
encontr aron</w>
edi ficio</w>
e os</w>
dro ga</w>
do y</w>
dic o</w>
descubri r</w>
demo strado</w>
dedic ar</w>
de presión</w>
cre ciendo</w>
comen cé</w>
co bre</w>
chan chajp</w>
cha el</w>
bautiz ados</w>
au tom
arro g
ap ʼi
amb os</w>
am am
alcan ce</w>
alab ar</w>
al aj
ac os
abier ta</w>
W arw
ST E
S KOLTAY
S AM
PAR TE</w>
P O
Mi chael</w>
Ma estr
LE K
J teb</w>
Estudi antes</w>
D ice</w>
Bi ble</w>
AʼI Y</w>
Ani me</w>
AL GUN
3 ,000</w>
1 14</w>
yakʼo jik</w>
vay an</w>
val ores</w>
v as
un il</w>
tu vieran</w>
ts alel</w>
toj el</w>
tes oro</w>
ta yi
sts al</w>
snaʼi c</w>
slajin bey</w>
sjok inel</w>
simp lemente</w>
se j
sT at</w>
s pej
s be</w>
recuer do</w>
re conocer</w>
quier es</w>
pʼaj el</w>
pri sion
prepar ados</w>
pre di
person ajes</w>
otses el</w>
obedi ente</w>
lokʼomba e</w>
lleg ará</w>
li sto</w>
lar ga</w>
judi oetike</w>
jtakʼin tik</w>
jel tay</w>
j pej
j lekub
in ic
il to</w>
i tos</w>
ho bo
hobo am</w>
h b</w>
h aremos</w>
g al</w>
fo to
envi ado</w>
dé bi
di o
deci dí</w>
de por
cre cer</w>
confi aba</w>
colab or
co stal</w>
chʼ a</w>
che baj
chaʼ kuxaj</w>
car taetik</w>
bon ito</w>
bi de
ber si
asu sta
ar ra
ar ma
aqu ellas</w>
apo yan</w>
apari encia</w>
anci anoetike</w>
an ile</w>
am ali
alu l</w>
al on</w>
al oj
agradeci miento</w>
Testig o
TOJ OBTES
T on
Re hoboam</w>
Mo ab</w>
H ist
Gra cias</w>
F or
Esta s</w>
ENT O</w>
EN CON
Deb emos</w>
D am
D OS</w>
CI A</w>
4 8
3 7
1, 3
1 37</w>
ído los</w>
ÓN IC
yu ʼ
yil in
yan tic</w>
y ej</w>
xnoptsaj otik</w>
xchi e</w>
x jilik</w>
x bi
w 19
v amente</w>
uestr o</w>
tra te</w>
ti kʼuk</w>
ta bil</w>
stej kʼan</w>
st oy
smu lik</w>
sj oy
rom anoetik</w>
recuper ar</w>
recor dó</w>
reci b
rebi sita</w>
pu de</w>
proyec to</w>
prepar ó</w>
preocupa ciones</w>
pre para</w>
po dido</w>
plan ta</w>
permi ten</w>
per segui
peda zos</w>
pec ador</w>
p lan</w>
obedec e</w>
musi cal</w>
maravillo sas</w>
lágri mas</w>
lu cha</w>
lev antó</w>
lec cion</w>
las ti
kʼo emik</w>
kristi anoetik</w>
koltay ele</w>
ko k</w>
kar oe</w>
ka pele</w>
k m</w>
ju ven
jmulan beytik</w>
jk om
j toy</w>
j sitik</w>
j pʼijubtes
j ej
gl ori
ex i
envi aron</w>
entari o</w>
ent ales</w>
ens o</w>
en temente</w>
cuʼun tic</w>
cuenta s</w>
crey entes</w>
chaj puk</w>
cel ular</w>
c lam
bi o
b xan</w>
aʼ bon</w>
au t
au dio</w>
atoj ole</w>
al ar
acercar se</w>
ac aba</w>
a por
YAN TIK</w>
Warw ick</w>
T ra
SPI SIL</w>
S alu
RE G
Quiz ás</w>
Pas axan</w>
KʼUX UL</w>
JBA TIK</w>
JA ʼ</w>
IMAG EN</w>
Gri egas</w>
Est os</w>
Dam asco</w>
D escu
Cal eb</w>
CAM BI
C RE
C OS</w>
BI L</w>
Anu ario</w>
Ad ónde</w>
é se</w>
ÓNIC AS</w>
z al</w>
z adores</w>
z ador</w>
yuʼuni c</w>
yu t</w>
wentain wanej</w>
v ador</w>
us amos</w>
u s</w>
testigo otik</w>
te kʼel</w>
tay ele</w>
tan te</w>
ta ma
t ón</w>
t hu
sta tik</w>
spisi lic</w>
smakʼ lin</w>
sch an
sbi hil</w>
reaccion ó</w>
qui eran</w>
que br
prác ticos</w>
prem o</w>
precurso rado</w>
pele ar</w>
org e</w>
on ike</w>
of reció</w>
o este</w>
na cido</w>
má quina</w>
mili tar</w>
mi endo</w>
ma tarlo</w>
loc ales</w>
li stos</w>
lamal uk</w>
ku chʼ</w>
koʼtan kotik</w>
kakʼ bat</w>
jyan lume
joʼ otik
jkʼop tike</w>
jchol bey</w>
j maj
inter net</w>
in acti
h ech
gü en
grab ar</w>
genti les</w>
fu ér
fru tos</w>
fr ío</w>
famili ae</w>
ex pul
esti lo</w>
esp ías</w>
esfuer zan</w>
destru ido</w>
der echos</w>
defen der
deci dieron</w>
cubri r</w>
cu bier
contes ta</w>
cla ve</w>
cion ario</w>
chʼ in
ch as</w>
bey kotik</w>
ba sura</w>
aʼi x</w>
ay tik</w>
aba cuc</w>
a kʼope</w>
a cia</w>
U LAʼTAY
Tu r
T ER
S CHʼUUN
QUI EL</w>
Publi cación</w>
PR E</w>
OJ P
N CI
K ar
K ajwal</w>
H abacuc</w>
EZE QUIEL</w>
EST O</w>
Des de</w>
BA YAL</w>
B LE
A wokoluk</w>
5 ,000</w>
yutsʼin otik</w>
yotses el</w>
xmantaltes wan</w>
x chajpan
w aje</w>
tu lu
tradu cir</w>
tiʼ bale</w>
ti fic
t y</w>
sw eʼ</w>
sufri mos</w>
solu ción</w>
smulan e</w>
smu cʼul</w>
servi mos</w>
sec cion</w>
se creto</w>
sbankil tak</w>
sban kil</w>
s aduc
ren unci
re un
po lic
pi den</w>
pas ará</w>
p ción</w>
or emos</w>
obli g
nop tsaj</w>
neces arias</w>
mu l</w>
medic ina</w>
lum kʼinal</w>
kʼux at</w>
ko lele</w>
k am
jtiempo tik</w>
jpa pa</w>
h k
gar anti
gan ado</w>
g oetik</w>
fu ri
fi estas</w>
fa z</w>
ez uela</w>
exper tos</w>
edi fic
e pi
dor as</w>
demostr aron</w>
dedic ado</w>
deci de</w>
conoc emos</w>
col or</w>
cin cuenta</w>
ci entific
carac ter
bayal uk</w>
ba ñ
ba e</w>
aw ile</w>
auxili ar</w>
apropi ado</w>
antigu os</w>
ant el
ani smo</w>
ani bal</w>
an ías</w>
am able</w>
ajkʼ nax</w>
adver tencia</w>
a chajpan</w>
Y ijkʼitayel</w>
Ven ezuela</w>
ULAʼTAY WANEJ</w>
TOJOBTES EL</w>
T ʼu
T emplo</w>
Sucurs al</w>
Ste p
Servi cio</w>
PRI NCI
Mari ae</w>
M ero</w>
M ad
Jos af
Eli faz</w>
ENCON TRAR</w>
EN S
E t
E di
Di jo</w>
CR ÓNICAS</w>
CAN CIÓN</w>
An anías</w>
AW OʼTAN</w>
3 0
ó v
ís ara</w>
z eltal</w>
z ada</w>
yil ay</w>
yal a</w>
xkʼax ik</w>
xkoltay wan
xi letik</w>
x chʼuun
wokol niwan</w>
w oj
tier no</w>
territori os</w>
ter cer</w>
ten gas</w>
sweʼ ik</w>
sweʼ elik</w>
sufr e</w>
stsa h
so mbra</w>
skʼayin beyik</w>
salv aje</w>
s mantale</w>
relacion ados</w>
regi str
rechaz ar</w>
re conoció</w>
profes or</w>
prof un
produ c
po xiletik</w>
perfec ción</w>
pens ado</w>
pa se
p il</w>
ofici al</w>
neutr ales</w>
n er
menti ra</w>
mencion an</w>
materi al</w>
mal aj</w>
limpi ar</w>
laj emik</w>
kʼases bil</w>
kʼah kʼal</w>
kuj e</w>
kin ame</w>
jkʼu lej</w>
j tʼ</w>
invi tar</w>
in justicia</w>
im presión</w>
i so</w>
gr anos</w>
gobern antes</w>
espiri tismo</w>
er ta</w>
entr ada</w>
emp o</w>
edi ficios</w>
eb to</w>
débi les</w>
dej emos</w>
dedic arse</w>
decep cion
deber ían</w>
con te
con for
b os
b ora</w>
b oj
ayin on</w>
ay nanix</w>
ay laj</w>
apren de</w>
am érica</w>
afir ma</w>
achʼix etik</w>
ach aʼulaʼ
a conte
YA LIK</w>
W al
T zeltal</w>
So lo</w>
S ísara</w>
RO MANOS</w>
Pi ense</w>
OJP TES
H e
F AM
FAM ILI
D EMOS</w>
Chaj p
B aj
An dr
Am ós</w>
A bel</w>
4 7
1, 000</w>
1 17</w>
xkʼo tix</w>
vivi rán</w>
vini eron</w>
vi va</w>
vesti r</w>
tra tamos</w>
tin el</w>
tik lam
sw entanax</w>
super iores</w>
sti empo
sta ix</w>
skoltay onik</w>
sjo yobal</w>
si one</w>
satisf acción</w>
samari tan
salv ó</w>
sali eron</w>
sal en</w>
sac ó</w>
s l
resta ur
religi oso</w>
regres o</w>
re ún
proc eso</w>
pon emos</w>
pi ro</w>
pekʼ eluk</w>
pej kʼaj</w>
pedi mos</w>
past ores</w>
pas aba</w>
oʼ on</w>
oh lol</w>
obedec emos</w>
o z</w>
o to</w>
nega tivos</w>
monta ñas</w>
medic am
matrim onios</w>
mand amientos</w>
m och</w>
kaʼ i</w>
jtu un
jpas bey</w>
jkʼab tik</w>
j po
j mil
inter eses</w>
ilu vio</w>
ic amente</w>
hor mi
hier ba</w>
hall ar</w>
gr aba
g ará</w>
ex presiones</w>
es el</w>
er amente</w>
em patía</w>
ele gido</w>
e tí
des obedeci
cumpli do</w>
cui dad
cru z</w>
cre cimiento</w>
coraz ones</w>
cor to</w>
congrega cione</w>
confi ables</w>
come ter</w>
chʼay em</w>
ch ino</w>
ch ile</w>
cas ó</w>
ca ciones</w>
c alidad</w>
bus que</w>
bi ili
bendi cionetik</w>
aw on</w>
akʼ e</w>
Tsa a</w>
To do</w>
Pu erto</w>
Pe ter</w>
N OJPTES
Man as
Jeo ba</w>
In dia</w>
F IC
D iluvio</w>
Bala am</w>
Ayu k</w>
An t
20 23</w>
14 2</w>
y ile</w>
xlaj otik</w>
visi tas</w>
vi eja</w>
val oramos</w>
und amente</w>
tra taba</w>
thu r</w>
te e</w>
te cho</w>
tama ño</w>
tab las</w>
swenta inel</w>
sufri ó</w>
stsaj tayel</w>
sobr es
skʼan botik</w>
sjajchi bale</w>
sj oy</w>
sNichʼ ane</w>
s religi
s enten
ref res
reci a</w>
prof undamente</w>
prepar arse</w>
poni endo</w>
pan el</w>
padr en
padren uestro</w>
orgullo sos</w>
obedec en</w>
noti cia</w>
na b</w>
mé todos</w>
mu r
medi os</w>
lí n</w>
lí der</w>
le ta</w>
l ando</w>
ki p</w>
ka t
jtsaj tay
jnopoj tik</w>
jlokʼ es</w>
jaʼ ix</w>
j talel</w>
j n
is a</w>
in idad</w>
in bi
il pakʼ</w>
hu l</w>
hier ro</w>
hablar les</w>
ha t</w>
grie ga</w>
fortale ció</w>
f i</w>
ex actitud</w>
escri tos</w>
en vej
e vangeli
direc tamente</w>
di gan</w>
di entes</w>
depen de</w>
defen der</w>
de partamento</w>
cʼu xul
cu entan</w>
cri sis</w>
compr ó</w>
com entar</w>
co la</w>
chik in
chamen ic</w>
cer e
cel u
caj a</w>
bendi sionetik</w>
baj a</w>
bahlumil ale</w>
awijki tay</w>
arr oj
anal icemos</w>
agr ada</w>
ador arlo</w>
achʼu un</w>
acci dente</w>
Y ak
Tseʼ el
T ʼ</w>
Se de
S M
Ne w</w>
Minist erio</w>
Manas és</w>
L le
Jesucri stoe</w>
JE L
G recia</w>
E se</w>
Descu bra</w>
B a</w>
Ar thur</w>
Antigu o</w>
An al
ALGUN OS</w>
2, 0
10 9</w>
1 28</w>
1 25</w>
í ces</w>
z il
yichʼ oje</w>
yaʼ tel
yal ojix</w>
yal atak</w>
yakʼo tik</w>
xtu un
xko lik</w>
vuel va</w>
versi culo</w>
ven tana</w>
ve y</w>
v ó</w>
tsʼih ba
trope zar</w>
trai cion
tier ras</w>
terr án
taki ke</w>
swenta ile</w>
suy os</w>
su l</w>
slaj inik</w>
skoltay bey</w>
sja p
senti rnos</w>
regres ó</w>
razon able</w>
r ías</w>
r icos</w>
pʼi n</w>
pʼaj awe</w>
pí dale</w>
prom o
prof esi
preocu par
pr eso</w>
pobre za</w>
per s
orgullo so</w>
o juk</w>
necesi te</w>
naran ja</w>
mor al</w>
minu tos</w>
ministeri ales</w>
me z
m ón</w>
m bo
lu ke</w>
llam an</w>
le el</w>
l ace</w>
kuxin em</w>
kaj al</w>
jnichʼ an</w>
invi ta</w>
in oc
in cu
in ado</w>
im pedir</w>
i la</w>
i as</w>
hu eso</w>
herm osa</w>
gener osos</w>
gan se</w>
fin ales</w>
filiste oetik</w>
enci al</w>
ejer ci
ej as</w>
diseñ o</w>
discurso etik</w>
di vers
des car
cu este</w>
cu ello</w>
cu ales</w>
correg ir</w>
conoc í</w>
con mo
comp lej
ci bi
chʼaj an</w>
caracter ísti
can al</w>
cam ina</w>
ca paces</w>
br o
bo tic</w>
ayi kix</w>
asi ri
ar ena</w>
ant si
ali la</w>
al ter
akʼu ʼ</w>
afir man</w>
aco stu
ac el
ac as
Yo ur</w>
W ikʼ
Uni das</w>
UM EN</w>
T ar
Salu d</w>
Sal mos</w>
SE RI
RES UMEN</w>
R ico</w>
Pu lem
Pol onia</w>
PROF UN
PRINCI PI
Na amán</w>
N ig
Mar ie</w>
Ma g
Lo gros</w>
Ja i
I mi
Har vey</w>
HAC ER
H ich</w>
Gu ía</w>
G RA
En tr
ES TA</w>
D alila</w>
Bar zil
1, 8
Ñ O</w>
yotses ik</w>
yakʼ e</w>
yak alix</w>
y ejch
x kʼayoj
tsʼi ʼ</w>
torti llas</w>
tem aetik</w>
ta yaw
ta miento</w>
ta je</w>
su elen</w>
spʼi jilik</w>
snopi ke</w>
sma kotik</w>
skʼop ike</w>
skʼaxun taybeyik</w>
skoltay oj</w>
sker em</w>
sKʼ ope</w>
s puk</w>
resisti r</w>
res e</w>
r uc
que x</w>
qu il
pu se</w>
produ cir</w>
pres u
perman ecer</w>
peri ó
per í
pas ados</w>
parec en</w>
pa tas</w>
os ta</w>
or mente</w>
ol óg
ni e
mo der
mens ajes</w>
majtan iletik</w>
ma ta</w>
le cu
l la
k sion</w>
jtu k
jnop tike</w>
jmul awil</w>
jin awan</w>
jich nax</w>
j laj
influ ir</w>
in forma
il an
hubi eran</w>
h ile</w>
gus tan</w>
fí jese</w>
fra g
fl oj
fer encia</w>
faci lidad</w>
escuch ando</w>
es pej
enter ó</w>
ent ero</w>
empr esa</w>
e kʼetik</w>
descri be</w>
dar me</w>
cur ó</w>
cu ch
costumbre etik</w>
condi ciones</w>
con fía</w>
compañ ía</w>
chaʼkuxaj ele</w>
cat ólica</w>
can asta</w>
bus car
be tik</w>
ba co</w>
awaʼiy ik</w>
aw ili
ari amente</w>
ar monía</w>
an opoj</w>
an dando</w>
am pli
aj chʼ
aj an</w>
agu as</w>
adolesc ente</w>
a tura</w>
a territorio</w>
a hu
Y AKʼ
X I
U EL</w>
Sede quías</w>
Sch ebal</w>
ST O</w>
SI S</w>
SAM UEL</w>
S BA</w>
Rober t</w>
Re paso</w>
Pu kuje</w>
O LEL</w>
L es
L au
Josaf at</w>
Jo el</w>
Jich nix</w>
J am
FOT OETIK</w>
FI CI
E m
DISCURS OS</w>
Cristi anas</w>
C at
B ay
All í</w>
zapa tos</w>
yamigo inik</w>
yal oj
xkʼ ex
xkuxin at</w>
xiʼ ik</w>
x ʼi
x ja
u e</w>
u das</w>
u chʼel</w>
u chʼ</w>
términ o</w>
tu le</w>
tu h
tsʼi in</w>
ts ʼun</w>
tom ado</w>
tig ü
tempor ada</w>
te j
tar les</w>
tar la</w>
tal ele</w>
t í</w>
sujti be</w>
sufri do</w>
su ici
sor presa</w>
skʼ unil</w>
skontra in
si oetik</w>
señ ala</w>
res i
reci piente</w>
re emp
re conoce</w>
ra ci
r íamos</w>
r oso</w>
puer co</w>
po zo</w>
permi ta</w>
peligr os</w>
par cial</w>
pa xi
ocrá tica</w>
o cul
nombr ó</w>
no ches</w>
ner vi
musi ka</w>
mo da</w>
minu to</w>
ministr os</w>
mencion ado</w>
mar ca</w>
man da</w>
ma tsʼe</w>
ma dur
lv ania</w>
lo tiletik</w>
limpi o</w>
limi taciones</w>
le x</w>
laj chay
jlumal tik</w>
jku ytik</w>
jk anan</w>
j tik</w>
ix ta
invi tó</w>
interes ante</w>
inten tó</w>
in ar</w>
ho gares</w>
histori as</w>
her encia</w>
habl aban</w>
gra cia</w>
go g</w>
go e</w>
ga etik</w>
fide lidad</w>
exist encia</w>
esco ger</w>
er ún</w>
equilibr ado</w>
enten der
encar gado</w>
ele v
el em
ejemp lares</w>
eh ch
ed ades</w>
di ario</w>
dej ará</w>
consol ar</w>
compañ ías</w>
comien za</w>
comenz aron</w>
cientific oetik</w>
chu ku
chan tul</w>
capaci tación</w>
bur l
bre ve</w>
bio grafía</w>
baj ó</w>
aw okol</w>
asig n
arre pi
apa so
ansi ano</w>
alim enta
alg uno</w>
al ej
akʼ an
adu ra</w>
ad virtió</w>
ad amente</w>
actu al</w>
acep tado</w>
a kʼot</w>
W entain
Tr ac
SKʼOPL ALE</w>
SCH OLEL</w>
S ad
PROFUN DIC
PROFUNDIC EMOS</w>
P AS</w>
On é
MÁ G
MÁG ENES</w>
Mi ra</w>
Ma gog</w>
M en
Lec tura</w>
Ju ane</w>
J obe</w>
J ilbal</w>
J UN
I con
I MÁGENES</w>
G O
D om
D ej
Chik an</w>
Cam erún</w>
C entr
BEN E
B RE
Aʼ T
AW IL</w>
AP AS</w>
200 3</w>
yo h
yaʼiyi ke</w>
yaʼbil ale</w>
y ok
xwentain wan</w>
x loʼlay
wi tse</w>
ver güen
ven ida</w>
v ine</w>
u fra
tí n</w>
tsak el</w>
ts aʼ
trabaj ador</w>
tra taron</w>
ton etik</w>
ti sta</w>
tay ojik</w>
sí mbo
suj el</w>
sue ños</w>
suc edi
subi ó</w>
str ación</w>
sta kʼ</w>
st su
snaʼu lan</w>
se cre
respe tamos</w>
ren o
recompens a</w>
re baño</w>
qʼu ic</w>
public ado</w>
prim eras</w>
pres enta</w>
pregun tan</w>
predic ó</w>
polí tico</w>
n ego</w>
mo h
machi te</w>
ma kel</w>
llev aban</w>
lar gas</w>
kʼo otik</w>
kʼ ejel</w>
kawu e</w>
k or
juven tud</w>
jts ak
jmeʼ e</w>
jch ol</w>
is mo</w>
inmor ales</w>
in un
in aetik</w>
i za</w>
h y</w>
h alel</w>
for man</w>
etí ope</w>
estudi anteetik</w>
estr ic
engañ ar</w>
encan taba</w>
dé bil</w>
du e
dob ló</w>
di mos</w>
desta ca</w>
descubier to</w>
des preci
der echa</w>
del incu
de do</w>
dar io</w>
d ero</w>
cʼ oht</w>
cristi anismo</w>
cri ti
con so
com ba
chʼi x
chambalam etike</w>
can o</w>
cab ezas</w>
c aʼ
bil nax</w>
bien estar</w>
bar coetik</w>
ba il
awuʼuni ke</w>
aw anik</w>
ati va</w>
an uk</w>
agradeci do</w>
aba tetike</w>
a ʼ</w>
a is
Ust ed</w>
Ten emos</w>
T R
Ser á</w>
SM ELE
SKOLTAY OTIK</w>
SERI E</w>
Ma u
L ab
Je hú</w>
Jaʼ me</w>
Icon io</w>
F U
Escri ba</w>
EJ EMP
Con o
CAMBI Ó</w>
Ben jam
As amb
A geo</w>
14 8</w>
1, 9
ólo go</w>
ñ ado</w>
é ste</w>
án ico</w>
yaʼ i</w>
xlokʼo n</w>
x jinawan</w>
x awaʼiy</w>
w án</w>
trata miento</w>
tigü edad</w>
tes ot</w>
terrán eo</w>
tel es</w>
tek stoetik</w>
ta baco</w>
t alix</w>
su ele</w>
stʼun beyik</w>
stsa el</w>
snop e</w>
snichʼ nabe</w>
smeleli luk</w>
skoltay otike</w>
sju ltes</w>
si te</w>
si m</w>
schʼu um
schʼ ay
schik naj
sal vo</w>
sal va</w>
sacri fic
rumb o</w>
rom p
responsab les</w>
res er
religi onetike</w>
reci én</w>
re o</w>
ra íces</w>
ra c</w>
r ás</w>
qʼu inale</w>
prote g
perfec tos</w>
pa e</w>
nue ve</w>
nu mer
nom ás</w>
na ci
moso inel</w>
mi rar</w>
ma do</w>
logr ará</w>
llev amos</w>
le e</w>
kʼay em</w>
kʼ altike</w>
jw ex</w>
ju ec
jtuun tes</w>
jts altik</w>
jtoj ole</w>
jpej t</w>
jojkʼoy eletike</w>
jnichʼnab tik</w>
jmul awi
jej ch</w>
jchʼi el
j chameletik</w>
invi tados</w>
ic ʼ</w>
hospital arios</w>
histori ador</w>
herman dad</w>
habi tada</w>
f as
envi ar</w>
en rol
embar az
dol or
dese aba</w>
defec tos</w>
cre emos</w>
conten ido</w>
confi ó</w>
com entó</w>
chopo lik</w>
bon ita</w>
blan cos</w>
bi ern
bey elxan</w>
ban kile</w>
aut én
atu kel</w>
ar co</w>
an tigüedad</w>
amor oso</w>
am en</w>
am akʼ</w>
alg as</w>
al okʼ
ajkʼ ab
aj ik</w>
ai wán</w>
Wentain ele</w>
T aiwán</w>
Step hen</w>
Sal vador</w>
Sad rac</w>
SE R</w>
Re cuer
Per sia</w>
O li
Nig eria</w>
Na ilpakʼ</w>
Mi q</w>
Mes ac</w>
Li dia</w>
Le v</w>
LE KIL
Kʼ ax
H on
H ol
H al
FIC A</w>
Es tamos</w>
Dé bora</w>
Dani ele</w>
D or
Asi ria</w>
4 9
200 6</w>
2 2
10 8</w>
xchʼu jt</w>
x lu
ver nos</w>
tu vimos</w>
tsʼajkʼ etik</w>
ts un
tr en</w>
tik nax</w>
termin ado</w>
ter os</w>
tan e</w>
swin ik
su a
stso boj</w>
spa kol</w>
soci al</w>
sn am
smulan el</w>
sloʼl ay</w>
sk ole
sja kʼ
sja chik</w>
sej p</w>
sbe lal</w>
sas erdo
sa gr
s pu
s lokʼesel</w>
reemp la
re comen
qued ar</w>
pʼijubtes ele</w>
pri mi
polic ía</w>
op ina</w>
of endi
och emik</w>
mé todo</w>
mukʼu k</w>
much ed
muched um
mi tad</w>
medi a</w>
mantaltes wanej</w>
man tiene</w>
machi t</w>
m ío</w>
loʼl ayel</w>
llen ó</w>
llegu en</w>
li do</w>
lan tik</w>
kʼ anel</w>
kʼ ab
ku chʼ
jun tar</w>
ju ram
jmul tike</w>
jkanan taytik</w>
j xiʼ</w>
j ma
in ser
in on</w>
hor ario</w>
gusta ba</w>
guar di
fuér c
fal so</w>
estre cha</w>
estable ció</w>
espiritu alidad</w>
escuch e</w>
er ic
ent ía</w>
enseñ ando</w>
emo ciones</w>
el oj</w>
e tal</w>
e bix</w>
dé cadas</w>
do te</w>
div or
disponi bles</w>
diri g
di eran</w>
des ti
der ro
d ara</w>
cur ar</w>
consi dera</w>
conoci dos</w>
concentr ación</w>
compa sivo</w>
col o
chʼu jte
ch on
c ados</w>
ba sta</w>
aw ulaʼ
avi dad</w>
av es</w>
anoch e</w>
ami ga</w>
akʼ ab</w>
a ya
XC H</w>
W IN
Tsoblej e</w>
TZ O
TZO XCH</w>
TI OS</w>
S pisi
Ru b
Nuestr o</w>
MI ENTO</w>
MA J
LI P
LE V
L AN
Kʼ IN</w>
J aj
Imi temos</w>
Fu e</w>
F echa</w>
D ar
Cuán tos</w>
Cor al</w>
COR IN
C hu
C ada</w>
Bel sas
Al ab
ANT S</w>
A naʼ
A YI
4 00</w>
ín ese</w>
yi li
yaʼiyi c</w>
y ol
y n
xyal otik</w>
xu jk
x chaj
vergüen za</w>
ver dura</w>
tu a</w>
tsʼ il</w>
tra erá</w>
tom amos</w>
t émonos</w>
t án</w>
swentain oj</w>
stʼun el</w>
stoj il
st en</w>
solici tud</w>
smaj kil</w>
sma j</w>
skontra inotik</w>
sja p</w>
ser io</w>
se ksion</w>
scʼ opon
sch ebaj
s y
s pukel</w>
revista etik</w>
religi osa</w>
r oc
que te</w>
po x</w>
perí odo</w>
person almente</w>
pas aje</w>
pan ax</w>
pa mos</w>
ot her</w>
ol xan</w>
obser var</w>
na do</w>
muri era</w>
me tros</w>
me tió</w>
maravillo sa</w>
man do</w>
mal mente</w>
m el
lf fi</w>
kʼ altik</w>
kʼ a</w>
kuj ch
kaʼtel tike</w>
k ejch
jun uknax</w>
ju ju
jta j</w>
jta beytik</w>
jla ptik</w>
j man
j kʼop</w>
j inel</w>
inteli gente</w>
inmor al</w>
indic an</w>
imperfec ción</w>
il bil</w>
ik nix</w>
i tas</w>
hici mos</w>
hac es</w>
h echa</w>
gra tu
go al</w>
fl or</w>
fi ja</w>
f ar
eter nidad</w>
esforz arse</w>
escla vi
empo e</w>
emocion ante</w>
elimin ar</w>
eli gió</w>
egip cios</w>
ech ó</w>
desafí os</w>
des apareci
de volver
cu las</w>
comien ce</w>
com and
co br
ci tos</w>
chebaj em</w>
chaʼkuxaj emix</w>
cas ado</w>
c tor</w>
bo h
beya hic</w>
be j</w>
aʼte letik</w>
ardi ente</w>
amu l</w>
ajwali letic</w>
ador an</w>
acostu mbr
a conse
Y aniwan</w>
V ol
TU LO</w>
T so
T S
Sau le</w>
R i
PRINCIPI O</w>
OR IA</w>
No panax</w>
N O
Mal ta</w>
Le kub
Lab án</w>
LIP SIS</w>
K ir
K akʼ
Je lon
G R
Est oy</w>
ENS ES</w>
Dani èle</w>
D er
D a</w>
CORIN TIOS</w>
CA LIPSIS</w>
APO CALIPSIS</w>
AN DO</w>
A ri
A LES</w>
6 7
5 8
1, 6
ándo los</w>
yam ik
xʼ och</w>
xch ah
utili zó</w>
tso bo
transfu siones</w>
traduc ciones</w>
tom é</w>
to có</w>
ti tulo</w>
tesor os</w>
termin a</w>
te a</w>
sw ohlol</w>
subi r</w>
stij bon</w>
spʼaj el</w>
spa jbey</w>
sobres ali
sman el</w>
sir vió</w>
si ble</w>
scʼ ab</w>
samari tano</w>
s h
ri es
reuni rse</w>
re quisi
requisi tos</w>
re ina</w>
progres ar</w>
produ cen</w>
posi bilidad</w>
pol los</w>
po st
plan e
pla to</w>
pl acer</w>
perdon ó</w>
pel ota</w>
pe h
paxi al</w>
pati le</w>
pah kʼ</w>
pa t</w>
pa piro</w>
p ala
oc olic</w>
nu tsel</w>
nopo l
nich im
manda tos</w>
man tuvo</w>
majtʼ an</w>
mahtan il</w>
ma tó</w>
ma ter
m entos</w>
m aliy
luk ik</w>
llen os</w>
kontra in
kil oj</w>
kalbey tikix</w>
k amig
kamig otik</w>
jkʼan tike</w>
j oles</w>
j chuk
isra el</w>
i kʼot</w>
hu ir</w>
ho mo
hay amos</w>
gu stó</w>
gr ano</w>
gan da</w>
fri joles</w>
frag mento</w>
fo tos</w>
expli cación</w>
esper an</w>
escri tores</w>
en z
en cor
en cendi
económ icos</w>
dó lar</w>
di spa
di cia</w>
descri bi
de tenga</w>
cos ta</w>
consul ta</w>
conden a</w>
ci mientos</w>
chu j
c ed
bil tik</w>
be lik</w>
bayal niwan</w>
ayud aría</w>
awakʼ ik</w>
au tor</w>
apaci bilidad</w>
ap las
anu al</w>
am arr
aj el</w>
afir mó</w>
achaʼulaʼ taye</w>
a pi
a cur
Y ILEL</w>
Y ES</w>
Tur quía</w>
TA LE
TA KʼIN</w>
T u</w>
T abi
SO ETIK</w>
SMELE LIL</w>
SIG NI
SIGNI FICA</w>
RE YES</w>
PR ES
Nuestr a</w>
Na die</w>
NOP EL</w>
N avidad</w>
N atán</w>
Mu kʼ</w>
Medi terráneo</w>
Kʼ OP
Jnop tik</w>
Jelon tesbot</w>
HACER LO</w>
Evangeli os</w>
D ía</w>
Clau dio</w>
Benjam ín</w>
B íbli
Al ber
Ad ane</w>
Abrah ame</w>
A lej
17 ,
í b
yo tʼ
yichʼ ike</w>
xoj o
xjil otik</w>
x wi
x pʼijubtes
x pʼ
x jajch
w u
w 99</w>
vivi do</w>
vi ejo</w>
us emos</w>
tsʼihba bil</w>
ts eltal</w>
ton el
tik a</w>
te ji
tam al</w>
tal uk</w>
t ábamos</w>
su stitu
st ʼ
sor dos</w>
smukʼulin ej</w>
slaj inel</w>
skʼaxun tayik</w>
skʼatp ʼun</w>
skontra inel</w>
sir ku
senti rá</w>
sen sa
sembr ar</w>
schʼuun beyel</w>
ru ido</w>
reuni dos</w>
responsab le</w>
re fi
qui la</w>
qu ej
pá jar
pu jk
prim og
preocupa ba</w>
pregun tarnos</w>
po ten
po se
permi tir</w>
pens aban</w>
peligr oso</w>
parti do</w>
paj k</w>
pa c
oj ike</w>
ofic inas</w>
ocupa dos</w>
o tʼ
o lin</w>
na x
na m</w>
na kal</w>
n ífic
médic a</w>
muk en</w>
mu eve</w>
me ca
ma gia</w>
m lej</w>
le pr
kuxin emik</w>
k antsil</w>
juec etik</w>
jtu l
jchʼi eletike</w>
j toy
j chʼix</w>
inteli g
inici ativa</w>
inam il</w>
im pres
ichʼ ot</w>
i que</w>
i dol
idol atr
i chʼ</w>
hu m
h ar
go biern
gi g
fundam ental</w>
extrem o</w>
exper im
existi rá</w>
exist en</w>
exac to</w>
esta remos</w>
esta cion
en vía</w>
en ví
en de</w>
en dario</w>
em per
el ote</w>
ej ic</w>
ed as</w>
económ ica</w>
ec a</w>
dra gón</w>
dis positivos</w>
dej en</w>
cu le
cre í
cre ci
conso lar
conc e
co dicia</w>
cla vo</w>
chopo luk</w>
cham bah
cam pa
ca u
ca j</w>
blan co</w>
bide oetik</w>
be h
bast ante</w>
aʼba tinel</w>
ayud as</w>
ay ú
awichʼ ik</w>
aw amigo</w>
auto dominio</w>
at ole</w>
asig naciones</w>
apli car</w>
an ojp
alnichʼan etike</w>
al ma
al as</w>
akʼopon e</w>
ajojkʼoy bey</w>
ac ate</w>
ab ón</w>
ab solu
a zo</w>
a tsʼi
Z ac</w>
YA BAL</w>
Sig amos</w>
SO L</w>
SEʼ E
SCHʼUUN EL</w>
S AL</w>
Por tu
Pa í
P aul</w>
M úsica</w>
M er
Lekub tesa</w>
LO Kʼ
LEKIL AL</w>
Ju d</w>
IN A</w>
I DO</w>
H en
H ag
E V
E BAL</w>
DI U</w>
D on
Cu i
A t
A CIONES</w>
5 6
200 2</w>
18 ,
14 9</w>
yuchʼ ik</w>
yichʼ ojikix</w>
yi lele</w>
yan xan</w>
yakʼ beyxan</w>
xtal ik</w>
xkʼopo jon</w>
xkʼo at</w>
xkʼax otik</w>
xcu hch</w>
xchʼ aj
xbo hon</w>
x ku
x chʼuunel</w>
x at
w0 3</w>
vir ti
vic toria</w>
ver se</w>
ven ía</w>
vec inos</w>
u le</w>
u bi
tsʼu l</w>
toj ol</w>
tiklam bey</w>
terri ble</w>
t ol</w>
sut botik</w>
su yo</w>
su po</w>
spa jk
son ido</w>
sma k</w>
sm ama</w>
skʼaxun tay</w>
skʼ ayoj
skole lik</w>
sju k
señ a
sent ían</w>
sem ej
se pa</w>
se de</w>
se d</w>
sci la</w>
schʼ ojik</w>
s bolkʼop
s ar
respe tu
res bal
reg añ
r en</w>
pregun taron</w>
poder osos</w>
po quito</w>
plan tas</w>
pi el</w>
perdon a</w>
per der
parti cular</w>
op ía</w>
ol or</w>
oh etic</w>
novi a</w>
na cimiento</w>
n ica</w>
n algas</w>
mí nimo</w>
mo strado</w>
mayu quix</w>
mayu k</w>
man dar</w>
man dado</w>
lo tike</w>
llev ado</w>
li bri
ley ó</w>
lekub tesel</w>
le ón</w>
lajem ikix</w>
lajem ike</w>
lajchay eb</w>
lab anel</w>
la v
ku b</w>
kichʼ kotik</w>
kar ro</w>
k ale</w>
ju ego</w>
joʼotik nix</w>
jkʼax un
jkʼ ayoj
jkontra in
ji p</w>
jbakʼetal tik</w>
jaʼ nixme</w>
j pox
j oj
j es</w>
j biluk
invi taron</w>
inspir ada</w>
inic u
inci enso</w>
in s
i z
honr ados</w>
ha gas</w>
g or
fun ción</w>
f all
exac ta</w>
ex pec
estable cido</w>
er no</w>
emi xe</w>
embaraz ada</w>
em ikix</w>
em ano</w>
difun to</w>
des ánimo</w>
des gracia</w>
dedic amos</w>
deci rse</w>
de le
de bilidades</w>
dar án</w>
d és</w>
cʼoh em</w>
cumpl en</w>
cu be
cre es</w>
conqui sta
comi té</w>
chʼu h
chʼ ene</w>
chʼ ayel</w>
chaʼkuxaj tesel</w>
chah p</w>
ch onel</w>
c le
bo da</w>
bili c</w>
bene ficio</w>
bel otik</w>
b ús</w>
ay tonax</w>
auto bús</w>
ar ru
apren da</w>
anunci oetik</w>
ant emano</w>
ambi que</w>
am eric
ali vi
alab anza</w>
acep taron</w>
abatin on</w>
a kiltik</w>
a kaj</w>
X AJ
T ú</w>
ST ORIA</w>
S ON
S ER
S AN
R oboam</w>
Prom edio</w>
Pri scila</w>
Portu gal</w>
Ped roe</w>
PER SON
P res
O seas</w>
M or
KʼO P</w>
K a
Inter nacional</w>
In vi
IN O</w>
HI STORIA</w>
HE BRE
Eli hú</w>
EJEMP LO</w>
E ti
E c</w>
E LE</w>
DIC EN</w>
Chʼ ama</w>
Cha pal
Ch ʼi
Bri tan
Ami go
ANT ES</w>
A sa</w>
6 9
4 0
20 ,
é st
Ó V
ÓV ENES</w>
z ambique</w>
z ación</w>
yakʼ botike</w>
xtu hun</w>
xchaʼ kuxaj</w>
x chikin</w>
wp 16
vo to</w>
viaj es</w>
ven gan</w>
val orar</w>
v in
us aron</w>
un eb</w>
ulaʼ tay
uestr e</w>
tí o</w>
tsʼu mbil</w>
tsa ʼ</w>
transmi tir</w>
tranqui li
tom an</w>
tien den</w>
t és</w>
stu l
spas emal</w>
spa h
snojptes ik</w>
smukʼu btes
skʼa bik</w>
sjultes bey</w>
sja kʼ</w>
señal ó</w>
sem illa</w>
se tenta</w>
sch u
sch ap</w>
sac arle</w>
s hah
relacion adas</w>
reflexi onar</w>
recuer dos</w>
rec e</w>
rebe li
prov in
profun das</w>
prof unda</w>
pro vo
presi dente</w>
predic aba</w>
precurso retik</w>
por tu
pon drá</w>
poli tika</w>
pens é</w>
pec ar</w>
os cu
om e
olvi dar</w>
o a</w>
ne y</w>
n ac
modes to</w>
mo dos</w>
majtʼ anile</w>
ma dure
madure z</w>
lo cal</w>
lesi as</w>
lar se</w>
lamal nax</w>
kʼax ik</w>
kulaʼ taytik</w>
kil tikixe</w>
kaʼ bil
k aw
jʼ aʼte
jun tas</w>
jta oj</w>
jnop il
jle kil
j tsʼibay
j pi
j chi
investig ación</w>
idolatr ía</w>
hu c</w>
hi ch
habl ado</w>
hab erse</w>
gradu ar</w>
ga to</w>
fu mar</w>
expli que</w>
et y</w>
esfuer za</w>
escri tas</w>
enfr entó</w>
enfr entan</w>
em bra</w>
educ ar</w>
dob lar</w>
difer encias</w>
des pe
d ental</w>
cump la</w>
cre as</w>
comunic ación</w>
co stó</w>
chʼ i</w>
bot ella</w>
ba h</w>
b alix</w>
awulaʼ tay</w>
awaʼ be</w>
awamigo in</w>
aw in
atsʼi bay</w>
ata bey</w>
ap ʼ
anop xan</w>
am én</w>
ak ti
agr esi
abund ancia</w>
abi il</w>
abandon ar</w>
a takʼin</w>
a ike</w>
XAJ Tʼ</w>
V í
To dopoderoso</w>
Soci ety</w>
Se gu
SO BRE</w>
SI ON</w>
RI O</w>
PA SA
Mo zambique</w>
Mej ore</w>
Mar y</w>
M il
K al
J ÓVENES</w>
J XAJTʼ</w>
Hag eo</w>
FICI OS</w>
DA TOS</w>
D ON
D EM
CON VER
Ber ea</w>
Belsas ar</w>
Anaʼ ojbal</w>
AM I
17 5</w>
17 3</w>
14 4000</w>
1 32</w>
1 1
ʼun bal</w>
ó bu
óbu los</w>
yi jtsʼin</w>
xluj botik</w>
x yichʼik</w>
x tʼ
x pʼaj
x mil
wa k</w>
w a</w>
w 00</w>
ven ían</w>
var ones</w>
tsaj el</w>
traduc e</w>
trabaj a</w>
ti camente</w>
tey to</w>
ten taciones</w>
te ó</w>
str emos</w>
spa mlej</w>
so m
sna kʼ</w>
smam alale</w>
smah li
skʼ abe</w>
sku x</w>
skanan tay
sirku ito</w>
sil enci
si vos</w>
sem illas</w>
schʼ oj</w>
sch ap
sa kil</w>
s ú
rompi ó</w>
rom ana</w>
rol lo</w>
ri do</w>
resal tada</w>
repres entan</w>
reliji one</w>
rebi sta</w>
re quiere</w>
ra te</w>
que dado</w>
program as</w>
pro por
pres os</w>
predic arles</w>
posi bles</w>
pon ernos</w>
polí ticas</w>
po ste</w>
pas beyele</w>
pareci das</w>
p ese</w>
opini ones</w>
on ías</w>
ocupa do</w>
mur al
muchedum bre</w>
mostr arles</w>
mil aw</w>
mantal tesel</w>
mal ab</w>
m tC</w>
lu l</w>
lokʼo n</w>
logr aron</w>
le ído</w>
lan dia</w>
kʼat kotik</w>
kʼajkʼ e</w>
kuxaj tik</w>
ko ʼ</w>
ki kʼatkotik</w>
ki h
jpa t</w>
jkʼayin tik</w>
jaʼ at
ja te</w>
inten ción</w>
indic ó</w>
im pac
ichʼ bil</w>
i jkʼal</w>
haʼ mal</w>
gobern ará</w>
gi os</w>
fr anc
fij émonos</w>
fac tores</w>
estu vieran</w>
escribi eron</w>
es car
er les</w>
er emos</w>
er e</w>
enfrenta rse</w>
elimin ará</w>
electrón icos</w>
ed u
e f
due ño</w>
dist ra
destr o
desarrol lar</w>
demuestr e</w>
de di
d ándole</w>
cose cha</w>
cor ta</w>
comi endo</w>
ciudad anos</w>
ci dad</w>
chopo like</w>
chik anuk</w>
cham en</w>
cal endario</w>
c lic</w>
be e</w>
ba sa</w>
aʼte jibal</w>
ayud ante</w>
averigu ar</w>
asi a</w>
asegur arse</w>
ar o</w>
anichʼ an</w>
an ul</w>
am bey</w>
al ax
akuxlej ale</w>
ai f
activi dad</w>
aconse ja</w>
acep te</w>
ac to</w>
ac h</w>
ab e
a yal</w>
a tiempo</w>
a chi
Tabi ta</w>
TE K
T ro
T ri
T hom
T ex
Sof onías</w>
STA LEL</w>
S er</w>
R ita</w>
P arti
P an
P OR
O tra</w>
Naʼ ame</w>
NA IL</w>
Men or</w>
MAR COS</w>
M enci
Im perio</w>
I O</w>
Ge orge</w>
FE LI
FE CH
Eti opía</w>
Enseñ e</w>
E no
D ic
Cono zca</w>
CONVER SA
Bíbli ca</w>
BÍBLI CAS</w>
B ON</w>
Aqu í</w>
A ÑO</w>
7 7
3 3
200 8</w>
2, 9
19 43</w>
1, 5
1, 4
1 51</w>
ú s
é gu
á tico</w>
Á quila</w>
zapa to</w>
yu go</w>
y ajw
xtu pʼ</w>
xnoptsaj otikxan</w>
x li
winik il</w>
wi tsʼ</w>
v es
v emente</w>
un es</w>
u el</w>
tsak bil</w>
traduc tores</w>
ti empoe</w>
tem ores</w>
tar es</w>
t t</w>
t he
sw ix</w>
spas tiklan
sal pic
s pʼijubtes
s es
ro stro</w>
recibi rán</w>
rechaz ó</w>
re pi
r i</w>
r ay
quisi era</w>
pu cu
proteger á</w>
predic an</w>
pre juicio</w>
pre fer
po m</w>
po b
piens o</w>
pase ar</w>
p ér
p ando</w>
ote ca</w>
orig in
or ae</w>
nujpun em</w>
nujpun ele</w>
ne gó</w>
na xe</w>
mor ral</w>
mol é
lleg ada</w>
lan dés</w>
kʼu btes
kaʼ tele</w>
ju l
jpuk tik</w>
jo venci
jnopil antik</w>
jkontra taktik</w>
ji lele</w>
jaʼ bil
jajch el</w>
inten so</w>
in ea</w>
in def
in a
im puestos</w>
her idas</w>
hebre os</w>
haʼ al</w>
hablar emos</w>
gu err
gu en</w>
gradu ación</w>
gra f
gr ani
gi eron</w>
fr ic
forma da</w>
f am
f abr
examin ar</w>
esta tua</w>
espej o</w>
esco gido</w>
entreg ar</w>
enfr entamos</w>
empez amos</w>
ejerci cio</w>
ec o</w>
diri gió</w>
dig nidad</w>
den se</w>
def endi
de tuvo</w>
cu ri
cu antos</w>
contribu ir</w>
conta min
ci l
ci e
ch oj</w>
cer cano</w>
borra ch
be en
bauti cé</w>
autom óv
as car</w>
ap al</w>
an al</w>
am ó</w>
am i</w>
am as</w>
al bor
ag ascar</w>
adul terio</w>
adic ción</w>
acti tudes</w>
abue la</w>
ab raz
ab o</w>
a koltay
UM IL
Trac t</w>
TI N
TA R
TA DA</w>
T alel</w>
Recor demos</w>
Pu kuj</w>
P au
P aj
Mad agascar</w>
Lam enta
K om
In clu
Gu inea</w>
F E</w>
D u
CONVERSA CIÓN</w>
C aif
BENE FICIOS</w>
Andr és</w>
AW AʼIY</w>
2 ,000</w>
19 50</w>
19 18</w>
í l</w>
Í TI
yoh lil</w>
yichʼ beyik</w>
yak to</w>
ya chʼu
xlo cʼ</w>
x pejkʼaj</w>
w el</w>
ver los</w>
venta jas</w>
v é
utsʼin wanej</w>
un gido</w>
un g</w>
tulan ik</w>
tsal tamba</w>
tsaj al</w>
trib un
tey nix</w>
ta tik</w>
ta sion</w>
stuk el
sti jbat</w>
so sten
snam alil</w>
slum alike</w>
sla p</w>
skʼ anike</w>
sja m</w>
segui rá</w>
schiknaj tes</w>
sab es</w>
s hu
s derecho</w>
ri t
res pi
r la</w>
puer to</w>
pu ros</w>
provin cia</w>
pro cur
poli tic
pobre etik</w>
pi chʼil</w>
pal os</w>
pa ta</w>
p en</w>
or ra</w>
obst áculo</w>
o kʼ</w>
nú m</w>
nego cios</w>
na ve
n amente</w>
misericordi oso</w>
mer ec
man el</w>
m ic
m amal</w>
laj an</w>
la bios</w>
kʼo on</w>
kuʼun kotike</w>
kil tike</w>
kijkʼi taytik</w>
jpa kʼtik</w>
jlekil altik</w>
jkʼu lej
jch ah
jaʼ exe</w>
j tʼ
j al</w>
inmens o</w>
inacti vos</w>
in akti
grie goetik</w>
fá br
fr acas
fin es</w>
fabr ic
esp ina</w>
escuch ado</w>
es cen
entreg ó</w>
enseñ aba</w>
en co
emper ador</w>
emi ase</w>
ejemp lar</w>
egip ci
eb xan</w>
dul ce</w>
diri gen</w>
destru ida</w>
desti no</w>
descan so</w>
der son</w>
con ec
comand ante</w>
co ordin
chap bil</w>
camin ando</w>
ca ña</w>
c alum
c aban</w>
bus camos</w>
bin tikxan</w>
be etik</w>
be en</w>
batsʼ il</w>
ba tik</w>
b rió</w>
ayu kix</w>
ati x</w>
asi entos</w>
ap enas</w>
ante pasados</w>
anichʼ ane</w>
an s
amali el</w>
ador aba</w>
adolesc entes</w>
acur ruc
actú a</w>
a tʼu
a tsʼ
a tike</w>
Yu ʼunbal</w>
WIN IK
Uni versidad</w>
U r</w>
Ti enen</w>
T ʼIL</w>
T su
So f</w>
S PAS</w>
Re v</w>
Pre dic
Paí ses</w>
LEK IL</w>
L ine</w>
KU ʼU
Jac k</w>
J ose</w>
Imag in
I I</w>
H or
H ace</w>
H ab</w>
G amaliel</w>
Evangeli zadores</w>
EN CIA</w>
Dem ocrática</w>
Dar ío</w>
DISCURS O</w>
CON TES
Bin xan</w>
B ob</w>
Amigo ina</w>
Abiga íl</w>
2, 4
17 1</w>
1, 7
ún icos</w>
éndo lo</w>
ác ter</w>
yal oje</w>
xu b</w>
xna hin
xmantaltes wane</w>
xcʼ ax</w>
xchʼu ht</w>
xchʼ ayotik</w>
x k
w2 20
ve ían</w>
tu za</w>
tu m
tr om
tor o</w>
tiʼ bal</w>
ter ía</w>
sw ol
sw aʼel</w>
sw ayi
super fici
su ci
stu pʼ
stsak oj</w>
stoj el</w>
st o
spas bon</w>
spa kʼ</w>
snop beyik</w>
skʼaxun taybey</w>
skʼan beyel</w>
skoltay lan</w>
skoltay beyel</w>
skol taya
simb ólico</w>
si va</w>
secre tario</w>
schʼu h
schʼi tesel</w>
s ó</w>
regi onal</w>
re cur
propor cion
pox il</w>
poder osa</w>
pekʼ elxan</w>
ped í</w>
pas aj
paj a</w>
pa m
p il
or aba</w>
op ción</w>
oj on</w>
ofrec en</w>
nu b
ni wak</w>
neces aria</w>
nacion ales</w>
mi st
limpi eza</w>
libri o</w>
li da</w>
levi tas</w>
lan za</w>
la pʼ
la m</w>
kʼay emotik</w>
kʼah kʼ</w>
koltay wanik</w>
k oetik</w>
juram ento</w>
ju gar</w>
jmu l</w>
jm ajkʼnax</w>
jel taytik</w>
jay tul</w>
j ʼu
j or
j ni
ini cio</w>
in creí
i jka
hu r
hospi talidad</w>
hin ch
hablar le</w>
h undi
h k</w>
h im
gu é</w>
fortalec en</w>
fi gu
fav ori
expuls ado</w>
existi r</w>
esti ma</w>
ern es</w>
equi librio</w>
enti dad</w>
enfr entar</w>
energ ía</w>
encu entro</w>
enci aetik</w>
en tiende</w>
egoí sta</w>
ebe c</w>
disfru tamos</w>
dis minu
di lu
destru yó</w>
desta có</w>
dej es</w>
deci den</w>
de terminar</w>
cul turas</w>
cre ció</w>
consul tar</w>
conf ían</w>
con viene</w>
con ferencia</w>
compar ación</w>
ci v
ch in</w>
característi cas</w>
c ol</w>
c elos</w>
bur ro</w>
bu lil</w>
bien venida</w>
beyi kxan</w>
bendeci rá</w>
bel on</w>
bar co
ayud arme</w>
aw alik</w>
avi ón</w>
apó sta
anunci ó</w>
antsi wej</w>
anim an</w>
an o
am ik</w>
am an
ali vio</w>
agu ja</w>
ador aban</w>
ab re</w>
a str
a floj
Wikʼ ame</w>
VER DAD</w>
U S
Tr inidad</w>
Sy l
Salom one</w>
Qu ebec</w>
P al
Oné simo</w>
OS OTROS</w>
NU EV
N u
N OSOTROS</w>
M IN
LA J
Jeho i
Inclu so</w>
Imag ínese</w>
IL UK</w>
Haz te</w>
HEBRE OS</w>
H e</w>
ENSEÑANZ AS</w>
ELE TIK</w>
Di o
Cor é</w>
Ch arles</w>
Caif ás</w>
C H</w>
Bau tista</w>
BI TʼIL</w>
BA J
B r
Ab salón</w>
AN Aʼ
6 000</w>
14 ,
1, 2
1 Te</w>
1 13</w>
ÍTI CO</w>
Á S</w>
z aron</w>
yilin ba</w>
yaʼ bon</w>
yamigo inel</w>
y ab
xtu lan
xi kʼ</w>
x mo
x kaj</w>
x e
we en</w>
waxak eb</w>
w anike</w>
vuel van</w>
vi siones</w>
us aba</w>
un dar
undar ia</w>
u tsil</w>
tsʼ am
toy olxan</w>
tir ó</w>
tiklan el</w>
tien das</w>
ti na</w>
terri bles</w>
ter as</w>
tele bi
tal emotik</w>
taki j</w>
sw ay
stsa oj</w>
st se
spo j
sinc er
sin g</w>
signific an</w>
si entes</w>
senti remos</w>
senti miento</w>
segu ían</w>
se la</w>
sbakʼe tale</w>
satisf echos</w>
s contra
ren c
renc or</w>
r aj
quer er</w>
qued an</w>
públi cos</w>
prote gió</w>
propi edad</w>
prekur so
positi vas</w>
plen a</w>
pas ti
pas ajes</w>
par on</w>
pa so
p on</w>
p h</w>
on tik</w>
ofreci eron</w>
obedeci ó</w>
o fi
nopol me</w>
naz i</w>
na hin
minist ro</w>
mer e
mencion ada</w>
madur os</w>
m ali
loʼ bale</w>
lo qʼuel</w>
llev arnos</w>
llam aban</w>
leg ales</w>
l awu
l abal</w>
kʼopon ot</w>
kʼan beyel</w>
kristi anoetike</w>
kom e</w>
jpaso j</w>
jfamili ae</w>
jbah tic</w>
ja ch</w>
j yakubele</w>
j wokol</w>
j pisi
invi tamos</w>
inte gri
informa sion</w>
impresion ante</w>
im as</w>
ilin on</w>
il inotik</w>
i ga</w>
human as</w>
ho yo</w>
hab íamos</w>
gui r</w>
grie gos</w>
gl óbulos</w>
g on
g aba</w>
for mó</w>
ex hibi
est és</w>
esp esi
esfor zó</w>
esco gió</w>
esclavi tud</w>
esca par</w>
es encial</w>
entr en
enseñ arle</w>
en tes
em pu
ej tik</w>
ech ar</w>
e jat</w>
e fic
dok tor</w>
direc tor</w>
di rá</w>
di cha</w>
des vi
des obedecer</w>
dedic ó</w>
decidi mos</w>
cʼ a</w>
cump le
cuer nos</w>
const ante</w>
con virti
con vierte</w>
compor tamiento</w>
comi ó</w>
col gado</w>
cli ma</w>
cer ni
car á</w>
bus có</w>
bujtsʼ an</w>
bondad oso</w>
bi enes</w>
bey tikix</w>
ban co</w>
babil onios</w>
aʼba tetic</w>
az u
ayud amos</w>
awu chʼ</w>
awo tʼan</w>
ats a</w>
ati vos</w>
ata que</w>
asisti eron</w>
arri es
arrep inti
apʼi jil</w>
ant emos</w>
ale tic</w>
al ambre</w>
akʼ beyele</w>
aj ap</w>
agu ardiente</w>
ac as</w>
Ya tobal</w>
X ch
Tro as</w>
TI M
San tas</w>
San derson</w>
SI EM
SIEM PRE</w>
Qui enes</w>
Prom eti
PO DEMOS</w>
PASA DO</w>
OB TEN
Menci one</w>
Li ʼ</w>
L aj
Jose e</w>
Jehoi adá</w>
Jai ro</w>
IL AWIL</w>
G om
G i
FAMILI A</w>
D ESP
Cor ea</w>
Ayu de</w>
AYU DA</w>
6 00</w>
Á N</w>
yichʼ oj
yi kʼon</w>
yamigo takik</w>
yakʼoj bon</w>
y alal</w>
xu lu
xu jk</w>
xtojobtes wan</w>
xnujpun ik</w>
xbe enik</w>
x ti
x tale</w>
x taj
x maj
x i</w>
w0 2</w>
vi vamos</w>
verdad eramente</w>
ve te</w>
ve inti
vali osos</w>
val entía</w>
uni c</w>
tsʼu su
tsʼ ah
tr ero</w>
to dopoderoso</w>
titu lado</w>
terr estr
te com
tecom ate</w>
ta quin</w>
t ían</w>
sé ñ
swenta inik</w>
sw ol</w>
su ya</w>
su al</w>
stu r
stsob el</w>
stsaj tay</w>
spasi x</w>
spasi kix</w>
sn an</w>
skaj nax</w>
sincer idad</w>
sfamili aike</w>
servi cios</w>
sel ular</w>
se tic</w>
se cta</w>
se ca</w>
sch onik</w>
sch am
sabi a</w>
s reliji
s cuxlejal</w>
ri sa</w>
respe tan</w>
refer ía</w>
recu ad
re comien
razon ables</w>
r é
qʼu e</w>
pueb loetik</w>
public adoretik</w>
próxi mo</w>
prision eros</w>
predic a</w>
portu gu
pon gan</w>
po stu
po sesi
pic acia</w>
pi so</w>
per dieron</w>
pej kʼaj
paj kʼ</w>
ox om</w>
organiz ado</w>
oni tas</w>
on kotike</w>
ocurri rá</w>
nu be</w>
ni x
nego cio</w>
muk enal</w>
mos a
mosa ica</w>
mir ando</w>
mar so</w>
mar ch
man a</w>
mag nífic
ma duro</w>
m undi
m esi
m bre</w>
m alel</w>
lokʼomba etike</w>
lleg ara</w>
llam ados</w>
lam ente</w>
lajun tul</w>
kʼan bot</w>
kʼ ayin
kil ome
kamigoin ej</w>
ka kʼoj</w>
k on</w>
jun uc</w>
jti b</w>
jtal ele</w>
jta ojtik</w>
jokin ot</w>
jna e</w>
jkʼu ʼe</w>
jay ebto</w>
j r</w>
j li
inun da
indic ar</w>
inbi tasion</w>
hu mo</w>
hacer me</w>
hacer les</w>
h aré</w>
guí e</w>
gui stán</w>
go z
fr an
farise o</w>
fa cul
ez an</w>
exper to</w>
exc ep
establec er</w>
esper aban</w>
específic o</w>
espa cio</w>
enfer ma</w>
el tic</w>
el a
dur ó</w>
descan sar</w>
des pier
der rumb
demasi ada</w>
de ten
d os
cumpli eron</w>
confi emos</w>
conf lic
con siguió</w>
computa dora</w>
co bi
cier tamente</w>
cic lo</w>
ci dos</w>
chʼaj ane</w>
ch il
car ácter</w>
capi tán</w>
cambi a</w>
cal les</w>
bast ón</w>
bal bil</w>
ba da</w>
asegur arnos</w>
arrepenti miento</w>
aprender emos</w>
apo ya</w>
apas bey</w>
an aliza</w>
am aban</w>
ali stas</w>
alegr e</w>
al ilto</w>
al erta</w>
Y OʼTAN
V amos</w>
Ton y</w>
TIM OT
TIMOT EO</w>
TEK STO</w>
Su jtib</w>
Soci edad</w>
S en
Po co</w>
PA Í
NA X</w>
NA CI
MA L
LEV ÍTICO</w>
Kʼajkʼ ale</w>
Kʼajkʼ al</w>
KʼO T</w>
Kir guistán</w>
Ken ia</w>
Kakʼ tik</w>
K XAN</w>
IN TER
IN EL</w>
I lu
Hol oca
Hal lo
H ai
G l
F OR
En séñ
E F
Di os
Con stru
Com pr
Bu enas</w>
Britan nica</w>
BU J
BE R</w>
B AL
Asamb leas</w>
Apo los</w>
AN OP</w>
A z
A ma
A TA
8 0
3 5
2 14</w>
19 58</w>
1 22</w>
ó set</w>
ísi mo</w>
É ch
z an
yoʼ tik</w>
yi sim</w>
yaʼiy beyik</w>
xnaʼ bot</w>
x yilik</w>
x ya
x nichʼ
x kʼatpʼuj</w>
x chol
wayi bal</w>
w eb</w>
vol ví</w>
visi tó</w>
vide o
utsʼin ot</w>
uk xan</w>
u co</w>
tí tulos</w>
tsob el</w>
tsi tse
trib u</w>
tram pas</w>
tra goe</w>
te za</w>
ta qʼu
sé pti
suj e
stso tsel</w>
stsa kel</w>
so lamente</w>
snop beyel</w>
smukʼulin xan</w>
skoltay beyik</w>
sjelon tes</w>
si tic</w>
sec undaria</w>
se lec
se co</w>
schaj pajibal</w>
sbi luk</w>
sbakʼe talik</w>
revi si
revel ó</w>
reuni ó</w>
regular idad</w>
rebeli ón</w>
re vela</w>
ra íz</w>
pueb lo
prepar arnos</w>
prem io</w>
pox tayel</w>
po xe</w>
po so</w>
plen amente</w>
pl ani
pin tero</w>
pes ada</w>
perió dico</w>
per cibi
pens amiento</w>
pendi entes</w>
peda zo</w>
pareci ó</w>
pala cio</w>
oy ó</w>
or e
o qʼuel</w>
nor r</w>
ne as</w>
mu kel</w>
mostr aron</w>
mostr ando</w>
mi lele</w>
mens aj
me tal</w>
m ale</w>
lími te</w>
llen ar</w>
llam ente</w>
liter al</w>
limpi os</w>
la de
kʼux on</w>
kʼex lal</w>
kʼ ix
ku ar
kom el</w>
kilome tro</w>
ki ke</w>
kanantay bil</w>
kamigo in</w>
kal a</w>
jyanlume tike</w>
jichuk otik</w>
j tsʼih
j pʼijubteswanej</w>
integri dad</w>
in si
impres cin
imprescin di
il ust
ikʼ awan</w>
hor no</w>
físi cas</w>
fábr ica</w>
fortalec erá</w>
forma do</w>
fij ó</w>
fi a</w>
f undi
extraordin ario</w>
extranj ero</w>
eter no</w>
espesi al</w>
escri b
epi dem
electrón ico</w>
e oetik</w>
e kʼ</w>
dor mido</w>
doc tr
dob le</w>
dis cerni
di tos</w>
di ría</w>
di gi
demostr ando</w>
de lito</w>
dar lo</w>
cʼu xul</w>
cʼ ah
cube ta</w>
conoci da</w>
confir ma</w>
comen zar</w>
co st
ci dental</w>
chaʼoxpʼ alnax</w>
chaʼ cuxaj
car gas</w>
cal aba
cad ena</w>
ca ído</w>
c ep
c acʼ</w>
bási cas</w>
bre vemente</w>
biili letike</w>
bersi kulo</w>
benefici an</w>
be ju
bautiz aron</w>
ban j
ba han</w>
ayud aba</w>
au to</w>
atu untes
at han</w>
asist entes</w>
arr esta
ar ro</w>
ar e</w>
aqu ello</w>
anaʼ xan</w>
an se</w>
ambi a</w>
am á</w>
albor o
al an</w>
ajwal tike</w>
ajok in</w>
agu j
acer có</w>
a talel</w>
U STE
Thom as</w>
T í
S acer
S JEL
R ojo</w>
Prometi da</w>
PR EN
PAS E</w>
PA J
PA CI
Man d
Maestr o</w>
M O
Les li</w>
L an
K norr</w>
Ju lio</w>
Ju ez</w>
Jose ph</w>
Jerusal ene</w>
J ab
Entr e</w>
Eno c</w>
Eli ja</w>
E j
E banj
Dio son</w>
D U
D ANI
DANI EL</w>
Cre es</w>
CONTES TE</w>
B O
Apren damos</w>
Ale x
7 000</w>
6 07</w>
4, 8
200 7</w>
2, 6
2, 5
199 9</w>
1 16
ólo gos</w>
ín ci
égu ele</w>
yu tsʼ
yu l</w>
yo tʼan</w>
xju ʼe</w>
xchʼ ayotike</w>
xchʼ ay
xch ebe
x lokʼ
x le
x kanantay
wi kʼ
utili zan</w>
us ado</w>
uni do</w>
ue lo</w>
tí simo</w>
trabaj aba</w>
tra tando</w>
tori os</w>
tom aron</w>
tojobtes ele</w>
to kal</w>
to car</w>
tes otik</w>
tem b
te oe</w>
tay wan</w>
tari a</w>
tab les</w>
ta m</w>
ta jibal</w>
sy lvania</w>
swinik tak</w>
sw ayel</w>
stsʼumb alike</w>
stsʼibay bey</w>
stsa kot</w>
stoj ik</w>
spa kʼik</w>
sorpren de</w>
sman ik</w>
smam lale</w>
skʼu lejal</w>
skʼo tesik</w>
skʼ ej</w>
sk ejan</w>
sent ó</w>
segu í</w>
s pensar</w>
respon da</w>
res id
regres aron</w>
reaccion aron</w>
re t</w>
razon ar</w>
r y</w>
qued aba</w>
pʼiju ben
publika sionetik</w>
publik adoretik</w>
profeti zó</w>
produc tos</w>
pro tes
primog énito</w>
prepar ación</w>
pr ínci
pr isa</w>
plan o</w>
piens en</w>
permi tido</w>
perman ente</w>
oj tike</w>
nichi m</w>
naj tʼil</w>
n y</w>
n sylvania</w>
mu darse</w>
mem orasion</w>
man tienen</w>
m j
mj jkʼ</w>
lu s</w>
lle ve</w>
li kto</w>
levan tar</w>
lev adura</w>
le l
kʼajkʼ alil</w>
kʼa al</w>
kar taetik</w>
k aye</w>
jun ta</w>
ju stas</w>
jtuk eltik</w>
jtsʼin ab</w>
jtij beytik</w>
jpaj k</w>
jo tike</w>
jna ʼu
jelon em</w>
jel tayel</w>
ja p
ja ch
j tikun
inter pre
inten te</w>
instal aciones</w>
ig an</w>
i t
i letike</w>
hue vos</w>
hac h</w>
graf ías</w>
gobiern e</w>
g ani
g ales</w>
fortal eza</w>
fil oso
fal le
extraordin aria</w>
estre cho</w>
espo sos</w>
escu chan</w>
es tando</w>
es quina</w>
equivoc ado</w>
en os</w>
empi ezan</w>
em pa
em ike</w>
em an
du dar</w>
dok toretik</w>
di si
desanima dos</w>
des nu
des aparec
dej aran</w>
dej aba</w>
deci da</w>
crí ticos</w>
copi ar</w>
conv ic
conv ento</w>
conser var</w>
cono zca</w>
conflic tos</w>
con tamos</w>
con fí
comp l
cli má
celebr ó</w>
caus ado</w>
c res
bo txan</w>
bibli oteca</w>
ban ti
baj ar</w>
b óset</w>
aʼiy bil</w>
aʼ tel
awi h
ata ques</w>
apren den</w>
apa ra
anun sioetik</w>
anteri ormente</w>
alu mal</w>
aj ix</w>
ah e</w>
ah chʼal</w>
acti vo</w>
acercar nos</w>
abri r</w>
abati na
a tos</w>
a pe
a o</w>
a familiae</w>
Z im
UN I
Si me
S O</w>
S KUXLEJAL</w>
R ich
Per son
Pen nsylvania</w>
PAÍ S</w>
Ori ente</w>
O h</w>
Nuestr os</w>
Nichʼ anil</w>
M í
M ir
LI BR
Kʼu x
Kon memorasion</w>
K on</w>
K ON
Jeo bae</w>
Jehov a
Jac obe</w>
J PAS
Isra ele</w>
Imagin emos</w>
Hist oria</w>
Ha cia</w>
Esta ba</w>
E cu
D emo
Co ordin
B ur
A ust
A cʼa</w>
A BA
8 00</w>
6 ,000</w>
199 3</w>
19 88</w>
19 ,
15 ,
ín ti
á i</w>
z ando</w>
yuʼ ele</w>
yutsʼ inik</w>
yil ojik</w>
yichʼ tiklan</w>
yaʼiy botik</w>
yax al</w>
yal alilto</w>
y ik</w>
xw ay</w>
xojo bil</w>
xkʼo tike</w>
xbe h
x mu
wits tikil</w>
vi v
ver de</w>
utiliz ando</w>
tʼu l</w>
té c
tsitse letik</w>
titu lada</w>
tik i</w>
te kʼ
tay beyel</w>
t ora</w>
sw ocolic</w>
sw ocol</w>
sw ex</w>
so e</w>
sm eloj</w>
skʼu bulil</w>
skol el</w>
sjojkʼoy bon</w>
sjel olin</w>
sja chel</w>
sinc eras</w>
si embra</w>
si aetik</w>
ser i
se pan</w>
schan ebal</w>
sch opo
sch on</w>
s tamente</w>
s noj
s bon
s alg
resuci tados</w>
repres en
represen tantes</w>
reaccion ar</w>
re alista</w>
r oetik</w>
r aron</w>
qʼu etal</w>
quem ar</w>
qued é</w>
public ó</w>
prác tico</w>
proyec tos</w>
preocupa dos</w>
pregun taba</w>
pox etik</w>
portugu és</w>
pon ía</w>
pe tate</w>
pa ganda</w>
p ica</w>
os pi
or ro</w>
ofr enda</w>
oc é
nix tamal</w>
nichim etik</w>
nichi me</w>
ni v
necesi ten</w>
nac í</w>
mundi ales</w>
motiv ación</w>
moti va</w>
moso in
me xa</w>
mani f
man tenemos</w>
mamal alil</w>
logr é</w>
lo j</w>
li me
le en</w>
lan ik</w>
lan d</w>
lajun chajp</w>
l una</w>
kʼo tix</w>
kʼo j
kʼaʼ pal</w>
kʼat pʼu
ku adro</w>
kontra inele</w>
kichʼ oj</w>
kerem to</w>
kal bat</w>
kaj ik</w>
jw ix</w>
jtoj ob
jpas tikxan</w>
jnaʼ beytikxan</w>
jchʼuunej tik</w>
jaʼ etik</w>
j ile</w>
investig ar</w>
inten ciones</w>
inspir ación</w>
ing eni
in ido</w>
in dig
h áb
h n</w>
guerra e</w>
gi endo</w>
gi da</w>
ex p
estudi amos</w>
esc ena</w>
ermano etike</w>
enz imas</w>
enten día</w>
enten di
ene kʼ</w>
empe ño</w>
empe ñ
egoí stas</w>
efec tos</w>
eb an
diver siones</w>
dist ancia</w>
dij era</w>
dese ando</w>
des cans
dedic an</w>
deci rles</w>
deb o</w>
de tener</w>
cui dará</w>
cri ar</w>
cre encia</w>
cor reo</w>
convenci ó</w>
conven cer
conv inc
con sci
comunic arse</w>
compren de</w>
comi sión</w>
come temos</w>
col el</w>
co pa</w>
cil mente</w>
ci aetik</w>
chu jkʼu
ch am</w>
cere bro</w>
celebr an</w>
cal mó</w>
c aʼiy</w>
bu l
bon xan</w>
biluk etike</w>
beju co</w>
be enik</w>
bar koetik</w>
babil oni
b abu
awichʼ oj</w>
atoj olic</w>
at re
and ro</w>
an álisis</w>
an g
al i</w>
ador as</w>
adap tarse</w>
ac lar
ac c
abier tos</w>
aba h</w>
a xe</w>
a parte</w>
W I
Timo teoe</w>
Signific a</w>
San to</w>
Samu ele</w>
S ok
S mele
S ina
S hi
S PASEL</w>
Res puesta</w>
Pu edes</w>
Po dría</w>
Or gani
O s</w>
Ne h</w>
Mi s</w>
ME DI
M ayuc</w>
Lokʼ em</w>
KI CHʼ
K ajwaltike</w>
Jose fo</w>
Hallo ween</w>
H E</w>
Gom orra</w>
G REG
Chajp ana</w>
Centr o
CH ʼIL</w>
B ah
A TE</w>
A LE
A JA
28 ,
2, 7
2, 3
19 23</w>
énd oles</w>
yo chibal</w>
yil on</w>
yichʼ bey</w>
yi kʼel</w>
yaʼiy e</w>
yamigo in
yab enal</w>
y ermano</w>
y b
xcʼ oh
xbaj tʼ
x talix</w>
x jo
w 98</w>
visi tan</w>
vers al</w>
venci do</w>
ve hí
v ara</w>
utsʼin otik</w>
us aban</w>
uni ke</w>
u chʼ
tra ten</w>
tr aje</w>
toj o</w>
telebi sion</w>
tele fono</w>
tati letike</w>
tar ían</w>
ta pa</w>
ta cto</w>
suj totik</w>
suc eso</w>
stsa ik</w>
sti co</w>
st uk</w>
st on</w>
sk oj
sjok inotik</w>
sjojkʼoy beyik</w>
si ti
sch ah
sba kʼ</w>
salv ará</w>
sacerdo te
sa que</w>
s ín
s t</w>
s pʼijubtesel</w>
s canan
romp er</w>
rin am</w>
ri am</w>
resul te</w>
reliji onetike</w>
rechaz an</w>
re conocen</w>
publika sion</w>
pregun tado</w>
poli s</w>
pla ga</w>
pi do</w>
pi diendo</w>
peligr osa</w>
pedi do</w>
ped ía</w>
paso t</w>
organiz ar</w>
or idad</w>
olvi demos</w>
ol as</w>
oj tikix</w>
necesi tados</w>
ne gro</w>
n acer</w>
mé lec</w>
muchach os</w>
motiv ó</w>
mi da</w>
meti eron</w>
mencion ar</w>
men ores</w>
man bajel</w>
maj tamba</w>
m ía</w>
lá mina</w>
llu vi
li g
la e</w>
kʼajkʼ alel</w>
kʼah kʼe</w>
ku loetik</w>
koltay bilik</w>
kol tayaw
kil ojtik</w>
ki stán</w>
kalbey tike</w>
kal beyex</w>
jw eʼel</w>
jtsajtay wanejetik</w>
joʼ chajp</w>
jmulawi letik</w>
jlu mal</w>
jkʼo testik</w>
jkoltay wanej</w>
jkoj kʼ
ji pil</w>
jel otik</w>
j x
j tiʼ
j l</w>
j kʼope</w>
j kolel</w>
j chajp</w>
inv a
in justos</w>
impul sa</w>
imag ina</w>
ilan dia</w>
hur ac
hue vo</w>
hu mill
hu esos</w>
hormi gas</w>
histór ico</w>
gu al</w>
gri tó</w>
gr á
g ale</w>
fuérc ese</w>
fu ria</w>
franc és</w>
fon dos</w>
fic a</w>
esta bilidad</w>
escu elas</w>
erman aetik</w>
er ían</w>
enseñ aron</w>
enoj a</w>
encontr aba</w>
emocion antes</w>
el ul</w>
el nanix</w>
ejér citos</w>
disfru tan</w>
destru irá</w>
des esper
dej ando</w>
d ele</w>
cʼ an</w>
cuán tos</w>
cor tar</w>
continu ar</w>
consider aba</w>
cono zcamos</w>
con texto</w>
con tarles</w>
comun es</w>
compr a</w>
com prom
com prendi
com para</w>
cham eletike</w>
ch ul</w>
cer rado</w>
caus an</w>
cat á
carri tos</w>
calum ni
ca uti
c ana</w>
c all
bi luc</w>
bebi da</w>
ban dera</w>
babu e</w>
b era</w>
ay o</w>
aum entar</w>
atra ves
ap el
anima doras</w>
anichʼna bike</w>
an tas</w>
alter na
alegr ó</w>
alco h
al tura</w>
al em
al beyele</w>
akʼ bilik</w>
ajwali letike</w>
aj tayel</w>
aj ol
agrad an</w>
ad qui
actú e</w>
aconte cimientos</w>
ac es</w>
ab o
a pisi
a ge</w>
a fric
Zim babue</w>
Z el
YA ʼI
YA CHʼIL</w>
WINIK ETIK</w>
Uni ón</w>
Uni do</w>
U rías</w>
Tom ás</w>
TEM E</w>
Su rinam</w>
Se ol</w>
Sacer dote</w>
SJEL BON</w>
S ec
R O</w>
OBTEN IDO</w>
M ic
Kʼ ot</w>
Kom ite</w>
Kal beytik</w>
Jo pe</w>
Jich me</w>
Jer obo
Jer emiase</w>
Jehova hon</w>
J en
J OS
HER MAN
H oʼon</w>
F oto</w>
Est onia</w>
En contr
E X
E L
Di ana</w>
DE CI
DA DES</w>
CI AS</w>
Barzil ai</w>
B i</w>
B LO</w>
Aust ria</w>
Abiga il</w>
A li
A be
A DO</w>
9 00</w>
8 6
2 Pe</w>
2 39</w>
19 74</w>
ó ma
én donos</w>
Í n
yikʼ tiklan</w>
yikʼ onik</w>
yijkʼi tayel</w>
yi pi
yi like</w>
yi jka
yermano takik</w>
yal u
ya cuc</w>
xʼ aʼ
xwentain wanik</w>
xu j
xmukʼu bxan</w>
xkʼex aw
xjel aw
xch uc</w>
x takij</w>
x mo</w>
x kʼuxul</w>
x kʼu
vel as</w>
utsʼin ele</w>
ulaʼ tayel</w>
tu al</w>
tribun ales</w>
tri z</w>
tori as</w>
tor cida</w>
tom emos</w>
ten der</w>
te x</w>
tar las</w>
tal on</w>
tab let</w>
supli có</w>
su pi
su j</w>
stsʼ eh
stiempo ik</w>
sreligi onik</w>
spox il</w>
spi k
snuj pʼ
sna ike</w>
skʼin alik</w>
skʼ ay
si mil
shah chibal</w>
seña iletik</w>
senci llamente</w>
sel va</w>
segui do</w>
seg ú
schʼuun ej
schaʼ pasel</w>
sba j</w>
satisf acer</w>
san guí
s caj</w>
ru s</w>
roc ío</w>
ro bar</w>
ri endo</w>
reuni eron</w>
repar ar</w>
religi one</w>
rein ado</w>
reflej a</w>
refer encia</w>
realiz an</w>
qu í
pér dida</w>
pueblo hetic</w>
proteger nos</w>
progr eso</w>
profesi onal</w>
proclam ar</w>
proc edi
predic aban</w>
porno gra
pl as
peti ción</w>
pelí culas</w>
pas ara</w>
pa tri
pa mal</w>
pa kʼetik</w>
p ene</w>
p ale</w>
ot ol</w>
ot cotic</w>
or en</w>
or eja</w>
och ix</w>
nujpun on</w>
nuj pʼ
n an</w>
mu tetike</w>
mor imos</w>
mi ó</w>
me za</w>
mar e</w>
man sos</w>
lími tes</w>
lu h
llan to</w>
libr es</w>
le tra
lam aj</w>
l era</w>
kʼ etike</w>
kuxu lotike</w>
kil kotik</w>
kermano tak</w>
kaʼiy tike</w>
kat bal</w>
kam paña</w>
ka ts</w>
k ilel</w>
jʼaʼte jpa
ju es
jpat xujk
jojkʼoy beyel</w>
jnop e</w>
jmam alal</w>
jel onel</w>
jch inam
jbakʼetal tike</w>
j chamele</w>
inten tar</w>
inst ante</w>
ins cri
inclin ado</w>
imi tarlo</w>
i ris</w>
i jkʼ</w>
ho ja</w>
hch aj</w>
h lel</w>
golpe ó</w>
gaba onitas</w>
g lo
fir meza</w>
fi que</w>
expul sión</w>
es col
entr éguele</w>
ent err
enfrenta ron</w>
el uc</w>
el o
ed or</w>
ed entes</w>
e k
dé j
disfru temos</w>
disfru tarán</w>
discerni miento</w>
dis cul
di aria</w>
demostr aremos</w>
de fi
dar emos</w>
d ri
culpa bles</w>
cule bra</w>
cubier ta</w>
cre cen</w>
cor ru
coordin ador</w>
conta gi
conoc ían</w>
con stitu
compar ó</w>
com ente</w>
col um
cion tik</w>
cie gos</w>
ci ma</w>
chʼin onto</w>
chaʼox chajpuk</w>
caí da</w>
campa mento</w>
ca usar</w>
bu s</w>
bo tikxan</w>
bi lu
bi la</w>
be ltik</w>
awoʼtan ike</w>
aw okole</w>
aw eʼ
automóv il</w>
atoj olik</w>
asi on</w>
arreg lar</w>
arra str
ar gu
anunci ar</w>
ants inel</w>
alcan z
al kotik</w>
afir ma
ach e</w>
acep tan</w>
acab e</w>
acab aba</w>
ac oso</w>
a pu
a kʼotik</w>
Ya chʼil</w>
T SO
Su premo</w>
Sina í</w>
SA BER</w>
S kʼajkʼalel</w>
S MUKʼUL</w>
S LU
SLU MAL</w>
Pri mero</w>
PREGUN TA</w>
OS AS</w>
OR ACIÓN</w>
O fic
O b
Mor ris</w>
MI O</w>
KOLTAY EL</w>
Ja el</w>
JTA OJ</w>
JKʼ OP
EN TI
E du
D AS</w>
Cu r
Cam ino</w>
Bo az</w>
BU EN
BI LI
Alej andro</w>
AYI N</w>
AN TE</w>
A ST
A PASE</w>
8 9
5 0
4 3
2 50</w>
19 56</w>
17 8</w>
ʼ YU
íb amos</w>
á m
z acate</w>
yol oj</w>
yamigo take</w>
yakʼoj ix</w>
yakʼ xan</w>
y ol</w>
xnahin ic</w>
xbeen otik</w>
x meʼel</w>
wan ix</w>
w b
viol ento</w>
vi ética</w>
ven cer
vej ez</w>
utsʼin wan</w>
un ebal</w>
u se</w>
téc n
tuminchij etike</w>
tulan e</w>
tu mb
tsʼu bil</w>
tsʼi ʼ
tron co</w>
tranqui lo</w>
tra st
ti biltik</w>
te t</w>
tay oj</w>
tan ia</w>
ta etike</w>
sujtes ojix</w>
stul antes
sts ʼun
sts aʼ
stij beyik</w>
sorprendi ó</w>
snaj til</w>
sna j</w>
smu k
skʼin ul</w>
sk o
sinago gas</w>
ser ás</w>
scʼ ahcʼ
schʼuh unic</w>
schajpan oj</w>
sbi lukik</w>
san tific
salu d
sabi as</w>
s yu
s ne
ri r</w>
respon dieron</w>
rep enti
relacion ado</w>
reg oci
rebel ó</w>
re kuadro</w>
r ojos</w>
r ojo</w>
qui c</w>
prác ticamente</w>
pros é
prom e
prob ó</w>
pro hí
postu ra</w>
permiti rá</w>
pelí cula</w>
pec es</w>
pa gar
op ti
obedeci endo</w>
nuj p
nu mero</w>
nombr aron</w>
ni jkʼ
muer en</w>
muchísi mos</w>
mu e
mer ecen</w>
meca te</w>
man ej
ma xe</w>
ma taron</w>
m wb
luj ben</w>
lokʼ em
lo gra</w>
llev arse</w>
letra etik</w>
lej ana</w>
le ones</w>
la h
l inel</w>
kʼopo jan</w>
ko tses
kaʼiy beytik</w>
k la
k ab
jues etik</w>
ju gando</w>
jtul nax</w>
jtsaj taytik</w>
jts ak</w>
joʼ tak</w>
jmu kʼubtes
jkʼ ale</w>
ji j
jel aw
jchuk eletik</w>
jch eb
j em</w>
j cʼaxel</w>
j comentari
ixta ʼ</w>
ir me</w>
investig adores</w>
inoc ente</w>
inclu ir</w>
imagin ar</w>
ik me</w>
i cio</w>
hom bro</w>
hi li
habl emos</w>
gui ar</w>
gu era</w>
gi era</w>
ga ret</w>
g ober
g adas</w>
fas cin
far ero</w>
eʼ il</w>
exten dió</w>
expec tati
ex a
exa ger
escribi era</w>
equi pos</w>
enta y</w>
empez ado</w>
emocion ales</w>
el al</w>
ed en</w>
ech el</w>
dos cientos</w>
dis posición</w>
dio setike</w>
dig no</w>
dic cionario</w>
descu brió</w>
da ños</w>
d ney</w>
d nego</w>
curi osidad</w>
cumple años</w>
cui dando</w>
cuer pos</w>
cu antas</w>
cru eles</w>
cor ral</w>
conven i
consider an</w>
cono zco</w>
confi ando</w>
con sigue</w>
con junto</w>
compar ar</w>
col ores</w>
chon bajel</w>
ch aye</w>
cas amos</w>
carre tera</w>
cari ote</w>
capaci tar</w>
cambi an</w>
br ill
br il
bi o</w>
bi lat</w>
bayu knax</w>
bayal to</w>
bar ran
aʼi c</w>
ay ine</w>
awaʼiy e</w>
at xan</w>
ar ma</w>
aprendi eron</w>
ap un
amu ch</w>
amb as</w>
am ik
alma cen
alax axe</w>
ak anan
aj oy</w>
agra de
ad vierte</w>
acercar á</w>
acep tamos</w>
aba te</w>
ab eja</w>
a kʼo
Zel anda</w>
Yo vi
Y ah
Y AL
Wokol awal</w>
WOKO LIL</w>
Tsaj taya</w>
Tri b
Testigo uk</w>
TI V
T er
Sa gr
SU S</w>
SE GUN
SCH EBAL</w>
SA B
S oy</w>
S ol
S nichʼan</w>
Recuer de</w>
Re p</w>
RE INO</w>
Pu es</w>
Pad res</w>
PA Z</w>
P ʼu
P arte</w>
Ofic ina</w>
ON O
O tros</w>
NE H
NEH EMÍAS</w>
N ing
N i</w>
Mí riam</w>
Mar garet</w>
MA ʼYU
M ike</w>
L in
K il
Ju icio</w>
Jam es</w>
J on</w>
J naʼ
J amal</w>
J CH
Is cariote</w>
H A</w>
G re
G er
F amili
Escu che</w>
Es per
ESI OS</w>
EF ESIOS</w>
C osta</w>
B as
B OTIK</w>
AʼT EJ
Aʼ TE
Ayu demos</w>
Abe dnego</w>
AKʼ A</w>
A yix</w>
A cu
4, 7
4 5
16 5</w>
16 0</w>
1 18
ú a</w>
óli cas</w>
í na</w>
æ dia</w>
yin amik</w>
yaʼ tik</w>
yamigo inej</w>
yal be</w>
yakʼo jbat</w>
yakʼ ix</w>
yak alon</w>
ya ʼ</w>
xuh k</w>
xtal on</w>
xlo kʼat</w>
xkoltaywan at</w>
xiw ex</w>
xiw ele</w>
xi m</w>
xchaj paj</w>
xba h</w>
x ʼu
voluntari o</w>
vel oci
veloci dad</w>
vay amos</w>
uk on</w>
u sto</w>
tsʼu m
tsʼaj kʼ</w>
tsʼ akaj</w>
tsa bilix</w>
tranqui la</w>
tradi ciones</w>
toy bail</w>
tor mento</w>
tor ció</w>
ton iwan</w>
to ca</w>
ti vamente</w>
tes on</w>
tes bon</w>
terc ero</w>
ter api
tendr ás</w>
ten te</w>
ten dencia</w>
tem en</w>
te ar</w>
taj er
tajer jes</w>
t án
t un
t bol</w>
suger encia</w>
stʼu j
stsak on</w>
sti empo</w>
st ʼun</w>
spajk al</w>
som brero</w>
so me
smucʼu lin</w>
slum ale</w>
sle beyik</w>
skʼatp ʼun
skaj tajib</w>
sjuk ebal</w>
sist encia</w>
sirvi éndole</w>
signific aba</w>
si ri
ser vía</w>
sembr ado</w>
se y</w>
saduc eos</w>
sa kubel</w>
sa k</w>
s pensar
s nujpun
s lej</w>
s laban
ri v
respon den</w>
respe ta</w>
recuer dan</w>
ram as</w>
r genes</w>
r ada</w>
princip almente</w>
pres entan</w>
pregun témonos</w>
pregun tarse</w>
pi s
perten ec
pe z</w>
pastiklan bile</w>
pa xyal</w>
p ædia</w>
p leto</w>
or y</w>
on ales</w>
olvi dó</w>
oj beyik</w>
oh l</w>
ocu par</w>
obj eto</w>
ob ol</w>
nu h
niñ ito</w>
niv el</w>
naz are
nak lej</w>
n ic
n g
muchísi mas</w>
mu li
mostr amos</w>
minchi j</w>
medi o
me x
mak bil</w>
madr es</w>
m ár
m es
lv s</w>
loc alidad</w>
llev ara</w>
lleg aría</w>
libr oe</w>
levi ta</w>
lan etike</w>
l y</w>
l unes</w>
l ay
kʼ am
kuchʼ tik</w>
kanan tayotik</w>
kakʼ kotik</w>
k i</w>
jweʼ tik</w>
jojkʼoy bot</w>
jn aʼix</w>
jmulawil otike</w>
jfamili atike</w>
jcomentari otik</w>
jaʼ xanix</w>
ja p</w>
ja cha</w>
j paj</w>
j chu
ir ri
ir emos</w>
inmens a</w>
increí ble</w>
impresion antes</w>
im pida</w>
id entidad</w>
i jkʼ
htsʼ ine</w>
herm osas</w>
hered arán</w>
hal lar
hah ch
habi tación</w>
gu emos</w>
gu ajol
grab ación</w>
g no</w>
g aj
fier en</w>
fic ación</w>
f a</w>
ez er</w>
explicar le</w>
estr uc
enoj ó</w>
eli c</w>
ele kʼetik</w>
dificul tad</w>
desta car</w>
demostr arles</w>
def ini
declar ó</w>
d oetik</w>
cʼuxul taywanej</w>
cʼ ope</w>
có digo</w>
convic ción</w>
contes tar</w>
conmo vió</w>
concentr arse</w>
con temp
con taron</w>
con forme</w>
compañ era</w>
comba tir</w>
cobi ja</w>
chay etik</w>
cans ado</w>
ca fe
c ángel</w>
c es
c emos</w>
bolob en</w>
beteli tas</w>
bar r
bar cos</w>
awu ʼel</w>
awil al</w>
aw acʼ</w>
au mento</w>
ata car</w>
arrepenti rse</w>
ar mas</w>
apósta tas</w>
apren dan</w>
apoy amos</w>
apo sta
apaso j</w>
apaci ble</w>
alokʼ es</w>
al d</w>
akʼ bon</w>
aj oye</w>
abund ante</w>
ab ul</w>
ab or
ab ejas</w>
a prueba</w>
Ust edes</w>
UT ER
UTER ONO
UTERONO MIO</w>
USTE D</w>
So viética</w>
So bre</w>
SEGUN DA</w>
S TA</w>
PRE DI
PR OP
PI TULO</w>
PE DR
PEDR O</w>
No h
NACI MIENTO</w>
Mon te</w>
Mar k</w>
Mant en
M ali
KUX LEJA
KA PITULO</w>
Ju li
Ilu stración</w>
Holoca usto</w>
H an
Famili a</w>
Encyclo pædia</w>
E M</w>
DISCUR SOETIK</w>
DE UTERONOMIO</w>
Cu m
Con greg
Ch eʼ
Car ta</w>
CH Aʼ
C en
C ali
Bi stuk</w>
BIBLI OT
B e</w>
B anti
Atal ía</w>
Ar tajerjes</w>
Alab emos</w>
A ETIK</w>
7 ,000</w>
3 2
200 1</w>
20 2</w>
2 41</w>
1 40</w>
1 3,
ór d
órd enes</w>
óma go</w>
ár selo</w>
É ufra
Éufra tes</w>
yili mba</w>
yil beyel</w>
yichʼ beyel</w>
yi xta
ya kubel</w>
xpas bot</w>
xchʼ ayik</w>
x tʼu
x noj</w>
x noh
x lekub
x kʼa
x kol
wokol ayal</w>
woj ey</w>
w0 1</w>
w aj
vivi rá</w>
valor aba</w>
val le</w>
v ille</w>
uti na</w>
us en</w>
u tsilal</w>
tʼ ol</w>
tsu l</w>
tsaj tay
tsah taya</w>
trist es</w>
terremo to</w>
tar ra</w>
sur gir</w>
sufri eron</w>
su erte</w>
stu pʼ</w>
stsʼi jk</w>
stso bik</w>
sts ʼun</w>
stal elnanix</w>
spas botike</w>
solucion ar</w>
snu h
snaʼi kix</w>
snaʼ botik</w>
sn aba
sme ʼ
slajin beyik</w>
skʼo tesel</w>
sjo quin
sjam alel</w>
sj ole</w>
sir vamos</w>
silenci o</w>
si bles</w>
servi do</w>
sbah ik</w>
samari tana</w>
salu do</w>
salu dar</w>
sali da</w>
s yan
ro ca</w>
responder emos</w>
repres entan
relacion ada</w>
regular mente</w>
recibi rá</w>
re pasar</w>
re laj
ra dez</w>
r utina</w>
quisi eron</w>
qu inc
pun toetik</w>
pu lem
pu l</w>
pro xi
pod íamos</w>
po s
pla ti
perten ece</w>
per seguir</w>
pe gado</w>
partici pan</w>
pare jas</w>
p p</w>
p lu
oni ae</w>
on xan</w>
on ja</w>
om as</w>
ol vida</w>
odi ar</w>
o tuk</w>
o d</w>
nojptes wan</w>
nichʼ ane</w>
ni do</w>
n es
mé rito</w>
mu s
mu ros</w>
mu dó</w>
mon tón</w>
men sual</w>
medicam ento</w>
ma triz</w>
ma kal</w>
ma di
lum qʼuinal</w>
luj ben
llev emos</w>
ll orando</w>
lej alic</w>
le tos</w>
ladr ón</w>
kʼu knax</w>
kʼ i
ku m</w>
kotses tik</w>
kil in
kichʼ beytik</w>
kaʼbil altik</w>
k toe</w>
jujun chajp</w>
judi cial</w>
ju gu
joʼ tul</w>
jokin bil</w>
jchol kʼop</w>
jaʼ ex</w>
j ole</w>
in ix</w>
imprescindi ble</w>
im perio</w>
identific ar</w>
identific a</w>
háb lele</w>
hu yendo</w>
hu ele</w>
hab rían</w>
gran ja</w>
gol pes</w>
gobern ando</w>
fá cilmente</w>
fi bóset</w>
fal taba</w>
extra ñ
evi dente</w>
est ómago</w>
es to
er las</w>
entr aron</w>
entendi miento</w>
enseñ arnos</w>
enoj ado</w>
empu j
elem entos</w>
ech as</w>
ech ado</w>
docum ento</w>
di ente</w>
desper tar</w>
der á</w>
demostr arle</w>
deci rlo</w>
de udas</w>
dam érica</w>
d ada</w>
cʼu h
cʼah cʼ</w>
cʼ o
cux aj</w>
cu ad
cos taba</w>
corri gió</w>
cor te</w>
cor re</w>
contr ola</w>
consider ado</w>
consider ación</w>
consi ste</w>
consecu encia</w>
con vi
con tienen</w>
compren dí</w>
compar e</w>
cometi eron</w>
clar as</w>
chu jku
chopo lil</w>
chaʼox tu
car pintero</w>
cabal los</w>
c anci
bur go</w>
beyi kix</w>
bey tike</w>
benefici ado</w>
baj tʼu
baj ik</w>
ba k</w>
ayu kme</w>
ay one</w>
ay ex</w>
ata car
as a</w>
ar oe</w>
ar cángel</w>
ap ens
anun cio</w>
ani e</w>
angu age</w>
ami n</w>
am il</w>
am emos</w>
al oʼ
akʼan bey</w>
ador amos</w>
ad ónde</w>
ad mir
acu dir</w>
actu ó</w>
aconsej ó</w>
aconsej ar</w>
ac o</w>
ab ru
a turas</w>
a kil</w>
YU T
Tseʼ el</w>
Trib unal</w>
To das</w>
Ta ilandia</w>
TO Y
TI EMP
T ras</w>
Su damérica</w>
Sok nix</w>
S é</w>
S om
R U
Qui ero</w>
Pulem ale</w>
Pau lo</w>
Pas aik</w>
Pa kistán</w>
PREDI CA
PA LA
P UN
Ori ental</w>
O xchuc</w>
Nor te</w>
Nor te
Nopo l</w>
Nab ot</w>
N athan</w>
Me fibóset</w>
Mant én
Ma t
Ma di
Le ku
Le ah</w>
L anguage</w>
Kon g</w>
KUʼU NTIK</w>
KICHʼ TIK</w>
Jun uk</w>
JAʼ ATE</w>
Il awilik</w>
Hon g</w>
Hai tí</w>
HER MANOS</w>
Fr anci
Encyclo pedia</w>
Ecu ador</w>
E uti
Con oc
CON T
Bil l</w>
Babil oniae</w>
BEY XAN</w>
BAL UMIL
B ER
Al tísimo</w>
AYU DA
7 00</w>
5 5
29 ,
200 5</w>
10 000</w>
últi mas</w>
ó polis</w>
í smo</w>
yil onik</w>
yil ojibal</w>
yi ke</w>
yax inal</w>
yal bone</w>
yakʼ ike</w>
yakʼ bey
yaj chʼ
xʼ ah
xnoptsaj ik</w>
xma kot</w>
xkʼo on</w>
xch ebal</w>
x noptsaj</w>
x nam
x naj
x ko</w>
x jalaj
x hahch</w>
x bon</w>
wo tsʼ
voluntari as</w>
vol viera</w>
vivi eron</w>
viaj ó</w>
viaj ante</w>
ver ás</w>
ven der</w>
vari edad</w>
vac ío</w>
us cri
uni da</w>
tsʼ i</w>
tsʼ apal</w>
trans por
tr u
ton to</w>
tikun ot</w>
termin e</w>
terapi a</w>
tel as</w>
te ocrá
taqʼu in</w>
ta tic</w>
símbo lo</w>
superfici e</w>
su kur
stsʼi bayel</w>
stoy bail</w>
stiʼ ba</w>
spe h
spastiklan oj</w>
spasi c</w>
soci edad</w>
sme ʼe</w>
sma chi
slokʼ ib</w>
sku sel</w>
sku ch</w>
skontra takike</w>
skanan tayat</w>
sirvi entes</w>
sir vieron</w>
sinago gaetik</w>
ser vían</w>
segui remos</w>
se h
sbolob tes
sba bi
s mos</w>
s mo
ro di
rit mo</w>
ries go</w>
ri cio</w>
reún en</w>
rep enten
repenten ax</w>
recibi remos</w>
qui tar</w>
prohibi do</w>
progres ando</w>
prof undi
pro paganda</w>
privi le
pri oridad</w>
preocupa do</w>
predic ado</w>
preci samente</w>
practi car</w>
pornogra fia</w>
po sa</w>
pi ezas</w>
pi dá
pidá mosle</w>
persegui dos</w>
pekʼ elto</w>
pas ik</w>
pa tr
on ce</w>
obje tos</w>
nujp unike</w>
nijkʼ el</w>
neutr alidad</w>
nacion alidad</w>
na in</w>
mural las</w>
movi miento</w>
ministeri aletik</w>
mi se</w>
manten ga</w>
ll ó</w>
liber ar</w>
lengu as</w>
leku ke</w>
leku b</w>
lek ix</w>
le trero</w>
laj ibal</w>
kʼaʼ el</w>
kuxin ele</w>
kakʼ tike</w>
ka tse</w>
k tik</w>
ju go</w>
ju días</w>
jtu kel
jtsʼu mb
jtsak tik</w>
jteb xanix</w>
joy taybil</w>
jil bal</w>
jich bal</w>
ji ʼ
jchʼi elto</w>
jam ale</w>
ja m</w>
ja h
j kongregasi
j ex</w>
j abón</w>
iz quier
instru cción</w>
inclu idos</w>
in tenta</w>
in justo</w>
in fer
in fec
ilust raciones</w>
ik to</w>
igu ales</w>
i kʼotik</w>
hon rado</w>
hon radez</w>
hebre oetik</w>
habi do</w>
grati s</w>
gradu ados</w>
gr os
gen oma</w>
g énito</w>
fun ciones</w>
fra se</w>
fav or
f lu
f an
ex ili
eter namente</w>
esta dio</w>
esta ción</w>
específic as</w>
escuch arlo</w>
escuch amos</w>
envi di
ens as</w>
en caj
em el</w>
el u
ejecu tado</w>
económ ico</w>
eb alik</w>
e tes</w>
e tel</w>
dure za</w>
docum entos</w>
distribu ir</w>
direc ta</w>
di eci
destru idos</w>
desapareci do</w>
dej ara</w>
de volvió</w>
de primi
de pendi
dar an</w>
cʼ op
có lera</w>
cuán tas</w>
cu loe</w>
cu el
cu adro</w>
cri terio</w>
cre ados</w>
cre a</w>
cor por
converti rse</w>
conver tido</w>
conf es
conc ep
con siguen</w>
con mem
compa sivos</w>
com ete</w>
coloc ó</w>
colo ca</w>
clo pedia</w>
cion etike</w>
ci ta</w>
ci ento</w>
chʼu le
chʼ oj
chikin etik</w>
cheʼox ebnax</w>
chapal ukotik</w>
chapal otik</w>
chaj pajibal</w>
cerr ada</w>
celebr ación</w>
ce der</w>
car gando</w>
canci on
cali ente</w>
c aʼiy
bur las</w>
bra zo</w>
br u
br as</w>
bi cic
ber ia</w>
bendi ga</w>
bebi das</w>
barran co</w>
ban quete</w>
bah tik</w>
babiloni oetik</w>
aʼiy ot</w>
awil oj</w>
awi jkʼi
ati le</w>
ati j</w>
arrepi enten</w>
anim aron</w>
anim amos</w>
ani me</w>
amulan xan</w>
amam alal</w>
am arlo</w>
alu c</w>
alu b</w>
al la</w>
akʼ ane</w>
akoltay ik</w>
aj e
ad ministr
actu aliz
acti va</w>
abo gado</w>
abier to</w>
ab ur
a tʼ
a quer
a proxi
a ke</w>
YI P</w>
V ámonos</w>
V D</w>
U no</w>
Tar so</w>
TSO BLE
TI L</w>
Sam oa</w>
ST SEʼE
STSEʼE LIL</w>
S á
S lajibal</w>
S NAʼ
Re ina</w>
Pr onto</w>
PRES ENTA
OS O</w>
Mau ricio</w>
M eʼil</w>
M al</w>
LIBR O</w>
L aʼ</w>
Jes sica</w>
Jerobo án</w>
Jaʼ naxbal</w>
JOJKʼOY ELE</w>
J koltay
I gual</w>
Hab ía</w>
H anan
Gl oria</w>
Gala cia</w>
FU ER
Estudi anteetik</w>
Enseñ anza</w>
Eli ezer</w>
Ebanj eli
ER RA</w>
ENSEÑ A</w>
DON ACIONES</w>
D en
D VD</w>
D AN</w>
Con se
Col om
Cheʼ oxeb</w>
Ch risti
Centro américa</w>
Cajwal tique</w>
CO M
C OSAS</w>
C AR
Bay al
B l
Am érica</w>
Ad ri
AM A</w>
A la</w>
2, 8
2 12</w>
199 2</w>
ún icamente</w>
é c
Ú MER
ÚMER OS</w>
yok ik</w>
yil at</w>
yi pe</w>
yaʼ bat</w>
y et</w>
xnojptes wanik</w>
xkʼo tuk</w>
xchebe t</w>
xbe hen</w>
xaw acʼ</w>
xan ab</w>
x kakʼ</w>
x hil</w>
x awakʼ</w>
w ul
vuel ven</w>
vivi remos</w>
vi ernes</w>
vi enes</w>
vendi ó</w>
val en</w>
u btes</w>
tʼuj bilnax</w>
tʼ il
tuuntes ele</w>
tu untesa</w>
tsʼun bil</w>
tsʼu j</w>
tsobo lic</w>
tra temos</w>
tom ando</w>
tiʼ nah</w>
tic lam
ti kʼuknax</w>
ti jib</w>
ten bil</w>
te letik</w>
tay ame</w>
taj im
ta ul</w>
t le</w>
super a</w>
suced erá</w>
sua ve</w>
su premo</w>
su ero</w>
stsal otik</w>
stsa ʼ</w>
stojob tesel</w>
stij botik</w>
sti clam
st es</w>
st er
sna sion
skʼu lej
skʼayin beyel</w>
skontra take</w>
skom ik</w>
sigui eran</w>
si dia</w>
senci llas</w>
sec ciones</w>
schol botik</w>
salu dos</w>
s lek
s co
s ano</w>
ru mpi
res te</w>
recomien da</w>
re í
re confor
r ue
r te</w>
r emo
r culo</w>
quinc e</w>
pusi era</w>
pukuj etike</w>
provoc ó</w>
proteg erse</w>
prepar ando</w>
pre dicho</w>
pon go</w>
plan e</w>
pla za</w>
perdon ado</w>
per ju
pe t</w>
pe cho</w>
pat naj</w>
pas beya</w>
parec ían</w>
par ada</w>
p ʼul</w>
p into</w>
oscu ridad</w>
organiz ada</w>
ora uknax</w>
or é</w>
on dr
ofic ina</w>
ofendi do</w>
océ ano</w>
oc ote</w>
oblig ación</w>
ob vio</w>
o culti
nor malmente</w>
nojptes ele</w>
no vio</w>
ni eve</w>
necesi to</w>
neces ariamente</w>
nail ale</w>
na te</w>
na etike</w>
n ace</w>
mukʼu b</w>
molé cula</w>
mision era</w>
mir ó</w>
mi gr
meʼ ele</w>
mem ente</w>
medicam entos</w>
may or
mar tes</w>
mar cha</w>
mand amiento</w>
man go</w>
majtʼ ani
lo qʼu
levan ta</w>
le che</w>
le amos</w>
la var</w>
la tín</w>
kʼin ike</w>
kerem etike</w>
kakʼ xan</w>
ka pel</w>
ka kan</w>
k antel
jweʼ eltik</w>
ju sta</w>
jte hk
jman tik</w>
jkʼ ases</w>
jkanan tuminchij</w>
jij panel</w>
ji h
jbiluk tik</w>
jaʼ naxme</w>
jay ebix</w>
ja chel</w>
j olol</w>
j loʼ
j et</w>
inter nacionales</w>
intelig entes</w>
inju stamente</w>
in tik</w>
in di
il los</w>
hich uc</w>
hi pó
haʼ bil</w>
h anie</w>
h ana</w>
guar dar</w>
gri tos</w>
grani zo</w>
graba ciones</w>
gr o
furi oso</w>
fr ía</w>
fortal ez
facul tades</w>
f ara
exc eso</w>
estudi e</w>
estu ve</w>
estre lla</w>
esco gidos</w>
entr a</w>
ent era</w>
enseñ aban</w>
enfr ente</w>
enci ales</w>
en ce</w>
empi ece</w>
emo ción</w>
ele kʼe</w>
ejer ce</w>
edi ficar</w>
ec erá</w>
e un
divers os</w>
divers as</w>
distin guir</w>
dis positivo</w>
dilu vio</w>
di dos</w>
di das</w>
des pi
derram ó</w>
der ri
demuestr en</w>
dec er</w>
de quiera</w>
dad or</w>
cʼ om
cui dan</w>
cuesti on
cu xul</w>
cre ce</w>
cor té</w>
cor responde</w>
cor on
continú a</w>
comprom iso</w>
co ti
cigar roe</w>
ci f
chic an</w>
caus ó</w>
car ros</w>
cap tur
can di
calaba za</w>
caj as</w>
c l</w>
bol sa</w>
benefici arse</w>
benefici arnos</w>
bendeci do</w>
awaʼiy oj</w>
awakʼ bon</w>
aw el
aver gon
asesin ato</w>
ar ka</w>
apasi c</w>
angusti ado</w>
an ope</w>
alaj in</w>
alab anzas</w>
al dea</w>
al am
akʼ ases</w>
aj oʼ
aj ol</w>
aj kʼol</w>
aj el
acu saciones</w>
abatina t</w>
ab akʼ
Z ambia</w>
Z O</w>
Ya katbal</w>
Y O</w>
X chʼul</w>
WOKO L</w>
Ver sión</w>
V en</w>
Ti empo</w>
Ten go</w>
TU L</w>
T si
Ser món</w>
S ó
S ue
S cʼop</w>
S MO</w>
S MA
Rich ard</w>
Res umen</w>
Prepar emos</w>
Pi sidia</w>
POR TADA</w>
PERSON AS</w>
P am</w>
No ta</w>
N ÚMEROS</w>
Man uel</w>
Madi án</w>
MEDI TAR</w>
M uestre</w>
M aniwan</w>
Lo u
LI DA</w>
LA J</w>
L ah
L ESI
K onik</w>
Jpas tik</w>
Jo ven</w>
Jac k
JPAS TIK</w>
JOJKʼOYELE TIK</w>
I BAL</w>
Ge or
G hana</w>
G AR</w>
Feli sa</w>
Euti co</w>
EC A</w>
E len
Dom in
D O
CU ANDO</w>
C CIÓN</w>
Bil dad</w>
Bas ado</w>
Baj os</w>
BIBLIOT ECA</w>
Anal icemos</w>
Anal ice</w>
An na</w>
AJ W
5 9
4 6
20 8</w>
2 11</w>
199 1</w>
19 76</w>
17 4</w>
ü e</w>
ín as</w>
í s</w>
ánd ome</w>
Éch ale</w>
yu k</w>
yi p
yaʼiy bat</w>
yal ele</w>
y e
xʼ aʼbot</w>
xuj ke</w>
xpu jk</w>
xmaj awan
x il</w>
x awaʼbe</w>
x anichʼ
wanej etic</w>
vícti ma</w>
volver á</w>
visi tantes</w>
vi ga</w>
ver án</w>
ver siones</w>
ver duras</w>
ven g
vas o</w>
v or</w>
v ano</w>
tso l</w>
ts ele</w>
trabaj ó</w>
tojol nax</w>
ti z
ti tud</w>
ti onal</w>
ti lel</w>
teʼ etike</w>
tes be</w>
tes at</w>
terrestr e</w>
te buk</w>
tayi c</w>
sw o
sur gió</w>
sujtes oj</w>
stsa kat</w>
sta ike</w>
st ro
sman dar</w>
slaj unebal</w>
skʼopon otik</w>
skuy oj</w>
si x</w>
ses enta</w>
scʼahcʼ alel</w>
scontra hin</w>
sch i
sch apo
sbankil take</w>
saduc eoetik</w>
sab roso</w>
s kah
s bo
rí os</w>
revel an</w>
res ist
repu g
representan te</w>
renunci ar</w>
reg ist
recor rer</w>
reco ger</w>
rechaz aron</w>
re v
re le</w>
re conocimiento</w>
qued ara</w>
pun ti
pudi mos</w>
provoc ado</w>
prote ínas</w>
produ cti
posesi ones</w>
pobre il</w>
pob lación</w>
perju dic
pe qʼuel</w>
pastiklan beya</w>
pasti zal</w>
pas é</w>
pas en</w>
pas aría</w>
pa dos</w>
pa da</w>
oí dos</w>
or ado</w>
op ciones</w>
ol on
oj an</w>
ofr endas</w>
oculti smo</w>
ocu pa</w>
oc orro</w>
oc ol
ober ano</w>
obedec erle</w>
nuj kul</w>
noti ciaetik</w>
nopo lxan</w>
nombr ados</w>
ne g
naʼ biluk</w>
naj t</w>
na h
n er</w>
mu tu
mostr arle</w>
mon edas</w>
moder nos</w>
mere cida</w>
medi tando</w>
medi tamos</w>
mand ari
majtʼani letik</w>
maj anel</w>
maestr a</w>
ma da</w>
lágri ma</w>
lluvi as</w>
llev en</w>
llev ando</w>
lle vo</w>
li ta</w>
li cto</w>
le bi
lamal kʼinale</w>
la go</w>
l om
l alic</w>
kʼu lej
kʼix in</w>
kuxaj tike</w>
koltay wan</w>
ki lix</w>
k etik</w>
k erman
k e
jw eluk</w>
jtsʼumb altik</w>
jtoy ba</w>
jpisi l
jpat beytik</w>
jpaso jtik</w>
jnichʼ nab</w>
jlekub tes
jkʼ inale</w>
jk an</w>
jchʼuunej tike</w>
jch on
jch in</w>
jbah tik</w>
j can
jcan an</w>
izquier da</w>
interes ado</w>
insul tos</w>
influ ya</w>
in merecida</w>
im pide</w>
ilu sión</w>
ilu min
ili ke</w>
il bilik</w>
il beyel</w>
ikʼ bot</w>
ijka tsil</w>
ichʼ jaʼe</w>
ic ʼ
human i
hu c
htsʼ an</w>
ho mi
hi po
haʼ ex</w>
hall ado</w>
gener ación</w>
funcion ario</w>
fru tas</w>
f lo
experi enciaetik</w>
exig e</w>
ex cu
especi alista</w>
esi a</w>
escri bas</w>
esc oja</w>
er ón</w>
er é</w>
equilibr ada</w>
enter aron</w>
ent revi
enfr enta</w>
encarcel ado</w>
en agua</w>
egipci oetik</w>
ech aron</w>
divor ci
distin to</w>
distin ta</w>
der r
dej aremos</w>
defendi ó</w>
debi eron</w>
de bilidad</w>
cumpli era</w>
cru zar</w>
cor ona</w>
copi as</w>
conveni ente</w>
congrega cion</w>
confir man</w>
conf licto</w>
com probar</w>
com e</w>
ci ego</w>
chi tam</w>
chaʼcuxaj el</w>
ch o
ch et</w>
centr arnos</w>
caus as</w>
cas co</w>
car rito</w>
cancion ero</w>
cad enas</w>
br us
bili ke</w>
bil on</w>
bi letik</w>
bi kʼ
besti as</w>
be lle
be he</w>
bas an</w>
ban kil
bal uneb</w>
b é
ayud arla</w>
au men
aten der
ata ke</w>
arro di
aprovech ó</w>
anima j</w>
analiz ará</w>
an z
ampli ar</w>
alim enta</w>
alem án</w>
aj kʼot</w>
aj a</w>
agu ay</w>
afloj ó</w>
ador ando</w>
acom o
ac emos</w>
abandon ó</w>
a preci
Z e
Z AR
YOʼTAN IK</w>
W inst
U nos</w>
Te ocrá
TIEMP O</w>
T oj
T emp
T atile</w>
T SA
Si ón</w>
Sec ción</w>
S plane</w>
S ocorro</w>
S oberano</w>
S hun</w>
S KʼUXUL</w>
S JOJKʼOY
Rub én</w>
Ru te</w>
R an
R a
Par aguay</w>
P á
P ap
Organi zación</w>
Nopo lix</w>
No p
Ne w
NUESTR O</w>
NOJPTES WANEJ</w>
Mar tin</w>
MAʼYU K</w>
MA BA</w>
M UN
M ON
M EL</w>
LA MAL
L y
L oh
Jer sey</w>
J or
J CHʼI
J CH</w>
I chʼa</w>
H ospi
G I
Fran z</w>
For tal
FOT O</w>
Et hel</w>
Ent re
Deb ería</w>
D anos</w>
Cre ta</w>
Constru cción</w>
Colom bia</w>
CU I
C ari
Apren da</w>
An ci
Ami gos</w>
Al go</w>
Ac ep
A w
3, 3
3 6
2 22</w>
199 4</w>
19 8</w>
19 75</w>
19 57</w>
17 2</w>
16 7</w>
10 ,000</w>
ʼi n</w>
ó so
é sti
é pocas</w>
é i</w>
Á r
yu tsilkʼop
yotʼ anik</w>
yi le
yaʼte lic</w>
yan ax</w>
yakʼ beyex</w>
yajw ale</w>
ya ke</w>
ya chʼi
y era</w>
xʼ ayin
xnoptsaj atxan</w>
xlaj in
xlaj ike</w>
xcʼ opo
x yalik</w>
x yaku
x on</w>
x ni
x kanantayotik</w>
x ej
x cuxaj
x al</w>
wokol xan</w>
wan at</w>
visi taron</w>
ve dad</w>
uni versal</w>
u ra</w>
tu pʼ
tsʼ al</w>
tseʼ elxan</w>
ts al</w>
trata mientos</w>
tras lad
traduc toretik</w>
tra en</w>
tonel adas</w>
ton o</w>
tol er
to h
to c
ti rar</w>
testigo onkotik</w>
territori oetik</w>
te ando</w>
t son</w>
t kotik</w>
swin kilel</w>
sut bot</w>
sur gen</w>
sucedi do</w>
su st
stukel nax</w>
stu mbre
stikun bey</w>
sta r
sreliji onik</w>
spa jal
sorpren dente</w>
son risa</w>
so ñ
snichʼ anik</w>
sni ʼil</w>
sni jan</w>
sle kilal</w>
sle kil
skʼayoj tayik</w>
skʼan xan</w>
skoltaya te</w>
skoltay ojotik</w>
skaj tijib</w>
signific ar</w>
ser é</w>
senti rme</w>
senten cia</w>
selec cion
se quía</w>
scʼopon el</w>
schʼuunej ike</w>
schap ik</w>
sbe h
san tu
samaritan os</w>
s ho
revisi tas</w>
resuci tará</w>
repug n
rein ar</w>
reci entes</w>
re ver
ra bia</w>
qʼu ex
qu inas</w>
públi camente</w>
pú r
pájar os</w>
pu xub</w>
promo ver</w>
produ cción</w>
proba do</w>
privile gios</w>
pri ori
priori dades</w>
prepar ada</w>
preocupa ción</w>
pren da</w>
pregun tarle</w>
pr estar</w>
pr esta
pi o</w>
peti ciones</w>
perten ecer</w>
peri odi
pel o
pe z
pe ores</w>
pe lea</w>
pas emos</w>
pas bot</w>
paj alik</w>
pa ga</w>
or as</w>
or an</w>
or ador</w>
ondr es</w>
odi an</w>
ocurri r</w>
obser v
nujpun otik</w>
nor oeste</w>
nichʼ anil</w>
ni h
muestr as</w>
mu lel</w>
mo che</w>
mil bil</w>
mesi ánico</w>
men e</w>
me tido</w>
mayor dom
maestr oetik</w>
ma y</w>
ma taran</w>
m uni
m ica</w>
lá m
lu chan</w>
lokʼ esa</w>
lo y
liber ación</w>
li co</w>
levi taetik</w>
le o</w>
las f
la to</w>
l ay</w>
l al
kʼu ʼu
kʼay emon</w>
kʼaxem to</w>
kʼajkʼ el</w>
ko lik</w>
ki ta</w>
ki kʼ</w>
ki jtsʼin</w>
kax lanetike</w>
kalbey kotik</w>
k ri
k oj
k er</w>
k bankile</w>
jun xan</w>
jue gos</w>
judi oil</w>
ju ltes
jta kʼin</w>
jkʼulej etik</w>
jkʼayoj taytik</w>
jchah p</w>
jaʼ mal
j lej
j bankile</w>
ir nos</w>
invi tado</w>
invi sible</w>
inesper ado</w>
indef inido</w>
inclu yó</w>
inclu ido</w>
in ta</w>
in gr
impresion ó</w>
imperfec ciones</w>
im par
ili x</w>
igu al
ig lesias</w>
ichʼ otik</w>
i sta</w>
i jkʼu
hi ji
h taj</w>
h o</w>
h an
gu es</w>
gig ante</w>
gan arse</w>
gan ando</w>
funcion arios</w>
fr acciones</w>
for nia</w>
fil óso
fic o</w>
fi lo</w>
f os</w>
f es</w>
expres ó</w>
ex presa</w>
eun uco</w>
estudi a</w>
est ó</w>
est es</w>
escuch aron</w>
esco ge</w>
es ik</w>
er ro</w>
equivoc adas</w>
equi vo
epidem ias</w>
eng or
enfer m
encu ad
encar gará</w>
en du
em ic</w>
eli kto</w>
ej inan</w>
egip cio</w>
edi tado</w>
ed re
ec in
don ación</w>
domin ar</w>
dom ésti
doc e</w>
disi embre</w>
dis te</w>
dic es</w>
di fundi
dese e</w>
descendi ente</w>
depor tes</w>
dedic a</w>
d ándoles</w>
d s</w>
cumpli ría</w>
cuenta hin
cres ía</w>
cre an</w>
cor rer</w>
convirti eron</w>
conven ce</w>
contribu yen</w>
contribu ye</w>
consi go</w>
con tarle</w>
compa raciones</w>
com uni
com pe
co lec
ci das</w>
chʼujte ʼe</w>
chʼ ayik</w>
chuk ele</w>
chiknaj uk</w>
chi je</w>
chap alik</w>
ch aj</w>
cafe tal</w>
bus caba</w>
bu htsʼan</w>
bos que</w>
borra chos</w>
bol kʼop</w>
biluk nax</w>
bicic leta</w>
bibli as</w>
beteli taetik</w>
be lat</w>
be hetic</w>
bayu c</w>
bas adas</w>
bar ca</w>
bah em</w>
bah e</w>
ba kʼet</w>
b lasf
aʼiy bot</w>
aya te</w>
awili c</w>
awil bey</w>
awa kʼoj</w>
ats al</w>
ati vo</w>
aten tos</w>
aprendi mos</w>
apo yó</w>
apasi ke</w>
ant é</w>
anima do</w>
and ra</w>
anci an
an tec
an hel
am be</w>
am ante</w>
ali smo</w>
alcan za</w>
ala tak</w>
al tas</w>
aj u
afec tar</w>
achʼ am</w>
acel i</w>
ac á</w>
ac a
abu so</w>
abier tamente</w>
abandon ado</w>
ab ol
a tor
a tamente</w>
a fuera</w>
Yovi dón</w>
YI CHʼ
Y ox
Winst on</w>
Val era</w>
V ic
Tu t</w>
Te y
TZ E</w>
TOY OL</w>
TA D</w>
T ok
Segu ro</w>
SIGUI ENTE</w>
SER VI
SA B</w>
S no
S jun
S ar
RA Z
Person alidad</w>
PRESENTA CIÓN</w>
PE RI
PA SI
O tro</w>
Na dia</w>
NE T</w>
Me dic
MI RA</w>
MAJ TAN</w>
MA ME</w>
M ayukix</w>
Le ye</w>
Lamenta blemente</w>
LESI AST
LESIAST ÉS</w>
L ondres</w>
Ju sti
Jack son</w>
Jab ín</w>
JAʼ BIL</w>
JA ʼU
J SI
INTER NET</w>
I BA
IBA LETIK</w>
Her d</w>
H amán</w>
Geor gia</w>
Gali ón</w>
Es lo
Eli ase</w>
ER A</w>
EC LESIASTÉS</w>
Dios at</w>
Der echos</w>
DESP U
D on</w>
D o
D ec
Cʼ op</w>
Con fi
Cat ólica</w>
Cari be</w>
Car ol
Cali fornia</w>
CU Á
CU ER
CO R</w>
C entro</w>
C LA
Bo x</w>
Bo oz</w>
Bibli as</w>
Ben ín</w>
BEY EL</w>
BE YA</w>
BALUMIL AL</w>
AʼTEJ IBALETIK</w>
Ar aceli</w>
An d
Ale xan
A suero</w>
A provech
A la
7 9
4 4
3, 0
28 8</w>
19 89</w>
19 54</w>
19 41</w>
17 6</w>
yochin tayik</w>
yih qui
yaw al</w>
yam akʼ
yal ojik</w>
yaku be
yak ex</w>
xpu h
xna inik</w>
xiw on</w>
xcʼoh ex</w>
xcu sticlam
xcusticlam bot</w>
xchʼ oh
xch oj
x chamel</w>
x M
xM ale</w>
wini que</w>
wa yal</w>
w ol</w>
w elta</w>
w 89</w>
voc es</w>
viol enta</w>
vigil antes</w>
vi gi
ver la</w>
ven ado</w>
vac ía</w>
v enta</w>
u ʼun
u tsilkʼop
u m</w>
términ os</w>
té li
téli te</w>
tsʼumb aliletik</w>
tsʼ il
tsi le</w>
tsak bilik</w>
ts ik</w>
ts a</w>
tradu cido</w>
tiʼ nail</w>
tir ada</w>
tem per
ta ji
ta dor</w>
sue gra</w>
stuk elike</w>
stu h
stojob tesik</w>
sto yolil</w>
spuk bey</w>
slam antes
skʼan ix</w>
skʼan ikxan</w>
skon tra</w>
sjo quin</w>
sigui era</w>
señ ores</w>
sesi ón</w>
senti rán</w>
segú rese</w>
scuenta hin
scol tay</w>
scheb ale</w>
saserdo teetik</w>
sanguí neas</w>
sali do</w>
sal etik</w>
sab erlo</w>
sa télite</w>
sa k
s ʼ
s lokʼomba</w>
s kax
skax aul</w>
s car
rode ado</w>
ri f
reuni rnos</w>
resal tados</w>
regu lares</w>
regi ones</w>
refi rió</w>
redu cir</w>
recuer den</w>
recuad ros</w>
rebel des</w>
realiz ó</w>
re to</w>
ra e</w>
r estric
qʼu et</w>
qui tarse</w>
qued aban</w>
que za</w>
pá rese</w>
prínci pes</w>
program aetik</w>
prof é
pri vado</w>
pregún teles</w>
pregun té</w>
pre fieren</w>
post eri
pon erlo</w>
poli siaetik</w>
podr ás</w>
plas ma</w>
pier da</w>
parti ó</w>
pajal otik</w>
p esta
opon en</w>
ofi sin
obedeci eron</w>
obedec ían</w>
obede zcan</w>
nub es</w>
necesi tábamos</w>
naʼ ame</w>
nax niwan</w>
nain em</w>
na sione</w>
molde ar</w>
mist erio</w>
meʼ mute</w>
mez c
me te</w>
mater na</w>
manej ar</w>
man uscri
man u
man ojos</w>
man ia</w>
mal di
mak ina</w>
machʼa uk</w>
m esti
llev ará</w>
llam aron</w>
lla ve</w>
li bera</w>
levan tada</w>
le cuc</w>
lan bey</w>
lam enta
ladr ones</w>
l en</w>
kʼo emix</w>
kʼayoj iletike</w>
kontrain ot</w>
kom pleto</w>
kol taya</w>
kaʼiy oj</w>
kaʼiy kotik</w>
kaʼ be</w>
kax lan</w>
kar o</w>
kan an</w>
kamigo taktike</w>
k ej
juʼ ix</w>
jujun tule</w>
ju b</w>
jtu le</w>
jtu h
jte bu
jpa six</w>
jpa pae</w>
jnopoj ele
jnaʼ oj
jna tike</w>
jkʼ ej</w>
jkanan tuminchijetik</w>
jil al</w>
j pun
ir ían</w>
inunda ciones</w>
inti mi
inten tan</w>
insi sti
inquie tudes</w>
inmedi atamente</w>
inam arca</w>
in ae</w>
ilin ba</w>
ik niwan</w>
hon ran</w>
hipo cresía</w>
herman oe</w>
habl aron</w>
gui tarra</w>
guar dia</w>
gobier na</w>
gi miendo</w>
garanti za</w>
gar ant
garant ía</w>
g ica</w>
fron tera</w>
fr ases</w>
fon os</w>
fom entar</w>
fij arse</w>
esta rían</w>
esforz ándonos</w>
escuch é</w>
escri ba</w>
escon dió</w>
erman aetike</w>
er al</w>
equi val
en lace</w>
en f
en ale</w>
efic az</w>
efec tu
ech an</w>
e der</w>
e da</w>
du raz
dro gaetik</w>
dr emos</w>
doctr ina</w>
disfru tando</w>
diseñ ó</w>
dis creto</w>
dij imos</w>
digi tal</w>
di chas</w>
di ag
desta que</w>
describi ó</w>
der rum
demostr ará</w>
dej arse</w>
deci ó</w>
de uda</w>
dañ ar</w>
dar te</w>
dad os</w>
da te</w>
d al
cí rculo</w>
cuer das</w>
cuch illo</w>
cu l</w>
condi ción</w>
conclu ir</w>
compa ti
comer ciales</w>
comer cial</w>
com unidades</w>
com partir</w>
colum nas</w>
col gada</w>
cion ik</w>
ci eron</w>
chap el</w>
ch in
ch aw
ch ar
ch al</w>
ch ab</w>
cel da</w>
castig ó</w>
capaci dades</w>
can tando</w>
ca í</w>
c aʼbat</w>
brill ante</w>
belle za</w>
bautiz arme</w>
barco e</w>
ba ile</w>
b lu
aʼteji ke</w>
aʼte jat</w>
az aroe</w>
awal beyik</w>
aw aʼiyi
atu quel</w>
atsʼ am</w>
ata da</w>
asist encia</w>
asiri os</w>
asig nasion</w>
asi tin
arrog ante</w>
arran car</w>
apren día</w>
anima da</w>
anim alnax</w>
amulan e</w>
alim entar</w>
ale ʼ</w>
al bote</w>
akʼu ʼe</w>
agradeci da</w>
ador emos</w>
acʼ ob
acus aron</w>
acus ado</w>
ac aban</w>
absolu to</w>
abi ile</w>
abati ni
a u</w>
a se
a kongregasion</w>
Yo ung</w>
X u
X A</w>
W ENTA
VI G
VIG IL
US AMOS</w>
U TI
Tseʼ ejinan</w>
Tim or</w>
Temp loe</w>
Sjun al</w>
Ser ge</w>
Seg undo</w>
Santi dad</w>
Sab er</w>
SJOJKʼOY IK</w>
S ant
S LAJ
Ru anda</w>
Re cuerda</w>
Qui ere</w>
Pulem al</w>
Pro gr
Pal esti
OR T</w>
Na cional</w>
N ah
N A</w>
Maestr os</w>
LAMAL KʼINAL</w>
L azaroe</w>
L am</w>
K anan
Jor dan</w>
Je l
Jaʼ to</w>
JU EC
J NAʼ
Invi te</w>
IMPORTAN TES</w>
I kʼa</w>
I chʼ
Hu manos</w>
Ha ga</w>
H om
H arán</w>
F er
Ex pli
Entre tenimiento</w>
Edi ficio</w>
Dic cionario</w>
DESPU ÉS</w>
D inamarca</w>
D ina</w>
Cur so</w>
Cu enta</w>
Ch an
Cen creas</w>
CI O</w>
C ajwal</w>
Be tele</w>
Ba anik</w>
ANZ A</w>
ANAʼ BEYXAN</w>
AN A
AL TIK</w>
A PREN
6 5
3, 8
3 4
2 26</w>
2 21</w>
199 5</w>
19 85</w>
19 52</w>
18 0</w>
0 0
ín te
ér qu
ã o</w>
É N</w>
yi jtsʼinab</w>
yaʼiy ojik</w>
yaʼ el</w>
yamik otak</w>
yamik o
yamakʼ ul</w>
yakʼ bon
yak otikix</w>
xya hl</w>
xu tʼ
xtulan u
xta ʼ
xkʼax e</w>
xkʼ ayik</w>
xi me</w>
xcʼ opoj</w>
xch oh
xch ic
xbeh en
xba tsʼ
x wok
x toj
x kol</w>
x col
x chiknaj
w16 07</w>
w n</w>
w al</w>
w 95</w>
volver ía</w>
viaj aron</w>
vi amente</w>
vendi eron</w>
ven go</w>
vali ó</w>
vac as</w>
v áli
uni génito</w>
ue ve</w>
tsʼibay ele</w>
tsajtay biluk</w>
tsah bil</w>
tsa k</w>
trá ete</w>
tri un
tra tados</w>
tr en
tr aj
tom en</w>
teʼ tikil</w>
tey me</w>
te oría</w>
taj tik</w>
ta c</w>
t alal</w>
símbo los</w>
sway ich</w>
supervi sa</w>
supervi s
sukur sal</w>
suj tesel</w>
suj otik</w>
su alidad</w>
stuuntes oj</w>
stsa ko
stojil uke</w>
sta kʼinike</w>
sta e</w>
spʼi jile</w>
spas xan</w>
spa te</w>
spa pa</w>
spa j
solici tar</w>
sol tero</w>
so etik</w>
snojptes onik</w>
snichʼ an
snaʼi x</w>
snaʼ be</w>
snaʼ bat</w>
snaba teʼ</w>
smaj tan
slokʼ tayik</w>
slo qʼu
slekub tesbey</w>
sle tra
sla poj</w>
skontra takik</w>
skom otik</w>
sjakʼ botik</w>
sja ch
sj in
sinc eros</w>
simil ar</w>
si tay</w>
si as</w>
ser lo</w>
scuenta hil</w>
sa h
s tan</w>
s pʼijub
spʼijub tes</w>
s cu
s ame
ru ta</w>
reun ían</w>
rela ta</w>
re pe
ra dic
r los</w>
r amos</w>
qʼu ex</w>
qui tó</w>
qued arnos</w>
quebr an
pá n
pu ente</w>
pros titu
program ae</w>
prepar e</w>
preocupar nos</w>
pregun temos</w>
posi blemente</w>
pon ían</w>
plan te
pla zo</w>
pier de</w>
pi x
perfec tamente</w>
per sa</w>
per ros</w>
peque ñ
peli ku
pedi rles</w>
pe he</w>
pan es</w>
paj tik</w>
pa pa</w>
pa mbil</w>
pa go</w>
origin ales</w>
organiz ó</w>
opi c</w>
op ile</w>
olvi de</w>
oj at</w>
ofisin aetik</w>
ofic inaetik</w>
o tix</w>
nu cle
ni s</w>
naj tʼ</w>
na sion
n ale</w>
mu ést
mu ro</w>
mos lo</w>
mi h</w>
mi dos</w>
mari posa</w>
mari do</w>
maravil las</w>
mandari letic</w>
malv ada</w>
mad amente</w>
machʼ anix</w>
machʼ anax</w>
ma to
ma quin
ma pa</w>
lí qu
lokʼes bil</w>
lokʼ ele</w>
llam as</w>
lek ik</w>
le tras</w>
le erla</w>
lawu xe</w>
lan e</w>
lam ó</w>
laj inele</w>
laj elto</w>
lad inos</w>
l nanix</w>
l ina</w>
kʼu j</w>
kʼop tayel</w>
kʼ ana</w>
kʼ ale</w>
kuxul to</w>
kulaʼ tay</w>
kom ite</w>
k amigo</w>
jw ol</w>
jw enta</w>
ju da
jtsʼibay tik</w>
jtso ba
jpas tikix</w>
jojkʼoy ele</w>
jnop junetik</w>
jlumal tike</w>
jkʼan kotik</w>
jkom el</w>
jiʼ a</w>
jcheb altik</w>
jaʼat nix</w>
jaʼ iknix</w>
j kon
interes antes</w>
interes an</w>
inter rumpi
inter medio</w>
infor mes</w>
imi tan</w>
im parcial</w>
il beyaik</w>
ig nor
ic ul
i taje</w>
hábi to</w>
hor ri
hipó cri
hi o</w>
hab lo</w>
h t
gro en
gaba onetik</w>
g im
g esto</w>
fru ta</w>
fran queza</w>
fortale ciendo</w>
f lexi
f ik
f ama</w>
extranj eros</w>
expuls ados</w>
exc lu
ex kotik</w>
escal era</w>
er ce</w>
encarcel ados</w>
en tando</w>
en ojo</w>
empr es
elev adas</w>
el kʼaj
ejch en
e ʼi
dé cada</w>
dur ará</w>
disfru taremos</w>
di s</w>
descri ben</w>
des obediencia</w>
derrumb ó</w>
dedic arle</w>
deci dan</w>
dad as</w>
d oso</w>
d ones</w>
cul to</w>
cuel ga</w>
coti di
corri ente</w>
cor tó</w>
conver tir</w>
constru yó</w>
consci entes</w>
confir mó</w>
conf undi
conden ó</w>
comi das</w>
colabor an</w>
co inci
co dici
ci tas</w>
ci ar</w>
chʼi on</w>
chʼ into</w>
chuj kʼul</w>
chi kʼel</w>
chaʼ sujt</w>
chambal ame</w>
chah panel</w>
cha por
ch eh
celu laetik</w>
caʼ beyex</w>
catá stro
ca sualidad</w>
ca iga</w>
c rom
c ant
blan ca</w>
bas ados</w>
baj tʼ
baj eletik</w>
ayú de
ayud arte</w>
ayin uk</w>
awin am</w>
awakʼ beyik</w>
aw okol
avi s
auto estima</w>
ata s
as ka</w>
as al
arresta ron</w>
aquer ib</w>
aprender án</w>
apari encias</w>
apa t</w>
antec edentes</w>
anaʼ ik</w>
an es
ami ta</w>
americ ano</w>
amen aza</w>
alterna tiva</w>
alcoh ólicas</w>
akʼ al</w>
akanan tay</w>
ajwal inel</w>
aj otik</w>
aj on</w>
aj kʼ</w>
agrad ables</w>
agar ró</w>
afron tamos</w>
adecu ado</w>
acurruc ado</w>
actú an</w>
actu almente</w>
ac am
ab ul
a tem
a gi
Yox ebal</w>
Yan xan</w>
YUT SIL</w>
Y ichʼ
Y aʼ
Y akʼel</w>
Y AN</w>
WI Kʼ
WIKʼ ILUK</w>
VIGIL ANTES</w>
VID E
U K
Ti enes</w>
TI BIL
TIBIL TIK</w>
TAR DE</w>
T ab
T SEʼ
TSEʼ EL</w>
Sy dney</w>
Sue cia</w>
Sof ía</w>
Sen aquerib</w>
Sagr adas</w>
SE A</w>
S ri</w>
S ci
S as
Rub y</w>
R osa</w>
R ica</w>
R ed
Per ú</w>
Per s
Pan amá</w>
PA DR
P regún
O hio</w>
O X
Nú mero</w>
N erón</w>
N EC
Melel bal</w>
Mali gno</w>
M ol
Lec ciones</w>
Le tt</w>
Le on
Lan ka</w>
Kʼu x</w>
KU R
KO TIK</w>
K oʼtan
K ing</w>
Jkoltay tik</w>
Je an</w>
JSI TIK</w>
J tat</w>
J oʼon</w>
J ok
I RI
HI J
H an</w>
H acer</w>
Ge of
GREG ACIÓN</w>
G OS</w>
F re
Es fuércese</w>
EST EMOS</w>
EST AS</w>
ESP IRI
Don aciones</w>
Des cargar</w>
DIS KUR
D C</w>
Cʼ ax</w>
Cu anto</w>
Comi tés</w>
Ci ty</w>
Chʼ amo</w>
Cho l
Ch ris</w>
CON FI
CO MO</w>
CH AM
Be tania</w>
Be t
B os
B at</w>
B an
B al
B abel</w>
B E</w>
Ayu da</w>
An ne</w>
Alex andra</w>
AYU K</w>
AY BAL</w>
A quel</w>
A UT
7 8
4 55</w>
4 45</w>
3, 5
2 13</w>
19 63</w>
19 62</w>
18 2</w>
14 4,000</w>
1 13
- 4</w>
án tate</w>
Á ng
zar las</w>
yutsʼin at</w>
yn dale</w>
yip tajib</w>
yichʼ ojbey</w>
yichʼ ikix</w>
yaba ku
ya kʼul</w>
ya j</w>
ya chʼix
xwi lik</w>
xw ol
xw ayon</w>
xulu b</w>
xmukʼu b</w>
xchʼi xan</w>
xchʼi chʼel</w>
x nujpunike</w>
x botik</w>
x awichʼ</w>
x ap
w ay</w>
volver án</w>
viol entos</w>
vi entos</w>
verdad eras</w>
venta ja</w>
ven drán</w>
ven de</w>
ven ción</w>
vehí culo</w>
utili ce</w>
un en</w>
u ma
técn icas</w>
té p
tép hanie</w>
tsʼ oʼ
tso ts</w>
tseʼ ej
transfu sión</w>
to cando</w>
tir ados</w>
ti on</w>
ti kʼ</w>
ti b</w>
tes bat</w>
termin é</w>
tendr é</w>
tem er</w>
tari os</w>
tar é</w>
tar dó</w>
tal il</w>
ta yix</w>
t ó
só lida</w>
sépti mo</w>
swenta inotik</w>
suy as</w>
suj tat</w>
suh ton</w>
sufr amos</w>
sub título</w>
su s
stseʼ ej
stojil uc</w>
star co</w>
st anul</w>
spuk beyik</w>
spaso jike</w>
spas beyex</w>
sol ía</w>
sol teros</w>
snu pʼ
sna k
sna il</w>
sna h
sm oral</w>
slokʼes bey</w>
slekil alik</w>
sle bey</w>
slajin oj</w>
skʼaxun tayel</w>
skoltay one</w>
si tayel</w>
si li
si enti
sienti fik
senta da</w>
se pul
scʼ op
schʼu hun</w>
sbi h
sba qʼuetal</w>
salv ado</w>
sal a</w>
sa kub</w>
s h</w>
s discurso</w>
rob o</w>
rif le</w>
resuci ten</w>
resuci tarán</w>
resbal ó</w>
res pal
rem edio</w>
rela toetik</w>
reci entemente</w>
reci ente</w>
rec to</w>
realiz ado</w>
re loj</w>
re construir</w>
qui ta</w>
qu é
pʼi jilal</w>
pulem al</w>
pucu je</w>
pu ñado</w>
pu kuj</w>
pu c</w>
prosé litos</w>
propi edades</w>
pro ve
preocu pan</w>
pre ten
pr ens
pr emi
po etik</w>
pi di
pidi éndole</w>
permi tía</w>
per diendo</w>
pejkʼaj em</w>
pareci dos</w>
par raf
pajal nax</w>
pacífic o</w>
pa f
p ones</w>
ox ol</w>
ori da</w>
organiz ados</w>
ora m</w>
oport uno</w>
ok o
oc es</w>
ob el</w>
no bi
nobi embre</w>
nega tivas</w>
naran jo</w>
na y
mor irá</w>
mol ino</w>
mo lecu
mo hel</w>
mo dific
mis os</w>
mem br
manuscri tos</w>
man tuvieron</w>
mali ya</w>
mal eza</w>
ma tea</w>
ma stur
logr os</w>
logr amos</w>
lo có</w>
llen as</w>
le í</w>
le beyel</w>
laj in
kʼop ile</w>
kʼ ix</w>
kuxul otik</w>
kuxu lik</w>
kujch em</w>
kub tes</w>
kuar to</w>
koʼtan uk</w>
kox tale</w>
ko e</w>
kla se</w>
ka fe
kafe he</w>
jwokol e</w>
justi fic
jun xanix</w>
jtsʼih n</w>
jtiʼ awal</w>
jpʼ al</w>
jpaj tik</w>
joʼ taktik</w>
jol aletik</w>
jo m</w>
jlekub testik</w>
jkontra taktike</w>
jchʼuunej kotik</w>
jch on</w>
jaʼbil niwan</w>
jal wanej</w>
j kil</w>
j eron</w>
j chameletike</w>
invi tarlo</w>
inten taron</w>
inju sta</w>
influ yen</w>
inclin ó</w>
in ó</w>
in stitu
in cul
im pre
il ob
il i</w>
ik nax</w>
ik il</w>
ik a</w>
ijki tayot</w>
i taj</w>
hurac án</w>
hun e</w>
hubi éramos</w>
homi cida</w>
hal lan</w>
haci éndolo</w>
habl é</w>
ha m</w>
h ú
guar da</w>
gi e</w>
gal lo</w>
g ía</w>
g encia</w>
g em
g alo</w>
fr e</w>
fortale cido</w>
form aron</w>
figu ra</w>
fer vor</w>
fara on</w>
explicar les</w>
existi do</w>
eti x</w>
estudi an</w>
esta d</w>
esper ábamos</w>
eri e</w>
er e
envej e
enti erro</w>
enrol lado</w>
encontr aremos</w>
enci clopedia</w>
ele cción</w>
e kʼetike</w>
dá di
dob lada</w>
dis locó</w>
dirigi endo</w>
di pl
di gamos</w>
di ariamente</w>
determin ación</w>
desanima do</w>
desafí o</w>
del ant
def ensa</w>
de tes
de posi
de litos</w>
cé monos</w>
cui dó</w>
cu yo</w>
copi a</w>
contribu yó</w>
conoci eron</w>
con taba</w>
complej as</w>
civ iles</w>
científic o</w>
ci tó</w>
ci ru
chʼi c</w>
chuku lik</w>
chopo lic</w>
choj akʼe</w>
chaʼ kojt</w>
chay ote</w>
cer em
centr ó</w>
centr arse</w>
castig ar</w>
car o</w>
capaci tados</w>
cambi aron</w>
cambi ando</w>
cal ami
cab e</w>
ca tivo</w>
c ú
c ías</w>
c í</w>
brus camente</w>
bon ic</w>
bom ba</w>
blu sa</w>
bin al</w>
be t</w>
bayal me</w>
ban kil</w>
bail ar</w>
aʼiy ele</w>
ay toxan</w>
ay tes</w>
awu tsilal</w>
aw aʼte
ata beyxan</w>
asu stó</w>
arrog ancia</w>
arreg lar
ar chi
aproxi madamente</w>
apa rato</w>
anim arlos</w>
anichʼ nabe</w>
an h
amar ga</w>
alnichʼ ane</w>
al etike</w>
akʼ ayin
aj ach</w>
aguan tando</w>
agrade zco</w>
adolesc encia</w>
admi te</w>
adecu ada</w>
aconte cimiento</w>
acep té</w>
ac ari
abati no
a kux
a ho
Z o
X BAL</w>
V EN
Ten er</w>
T yndale</w>
Sá bado</w>
Si erra</w>
STE RIO</w>
S téphanie</w>
S tan
S erie</w>
S LOKʼ
S I</w>
R Á</w>
Qui eres</w>
QU E
Po dr
Parti tura</w>
Par ís</w>
Pa st
PU ESTA</w>
PI ZAR
PAJ INA</w>
O bed</w>
Naʼ a</w>
NU ESTROS</w>
N ada</w>
Mo stremos</w>
Maʼyu kix</w>
MIN I
Ly die</w>
Libr o</w>
Li sias</w>
Le ona</w>
Lau ra</w>
LA YA</w>
L lé
L TIK</w>
Kʼ an
Jaj ch</w>
JBA TIKE</w>
J ih
J an
IL KʼINAL</w>
I h
H ades</w>
H U
H O
Go bier
G Á
G r
G en
FELI Z</w>
FECH AS</w>
Ex amin
Escri tura</w>
Es kuela</w>
ESP ER
ES TI
ES CU
ER MAN
ENSEÑ AN
ENSEÑAN SA</w>
E sa</w>
E paf
E TIKE</w>
D ENTE</w>
Cum pli
Cu lti
Cor dero</w>
Co ok</w>
CON GREGACIÓN</w>
CO L
CH E
CAN CIONES</w>
Bin ti</w>
BEN DI
BA UTI
Ari starco</w>
Ari matea</w>
Apo y
Alg una</w>
ATA LAYA</w>
A migo</w>
A gu
A Z
4, 9
4 54</w>
3, 9
2 73</w>
2 30</w>
199 7</w>
19 65</w>
19 4</w>
18 8</w>
17 0</w>
1 52</w>
ús queda</w>
ú m</w>
óli cos</w>
í r
é sta</w>
á tica</w>
Ár tem
Ártem is</w>
zar ra</w>
z ará</w>
z amos</w>
yo yal</w>
yih nam</w>
yichʼ e</w>
yal ojbey</w>
yal beyex</w>
ya e</w>
y eh
xʼi lin</w>
xʼ aj
xw eʼ</w>
xul tay</w>
xtulanu bxan</w>
xnojptes wan</w>
xna in</w>
xlaj on</w>
xkʼayoj inik</w>
xcʼ o
xchʼu jte
xchʼ a
xchajpan wan</w>
xba hat</w>
x yil</w>
x yakʼik</w>
x kʼan
x kakʼtik</w>
x jokinot</w>
x ho
x hal
x bat</w>
x bah
wokol awalik</w>
woj e
wikʼ iluk</w>
waka x
w16 05</w>
w oje</w>
w 88</w>
voluntari amente</w>
vo tos</w>
vivi endas</w>
visi te</w>
vers ario</w>
vendi endo</w>
venci dos</w>
ven tan
valor an</w>
v asi
utsʼin wanik</w>
uni eron</w>
tu ri
tu c</w>
tsʼ aj</w>
tsʼ ab
tseʼ ej</w>
transmi te</w>
trabaj é</w>
trabaj aron</w>
tr es
tr ab
torm entas</w>
tonel ada</w>
toj bil</w>
to mut</w>
to juk</w>
tik to</w>
ti ra</w>
ti le</w>
ti kʼ
tex toe</w>
ten cias</w>
te lo</w>
te atro</w>
ta tu
t la
t h
sue gro</w>
suce da</w>
su ministr
su m
su ht</w>
stʼu noj
stsʼumb ale</w>
stsʼibay e</w>
stso bi
sti con</w>
sta bey</w>
spisi lnanix</w>
spe ch
spas elxan</w>
spas bat</w>
son e</w>
soldad oil</w>
so las</w>
snojptes lan</w>
snaj tʼil</w>
smali b</w>
smak on</w>
smaj tʼan</w>
sm ilel</w>
slu mil</w>
sloʼl ayel</w>
slo ʼ</w>
slajin lan</w>
skʼ ex
skon gregasi
skom oj</w>
sj olik</w>
situ ada</w>
siti os</w>
simp les</w>
si tiletik</w>
si ma</w>
señ ales</w>
senti ría</w>
semej ante</w>
se pamos</w>
schʼuun ike</w>
schʼuum beyik</w>
schʼu jtʼ</w>
scham ele</w>
sbu h
sbabi ale</w>
saserdo te</w>
santu ario</w>
san tidad</w>
sal ía</w>
sal í</w>
sal ario</w>
sacri ficar</w>
sac a</w>
s lokʼomba
s lab
s hach</w>
s comentari
ri o</w>
reún e</w>
reun imos</w>
resul tó</w>
rem ol
relacion a</w>
regu e</w>
regist ro</w>
reflexi on
refer encias</w>
recompens ará</w>
re d
ra son</w>
r uego</w>
r os
r aro</w>
qu eb</w>
pʼi sbi
pájar o</w>
pu jk</w>
prueb e</w>
pru dentes</w>
prote gen</w>
pros per
pro mueve</w>
presenta ron</w>
predic adores</w>
preci oso</w>
pre fi
pr olon
port á
politic ae</w>
pobre ik</w>
pi zarra</w>
pi damos</w>
pes cado</w>
permi tan</w>
percibi r</w>
pasaj eros</w>
pas bile</w>
partam entos</w>
pap eles</w>
p é
p á</w>
p ana</w>
or aron</w>
on ido</w>
on ic</w>
om al</w>
ológ ico</w>
oli via</w>
odi aba</w>
ocur ra</w>
obli ga</w>
obedec erlo</w>
ob sesi
o ficio</w>
nojptes eletik</w>
no sti
nie tos</w>
ni wanix</w>
ni c</w>
na ufra
n ad
mutu amente</w>
mue ven</w>
moti var</w>
mol esta</w>
mo ik</w>
milagr osa</w>
menti roso</w>
me ter</w>
me ter
mayordom o</w>
mari hu
marihu ana</w>
manten gan</w>
mamal etike</w>
maldi ción</w>
madi ani
ma tan</w>
m y</w>
m ales</w>
m aban</w>
lokʼomba kʼopetik</w>
llam amos</w>
liber ado</w>
li jkʼ</w>
lepr a</w>
lek me</w>
le que</w>
le h
la zos</w>
l adas</w>
kʼu bul</w>
kʼop tay</w>
kʼo te</w>
kʼaʼ pale</w>
kʼax un
kongregasi onetike</w>
ko ik</w>
kil beytikix</w>
kakʼ beykotik</w>
k ele</w>
jʼaʼtejpa tane</w>
judi ciales</w>
jtsʼ ine</w>
jts ʼun</w>
jta kotik</w>
jta h</w>
jpʼijubtes tik</w>
jpo koʼ</w>
jokin lan</w>
jojkʼoy beytik</w>
jnichʼ ane</w>
jmam ae</w>
jla p</w>
jkʼax ele</w>
jkojkʼ chikinetik</w>
jko ht</w>
jk aj
jichuk nix</w>
jaʼuk ix</w>
j sejp</w>
j naj</w>
j kʼa
j eh
is laetik</w>
is bol</w>
invi sibles</w>
inf ini
in migr
in ando</w>
im pon
im pidió</w>
im o
ilin emik</w>
hu yó</w>
hu queb</w>
hor mon
hon y</w>
hinch ó</w>
hier bas</w>
hi ri
hi guera</w>
her e
hebre a</w>
hall ará</w>
hac íamos</w>
hab erlo</w>
ha bilidad</w>
h chaj
guardi án</w>
gri tar</w>
genti na</w>
gan an</w>
fu éramos</w>
fu turas</w>
frecu entes</w>
foto grafías</w>
fl or
fir memente</w>
filoso fía</w>
fij arnos</w>
f ór
excel entes</w>
ex teri
eti que</w>
estudi aba</w>
escuch en</w>
ep el</w>
entreg a</w>
enfrenta rnos</w>
encendi do</w>
encar ga</w>
en vuelto</w>
en fu
ele g
el son</w>
ej xan</w>
egoí smo</w>
ecin ueve</w>
e u
e kʼe</w>
don ativos</w>
dom ici
dob la</w>
divi dir</w>
disfru ten</w>
disfru ta</w>
discu tir</w>
dis puesta</w>
dig na</w>
dibu j
diag nosti
di rán</w>
di ecinueve</w>
desobedeci eron</w>
descu br
delincu encia</w>
dej aría</w>
dej aban</w>
de teri
de dos</w>
de ber</w>
cui dara</w>
cu lares</w>
cu ente</w>
cru el
crom oso
cristi an
cose ch
converti rá</w>
constru yeron</w>
con creto</w>
con cre
comien zo</w>
colabor adores</w>
col gando</w>
co a</w>
cir se</w>
cigar r
chʼul naj</w>
chʼ on</w>
chʼ ol</w>
chaʼoxtu lik</w>
cerr ó</w>
centr a</w>
cen iza</w>
ce dió</w>
carri toetik</w>
cal mar</w>
cad á
c antó</w>
bé isbol</w>
bo tex</w>
bili kix</w>
bi sio</w>
bi il</w>
bi h
beya xan</w>
be tic</w>
bauti ce</w>
bal te</w>
baj ele</w>
bah il</w>
ba dos</w>
b úsqueda</w>
b aʼ
az ar</w>
ayu kxan</w>
ay onix</w>
awijkʼi tay</w>
aw enta</w>
aw alatak</w>
aumen tando</w>
atʼu n</w>
atr ae</w>
atem ala</w>
ata xan</w>
ata oj</w>
asitin tay</w>
asist en</w>
arrepinti ó</w>
arrepenti dos</w>
arreg l
ar íamos</w>
aprovech ando</w>
aparec er</w>
apar tar</w>
anan ix</w>
an es</w>
amonton ada</w>
aman ecer</w>
amali y</w>
am eʼ
am ados</w>
alum ale</w>
alu pe</w>
aloj amiento</w>
alivi ar</w>
al tos</w>
akʼo tes</w>
ajojkʼoy beyoj</w>
aj tal</w>
ahor rar</w>
ahcʼ abal</w>
agradec en</w>
ag ach
afec ta</w>
ador e</w>
ad alupe</w>
acos tado</w>
acom entario</w>
achʼu btesel</w>
acc eso</w>
abandon aron</w>
ab og
a xi
a st
Zo om</w>
Y H
YH W
YHW H</w>
Vi vi
Vi da</w>
U ʼU
Tu mba</w>
Tu lan</w>
Ti t</w>
TI KXAN</w>
TAY EL</w>
T ʼU
T al
T EL</w>
Syl via</w>
Su d
Som os</w>
So lici
Sno taul</w>
Ser gio</w>
SLOKʼ EL</w>
SCH OL</w>
SAN TI
SA LIDA</w>
S tsu
S ta
S ir
S enti
S KUXLEJA
S ENTI
RI L</w>
R ela
R af
Qu ería</w>
Pres ente</w>
Pi erce</w>
Pers picacia</w>
Pa z</w>
PU ENTE</w>
PREGUN TAN</w>
PA RA
ON U</w>
OB JE
O f
O be
Ni lo</w>
Nab onido</w>
Mer oz</w>
M y
M ay
Lou is</w>
Leon ard</w>
KʼOP E</w>
KOL TA
K AʼIY</w>
K AʼIY
KAʼIY TIK</w>
Ju sto</w>
Ju luk</w>
Ju jun</w>
Joh an
Je h
JUEC ES</w>
J kʼaxel</w>
J koltaywanej</w>
J ah
I S
Hor st</w>
Hen ry</w>
H un
H emos</w>
Gu atemala</w>
Gu adalupe</w>
Gobier no</w>
Fre der
Franci s
Fl orida</w>
Fi lem</w>
Feli ces</w>
FECH AETIK</w>
F R
Espa ñ
Enseñ emos</w>
En seña</w>
ESPIRI TU
EN DO</w>
E vi
Den nis</w>
Demo stremos</w>
DEM ÁS</w>
D í
D os</w>
D el</w>
Cuán tas</w>
Congreg ación</w>
Com entario</w>
Ch rist
Ch eca</w>
CH O</w>
CA P
Barzil ái</w>
B é
B olivia</w>
B ene
B ON
At lan
Ar gentina</w>
Ant hony</w>
Ala in</w>
Al farero</w>
Ac án</w>
AB RIL</w>
A pó
A caso</w>
8 000</w>
5, 5
4 50</w>
3 32</w>
29 7</w>
29 5</w>
20 6</w>
2 76</w>
2 38</w>
2 35</w>
16 6</w>
16 1</w>
16 ,
15 9</w>
ándo la</w>
án gu
Ín dice</w>
yutsʼin bey</w>
yu tsʼinel</w>
yoʼtan ique</w>
yo kʼ
yin g</w>
yi kʼoj</w>
yaʼiy beyel</w>
yaʼ yel</w>
yaʼ beyex</w>
yan tique</w>
yal tiklambey</w>
ya qʼue</w>
y ochel</w>
y eran</w>
xweʼ ik</w>
xpas taj</w>
xma kotik</w>
xkʼo ex</w>
xkʼayoj inotik</w>
xkanantay ot</w>
xjil on</w>
xchaʼ sujt</w>
xch on
x tiʼ
x lamaj</w>
x jin</w>
x jaj
x apas</w>
wits etik</w>
vol có</w>
vi udas</w>
vi entre</w>
ver ano</w>
ven dría</w>
v arón</w>
ur gente</w>
un ik</w>
un el</w>
un dos</w>
uk a</w>
tʼu nel</w>
tʼil nix</w>
tʼ elul</w>
tu un</w>
tu ales</w>
tsʼu jul</w>
tsal awe</w>
trá eme</w>
trom pe
trast orno</w>
tranqui lidad</w>
tradi cional</w>
tra taban</w>
tra ge
trage dia</w>
tr opo
tr ay
toy el</w>
tic lan</w>
testig otak</w>
terr enos</w>
termin aron</w>
te jkʼ
tayi ke</w>
tay tike</w>
tay beytik</w>
tati le</w>
tan os</w>
tal ón</w>
tal entos</w>
t alike</w>
swentain ej</w>
sw u
sufri mientos</w>
suci edad</w>
suce der</w>
su reste</w>
su cia</w>
stʼuj bilal</w>
stsʼ ak
stiʼ on</w>
sta beyik</w>
spʼ ol</w>
spej kʼan
spasi kxan</w>
sorpren der
soldad oetike</w>
sobr ino</w>
snu kʼul</w>
sno h
snasion ik</w>
sn ej</w>
smaj tʼ
sm al
slokʼomba il</w>
slam antes</w>
slab anik</w>
skʼu ʼe</w>
skʼop iknix</w>
skʼases bey</w>
skʼajkʼ al</w>
sjoʼ take</w>
sj oh
sist em
sir van</w>
si tos</w>
ser le</w>
scol tay
schaʼ pasik</w>
sch ikʼ
sch amel</w>
sbon il</w>
sbolob tesbey</w>
san ta</w>
sali era</w>
sagr ada</w>
sacu dida</w>
s costumbre
s ana</w>
rol los</w>
ro gó</w>
ro d</w>
responder á</w>
respon día</w>
respe taban</w>
resi du
rein os</w>
rein ará</w>
regal ó</w>
recor damos</w>
rech aza</w>
re tos</w>
re produ
re ja</w>
re don
re construcción</w>
re aliza</w>
re ales</w>
r ó
r las</w>
r c
r adas</w>
qʼu etic</w>
qui h
quer ida</w>
qued ará</w>
quebr ó</w>
que de</w>
pʼijuben ik</w>
pʼ ol
pʼ a</w>
puk nax</w>
pu ñ
provoc ar</w>
prote ja</w>
produ cto</w>
pro viene</w>
pri mo</w>
pre para
pre dice</w>
practi can</w>
pr estig
politic oetik</w>
pier den</w>
pi eza</w>
perse ver
pens aron</w>
peh cʼ
patri arca</w>
pat nah</w>
pas bilik</w>
partici pando</w>
pandem ias</w>
pa jkʼ
p si
p ciones</w>
ovej a</w>
ori ental</w>
ora etik</w>
or to
or th</w>
or il</w>
olvi dado</w>
ocurri do</w>
och enta</w>
ob o</w>
nú meros</w>
nu x
noptsaj el</w>
nijk eletik</w>
nega tiva</w>
najal sitiletik</w>
má quinas</w>
multi pli
moso etik</w>
mic ro
membr ana</w>
me lo</w>
may e</w>
mar in
mand aron</w>
majtan ile</w>
m ol</w>
lé alo</w>
lu tuhl</w>
lo gran</w>
llam adas</w>
ll ying</w>
limi tado</w>
levan tará</w>
lekub tes
leku knax</w>
la ta</w>
l otik</w>
l ol
l los</w>
l ine</w>
kʼu bu
kʼo tike</w>
kʼayoj tayel</w>
kʼayoj ile</w>
kʼayoj e</w>
kʼaxem niwan</w>
kʼaj tik</w>
ku m
ku el
kijkʼi tay</w>
kejch aj</w>
k ae</w>
jul tesel</w>
juk tul</w>
juda ísmo</w>
jtsʼin uk</w>
jtsoba w</w>
jtsajtay wanejetike</w>
jtakʼin tike</w>
jta b</w>
jovenci tos</w>
jnopojele x</w>
jnaʼ tike</w>
jku x</w>
ji lix</w>
jchol kʼopetike</w>
jajch otik</w>
j noj
j me
j lek
j col
j bil</w>
j bankil</w>
j amos</w>
is èle</w>
inv oc
inten sa</w>
ingr esos</w>
influ ye</w>
inf ancia</w>
inclu yen</w>
in yec
in t</w>
in sensa
in dí
in divi
indivi du
in d
impul sos</w>
imi tamos</w>
im bil</w>
ilin em</w>
ilin at</w>
i endo</w>
humani taria</w>
hici ste</w>
hi gi
hech ic
hech as</w>
haʼ ase</w>
har ina</w>
h kel</w>
h arían</w>
h arás</w>
gusta do</w>
gui la</w>
guajol ote</w>
gu ían</w>
gri ta</w>
gor ri
gober nación</w>
go tas</w>
gener aciones</w>
gen io</w>
g ámonos</w>
g es</w>
fí jate</w>
fu iste</w>
fol letos</w>
fl aco</w>
fam oso</w>
expul sar</w>
expectati vas</w>
exp lo
ev alu
estudi ado</w>
estu vimos</w>
estr es
est rech
est all
esp inas</w>
es sing</w>
es kuel
err ón
entr an</w>
enta ba</w>
ent revista</w>
ent orno</w>
enseñ amos</w>
eni cia</w>
en sia</w>
en lo
em borrach
eli ge</w>
eje cución</w>
e w
e etik</w>
du er
dolor osa</w>
do li
divi siones</w>
divi dido</w>
div inas</w>
discu sión</w>
dirig ían</w>
dibu jos</w>
desanim emos</w>
desanim arnos</w>
des ilu
der se</w>
d ox
cumpli rse</w>
cui de</w>
cu br
cruel dad</w>
cristian dad</w>
cor rección</w>
conver tir
contribu ciones</w>
constru ido</w>
conoc erán</w>
confi esa</w>
confi aron</w>
confi aban</w>
conc edi
con vencer</w>
compar arse</w>
com prob
climá tico</w>
cla v
cion ales</w>
cin tur
chʼule lal</w>
chʼi uk</w>
chʼi chʼ
chik anik</w>
che wa</w>
che buk</w>
chan etik</w>
chambah lam
ch on</w>
ch ol</w>
cer teza</w>
cer do</w>
cay eron</w>
cariñ osa</w>
car gos</w>
can to</w>
camin ó</w>
cal bat</w>
cal ambre</w>
bu llying</w>
btes be</w>
bre ves</w>
blasf em
bi ó</w>
bersi kuloetik</w>
bauti za</w>
batsʼ ejel</w>
bar ba</w>
bal to</w>
ba ños</w>
ayud arlas</w>
ayin ix</w>
awu tsil</w>
awu chʼe</w>
awi htsʼine</w>
awaʼiy eje</w>
aw ermano
autén tico</w>
autén tica</w>
ati mal</w>
ata ik</w>
arro yo</w>
arra ig
ar ina</w>
ar do</w>
apli caciones</w>
apara toetik</w>
ap la
anu jpun
ant setic</w>
anojp tes</w>
anim en</w>
anim arnos</w>
anaʼ oj</w>
amor osa</w>
amik o
amig oetik</w>
am aj
alim entó</w>
alcan zarlas</w>
alab arlo</w>
akʼayin bey</w>
ahu ec
ah ni
aguj ere
agradec erle</w>
agradec er</w>
afirma ción</w>
af il
adul to</w>
acus ó</w>
acer can</w>
abri eron</w>
ab ar
a tin
a pres
a ka
a cionetik</w>
Ze us</w>
YUʼU N
YAN TIKE</w>
Y EL</w>
Y E
X w
X KʼOT</w>
V ir
V E</w>
UN OS</w>
U É</w>
U s
Tu minchij</w>
Tsaj tayame</w>
To da</w>
TS ʼ</w>
TALE LIL</w>
Sime ón</w>
Sim one</w>
Si dón</w>
Sant ísimo</w>
San ta</w>
Sab emos</w>
S testigotak</w>
S ex
Ru mania</w>
Red acción</w>
Ran di</w>
R az
R AS</w>
Pre párese</w>
PU BLI
PRO BLE
PA BLO</w>
Oli vos</w>
Ning ún</w>
Naʼ beya</w>
N ojp
N ep
N aj
N OP</w>
Mu y</w>
Mar co</w>
Ma x
MUN DO</w>
MU ER
MINI STERIO</w>
M as
Le ví</w>
L Í
Jes é</w>
Jer oboam</w>
Jaʼ niwan</w>
JOS UÉ</w>
JCHʼI ELETIK</w>
J tatic</w>
J letik</w>
J kanan
I KE</w>
Hist ory</w>
Hab rá</w>
H o
H able</w>
GUI EN</w>
G isèle</w>
G A</w>
F Í
Escu ch
Enséñ eles</w>
En lace</w>
Eli ú</w>
EST OS</w>
E LO</w>
E LI
Dor cas</w>
Di ez</w>
DI BUJ
DE BE
DE A</w>
Col osas</w>
Ch ina</w>
CRE ER</w>
COR AZ
CORAZ ÓN</w>
C ed
Bl essing</w>
B ayel</w>
Apren dí</w>
Ad ol
Ac érqu
AW UʼU
ANI MA
AM E
AL GUIEN</w>
A ños</w>
A bed</w>
A S
A GU
8 8
8 3
7 0
6, 7
6 8
5 50</w>
4, 3
3, 2
20 7</w>
20 5</w>
20 1</w>
2, 2
2 37</w>
2 25</w>
199 0</w>
19 87</w>
19 70</w>
19 67</w>
19 60</w>
z arse</w>
z adas</w>
z aba</w>
yochin tay</w>
yo li
yih kita</w>
yejch en</w>
yej etik</w>
yb 16</w>
yaʼte ji
yaʼiy bon</w>
yakʼ beyoj</w>
yah lel</w>
ya x</w>
ya chʼ
xw ayat</w>
xul tay
xu jtʼu
xtuun ix</w>
xmil ot</w>
xkʼopo jotike</w>
xkʼopo jike</w>
xkʼax un
xjajch otik</w>
xiw eltic</w>
xchʼu jtʼ</w>
xchic naj</w>
x toy</w>
x pʼiju
x oral</w>
x boj
x al
weʼeli letik</w>
we ʼi
w eʼ</w>
w amal</w>
ví n
vín culo</w>
vol viendo</w>
vol uc
vivi eran</w>
visi tamos</w>
vini era</w>
vide oe</w>
ven imos</w>
vec ino</w>
v ul
v ol</w>
us ará</w>
uni versi
uma ir</w>
u mpi
tulu kʼe</w>
tul nax</w>
tsʼin tik</w>
tsʼi bajel</w>
tsʼ eh
tsʼ eel</w>
ts eman
ts el
ts ana</w>
triun f
traduc en</w>
tradi ción</w>
toy xan</w>
tor re</w>
tor ce</w>
toj otik</w>
toj e</w>
tiʼ nahe</w>
tiʼ il</w>
tiklan bil</w>
tier na</w>
tien dan</w>
ten se</w>
tar te</w>
tam b
tal ler</w>
ta dores</w>
ta beyel</w>
t ánico</w>
t re
swenta e</w>
sut bon</w>
sumer gido</w>
su el
su be</w>
stsah tay</w>
sts alik</w>
sta xan</w>
spensar ik</w>
sor es</w>
son ó</w>
so sti
so le
snujpun elik</w>
snu ts</w>
snopi kxan</w>
snop xan</w>
snaʼ ojix</w>
snaʼ oj
snaʼ beyelxan</w>
smulan beyik</w>
smul anike</w>
smukʼu btes</w>
smak ik</w>
smak bey</w>
smaj tantes</w>
slokʼes oj</w>
slaj im
skoltay ex</w>
sjokin ej
sjokin at</w>
sj inel</w>
sir vo</w>
sir va</w>
sim pli
si me</w>
si kil</w>
señ o</w>
senti dos</w>
segui dor</w>
se ver
se du
scomentari oik</w>
schʼu jt</w>
schol tiklanbey</w>
schikʼ ik</w>
sch el</w>
sbi ilinik</w>
sbi ilike</w>
sba ikix</w>
satisf ac
salg a</w>
sal drán</w>
sac aron</w>
sa hb</w>
s ped
s ello</w>
s cux
s ch</w>
s b
s anos</w>
ru edas</w>
rode an</w>
rode ados</w>
ri qu
ri da</w>
revista e</w>
resal tó</w>
reflej an</w>
recib í</w>
reci ban</w>
rec titud</w>
re velación</w>
re partir</w>
re admi
razon amientos</w>
raci mo</w>
ra cial</w>
r u</w>
r guí
rguí s</w>
qued amos</w>
que tique</w>
que tas</w>
que ta</w>
qu ini
qu enal</w>
qu ema</w>
qu em</w>
púr pura</w>
pudi éramos</w>
prohí be</w>
profundi dad</w>
prepara tivos</w>
prendi ó</w>
prekurso ra</w>
preci pi
preci osas</w>
preci osa</w>
poli sia</w>
podr é</w>
plá stico</w>
pla gas</w>
person aje</w>
perdon ará</w>
perd amos</w>
per siguen</w>
per cep
peli cu
pelicu laetik</w>
pec ó</w>
pec tiva</w>
patan il</w>
partici pamos</w>
pari ente</w>
p é</w>
p le
oy eron</w>
os tas</w>
ora huc</w>
op her</w>
oli x</w>
ol d</w>
oh lil</w>
ofrec erle</w>
odi aban</w>
ochin tayel</w>
oc cidental</w>
oblig aciones</w>
obli gó</w>
o he</w>
o dón</w>
nujpunem at</w>
nojptes a</w>
no t</w>
no etik</w>
neutr al</w>
necesi tas</w>
nain em
nail to</w>
nahin em</w>
nacion etike</w>
n ón</w>
n é
muni ci
mu daron</w>
mu dado</w>
mos ca</w>
mor irán</w>
mon d</w>
molde e</w>
mo ler</w>
mo e</w>
mision al</w>
mil lan</w>
mi stas</w>
mi mos</w>
mez cl
mer k
medi anoche</w>
mam alix</w>
ma z
ma gu
m ín</w>
m oso</w>
m osa</w>
m ico</w>
lokʼ tayel</w>
lo cali
llev arlo</w>
liter almente</w>
liber ados</w>
[...]
