#version: 0.2
c h
r i</w>
o s</w>
t a
q u
ʼ a
m a
e s
a r
e r
e n
l a
i n
ch e</w>
d e</w>
o n
r i
r e
e l</w>
k ʼ
qu e</w>
i k</w>
c i
a n
a s</w>
b ʼa
j u
e s</w>
i j</w>
l a</w>
r a
l i
e n</w>
b ʼ
k u
c h</w>
x u
k i
q a
t i
w a
t z
c o
d o</w>
h o
u n
d i
p a</w>
s i
t a</w>
l o</w>
c u
a n</w>
r u
e m
a b
J e
l os</w>
o j
ch i
p o
Je ho
ó n</w>
Jeho v
Jehov á</w>
ju n</w>
l e
r e</w>
t o
ch a
a m
i os</w>
j a
ma l</w>
t e</w>
s a
v i
t o</w>
e ʼ</w>
D ios</w>
t r
kʼ u
c ˈ
k ʼa
k a
d e
n i
c on
ar e</w>
in a
n o</w>
ci ón</w>
c a
i b
p ar
p a
s e
s e</w>
a l
re ch</w>
bʼa n</w>
ch i</w>
a l</w>
ta q</w>
p u
@ -
@- @</w>
t u
s o
la j</w>
p er
m i
m o</w>
d a
p r
n a</w>
k ʼ</w>
la s</w>
J es
h a
qu i
bʼa l</w>
t e
n ik</w>
y a</w>
í a</w>
x ik</w>
ú s</w>
Jes ús</w>
d a</w>
w ina
bʼ ij</w>
n a
á s</w>
k e
s u
m u
tz ij</w>
q ʼ
par a</w>
j eʼ</w>
li a</w>
n os</w>
k qa
qu jeʼ</w>
b ʼ</w>
e r</w>
b i
xu qujeʼ</w>
l e</w>
e m</w>
ru mal</w>
kʼ o</w>
wa ch</w>
i ʼ</w>
k oj
ch u
k o
co n</w>
j o
c ä
w e</w>
po r</w>
ta j</w>
m in
u n</w>
j i
k ki
ri j</w>
chi ʼ</w>
g u
o r
q ʼa
ma j</w>
B ib
n u
Bib lia</w>
s u</w>
em os</w>
ch rij</w>
ri ʼ</w>
an i
am i
o r</w>
u t
p i
e ta
ru kʼ</w>
re g
r a</w>
t en
wina q</w>
l o
min s</w>
l es</w>
d os</w>
oj el</w>
m ás</w>
x e
bʼ i
ma n</w>
em p
o n</w>
J as</w>
p á
kʼu t
ch o
1 0</w>
la l</w>
a r</w>
pr o
a s
w i
m en
un a</w>
d el</w>
an do</w>
1 5</w>
k e</w>
on ojel</w>
f i
n o
da d</w>
cˈ u</w>
j e
b re</w>
ut z</w>
bʼ e</w>
tz i
i s
ta s</w>
ch ʼa
v er
es tr
en t
bʼa nik</w>
y a
e c
k ˈ
d es
on es</w>
c a</w>
er a</w>
ab ʼ</w>
w i</w>
Q u
ta n
h ab
j o</w>
ja wa
1 1</w>
e l
x i
la ʼ</w>
t ra
r es
R i</w>
o s
g o</w>
R I</w>
u wach</w>
1 2</w>
é n</w>
ch ke</w>
x a
ri s
cha lal</w>
h i
pá r
en te</w>
m os</w>
y u
ja s
f u
nu estr
ri ˈ</w>
es t
l u
á n</w>
ha c
qu é</w>
O S</w>
po r
b a
w ar
r onojel</w>
í as</w>
re s</w>
kʼa s
su s</w>
pu e
1 3</w>
Qu é</w>
j as</w>
ku bʼij</w>
1 4</w>
am os</w>
ch o</w>
t er
le mal</w>
ó mo</w>
eta ʼ
k in
ra j</w>
ni m</w>
d o
m e
a ción</w>
r o</w>
jawa xik</w>
J u
kʼa x</w>
m e</w>
war iʼ</w>
p e
bʼa no</w>
jas taq</w>
w ä
tr os</w>
u s
co mo</w>
ta ji
qa chalal</w>
kʼ u</w>
ib ʼ</w>
ra jawaxik</w>
x o
é l</w>
k q
c o</w>
es ta
ʼ o
1 6</w>
m o
je ˈ</w>
cu ando</w>
d u
kʼas lemal</w>
1 7</w>
a la
a yu
w u
per o</w>
cˈ o</w>
u bʼanik</w>
t os</w>
ar i
L a</w>
r o
ʼ i
a c
b li
x ki
p re
qu e
C H
a li
wina k</w>
ni ma
qʼa bʼ</w>
é s</w>
ci ones</w>
t in
a j</w>
tzi jo
sa j</w>
ci a</w>
s i</w>
h er
ju na
taji n</w>
t ä</w>
k raj</w>
wä ch</w>
s o</w>
on em</w>
xu bʼij</w>
g ra
s on
ch ik</w>
gu i
bʼa laj</w>
ma n
C ha
le w</w>
in o</w>
cˈ u
1 9</w>
reg un
qu i</w>
e li
d as</w>
x in
c e</w>
er on</w>
a t</w>
1 8</w>
es ti
E S
un em</w>
ku nik</w>
s er
ko j</w>
kʼut unem</w>
g reg
si bʼalaj</w>
qʼ ij</w>
po d
co m
2 0</w>
es ta</w>
ani ma
d es</w>
kʼa j</w>
ti emp
con greg
v e
v o
k an</w>
b a</w>
qʼ o
ch a</w>
er o</w>
es i
l le
ta t</w>
a j
b u
ta ʼ
r u</w>
ni kʼaj</w>
o b
per son
ma nos</w>
m a</w>
A N
c ris
kʼ i</w>
le c
i n</w>
i m
ju n
d em
b ij</w>
ch que</w>
so bre</w>
a laj</w>
tiemp o</w>
s ab
c ˈ</w>
p on
ta m
h a</w>
wa ˈ</w>
ku ya</w>
e x
ta k</w>
E s
qa s
í an</w>
q as</w>
juna m</w>
ku bʼan</w>
Ju an</w>
r as</w>
vi de
t ä
b an</w>
f or
o ra
C ómo</w>
congreg ación</w>
bi én</w>
ch q
c ar
R I
si kʼ
un i
t es</w>
g os</w>
g i
M A
ta l</w>
d ar
pár r</w>
wa jun</w>
chu qʼabʼ</w>
s a</w>
2 1</w>
tam bién</w>
ˈ u
p regun
R e
j ik</w>
en do</w>
ami t</w>
di jo</w>
f ami
to ʼ</w>
di s
C h
ju jun</w>
etaʼ maj</w>
xu ku
di o</w>
ta r
ab lo</w>
z a</w>
kʼu t</w>
t u</w>
g a</w>
an os</w>
á n
x el</w>
a d
2 2</w>
cho maj</w>
de ci
xu bʼan</w>
por que</w>
p í
o j</w>
wu j</w>
T I
vi da</w>
e d
v o</w>
a ma
b í
ta r</w>
bí bli
se r</w>
se ñ
P ablo</w>
ti en
cu r
i l</w>
vide o</w>
T i
so tros</w>
xuku jeˈ</w>
q ʼ</w>
kʼu riʼ</w>
ka j</w>
hac er</w>
a do</w>
3 0</w>
2 4</w>
m bre</w>
chq e</w>
i s</w>
x a</w>
ʼ x</w>
s as</w>
ku kʼ</w>
e j</w>
e j
ʼ u
la n
te o</w>
qas tzij</w>
qu in
y o
kʼut bʼal</w>
q ˈu
0 0
P or</w>
ch ʼo
es tu
ti jo
mu l</w>
cris ti
tz u
kʼu ʼx</w>
a p
kqa bʼan</w>
to ʼ
chʼa w
de b
pue de</w>
v en
sa l
x abʼ</w>
ka t
al g
c ri
to do</w>
C an
on i
es te</w>
ta jik</w>
p en
chu wach</w>
qʼo qʼ
an te</w>
2 3</w>
S al
on ik</w>
koj o
c ción</w>
chʼaw em</w>
to dos</w>
H e
lo qʼoqʼ
M a
cˈu t</w>
el los</w>
c es</w>
ya ʼ</w>
c re
ar on</w>
mu ch
xa q</w>
j e</w>
kʼu l
c am
xi c</w>
p e</w>
ri q
te kʼuriʼ</w>
D E</w>
o tr
emp lo</w>
K ʼ
to ri
U lew</w>
L I
nuestr a</w>
fami lia</w>
p an</w>
x onem</w>
en cia</w>
ch ˈ
A re</w>
a ñ
di ce</w>
jun abʼ</w>
m i</w>
ar eʼ</w>
nima laj</w>
ri m
O R
i tz
est á</w>
xu ya</w>
al es</w>
v a</w>
her manos</w>
g ar</w>
es o</w>
J as
A S</w>
ʼ l</w>
l ik</w>
kʼ oj
co r
kʼ o
ma na</w>
la b
t h</w>
Jas che</w>
ta n</w>
U T
s en
es to</w>
e la
s ta</w>
B ʼ
cha k</w>
tin amit</w>
tä q</w>
p an
z o</w>
co sas</w>
wa j</w>
S a
2 5</w>
sa r</w>
ma nik</w>
B ʼi
Bʼi xonem</w>
ma s</w>
j wa
2 0
ri l</w>
as í</w>
Can ción</w>
pi xabʼ</w>
a vi
y o</w>
ki ko
sikʼ ij</w>
h u
ci as</w>
V I
er ra</w>
so n</w>
c ómo</w>
ina q</w>
C ris
da r</w>
kki bʼan</w>
J er
bʼ iʼ</w>
kˈ a
un os</w>
d on
pr en
c er
en señ
ani c</w>
ku n</w>
bʼ i</w>
bu en
Cris to</w>
ja w
de r</w>
í cu
J o
t esti
person as</w>
c os</w>
o m</w>
mu y</w>
j a</w>
bʼi xik</w>
u tzij</w>
a chi
D avi
k a</w>
Davi d</w>
en eʼ</w>
D I
pro f
i x</w>
pu és</w>
p o</w>
to bʼanik</w>
mi en
ru cˈ</w>
ja ʼ</w>
a u
s to
bʼa n
c as</w>
L A</w>
2 8</w>
P ro
pod emos</w>
bʼi qʼ</w>
o tros</w>
m b
d ía</w>
fu e</w>
ed ro</w>
P edro</w>
B I
hab ía</w>
bʼa no
2 7</w>
ju bʼiqʼ</w>
2 6</w>
mi s
chʼa w</w>
kˈ ij</w>
l la
cristi anos</w>
P i
j os</w>
kojo ʼ</w>
C RI
chi c</w>
m p
c an
2 9</w>
ra z
des pués</w>
b an
k an
ri q</w>
g r
si ón</w>
wi laʼ</w>
u bʼixik</w>
kʼoj iʼ</w>
u tz
w eneʼ</w>
xu bij</w>
us te
na bʼe</w>
cu er
x cha</w>
e ˈ</w>
r s</w>
un do</w>
ora ción</w>
a m</w>
eta k</w>
u bʼiʼ</w>
pár rs</w>
n ec
qˈu i
bi en</w>
ar etak</w>
pá g</w>
- -</w>
men os</w>
ki wach</w>
s an
d en</w>
s t
pa tan
L o
pí ri
se mana</w>
S e
l ar
ko ju
da des</w>
I s
w iʼ</w>
pregun tas</w>
h e
E S</w>
men te</w>
ta q
con o
cho man</w>
ej emplo</w>
S TI
n i</w>
o l</w>
00 0</w>
k as</w>
ent es</w>
STI AN
CRI STIAN
koj onik</w>
VI D
ap ó
ra eli
is raeli
ho ra</w>
Ma teo</w>
pr es
tu ra</w>
no sotros</w>
v os</w>
i xo
re taʼ
m ik</w>
on ces</w>
pre di
R u
1 9
k bʼan</w>
x qui
1 0
ch we</w>
Q ʼ
pa lab
itz el</w>
a chi</w>
es per
se gui
ra el</w>
Is rael</w>
ar á</w>
a qu
L u
apó sto
con tr
ú n</w>
e a</w>
ab a</w>
I J</w>
tzijo j</w>
kʼ is
li b
wa l</w>
d er
ci on
bʼan tajik</w>
B LI
q ibʼ</w>
píri tu</w>
si s</w>
israeli tas</w>
S an
ca r</w>
R E</w>
C u
k ˈ</w>
i mi
r á</w>
M ar
kʼa m</w>
I N
v er</w>
ci o</w>
utz alaj</w>
ari q</w>
an tes</w>
re ci
ve z</w>
tien e</w>
MA L</w>
am or</w>
qa kʼaslemal</w>
án g
R E
3 1</w>
x an
M o
con ver
ki mik</w>
ver dad</w>
ent onces</w>
dem ás</w>
s ti
ES T
chi ke</w>
Cha kojoʼ</w>
nuestr o</w>
j ij</w>
N a
si g
cho ch</w>
ala k</w>
ícu lo</w>
é n
b i</w>
ma l
fu er
Sal mo</w>
es e</w>
cä qui
BI BLI
uste d</w>
tzi j
ma no</w>
e go</w>
kʼa mal</w>
im por
BIBLI A</w>
u ya
si n</w>
esta ba</w>
kqa bʼano</w>
re uni
anima ʼ</w>
tz ʼi
emp re</w>
qʼ el</w>
k onojel</w>
u ti
es pi
tzu ku
so l
te x
r ía</w>
v e</w>
jawa xel</w>
b anic</w>
I sa
I K</w>
mu er
A jawaxel</w>
u tzi
ter i
A po
testi gos</w>
cha ʼ</w>
f e</w>
espi ri
c e
Re ino</w>
ju mul</w>
qu ib
si empre</w>
p rim
e b
ha y</w>
lu gar</w>
espiri tu
kˈa b</w>
añ os</w>
bʼano m</w>
e bʼal</w>
b ra
m undo</w>
es tas</w>
ayu dar
n u</w>
ku bʼ
O N
ke bʼ</w>
a pren
anima ˈ</w>
wi ˈ</w>
J os
si gui
T A
ten er</w>
lec tura</w>
b re
ama qʼel</w>
na ʼ</w>
sal én</w>
Jer u
pa m</w>
sen ti
w etaʼmaj</w>
w 0
nec esi
h an</w>
f er
Jeru salén</w>
tzij onem</w>
hi zo</w>
3 3</w>
b us
raz ón</w>
en ta</w>
DI OS</w>
kq etaʼmaj</w>
vo l
cha we</w>
Jo b</w>
res u
ma r</w>
ki bʼ</w>
in ik</w>
J U
le a</w>
ʼ ik</w>
t ó</w>
E N
un o</w>
Mo is
xe la
ta ta
jwa taj</w>
ch qa
an za</w>
Mois és</w>
la r</w>
lle v
ho mbre</w>
ta ʼ</w>
ʼ j</w>
n e</w>
pro b
ala b
X u
ma taj</w>
ma k</w>
mu cho</w>
i de
di ó</w>
Z IJ</w>
3 2</w>
pa ci
k ami
C hi
sa ch</w>
T z
ayu da</w>
con fi
E l</w>
kʼ i
xi w</w>
c er</w>
g ente</w>
pa d
qu er
nuestr os</w>
pa s
A re
impor tan
el la</w>
in el</w>
k am
ar eˈ</w>
me jo
chi ʼl</w>
an ik</w>
ʼo m</w>
t ri
ca ción</w>
alg unos</w>
men to</w>
in i
vi si
tijo xela
t ik</w>
s es</w>
vi vi
po si
riq bʼal</w>
g o
tz ʼa
la laj</w>
es a</w>
cha wilaʼ</w>
b ios</w>
so lo</w>
chi we</w>
na ʼ
ta d</w>
res pon
a w
pan eʼ</w>
much os</w>
C or
ser vi
3 5</w>
kʼut u</w>
E L</w>
tori o</w>
ti j
qʼ i
e z
ci e
q i
e les</w>
3 4</w>
xa b</w>
sa l</w>
b ar
ke ʼu
er an</w>
ar t
ca ˈ
ta do</w>
bíbli co</w>
1 4
d í
pue den</w>
bʼi x</w>
ka jwataj</w>
ch ʼ
c lu
b en
UT ZIJ</w>
ki l</w>
en es</w>
chu pam</w>
oj er</w>
je ʼ
tzuku j</w>
imi t</w>
ca da</w>
mb res</w>
tzijo xik</w>
ma m</w>
pu bli
a do
tin imit</w>
c an</w>
u j</w>
in ci
f eli
deb emos</w>
a hora</w>
c en
Se ñ
ma bʼal</w>
etaʼ m</w>
c í
3 7</w>
Señ or</w>
toʼ ik</w>
mis mo</w>
mien to</w>
in ti
cho manik</w>
i l
wa ʼ</w>
u tzijoxik</w>
hi jos</w>
ha sta</w>
Jos é</w>
chi n</w>
c la
b al</w>
tex to</w>
tan ás</w>
re y</w>
lo m</w>
kqa ya</w>
ina k</w>
U N
Sa tanás</w>
se gu
mi n</w>
es cri
c ab
to das</w>
C I
K a
ku bʼano</w>
no mbre</w>
estu dio</w>
si ba
siba laj</w>
ch qui
a dos</w>
P alab
l en
kʼ e
cu mp
b le</w>
estu di
dem os
me di
he cho</w>
con ojel</w>
i r</w>
te mal</w>
koj kunik</w>
ar a</w>
palab ras</w>
Pi xab</w>
T ES
wi l</w>
vo sotros</w>
par te</w>
es cu
o q</w>
nu e
chʼa bʼal</w>
ent re</w>
an o</w>
hac e</w>
ji l</w>
y i
Isa ías</w>
j abʼ</w>
to da</w>
z ar
ke taʼ
co razón</w>
tra ba
o f
qui er
cha ˈ</w>
TES OR
ri lik</w>
J a
TESOR OS</w>
IN O
man era</w>
Qʼ INO
tzijo n</w>
QʼINO MAL</w>
pí tu
ca pítu
er n
L e
cha jij</w>
4 0</w>
s í</w>
da do</w>
a gu
ka bʼan</w>
sa x</w>
con se
pue b
ca do</w>
se a</w>
n e
an ci
pu es</w>
art ículo</w>
est án</w>
i li
co j
ten ía</w>
cu i
cˈ as
ca sa</w>
chi la
S i
un que</w>
ra f
est os</w>
d ó</w>
ñ o</w>
v an
jeʼ lalaj</w>
kiko temal</w>
a jaw
person a</w>
N o</w>
pár raf
kki ya</w>
gra n</w>
cä mi
é is</w>
in a</w>
taq anik</w>
con tra
ci endo</w>
t yo
A B
ku kʼut</w>
a ciones</w>
C o
s ino</w>
min is
ten d
loqʼoqʼ ebʼal</w>
dis cí
discí pu
xe ʼu
pueb lo</w>
kqa j</w>
A bra
tz ˈ
in ter
t em
loqʼoqʼ ej</w>
ch os</w>
p li
chʼo j</w>
ra r</w>
per las</w>
x la
ver bios</w>
v u
d ías</w>
Ti erra</w>
ca li
d en
Pro verbios</w>
bʼa naʼ</w>
kq il</w>
pr inci
qʼi ji
p un
E n</w>
w ik</w>
Ti mo
Ch qa
for ma
V ea</w>
ä x</w>
kʼut ik</w>
gui en</w>
lla ma
du cción</w>
i t</w>
al guien</w>
tr o
ho mbres</w>
tan to</w>
k el</w>
Timo teo</w>
lle g
quib ij</w>
cuer po</w>
es po
ma xik</w>
kan oq</w>
VID A</w>
si er
pu esta</w>
m os
i w
ut in
ec es</w>
lo k</w>
al go</w>
E R
much as</w>
qa j</w>
u kʼutik</w>
al l
l ti
ja w</w>
utin amit</w>
h e</w>
Bʼ A
Are ˈ</w>
ob e
xa k</w>
t bʼal</w>
O J</w>
D ani
tzʼi bʼa
prof ec
ju dí
ent os</w>
Na bʼe</w>
M Á
segui r</w>
S al</w>
chˈ a
reci bi
chʼo bʼ
kubʼ saj</w>
etaʼ manik</w>
ch kiwach</w>
v al
bíbli ca</w>
qʼa tal</w>
ela bʼ</w>
de j
R o
tr as</w>
q il</w>
b o
ari o</w>
3 8</w>
ten emos</w>
Dani el</w>
pon ga</w>
Q U
ra choch</w>
f ec
cris to</w>
k ij</w>
tien en</w>
discípu los</w>
a unque</w>
Jes u
1 7
u lew</w>
p ru
mejo r</w>
cu enta</w>
M at</w>
tz e
r en
de lan
Jesu cristo</w>
tzu ju
l kʼ
Ru mal</w>
kʼis bʼal</w>
do res</w>
re la
ta la
ja chin</w>
lec ción</w>
os o</w>
utzi lal</w>
o x
or g</w>
P ad
n un
kq ariq</w>
in g
u chuqʼabʼ</w>
j w
f í
co men
sikʼ i
p sis</w>
apósto l</w>
3 9</w>
jw org</w>
f ru
toʼ o</w>
cali psis</w>
W e</w>
u qʼij</w>
u patan
W A
1 8
mi l
T at</w>
P regun
inti os</w>
es píritu</w>
CRISTIAN OS</w>
teri o</w>
c ti
li l</w>
ka l</w>
es aj</w>
Pad re</w>
te w
MÁ S</w>
lkʼ wal</w>
cump li
i do</w>
E O</w>
Cor intios</w>
qui enes</w>
her mano</w>
f ri
en contra
CRISTIAN A</w>
Apo calipsis</w>
tala ya</w>
k kaj</w>
du r
se g
k yaʼ</w>
er os</w>
Q A
uya ʼik</w>
to qʼo
d an</w>
A talaya</w>
esta r</w>
contr a</w>
w a</w>
otr as</w>
ba uti
hi jo</w>
cu bij</w>
ri bʼ</w>
po co</w>
sa cer
sacer do
qa chuqʼabʼ</w>
ti erra</w>
Kʼ A
u kʼaslemal</w>
u e
publi ca
s to</w>
de c
cha sikʼij</w>
bʼ ej</w>
importan te</w>
qa kʼuʼx</w>
ta mos</w>
f al
J un</w>
pá g
E z
deci r</w>
ac er
tr o</w>
nuestr as</w>
ali dad</w>
pe t
qui b</w>
mu j
e xik</w>
ma r
sikʼi xik</w>
qui en</w>
Tz ij</w>
m on
M i
CH A
ch kij</w>
a k</w>
otr o</w>
o l
ka waj</w>
visi ta</w>
v en</w>
Lu cas</w>
k chʼaw</w>
em ías</w>
chu wäch</w>
EST R
ver s
kat kunik</w>
d or</w>
ch e
qʼa x
áng el</w>
un as</w>
oni a</w>
judí os</w>
cur so
Pregun ta</w>
C on
AB ʼ</w>
1 6
en vi
b e</w>
E taʼ
bʼi l</w>
3 6</w>
m í</w>
anci anos</w>
buen as</w>
an a</w>
oj i
n an</w>
c ó</w>
z as</w>
quier e</w>
pre curso
ci u
ayu dar</w>
au di
Etaʼ mabʼal</w>
xki bʼan</w>
a da</w>
fami li
ci os</w>
cam bi
v eces</w>
koj ik</w>
gi p
a gra
ri k</w>
g en
r os</w>
ox ibʼ</w>
ixo q</w>
Ja co
CH E</w>
M E
ba ˈ</w>
l í
t ij</w>
par ec
pa z</w>
kki bʼij</w>
apósto les</w>
CH O
re mos</w>
otr a</w>
le c</w>
4 5</w>
st ru
xan eʼ</w>
er to</w>
ab an</w>
I n
tu d</w>
em bre</w>
P a</w>
p le
mal tyo
jas che</w>
P ero</w>
Ka jaw</w>
ta dos</w>
ko pan</w>
ji saj</w>
kʼe x</w>
sa do</w>
ma ni
h án</w>
don de</w>
chi laʼ</w>
ar se</w>
Abra hán</w>
áng eles</w>
qa n</w>
M an</w>
tijoxela bʼ</w>
M t</w>
5 0</w>
cu l
audi torio</w>
r án</w>
VID EO</w>
qʼa laj</w>
di a</w>
achi jabʼ</w>
xan e</w>
s os</w>
ri a</w>
koju toʼ</w>
sigui ente</w>
li c</w>
fi n</w>
A J
ra jwa
rajwa xic</w>
an jaʼ</w>
L os</w>
qas anjaʼ</w>
cha t
pa ñ
forma ción</w>
t res</w>
kʼu tu
ela b</w>
cur so</w>
cie lo</w>
capítu los</w>
Es píritu</w>
wa q</w>
ca j</w>
e qui
kʼul maj</w>
T o
al ij</w>
Q ʼa
l ij</w>
ac e
L E
ser á</w>
muer te</w>
conver sar</w>
des de</w>
mi s</w>
am ente</w>
p waq</w>
u sikʼixik</w>
tz alij</w>
dur ante</w>
d emos</w>
ver da
espiritu ales</w>
a le
q e
ma g
ka tu
, 000</w>
ó n
pad res</w>
n eʼ</w>
xu bʼano</w>
g ani
minis terio</w>
Lo kˈ</w>
coj on
ar a
xu kʼut</w>
ma c</w>
ki kʼaslemal</w>
estr a</w>
cä caˈ
T esti
4 1</w>
pregun ta</w>
ma t</w>
di do</w>
all í</w>
E l
ri lo</w>
le mas</w>
G UN
sier vos</w>
sa xik</w>
hab lar</w>
ra l</w>
prob lemas</w>
f o
bre os</w>
ar es</w>
a wa
ma jaʼ</w>
TI J
in clu
chi rij</w>
P RE
ʼ o</w>
si do</w>
ex pli
S u
S I
z ar</w>
u kʼuʼx</w>
pen s
á l</w>
u bʼanom</w>
ni fi
kʼ a</w>
na da</w>
kʼul mataj</w>
N o
Mar ía</w>
wa ch
tu s</w>
p la
cˈ äx</w>
pre par
d án</w>
un di
l esi
kˈ ala
kqa bʼij</w>
ka bʼano</w>
cu ban</w>
He chos</w>
x ke
reuni ones</w>
se amos</w>
esi s</w>
S l</w>
Qu i
ʼ q</w>
u kojik</w>
n or
K I
ma y
ami gos</w>
E f
kki riq</w>
S A
si ones</w>
hab l
C or</w>
y es</w>
vivi r</w>
re li
or gani
me dio</w>
4 4</w>
én esis</w>
párraf o</w>
nun ca</w>
k o</w>
G énesis</w>
xo ʼl</w>
j am
h on
esper anza</w>
ca p</w>
t emplo</w>
re visita</w>
ani m</w>
an ali
Jaco b</w>
lu ego</w>
kqa koj</w>
conver sa
ci r
c to</w>
A demás</w>
0 0</w>
k ril</w>
es con
des e
e d</w>
demos tra
ci ó</w>
ajaw inel</w>
Ó N</w>
reli gi
posi ble</w>
paci encia</w>
ab il
H i
p ri
ciu dad</w>
á li
n ing
K U
kami kal</w>
D e
hac er
gra cias</w>
chʼo bʼ</w>
li dad</w>
a po
naʼ taj</w>
lib ro</w>
cˈas lemal</w>
tar on</w>
qu emos</w>
ki b</w>
L A
wä chu
wächu lew</w>
o cu
g ri
k kʼojiʼ</w>
ide as</w>
chqui wäch</w>
He b</w>
u wiʼ</w>
tew chi
re cu
emp ez
qʼa la
kiko tik</w>
ka chalal</w>
UT Z</w>
ora r</w>
g an</w>
a t
par ti
ch ij</w>
sig nifi
k kunik</w>
i a</w>
cu cˈ</w>
A n
qʼa x</w>
é r
áli sis</w>
nima ʼq</w>
ja r</w>
in tro
ci l</w>
es pe
m ó</w>
kˈ alaj</w>
espiritu al</w>
wi lo</w>
per i
aqu í</w>
J E
OR ES</w>
m ina
alg unas</w>
BʼA L</w>
pa tä
J achi
pro pi
per mi
oni o</w>
delan te</w>
E gip
se cción</w>
po der</w>
qʼiji la
oni c</w>
di e</w>
an álisis</w>
Egip to</w>
A jaw
me ti
Qʼa tbʼal</w>
He breos</w>
hi ci
for ma</w>
ta ción</w>
sab i
kki koj</w>
cˈ oj
Palab ra</w>
sa li
esta ban</w>
w e
k ke
en cias</w>
tzʼibʼa j</w>
sab er</w>
na j</w>
chila ˈ</w>
pet inaq</w>
ju sti
ter ri
E n
ˈ i
organi z
c un
4 2</w>
pres en
JU X</w>
E N</w>
í amos</w>
án do
ketaʼ maj</w>
ka ya</w>
CI ÓN</w>
á r
conversa ción</w>
ci do</w>
ESTR OS</w>
yo wal</w>
ja la
eta s</w>
tri bu
su kʼ</w>
cä chaˈ</w>
Jachi n</w>
CHO JUX</w>
wi b</w>
ni qˈui
chi x
E li
B abil
x raj</w>
ki chuqʼabʼ</w>
ja ch</w>
g as</w>
al qui
P A
Hi jo</w>
hab ían</w>
g lo
PRE GUN
en ten
D e</w>
tr ó</w>
qui e
q etaʼm</w>
P rim
F ili
1 5
x bʼan</w>
intro ducción</w>
L O</w>
ri saj</w>
Babil onia</w>
ʼ n</w>
u Qʼatbʼal</w>
toqʼo bʼ</w>
ma d
in vi
er es</w>
ado ra
ME J
x qa
ta ba</w>
si r
t en</w>
retaʼ m</w>
res puesta</w>
pr esi
sal v
m ón</w>
g amos</w>
f r
AJ TIJ
la do</w>
in formación</w>
di das</w>
MEJ ORES</w>
MA ESTROS</w>
AJTIJ ABʼ</w>
bíbli cos</w>
á is</w>
e ta</w>
N I
niqˈui aj</w>
koj o</w>
ace p
chi ˈ
S am
van g
ke kunik</w>
U se</w>
su fri
pan ik</w>
su kʼu
s te</w>
predi car</w>
pad re</w>
fu era</w>
es a
cˈ am</w>
ar nos</w>
a q</w>
x pe</w>
pro te
of re
mien tras</w>
c en</w>
PREGUN T
u kʼis
si tu
ku koj</w>
en i
d in
San ti
Ro manos</w>
J n</w>
vang eli
v ino</w>
tzʼa qa
qˈui a</w>
enseñ a</w>
chi ˈ</w>
ca so</w>
x quibij</w>
x oj
ta l
reuni ón</w>
di ciendo</w>
ho y</w>
espe ci
bus quemos</w>
wu cˈ</w>
v ía</w>
u el</w>
Testi gos</w>
C H</w>
1 ,
cu alqui
S i</w>
Prim era</w>
ch ʼi
us a</w>
koj onem</w>
ja ma
di eron</w>
an a
5 5</w>
tzuju j</w>
palab ra</w>
ka wetaʼmaj</w>
k bʼix</w>
ra chiʼl</w>
cˈ o
a si
S E
N i
jama ril</w>
wi c</w>
co j</w>
su cur
p ec
fu eron</w>
en to</w>
bʼ ik</w>
a pa
xu koj</w>
t ú</w>
Bʼ AN
ta ri
4 3</w>
escon didas</w>
z ó</w>
nue vo</w>
men sa
jo j</w>
u pa
patan ij</w>
Sam uel</w>
kin i
4 8</w>
ú l</w>
v a
ke qa
V e
Sa úl</w>
Palab ras</w>
Jer emías</w>
D i
CH I
pi en
di fi
co jo
vi o</w>
ra do</w>
no ti
muj er</w>
for ta
na die</w>
añ o</w>
si e
ki wiʼ</w>
es as</w>
qa kojonik</w>
pa so</w>
gr an
chqa wach</w>
É x</w>
senti do</w>
Santi a
x ril</w>
Santia go</w>
Ajaw bʼal</w>
vi eron</w>
hac en</w>
c lar
kʼa kʼ</w>
ka m</w>
ju yu
bu en</w>
kʼutu ʼ</w>
ac ti
kin bʼan</w>
k pe</w>
A dán</w>
ukʼis ik</w>
tu vo</w>
kʼul ma
uya ʼom</w>
Pro v</w>
t eʼ</w>
jala joj</w>
encontra do</w>
cam ino</w>
prim ero</w>
lo q</w>
C U
xo l</w>
x kʼo
le y</w>
ini c</w>
a la</w>
sol inik</w>
A M
su per
sacerdo tes</w>
chu kˈab</w>
c ru
pu esto</w>
g a
C o</w>
utzi l</w>
tä j</w>
t ru
esta mos</w>
cäcaˈ n</w>
com ple
espo sa</w>
cämi c</w>
pen sar</w>
kʼa xkʼo
kam ik</w>
en fer
di fí
buen a</w>
ac tu
Apo c</w>
ˈ m</w>
eta m</w>
a kʼa
He ch</w>
v as</w>
so mos</w>
san to</w>
predi cación</w>
hu mil
Ve amos</w>
sa chi
PREGUNT AS</w>
v ali
kki chomaj</w>
juna mataj</w>
ch ki
C O
tijoxela b</w>
r an
pro m
quin bij</w>
cha r</w>
vol un
no ta</w>
kʼ is</w>
c el
ban o</w>
an un
N ue
xe j</w>
ta b
t í
ob ra</w>
kʼa teʼ</w>
k ketaʼmaj</w>
profec ías</w>
ki toʼik</w>
conse jos</w>
bi er
W I
Lu c</w>
u xla
em bar
cojon elab</w>
tz ʼ
traba jo</w>
ri r</w>
kʼaxkʼo lil</w>
l len
ku kʼutu</w>
du c
Sal o
R A</w>
2 9
xu wi</w>
o c
kˈ o
koj choman</w>
jo lom</w>
cha bʼanaʼ</w>
ch anim</w>
aqu el</w>
retaʼ maj</w>
p lan
ar án</w>
al mente</w>
T E
tata bʼej</w>
g an
ari q
sa cri
ri ó</w>
ob ern
Xu qujeʼ</w>
xo qil</w>
verda d
s ta
pu l
kki bʼano</w>
chʼobʼ o</w>
tr an
to ma
undi al</w>
t z</w>
sacri fi
pe ca
os os</w>
cu ya</w>
la ción</w>
des tru
Salo món</w>
t é</w>
seg ún</w>
resu ci
lan em</w>
agu a</w>
a ten
á cti
o p
jun al</w>
ju junal</w>
h is
ban om</w>
CH I</w>
ta ˈ</w>
res aj</w>
pu wiˈ</w>
T e
u tobʼanik</w>
su e
per fec
de di
Mar cos</w>
K A
ya bʼil</w>
g re</w>
x yaʼ</w>
wi n</w>
profec ía</w>
lec c</w>
l em
ayudar á</w>
M es
J on
4 6</w>
kʼ oj</w>
kki l</w>
ayu dó</w>
ab e</w>
E c
x q
kʼulma tajik</w>
ke ki
ixo qibʼ</w>
feli z</w>
f ari
f a
ícu los</w>
pu q</w>
itz e
cha jil</w>
R ES
EN T
1 3
wu kʼ</w>
cono cer</w>
com pañ
b e
as t
6 5</w>
noti cias</w>
itze lal</w>
escri bi
G é</w>
ra y
pr ácti
p es
nec es
l f
i gu
chʼ oj
R a
xi bʼij</w>
r se</w>
par e
ob je
fari se
di fer
Mes ías</w>
2 8
quie b</w>
pr ó
or a</w>
mp eʼ</w>
k ina
fu tu
buen o</w>
ani maj</w>
E s</w>
ta k
m pi
fo lle
em i
ú lti
h emos</w>
din ero</w>
H a
Cu ando</w>
x kʼojiʼ</w>
t i</w>
organiz ación</w>
en e</w>
cä ka
TA ʼ
ón de</w>
quer ía</w>
la mpeʼ</w>
ha ga</w>
I s</w>
tzˈ ib
ri b</w>
per don
ki kojonik</w>
k kʼulmataj</w>
el las</w>
cha yaʼ</w>
R om</w>
ti co</w>
tan do</w>
pe cado</w>
ka bʼij</w>
V ide
Pi xabʼ</w>
Es cri
ñ os</w>
llama do</w>
ci erto</w>
Ch qi
ti vos</w>
si panik</w>
retaʼ maxik</w>
en ik</w>
c in
ra j
d amos</w>
á cu
tori a</w>
ten ían</w>
o í
deb e</w>
aj e</w>
J e</w>
u qʼa
tijo j</w>
i wib</w>
folle to</w>
c ari
au tori
N U
ra n</w>
q e</w>
cˈoj i</w>
bʼi xel</w>
S o
xo pan</w>
u familia</w>
er as</w>
cualqui er</w>
Vide o</w>
xki bʼij</w>
vide os</w>
pre ocu
pa í
cˈu x</w>
con clu
acer ca</w>
L AS</w>
ma jij</w>
cha bʼij</w>
E TAʼ
ó ni
ñ a</w>
terri torio</w>
servi cio</w>
kiko t</w>
futu ro</w>
de bi
su kʼi
sukʼi lal</w>
mu lij</w>
e ba</w>
cˈu al</w>
congreg aciones</w>
ad or</w>
v í
to bʼan</w>
qʼax inaq</w>
co mi
servi r</w>
pág s</w>
kˈala ji
embar go</w>
war al</w>
tewchi bʼal</w>
s mo</w>
pun to</w>
o y
j y</w>
gu e</w>
fi r
estr o</w>
di j
ca l
apren der</w>
D A</w>
4 7</w>
u qʼabʼ</w>
g e</w>
es os</w>
chʼ ij</w>
ar lo</w>
upatan elabʼ</w>
ser i
m es</w>
ami go</w>
N e
pro p
mi la
feli ces</w>
f ina
T Z
x ij</w>
vers ículo</w>
u bʼantajik</w>
u Tzij</w>
dem u
J AS</w>
B e
tak anic</w>
san gre</w>
s tan
mensa je</w>
justi cia</w>
2 7
in o
fi ci
am b
Lo qʼalaj</w>
re ino</w>
oji bʼal</w>
m ä
fuer zas</w>
dis fru
con stru
ch eʼ</w>
D ES
man as</w>
koj kun</w>
cha kun</w>
ab le</w>
inclu so</w>
bʼi m</w>
Te kʼuriʼ</w>
w t
wt st
wtst y</w>
qa chʼawem</w>
pa ʼ</w>
n wtsty</w>
men tos</w>
ka chomaj</w>
chˈa w</w>
O V
vangeli o</w>
os a</w>
n abe</w>
m em
la n</w>
in ten
MA J</w>
v esti
se xu
sabi du
sabidu ría</w>
habl en</w>
ta ni
maltyo xij</w>
da dos</w>
c ciones</w>
ben di
U ni
P r</w>
P ed</w>
E R</w>
u cha
resu l
gen er
Lo kˈalaj</w>
vi sta</w>
tij an</w>
ti c</w>
son ik</w>
signifi ca</w>
pr on
go bier
e ter
bʼi sonik</w>
S e</w>
xu ban</w>
s te
bʼ e
L u</w>
u taqanik</w>
tu ras</w>
re cción</w>
r í
q animaʼ</w>
l lo
fi el</w>
cristi ano</w>
i kʼ</w>
con si
ca l</w>
bi c</w>
x rilo</w>
u sar</w>
to j</w>
obe de
o res</w>
le er</w>
her mana</w>
farise os</w>
xu tu
to mar</w>
ta bʼal</w>
qui x
k koj</w>
er ta</w>
deb er
co win</w>
an inaq</w>
bʼ om</w>
P A</w>
L O
E va</w>
A r
ya ʼom</w>
ji co
T a
so y</w>
gr os</w>
xki ya</w>
upatan exik</w>
t oj
re cor
ha ya</w>
am a</w>
Cha wilaʼ</w>
ó ven
óven es</w>
tzʼ ya
pu so</w>
ke ch</w>
f á
di ente</w>
ar ía</w>
sucur sal</w>
pu wiʼ</w>
pru eb
m é
i lo</w>
ru wächulew</w>
pru eba</w>
ke bʼe</w>
hu manos</w>
chqui xol</w>
c ando</w>
H ch</w>
C ho
yi bʼal</w>
to kˈo
mad re</w>
ku mal</w>
ku kʼam</w>
U tzij</w>
El ías</w>
z ca</w>
xu x</w>
wach bʼal</w>
p u</w>
hici eron</w>
de as</w>
chki xoʼl</w>
adora ción</w>
qʼa t</w>
kʼo l
chila nik</w>
ara ón</w>
R A
QU E</w>
C r</w>
xu riq</w>
pa sado</w>
fi eles</w>
cu j
ca s
xe cha</w>
qui z
dar á</w>
conclu sión</w>
chix tzijon</w>
H er
5 1</w>
uni dad</w>
tzʼya q</w>
recu ad
ki kʼuʼx</w>
cä pe</w>
confi anza</w>
wu qu
te mas</w>
ta kan</w>
qʼiji laj</w>
o ca
kʼul el</w>
kʼo lik</w>
aw ibʼ</w>
ala bʼom</w>
pro ve
por t
oj ol</w>
mo mento</w>
kq ana
j óvenes</w>
tzʼaqa t</w>
sa lu
r animaˈ</w>
ar re
vu el
tijo xel</w>
sab emos</w>
prim era</w>
may or</w>
kʼo t</w>
kqa kʼut</w>
k abʼ</w>
e za</w>
a c</w>
C ˈ
xq etaʼmaj</w>
vo z</w>
r ían</w>
qu kʼ</w>
párraf os</w>
p ti
ora ciones</w>
nu kʼaslemal</w>
S a</w>
JE H
x bʼe</w>
ta mente</w>
t emos</w>
r ó</w>
cer ca</w>
J a</w>
2 6
2 ,
ú m
qui én</w>
es ios</w>
cor re
JEH OV
o k</w>
ne t</w>
ch ʼ</w>
K O
JEHOV Á</w>
I deas</w>
ácu lo</w>
tem a</w>
ta qan</w>
prueb as</w>
espo so</w>
di o
I sa</w>
on o</w>
ja wi
i endo</w>
estudi ar</w>
en emi
chq i
volun tad</w>
men cion
kq ilo</w>
KʼA S
D O</w>
A L
tu kel</w>
te r</w>
r on</w>
kʼoj ol</w>
ch nu
ben e
v an</w>
ser es</w>
i g
Ti m</w>
Ef esios</w>
ta j
g ares</w>
dij eron</w>
cu án
No é</w>
G u
5 2</w>
yo ˈm</w>
sie te</w>
publica ciones</w>
mar zo</w>
k kun</w>
ale gr
E M</w>
glo ria</w>
al i</w>
Chqa tzukuj</w>
val or</w>
re paso</w>
prof eta</w>
pe di
no che</w>
i mag
cˈ a
cä cha</w>
Si bʼalaj</w>
Je r</w>
u kamikal</w>
sol dados</w>
enten der</w>
con t
bi ˈ</w>
CHI ʼ</w>
princi pa
ku x</w>
k sach</w>
es cla
di ci
chu banic</w>
G e
C re
pun e</w>
m á
kqa chomaj</w>
R e</w>
pi o</w>
ya wa
man ten
le van
e le
clar o</w>
b eb
RI ʼ</w>
Qui én</w>
4 9</w>
y ebʼal</w>
xe ʼo
uste des</w>
to r
capítu lo</w>
buen os</w>
WA CH</w>
5 3</w>
ya ˈ</w>
u xaq</w>
to r</w>
se an</w>
ra l
pod ía</w>
p os</w>
mi l</w>
ke kun</w>
di go</w>
cono ci
c raj</w>
ariq o</w>
a waj</w>
T e</w>
Ju das</w>
princi pio</w>
his toria</w>
f ía</w>
e vi
cha p</w>
a kʼaslemal</w>
G U
Be t
q onojel</w>
o port
da vía</w>
N ab
L o</w>
A LI
na ciones</w>
la bʼ</w>
ha ciendo</w>
e t</w>
co s
cir cui
bar co</w>
alg ún</w>
o pan</w>
ka lkʼwal</w>
in di
esa x</w>
equi el</w>
en tr
cˈ ä</w>
cuer do</w>
cu mal</w>
ali toma
Ez equiel</w>
ti vo</w>
recuad ro</w>
quiz ás</w>
deb en</w>
es for
chqi laʼ</w>
x qʼax</w>
ma t
ma chʼa
llev ar</w>
lf f</w>
kin u
h ará</w>
e la</w>
c ár
C ON
uti li
tij onik</w>
m en</w>
kʼol bʼal</w>
c animaˈ</w>
San t</w>
Kʼ U
su é</w>
riq i
hab er</w>
coj onic</w>
b o</w>
a cu
Jo sué</w>
xutu j</w>
xe u
u ra
si on
respon dió</w>
lu gares</w>
k er
eni man</w>
cojo n</w>
sab ía</w>
res a
r le</w>
lle gar</w>
l ones</w>
igu al</w>
em b
a g
Ru t</w>
Re y</w>
ti jo</w>
ra mos</w>
pró xi
pod ría</w>
pod er
mi seri
gu s
ba jo</w>
apo y
á b
sig lo</w>
si mo</w>
ri xoqil</w>
miseri cor
m undial</w>
hab la</w>
ex peri
comen tari
cel esti
ap li
agu an
T ra
vers ículos</w>
ti ca</w>
tar ía</w>
lo gr
lib er
ja ˈ</w>
i dio
ch ʼu
aj cha
P o
LE MAL</w>
5 7</w>
ra qan</w>
mi e
g er
fá cil</w>
estr os</w>
M OS</w>
yi ˈ</w>
pron to</w>
naʼ o</w>
lleg ó</w>
con ven
circui to</w>
X IK</w>
Isa ac</w>
to davía</w>
s ent
li o</w>
lesi ast
lesiast és</w>
koju toʼo</w>
es al
ec e</w>
an ti
ab ril</w>
QU É</w>
Ec lesiastés</w>
C r
z ado</w>
vi sto</w>
situ ación</w>
na ción</w>
k naʼtaj</w>
ani kʼoj</w>
P ara</w>
KʼAS LEMAL</w>
s in
oj os</w>
ma yo</w>
chu j</w>
autori dad</w>
én do
vi ene</w>
u tat</w>
riqi taj</w>
k junamataj</w>
fuer te</w>
especi al</w>
d ónde</w>
cie los</w>
bʼa ʼ</w>
5 4</w>
2 00
nor mas</w>
ho r
gu ar
f un
deci siones</w>
chʼobʼ ik</w>
ar é</w>
alitoma bʼ</w>
ali dades</w>
ten ga</w>
r animaʼ</w>
patä ni
kqa kubʼsaj</w>
kami saj</w>
a parec
u chʼa
respon sab
quer emos</w>
po lí
pas ó</w>
o ri
mie do</w>
k bʼe</w>
k ariq</w>
jo ven</w>
famili as</w>
ex is
e ch
de jar</w>
ac ab
I ENT
prim er</w>
mo ra
k animaʼ</w>
in as</w>
comple to</w>
ami entos</w>
Escri turas</w>
É l</w>
ver emos</w>
ob ras</w>
escu ch
deci sión</w>
conse jo</w>
Bʼ I
ó si
tex tos</w>
tab ern
tabern áculo</w>
s pi
qʼijila nik</w>
pen ses</w>
n em</w>
mat rim
kʼas taji
es puesta</w>
di ri
cu a
a chuqʼabʼ</w>
1 Co</w>
ú ni
u chʼobʼik</w>
s tos</w>
g ro</w>
cár c
cárc el</w>
car ta</w>
ar emos</w>
G ali
D A
3 8
prop ósi
on ios</w>
medi ante</w>
f ra
demostra r</w>
chi caj</w>
Le an</w>
Chi sikʼij</w>
vol ver</w>
u kʼutbʼal</w>
s ón</w>
k waj</w>
h al
eta l</w>
es fuer
ar le</w>
alg una</w>
T esal
R o</w>
A b
in stru
g ru
fina l</w>
ej emp
e dad</w>
des cen
cu yaˈ</w>
cha chomaj</w>
bʼi n</w>
apren demos</w>
T A</w>
P re
si endo</w>
sacerdo te</w>
reg a
qʼala jisaj</w>
publica dores</w>
próxi ma</w>
ning ún</w>
ma kaj</w>
aw etaʼm</w>
Nue vo</w>
A l
v amos</w>
un da</w>
pu estas</w>
mil lones</w>
ku chuj</w>
ka wil</w>
en car
chˈa wic</w>
c amos</w>
ba do</w>
a í
u tijoxelabʼ</w>
ta da</w>
peca dos</w>
obern ante</w>
neces ario</w>
d á</w>
cu an
ˈi c</w>
ˈ j</w>
w ij</w>
tz ʼ</w>
r é</w>
pro meti
or o</w>
o cur
ma las</w>
l lo</w>
en contr
L as</w>
Gali lea</w>
Cho j
p ios</w>
mi entos</w>
ketaʼ m</w>
ju sto</w>
ho ras</w>
cu alidades</w>
ca usa</w>
a un</w>
K QA
Ef es</w>
ˈ n</w>
xu ta</w>
xa wetaʼmaj</w>
muer tos</w>
m onio</w>
lu z</w>
ku riq</w>
kqa tzijoj</w>
difí cil</w>
de a</w>
cˈ ä
b on
ar ios</w>
Ju dá</w>
Fili penses</w>
t ˈu
so li
ni mal</w>
mu lti
la ju
c r
G én</w>
ta ban</w>
se pti
re cha
ra jil</w>
qu el</w>
princi pios</w>
parti ci
ku na
ja b</w>
e tze
San són</w>
testi monio</w>
septi embre</w>
pon er</w>
muj eres</w>
mani c</w>
ki bʼanik</w>
d ando</w>
celesti al</w>
S O
JU N</w>
Chqi lampeʼ</w>
7 0</w>
y ó</w>
v es</w>
u toʼik</w>
si a</w>
sab e</w>
s em
propósi to</w>
kʼu laj</w>
iw animaˈ</w>
em o
ca j
bʼ ä
5 8</w>
ti ó</w>
ti r</w>
resu r
lla ma</w>
hacer lo</w>
hac emos</w>
sukʼu maj</w>
precurso res</w>
pes ar</w>
ke ʼ
bʼä l</w>
a kʼuʼx</w>
a delan
T O
P O
BʼA N</w>
A l</w>
4 9
kan aj</w>
ib a</w>
d é
co w
che ch</w>
ca b</w>
as un
a cuerdo</w>
RES P
xu taq</w>
qu ías</w>
mo rir</w>
jico m</w>
akʼa labʼ</w>
S er
P as
5 6</w>
ú n
ut er
tran s
to res</w>
pen diente</w>
pe que
os as</w>
o li
ke ʼo
ixo k</w>
famili ares</w>
es co
cä quibij</w>
confi ar</w>
Her o
xu tzʼibʼaj</w>
ser ía</w>
resur rección</w>
re ta
ra chalal</w>
l la</w>
ka j
ent reg
di endo</w>
cä ban</w>
Bet el</w>
6 0</w>
4 8
u kojonik</w>
tar á</w>
on o
ku chomaj</w>
ki x
ke j</w>
cur sos</w>
cua tro</w>
cow inic</w>
ETAʼ MAJ</w>
C OR
A j
xu chomaj</w>
tz el</w>
mo do</w>
mem oración</w>
kʼi y</w>
h emías</w>
d aba</w>
Ne hemías</w>
M e
C ä
ya ʼo
vi sión</w>
u riq
u mak</w>
toqʼo bʼi
s tad</w>
raz ones</w>
keʼu toʼ</w>
k ik</w>
jawi jeˈ</w>
in f
i wucˈ</w>
i da</w>
ami stad</w>
Ro ma</w>
3 0
testi go</w>
qʼax al</w>
importan tes</w>
etze lal</w>
as amb
aj kʼamal</w>
Es tados</w>
x bʼix</w>
su ce
re cuer
mis mos</w>
m er
ka koj</w>
feli ci
dar le</w>
cu al</w>
chʼa j
cha wach</w>
KʼA J</w>
J W</w>
Con memoración</w>
u kʼa
ter min
tar se</w>
est é</w>
enemi gos</w>
NI KʼAJ</w>
J un
ʼ ja
Í AS</w>
sa xic</w>
qa l</w>
prom esa</w>
no vi
ni jun</w>
kin bʼano</w>
forta lec
er se</w>
cu b
cir cun
ce le
adelan to</w>
Uni dos</w>
RESP ON
P U
M an
3 9
ä q</w>
á ni
xu maj</w>
ta lic</w>
r ero</w>
na qaj</w>
mos tra
mis ma</w>
lar es</w>
ji xik</w>
con ten
com pren
ar espuesta</w>
Y A</w>
ten go</w>
s á
reg res
re ali
k em
di cho</w>
dec ía</w>
J A
xu taʼ</w>
t re
pue do</w>
presi ón</w>
paí s</w>
mu estra</w>
mon os</w>
may or
matrim onio</w>
ka laj</w>
juyu bʼ</w>
di era</w>
cä bi
ci to</w>
a par
S u</w>
7 2</w>
ˈ c</w>
xu kʼulmaj</w>
wuqu bʼix</w>
resa xik</w>
necesi tamos</w>
ku tzijoj</w>
esta do</w>
dis curso</w>
chiˈ l</w>
verdad ero</w>
to y</w>
sir vi
li mpi
escribi ó</w>
chat chʼaw</w>
cha kʼutuʼ</w>
bʼ en
áb amos</w>
uxla bʼixel</w>
tzˈ i
ru tzi
pa r</w>
ma lo</w>
laju j</w>
kojo l</w>
ha m</w>
gra fía</w>
es am</w>
e z</w>
e tzʼa
é ste</w>
segu ro</w>
koj ki
kki lo</w>
f ren
di cen</w>
M AN
Jon ás</w>
ú bli
un a
si ca</w>
qa chak</w>
pres ente</w>
na tu
misericor dia</w>
le j</w>
kʼo l</w>
ka choch</w>
ju puq</w>
im ón</w>
d é</w>
com par
ch eˈ</w>
car ne</w>
aten ción</w>
ar an</w>
C E</w>
ˈi b</w>
xin u
v ar</w>
n oji
ma ra
kʼ ex
kin ya</w>
k rilo</w>
g en</w>
envi ó</w>
cho manic</w>
BI L
xe ˈ</w>
w0 6</w>
u kabʼ</w>
riq o</w>
qʼa tbʼal</w>
qu ij</w>
nue va</w>
kubʼ sal</w>
kki ko
cumpli r</w>
res pe
pa sar</w>
lle va</w>
len gu
ili dades</w>
cre ación</w>
cen ses</w>
M P
G ál</w>
xin bʼan</w>
w0 7</w>
s tas</w>
ro yowal</w>
oni censes</w>
mara vi
la to</w>
katu toʼ</w>
achi jab</w>
S imón</w>
L e</w>
xe ʼj</w>
tiemp os</w>
sa q</w>
lan do</w>
kʼu lanem</w>
koj kikotik</w>
ko tzʼi
ke kʼojiʼ</w>
jo ron</w>
al can
E vangelio</w>
Co lo
x kaj</w>
mina kib</w>
la nik</w>
kʼa y
ju bi
j er
cˈu l
cä minakib</w>
c emos</w>
T O</w>
SI GU
D es
Abra ham</w>
4 0
ta ko
per se
muer to</w>
keʼu x</w>
ka ʼ
for me</w>
ej ér
ar ón</w>
SIGU IENT
R O
Pi lato</w>
Hero des</w>
H o
Cha t
Ch e
ó li
u ko
tyo x</w>
qʼa te
que dar
pa cto</w>
oport unidad</w>
mi o</w>
me te</w>
lo qʼalaj</w>
l ó
kˈ i
kq ariqo</w>
k kini
jun to</w>
hab la
forta le
e cha</w>
de f
com pa
ca paci
I tzel</w>
u junabʼ</w>
ra chajil</w>
ib an</w>
g ado</w>
est re
es tra
en ero</w>
com er</w>
N A
Lu ego</w>
Ez e
5 9</w>
sigui entes</w>
pro gra
o ve
g ó</w>
RI BIL
RIBIL LO</w>
EST RIBILLO</w>
Cu ál</w>
COR O</w>
6 1</w>
2 Cr</w>
u kʼojol</w>
tani xik</w>
sier vo</w>
res puestas</w>
recibi r</w>
ni man</w>
kˈ el</w>
koj on</w>
k bʼanik</w>
i wa
en g
ejemp los</w>
co sa</w>
ci ales</w>
cab eza</w>
b les</w>
T E</w>
K as</w>
x retaʼmaj</w>
mu cha</w>
jaw iʼ</w>
gu en</w>
estudi ante</w>
cari ño</w>
bʼa j</w>
am e</w>
agra deci
U n</w>
M u
úm ero</w>
traba j
res ca
la ˈ</w>
enseñ ado</w>
con ta
chnu wach</w>
Tesal onicenses</w>
K in
A sí</w>
ten cia</w>
so r
reg ún
prácti ca</w>
per man
man eras</w>
k kina
jam ás</w>
expli ca</w>
en cu
cuan to</w>
aj ma
re alidad</w>
pág ina</w>
pi x
p úbli
l é
kojo m</w>
kan a
k riqitaj</w>
h as</w>
empez ó</w>
difi cul
ca t
ado rar</w>
M r</w>
Cu án
x chʼaw</w>
tu bre</w>
tar de</w>
man tener</w>
loqʼoqʼ enik</w>
jubi kˈ</w>
ju i
eter na</w>
el en</w>
dej ó</w>
ch quij</w>
Q ETAʼMAJ</w>
upa tanixik</w>
ta kan
sachi saj</w>
ru xla
ral cˈual</w>
oc tubre</w>
kqa sikʼij</w>
koj bʼe</w>
ja chiʼ</w>
f araón</w>
estu vo</w>
e difi
cu bano</w>
chʼi chʼ</w>
cha ku
Can a
y e
x chaʼ</w>
v ari
ser án</w>
nu chuqʼabʼ</w>
ki kʼ</w>
f eb
feb rero</w>
des ea</w>
bi l</w>
ajaw bʼal</w>
V er
U na</w>
T i</w>
Jun am</w>
Cana án</w>
u chomanik</w>
si ente</w>
si dad</w>
religi ón</w>
qʼa qʼ</w>
qui co
propi a</w>
obede cer</w>
ma ri
in elabʼ</w>
gu erra</w>
bu r
anci ano</w>
In ter
Ez e</w>
x caˈ
verda der
ti o
ti les</w>
ma la</w>
kˈalaji sal</w>
kʼ äx</w>
gu ía</w>
gran de</w>
el lo</w>
e c</w>
dici embre</w>
ch bʼil</w>
bauti smo</w>
ar les</w>
ani a</w>
alegr ía</w>
U tz</w>
ve lación</w>
u x
pi es</w>
mi sion
kqa kʼutu</w>
ki bʼanom</w>
demos tr
Kʼ o</w>
í fi
xu kʼam</w>
ve an</w>
un an</w>
u ro
u cho
tij onic</w>
r á
pro du
on a</w>
ni ños</w>
ju z
ju lio</w>
ina qibʼ</w>
gran des</w>
es es</w>
cu ˈ
cha j</w>
KO J
D t</w>
D E
8 3</w>
1 19</w>
xe bʼe</w>
x kʼulmatajik</w>
vi ó</w>
un gi
lesi a</w>
gru po</w>
eta maj</w>
bʼi s</w>
bʼano w</w>
b h</w>
a prove
CHA TZ
tí tu
ti va</w>
ta des</w>
sa m</w>
pe li
novi embre</w>
le al</w>
ko p</w>
k retaʼmaj</w>
ino mal</w>
hu bi
fu ego</w>
fri ca</w>
dis tin
di entes</w>
cä takan</w>
cha ʼom</w>
kˈ at</w>
kam inaqibʼ</w>
experi encia</w>
en fren
den tro</w>
cla se</w>
W a
Es t
A arón</w>
y ik</w>
qa chiʼl</w>
pu estos</w>
ni maj</w>
in tend
hu mani
cin co</w>
chˈ o
Sa m</w>
Re ch</w>
Jos ías</w>
J am
A le
7 3</w>
super intend
qʼijila xik</w>
par ta
jer iʼ</w>
estra n</w>
di os</w>
demos tró</w>
deci di
b ej</w>
ayudar nos</w>
asi sti
acti tud</w>
SIGUIENT ES</w>
S ab
M O</w>
H A
Es ter</w>
BʼAN IK</w>
1 2
én es</w>
xa j</w>
uter ono
uterono mio</w>
toʼ wik</w>
tata ˈ</w>
r nos</w>
prob lem
pre ci
m etas</w>
kˈala jisaj</w>
ku jeˈ</w>
ki bʼantajik</w>
ji n</w>
in em</w>
es toy</w>
con tin
chi kop</w>
cha qʼabʼ</w>
anima les</w>
Xu kujeˈ</w>
Le y</w>
Ju dea</w>
De uteronomio</w>
ʼa j</w>
tzu cu
tri b
tokˈo b</w>
tew chij</w>
sen ses</w>
segu ros</w>
salu d</w>
nima k</w>
necesi dades</w>
kki kʼut</w>
i erto</w>
ha cia</w>
di g
des a
d í</w>
d ente</w>
con vi
b r
aguan tar</w>
a ju
V ER</w>
L OS</w>
CH ʼ
6 8</w>
6 2</w>
z an</w>
x kam</w>
tzˈib aj</w>
sexu al</w>
res p
pue des</w>
problem a</w>
precurso r</w>
mi emb
l or</w>
k kʼulmatajik</w>
juna b</w>
hab i
escri to</w>
awa chiʼl</w>
LO M</w>
0 5</w>
tz a
tu vieron</w>
so r</w>
sa ch
os es</w>
naʼ ta
mila gros</w>
la xik</w>
ki mak</w>
j ar
etzʼa nem</w>
enfer me
di oses</w>
cu a</w>
bʼano wik</w>
bíbli cas</w>
bon dad</w>
Kʼ UT
Cha yaʼ</w>
xe b
u chʼawem</w>
situ aciones</w>
qui era</w>
o yowal</w>
lem ente</w>
escu char</w>
de ón</w>
cha ple
bi lidad</w>
a das</w>
X e
Tra ducción</w>
R onojel</w>
Ge deón</w>
xo do</w>
v or</w>
uriq ik</w>
tz alaj</w>
ta kej</w>
person alidad</w>
much í
ma los</w>
lec ciones</w>
koju x</w>
chi wilaʼ</w>
chat choman</w>
ali mento</w>
Colo senses</w>
Co mi
A p</w>
últi mos</w>
x chˈaw</w>
tata ˈib</w>
su c
sacrifi cio</w>
re gu
qe bʼ</w>
posi ción</w>
poder oso</w>
pi ed
noji mal</w>
l las</w>
juyu b</w>
instru cciones</w>
hac ía</w>
felici dad</w>
dificul tades</w>
U tzalaj</w>
C on</w>
C am
6 6</w>
yaʼo w</w>
u qasanjaʼ</w>
tzuju m</w>
tr a</w>
so bre
ra lkʼwal</w>
qa toʼik</w>
ning una</w>
n úmero</w>
m í
l á
jam paʼ</w>
can ok</w>
c ent
ar ca</w>
an gu
u co
u chak</w>
ti fi
ol vi
mo lom</w>
kaj ibʼ</w>
in os</w>
he bre
fi li
dec ían</w>
cos tu
ci encia</w>
ad or
NU ESTR
N ú</w>
1 Sa</w>
x er
w 9
tijo bʼal</w>
s f
resp eta
rela cion
nima qʼij</w>
la tas</w>
ku qʼat</w>
kq animaj</w>
gi ó</w>
ed ón</w>
e fec
bi xic</w>
a z
a segu
Pas cua</w>
ALI J</w>
7 6</w>
20 22</w>
2 5
0 2</w>
r ás</w>
pi dió</w>
ove jas</w>
iw ibʼ</w>
inf lu
ib al</w>
com ún</w>
WI LOM</w>
u wäch</w>
u r
tan eʼ</w>
pregun tó</w>
p regún
difer entes</w>
aqu ella</w>
a ta
WI LA
M ala
6 3</w>
ʼa l</w>
xeʼo pan</w>
ví tico</w>
vi aje</w>
us ando</w>
tze lej</w>
si gue</w>
s an</w>
rega lo</w>
pen ti
ofre zca</w>
mag edón</w>
hab éis</w>
at án</w>
Are tak</w>
Ar magedón</w>
w 15</w>
ta ciones</w>
mi go</w>
lo kˈ</w>
kqa taʼ</w>
gra cia</w>
encontra r</w>
comentari os</w>
car on</w>
arre penti
T R
Le vítico</w>
G O</w>
CHA WILA
á latas</w>
ya ʼo</w>
upa tan</w>
rela to</w>
re ac
prom esas</w>
pi e</w>
mu rió</w>
llama da</w>
kʼu li
ji c</w>
her manas</w>
cui dado</w>
cru z</w>
P er
Cˈ ojol</w>
8 8</w>
8 6</w>
8 0</w>
6 9</w>
É xodo</w>
xu kʼutu</w>
x kʼulmataj</w>
taq o
reg i
kʼa si
ki qʼabʼ</w>
f le
enseñ ar</w>
cha qe</w>
bʼa lil</w>
a wukʼ</w>
CHATZ ALIJ</w>
3 ,
é monos</w>
w ibʼ</w>
verdad era</w>
u lo</w>
ri dad</w>
re n</w>
ki junabʼ</w>
em a</w>
ejér cito</w>
comi da</w>
chi que</w>
apo yo</w>
akʼa l</w>
a y
Sa ulo</w>
P u
B el
w etaʼm</w>
uco don
ucodon o
ucodono sor</w>
taji c</w>
qʼa xej</w>
qa chomanik</w>
nima kil</w>
ma si
k nima
gus taría</w>
esper a</w>
cristi ana</w>
cambi o</w>
cam bios</w>
bendi ciones</w>
Ru kʼ</w>
Nab ucodonosor</w>
Je ˈ</w>
A WILOM</w>
x wetaʼmaj</w>
ve a</w>
ura yibʼal</w>
s inti
rela ción</w>
lib al</w>
ke ʼa
kam inaq</w>
jui cio</w>
escla vo</w>
emo cion
difí ci
dem onios</w>
de masi
ch naʼtaj</w>
cambi ar</w>
bene fi
aqu ellos</w>
acti vi
a sig
Ra jawaxik</w>
G álatas</w>
Co mo</w>
C ol</w>
ñ ana</w>
segui da</w>
ni ño</w>
kqa chaʼ</w>
humani dad</w>
es pa
em í</w>
da ño</w>
cam po</w>
an eʼ</w>
No emí</w>
A m
7 1</w>
zar se</w>
xki riq</w>
xin ik</w>
uxla bʼal</w>
t ris
rutzi l</w>
mayor ía</w>
l l
jas tak</w>
hab lar
ele gi
e xa
consi der
con migo</w>
chˈ ab
apa chike</w>
an as</w>
W ar
N A</w>
Fili p</w>
8 9</w>
z aron</w>
sali ó</w>
pien sa</w>
man d
kʼu xaj</w>
ko k</w>
fru to</w>
fal ta</w>
fa vor</w>
eng añ
d ó
co c</w>
chaku bʼal</w>
anun ci
ama r</w>
am bi
T en
S ara</w>
A cab</w>
7 9</w>
6 7</w>
0 1</w>
Í A</w>
x ariq</w>
w 13</w>
w 11</w>
píri tus</w>
pu ak</w>
ob er
mos tr
don aciones</w>
de tal
ayu de</w>
ab aj</w>
M ás</w>
Ju puq</w>
IN A
z os</w>
xla n</w>
xki l</w>
xi b</w>
u chiʼ</w>
ti l</w>
respe to</w>
os to</w>
nun an</w>
e du
con duc
anun cios</w>
anali ce</w>
achi lanik</w>
P ue
J O
C a
9 7</w>
9 0</w>
8 7</w>
7 4</w>
y an</w>
w esaj</w>
v emos</w>
tˈu yu
t es
san tos</w>
pro mete</w>
pañ a</w>
parec e</w>
on oj</w>
no mb
maltyo xinik</w>
ko lo
j eta
fuer za</w>
er tas</w>
e o</w>
cäbi x</w>
con sue
cho ma
cha kojoʼ</w>
c aba</w>
a bʼaj</w>
T es</w>
R U
KʼU T</w>
K u
10 3</w>
- 1</w>
soli xik</w>
sent ía</w>
sachi sax</w>
kʼas taj</w>
ji sax</w>
i dos</w>
glo ri
er g
enseñ anza</w>
difíci les</w>
co mien
cla ses</w>
chʼoj in</w>
ag osto</w>
Re velación</w>
R i
xu kʼex</w>
uni ver
tz ali
to ˈ</w>
tam poco</w>
t ese</w>
senti r</w>
riq om</w>
parta mento</w>
or gu
man dó</w>
dese o</w>
demu estra</w>
cä m</w>
conoci miento</w>
ban a</w>
ab an
X U
P e</w>
D is
7 8</w>
y endo</w>
vo lu
u t</w>
ter en
ra les</w>
progra ma</w>
po ca</w>
o xib</w>
ku y</w>
ku kubʼsaj</w>
in mora
imi tar</w>
hab rá</w>
gobier no</w>
def en
chiˈ j</w>
c waj</w>
bʼi son</w>
asamb lea</w>
San to</w>
P en
ʼ k</w>
u kʼulel</w>
ter mina
ta sta
sen ci
re yes</w>
ra dos</w>
qi qʼ</w>
oca sión</w>
ma ñana</w>
kʼa laj</w>
kqana ʼ</w>
jun tos</w>
ja do</w>
g as
es píritus</w>
en a
chʼa k</w>
ayu dan</w>
anima risaj</w>
aban don
U DI
Sal ón</w>
Jon atán</w>
J os</w>
Inter net</w>
Es cu
En t
y e</w>
tra to</w>
sá bado</w>
s é</w>
r ar
pas os</w>
p are</w>
je ta</w>
inter és</w>
hon or</w>
g enes</w>
escu ela</w>
cä yiˈ</w>
cab an</w>
bʼ exik</w>
Re yes</w>
NUESTR A</w>
ˈ taj</w>
ú sica</w>
áni mo</w>
xe kʼojiʼ</w>
x resaj</w>
verdader os</w>
tzuku xik</w>
tar lo</w>
ta les</w>
se x
pu si
principa les</w>
pod ían</w>
na ˈ</w>
ko wi
k resaj</w>
e x</w>
con su
co lab
bi m</w>
ab a
D esper
Ch iʼ</w>
C é
y ej</w>
xe ʼ
takan el</w>
quib an</w>
pet inak</w>
nue vas</w>
nor te</w>
kˈa tal</w>
ka sikʼij</w>
chʼaj chʼoj</w>
TA Q</w>
Desper tad</w>
B o
7 5</w>
ú m</w>
í n
í do</w>
ándo se</w>
x chaˈ</w>
u bʼe</w>
ten gamos</w>
te lé
telé f
su r
si qˈu
quier en</w>
presi on
pan dem
ma yo
kq esaj</w>
inter es
imag en</w>
esta b
d or
cu ción</w>
contr o
chˈo b</w>
bus car</w>
ab el</w>
a delante</w>
VI D</w>
Q as
Nue va</w>
M ar</w>
7 7</w>
4 ,
0 7</w>
óni cas</w>
vu estro</w>
tr ás</w>
si st
n äq</w>
mostra r</w>
l in
kki tzijoj</w>
kin bʼij</w>
ki qasanjaʼ</w>
ki chak</w>
i miento</w>
fr on
d ón</w>
d r
cre e</w>
chˈ oj</w>
chu chiʼ</w>
ban taj</w>
ar ías</w>
angu sti
ami ento</w>
Qas tzij</w>
PA RA</w>
P I
G obernante</w>
F eli
Cé sar</w>
Cu er
C AS</w>
A R
vi ve</w>
un d
títu lo</w>
to m</w>
ten ido</w>
tar jeta</w>
qa mak</w>
obe deci
keqa toʼ</w>
ka qiqʼ</w>
fr ente</w>
fili ste
estudi antes</w>
enseñ ó</w>
e yebʼal</w>
circun stan
bʼan taj</w>
al e</w>
activi dades</w>
2 Re</w>
xe chaˈ</w>
w animaʼ</w>
tzˈi ak</w>
retaʼ mabʼal</w>
multi tud</w>
kʼa mo
ki chomanik</w>
ju ni
g er</w>
ex tra
est re</w>
des ierto</w>
cu ál</w>
ci dos</w>
bʼi ʼaj</w>
bʼe k</w>
anti gu
UN EM</w>
Tz ˈ
RESPON DA</w>
P ar
K i
Cuer po</w>
ˈ tal</w>
wa chaj</w>
tzucu j</w>
teri or</w>
oca siones</w>
lar go</w>
juni o</w>
invi tación</w>
habl ó</w>
gra do</w>
famili ar</w>
er nos</w>
conduc ta</w>
ci p
X in
T esta
EST UDI
ES I
A s
9 4</w>
ʼ m</w>
xu toʼ</w>
xo c</w>
ven d
person al</w>
mé di
mon ta
m eses</w>
ka wilo</w>
jeta neʼ</w>
inter net</w>
ina r</w>
g res
fi j
cä kaj</w>
b esti
b as
ama kˈel</w>
Tzˈ ib
P or
Na zar
M I
Choj choman</w>
9 2</w>
20 20</w>
wa chiʼl</w>
to mó</w>
re tz
prof etas</w>
pandem ia</w>
nu tat</w>
mayo res</w>
humil dad</w>
hi er
cˈ ut
cha tzukuj</w>
car tas</w>
an zas</w>
a cˈ
KʼUT UNEM</w>
H E
Comi té</w>
B ʼ</w>
B ern
9 5</w>
9 1</w>
é xi
w0 5</w>
tribu s</w>
seg unda</w>
sacrifi cios</w>
re com
qui ä
pun tos</w>
pu erta</w>
propi o</w>
maravi llo
kqa chʼobʼ</w>
kki loqʼoqʼej</w>
katu toʼo</w>
je ˈ
ide a</w>
hebre o</w>
g obern
deber ía</w>
cäqui rik</w>
cojo m</w>
a tzʼyaq</w>
R ajawbʼal</w>
M undo</w>
H ab
BʼAN O</w>
2 Co</w>
xo k</w>
xi mo</w>
xe ki
sukʼu maxik</w>
sol ij</w>
senti mos</w>
sa les</w>
prim eros</w>
ma wi</w>
ku sachisaj</w>
kqa maltyoxij</w>
k kʼis</w>
efec to</w>
du da</w>
debi do</w>
da tos</w>
cä cowin</w>
comen zó</w>
chʼoj abʼ</w>
chaple j</w>
ar ro
ap an</w>
ab é</w>
W eneʼ</w>
U WACH</w>
Ni m</w>
M e</w>
KU KʼUT</w>
0 3</w>
xu tzijoj</w>
vari as</w>
qʼ inomal</w>
quin ban</w>
qa bʼe</w>
pa sa</w>
ku naʼ</w>
kqa chʼij</w>
kq anikʼoj</w>
kat bʼe</w>
ent en</w>
en ci
d encia</w>
con den
circunstan cias</w>
c ía</w>
b ol</w>
ab les</w>
a fir
Ti to</w>
Cre ador</w>
A N</w>
vi era</w>
tz o
tu si
toj bʼal</w>
ti o</w>
ter ren
sa dos</w>
q elen</w>
por no
mi r</w>
la xic</w>
la x</w>
kʼasi ʼ</w>
j es</w>
h á
ga se</w>
filiste os</w>
er á</w>
empez ar</w>
e gip
a te
ON ES</w>
L ib
Ha y</w>
De ut</w>
Bern abé</w>
B RA</w>
8 4</w>
1 Re</w>
w as</w>
u tzujum</w>
tzijo xic</w>
tusi as
traba jar</w>
teri ales</w>
ta kʼa
su kʼalaj</w>
porno grafía</w>
perse cución</w>
pa p
nu kʼuʼx</w>
necesi tan</w>
muchí simo</w>
men ti
kʼastaji bʼal</w>
kqana ʼo</w>
koj kikot</w>
im perfec
ent re
dó lares</w>
cu ar
constru cción</w>
bʼi xonem</w>
ajma kibʼ</w>
a paci
K QETAʼMAJ</w>
Jam paʼ</w>
CO VID</w>
CHAWILA ʼ</w>
u qʼijilaxik</w>
to banic</w>
ti cos</w>
su bi
ra da</w>
qˈu ex
patä n
no tas</w>
le ʼn</w>
ent er
en tusias
e ch</w>
des ta
d á
d ras</w>
cä k
cha c</w>
cele bra
ca sti
bʼi so
asun tos</w>
a tra
Tzˈib talic</w>
Q as</w>
Cr ónicas</w>
B ar
z amos</w>
x sach</w>
x kunik</w>
vu estra</w>
u loq</w>
u bʼim</w>
tem or</w>
su mo</w>
se o</w>
re fle
precurso rado</w>
patan inel</w>
pa sto
obje tivos</w>
ma laj</w>
lleg aron</w>
ke chʼaw</w>
idio mas</w>
gu er
en oj
compañ eros</w>
cho mam</w>
ce lo</w>
bi saj</w>
RE CH</w>
JA S
I MA
G o
20 19</w>
ä was</w>
z ados</w>
xi li
w0 8</w>
w 14</w>
w 12</w>
ven ido</w>
tzijo x</w>
toʼ w</w>
tar án</w>
ma j
le yes</w>
kʼay ij</w>
k esaj</w>
juna maj</w>
idio ma</w>
ha b</w>
est én</w>
cämi cal</w>
cr ania</w>
contin u
con f
com uni
bʼ saj</w>
aj mak</w>
a kojonik</w>
a di
U crania</w>
SE Ñ
Ra hab</w>
I n</w>
F I
B ro
9 8</w>
. .</w>
. ..</w>
í n</w>
y eron</w>
xu chaʼ</w>
wa li
u sukʼumaxik</w>
u jolom</w>
tien es</w>
ta qal</w>
sab a</w>
religi ones</w>
que dó</w>
qe leʼn</w>
pregún tese</w>
polí tica</w>
paí ses</w>
of en
le al
leal tad</w>
kin bʼe</w>
k sachisax</w>
in vesti
i we</w>
hubi era</w>
fi l
di ción</w>
d ro
cˈoj ol</w>
cäcaˈ no</w>
cojon inak</w>
a ún</w>
a man</w>
V AN
U BʼANIK</w>
Nazar et</w>
Kʼ ojol</w>
KI WACH</w>
Dis fru
Aj kʼamal</w>
w0 9</w>
vu estros</w>
sti tu
so la</w>
sist ema</w>
se manas</w>
reci b
r me</w>
qui l</w>
pág inas</w>
pi de</w>
pec to</w>
mision eros</w>
lla mó</w>
le vi
k choman</w>
ex pul
der e
cˈo lic</w>
cä sach</w>
cre ó</w>
contr ario</w>
co meti
ch ka
b ec
au to
ac arías</w>
ab ri
Z acarías</w>
Testa mento</w>
DES CU
Bʼ E</w>
9 6</w>
xki lo</w>
w0 4</w>
va ya</w>
uko wil</w>
tzʼa pi
tra du
toqʼobʼi saj</w>
re des</w>
ra chiˈl</w>
or den
mo ti
mila gro</w>
mi les</w>
l i</w>
kqa chajij</w>
ki tobʼanik</w>
gobier nos</w>
cu esti
compa sión</w>
ch bil</w>
bene fici
apli cación</w>
a fron
V i
K KI
DESCU BRA</w>
1 000</w>
ʼ onoj</w>
xki ko
x chˈawic</w>
vol vió</w>
siqˈu ij</w>
segu ridad</w>
resca te</w>
re cono
r lo</w>
publica dor</w>
patäni l</w>
m or
kqa kojo</w>
hi ja</w>
hab lando</w>
en can
conta cto</w>
c li
a d</w>
a con
X a</w>
T am
INA Q</w>
CON T
AL GO</w>
2 Sa</w>
á zar
ya k</w>
xo m</w>
xki koj</w>
xin ya</w>
v arios</w>
ten gan</w>
teléf ono</w>
senti mientos</w>
rí o</w>
re tal</w>
re fer
que da</w>
publi cación</w>
predi cando</w>
plan eta</w>
no ˈj</w>
kˈi ji
koj chʼaw</w>
inmora lidad</w>
di ez
ca us
bʼ enik</w>
an cia</w>
al ma</w>
aj es</w>
X qui
X aq</w>
Se g
Ent onces</w>
Disfru te</w>
00 00</w>
0 8</w>
á les</w>
yawa bʼ</w>
x wilo</w>
x koj</w>
ux lanem</w>
tr ono</w>
ti po</w>
sigui ó</w>
s tra
pien se</w>
par á
mo des
miemb ros</w>
i c</w>
demasi ado</w>
con ciencia</w>
asisti r</w>
Tz ʼonoj</w>
J or
Es dras</w>
ESTUDI O</w>
10 0</w>
0 9</w>
ázar o</w>
vo y</w>
un ojibʼal</w>
tar nos</w>
si guen</w>
sa bʼal</w>
retz taqan</w>
reac cion
par aí
paraí so</w>
na cion
kˈ ä
ki bʼan</w>
jo l</w>
i b</w>
es p
des cub
cre encias</w>
anali zar
War iʼ</w>
L ázaro</w>
EN SEÑ
Bʼ IJ</w>
ó mi
É N
u loqʼoqʼebʼal</w>
tz aq</w>
tra ducción</w>
tend rá</w>
sufri miento</w>
sucur sales</w>
so mb
so ciales</w>
pens amientos</w>
pare ció</w>
má ximo</w>
medi a
lo qʼ</w>
le ales</w>
ja cho
in media
importan cia</w>
fi er
ela laj</w>
e vangelio</w>
demostra mos</w>
da d
cˈas taj</w>
cuán to</w>
cre en</w>
cor ro</w>
co me
car se</w>
ca dos</w>
RI J</w>
AM I
ʼa laj</w>
xin chomaj</w>
uro x</w>
ungi dos</w>
to ˈic</w>
su fici
sali r</w>
ro pa</w>
re presen
re de
qa Tat</w>
pon e</w>
o bli
mejo res</w>
lu ch
koj kʼojiʼ</w>
k tijo
in e</w>
im pul
h am
ham bre</w>
evi tar</w>
disfru tar</w>
co jo</w>
c ta</w>
al rede
acon te
X O
WA CH
W INAQ</w>
PO R</w>
P aneʼ</w>
K ʼ</w>
CHʼ A
1 10</w>
u tzukuxik</w>
si c</w>
resul tado</w>
raz on
que u
pu do</w>
o di
kinu toʼ</w>
kaʼ y</w>
k animaˈ</w>
itz elalaj</w>
gri ego</w>
cha tzujuj</w>
ari a</w>
ali men
VAN CE</w>
U BʼI
TE X
M ER
Bel én</w>
A VANCE</w>
6 4</w>
é ramos</w>
Á frica</w>
x kʼis</w>
wach inik</w>
ven ir</w>
ti dad</w>
salv ación</w>
qʼate j</w>
qa familia</w>
qa chilanik</w>
oí r</w>
mal v
machʼa chʼ
ma x</w>
le jos</w>
kʼuli ʼ</w>
ku b</w>
ili dad</w>
fil tra
er te</w>
du l
do lor</w>
ce p
ad á</w>
U J</w>
Testi go</w>
HA C
Di ablo</w>
A na</w>
9 9</w>
Ó MO</w>
uti jik</w>
terren o</w>
superintend ente</w>
sie dad</w>
ru wäch</w>
r íamos</w>
que ˈ</w>
pue da</w>
pará bo
pare ci
pa tani
mu si
mos tró</w>
machʼachʼ em</w>
liber tad</w>
ku n
ku bʼ</w>
ju kubʼ</w>
in c
her mos
g ar
fortalec er</w>
cul pa</w>
ayu dado</w>
an siedad</w>
a ver
ON IK</w>
In formación</w>
Eli seo</w>
De partamento</w>
C ÓMO</w>
4 000</w>
1 Pe</w>
úni co</w>
z ando</w>
xe qui
w etam</w>
mu li
l mente</w>
kqa loqʼoqʼej</w>
kki kʼam</w>
judí o</w>
ju l</w>
humil de</w>
fuer tes</w>
ex pres
escri b
cuán do</w>
con forme</w>
chʼaw ik</w>
chu x
cha taʼ</w>
ch oj
an an</w>
al í
WACH BʼAL</w>
Lo t</w>
Je z
DES CRI
B en
xu taˈ</w>
w em</w>
w 2
ven ga</w>
tz ak</w>
te m</w>
sa ú</w>
sa ti
prometi do</w>
pas ando</w>
kˈa kˈ</w>
ku kʼex</w>
ke ʼi
k eniman</w>
i den
do min
diez mo</w>
cä m
cor ri
con tribu
ch una
can aj</w>
ca si</w>
b ran
b or
al tar</w>
UBʼI XIK</w>
Qu e</w>
P CIÓN</w>
M undial</w>
Jor dán</w>
E saú</w>
DESCRI PCIÓN</w>
Ch q
C ar
ándo le</w>
xeb eˈ</w>
v ían</w>
tze laj</w>
tz am</w>
tr ón</w>
sufri r</w>
seg undo</w>
ruxla bʼixel</w>
quin ya</w>
qa tzij</w>
necesi dad</w>
ma risaj</w>
ku sach</w>
hab iendo</w>
g ober
enseñ anzas</w>
de ja</w>
cäm inak</w>
cu rik</w>
ci r</w>
car a</w>
caj ma
aw animaʼ</w>
ado res</w>
TEX TO</w>
Feli pe</w>
F araón</w>
D EL</w>
Chqi laʼ</w>
AM OS</w>
8 1</w>
x choman</w>
wi la</w>
w p
ven cer</w>
u kʼe
sex o</w>
recibi ó</w>
pi l</w>
p ón
ora mos</w>
nima ri
m pe
ju stos</w>
ig lesia</w>
ha gamos</w>
e qeleʼn</w>
di v
demu estran</w>
cajma bal</w>
besti a</w>
an te
Y o</w>
U naʼta
S U
Q a
Cha bʼij</w>
CH RIJ</w>
1 39</w>
wa la
tribu lación</w>
se is</w>
ro res</w>
qui si
pro gres
pro duc
po li
pied ra</w>
patani n</w>
oí do</w>
on el</w>
ni tzʼ</w>
necesi ta</w>
m esa</w>
lib ros</w>
le g
ki riqom</w>
ki bʼiʼ</w>
go zo</w>
esper ar</w>
er rores</w>
ent rar</w>
en en</w>
detal les</w>
d i</w>
cˈ ol</w>
ci erta</w>
cambi ó</w>
bʼen aq</w>
bendi ción</w>
L ea</w>
14 5</w>
xe opan</w>
x qaj</w>
vol ver
tzali jik</w>
taj inaq</w>
sati sf
re mo
principa l</w>
pens emos</w>
pas taneʼ</w>
par tes</w>
n t</w>
mo mentos</w>
llev ó</w>
ke ta
entusias mo</w>
dro gas</w>
cu lti
confi r
com p
bauti zarse</w>
actu ar</w>
S nt</w>
Pue de</w>
Je f
1 27</w>
1 18</w>
xuku bʼsaj</w>
xi n</w>
x bʼanow</w>
w 10</w>
u ja
recuer da</w>
ray ij</w>
po s
ob ser
ku tzujuj</w>
ka s
jwa tajik</w>
hab ría</w>
gober na
en seguida</w>
der es</w>
cä cˈoji</w>
con ómi
chʼa bʼej</w>
ani ma</w>
analizar emos</w>
alrede dor</w>
aj qʼaxal</w>
T AN
K qa
F E
C i
0 6</w>
ʼja laj</w>
é poca</w>
xo kil</w>
xki bʼano</w>
u Kʼojol</w>
tra duc
taq onik</w>
ta ra</w>
so lu
qui ero</w>
pres enta</w>
pe tic</w>
p ij</w>
oj o</w>
kkini maj</w>
kki patanij</w>
kas naˈ</w>
j inik</w>
go l
cha ji
apa chin</w>
am án</w>
aj tijoxel</w>
P on
F l
Ec l</w>
D an</w>
Cr ón</w>
AN Z
2 3
1 Ti</w>
ʼja l</w>
á genes</w>
vali ente</w>
uni maxik</w>
tijo xik</w>
tata bej</w>
tasta lik</w>
señ as</w>
sab ios</w>
que o</w>
qa pil</w>
pa trón</w>
lí deres</w>
lo g
keʼ el</w>
ke choman</w>
im ágenes</w>
humil des</w>
hu mano</w>
gen tiles</w>
e conómi
cämi saxic</w>
chqa bʼanaʼ</w>
bo ca</w>
ar los</w>
ali mentos</w>
acep tar</w>
Sab es</w>
P RO
ON EM</w>
N os</w>
Jez abel</w>
El í</w>
E x
0 4</w>
ñ as</w>
ya c</w>
xu j
xeʼu x</w>
xeʼu toʼ</w>
x kamik</w>
w animaˈ</w>
vi u
u solixik</w>
que pe</w>
patä n</w>
man do</w>
koj tzijon</w>
kkiko tik</w>
ke kikotik</w>
kat choman</w>
kam saj</w>
in for
fí si
en tró</w>
em pi
du ra</w>
cˈut bal</w>
conse cu
ci miento</w>
chux eʼ</w>
c era</w>
ar ri
ama mos</w>
ab i
Unaʼta bʼalil</w>
P ER
Ho mbre</w>
Eze quías</w>
DA D</w>
Cha sikʼij</w>
C CIÓN</w>
1 Cr</w>
xke bʼan</w>
uqʼa tik</w>
tra ta</w>
ten iendo</w>
taq chi
sor pren
sirvi endo</w>
resu men</w>
re vista</w>
re ve
ra ción</w>
qˈui sic</w>
partici par</w>
o w</w>
musi cal</w>
mal dad</w>
loqʼoqʼ exik</w>
lleg ado</w>
li kalaj</w>
ktijo wik</w>
ki wäch</w>
ka x
iwa lkʼwal</w>
im presion
i te</w>
gu el</w>
esta rá</w>
espa da</w>
deber íamos</w>
d aban</w>
chˈ ä
cam ente</w>
c uni
a b</w>
To dos</w>
QA KʼASLEMAL</w>
Por que</w>
Mi guel</w>
K oj
G ÉN
CH IK</w>
C A
xki chomaj</w>
xcaˈ n</w>
x ta
wu kub</w>
ucha jixik</w>
tzʼibʼa x</w>
tokˈo bisaj</w>
ti er
tend remos</w>
ta re
ta p
señ al</w>
reta m</w>
religi osos</w>
raj tijoxelabʼ</w>
quib ano</w>
qui énes</w>
qui so</w>
qa tiempo</w>
pre dijo</w>
por tada</w>
pod rían</w>
permi te</w>
n ojibʼal</w>
la jil</w>
l v</w>
l los</w>
ku loqʼoqʼej</w>
kkina ʼ</w>
kat kun</w>
j inel</w>
ixo kib</w>
ha gan</w>
fal sos</w>
est ó</w>
es pec
cˈ am
chˈ ob
chi bana</w>
ch as</w>
añ a
ar ik</w>
a h
a chʼawem</w>
Re bec
Ni malaj</w>
K e
GÉN ESI
GÉNESI S</w>
F i
CI ONES</w>
2 4
wa lij</w>
us ó</w>
u i</w>
tor men
si tio</w>
sem ej
responsab ilidades</w>
rar y</w>
mä jaˈ</w>
mo l
me tros</w>
kʼo xik</w>
kotzʼi ʼjalaj</w>
ka bʼ
ju lu
i có</w>
expli có</w>
dis puesto</w>
diri gi
ch wij</w>
cam paña</w>
all á</w>
Mala ui</w>
Lib rary</w>
Jer icó</w>
Est á</w>
E d
10 5</w>
w 16
vi a</w>
v ini
tra i
sol inel</w>
so is</w>
sa kil</w>
pi er
perdon ar</w>
le as</w>
ku ta</w>
ki bʼe</w>
kana ʼo</w>
ja chique</w>
ho spi
er r
ej a</w>
e qelen</w>
do c
dis cip
debi li
cu en
chi laj</w>
beb er</w>
aju wächulew</w>
a su
V ER
Rebec a</w>
Jef té</w>
I J
G ran
z ada</w>
y iʼ</w>
xu tzujuj</w>
wi lampeʼ</w>
vi ven</w>
un e</w>
trans mi
te li
sufici ente</w>
sikʼ inik</w>
si quiera</w>
sexu ales</w>
segui dores</w>
rá pi
recu per
re co
qʼ ik</w>
pón gase</w>
preocu pa
pe tik</w>
op ini
lab or</w>
kʼa q</w>
ko m</w>
ki cha
k ö
ina go
hacer se</w>
gu sta</w>
en a</w>
ec esi
du ro</w>
di eran</w>
dar nos</w>
dar les</w>
car le</w>
a pastaneʼ</w>
Tam bién</w>
N u
N ecesi
MAN IK</w>
M U
I g
Es tu
E vangeli
Cha bʼanaʼ</w>
B a
A unque</w>
A ma
9 3</w>
xin bʼij</w>
w 17
ven ta
so b
s inago
re almente</w>
qʼ e
qu ía</w>
mon te</w>
kin kun</w>
keʼo pan</w>
kami saxik</w>
ka ki
ka jwatajik</w>
hu bo</w>
gra ti
don os</w>
di re
cämi saj</w>
cen tr
car ga</w>
bʼ u
b lan
a fec
TR OS</w>
P RI
I S
Fl p</w>
Escu ela</w>
8 5</w>
3 7
w o
tzˈ a
t on
si enten</w>
ri os</w>
responsab ilidad</w>
recibi do</w>
qˈu is
per der</w>
no mbres</w>
man da
llen a</w>
kqa patanij</w>
kki taʼ</w>
kki chʼobʼ</w>
ki lik</w>
k yaʼow</w>
israeli ta</w>
h ú</w>
gi o</w>
g eo</w>
f recu
cui dar</w>
costu mbre</w>
con seguir</w>
cha qi
ch ˈu
a trás</w>
QU I
NI M</w>
N OS</w>
L U
Ju jun</w>
8 2</w>
ˈ l</w>
úm eros</w>
vi mos</w>
uqʼa te
ucha ʼik</w>
tzijo l</w>
ti do</w>
tap ya</w>
ta kal</w>
so por
so la
respon de</w>
re b
quin i
qa bʼantajik</w>
pusi eron</w>
pro vo
per dido</w>
parti r</w>
o h</w>
ma tar</w>
li mi
kin koj</w>
ke kʼastaj</w>
ke chakun</w>
ka kojo</w>
ja ʼ
is las</w>
hon ra</w>
f g</w>
cristi anas</w>
consue lo</w>
asun to</w>
art ículos</w>
apren dido</w>
aparec e</w>
al cˈual</w>
a z</w>
a co
R S
Eli sab
DI S
A hora</w>
A W
- 2</w>
xi bʼi
x tzalij</w>
uqʼate xik</w>
u pixabʼ</w>
sinti ó</w>
ri que
ri ca</w>
re al</w>
pu diera</w>
pro cla
or den</w>
oli at</w>
moti v
medi tar</w>
k kam</w>
ja chaʼ</w>
g obernante</w>
f echa</w>
dec emos</w>
cäqui ya</w>
comentari o</w>
ad mi
ac ˈ</w>
ac ciones</w>
G oliat</w>
A bi
últi mo</w>
ye ʼj</w>
we t</w>
w etamaj</w>
u chʼi
su f
qa wach</w>
pedi rle</w>
p anic</w>
or ando</w>
o posición</w>
nu junabʼ</w>
n eli
n ame</w>
mu ri
mejo rar</w>
maj taj</w>
lu char</w>
levan tó</w>
ku toʼ</w>
ku qʼalajisaj</w>
kqa kʼulmaj</w>
kke bʼan</w>
escu cha</w>
en so</w>
empez aron</w>
ec er</w>
e xi
e volu
e ti
ch ʼik</w>
aparec en</w>
anima r</w>
al to</w>
agu ante</w>
SA L
R alcˈual</w>
Cha wetaʼmaj</w>
5 ,
10 6</w>
1 20</w>
y ec
xo ju
xke bʼij</w>
we ch</w>
vi aj
u wächulew</w>
tran qui
termin ó</w>
sen tado</w>
sa mari
samari ta
q iʼ</w>
públi ca</w>
pri sión</w>
pon en</w>
or k</w>
ning uno</w>
nimari sax</w>
mi ʼal</w>
maltyo xin</w>
m úsica</w>
m á</w>
kʼe jeʼ</w>
kotzʼi ʼj</w>
ko chʼ
kki kʼutu</w>
ki tinamit</w>
ke tobʼan</w>
ju le
jeˈ lalaj</w>
inmedia to</w>
inci enso</w>
he chos</w>
hab ilidades</w>
g ü
fi esta</w>
enfer mos</w>
do queo</w>
dese os</w>
descen dencia</w>
des cri
cˈa mal</w>
cualqui era</w>
cono cido</w>
ci entos</w>
che ʼa
ca sas</w>
ar me</w>
an el</w>
actu alidad</w>
achi ʼl</w>
a conse
S ib
Mar doqueo</w>
K ʼa
Eze q</w>
2 000</w>
19 14</w>
x qil</w>
uni kʼoxik</w>
tori os</w>
super ar</w>
reci be</w>
pro h
pod rá</w>
pa j</w>
p ik</w>
or ó</w>
oni tas</w>
obje tivo</w>
machʼa chʼik</w>
kʼi ʼalaj</w>
ku taʼ</w>
kin kunik</w>
ker i
k r</w>
in spi
gra ve</w>
f on
e lec
decidi r</w>
d ero</w>
cˈ acˈ</w>
ci al</w>
ca sos</w>
bran d</w>
apoy ar</w>
Xu bʼij</w>
Xu bij</w>
W uj</w>
Qu in
M ÍAS</w>
Ju e</w>
Jaco bo</w>
Elisab et</w>
D em
yo ˈ
volun tari
un ci
toʼ m</w>
tata bʼenik</w>
tan tes</w>
su peri
se cre
recor dar</w>
parábo la</w>
p ción</w>
oy entes</w>
neli o</w>
manda to</w>
ma má</w>
llev aron</w>
lesi as</w>
kini mal</w>
ki jujunal</w>
kabʼ raqan</w>
k esax</w>
iw etam</w>
entr a</w>
egip cios</w>
cä caj</w>
constru ir</w>
cono cer
cono ce</w>
chʼa kan</w>
cab o</w>
au xili
anali zar</w>
alg uno</w>
ab ij</w>
X ak</w>
Es te</w>
Ed én</w>
EN ES</w>
E mpi
D eb
Cor nelio</w>
10 2</w>
í o</w>
xqui ya</w>
we b</w>
v i</w>
ucho maxik</w>
u ku
su ger
so corro</w>
sig an</w>
si mp
ray inik</w>
prepar ado</w>
po b
permi tió</w>
pedi r</w>
o ʼj</w>
nu chʼawem</w>
katu x</w>
jo k</w>
im pli
i rá</w>
i r
g ados</w>
evolu ción</w>
enferme dad</w>
en se</w>
des car
dere cho</w>
der ra
dec lar
consecu encias</w>
chnu wäch</w>
chka wäch</w>
car r
an alí
aj tijoxelabʼ</w>
aj chʼojabʼ</w>
agradeci dos</w>
a ˈ</w>
a dul
Y ork</w>
W inak</w>
T ZIJ</w>
S í</w>
E f</w>
Cuán do</w>
1 Jn</w>
xu naʼ</w>
x ban</w>
wi xoqil</w>
ukʼa mik</w>
u tukel</w>
tend rán</w>
tal la</w>
t ʼu
regu lar</w>
prometi ó</w>
paci ente</w>
of reci
o sidad</w>
nima kˈij</w>
ni a</w>
me ta</w>
ku yaʼ</w>
ku maj</w>
koj qaj</w>
ki yaʼom</w>
ketaʼ mabʼal</w>
kami sax</w>
ka tzijoj</w>
k qʼala
k kʼiy</w>
iw onojel</w>
i ra</w>
glori fi
gener al</w>
esfuer zo</w>
ent ó</w>
cha kunik</w>
bo c</w>
ba ción</w>
analí celo</w>
ama do</w>
ace ite</w>
a qasanjaʼ</w>
T he</w>
R es
Qʼ IJ</w>
LA J</w>
K im
Des pués</w>
Ch u
ya ˈtal</w>
xeʼ el</w>
vi ol
uchʼa qapil</w>
tra tar</w>
t ía</w>
su b
stan te</w>
sir ven</w>
sabi o</w>
s í
s é
qˈu ex</w>
que as</w>
prote ger
orgu llo
necesi taba</w>
na q</w>
lo kˈalaj</w>
lec tores</w>
l ina</w>
kqa chʼobʼo</w>
kat tzalijik</w>
k taqan</w>
k kʼutu
ju ra
jaʼ lil</w>
hac ían</w>
habla ba</w>
gu sto</w>
especi ales</w>
escrib as</w>
dí n</w>
di da</w>
cä cowinic</w>
contr ol</w>
cono z
cal ma</w>
beb é</w>
ayudar án</w>
ar la</w>
ama ba</w>
Pre pare</w>
O M</w>
NA BʼE</w>
Mi queas</w>
G ala
Empi ece</w>
ENSEÑ ANZ
D ónde</w>
6 ,
20 21</w>
xki maj</w>
xin bʼe</w>
xe pe</w>
x bi
ven za</w>
trib un
to ma</w>
ti go</w>
su r</w>
resuci tado</w>
qui waj</w>
qe yebʼal</w>
prácti cas</w>
prob able</w>
p len
obje ción</w>
ne ut
mo ri
le emos</w>
l es
kq e
ka r</w>
ji quib
jar dín</w>
ing l
guer ras</w>
ex am
est emos</w>
esco gi
er ía</w>
difer encia</w>
demostra ción</w>
consu l
cha do</w>
aj tij</w>
Ver dad</w>
Ta q
Sib alaj</w>
Qʼ A
P E
M ac
Kim ik</w>
A WA
1 23</w>
ár bol</w>
É XO
ÉXO DO</w>
x eniman</w>
ver dades</w>
uya kik</w>
u Tat</w>
tij abʼ</w>
ti vas</w>
ti cas</w>
ten imiento</w>
tar le</w>
ste is</w>
s ó
ri xokil</w>
r tió</w>
qˈuis bal</w>
qˈui ä
qu es</w>
prop ios</w>
pa usa</w>
p ra
ob st
mani a</w>
le za</w>
kˈ e
kʼex taj</w>
kki toʼ</w>
ina do</w>
i mos</w>
hab le</w>
for mas</w>
emp ec
dis puestos</w>
deb ía</w>
de pen
d ale</w>
co razones</w>
chqa xoʼl</w>
chi kaj</w>
b t</w>
al co
a tat</w>
a pro
TA J
B ala
Al g
A geo</w>
5 8
20 18</w>
yi c</w>
xu chʼobʼo</w>
xi l</w>
x waj</w>
wuqu bʼ</w>
w er</w>
tzuju nik</w>
tu des</w>
te le
tako m</w>
sa car</w>
recom pen
re p
raj patan
qʼala ji
qu etam</w>
pres encia</w>
pon d
per ten
pe le
no ʼj</w>
ma ji
kqa qʼijilaj</w>
kin choman</w>
ki chʼawem</w>
jacho m</w>
g ación</w>
fuer an</w>
ez as</w>
estab le
esfuer zos</w>
er lo</w>
enferme dades</w>
em ente</w>
di vi
cä qu
car go</w>
ayudar lo</w>
an c
a pareció</w>
W at
T U
Se amos</w>
S in</w>
En señ
Chi x
20 12</w>
óni ca</w>
éxi to</w>
x yiˈ</w>
vi eran</w>
tu r
ta te</w>
t ú
sig amos</w>
resul tados</w>
qi lom</w>
preocu pa</w>
p ó
ocur ri
ni dad</w>
monta ña</w>
mo de
logr arlo</w>
lo res</w>
li sta</w>
koj el</w>
kkiko t</w>
kki kubʼsaj</w>
ki wa</w>
i lu
fal sas</w>
es ca
encontra mos</w>
enci ma</w>
di ga</w>
d ora</w>
cont estó</w>
co pan</w>
bʼiso j</w>
ah í</w>
PRI MER
JU AN</w>
J ES
CU RS
AW ETAʼ
A yu
3 6
10 4</w>
Ú S</w>
xu chap</w>
vi vo</w>
us o</w>
uchʼi jik</w>
te ban</w>
sigui eron</w>
si panic</w>
s án</w>
ri co</w>
ra dio</w>
que qui
prob ab
pro cu
of ren
ni sán</w>
men u
ma estros</w>
ma do</w>
llev an</w>
li taj</w>
lab ores</w>
keki toʼ</w>
k bʼixik</w>
ji kalaj</w>
je waʼ</w>
iden tifi
hier ro</w>
ha go</w>
h s</w>
est ás</w>
er tos</w>
en erg
dar é</w>
chuna qaj</w>
chq ij</w>
capaci dad</w>
ca ciones</w>
c ó
c tamente</w>
b hs</w>
T EO</w>
N í
JES ÚS</w>
F ran
Es teban</w>
A sia</w>
14 1</w>
án donos</w>
y q</w>
y al</w>
xu cˈut</w>
wi lom</w>
ukʼe xik</w>
só lo</w>
sig los</w>
si mb
segui mos</w>
sab en</w>
ray ibal</w>
ra cha
qʼa bʼa
pro yec
pregun te</w>
ora l</w>
on elab</w>
mu cha
ma teriales</w>
lo gra
llev aba</w>
kʼ el</w>
ku sukʼumaj</w>
knima r</w>
kki kʼex</w>
ki tat</w>
keqa loqʼoqʼej</w>
ke qil</w>
ke pe</w>
kax lan
k wetaʼmaj</w>
k tobʼan</w>
j yq</w>
ingl és</w>
ho mo
exis te</w>
des as
deci mos</w>
d era</w>
con tigo</w>
cari ñ
can ciones</w>
be bi
au ti
a we</w>
a familia</w>
a compañ
T EN
KA YA</w>
E MOS</w>
C es
C A</w>
Ab el</w>
5 000</w>
2 Ti</w>
- 3</w>
é stos</w>
xu bano</w>
x ib
wa chalal</w>
u l
tij onelab</w>
signifi cado</w>
si qˈui
ra ba</w>
qa wiʼ</w>
prepar ar</w>
ni b</w>
n oj
mar on</w>
ma kunik</w>
lu m
ku chʼobʼ</w>
kqa tzukuj</w>
kojki toʼ</w>
ki kʼulel</w>
ki kʼel</w>
keʼo k</w>
k kesaj</w>
hab lan</w>
escla vos</w>
envi dia</w>
enseñ an</w>
emp e
elec tr
du e
des anima
cˈä jisax</w>
cu ales</w>
chaqi ʼj</w>
cab lajuj</w>
b ra</w>
ar ían</w>
Pro póngase</w>
O r
LI N
K onojel</w>
Es to</w>
Am én</w>
z ona</w>
xeʼo k</w>
xe tzalij</w>
wi ʼjal</w>
vali entes</w>
tzˈa ka
ti saj</w>
se pul
ro manos</w>
re presenta</w>
qi lo</w>
pu ra</w>
prof eti
p as</w>
nima risaj</w>
mode lo</w>
medi da</w>
ki ya</w>
k bʼanowik</w>
grati tud</w>
fal sa</w>
espec ífi
ent ífi
empec é</w>
deci dió</w>
d ra
cre er</w>
con ce
co pi
chi ya</w>
car á</w>
c é</w>
ar reg
am en
alcan zar</w>
a qʼabʼ</w>
TA J</w>
Sal u
RE VI
Pro f
LE CCIÓN</w>
L ec
I MP
Es d</w>
D ER
Cha kʼutuʼ</w>
B auti
1 35</w>
1 00
xqa bʼan</w>
x ka
v í</w>
utz ʼa
uja chik</w>
tzˈib tal</w>
tz ˈ</w>
tra tó</w>
to wik</w>
ti f
ter cera</w>
tend ría</w>
suc esos</w>
res pecto</w>
res is
q ariq</w>
prote ger</w>
prof undo</w>
pres a</w>
pra cti
pod ríamos</w>
pla ta</w>
pa sa
menu do</w>
ma yibʼal</w>
llama ba</w>
li bre</w>
les c
kʼas kʼa
kö p</w>
koj toʼwik</w>
kki ta</w>
k qʼax</w>
jura mento</w>
jule ˈ</w>
je laˈ</w>
in to</w>
in s
gri e
err or</w>
equi lib
en or
em ia</w>
du ras</w>
do ce</w>
cä cˈäjisax</w>
chˈ i
chʼi jo</w>
chʼa kan
chi köp</w>
c ero</w>
bus ca</w>
benefi cia</w>
awa lkʼwal</w>
al ta</w>
aj chʼoj</w>
acˈ al</w>
ab und
a somb
Si las</w>
S an</w>
S ama
P une</w>
ON O
N E
M on
CHO MAJ</w>
C aí
Ama qʼel</w>
1 34</w>
1 30</w>
y en</w>
xi bʼin</w>
x ketaʼmaj</w>
w 18
val e</w>
u e</w>
tí simo</w>
tra v
sa k</w>
rela ciones</w>
qʼa n</w>
quin bano</w>
pue dan</w>
proh ib
po cos</w>
pi xab</w>
peque ño</w>
pec tos</w>
pa g
ofre ce</w>
mi r
kochʼ onik</w>
ki qʼij</w>
impor tar</w>
i rse</w>
ex presión</w>
do ma</w>
discip lina</w>
da p
cä ril</w>
chˈob o</w>
chu chiˈ</w>
chqa kojoʼ</w>
caj maj</w>
asig nación</w>
as pectos</w>
ar r
ani mó</w>
am o</w>
aj yu
ac ción</w>
a f
So doma</w>
O n
Es t</w>
Caí n</w>
CHʼA BʼAL</w>
C AN
Are ʼ</w>
7 ,
20 17</w>
1 15</w>
1 ,000</w>
zar nos</w>
xa laj</w>
wa kˈä
viu da</w>
vi enen</w>
ve amos</w>
u l</w>
u chi
sa f
saf at</w>
ra k</w>
qu eta
qa Dios</w>
q ik</w>
presen tar</w>
opini ón</w>
obe dientes</w>
nacion al</w>
mencion a</w>
levi tas</w>
lengu aje</w>
kʼa ma
kkʼutu wik</w>
keta m</w>
ker il</w>
ke tzalij</w>
ka tzij</w>
k i</w>
i p</w>
h all
destru cción</w>
desas tres</w>
de jado</w>
cä kˈat</w>
b ri
aprove char</w>
aj kojol</w>
a dap
Wa jun</w>
W UJ</w>
Sama ria</w>
SO LIN
SE AMOS</w>
NU KʼASLEMAL</w>
N úmeros</w>
N e</w>
Chqa kʼutuʼ</w>
Che ʼa
CO N</w>
C O</w>
A us
A R</w>
1 50</w>
1 33</w>
1 16</w>
éndo se</w>
xu cˈam</w>
x nima
wach bʼäl</w>
u k</w>
u cuerpo</w>
tris te</w>
tin g</w>
tan te</w>
sue ño</w>
si kʼ</w>
ri o</w>
rela tos</w>
qa qʼij</w>
pu ertas</w>
pru dente</w>
prote ge</w>
pob res</w>
pen a</w>
patäni xic</w>
pa tan</w>
pa qal</w>
p eʼ</w>
p el
muer e</w>
llen o</w>
lle gue</w>
ku naj</w>
kki chaʼ</w>
k kamik</w>
jun ami
ja l</w>
j an</w>
i o</w>
for d</w>
fi el
estudi ando</w>
envi ado</w>
di ver
di mos</w>
dese an</w>
cˈo libal</w>
cämi sax</w>
corre o</w>
conten tos</w>
co st
circun ci
ci entífi
cent ral</w>
ben deci
bar ca</w>
autori dades</w>
ab o
Taq anik</w>
RU Kʼ</w>
Qʼ O
Qui énes</w>
Ma g
L i
K E
JAS TAQ</w>
I mag
Cha wilampeʼ</w>
A CIÓN</w>
6 9
1 24</w>
- brand</w>
É f
Éf eso</w>
ya ˈic</w>
y i</w>
y em</w>
xqui cˈam</w>
x cˈoji</w>
vivi mos</w>
trav és</w>
ter remo
ta lik</w>
si ga</w>
san ik</w>
respon der</w>
recibi eron</w>
re pren
qa wuj</w>
pró ji
próji mo</w>
propi as</w>
precurso ra</w>
peli gro</w>
pare cido</w>
ori gen</w>
o cho</w>
ni e
mand amientos</w>
mad ero</w>
lle ga</w>
kowi risaj</w>
ki c</w>
kaxlan wa</w>
k wil</w>
im pri
g ra</w>
discípu lo</w>
di rección</w>
di ez</w>
de vo
de termina
dar se</w>
cumpli rá</w>
cu alidad</w>
corre cto</w>
co t</w>
ci eron</w>
bauti zado</w>
ayudar los</w>
an e</w>
aj wa
agra dar</w>
ado lesc
ad ver
a cor
PRIMER A</w>
OR TAN
Necesi dades</w>
IMP ORTAN
I SA
DIS CURS
4 7
10 7</w>
10 1</w>
1 26</w>
ʼi bʼa
z ías</w>
xqui ta</w>
wakˈä ch</w>
vi o
u cˈ</w>
tˈuyu libal</w>
tˈuyu l</w>
tzʼibʼa m</w>
tzʼi l</w>
tu ve</w>
tio quía</w>
te za</w>
t án</w>
rique zas</w>
qʼi jol</w>
que cojon</w>
q xa</w>
pi ente</w>
peca dores</w>
pa ˈ</w>
pa se</w>
pa ces</w>
oy e</w>
ne ga
natu ral</w>
kʼamo w</w>
ku naʼo</w>
kat tatabʼenik</w>
ju x</w>
jo ro
in justi
i chuqʼabʼ</w>
há bi
his tori
hacer nos</w>
fun cion
fir mes</w>
fir me</w>
ej er
des ast
desast re</w>
chˈ aj
cha wij</w>
ari dad</w>
a toʼik</w>
T ES</w>
M A</w>
Kʼ O</w>
Jeho ás</w>
H ar
G ran</w>
Cor into</w>
Bala am</w>
B i
An tioquía</w>
3 000</w>
20 13</w>
1 31</w>
1 11</w>
éndo le</w>
xki kʼut</w>
xin majij</w>
wi la
vi gi
tzo ko
toj bal</w>
taji saj</w>
suce dió</w>
su che</w>
sa cu
re pu
re ba
qu en</w>
pas an</w>
pa laj</w>
on al</w>
na ve
mo ral</w>
min a</w>
ma estro</w>
kʼu lan</w>
kuna q</w>
ku kuy</w>
kki tij</w>
kin riq</w>
k eni
ju lew</w>
injusti cias</w>
ex cel
equi vo
e je
do y</w>
difer ente</w>
deb ían</w>
de je</w>
cumpli ó</w>
cul p
contro lar</w>
conten to</w>
cas ting</w>
ca das</w>
bus cando</w>
be xic</w>
as és</w>
ar ea</w>
ad casting</w>
Y A
RES U
Man asés</w>
M i</w>
M O
Con o
Ces area</w>
Bro adcasting</w>
AJ AWA
3 5
14 3</w>
ó s</w>
xu nimaj</w>
xu chiˈj</w>
xin maj</w>
u miʼal</w>
u kubʼ
tif ar</w>
t h
si ento</w>
si enta</w>
sa q
regi ón</w>
ra í
ra q</w>
ra d</w>
qui qˈu
probab lemente</w>
parec er</w>
o per
ni ve</w>
na ˈtaj</w>
manten erse</w>
ma y</w>
m é</w>
kuna bʼal</w>
ku chajij</w>
ki t</w>
ki kʼutbʼal</w>
kat tzijon</w>
justi fi
imperfec tos</w>
gol pe
dec en</w>
cˈä x
cˈul el</w>
cä bantaj</w>
culti var</w>
con tiene</w>
con stan
cho qʼabʼ</w>
ben ak</w>
asamb leas</w>
an o
al o
ad vi
SI TA</w>
Ru sia</w>
REVI SITA</w>
Po tifar</w>
O j</w>
Ní nive</w>
Me jo
Mar ta</w>
KQA BʼAN</w>
In vi
Ig lesia</w>
H e</w>
An dr
Ale mania</w>
A ni
4 6
20 14</w>
1 21</w>
úni ca</w>
xe kunik</w>
xa t
xa jwataj</w>
x ban
wu mal</w>
val ora</w>
v ador</w>
tzi r</w>
tze ʼn</w>
tes oro</w>
terri torios</w>
suger encias</w>
ser emos</w>
sab éis</w>
s ó</w>
ro de
quer idos</w>
quer ido</w>
pon erse</w>
pap el</w>
ocu pa
o do</w>
natu ra
mo l</w>
manten ernos</w>
ma chʼ</w>
l aridad</w>
kqa toʼ</w>
kqa kʼex</w>
kkina ʼo</w>
kki qʼijilaj</w>
ke qaj</w>
ke kojon</w>
ke junamataj</w>
kana ʼ</w>
ka kʼut</w>
k bʼantaj</w>
fu i</w>
de por
conven cidos</w>
chˈab al</w>
cho lajil</w>
c tos</w>
ba talla</w>
au men
actu ali
a ji
a demás</w>
Su cur
SOLIN IK</w>
I Bʼ</w>
C AM
Ba al</w>
A pren
2 2
xu jach</w>
ve ía</w>
ut os</w>
ut her
uther ford</w>
tu x</w>
tien da</w>
taʼ ik</w>
sigui endo</w>
senti rse</w>
se par
s co</w>
reb el
r r</w>
qui rik</w>
que b
qa ʼn</w>
permi ti
pel ícu
n as</w>
mí o</w>
kki tzukuj</w>
ka chiʼl</w>
ju ez</w>
ini ci
ina cti
im posible</w>
hi ce</w>
he breos</w>
fiel mente</w>
estr as</w>
equi po</w>
enor me</w>
electr óni
der á</w>
dej aron</w>
dar ía</w>
d amente</w>
cuˈ bi</w>
cumpli miento</w>
chʼakan ik</w>
chi wäch</w>
c eso</w>
aten der</w>
arri ba</w>
apren diendo</w>
WA JUN</w>
TAJ IK</w>
R utherford</w>
N O
Ju ec</w>
Gala ad</w>
E QUI
A L</w>
8 ,
últi ma</w>
ú til</w>
é li
xin riq</w>
vivi endo</w>
vi vían</w>
u w
sin cer
sali eron</w>
ri jaʼlil</w>
resuci tó</w>
res to</w>
res ol
rep ente</w>
qˈuiä k</w>
que ch</w>
prove cho</w>
prote cción</w>
pres entes</w>
perfec to</w>
oc rá
obe di
obedi encia</w>
o dia</w>
l v
kki chajij</w>
ka tin
ka kubʼsaj</w>
indi ca</w>
ha z</w>
esi ón</w>
elegi r</w>
ed onia</w>
cha tzʼibʼaj</w>
asegu r
an u
an terior</w>
ac tú
a qʼa
Ser vi
SAL MOS</w>
RESU ME
RESUME N</w>
Pu bli
Ma estro</w>
Ch animarisaj</w>
Can adá</w>
CHA KU
C onojel</w>
B ri
A si
yoˈ w</w>
ya ʼ
xki taʼ</w>
utzʼa qa
univer sidad</w>
u loqʼoqʼexik</w>
su y
sir ve</w>
si en
rí n</w>
ri lic</w>
rega los</w>
recor demos</w>
re vi
re fu
produc t</w>
po tencia</w>
pens ando</w>
na cido</w>
mä tz</w>
mu ku
mos le</w>
mi ra</w>
la tzʼ</w>
ku chaʼ</w>
kqa xutuj</w>
ko l</w>
kaʼ yik</w>
ka qa
k tzalij</w>
k qʼa
jo bʼ</w>
jeʼ likalaj</w>
ina l</w>
in justicia</w>
esp ías</w>
en tro</w>
ed rín</w>
dis pon
d ina
cˈu tu
conver ti
con so
co se
carr era</w>
cambi ado</w>
c ina</w>
bi a</w>
b ib
awa choch</w>
auxili ar</w>
ara y
agra de
abri el</w>
ab or
U zías</w>
T OS</w>
San edrín</w>
Po demos</w>
G abriel</w>
D R
- product</w>
ʼ ta
ú tiles</w>
z ará</w>
xqui taˈ</w>
x wil</w>
x toʼw</w>
vi ento</w>
v as
ukubʼ saxik</w>
u toʼm</w>
ti saxik</w>
tes or
teren e
tele visión</w>
taqo qxa</w>
tan ta</w>
su al</w>
simb óli
servi rme</w>
se as</w>
ri kom</w>
res ta
recib en</w>
re fier
ra mien
quiqˈu el</w>
quer ían</w>
presen tación</w>
preocu p
oy ó</w>
ob tener</w>
nu familia</w>
natu rales</w>
médi co</w>
maravillo so</w>
lu vio</w>
logra r</w>
le m</w>
l en</w>
kʼu le
kki tatabʼej</w>
kki kʼulmaj</w>
k en
in om</w>
i jaˈ</w>
hici era</w>
gra ves</w>
gan ar</w>
ez ca</w>
ex ten
e go
dispon ib
dar on</w>
cˈäx cˈol</w>
cä bij</w>
cuen tas</w>
cre y
cor ru
con tó</w>
compren der</w>
chʼu mil</w>
ca yó</w>
ca xlan</w>
c ón
bʼi x
bus can</w>
ben dijo</w>
ajaw inelabʼ</w>
acab ará</w>
Su che</w>
Sal vador</w>
S E</w>
RA R</w>
QA S
Mac edonia</w>
IMA G
El la</w>
E Z
Con go</w>
Cha jinel</w>
Bauti sta</w>
19 19</w>
14 4</w>
ö j</w>
xibʼi bʼal</w>
w 19
vuel ve</w>
vol vieron</w>
to kib</w>
to k</w>
taj inak</w>
soli ci
sola mente</w>
señ or</w>
semej ante</w>
s emos</w>
r ías</w>
quedar on</w>
qa tobʼanik</w>
per dón</w>
p i</w>
on g</w>
o cˈo
nima ʼ</w>
ni c</w>
m ba</w>
ló gi
lengu a</w>
kʼa su
koju chajij</w>
kin an</w>
kat ki
kam näq</w>
k wilo</w>
k tzʼaqat</w>
k m</w>
k bʼisonik</w>
h aría</w>
físi co</w>
fra g
ex tre
ex hor
erg encia</w>
em ergencia</w>
don ate
donate jworg</w>
do poderoso</w>
deci dido</w>
cäk abij</w>
con qui
com pr
com por
ci tos</w>
chki jujunal</w>
cas arse</w>
c k</w>
c ed
bʼa qil</w>
bi en
ba sado</w>
ba j</w>
aprove ch
apaci bilidad</w>
ala ban
al kʼ
W il
To más</w>
Se a</w>
RI Q
Pro medio</w>
O li
MA TEO</w>
Ka t
KU BʼIJ</w>
DI CE</w>
BʼI X
4 5
20 15</w>
xu chaplej</w>
xki kʼam</w>
xin wil</w>
xin bij</w>
wä q</w>
wa choch</w>
vi vía</w>
vi vos</w>
vend rá</w>
v ado</w>
tu qui
tro pe
ti co
ten tación</w>
t remos</w>
so los</w>
segu ía</w>
salv ar</w>
ri kil</w>
respon diendo</w>
qʼa ti
qa bʼanom</w>
peque ños</w>
pe ti
parec ía</w>
p wäq</w>
ofre cer</w>
mina r</w>
mensa jes</w>
kʼa jisaj</w>
ki chʼabʼal</w>
keʼu chajij</w>
ke kam</w>
impri mir</w>
her ramien
fortale ce</w>
er án</w>
enemi go</w>
dá frica</w>
des per
cäqui l</w>
cäka ˈn</w>
cä cojon</w>
ciu dades</w>
ci c
bʼ inik</w>
ban al</w>
aba onitas</w>
a qʼij</w>
V en
TIJ ONIK</w>
TI N
Su dáfrica</w>
RESPON DER
QʼO Qʼ
Qʼ ij</w>
LO QʼOQʼ
ISA ÍAS</w>
G re
Evangeli os</w>
Cu áles</w>
C R
A y</w>
1 14</w>
ˈ no</w>
í do
xqui l</w>
x kina
w el
viol encia</w>
tˈu yi</w>
tribun al</w>
teri al</w>
ta cˈ
so l</w>
se d</w>
sa le</w>
ray inic</w>
q o
pa qiʼ</w>
pa l</w>
os cu
ori g
nu qasanjaʼ</w>
no m</w>
n ojel</w>
mu estre</w>
mpe ˈ</w>
min utos</w>
me bʼaʼ</w>
mal tio
ku ʼ
koj kamik</w>
ki ló
ka ʼn</w>
k ya
jala n</w>
ina ˈ</w>
ig lesias</w>
ho l</w>
her encia</w>
gener osidad</w>
g abaonitas</w>
ex per
escribi r</w>
es tando</w>
energ ías</w>
en gen
des can
corre cta</w>
chu tzijoxic</w>
chi kij</w>
can tidad</w>
ca les</w>
bʼa l
ba j
an ías</w>
afron tar</w>
Y o
X ane</w>
Ti ro</w>
Seg unda</w>
S ha
RESPONDER ÍA</w>
RE MÍAS</w>
R AJAWA
RAJAWA XIK</w>
O R</w>
Na amán</w>
Kʼ E
K UN
Jeho safat</w>
JU JUN</w>
JE REMÍAS</w>
IMAG EN</w>
F esto</w>
Es ta</w>
Cre e</w>
Chqa bʼanaʼ</w>
As á</w>
1 38</w>
1 29</w>
1 12</w>
xu qʼalajisaj</w>
xi ʼj</w>
x qilo</w>
x majtaj</w>
vini eron</w>
ver lo</w>
uni mal</w>
tzʼibʼa tal</w>
trib u</w>
tend rían</w>
ten éis</w>
tare as</w>
t bʼal
tbʼal tzij</w>
superintend entes</w>
sepul c
sal vo</w>
ri ko</w>
quico temal</w>
qu eniman</w>
pre cio</w>
pod amos</w>
pi da</w>
nu kojonik</w>
natura leza</w>
mu estran</w>
mand amiento</w>
man á</w>
ló bu
lóbu los</w>
koj qebʼ</w>
kini maj</w>
kiló metros</w>
ke tzijon</w>
goberna r</w>
especi almente</w>
encu entra</w>
en fr
eje cu
di je</w>
di ciones</w>
dar án</w>
cre ado</w>
colab orar</w>
chqui jujunal</w>
car nos</w>
can ción</w>
can a</w>
c í</w>
ayudar on</w>
as ta</w>
an ojibʼal</w>
acab ar</w>
To do</w>
Sal ones</w>
R aquel</w>
PU Q</w>
O TROS</w>
JU PUQ</w>
EZ EQUI
EZEQUI EL</w>
D escu
Ch e</w>
AN IMA
5 6
20 16</w>
20 11</w>
14 4000</w>
y amos</w>
xu tzˈibaj</w>
x esax</w>
ve y</w>
v ec
u kojom</w>
u b</w>
tuqui el</w>
tormen ta</w>
ti kil</w>
teren ej</w>
tari o</w>
suc ed
san tifi
qˈu is</w>
qʼax näq</w>
pro ce
pi ro</w>
perse ver
pareci da</w>
orgu llo</w>
ob o
muku bal</w>
mani f
mal kaʼn</w>
m pe</w>
kʼutu m</w>
kʼama ʼ</w>
kʼa xalaj</w>
kqa kʼam</w>
koj bʼisonik</w>
kin naʼo</w>
ke r</w>
ka chʼobʼ</w>
ka chaʼ</w>
ha yan</w>
frecu encia</w>
f in
expli car</w>
engen d
doc tr
dis tribu
dis cu
di bu
deb es</w>
cui da</w>
comp rar</w>
co pa</w>
cli ma</w>
chˈaj chˈoj</w>
chʼa qa
chu yaˈic</w>
cam inos</w>
ca den
c é
bauti zados</w>
b á
ar ás</w>
apren dió</w>
ante mano</w>
alco hol</w>
aj tijabʼ</w>
U sikʼixik</w>
Oli vos</w>
Mo z
M I</w>
L ES</w>
KA BʼANO</w>
K en
Jo h
JO B</w>
Har vey</w>
Gran de</w>
ENSEÑANZ A</w>
CAN CIÓN</w>
C ale
BʼIX ONEM</w>
B RE</w>
Ani me</w>
7 9
4 ,000</w>
Ó NI
xu xibʼij</w>
xki kʼulmaj</w>
xin naʼo</w>
xela bʼ</w>
xeb el</w>
x niman</w>
uqʼa tbʼal</w>
uni dos</w>
ukʼa xel</w>
ue la</w>
tris teza</w>
traba ja
te ˈ</w>
ta ran</w>
superi or</w>
sinago ga</w>
servi rle</w>
sa chik</w>
s ten
ri to</w>
regres ar</w>
recuer de</w>
recibi mos</w>
re par
ra ban</w>
qui c</w>
qe ch</w>
qa saj</w>
públi co</w>
prob ar</w>
pri vi
presen taciones</w>
por o
po bre</w>
plan es</w>
pla ta
pix baj</w>
pien san</w>
pe or</w>
o f</w>
mora les</w>
mi c</w>
li as</w>
le yendo</w>
le o</w>
la da</w>
kˈe ku
ku toqʼobʼisaj</w>
k sukʼu
k ariqo</w>
in an</w>
i wukʼ</w>
ho gar</w>
her e
escri be</w>
enseñ arles</w>
encontr ó</w>
en ví
dé bi
cu áles</w>
cu esta</w>
cti tud</w>
confi amos</w>
chu bixic</w>
cha majij</w>
ch bʼe</w>
can o</w>
bʼi saj</w>
b ar</w>
ayudar le</w>
arrepenti do</w>
arr oj
ar ra
apro bación</w>
apar i
an emia</w>
aconte ció</w>
a jolom</w>
Ti jo
Q onojel</w>
MA R
L ab
KI KO
D é
CH OS</w>
CH K
B Í
Ajaw inel</w>
1 17</w>
ó lo
ándo les</w>
yaʼ tal</w>
xu sach</w>
xu coj</w>
xoj chʼaw</w>
xkiko t</w>
x kʼam</w>
x kanaj</w>
ver á</w>
uni ce</w>
u vas</w>
tzˈib am</w>
ti a</w>
teri ores</w>
tem ente</w>
tan tas</w>
ta lia</w>
sien tan</w>
si paj</w>
sen sa
secre to</w>
sa qil</w>
refier e</w>
recompen sa</w>
qa tukel</w>
q ariq
prof es
posi tivos</w>
polí ticos</w>
pied ras</w>
paci entes</w>
o i
o fi
nue vos</w>
mo tivos</w>
mb o
lá m
logr ó</w>
log ía</w>
kubʼ sax</w>
koj raj</w>
kix kunik</w>
kin chomaj</w>
ki familia</w>
ju eces</w>
jam ín</w>
is bʼal</w>
in terior</w>
in ta</w>
impor ta</w>
g áis</w>
filtra ciones</w>
etaʼ mabʼal</w>
estre llas</w>
espiritu almente</w>
esper aba</w>
esfor zamos</w>
er ún</w>
en as</w>
ec en</w>
dig no</w>
deci rle</w>
cu cˈam</w>
com pla
científi cos</w>
chˈ ac
ch ˈ</w>
c tor</w>
c es
as es
ambi ente</w>
am or
agra decemos</w>
a x</w>
TA R</w>
S í
S on</w>
S ol</w>
MAN OS</w>
LA L</w>
L es</w>
Kʼ isbʼal</w>
E unice</w>
Cam erún</w>
CHAKU BʼAL</w>
BÍ BLI
Ben jamín</w>
Andr és</w>
AL GUN
3 3
14 7</w>
é ni
ÓNI CAS</w>
Í CU
xu tzukuj</w>
xu sikʼij</w>
xu naʼo</w>
xeʼu taq</w>
x kun</w>
wi quiä
wiquiä kˈab</w>
visi tar</w>
vi c
us an</w>
univer so</w>
un ca</w>
ti tikil</w>
te is</w>
sí mbo
señ ales</w>
senci lla</w>
segu ra</w>
ruxla bʼal</w>
res i
ren o
que tz
prepar ados</w>
plata forma</w>
pen saba</w>
peca dor</w>
pasto r</w>
par i
o dio</w>
muli m</w>
men sual</w>
kʼis taj</w>
kʼi y
ku kʼulmaj</w>
ko yowal</w>
ko wil</w>
ko s
kin kikotik</w>
k taj</w>
j in
impli ca</w>
i das</w>
hor ario</w>
h arán</w>
gi a</w>
gas tos</w>
gan as</w>
g lóbulos</w>
filtra ción</w>
entreg ó</w>
ent ran</w>
ego í
edu cación</w>
e qaʼn</w>
débi les</w>
dis cursos</w>
di señ
di miento</w>
cón yu
cä chˈaw</w>
cump le</w>
cometi do</w>
cat óli
cariñ oso</w>
cam pos</w>
cab al
c anos</w>
ba dos</w>
b ed</w>
ara c</w>
ar e
ama sco</w>
ala b</w>
agu as</w>
acˈ alab</w>
a wib</w>
Y U
X QETAʼMAJ</w>
UT Z
U R
Sucur sal</w>
P ara
N úm</w>
N unca</w>
Lab án</w>
LOQʼOQʼ E
Invi te</w>
D amasco</w>
Cuán to</w>
B arac</w>
Aus tra
A t</w>
6 5
5 0
10 8</w>
1 25</w>
, 7
í so</w>
ácu los</w>
z aba</w>
xu majij</w>
xin wilo</w>
xa lax</w>
x kʼiy</w>
x bʼantajik</w>
wina kil</w>
wel l</w>
vivi ó</w>
tzij onik</w>
tra tado</w>
tin i
ta miento</w>
t í</w>
suce de</w>
sem bra
salv aje</w>
sab an</w>
repu tación</w>
reg is
ra kan</w>
ra chilanik</w>
r los</w>
r in
quico t</w>
qi taj</w>
qa ʼ</w>
pu dieran</w>
presi ones</w>
pres entó</w>
posi tiva</w>
peli gr
pa gar</w>
on elabʼ</w>
ofre cer
o fici
n úm</w>
mo vi
minis tra
mi li
manten imiento</w>
ma kun</w>
la wa
kˈiji laj</w>
ku tatabʼej</w>
koju loqʼoqʼej</w>
kki mulij</w>
kicha jixik</w>
ki bʼano</w>
ke kikot</w>
ka julew</w>
ka chilanik</w>
julu wem</w>
habla mos</w>
g on
g aron</w>
fu ente</w>
etaʼ mam</w>
etaʼ ma
estu viera</w>
devo ción</w>
destru ir</w>
descen dientes</w>
der echa</w>
de li
cuesti ones</w>
cuar enta</w>
convi rtió</w>
continu ación</w>
con tar</w>
chˈ oj
chʼobʼ o
chi bʼanaʼ</w>
cha pi
ch bʼej</w>
ca u
ca er</w>
bʼen am</w>
aw ech</w>
au dio</w>
ar te</w>
apren dí</w>
apa chique</w>
acep ta</w>
ab rió</w>
Y ES</w>
SE RI
RE YES</w>
Para íso</w>
Par ker</w>
PU E
O h</w>
Na ciones</w>
Lo gros</w>
L AN
KʼE X</w>
KUN IK</w>
KI T</w>
KA T
Ju eces</w>
IMPORTAN TE</w>
Ha z
Gu ía</w>
Go g</w>
EN CONT
ENCONT RAR</w>
Ci ro</w>
Ch ij</w>
CR ÓNICAS</w>
CAM BI
C OS</w>
BʼAN TAJIK</w>
ALGUN OS</w>
A YU
A RE</w>
2 40</w>
ído los</w>
xkiko tik</w>
xinu x</w>
xin ki
wa ʼl</w>
visi tas</w>
utz ʼibʼa
undi cemos</w>
to w</w>
ter cer</w>
ten te</w>
taqchi ʼj</w>
sta des</w>
sopor tar</w>
ser piente</w>
sem il
se lo</w>
racha laxic</w>
r les</w>
qʼo m</w>
quie je
quedar se</w>
qa choch</w>
pens amos</w>
ocur rió</w>
ni ña</w>
mayor do
malv ados</w>
la dr
la ce</w>
kʼi yik</w>
kʼas eʼ</w>
ku chʼobʼo</w>
kqa tij</w>
ke bʼisonik</w>
k tobʼanik</w>
je laʼ</w>
in forme</w>
herramien tas</w>
gu í
experi encias</w>
encan ta</w>
cump le
cru ci
cor ona</w>
clar amente</w>
cie dad</w>
ci ento</w>
ci bi
bauti zó</w>
bar cos</w>
b la
az o
ari as</w>
aqʼa bʼil</w>
apó sta
antigu o</w>
ami stades</w>
ama dos</w>
am ento</w>
a tzˈiak</w>
W E</w>
Si ria</w>
Prof undicemos</w>
O ri
Nab al</w>
KʼA X</w>
JAS CHE</w>
Estu di
D o
Cˈ o</w>
Ch anim</w>
B er
8 8
10 9</w>
, 9
ʼ X</w>
ú s
xqui lo</w>
x ya</w>
x bʼisonik</w>
x bʼal</w>
wa r</w>
ven ida</w>
utili za</w>
us amos</w>
uchʼa kik</w>
u tiempo</w>
u taʼik</w>
u chij</w>
ti tu
ten íamos</w>
sin tamos</w>
s amente</w>
ri tos</w>
respeta r</w>
rajpatan elabʼ</w>
ra tzʼyaq</w>
r aron</w>
qˈui alaj</w>
qʼabʼa rik</w>
qʼa toj</w>
quieje b</w>
que cowin</w>
qa kʼolbʼal</w>
pod remos</w>
pix bʼej</w>
per segui
pap á</w>
pan es</w>
orden ó</w>
or din
oli b</w>
ocur re</w>
obst áculos</w>
obe decen</w>
neces arios</w>
modes tia</w>
mo tivo</w>
mis mas</w>
miemb ro</w>
men tal</w>
lo grado</w>
kʼ iʼ</w>
koj tobʼan</w>
kki qʼat</w>
kki kojo</w>
ke kamik</w>
k kʼa
k kanaj</w>
k chakun</w>
juz gar</w>
jiquib a</w>
j ero</w>
inclu ye</w>
h aré</w>
fer encia</w>
esta ría</w>
entre tenimiento</w>
enfer mo</w>
encontr ará</w>
ena ven
du das</w>
descar gar</w>
d well</w>
d able</w>
cä r</w>
cun a
cumple años</w>
cu xlan</w>
cruci fi
conversa ciones</w>
conven cido</w>
compañ ero</w>
ca p
ayu dando</w>
ali la</w>
ajcha qʼ
Y a</w>
TE MA</w>
RU MAL</w>
Pre par
Lec tura</w>
LU CAS</w>
L is
I talia</w>
I MÁ
HE CHOS</w>
E no
Descu bra</w>
DI C
D alila</w>
Chqa yaʼ</w>
Chq esaj</w>
Ca i
An ti
AWETAʼ MANIK</w>
5 9
1 1,
ˈ talic</w>
xer il</w>
utzʼaqa tisaxik</w>
tzʼi bʼan</w>
ti op
tiop ía</w>
ti n</w>
tesor os</w>
t ó
sue lo</w>
su l
ru lew</w>
reali zar</w>
re in
quier es</w>
perman ece</w>
nu chak</w>
ne go
lí mi
kin kʼex</w>
ki tijoxik</w>
ki riq</w>
jaw chiʼ</w>
ini dad</w>
in esper
hab lado</w>
g ará</w>
fi estas</w>
excel ente</w>
est áis</w>
espo sas</w>
esfor zarnos</w>
es en</w>
er me</w>
enseñ ando</w>
enaven tu
en tien
empi eza</w>
elegi do</w>
dor as</w>
di vino</w>
dedi cación</w>
de bajo</w>
cä nimarisax</w>
cu kˈalajisaj</w>
cu cˈut</w>
comple ta</w>
co l
cab ezas</w>
ca paz</w>
b ro
b abil
ama bilidad</w>
a pe
X A
TIN AMI
TINAMI T</w>
T ú</w>
T u</w>
Su r</w>
SERI E</w>
SA MU
SAMU EL</w>
S AB
Qʼa tal</w>
Publi cación</w>
O B
M úsica</w>
Ja chiʼ</w>
IMÁ G
IMÁG ENES</w>
E uro
E tiopía</w>
DISCURS OS</w>
Co m
Cha tux</w>
CH Q
Austra lia</w>
A Ñ
7 000</w>
14 8</w>
1 32</w>
ʼ w</w>
éxi co</w>
ä b</w>
xu riqo</w>
xin koj</w>
x cäm</w>
wila mpeˈ</w>
vuel to</w>
val oramos</w>
v ac
un es</w>
tu a</w>
tri go</w>
tra te</w>
to tal</w>
te w</w>
taq ej</w>
tako ˈn</w>
ri cos</w>
resuci tar</w>
ra jaw
quin tzˈibaj</w>
preocu par
pregun taron</w>
pens ó</w>
partici p
oy eron</w>
or dina
o k
neut rales</w>
mä jok</w>
mo y</w>
misericor di
lá gri
luch ando</w>
lla mar</w>
limpi a</w>
li sto</w>
lan dia</w>
ku cˈ</w>
kowi r</w>
kinu x</w>
ke bʼan</w>
k kʼut</w>
gru pos</w>
g éni
g al
fun d
f i</w>
en tras</w>
du re
des cu
cˈu laj</w>
cumpli do</w>
cu coj</w>
consue la</w>
cono cía</w>
ci da</w>
chu ˈ</w>
chi chuˈ</w>
cha ya</w>
cha kˈab</w>
caˈ n</w>
c lo
c ela
bi enes</w>
ala laj</w>
ajwa xic</w>
ajchaqʼ e</w>
a kˈab</w>
UT O
T r
Sal mos</w>
Re paso</w>
Re cuer
R ajwaxic</w>
Pen te
PREGUNT A</w>
N O</w>
M éxico</w>
L le
JU N
HAC ER</w>
EST A</w>
E ʼ</w>
Cale b</w>
B u
B EN
AN I
A laj</w>
6 8
5 00</w>
20 0</w>
17 5</w>
14 6</w>
1 37</w>
1 15
é sta</w>
xu chʼij</w>
xqui coj</w>
x tzijon</w>
x takan</w>
x en
x bantaj</w>
u paciencia</w>
tzˈ ino
tzˈino wic</w>
tzʼapi x</w>
tu mba</w>
to maron</w>
taj em</w>
ta s
sufri endo</w>
su pli
sikʼi m</w>
si l</w>
sal ón</w>
sa du
sadu ce
saduce os</w>
s ara</w>
ro mano</w>
religi osas</w>
reba ño</w>
re ina</w>
re a</w>
ra za</w>
qʼa yes</w>
qʼa tbʼaltzij</w>
quiä ki
quiäki kˈ</w>
patäni n</w>
pasto res</w>
obede cer
muri eron</w>
minis teriales</w>
mi sión</w>
menti ras</w>
medi a</w>
m ía</w>
kˈeku m</w>
ku yaʼo</w>
ku y
ku nimaj</w>
ku kojo</w>
kqa xibʼij</w>
ko ʼn</w>
ki tukel</w>
ka kʼutu</w>
k tzijox</w>
k tzijon</w>
junami saj</w>
jo m</w>
jo b</w>
j ese</w>
inter esa</w>
in men
in is
hábi tos</w>
hal lar
gu é</w>
gener ación</w>
fina lmente</w>
fa vo
eta nia</w>
esta d</w>
e le</w>
cé lu
cuni c</w>
cumpli endo</w>
cu n</w>
comien ce</w>
clar a</w>
ci ertas</w>
chu kʼisbʼal</w>
chi wij</w>
cha laxik</w>
cele br
at tzij</w>
ar c
ap an
ale gra</w>
ac tos</w>
a is</w>
U N</w>
S en
QAS TZIJ</w>
M ari
KQA BʼANO</w>
J EL</w>
HAC ER
H a</w>
E so</w>
E MP
D ar
Cho jux</w>
CONT EST
CH QA
CAMBI Ó</w>
C oral</w>
C lar
B etania</w>
A MA
3 00</w>
14 9</w>
é rica</w>
ándo lo</w>
É S</w>
xu to</w>
xin bʼano</w>
xe ʼa
xe kamik</w>
x k
x bʼanik</w>
wp 16
wa ka
wa j
ver sión</w>
vali osa</w>
uw o</w>
utili zar</w>
u kikʼel</w>
u chʼabʼal</w>
trope zar</w>
tre inta</w>
trabaj ando</w>
ta sa
suy os</w>
su puesto</w>
se áis</w>
sal va</w>
sa das</w>
sa da</w>
respon der
resa xic</w>
re fo
refo x</w>
qʼo xo
qʼ ej</w>
quin eˈ</w>
qa lkʼwal</w>
pri mi
prepar arse</w>
peque ña</w>
pelícu las</w>
patän inel</w>
pa lo
pa l
ora ba</w>
or to
or arle</w>
obo án</w>
o ria</w>
o cul
o c</w>
necesi taban</w>
na ció</w>
mem oria</w>
man da</w>
lf fi</w>
kun anel</w>
kqa ta</w>
ke patanin</w>
k kubʼsax</w>
is la</w>
i adá</w>
hu mana</w>
go g</w>
fo men
extra ordin
ech aron</w>
doctr ina</w>
des obedeci
debi ó</w>
de quías</w>
d on</w>
cónyu ge</w>
cäqui coj</w>
cä cˈul
cu tokˈobisaj</w>
comen tar</w>
chu cˈu
cha p
can al</w>
ca ya</w>
bʼe ʼal</w>
bon dad
bla sf
be teli
babil onios</w>
b oni
awa chilanik</w>
aver igu
asu s
arrepenti miento</w>
arc ángel</w>
apren der
alab ar</w>
acep tó</w>
a h</w>
XU KʼEX</w>
U ste
TZ IJ
Sha dwell</w>
Seg ún</w>
Se dequías</w>
S U</w>
Res u
O X
N or
Mala quías</w>
Ma gog</w>
M en
L es
KʼU ʼX</w>
KU BʼAN</w>
Jer oboán</w>
Jeho iadá</w>
Ja i
JE R</w>
Eli hú</w>
Ch kʼol</w>
A caso</w>
A PO
3 2
17 3</w>
15 1</w>
14 2</w>
í sti
xu rik</w>
xib ib
xibib alalaj</w>
xe kun</w>
x cˈastaj</w>
vi va</w>
vi endo</w>
venta na</w>
uriq om</w>
u qʼalaji
tz ʼu
tra tan</w>
to tal
tio x</w>
terremo tos</w>
termina r</w>
tar me</w>
taq om</w>
ta remos</w>
ta ble</w>
st ó</w>
sa grado</w>
res er
res e</w>
re tokib</w>
qˈui y
qˈui x
qʼo yiʼ</w>
q bʼal</w>
pu ta
prof un
produ ce</w>
predi camos</w>
person ales</w>
peli gros</w>
pa tri
o te</w>
lí n
lo w</w>
limpi o</w>
kʼas lik</w>
ku tzukuj</w>
kqa tijo</w>
kki chʼobʼo</w>
inc lin
imag in
ho bo
hobo am</w>
hermos o</w>
fon do</w>
ex tran
esta tua</w>
envi aron</w>
envi ar</w>
enseñ e</w>
emocion al</w>
dé bil</w>
dibu jo</w>
decidi dos</w>
de cep
cuˈ l</w>
cost és</w>
conoz co</w>
com er
cla ve</w>
ci en</w>
cha kˈ</w>
cari ote</w>
c án
bʼe x</w>
bʼa lalaj</w>
b raz
apósta tas</w>
an teriores</w>
an da</w>
ad on
a wal</w>
a man
a bʼiʼ</w>
Wil li
Wat ch</w>
Wa jaw</w>
To wer</w>
Tesal ónica</w>
Re hoboam</w>
RI N
Pregun tas</w>
On é
ONO JEL</w>
Kʼ i</w>
KKI CHOMAJ</w>
Je hú</w>
Is cariote</w>
Euro pa</w>
Escri ba</w>
Clar o</w>
A u
A c
1 18
z can</w>
xqui rik</w>
xqui mulij</w>
xki tzʼibʼaj</w>
x tzʼibʼax</w>
x bʼanowik</w>
w9 9</w>
ví cti
vide o
vali osas</w>
va yan</w>
uni dades</w>
u chu
tzˈaka t</w>
tu viera</w>
toqʼobʼi sal</w>
tini eb
tinieb las</w>
tin a</w>
tem po
tar les</w>
t és</w>
t ér
si vo</w>
salv ó</w>
sab es</w>
s la
r éis</w>
r ojos</w>
qʼati sabʼal</w>
que in
que boc</w>
qa j
pí dale</w>
pu dieron</w>
peri odo</w>
patän ij</w>
pas amos</w>
pa piro</w>
nu chomanik</w>
mo m</w>
mer ece</w>
ma tz</w>
m emos</w>
lleg ará</w>
llama dos</w>
li g
le gio</w>
kˈ inomal</w>
ku tzalij</w>
ku majij</w>
kqʼala jinik</w>
kki tijo</w>
keʼu loqʼoqʼej</w>
jun al
junal ik</w>
ju q</w>
jawi bʼal</w>
i kʼuʼx</w>
hospi tal</w>
hi jas</w>
ha ci
g ante</w>
est ábamos</w>
en tend
e di
distin tas</w>
dirigi r</w>
di dos</w>
des arro
de fec
da ñ
cˈä ji
cäka ˈno</w>
cä cäm</w>
cre ía</w>
comple tamente</w>
compañ ías</w>
chˈä ka
chˈab ej</w>
bʼi xo
ban que
aña de</w>
angusti a</w>
an ía</w>
am érica</w>
al u
achi kʼ</w>
aba jo</w>
a chomanik</w>
a chak</w>
Sí sara</w>
Salu d</w>
SA L</w>
Pente costés</w>
P RES
Mi q</w>
Mi entras</w>
Koj kunik</w>
K BʼAN</w>
Je ʼ</w>
Jai ro</w>
JUN ABʼ</w>
HACER LO</w>
H ac
Gu erra</w>
F il
Eno c</w>
E c</w>
Di ce</w>
D a</w>
Cris ti
Cor dero</w>
Chat choman</w>
CHK E</w>
B us
A na
A CIONES</w>
3 ,000</w>
20 23</w>
1 36</w>
1 22</w>
án tate</w>
xki ta</w>
xinu toʼ</w>
xi on
xer esaj</w>
xe kikotik</w>
x yaʼow</w>
x taq</w>
x qu
x kinimaj</w>
utzʼibʼa xik</w>
tzˈi ˈ</w>
tza q
tro mpe
trai cion
traduc ciones</w>
total mente</w>
to q</w>
to me</w>
to bʼan
ten cias</w>
tako w</w>
t era</w>
sal mo</w>
sal d
sab ían</w>
s tr
rápi do</w>
qˈuix bal</w>
quico tic</w>
qa kʼulel</w>
pron unci
pregun tan</w>
posi tivo</w>
po cas</w>
pa saba</w>
oport unidades</w>
ob stante</w>
o ci
mu e
mencion ó</w>
lín ea</w>
kʼi yi
kʼi xbʼal</w>
ku tewchij</w>
koj onelabʼ</w>
koj niman</w>
kin sikʼij</w>
ki bʼij</w>
kami sanik</w>
ja q</w>
in ju
i ca</w>
hal lado</w>
gobern antes</w>
gener oso</w>
g ón</w>
fu imos</w>
ez uela</w>
eter nidad</w>
esta rán</w>
er tamente</w>
er i
ent rada</w>
engend ró</w>
domin go</w>
diri ge</w>
deci de</w>
cˈ ama</w>
cäqui mulij</w>
cä kaya</w>
cä cuˈbi</w>
cä coj</w>
cri sis</w>
cre es</w>
com puta
co me</w>
ci ego</w>
chˈ imi
cha ˈtal</w>
cha mos</w>
cali dad</w>
bi s</w>
bi o
ayudar a</w>
ayu den</w>
as pecto</w>
alo qʼoqʼ
al ma
ajcha quib</w>
adora n</w>
a tu
a propi
a kʼulaj</w>
a bʼantajik</w>
Ven ezuela</w>
Tijo bʼal</w>
Mo ab</w>
Le v</w>
KU YA</w>
KIKO TE
I mi
FI CI
Estudi antes</w>
ENT E</w>
Dar ío</w>
DIC EN</w>
D ur
Cha chomaj</w>
CH AS</w>
A pa
7 8
5 5
xu chʼobʼ</w>
xeʼu bʼan</w>
w0 3</w>
w0 0</w>
vi eja</w>
ver as</w>
ve je
v ántate</w>
und amente</w>
u pam</w>
traduc tores</w>
trabaj an</w>
tin äq</w>
terene ʼj</w>
ten gas</w>
sob er
sepulc ro</w>
sali do</w>
s en</w>
ri c</w>
resol ver</w>
raj chʼojabʼ</w>
r oso</w>
r os
qˈu i</w>
quin opan</w>
qa qʼijilanik</w>
proyec to</w>
prof undamente</w>
pr ín
pi dieron</w>
pe tinäq</w>
pe dia</w>
par eja</w>
nomb rado</w>
no vio</w>
naʼta saj</w>
mé lec</w>
mayordo mo</w>
lí der</w>
lo maj</w>
lla r</w>
li ter
len to</w>
le tra</w>
la men
l or
kˈ u
kʼ ik</w>
ku tij</w>
ku sikʼij</w>
ku matz</w>
kqa maj</w>
kkini kʼoj</w>
kin maltyoxij</w>
ki chiʼ</w>
ke chʼojin</w>
ka tzukuj</w>
k kʼam</w>
ju día</w>
j eros</w>
hici eran</w>
hi gos</w>
hacer le</w>
géni to</w>
fí sica</w>
frag mento</w>
f ás</w>
esper ando</w>
entr aron</w>
en tal</w>
ech ó</w>
div ina</w>
di r</w>
di cia</w>
descub rir</w>
def ini
dedi car</w>
debili dades</w>
de tenga</w>
cäk arik</w>
cub rir</w>
cre cimiento</w>
cre cer</w>
corru pción</w>
cono cen</w>
con segui
cojon el</w>
co dicia</w>
ciu dad
circunci sión</w>
cie gos</w>
ci dad</w>
casti go</w>
car ro</w>
bʼu r</w>
bʼan al</w>
braz os</w>
ar que
apoy an</w>
ap ón</w>
ap la
alaban za</w>
ala q</w>
ajma quib</w>
adul terio</w>
a i
Tr inidad</w>
T on
P res
P ol
P au
Le ví</w>
KIKOTE MAL</w>
J apón</w>
H asta</w>
H amán</w>
El los</w>
D ON
Cai fás</w>
CON VER
CH U
AM OR</w>
20 10</w>
1 16
, 6
, 5
yo ʼw</w>
xu kamisaj</w>
xqui xej</w>
xoj bʼe</w>
xki tzijoj</w>
xeʼu kunaj</w>
xe qʼax</w>
xe kam</w>
xe chaʼ</w>
x re
wina qi
vu estras</w>
vi van</w>
vi r
vas o</w>
v emente</w>
v el
v ando</w>
uni ón</w>
tzʼaqa tisaj</w>
tu ario</w>
trompe ta</w>
tico ˈn</w>
ti koʼn</w>
t én
subi ó</w>
stra ción</w>
sol dado</w>
so s
ro x</w>
ris a</w>
refle xion
ra m</w>
ra das</w>
qa ya</w>
privi legio</w>
prepar ó</w>
pod rán</w>
pele ar</w>
pa la
p h
orig inal</w>
oji saj</w>
ofren da</w>
nu tukel</w>
nu bʼanom</w>
n al</w>
monta ñas</w>
mi sta</w>
mi rar</w>
me bʼa
mar ca</w>
lu cha</w>
l y
kˈä n</w>
kʼ ix</w>
kʼ il</w>
ku taq</w>
kki qʼaxej</w>
ki xoʼl</w>
iw án</w>
invi tar</w>
in te
in g</w>
gü en
g ana</w>
fi de
farise o</w>
fa z</w>
eta m
enter ó</w>
encu entran</w>
encar gó</w>
en o</w>
e pi
dra gón</w>
div or
detal le</w>
deber ían</w>
de z</w>
de trás</w>
dar a</w>
cˈo w</w>
cˈas lic</w>
cä yoˈw</w>
culp able</w>
cuesti ón</w>
cuar to</w>
colab ora
ci ertos</w>
chʼa bʼexik</w>
cen a</w>
ca pi
ca i
c rí
c ami
bʼiso bʼal</w>
bʼa na</w>
bá si
bo l
ben dice</w>
an d
ama r
ador arlo</w>
adon de</w>
ad ra
ab al</w>
a wach</w>
a de
W CHI
Ta iwán</w>
TZIJ ONEM</w>
SO L</w>
Ri ta</w>
Resu men</w>
Re visita</w>
RI L</w>
RI A</w>
Pol onia</w>
Pen semos</w>
Mejo re</w>
M IENT
KOJ ONIK</w>
J ix</w>
J at</w>
Ho y</w>
FE CHAS</w>
Dur ante</w>
D ES</w>
Cono zca</w>
Cha chaʼ</w>
CONVER SA
C ada</w>
Bo az</w>
AÑ O</w>
7 7
1 28</w>
z adores</w>
yu l</w>
xu chajij</w>
xqui cajmaj</w>
xe chˈawic</w>
xban tajic</w>
x bʼantaj</w>
wali jisaj</w>
vuel va</w>
ve o</w>
uchʼa bʼexik</w>
u ma
tu i
to bʼal</w>
tar los</w>
ta res</w>
ta das</w>
t é
sue ños</w>
su kʼil</w>
su je
son ic</w>
sol ter
sobre llevar</w>
ser ían</w>
satisf e
sa sar</w>
s tencia</w>
res plan
ra b
qˈu ix</w>
qa tzʼyaq</w>
qa qasanjaʼ</w>
progra mas</w>
pri sion
pr eso</w>
poder osos</w>
person ajes</w>
perfec ción</w>
per na
per dió</w>
pas aron</w>
ofici al</w>
no j</w>
n ego</w>
much edu
mu laj</w>
medi das</w>
malv ado</w>
ma b</w>
m ó
lleg an</w>
l lu
kʼuli ʼk</w>
kʼastaji sax</w>
kqa xeʼj</w>
kki xibʼij</w>
kki sikʼij</w>
kin tzijoj</w>
ka sach</w>
k esa
je fe</w>
jam peʼ</w>
ja sach</w>
inacti vos</w>
in ea</w>
he cha</w>
hal la
grie ga</w>
gra tui
g ando</w>
fu ér
for mar</w>
eter no</w>
estab lec
esper amos</w>
escuch ó</w>
escogi do</w>
esa c</w>
entre vi
en vía</w>
ed nego</w>
distin tos</w>
di gan</w>
desa fí
da da</w>
cˈutu m</w>
cu lar</w>
cre ían</w>
cont esta</w>
constan temente</w>
consi go</w>
con ser
con centr
co lo
chˈa c</w>
chʼu ʼj</w>
choj choman</w>
ch ina
ca len
beteli tas</w>
benefi cios</w>
ba se</w>
aqu ellas</w>
anc la</w>
amb os</w>
ajcha kibʼ</w>
ai re</w>
adra c</w>
a parte</w>
WA RIʼ</w>
UN A</w>
U S
Ti ene</w>
TI OS</w>
TE WCHI
S adrac</w>
Re p</w>
O JER</w>
Mi rad</w>
M esac</w>
LI A</w>
L a
Imi temos</w>
I DO</w>
Gu inea</w>
G ra
F AMI
En tre
Eli faz</w>
E ra</w>
DE MOS</w>
Cu r
Con greg
Chi laˈ</w>
Ch naʼtaj</w>
Ca perna
CONVERSA CIÓN</w>
C RE
Abi ga
Ab ednego</w>
A la
6 6
ár bo
árbo les</w>
yawa b</w>
ya j</w>
y clo
xe cojon</w>
war ik</w>
vivi rán</w>
visi ones</w>
vi e
vesti do</w>
uqʼalaji saxik</w>
ucha pik</w>
u q</w>
tien das</w>
tare a</w>
tan tos</w>
takan elab</w>
sobre vivir</w>
sin cero</w>
san tuario</w>
sa carle</w>
ru kʼa
ru ego</w>
respon dieron</w>
resis tir</w>
ra sil</w>
ra mente</w>
qui xqui
qui wetamaj</w>
que chaˈ</w>
que cha</w>
pre para</w>
pla ga</w>
permi so</w>
perman ecer</w>
per ju
pen sado</w>
pas ará</w>
o t</w>
nu be</w>
nu Dios</w>
noti cia</w>
ni kʼoj</w>
multi tudes</w>
mor ra</w>
menti ra</w>
men or</w>
mal mente</w>
ma xic</w>
ma nu
ma ban</w>
l lan
ku yu
koj towik</w>
kki riqo</w>
ki lom</w>
ke kil</w>
kat chʼaw</w>
je j</w>
j äb</w>
invi ta</w>
in sul
im puestos</w>
i lom</w>
i lik</w>
hier ba</w>
g arse</w>
g aba</w>
etam tal</w>
enten dimiento</w>
enten der
enseñ aba</w>
engañ ar</w>
em ón</w>
eli min
di rá</w>
dej amos</w>
deci dí</w>
de o</w>
cˈas i</w>
cä tzˈinowic</w>
cre ar</w>
cor reg
con fía</w>
con ferencia</w>
co k</w>
co bre</w>
chu p</w>
ch es</w>
celebra r</w>
ca lum
ca dores</w>
ca chiˈl</w>
c ían</w>
bʼa qʼ
b er
ayu d
awa chajil</w>
ani mal</w>
aj qʼatal</w>
acu sa
aco so</w>
a ves</w>
a tiempo</w>
a ti
Willi am</w>
U kʼojol</w>
TO RIA</w>
TEWCHI BʼAL</w>
T al</w>
Re pública</w>
PA CI
M ä
M inis
M al
LE V
Ju d</w>
I JO
H or
Go morra</w>
G a
G RA
Fil emón</w>
EN TA
Cor é</w>
CI A</w>
B ʼa
B rasil</w>
Alg unos</w>
A lf
A lab
9 9
17 8</w>
, 8
ó r
yo ʼm</w>
yawa jik</w>
xu tak</w>
xki riqo</w>
xin kunik</w>
wi jeˈ</w>
wala jisaj</w>
waka x</w>
vi das</w>
u taqonik</w>
títu los</w>
tér min
to kˈ
tier no</w>
tewchi ʼj</w>
te j</w>
tab le
ta na
t he
su bʼ</w>
simbóli co</w>
ser é</w>
sach bʼal</w>
s esión</w>
revi stas</w>
reta ña</w>
reta maj</w>
recuper ar</w>
re fi
qˈuex wäch</w>
quini marisaj</w>
quin rik</w>
qo pi
qa qʼabʼ</w>
pu ro</w>
prácti cos</w>
person almente</w>
permi ten</w>
perfec tos</w>
perdon ó</w>
pe da
pañ ol</w>
patan ej</w>
pa ki</w>
op ción</w>
oj ik</w>
obser var</w>
o pan
nor mal</w>
muchí si
minis tro</w>
mil las</w>
medi os</w>
ma tarlo</w>
ma ra</w>
llev ado</w>
lleg amos</w>
le ído</w>
l í</w>
kʼul mam</w>
kʼamo m</w>
kʼa te</w>
keʼu koj</w>
ka to
ka bʼal</w>
k kʼamow</w>
jo lomaj</w>
jico mal</w>
jeʼ lik</w>
je ʼl</w>
investi gación</w>
ins cri
in teli
in ando</w>
i do
ido la
hospi ta
hor no</w>
her ed
hac es</w>
h aremos</w>
g ía</w>
g la
extre mo</w>
en lace</w>
emp la
dej emos</w>
dej ará</w>
de cí
d re
cˈ ami
cˈami c</w>
cäqui qˈuex</w>
cä mis
cono cemos</w>
con texto</w>
cometi ó</w>
chˈimi l</w>
chqa taʼ</w>
chqa jujunal</w>
chi wila</w>
cheʼa toʼ</w>
chat tzijon</w>
cha ki
car ac
can tar</w>
cal or</w>
cab ij</w>
cab al</w>
c laridad</w>
bʼaqʼ wach</w>
b ora</w>
ar res
ar ma
apari encia</w>
an dar</w>
ado p
acer có</w>
acer carse</w>
abund ancia</w>
a ut
Xu ya</w>
X I
V í
Tz are</w>
Ta jin</w>
T AS</w>
Su s</w>
Servi cio</w>
RIN TIOS</w>
Po d
PA SA
N M</w>
Mu chos</w>
Mi ra</w>
LOQʼOQʼE BʼAL</w>
I x</w>
Fran cia</w>
Fi refox</w>
FAMI LIA</w>
Che qa
CO RINTIOS</w>
Bel sasar</w>
BEN E
B retaña</w>
An anías</w>
7 0
4 3
1 Te</w>
ˈ bal</w>
éli x</w>
é gu
áb le
á i</w>
z on
xoj opan</w>
xinu toʼo</w>
xin ta</w>
xe xik</w>
xe boc</w>
x kʼextaj</w>
x kʼejeʼ</w>
wi ˈm</w>
vic toria</w>
tí n</w>
tz ˈu
tri co</w>
traba jos</w>
to n</w>
to có</w>
ti endo</w>
tar é</w>
t he</w>
sinago gas</w>
se p
rutzi lal</w>
ru mb
recha zar</w>
ra chi
qʼate x</w>
qʼ o</w>
qui eran</w>
q anojibʼal</w>
pueb los</w>
pres u
po l
peri o</w>
par ezca</w>
pala cio</w>
op ij</w>
mencion an</w>
lágri mas</w>
ly n</w>
levi ta</w>
lengu as</w>
le j
lar nos</w>
kʼu lanik</w>
kqe yeʼj</w>
kolo taj</w>
koju kʼam</w>
kin kʼut</w>
ki tiempo</w>
keri qitaj</w>
kem b</w>
kat kʼojiʼ</w>
ka tzʼyaq</w>
k kʼextaj</w>
iw animaʼ</w>
inter eses</w>
ini cio</w>
influ ir</w>
influ encia</w>
in emos</w>
gri pa</w>
f ac
exa ctitud</w>
escu che</w>
ern es</w>
electróni co</w>
ela qʼ</w>
ejér citos</w>
dis tan
di gi
di ablo</w>
descub ri
demostr aron</w>
defen der</w>
cˈu lanem</w>
cäka tzijoj</w>
cä que
cä kˈalaji
costu mbres</w>
conoci dos</w>
comen zaron</w>
chˈoj in</w>
chˈi chˈ</w>
chu patänixic</w>
choma jampeʼ</w>
chi jujunal</w>
cha wäch</w>
ch in
c áis</w>
bʼa x</w>
bʼ a</w>
bus que</w>
ba da</w>
awa chalal</w>
auto control</w>
asig naciones</w>
asegu ró</w>
arre pi
antigu os</w>
anali cemos</w>
am ena
aj chak</w>
agradeci do</w>
agra dable</w>
a wilom</w>
a bʼanom</w>
XU QU
U K
To dopoderoso</w>
Si gamos</w>
Si g
R ojo</w>
Qu e
QA CHA
PA R
Mari e</w>
L ine</w>
K waj</w>
IS TORIA</w>
H ISTORIA</w>
F élix</w>
Dé bora</w>
Di luvio</w>
Ch ib
BENE FICI
Asi ria</w>
Am ós</w>
A gripa</w>
200 4</w>
2, 0
1 19
ñ i
ándo los</w>
á monos</w>
ÍCU LO</w>
Í TI
y ibʼ</w>
xqui tzijoj</w>
xq ariq</w>
xki kubʼsaj</w>
xke ya</w>
xin ic</w>
xcaˈ no</w>
x qʼala
w2 20
vesti dos</w>
ve in
vein te</w>
vali oso</w>
u tu
tu vieran</w>
tro pi
ton ela
to ˈtaj</w>
tata bexic</w>
ta ria</w>
solu cion
solici tud</w>
siqˈui m</w>
sikʼ ix</w>
se llo</w>
ri es
refu gi
recibi rá</w>
reac ción</w>
re cursos</w>
ra tzˈiak</w>
qui wil</w>
que petic</w>
q oyowal</w>
pro me
pon gamos</w>
po dido</w>
pari entes</w>
p re</w>
os ta</w>
on ce</w>
ofren das</w>
obe diente</w>
ne gó</w>
n er
mi lla
me ba
maltio xinic</w>
ma tó</w>
ma da</w>
m pa</w>
lógi co</w>
llen os</w>
li stos</w>
la v
la u
l bal</w>
kʼu ʼ</w>
kʼex wach</w>
ku kʼajisaj</w>
ku jach</w>
koj qʼax</w>
kin naʼ</w>
ki ʼ</w>
ki litaj</w>
keʼi l</w>
ka tzʼibʼaj</w>
k toʼ</w>
k taʼ</w>
k kowir</w>
ja chike</w>
j r</w>
j eron</w>
j er</w>
inici a
in moral</w>
idola tr
i cˈ</w>
hon rar</w>
habla ban</w>
gra du
g or
g e
exper tos</w>
exa ctamente</w>
esti lo</w>
esfor z
escri tas</w>
encar cela
eli minar</w>
e xom</w>
desta ca</w>
des ánimo</w>
dej en</w>
dedi carse</w>
cun abal</w>
cuer pos</w>
cuer nos</w>
cre í
correg ir</w>
cont esta
confi ables</w>
con diciones</w>
co r</w>
chi yaʼ</w>
cha wila</w>
ce los</w>
car les</w>
ca í
bʼ o
ban ow</w>
b ús
b lemente</w>
avi dad</w>
aver gon
aray inik</w>
apli car</w>
ali l</w>
al dea</w>
acu c</w>
ab e
a y</w>
a tukel</w>
a fuera</w>
a ec</w>
Z ac</w>
Xu wi</w>
XUQU JE
XUQUJE ʼ</w>
U r</w>
U kabʼ</w>
T ÍCULO</w>
Si dón</w>
S ina
Qu eb
P aí
P R
O seas</w>
Na tán</w>
Me di
MIENT O</w>
M el
Ku bʼij</w>
Ken ia</w>
J aw
J ac
Hab acuc</w>
Ha b</w>
H an
F u
Escri tura</w>
Chi pre</w>
Anti gu
Ana li
AR TÍCULO</w>
A D
8 9
8 0
2 14</w>
2 ,000</w>
1 26
ʼi m</w>
ó se
óse t</w>
á ramos</w>
ÍTI CO</w>
y exik</w>
xnima r</w>
xki mulij</w>
xki chaʼ</w>
xin taʼ</w>
xi m</w>
xe ke
xcaˈ y</w>
x tzʼaqat</w>
x tobʼan</w>
wa ʼim</w>
vi l</w>
vi a
vesti r</w>
ut ojik</w>
uqʼa xexik</w>
ungi do</w>
u wu
u tijoxik</w>
u sachi
u respuesta</w>
tʼu yiʼ</w>
trabaja dores</w>
to l
ti jic</w>
te maj</w>
t ón</w>
sé pti
sur gi
su yo</w>
sor presa</w>
somb ra</w>
solu ción</w>
sol inelabʼ</w>
siqˈui xic</w>
sikʼ inelabʼ</w>
si bʼ</w>
sabi endo</w>
rápi damente</w>
ru k</w>
riq oni
riqoni b</w>
ri fi
relacion ados</w>
relacion adas</w>
regi onal</w>
refer irse</w>
recibi rán</w>
re quisi
qʼa j</w>
quin tzijoj</w>
qa wa</w>
profun das</w>
preocupa ciones</w>
predi ca</w>
po zo</w>
pla n</w>
perfec ta</w>
oí dos</w>
op inan</w>
ok lyn</w>
ocurri rá</w>
ocrá tica</w>
o qʼej</w>
nue ve</w>
na cimiento</w>
muchedu mbre</w>
mucha cho</w>
mu ral
minis tros</w>
maji x</w>
maji m</w>
ma taron</w>
ma sach</w>
ma bʼ</w>
logr ará</w>
lib res</w>
kˈu ˈ</w>
kˈa x</w>
kʼa ji
ku patanij</w>
kqa tijoj</w>
koj machʼachʼik</w>
kin wil</w>
kin ki
ki choqʼabʼ</w>
kem riqonib</w>
ke kʼasiʼ</w>
kat el</w>
ka toʼ</w>
ka kʼulmaj</w>
k chʼojin</w>
in visi
idolatr ía</w>
habi tantes</w>
g 16
for ni
fide lidad</w>
fa ci
f ib
est ru
específi co</w>
esi ones</w>
es par
er le</w>
encontr aron</w>
encar gado</w>
encan taba</w>
eli gió</w>
e xic</w>
e dición</w>
dor mi
disponib le</w>
dese amos</w>
descri be</w>
des ani
dej é</w>
decep cion
cˈul maj</w>
cäqu etamaj</w>
cu tij</w>
cu ad
cre ído</w>
confi ó</w>
con du
comen cé</w>
com pli
ci pe</w>
ci mientos</w>
chucˈu tic</w>
chi xol</w>
cha po
cha cun</w>
ch el</w>
caˈ y</w>
caˈ nom</w>
carac ter
car ía</w>
caden as</w>
ca sado</w>
bʼ inem</w>
bio grafía</w>
bi erto</w>
banque te</w>
aña dió</w>
ayu das</w>
ar las</w>
an dando</w>
amor oso</w>
al cabal</w>
a tzij</w>
a go
Z AR
Uni das</w>
SO TROS</w>
S O</w>
Ru b
Re cor
Qʼ ABʼ</w>
Pre di
PUE DE</w>
O s</w>
NO SOTROS</w>
N avidad</w>
Minis terio</w>
Les li</w>
I m
G ri
G I
Estu dio</w>
Eli ja</w>
D ía</w>
D ej
Cre es</w>
Chqa kojoʼ</w>
Cha chajij</w>
CONTEST E</w>
Bro oklyn</w>
B il
Apa chin</w>
A qu
17 1</w>
14 0</w>
1, 0
1 27
1 13
ú a</w>
í ri
z camos</w>
z ación</w>
yo kˈ
xqa bʼano</w>
xin choman</w>
xe cˈoji</w>
xa ʼ</w>
x ri
x on</w>
wa chilaj</w>
w0 2</w>
ven ía</w>
usachi saxik</w>
un oʼj</w>
tzʼa pij</w>
tzoko pij</w>
tra er</w>
to wer</w>
tend rás</w>
tem ores</w>
tasta likalaj</w>
ta laj</w>
t emp
sufri ó</w>
su b</w>
st re
sinti eron</w>
simp le</w>
senci llo</w>
sal mista</w>
ru e
ro mpi
resul ta</w>
represen tan</w>
reg oci
re comen
ra s
r la</w>
qʼe qu
qʼ inom</w>
qa paciencia</w>
q opij</w>
q ij</w>
pond rá</w>
pon iendo</w>
pon emos</w>
plan ta</w>
persever ancia</w>
perman ec
p lo</w>
os tremos</w>
orgullo so</w>
nu wach</w>
na qʼatisabʼal</w>
na kˈatal</w>
má tico</w>
man dado</w>
ma terial</w>
llo rar</w>
llev amos</w>
le e</w>
lar se</w>
kʼulma tajinaq</w>
kʼu laxik</w>
kʼastaji saj</w>
kqa kuy</w>
kos inaq</w>
kin ojibʼal</w>
ki loqʼoqʼebʼal</w>
ki kojom</w>
ki kojik</w>
ke m</w>
ka xibʼij</w>
ka chʼij</w>
k re
ja win</w>
in sensa
ha gas</w>
gan ado</w>
fra cciones</w>
fortale za</w>
forma do</w>
fi gu
exis ti
ex presiones</w>
estu vieron</w>
esfuer zan</w>
esco gió</w>
es pañol</w>
er la</w>
ejer ci
e os</w>
e chado</w>
dij era</w>
defec tos</w>
de cer</w>
da os</w>
d ían</w>
d al
cˈa sal</w>
cˈ as</w>
cán cer</w>
cumpli eron</w>
cu mätz</w>
cu e
cre yeron</w>
confi able</w>
con viene</w>
com partir</w>
com ba
cion e</w>
cin as</w>
chˈ ij</w>
chu kabʼ</w>
cha j
ch tower</w>
ce lo
car ros</w>
cam p
cab ano</w>
c ante</w>
bre vemente</w>
bre ve</w>
bar ro</w>
asi rios</w>
arre p
antigu a</w>
an elabʼ</w>
af li
actuali zada</w>
ac ci
ab rir</w>
a wucˈ</w>
a tivos</w>
Z im
Y a
X aneʼ</w>
Wat chtower</w>
V ol
V en</w>
V al
TA D</w>
T u
Su r
Sina í</w>
Si me
San tísimo</w>
S of
RO MANOS</w>
RIQ OM</w>
R u</w>
PI X
PASA DO</w>
PA Í
ON I
No sotros</w>
Nab ot</w>
Mon te</w>
Man d
M E</w>
Lis tra</w>
LEV ÍTICO</w>
K o
I lu
Ge or
Evangeli zadores</w>
Do min
Di jo</w>
Cur so</w>
Cu i
Chi chajij</w>
CHQ E</w>
BI LI
BENEFICI OS</w>
An tes</w>
Ale j
Ab salón</w>
A S
A C
6 7
1 20
égu ele</w>
yo qʼ</w>
yawa bi
yawabi b</w>
y il</w>
xu qʼaxej</w>
xqui chap</w>
xqa bʼij</w>
xin takow</w>
x toʼwik</w>
x chakun</w>
x bʼixik</w>
wi ˈc</w>
wi q
vuel ta</w>
utili zó</w>
u wachinik</w>
u rayinik</w>
u bʼaqil</w>
tzʼaqa talaj</w>
tzoko pi
tri to</w>
tradu cir</w>
tra tamos</w>
ti x</w>
ter en</w>
tata bʼexik</w>
ta kʼiʼ</w>
t y</w>
su tzʼ</w>
sto les</w>
si pam</w>
ser ás</w>
senti rá</w>
segu ían</w>
se pa</w>
sal en</w>
reuni rse</w>
re empla
re cuerdo</w>
raí z</w>
raí ces</w>
qui chomaj</w>
queb eˈ</w>
q animaj</w>
prote gi
prof esi
pri mo
pre mo</w>
pol vo</w>
po j</w>
plan te
perdon a</w>
parti ó</w>
os amente</w>
ordina dores</w>
o ki
nomb ró</w>
noj inaq</w>
neces arias</w>
médi cos</w>
me z
maravillo sas</w>
man tiene</w>
ll ó</w>
leg al</w>
la m</w>
l ó</w>
l l</w>
kˈa tej</w>
kʼule ʼ</w>
kʼasu j</w>
kuʼ inem</w>
kun anelabʼ</w>
kqa tatabʼej</w>
kqa sukʼumaj</w>
kq animarisaj</w>
koj maltyoxin</w>
kke ya</w>
kke bʼij</w>
keʼ in
ke kanaj</w>
kat ij</w>
k ä
k loqʼoqʼenik</w>
k ar
ju e
joro ri
iw ech</w>
is mo</w>
inte gri
integri dad</w>
im presión</w>
i fi
histori as</w>
h ar
gü edad</w>
gus taba</w>
fí jese</w>
fortale ció</w>
forma da</w>
fib óset</w>
esper an</w>
espe jo</w>
equi pos</w>
entreg ado</w>
ent emente</w>
eb al</w>
e cha
dur os</w>
destru ido</w>
dere chos</w>
demu estre</w>
demostra do</w>
dedi camos</w>
de le</w>
d ri
d ame</w>
cˈu le
cˈas tajisaj</w>
cˈam o
cäqui chomaj</w>
cä ri
cul tura</w>
cuen tan</w>
cu ju
cu este</w>
crey entes</w>
consi dera</w>
confi aba</w>
conf li
cip es</w>
cic lo</w>
chʼo ʼj</w>
chi co
caracter ísti
car lo</w>
can de
camp amento</w>
ca dor</w>
c yclo
c cion
blan cos</w>
ba ciones</w>
b en</w>
at re
ari amente</w>
apren de</w>
anti güedad</w>
ama ble</w>
alkʼ wala
ajyu qʼ</w>
a van
YA ʼ</w>
W I</w>
V amos</w>
TA R
T ER
SI S</w>
Pu es</w>
Pon ga</w>
P an
Oné simo</w>
OB TEN
NU RIQOM</w>
Me fibóset</w>
Ma t
MA N</w>
L an
L E</w>
Ki preguntas</w>
Jaw chiʼ</w>
I r
H E</w>
Gre cia</w>
Fili pos</w>
En cyclo
E V
DA TOS</w>
Chqa chajij</w>
Cha taʼ</w>
Ch ris
Cam ino</w>
C en
, 0
ʼ xik</w>
áble le</w>
xu jo
xqa chomaj</w>
xi x
xa bʼan</w>
x naʼtaj</w>
x kʼuliʼ</w>
x k</w>
wä ch
w ono
voluntari os</w>
va dura</w>
v é
v ar
upatan el</w>
ucha ʼom</w>
u sipanik</w>
tra erá</w>
tonela das</w>
toma do</w>
ti pos</w>
terri ble</w>
super vi
sufri mos</w>
su tzˈ</w>
su po</w>
su elen</w>
son ido</w>
si len
senti rnos</w>
sach inak</w>
sab al</w>
resu el
ren unci
refer encias</w>
re velación</w>
re vel
qˈuex el</w>
quisi era</w>
que cˈastaj</w>
qa cuerpo</w>
q arayinik</w>
produ cir</w>
pr a</w>
pon gan</w>
poli s</w>
plen a</w>
pi ra
pa cí
pací fi
oscu ridad</w>
ofre cen</w>
o í</w>
nu wiʼ</w>
nego cios</w>
nega tivos</w>
necesi te</w>
na bʼeʼal</w>
má quin
mostra do</w>
mon e
ma mos</w>
lo cales</w>
llev ando</w>
le tras</w>
kˈa yes</w>
kʼol inaq</w>
kʼo w</w>
ku naʼtasaj</w>
kin taʼ</w>
kem chak</w>
ke toʼ</w>
ka ta</w>
ka loqʼoqʼej</w>
ka jil</w>
k kaʼyik</w>
k anikʼoj</w>
jorori bʼal</w>
jo s
jico mataj</w>
intro du
inter pre
inicia tiva</w>
ina m</w>
in va
i kʼaslemal</w>
hermos a</w>
hall ó</w>
hal lar</w>
hablar emos</w>
hab erse</w>
grie gos</w>
gan se</w>
fi ja</w>
expres ar</w>
expli que</w>
estre n</w>
estre cha</w>
escogi dos</w>
er los</w>
ent ía</w>
edifi cio</w>
dis positivos</w>
depen de</w>
de partamento</w>
d ario</w>
célu las</w>
cäqui tzijoj</w>
cä petic</w>
cur ó</w>
cul to</w>
cu tzijoj</w>
cu kˈat</w>
cre a</w>
cr é
cose cha</w>
conqui s
con fí
con cent
comuni cación</w>
come ter</w>
com unidad</w>
co mete</w>
ch anikʼoj</w>
cer á</w>
caˈ yic</w>
capaci tación</w>
cam a</w>
ca choch</w>
bʼixo j</w>
bús queda</w>
b ab
bab ue</w>
ay ú
aut én
ate mala</w>
asi entos</w>
anun ció</w>
ambi que</w>
alcan ce</w>
agradeci miento</w>
agra da</w>
afir man</w>
ad ora</w>
acer caron</w>
acep tado</w>
acab ó</w>
ab il</w>
a hor
a fri
a chomam</w>
Zim babue</w>
ZAR RA</w>
X IN
Uste d</w>
UK ABʼ</w>
Ton y</w>
T ar
Sur inam</w>
Ser á</w>
S AN
Qʼ EL</w>
Pue des</w>
Per sia</w>
Paí ses</w>
PIX ABʼ</w>
PI ZARRA</w>
PAÍ S</w>
P e
P SIS</w>
Moz ambique</w>
MAR COS</w>
Kʼ ut
K ar
Jo pe</w>
Jac k</w>
Ilu stración</w>
Haz te</w>
Gu atemala</w>
F in
E th
E L
Co ordinadores</w>
C ALI
CALI PSIS</w>
APO CALIPSIS</w>
ANIMA DA</w>
AMA QʼEL</w>
A TA
6 000</w>
2 Pe</w>
19 23</w>
1 29
1 28
1 13</w>
ʼ taj</w>
ó gi
yi xik</w>
ya waj</w>
xu yaʼo</w>
xu qui</w>
xkina ʼ</w>
xin mayo</w>
xin chʼobʼo</w>
xin ban</w>
xeu siqˈuij</w>
xe ˈc</w>
xe x</w>
xbi x</w>
wa l
w oyowal</w>
w b
vícti mas</w>
volu men</w>
vivi rá</w>
ver nos</w>
vend rán</w>
uni c</w>
un ik</w>
ucho lajil</w>
u sukʼilal</w>
tzijo m</w>
tijo m</w>
te le</w>
te la</w>
tasa ʼ</w>
t émonos</w>
sé ñ
suf ren</w>
sexu alidad</w>
sent í</w>
samarita na</w>
s cri
ri saxik</w>
requisi tos</w>
re yexik</w>
re conocer</w>
rajaw bʼal</w>
r genes</w>
r eros</w>
quini maj</w>
qui ta</w>
qa jolom</w>
pó stoles</w>
pó cri
prín cipes</w>
pro stitu
pri ori
preocup aba</w>
per cibi
orgullo sos</w>
nu ario</w>
mí ni
mon ía</w>
mb al</w>
m wb
m iban</w>
lo j</w>
llev aban</w>
lle gué</w>
li mp
le pro
lan da</w>
kˈi c</w>
kˈalaji saxic</w>
kʼut wachinik</w>
kʼex o</w>
kʼaji sabʼal</w>
ku chʼij</w>
koj kojon</w>
koj bʼison</w>
kki maj</w>
kki jach</w>
kin patanij</w>
kiko temaj</w>
ki rajil</w>
kat kikot</w>
ka ˈ
k kaʼy</w>
k animaj</w>
jun tamente</w>
jo ven
jam paˈ</w>
inter nacional</w>
inten tó</w>
in vo
in quie
i dad</w>
homo sexualidad</w>
h áblele</w>
güen za</w>
gri tó</w>
fá ci
fu ese</w>
expli cación</w>
etaʼma tal</w>
entr éguele</w>
el inak</w>
económi cos</w>
económi ca</w>
di to</w>
di ces</w>
dal ena</w>
cäqui cot</w>
cä resaj</w>
cun aj</w>
cu chomaj</w>
cu bier
cru el</w>
cre ciendo</w>
contra señas</w>
conf es
con for
ci en
chu tatabexic</w>
chico p</w>
cha po</w>
ca sados</w>
c á
bo chiˈj</w>
bas ta</w>
ayudar ía</w>
ar monía</w>
apren da</w>
ama bles</w>
am ó</w>
ale j
al la</w>
adi cción</w>
ad ministra
acep te</w>
a cos
To ˈl</w>
TA L</w>
So f</w>
Ser món</w>
SI G
SE GUN
S ol
RE G
Queb ec</w>
Pi ense</w>
PAR TE</w>
P AN
OBTEN IDO</w>
NA CI
Mu chas</w>
Mag dalena</w>
M al</w>
Le vántate</w>
LA X</w>
Kʼ O
KU CH
KUCH UJ</w>
KAT KUNIK</w>
Gra cias</w>
FE LI
F ami
F OR
Es toy</w>
E se</w>
E ma
E C
Des de</w>
Chi wilampeˈ</w>
B RE
Apren damos</w>
Apo los</w>
Al lí</w>
A nuario</w>
1, 8
- -
ʼta saj</w>
ʼ y</w>
é tica</w>
Ó V
ÓV ENES</w>
y b
xutu xik</w>
xu tzalij</w>
xu tewchij</w>
xu kˈalajisaj</w>
xu ju
xki kʼutu</w>
xke kʼam</w>
x canaj</w>
x caj</w>
vie jo</w>
v amente</w>
ux eʼ</w>
uni mari
u sachik</w>
u ri
tzo qopi
transmi tir</w>
tijo xic</w>
st en</w>
simp lemente</w>
seri o</w>
se de
sede c</w>
samarita nos</w>
sach inaq</w>
sa có</w>
sa chic</w>
s óli
rumb o</w>
rukʼa ʼ</w>
ru eba</w>
ro llo</w>
reve la</w>
reuni ó</w>
ren di
ren cor</w>
regres aron</w>
reaccion ó</w>
raj tijoxel</w>
ra ʼ</w>
quiz á</w>
quin wil</w>
qui ya</w>
qui sedec</w>
publi cado</w>
pu rifi
profes or</w>
prim eras</w>
predi có</w>
predi can</w>
por ta</w>
polí tico</w>
pla gas</w>
pla cer</w>
pe dido</w>
p eso</w>
ofreci ó</w>
obst áculo</w>
obede ce</w>
o re</w>
o re
na zar
n g
mé todos</w>
mo vió</w>
mo da</w>
mir ando</w>
mad era</w>
machʼa lik</w>
limp ios</w>
lib r
lar ga</w>
la dos</w>
l le</w>
l ino</w>
kʼex tajik</w>
kʼaskʼa t</w>
kʼa ma</w>
kuna xik</w>
ku kamisaj</w>
koju tewchij</w>
kojo k</w>
kki kamisaj</w>
kke chbʼej</w>
kin kojo</w>
ki qʼijilaxik</w>
ki n</w>
ke qebʼ</w>
ke koj</w>
ke kaʼy</w>
kat toʼwik</w>
ka qaj</w>
ka patanij</w>
k chaʼ</w>
ju stas</w>
j l</w>
invi te</w>
investi g
in oc
il le</w>
i kuchuj</w>
hu ir</w>
hon rados</w>
ha yamos</w>
guar da</w>
gra bar</w>
goberna dor</w>
gobern ará</w>
gen o</w>
fu ri
forma to</w>
expul sado</w>
escribi eron</w>
escri tor</w>
ent ero</w>
encu entro</w>
empe ño</w>
egip cio</w>
dis trito</w>
dis cer
discer ni
dese aba</w>
der ri
der nos</w>
dej an</w>
cäqui tij</w>
cu ri
cristi ani
cristiani smo</w>
costu mb
conden a</w>
chˈäka p</w>
chʼu q</w>
chu cab</w>
chi cojo</w>
calum ni
ca z</w>
ca jwataj</w>
ca jas</w>
bra ille</w>
br in
bi enaventu
ba ja</w>
b es</w>
au tor</w>
as te</w>
ar d</w>
apaci bles</w>
an d</w>
ambi a</w>
ajcha c</w>
adora ban</w>
ac á</w>
ac aba</w>
ab ierto</w>
a costumb
a Dios</w>
X E
V o
Ten emos</w>
TA N</w>
T í
T NM</w>
Sime ón</w>
Si empre</w>
SI EMP
SIEMP RE</w>
R ONOJEL</w>
Qui z
Pau l</w>
P a
Mel quisedec</w>
MP Eʼ</w>
L au
J ÓVENES</w>
J I
H ER
Fami lia</w>
F ue</w>
EN CIA</w>
D OS</w>
Cä mic</w>
Chqa tijoj</w>
CHU QʼABʼ</w>
CHAWILA MPEʼ</w>
C at
C ab
A z
A ris
3 32</w>
200 3</w>
2 41</w>
2 12</w>
19 8</w>
15 2</w>
ólo go</w>
í geno</w>
éndo lo</w>
éndo les</w>
áni co</w>
z co</w>
ya b</w>
y as</w>
y anik</w>
xqui chomaj</w>
xki tatabʼej</w>
xki jach</w>
xe kanaj</w>
x walij</w>
x eta
wa chajil</w>
vu l
volver á</w>
ven cido</w>
val entía</w>
v ios</w>
utz ali
us emos</w>
uni saj</w>
u lo
u ji
u fra
tzˈaka til</w>
tzʼa ʼ</w>
tze le
tra e</w>
te or
te les</w>
taqo ʼn</w>
tal ía</w>
tal entos</w>
se man
se lec
san em</w>
salv ará</w>
sa ki
ru kʼam</w>
ro mp
resuci tados</w>
respeta mos</w>
religi oso</w>
recuad ros</w>
razon able</w>
rab ás</w>
qʼate m</w>
qʼ or</w>
qui to</w>
que dado</w>
que cˈoji</w>
qa loqʼoqʼebʼal</w>
qa jin</w>
progres ar</w>
profeti zó</w>
prof unda</w>
prepar arnos</w>
pregun taba</w>
pier da</w>
permi ta</w>
perdon ado</w>
per su
parec en</w>
orto grafía</w>
on os</w>
ofi cinas</w>
obedeci ó</w>
nacion ales</w>
médi ca</w>
modes tos</w>
mis terio</w>
mila gr
meti da</w>
meba ˈib</w>
man tuvo</w>
man dad</w>
ma ción</w>
ma che
m or</w>
lo wik</w>
llen ó</w>
lle guen</w>
lla man</w>
limi taciones</w>
le vadura</w>
le pra</w>
le ones</w>
lawa lo</w>
kʼut unisaj</w>
kʼiy ar</w>
kʼe xom</w>
kʼa m
kqe yej</w>
kki xutuj</w>
kin oʼj</w>
ki patan</w>
ki li
keni manik</w>
ke qʼax</w>
ka taʼ</w>
k tzʼibʼax</w>
k petik</w>
k kʼistaj</w>
k cha
k bʼantajik</w>
ju ego</w>
jo q</w>
j etas</w>
j ab
interes ante</w>
ina ción</w>
im pu
i z
hubi eran</w>
her mandad</w>
gu stó</w>
gra baciones</w>
gener osos</w>
estable ció</w>
esco ger</w>
equilib rado</w>
enfr entó</w>
emp leo</w>
embar az
e dades</w>
dig nidad</w>
der ro
dar me</w>
cˈut u</w>
cäqui ta</w>
cäbi n</w>
cä tzijox</w>
cui dará</w>
cri ti
cre to</w>
conocer lo</w>
co mente</w>
chˈab exic</w>
chʼaj chʼoj
chʼa ko</w>
chqa chomaj</w>
che ʼi
chapi tzʼaʼ</w>
cha ʼo</w>
ch bʼal</w>
bʼix onik</w>
bur go</w>
bo chiˈ
bi sonic</w>
asegu ra</w>
arrep inti
apli caciones</w>
anima da</w>
ama ban</w>
alma cen
ajcha kˈel</w>
ajaw bʼäl</w>
adolesc ente</w>
actú a</w>
aconse ja</w>
a is
XA LAX</w>
X chaʼ</w>
U SA
U KOJ
UKOJ IK</w>
Ti enen</w>
Ta ta
SEGUN DA</w>
S y
Ru cˈ</w>
RI Q</w>
RI O</w>
Nu estro</w>
NACI MIENTO</w>
Le ah</w>
K ʼo
K IN
He bre
Dem ocrática</w>
Deb emos</w>
DON ACIONES</w>
Cˈ äx</w>
Comi tés</w>
Chib ana</w>
Cha kubʼsaj</w>
BÍBLI CAS</w>
Bib lias</w>
Bar rabás</w>
Alej and
A talía</w>
A su
4 00</w>
20 8</w>
17 4</w>
1, 9
ín ti
í s</w>
í l</w>
zar ra</w>
z aban</w>
y an
xta qˈui</w>
xki kʼex</w>
xeʼu koj</w>
xeʼu chaʼ</w>
xeu tak</w>
xe chʼaw</w>
x tzijox</w>
x toʼ</w>
x taqan</w>
x ina
x bʼin</w>
x animaj</w>
w9 8</w>
w0 1</w>
vivi do</w>
vi ña</w>
vi les</w>
venta jas</w>
ven gan</w>
vec inos</w>
uter en
undi ales</w>
uji kʼik</w>
ucho qʼabʼ</w>
u xoʼl</w>
u m</w>
u kʼutum</w>
u kʼexwach</w>
tzu q</w>
tori as</w>
to lo
ten taciones</w>
taq ik</w>
sá bados</w>
su pi
su erte</w>
sober anía</w>
signifi can</w>
servi cios</w>
sent ó</w>
seg ú
satisf ac
san o</w>
s pan</w>
s ma</w>
ru cˈam</w>
ros tro</w>
ris te
ri wal</w>
re du
rajpatan el</w>
ra dor</w>
qʼ ino
quin taˈ</w>
qui xcha</w>
qui tar</w>
queta kan</w>
que ˈ
que i
qariq bʼal</w>
pu se</w>
proyec tos</w>
pres os</w>
pien so</w>
pi zarra</w>
persegui dos</w>
pedi mos</w>
pe car</w>
parti do</w>
p á</w>
ox ígeno</w>
ocˈo winak</w>
obe decemos</w>
no ches</w>
ni ñi
na qajin</w>
mí os</w>
mue ve</w>
mp as</w>
mili tar</w>
mi endo</w>
mencion ado</w>
ma s
m undiales</w>
lv s</w>
loqʼoqʼ e
loqʼoqʼe laʼ</w>
lo qʼom</w>
llama ban</w>
lin cu
le che</w>
kˈiji lan</w>
kˈ ej</w>
kʼis ik</w>
ku xibʼij</w>
kki sukʼumaj</w>
ki solixik</w>
keʼo panik</w>
ketaʼ max</w>
ke taqan</w>
ke qariq</w>
ke bʼanow</w>
k ya</w>
k toj</w>
k kʼuliʼ</w>
k bʼin</w>
jui cios</w>
ju ven
inten ta</w>
in si
in fier
infier no</w>
in cen
im pres
im pi
ig nor
i rán</w>
hac éis</w>
h f</w>
gus tan</w>
guar di
guar dar</w>
gr ano</w>
g ámonos</w>
g entes</w>
g encia</w>
fr anc
fo to</w>
fal so</w>
ez er</w>
exis tencia</w>
esti ma</w>
espo sos</w>
er e</w>
entien de</w>
ent riste
emocion ante</w>
el em
ejerci cio</w>
edifi cios</w>
e las</w>
e fi
due ño</w>
diri gen</w>
dio sibʼ</w>
di ario</w>
des preci
debi lidad</w>
de lincu
d ándole</w>
cˈäji sabal</w>
cˈam om</w>
cˈ alaj</w>
cun aˈ</w>
cuer da</w>
cub ri
cu taˈ</w>
cu jo
consul tar</w>
compar ación</w>
comien za</w>
chʼoj inik</w>
chuna kaj</w>
chaji x</w>
ccion ario</w>
cabal los</w>
ca e</w>
ca cia</w>
c tas</w>
ban dera</w>
b amos</w>
aw etam</w>
ar co</w>
apo ya</w>
apla s
apan ok</w>
anunci ar</w>
ala ji
al oj
al kabʼal</w>
ag resi
advi rtió</w>
adver tencia</w>
adora ba</w>
acci dente</w>
a bʼe</w>
Uni do</w>
To bʼanik</w>
T im
S á
R espuesta</w>
Q IBʼ</w>
PR OV
P EN
Or gani
Ni co
NU EV
NE HE
NEHE MÍAS</w>
ME DI
M il</w>
LA YA</w>
Kʼ exom</w>
Ka sal</w>
Ja ˈ</w>
Es tos</w>
Es paña</w>
Eli ezer</w>
C lau
B at</w>
Asu ero</w>
Antigu o</w>
Alab emos</w>
Abiga íl</w>
ATA LAYA</w>
A ʼ</w>
A do
5 4
27 2</w>
200 2</w>
20 2</w>
2, 6
17 9</w>
17 6</w>
ʼ nik</w>
zon as</w>
yi ko
y abil</w>
xu xutuj</w>
xu toj</w>
xu tij</w>
xu patanij</w>
xu maltyoxij</w>
xu loqʼoqʼej</w>
xki xutuj</w>
xki kamisaj</w>
xe tzelej</w>
xe kojon</w>
xa ya</w>
x esa
wa chiˈl</w>
via jar</w>
verdader amente</w>
ve ían</w>
upa laj</w>
ukʼe xom</w>
u kʼolbʼal</w>
tzˈ ap
traba ja</w>
tra mpa</w>
to b</w>
tijo x</w>
ti eron</w>
tewchi bal</w>
te ˈtalic</w>
te ca</w>
te a</w>
taj er
tajer jes</w>
ta ˈic</w>
ta so
t ían</w>
t ábamos</w>
t un
símbo lo</w>
superi ores</w>
silen cio</w>
si la
señ ala</w>
servi mos</w>
san ta</w>
sa ˈj</w>
riq ik</w>
ri ón</w>
ri lom</w>
resta u
respe tu
regu lares</w>
refle ja</w>
recha zó</w>
re d</w>
qʼe q</w>
quix cowin</w>
qui xin
que cowinic</w>
qe yem</w>
qa jujunal</w>
qa bʼanik</w>
q anan</w>
pro por
pro bado</w>
pri vado</w>
presen tan</w>
predi cado</w>
pre fer
poro x</w>
pon ernos</w>
polí ticas</w>
poli cía</w>
po se
po bre
par on</w>
pa tio</w>
oy en</w>
ocupa dos</w>
nu tri
nima nik</w>
ni m
muri era</w>
mor tal</w>
misericordi oso</w>
mi cr
man to</w>
man datos</w>
maltyo x</w>
mal dición</w>
m etal</w>
lí cito</w>
llan to</w>
lan za</w>
kˈa tic</w>
kʼaskʼa tik</w>
kya ʼik</w>
kuy bʼal</w>
ku mätz</w>
koj maltyoxinik</w>
koj chakun</w>
kin kubʼsaj</w>
kin chʼaw</w>
ki kʼulanem</w>
ki jolom</w>
ker esaj</w>
ke tzeʼn</w>
ke lik</w>
k chʼawik</w>
jo bʼik</w>
jin e
ji kʼ</w>
jacho w</w>
in justos</w>
im pedir</w>
hu manas</w>
hall aron</w>
hablar les</w>
hab lo</w>
g ale</w>
fun ción</w>
f lores</w>
ez an</w>
exam inar</w>
exa cto</w>
ex p
escri tos</w>
equilib rio</w>
enfren tan</w>
en os</w>
em pa
em e</w>
edifi car</w>
e lo</w>
dé ci
do te</w>
digi tal</w>
di co</w>
determina do</w>
descen dió</w>
decí s</w>
de u
de le
d áis</w>
d entes</w>
cˈ at</w>
cäqui chˈob</w>
cäqu inaˈ</w>
cump len</w>
cump la</w>
corri endo</w>
confi emos</w>
con stitu
compañ ía</w>
comi té</w>
co lum
co lores</w>
chˈac an</w>
chʼu chʼu
chu xoʼl</w>
chiˈ x</w>
cha jej</w>
cer eb
cen tro</w>
católi ca</w>
cas ó</w>
car gas</w>
cam inar</w>
cam ellos</w>
ca ído</w>
ca uti
c ías</w>
bus có</w>
benefi cio</w>
bauti cé</w>
ata que</w>
arri es
ar chi
ape dre
apaci ble</w>
ap rueba</w>
al ter
al erta</w>
aj pa
VER DAD</w>
Tata xel</w>
TO BʼANIK</w>
Sol inik</w>
So bre</w>
Se ol</w>
SO BRE</w>
S hi
S ES</w>
S A</w>
Quiz ás</w>
OR T</w>
OR ACIÓN</w>
O bed</w>
MI O</w>
KʼUT BʼAL</w>
Kat kunik</w>
KA N</w>
K Q
Inter nacional</w>
Ge t
F U
E res</w>
D ANI
DANI EL</w>
Congreg ación</w>
Co mp
CHI X
Ar tajerjes</w>
AWETAʼ M</w>
9 00</w>
5 7
4 50</w>
2 50</w>
2 21</w>
1 14
ʼ IK</w>
Ú MER
ÚMER OS</w>
zar me</w>
z i</w>
z adas</w>
z a
xu kiʼ</w>
xqa ya</w>
xki chʼobʼ</w>
xibʼi bʼalalaj</w>
x tzelej</w>
x kaʼy</w>
x cˈam</w>
we tzelaj</w>
wa cä
wacä x</w>
vuel van</w>
vo ces</w>
vigi lan
vi ta
ver güenza</w>
ven ían</w>
val ores</w>
v ada</w>
utzali xik</w>
uri cio</w>
uku nem</w>
uko wi
u xi
u waʼl</w>
u kʼisbʼal</w>
tzʼi lo
tzucu xic</w>
trans fu
tradu ce</w>
tra mpas</w>
toʼ l</w>
to mando</w>
tier ras</w>
ti os</w>
tem pr
símbo los</w>
subi r</w>
su stitu
so c</w>
si pa
senti miento</w>
se la</w>
satisfe chos</w>
satisf acción</w>
samarita no</w>
salv ado</w>
sal vos</w>
sach taj</w>
rí os</w>
reta maxic</w>
regu laridad</w>
regres o</w>
refugi ados</w>
recor dó</w>
re visitas</w>
re lbal</w>
ra yibʼal</w>
ra póstoles</w>
r é
quix cowinic</w>
quin tak</w>
qui m</w>
que chˈaw</w>
qa tat</w>
qa bʼan</w>
q etaʼmam</w>
publi có</w>
prácti co</w>
propor cion
produc tos</w>
pro viene</w>
primo génito</w>
pobre za</w>
perju di
pe lo</w>
pa siones</w>
pa do</w>
pa deci
p ér
p inter
ox mul</w>
ofreci eron</w>
nu tinamit</w>
nima ˈ</w>
ne as</w>
multi media</w>
mu é
mu l
mostr arles</w>
mo dos</w>
mision ero</w>
mi ci
mencion ada</w>
men es</w>
mb as</w>
maravillo sa</w>
mad res</w>
lími tes</w>
limpi ar</w>
le to</w>
le en</w>
ladr ones</w>
la nic</w>
kˈ inom</w>
kʼul wachinik</w>
kʼoj i
kʼasi ʼk</w>
kʼa che
ku kʼis</w>
ku chʼijo</w>
kqʼala jin</w>
kolo tajem</w>
koj chʼakan</w>
kki sachisaj</w>
kki chʼij</w>
ki tzij</w>
ki riqbʼal</w>
ke kʼiy</w>
ke chakunik</w>
katu chajij</w>
ka majij</w>
ka lax</w>
k kamisax</w>
k ena
k bʼanow</w>
k bal</w>
ju sta</w>
jo r
iz quier
invi tó</w>
inclu ir</w>
in elab</w>
impul sa</w>
il la</w>
i ré</w>
i cio</w>
hici mos</w>
hi pócri
hablar le</w>
gr ani
ga das</w>
fund amen
fru tos</w>
fij émonos</w>
fi cina</w>
faci lidad</w>
f re</w>
esta remos</w>
esfor zarse</w>
escuch ando</w>
en aq</w>
ela n</w>
ela kˈ
eb e
ebe deo</w>
dé cadas</w>
dure za</w>
du dar</w>
domin io</w>
do lor
disfru tamos</w>
descu bierto</w>
desafí os</w>
des tin
den tal</w>
den se</w>
demostr ando</w>
defini do</w>
dedi cado</w>
deci dieron</w>
dar lo</w>
cä qˈuis</w>
cä jicomataj</w>
cuán tas</w>
cuan tos</w>
convi r
convi erte</w>
conten ido</w>
con ec
con ci
co m</w>
chʼaqa p</w>
chqa kubʼsaj</w>
choma bal</w>
cho maxik</w>
chi bij</w>
chaki ˈj</w>
cha jixik</w>
ch ab
celesti ales</w>
car pinter
car an</w>
capi tal</w>
calen dario</w>
c ándose</w>
c l</w>
blan co</w>
bien venida</w>
bebi das</w>
b ró</w>
ayu damos</w>
averigu ar</w>
aray ij</w>
aqu ello</w>
afir mó</w>
adora mos</w>
acu s
abandon ar</w>
a chʼabʼal</w>
Z ebedeo</w>
Z e
X eb
UT ER
UTER ONO
UTERONO MIO</w>
TO Q</w>
T Y
So lo</w>
SE R</w>
S AS</w>
QACHA LAL</w>
PRE N
O jer</w>
O ficina</w>
O M
Nu estra</w>
N ÚMEROS</w>
Mi ke</w>
Ma uricio</w>
MEDI TAR</w>
L y
L amen
Kʼa x</w>
KʼU L
Ju lio</w>
Ju icio</w>
Jes é</w>
J on</w>
Hebre as</w>
HE BRE
H u
H en
H arán</w>
F E</w>
Eth el</w>
ENSEÑANZ AS</w>
E len
DE UTERONOMIO</w>
D ina</w>
Cuán tos</w>
Cha tzijoj</w>
CHA K</w>
C osta</w>
Bu enas</w>
Bib le</w>
As amb
A mi
A cu
9 6
6 0
4 55</w>
3 4
2 39</w>
2 11</w>
16 5</w>
16 0</w>
1, 5
- 4</w>
, 4
ye ʼm</w>
yawa bʼ
yawabʼ ibʼ</w>
ya ʼik</w>
xu toqʼobʼisaj</w>
xqa maj</w>
xin sikʼij</w>
xin naʼ</w>
xin chakun</w>
xeʼu kʼam</w>
x tˈuyi</w>
x queˈ</w>
w an
vuel ven</w>
ver án</w>
val orar</w>
v ano</w>
utili zando</w>
us aron</w>
ukʼa mom</w>
u tewchibʼal</w>
u chʼichʼ</w>
tzʼu mal</w>
tzo qopij</w>
tzijo bej</w>
tza qʼor</w>
tranqui li
tra taron</w>
tor mento</w>
tol er
to ˈ
to mar
to car</w>
terri bles</w>
ter ra</w>
ter ne
taqchi ʼx</w>
tacˈ ali
ta tu
ta taj</w>
sue le</w>
su i
sui ci
sta mente</w>
so cial</w>
sincer idad</w>
señ a</w>
seri e</w>
ser éis</w>
sep h</w>
semil la</w>
segui do</w>
segu ramente</w>
se llos</w>
saq arik</w>
san tidad</w>
sa t
reuni eron</w>
respon da</w>
recib í</w>
recha zaron</w>
recha zan</w>
reali sta</w>
re quiere</w>
re f
re di
re comien
qˈui y</w>
qʼijila n</w>
qʼi jinik</w>
quin u
qui cˈ</w>
que daba</w>
qu esax</w>
qariq om</w>
pu de</w>
proteger á</w>
prote gió</w>
procla mar</w>
preocupa dos</w>
preci osa</w>
posi tivas</w>
posi bilidad</w>
por oj</w>
pod rás</w>
permi tir</w>
peque ñas</w>
pen saban</w>
pasa je</w>
par ed</w>
oper ación</w>
nu Tat</w>
novi a</w>
mural las</w>
modes to</w>
medi tando</w>
ma duros</w>
ma di
madi ani
madiani tas</w>
lám para</w>
lo qʼo</w>
lleg ara</w>
lleg ada</w>
lkʼ waʼl</w>
limpi eza</w>
li o
lar á</w>
la mi
la ban</w>
kʼasu x</w>
kʼache laj</w>
kʼ waʼ</w>
kä p</w>
kqa mulij</w>
kqa jach</w>
kojo pan</w>
kki xeʼj</w>
kki tzʼibʼaj</w>
kki chʼak</w>
kin tzijon</w>
kin ta</w>
kin kikot</w>
ki xoqil</w>
ki wetaʼmaj</w>
ki riqik</w>
ki comentarios</w>
keki chajij</w>
ka tijoj</w>
ka chajij</w>
k qʼatex</w>
k qʼat</w>
k k</w>
k esi
julu w</w>
ju winak</w>
je qiʼ</w>
izquier da</w>
invi tados</w>
investi gar</w>
ins tala
indi g
in un
in creí
imag ina</w>
im par
iden tidad</w>
i ría</w>
hebre a</w>
habi tada</w>
hab íamos</w>
h undi
gu era</w>
gla terra</w>
gar anti
g ales</w>
g ador</w>
físi cas</w>
fortalec en</w>
fina les</w>
f lo
ex pec
estre lla</w>
estr és</w>
esfuer za</w>
entreg ar</w>
enoj a</w>
enfren tamos</w>
electróni cos</w>
dire ctamente</w>
difer encias</w>
di ría</w>
destru yó</w>
destru irá</w>
dem onio</w>
defen der
deci da</w>
dar emos</w>
da te</w>
cäqui tzucuj</w>
cäqui kˈalajisaj</w>
cäkˈalaji n</w>
cäcˈul mataj</w>
cä tzelej</w>
cä sachtaj</w>
cu jach</w>
crucifi cado</w>
cre emos</w>
contra seña</w>
cono zca</w>
confir ma</w>
co yowal</w>
ciudad anos</w>
cion al</w>
ci dental</w>
chˈä m</w>
chˈä käp</w>
chu rox</w>
chqa bʼij</w>
cho m</w>
che ˈ
cer cano</w>
celebra n</w>
car re
ca ja</w>
bʼen aqʼij</w>
bʼano l</w>
bʼa m</w>
bor ra
boni ta</w>
bondad oso</w>
bo da</w>
ayudar me</w>
ayud ante</w>
ay un
ara yibʼal</w>
ap én
ap enas</w>
anu al</w>
an tzaqʼor</w>
an inak</w>
ama k</w>
am emos</w>
alaji sanem</w>
aju wo
advi erte</w>
adul tos</w>
adolesc entes</w>
acer carnos</w>
a tura</w>
a cha
W ETAʼMAJ</w>
VI GI
T or
T an
So corro</w>
So ciedad</w>
Pro metida</w>
Per son
PRES ENTA
PO DEMOS</w>
P regún
No ta</w>
Ne w</w>
KʼAS KʼA
KʼASKʼA TOQ</w>
Jo seph</w>
Jo el</w>
Ja wijeˈ</w>
J BʼAL</w>
In glaterra</w>
IN O</w>
FE C
Es tamos</w>
En séñ
EST O</w>
EST EMOS</w>
Di ez</w>
DES PER
Chq etaʼmaj</w>
Ch animaj</w>
CHIX KʼASKʼATOQ</w>
Ayu demos</w>
Aj tij</w>
A un</w>
7 ,000</w>
20 9</w>
2 22</w>
2 13</w>
1, 6
1 0000</w>
00 000</w>
ʼ t</w>
úni cos</w>
íri am</w>
É ste</w>
ye ˈm</w>
y ing</w>
xqui chˈob</w>
xke xibʼij</w>
xin tzukuj</w>
xe qaj</w>
xe cojonic</w>
xe bʼek</w>
x riqitaj</w>
x kʼut</w>
x kesaj</w>
we yej</w>
vuel tas</w>
vivi eron</w>
viu das</w>
va das</w>
v ara</w>
un t</w>
uma jixik</w>
ulo qʼik</w>
uchi be</w>
u respuestas</w>
u kamisaxik</w>
u jamaril</w>
u cab</w>
tʼu yul</w>
tä ni</w>
tzij tal</w>
tz aretak</w>
tu vimos</w>
ti c
terremo to</w>
ten ik</w>
takʼa l</w>
tacˈali bal</w>
t bol</w>
sépti mo</w>
suf re</w>
su laʼ</w>
st án</w>
sirvi ó</w>
si va</w>
ser vían</w>
senti remos</w>
sent ían</w>
semil las</w>
se du
ro g
ries go</w>
responsab le</w>
regres ó</w>
reflexion ar</w>
recono ció</w>
recono ce</w>
recom pens
reci én</w>
re ún
qʼijila x</w>
qʼequ ʼm</w>
qʼala j
quin cˈoji</w>
quetz al</w>
prohib ido</w>
profesi onal</w>
pro mo
pro ceso</w>
pon ía</w>
pix bʼenik</w>
permi tido</w>
per í
pens é</w>
peda zos</w>
pa j
pa cha</w>
pa c
ori lla</w>
op ciones</w>
on to</w>
oli vo</w>
ocupa do</w>
oc é
nu m</w>
no q</w>
ni tzʼa
ni ca</w>
mé rito</w>
máquin a</w>
mu q</w>
mo yab</w>
micr ó
mi xej</w>
meti ó</w>
mer ec
manif esta
mal caˈn</w>
ma ta
ma cunic</w>
m esi
loqʼoqʼ ex</w>
lo caus
lo cal</w>
llev arnos</w>
lle ve</w>
ll ying</w>
li ci
levan ta</w>
le ón</w>
ladr ón</w>
la xel</w>
la go</w>
l aron</w>
kˈ ab
kʼi sikʼ</w>
kʼas tajik</w>
ku riqo</w>
ku kʼutunisaj</w>
ku bʼanaʼ</w>
ksukʼu max</w>
kqa tas</w>
kqa junamaj</w>
kqa chʼijo</w>
kojki toʼo</w>
koj ilik</w>
koj chʼawik</w>
kki taq</w>
kinu toʼo</w>
kin tzukuj</w>
kin kʼojiʼ</w>
kicha ʼik</w>
ki wil</w>
ki bʼim</w>
keʼ en
keri q</w>
ka xeʼj</w>
ka kʼex</w>
k os</w>
k kojon</w>
k chakunik</w>
jue gos</w>
ju mulaj</w>
ja bʼ
is teis</w>
inspi rada</w>
in t</w>
in stante</w>
in dí
in cré
incré du
impres cin
imprescin di
imperfec ción</w>
im pac
ig ü
i jaʼ</w>
hi guera</w>
hal la</w>
h óli
gobier ne</w>
ger ia</w>
fáci lmente</w>
fu ria</w>
franc és</w>
fortalec erá</w>
fo tos</w>
fal taba</w>
f ama</w>
estudi os</w>
estr o
escla vi
es an</w>
enfer ma</w>
encar gará</w>
emp le
emb ra</w>
ejemp lar</w>
e gas</w>
e char</w>
doc tor</w>
do cu
diver siones</w>
disponib les</w>
diseñ o</w>
di luvio</w>
di estra</w>
destru ida</w>
desta que</w>
desanima dos</w>
demostr arle</w>
deci rse</w>
dar an</w>
cä ya</w>
cuni maj</w>
cuna xic</w>
cuj cowinic</w>
cu tijo</w>
corre r</w>
cont estar</w>
consi ste</w>
con tarles</w>
compar ó</w>
compar aciones</w>
com unes</w>
co lor</w>
cin to</w>
ci ertamente</w>
chˈu j</w>
chqa sikʼij</w>
chka xol</w>
chab ana</w>
ce bada</w>
característi cas</w>
car los</w>
cai ga</w>
cabal lo</w>
c ese</w>
bu llying</w>
bol sa</w>
bi x</w>
bendeci rá</w>
bebi da</w>
asi mismo</w>
asegur arnos</w>
ani man</w>
am pli
alco hóli
al ó</w>
al tura</w>
aj kaj</w>
aj chicaj</w>
agra dan</w>
ade cu
aconse jar</w>
aconse j
abo gados</w>
abi ertos</w>
ab ru
a chajil</w>
WA J</w>
VIGI LAN
VIGILAN TES</w>
TI K</w>
S ON
R ober
Pro te
Prepar emos</w>
Person alidad</w>
PER SON
Ori ental</w>
Ni geria</w>
Moz illa</w>
M íriam</w>
LI K</w>
L in
Kʼ I
K e</w>
Ju mul</w>
Ja el</w>
In dia</w>
Ig lesias</w>
I d</w>
Ha i
Ha des</w>
HEBRE OS</w>
H is
Gri egas</w>
GU I
G en
G aba
Fili p
F Í
Es tas</w>
Es lo
Enseñ emos</w>
Dem u
DESPER TAD</w>
DES PU
D on
D er
Cristi anas</w>
Com pr
Co rea</w>
BʼI L</w>
Bo x</w>
Bo b</w>
Bar tolo
B U
B A
Aqu í</w>
Ami gos</w>
Alejand ro</w>
Al tísimo</w>
A gar</w>
A caya</w>
9 8
6 07</w>
5 ,000</w>
200 6</w>
2 26</w>
18 8</w>
18 2</w>
17 0</w>
1, 7
ʼi n</w>
ʼ ja</w>
ʼ inem</w>
ólo gos</w>
ín ese</w>
í smo</w>
Í n
xu machʼ</w>
xqui cot</w>
xqui chaplej</w>
xoj kʼojiʼ</w>
xkina ʼo</w>
xki xibʼij</w>
xki toʼ</w>
xke ta</w>
xin tzalij</w>
xin kʼex</w>
xin kikotik</w>
x tzʼapix</w>
x retamaj</w>
x cˈul
war am</w>
wa qibʼ</w>
w9 5</w>
vi ernes</w>
vi entre</w>
vers os</w>
ver los</w>
val le</w>
ura yixik</w>
unimari saxik</w>
una ʼta
un dos</w>
uchi ʼja</w>
u wa</w>
u sado</w>
u mu
u loqʼoqʼenik</w>
u lij</w>
términ o</w>
tzʼapi m</w>
tzʼ onoj</w>
tz pa</w>
tribun ales</w>
tra ído</w>
tra tamiento</w>
toma mos</w>
tokˈo bi
tokˈ il</w>
to man</w>
to dopoderoso</w>
ti k
testi fi
termin a</w>
ter iʼ</w>
ten as</w>
te ri</w>
tar ían</w>
tar la</w>
ta ˈbal</w>
ta vo</w>
ta bli
sufri do</w>
sub unic</w>
su alidad</w>
sirvi entes</w>
sen tados</w>
segú rese</w>
san ó</w>
san guí
sacerdo cio</w>
sa ica</w>
sa cho</w>
ri s</w>
ri do</w>
reún en</w>
repren dió</w>
relacion ado</w>
re un
racha laxik</w>
ra mas</w>
ra ji
r te</w>
qʼa bʼaj</w>
qui eta
quer er</w>
queb el</w>
que opan</w>
que cojonic</w>
qu em</w>
qa familiares</w>
qa comentarios</w>
prob ó</w>
pon ían</w>
pla sma</w>
pi ezas</w>
pi den</w>
peti ción</w>
peri ó
pen dientes</w>
parábo las</w>
pareci das</w>
p risa</w>
op ina</w>
olvi dar</w>
ol ógi
obje to</w>
o remos</w>
o las</w>
nu toʼik</w>
nu ra</w>
nu mak</w>
nu bʼe</w>
nu bes</w>
necesi ten</w>
na kaj</w>
má ticos</w>
mu ros</w>
motiv ación</w>
mostr ando</w>
mo saica</w>
mo abi
me dos</w>
mar ch
mache te</w>
ma duro</w>
lími te</w>
llev en</w>
ll orando</w>
lengu ajes</w>
lar mente</w>
la k</w>
la bʼal</w>
l esax</w>
kʼe xaʼ</w>
kʼa sal</w>
kʼa mo</w>
ku ʼin</w>
ku toj</w>
kqa yaʼo</w>
kqa may</w>
kolo bʼ</w>
koj onel</w>
ko w</w>
kkini m</w>
kki yak</w>
ki tzʼumal</w>
ki kʼolbʼal</w>
ki kuchuj</w>
ki kojonem</w>
ke tobʼanik</w>
kat bʼison</w>
kar aj</w>
kam ul</w>
ka kʼam</w>
ka jach</w>
k tal</w>
k animarisaj</w>
juven tud</w>
juna mam</w>
jiquib am</w>
j inic</w>
invi taron</w>
inter medio</w>
inspi ración</w>
in justo</w>
hu yeron</w>
homo sexuales</w>
his tó
hi m
her idas</w>
guardi as</w>
gu es</w>
gobern ando</w>
fij ó</w>
f ías</w>
extran jero</w>
exis ten</w>
ex cep
estu vieran</w>
esper aban</w>
es u
er les</w>
er emos</w>
enseñ aban</w>
en veje
empi ezan</w>
embaraz ada</w>
egoí sta</w>
ech as</w>
dur ó</w>
dor mir</w>
discerni miento</w>
di s</w>
depor tes</w>
dej ando</w>
decidi mos</w>
de quiera</w>
cˈä jisaj</w>
cˈule laj</w>
cäque tzelaj</w>
cäcaˈ y</w>
cä kˈa
cue va</w>
cu t</w>
cu rar</w>
cu ador</w>
cre yó</w>
cost ó</w>
copi ar</w>
convi cción</w>
conven ce</w>
contribu ir</w>
conta gi
cono cí</w>
cono ció</w>
conf ían</w>
con tam
com pare</w>
com en</w>
co bra
ci la</w>
ci era</w>
chˈ aj</w>
chʼobʼo ʼ</w>
chʼa y</w>
chu toˈic</w>
chqa yaʼ</w>
cha kibʼ</w>
cha cunic</w>
cen tu
caus an</w>
cat á
cas co</w>
cal les</w>
ca yeron</w>
c lic</w>
bʼix on</w>
bʼa q</w>
bo das</w>
bienaventu rados</w>
bien estar</w>
az u
ayudar te</w>
aw animaˈ</w>
au mento</w>
aprender emos</w>
anali za</w>
an em</w>
am eri
alkʼwala xelabʼ</w>
aj no
ad amente</w>
aconte cimientos</w>
abund ante</w>
abor re
abo gado</w>
ab solu
a tobʼanik</w>
a tinamit</w>
a congregación</w>
UTO ʼ</w>
U rías</w>
U bʼiʼ</w>
U bʼanik</w>
TI V
T er
Se ba</w>
Santi dad</w>
San ta</w>
S ec
Re v</w>
Q etaʼm</w>
Q AS</w>
PROV ER
PROVER BI
PROVERBI OS</w>
PRESENTA CIÓN</w>
PRE DI
P ris
P r
P at
Ni lo</w>
Mu estre</w>
Men cione</w>
Mand amientos</w>
Ma estros</w>
MI RA</w>
KI KʼASLEMAL</w>
Imag inemos</w>
IN TER
Filip inas</w>
Encyclo pedia</w>
EL ABʼ</w>
E cuador</w>
E JE
DESPU ÉS</w>
Con stru
Car ta</w>
CH UWACH</w>
BʼAN Aʼ</w>
Ayu de</w>
Alg unas</w>
Aj tijabʼ</w>
AN DO</w>
4 54</w>
4 4
29 7</w>
20 6</w>
2, 9
2 16</w>
2 15</w>
19 4</w>
16 7</w>
1, 3
ú tbol</w>
é l
é i</w>
á tico</w>
y era</w>
y abʼ</w>
xuku y</w>
xuku naj</w>
xu xiʼj</w>
xu tzir</w>
xu siqˈuij</w>
xre yej</w>
xin tzijoj</w>
xeʼu kamisaj</w>
xe koj</w>
xa qʼo
x wali
x paqiʼ</w>
x kamisax</w>
x iban</w>
wan abʼ</w>
wali jok</w>
wa ʼik</w>
video conferencia</w>
vi vamos</w>
vi lle</w>
vi dón</w>
vali osos</w>
v ó</w>
v el</w>
us aban</w>
uku ʼinem</w>
ukowi risaxik</w>
uchʼa j
uchu q</w>
ucho mam</w>
u tatabʼexik</w>
u petik</w>
u mam</w>
tranqui la</w>
tra taba</w>
tra jo</w>
tra jeron</w>
tr á
toʼ bʼal</w>
tobʼan el</w>
to ca</w>
ti ble</w>
tewchi x</w>
termin e</w>
tempr ano</w>
te c
taʼ q</w>
tar co</w>
tab lemente</w>
tab la</w>
ta cˈa
t ˈi
t ˈ
suced erá</w>
suce der</w>
su ti
su bʼ
sin eli
sineli bʼ</w>
sikʼ il</w>
señ ora</w>
servi do</w>
se cun
se cciones</w>
san ado</w>
sal ía</w>
sacu dida</w>
sa gra
s anos</w>
ro ca</w>
reve lado</w>
resul te</w>
responsab les</w>
recha za</w>
re pi
re inar</w>
razon ables</w>
quix cojonic</w>
quin tij</w>
qu en
pá jar
preocupar nos</w>
pregún teles</w>
pregun tarle</w>
pre fier
pr esta
pos esiones</w>
po quito</w>
plen amente</w>
pi diendo</w>
pi c</w>
perten ece</w>
perdon e</w>
per si
per der
pe t</w>
pas ara</w>
parti cular</w>
par alí
pa go</w>
p ese</w>
organiz ado</w>
ora n</w>
ora do</w>
or ra
opini ones</w>
olvi dó</w>
ol vida</w>
oj a</w>
obli gación</w>
o kˈej</w>
nu tiempo</w>
nu mer
nu bʼantajik</w>
nitzʼa q</w>
ni vel</w>
n ífi
n y</w>
mó vil</w>
míni mo</w>
má tica</w>
mo tor</w>
minis terial</w>
mina do</w>
min as</w>
mencion ar</w>
matrim onios</w>
man ta</w>
ma ta</w>
m bʼäl</w>
llu via</w>
llen as</w>
le amos</w>
la tzˈ</w>
kˈala jinic</w>
ku yak</w>
ku qʼijilaj</w>
ku nimarisaj</w>
kqa tereneʼj</w>
kqa sach</w>
kqa kʼol</w>
koj toʼw</w>
koj riqitaj</w>
ko ʼalaj</w>
kki toj</w>
kin riqo</w>
kin chaʼ</w>
ki tzukuxik</w>
ki taqanik</w>
ki qʼatbʼal</w>
ki low</w>
ki familias</w>
keʼu tewchij</w>
kem k</w>
ke kaʼyik</w>
kat tobʼan</w>
kat kikotik</w>
ka ˈn</w>
ka wesaj</w>
ka tok</w>
ka qan</w>
ka pe</w>
ka ch</w>
k majtaj</w>
k kʼasiʼ</w>
k kojik</w>
k kamisaxik</w>
k bʼinik</w>
juz gado</w>
ja l
invi tado</w>
inten ción</w>
inten ciones</w>
inmora les</w>
inici ar</w>
influ ya</w>
imperfec ciones</w>
ilu stra
identifi car</w>
i x
i wumal</w>
i as</w>
glori oso</w>
gi eron</w>
gi do</w>
fuér cese</w>
for man</w>
f xa</w>
f undi
expul sión</w>
expli carle</w>
experi men
evi dente</w>
etzʼa n</w>
estable cido</w>
esta bilidad</w>
espa das</w>
esforz ándonos</w>
escu chamos</w>
escri tores</w>
er ían</w>
er é</w>
er ia</w>
enví o</w>
entr en
enseñ arle</w>
eng año</w>
e tz
déci ma</w>
due lo</w>
distan cia</w>
dici éndole</w>
descri bi
der i
demasi ada</w>
dej es</w>
deci den</w>
d le</w>
cˈo cˈalaj</w>
cˈ al</w>
cä re
cä naˈtaj</w>
cä cämisax</w>
cuˈ bi
cuni marisaj</w>
cu yac</w>
cre ció</w>
cor responde</w>
conven ció</w>
continu ar</w>
confi ando</w>
computa dora</w>
compren dí</w>
com un
com para</w>
cli mático</w>
cin cuenta</w>
ci tas</w>
chˈo bic</w>
chʼo bʼi
chu kˈatic</w>
chu kˈalajisaxic</w>
chu cˈamic</w>
chi kojoʼ</w>
cheˈ al</w>
che b</w>
chapi c</w>
chaj inelabʼ</w>
cha el</w>
ch ä
ch we
ch ino</w>
celebra ción</w>
caí da</w>
carr eras</w>
cal cˈual</w>
ca winak</w>
ca tzˈiak</w>
ca paces</w>
c éis</w>
bási cas</w>
bib lio
besti as</w>
ber t</w>
ben am</w>
bec er
be ˈc</w>
bas a</w>
b el
azu fre</w>
auxili ares</w>
arro gante</w>
apropi ado</w>
an he
an g
alkʼ wa
ali vio</w>
alegr ó</w>
ale gra
ador aron</w>
ac abe</w>
abor to</w>
ab ej</w>
Z ambia</w>
Yo vidón</w>
V D</w>
USA MOS</w>
To das</w>
Ten ía</w>
TAR DE</w>
Sec ción</w>
SA J</w>
S te
S ER
Rober t</w>
Pris cila</w>
PRO PI
O L
Ne h</w>
Na die</w>
N i</w>
Mi chael</w>
Man tén
M alta</w>
Ly die</w>
LE G
LE C
L AB
Kqa ya</w>
In tente</w>
Gu ar
Gaba ón</w>
Est onia</w>
ETAʼ MANIK</w>
EN A
ENA QʼIJ</w>
E m
DR O</w>
D VD</w>
D AS</w>
Cˈ ä</w>
Cä qui
Co men
Cha wesaj</w>
Cha toʼ</w>
Caperna um</w>
Bʼ ENAQʼIJ</w>
B abel</w>
AL ES</w>
A tenas</w>
A món</w>
8 7
4, 8
4 45</w>
27 3</w>
200 8</w>
2 65</w>
2 34</w>
2 25</w>
19 58</w>
10 9
- 5</w>
é is
éis bol</w>
á c
y taj</w>
xujo pan</w>
xu raq</w>
xu rak</w>
xqui rak</w>
xoj taq</w>
xke kamsaj</w>
xin el</w>
xe tzʼibʼax</w>
xe tzʼibʼan</w>
xe tobʼan</w>
xe kʼam</w>
xe bʼan</w>
xban ow</w>
xa wil</w>
x tzaq</w>
x laj</w>
x kˈalaji
x kʼa
x bʼek</w>
wiq b</w>
wa jaw</w>
w qu
vol ví</w>
vivi remos</w>
vio lento</w>
us aba</w>
uni do</w>
una qaj</w>
un u
ukʼis bʼalil</w>
u ya</w>
u toqʼobʼ</w>
u se</w>
u Dios</w>
tzʼilo bʼisaj</w>
tzʼibʼa talik</w>
tze ˈj</w>
tra tados</w>
tobʼan elabʼ</w>
tewchi xik</w>
ten ta</w>
te ocrá
te cho</w>
tar jetas</w>
tal ón</w>
tabli llas</w>
t bal</w>
suce dido</w>
suce da</w>
su ʼ</w>
su ya</w>
signifi caba</w>
si entes</w>
si embra</w>
semej antes</w>
segu í</w>
sa ci
ro gamos</w>
ri v
ri ka</w>
revel ó</w>
resuci tará</w>
resta ura
refu gio</w>
refer encia</w>
reci ba</w>
rebel des</w>
reaccion ar</w>
re ti
re po
ra dores</w>
ra bia</w>
qˈuiy ij</w>
qˈuex taj</w>
qʼo taj</w>
quin e
qui co</w>
queˈ il</w>
qu esa
públi cos</w>
pá rese</w>
proce de</w>
prision ero</w>
presi dente</w>
pod éis</w>
pix bʼexik</w>
perí odo</w>
pe día</w>
pasa jes</w>
ove ja</w>
oi ga</w>
odi ar</w>
ocu lti
oculti smo</w>
o to</w>
nu kʼojol</w>
no l</w>
neces aria</w>
na cer</w>
mé todo</w>
mu qbʼal</w>
mostr aron</w>
moabi tas</w>
mo tiva</w>
mi x
mi tad</w>
meti eron</w>
medi o
me za</w>
mari do</w>
ma qa
ma les</w>
ma ba</w>
logr aron</w>
locaus to</w>
llev emos</w>
llen ar</w>
lla do</w>
li ˈc</w>
li bʼal</w>
lepro sos</w>
la na</w>
la dri
la ba</w>
l ón</w>
kˈa tbal</w>
kˈ ino
kʼoji ʼk</w>
kʼay bʼal</w>
ku raq</w>
ku l</w>
ku kowirisaj</w>
ksukʼu mataj</w>
kojki lo</w>
ko xon</w>
kkini marisaj</w>
kin chakun</w>
keʼu kʼam</w>
keʼa toʼ</w>
keqa chilaj</w>
kem wiqb</w>
keki loqʼoqʼej</w>
ke yebʼal</w>
ke kolotaj</w>
kaj inak</w>
ka chalaxik</w>
k yoʼw</w>
k kʼextajik</w>
k kʼejeʼ</w>
k chʼobʼo
k bʼison</w>
juna bʼi
junabʼi r</w>
jo qʼotaj</w>
ji ki
jeˈ l</w>
j amos</w>
is ta</w>
inten so</w>
inmen so</w>
inju stamente</w>
indí gen
in stitu
in quieta
imprescindi ble</w>
identifi ca</w>
i lo
i familia</w>
hu ra
homo sexual</w>
hipócri tas</w>
hi ri
guí e</w>
glorifi cado</w>
fru tas</w>
frecu entes</w>
fon os</w>
fir meza</w>
fi en
extraordin ario</w>
exper to</w>
exa cta</w>
estudi e</w>
estre cho</w>
especi ali
esi a</w>
escuch an</w>
escu elas</w>
escri ba</w>
escon dido</w>
esco ja</w>
esclavi tud</w>
er ib</w>
ent ina</w>
enoj ó</w>
enfren tarse</w>
enfren taron</w>
enfren tar</w>
empa tía</w>
emp o</w>
ele f
ela x</w>
el enaq</w>
edu car</w>
e cheb</w>
dé mi
dá mosle</w>
do lores</w>
do ble</w>
disfru temos</w>
disfru tan</w>
dig nos</w>
dig na</w>
di fun
di aria</w>
descan so</w>
depor te</w>
demu estren</w>
defen sa</w>
de fien
de ce</w>
da ción</w>
d ables</w>
cˈu liˈc</w>
cˈu laxic</w>
cˈu ala
cämis anic</w>
cä ya
cä tzijon</w>
cä cˈasi</w>
cä chˈawic</w>
cä canaj</w>
cui dando</w>
cui dan</w>
cu takej</w>
cu ra</w>
crey ente</w>
cre ce</w>
contro la</w>
contin ú
conoci eron</w>
conoci da</w>
computa doras</w>
compa sivo</w>
comi eron</w>
comi endo</w>
colabora dores</w>
co mo
clu so</w>
chˈa ˈc</w>
chˈa quic</w>
chʼuchʼu j</w>
chʼaqa taʼq</w>
chi xoʼl</w>
chap taj</w>
cereb ro</w>
cer dos</w>
centr arnos</w>
cau sado</w>
car ritos</w>
can an
cal le</w>
ca usar</w>
c ú
bʼ em</w>
bus caba</w>
bi o</w>
bi li
bendi ga</w>
bel leza</w>
ban tajic</w>
b éisbol</w>
b lo
b inem</w>
aw oyowal</w>
arre ba
ariq om</w>
ariq a</w>
ar ci
aqu erib</w>
apén dice</w>
aparec er</w>
aman ecer</w>
am peʼ</w>
am i</w>
am etas</w>
alkʼwa labʼ</w>
al mas</w>
ajwa taj</w>
aj mac</w>
agrade cer
actú e</w>
ac ceso</w>
a tien
a segúrese</w>
a por
a kˈ
Xu bʼan</w>
Ver sión</w>
V u
Tí quico</w>
Ti empo</w>
TZ ʼ
TO MA
T ro
T ho
T ema</w>
So y</w>
Sen aquerib</w>
S on
S il
S er</w>
PU ESTA</w>
PREDI CA
PE DRO</w>
Ori ente</w>
Or pá</w>
Nu estros</w>
Ni kʼaj</w>
NI MA
Kʼut unem</w>
Kʼo t</w>
Kʼ I</w>
KA J</w>
J abʼ</w>
In cluso</w>
I N</w>
Ho locausto</w>
FI CA</w>
Ex am
Ent re</w>
EJE MP
E X
Compr as</w>
Chi laʼ</w>
Ch ʼa
Cen tro
CO SAS</w>
CI AS</w>
C e
Bʼa nol</w>
Bartolo mé</w>
AYU DA
A T</w>
6 00</w>
6 ,000</w>
2, 8
2 20</w>
2 10</w>
19 9</w>
19 74</w>
14 4,000</w>
ʼ L</w>
úni camente</w>
éli te</w>
è le</w>
ándo me</w>
É bed</w>
z il
zil ái</w>
z añ
yu go</w>
yo qʼik</w>
y eran</w>
xu tokˈobisaj</w>
xu qu
xta taj</w>
xnima nik</w>
xeu cˈam</w>
xe kaj</w>
xe cowin</w>
xe chˈaw</w>
xbi taj</w>
xaqʼo ʼl</w>
xa bʼij</w>
x qʼa
wi ck</w>
wa ʼ
w 88</w>
voluntari as</w>
vivi entes</w>
vi ajes</w>
ver duras</w>
var ones</w>
uwu q</w>
ura jil</w>
ufra tes</w>
uchu pik</w>
u wo
u wachbʼal</w>
u kʼolik</w>
u kʼi
tzijo bexic</w>
tza qik</w>
tz antzaqʼor</w>
tu yo</w>
trans por
tra tando</w>
toj o
ti jaʼ</w>
tend ré</w>
ten gáis</w>
tem per
tem e</w>
tacˈa toj</w>
tab les</w>
ta qaʼ</w>
ta dor</w>
t ono</w>
sur gió</w>
sur gen</w>
supli có</w>
su bʼik</w>
su ales</w>
spi cacia</w>
sor dos</w>
si tios</w>
sen tencia</w>
se tenta</w>
se ba</w>
sat élite</w>
san a</w>
s mos</w>
ro bar
repar ar</w>
regi ones</w>
refle j
re pas
re inado</w>
ra to</w>
r í</w>
r cun
rcun ci
qʼalaj sinelibʼ</w>
quin qui
qui xoc</w>
qui tado</w>
qui litaj</w>
qui chˈobo</w>
que dan</w>
que bran
qa sukʼilal</w>
qa chajixik</w>
pu lew</w>
prepar ación</w>
pre pare</w>
pre mio</w>
pre juicios</w>
posi bles</w>
por tu
pon és</w>
pon erlo</w>
poli cías</w>
po c
pla nifi
per sas</w>
per sa</w>
peligr osa</w>
patän inelab</w>
patan el</w>
pasto re
parta mentos</w>
pa sados</w>
pa lo</w>
oport uno</w>
on ías</w>
on ales</w>
oli via</w>
o z</w>
no ven
nave gador</w>
na ˈ
na w</w>
na te</w>
n á</w>
n es
muli xik</w>
mora da</w>
mo x
mis os</w>
menti roso</w>
mejo r
maravi llas</w>
man tienen</w>
man tenemos</w>
mal caˈ
ma dos</w>
m ij</w>
lu j</w>
llev ados</w>
lle vo</w>
levan tar</w>
le yó</w>
le a
lar a</w>
laju jil</w>
kʼiyi saxik</w>
kʼay ix</w>
kʼastaji saxik</w>
kö j</w>
ku rayij</w>
ko lo</w>
kin kʼam</w>
ki loqʼoqʼexik</w>
ki chʼabʼexik</w>
ker aj</w>
ke ya</w>
ke bʼin</w>
kax on</w>
kato pan</w>
kat bʼisonik</w>
kam ulij</w>
ka saj</w>
ka chilaj</w>
k tajin</w>
k sipanik</w>
k ri
k machʼachʼik</w>
joven citos</w>
jine tes</w>
ja ponés</w>
is èle</w>
is te</w>
invi tarlo</w>
inmen sa</w>
indi có</w>
increí ble</w>
inci rcunci
impresion ante</w>
i wach</w>
hospita lidad</w>
ho mb
ho gares</w>
hi gi
hermos as</w>
here darán</w>
hacer me</w>
hacer les</w>
habi tación</w>
ha gáis</w>
guar dia</w>
gri ta</w>
gra bación</w>
g al</w>
fra u
fer i
f útbol</w>
exam in
escon dió</w>
es enci
esenci al</w>
es car
envi di
en cen
empez ado</w>
emocion antes</w>
emo ciones</w>
emi so
e tí
do minar</w>
divor ci
distin ción</w>
dire cciones</w>
di ariamente</w>
desta car</w>
dese ando</w>
desarro llar</w>
des nu
derra mó</w>
demostr aremos</w>
dej ara</w>
dedi có</w>
de tuvo</w>
d ones</w>
cˈo t</w>
cˈamo waj</w>
có digo</w>
cäri ktaj</w>
cäqui xej</w>
cäqui tijo</w>
cäqui tatabej</w>
cäbi xic</w>
cä cˈam</w>
cä cämisaxic</w>
curi osidad</w>
cubier ta</w>
cru eles</w>
cri ado</w>
cor on
consider ado</w>
con movió</w>
compar ar</w>
comien zo</w>
comen zar</w>
co cˈow</w>
chʼa ʼk</w>
chʼa t</w>
chʼa j</w>
chwe ʼq</w>
chu qˈuexwäch</w>
chqi lampeʼ</w>
chila xik</w>
che a
chaji xic</w>
cha wetaʼmaj</w>
cha junamisaj</w>
ch bej</w>
centu rión</w>
ce der</w>
car gar</w>
car emos</w>
cap s</w>
can sado</w>
cambi a</w>
cam inando</w>
c esa</w>
bur ro</w>
bre a
brea ch
benefici an</w>
bendeci do</w>
be la</w>
ban o
ba i
ay ana</w>
awa j
aumen tar</w>
asig n
ari c</w>
are taq</w>
ara jil</w>
ar ru
ar ran
ar mas</w>
ar gu
an h
an di</w>
ami s</w>
am á</w>
alimen ta</w>
al tares</w>
aj solinel</w>
aj os</w>
ag ar
afir ma</w>
ad entro</w>
actu al</w>
a tormen
a ho
a chaʼom</w>
X el</w>
UR L</w>
U tat</w>
U QA
UQA JBʼAL</w>
Tim or</w>
Ti t</w>
TZ IJO
TY OX
T yo
T ur
T ri
Su premo</w>
Sof onías</w>
So lici
Si quem</w>
Salu dad</w>
SU S</w>
SIGUIENT E</w>
SI BʼA
SIBʼA LAJ</w>
SE A</w>
SA LI
SALI DA</w>
S B
SB U</w>
Rub y</w>
RE LE
RELE BʼAL</w>
RA Z
RA J</w>
R andi</w>
R ab
Qui ero</w>
Prof etas</w>
Prim ero</w>
Pod ría</w>
P az</w>
Organi zación</w>
ON U</w>
O N</w>
Ma yaʼ</w>
LA Bʼ
L í
Ku ya</w>
Ku bʼan</w>
K ˈ
K ol
Jo ven</w>
Jeho ram</w>
Han anías</w>
Hai tí</w>
H emos</w>
Gu ayana</w>
G isèle</w>
Fran cesa</w>
Fin e
FU ER
Es co
Entre tenimiento</w>
Enseñ anza</w>
En contr
Eli mélec</w>
DISCURS O</w>
D u
Cu lti
Cre ta</w>
Che ʼi
CHO MANIK</w>
CHA CHOMAJ</w>
Ben ín</w>
Bar zilái</w>
BILI DAD</w>
B ur
B olivia</w>
B an
B ajos</w>
B LE
Aris tarco</w>
An ne</w>
Ac án</w>
AYU DA</w>
A y
A mé
A KʼASLEMAL</w>
9 5
8 3
7 50</w>
48 9</w>
48 3</w>
4 51</w>
3 41</w>
29 2</w>
29 1</w>
28 1</w>
20 5</w>
2, 7
2, 5
2 38</w>
2 33</w>
2 30</w>
18 0</w>
17 7</w>
12 000</w>
- 7</w>
- 6</w>
ˈ jab</w>
ác ter</w>
É ufrates</w>
zar án</w>
yu qʼ</w>
xuku t</w>
xu xej</w>
xu sukʼumaj</w>
xu nimarisaj</w>
xu nikʼoj</w>
xqu esaj</w>
xoju bʼano</w>
xla bʼixel</w>
xki qʼaxej</w>
xki majij</w>
xka ˈn</w>
xin to</w>
xin bʼisonik</w>
xi m
xeʼu ya</w>
xeʼu toʼo</w>
xeʼa nimaj</w>
xer i
x paki</w>
x noj</w>
x coj</w>
war ic</w>
w ene</w>
voluntari o</w>
vita mina</w>
vir gen</w>
vigilan tes</w>
ver se</w>
veje z</w>
ve h
va yamos</w>
utili ce</w>
uku yik</w>
u toqʼobʼi
u qa
u kʼastajibʼal</w>
tzˈu m</w>
tzˈib ax</w>
tzuju x</w>
tri a</w>
trans gres
tranqui lo</w>
trabaj ó</w>
traba jado</w>
tra s
tormen tas</w>
toj om</w>
titu lado</w>
ti ʼj</w>
ti vamente</w>
ti smo</w>
teléf onos</w>
te jas</w>
ta nim</w>
ta cto</w>
t re</w>
surgi r</w>
su el
sten tes</w>
so br
si rios</w>
si ble</w>
seman í</w>
selec cion
segui rá</w>
secre tario</w>
saq bʼa
saqbʼa ch</w>
salu dan</w>
s h</w>
ru tina</w>
ro b
ri kic</w>
res tri
regu larmente</w>
recompens ará</w>
re ú
re za</w>
razon amientos</w>
raj chakibʼ</w>
ra tz</w>
ra lidad</w>
ra jaw</w>
r las</w>
qʼoxo mal</w>
quin tzijon</w>
quin pe</w>
qui la</w>
qui chˈob</w>
qui che</w>
quedar a</w>
que dar</w>
qu em
qa tzantzaqʼor</w>
pér dida</w>
pusi era</w>
prostitu ta</w>
produ jo</w>
produ cen</w>
prepar ativos</w>
prepar ada</w>
pregun tarnos</w>
pi ad
ph ani
phani e</w>
pes cado</w>
per dieron</w>
pens amiento</w>
pe dí</w>
pas aría</w>
partici pan</w>
pa kˈij</w>
p eces</w>
or aron</w>
oj om</w>
oc tavo</w>
o lil</w>
o a</w>
nu riqom</w>
neut ralidad</w>
naʼ tajisaj</w>
n úmeros</w>
mu era</w>
mu bʼan</w>
motiv ó</w>
mone das</w>
micró fonos</w>
mi ró</w>
medi tamos</w>
me lo</w>
manten ga</w>
malcaˈ nib</w>
ma taran</w>
m on</w>
m es
lo ʼ</w>
llev ará</w>
liter al</w>
li tros</w>
len tejas</w>
l una</w>
ku maltyoxij</w>
ku lew</w>
ku k</w>
ku chʼak</w>
kqa bʼisoj</w>
koj takʼiʼ</w>
knima x</w>
knima taj</w>
kin xeʼj</w>
kin el</w>
ki sukʼilal</w>
keni maj</w>
keki tijoj</w>
keki qʼijilaj</w>
ke machʼachʼik</w>
kaˈ nom</w>
katki toʼ</w>
kan el</w>
ka tatabʼej</w>
ka q</w>
k kʼisik</w>
ju paj</w>
ji laj</w>
ja t</w>
iwa chalal</w>
itz inik</w>
invisi ble</w>
investig adores</w>
inter nacionales</w>
inoc ente</w>
inmedia tamente</w>
infor máticos</w>
indi s</w>
indi car</w>
indi can</w>
inclu yen</w>
inclu ido</w>
inacti vo</w>
ina dos</w>
in mundo</w>
in forma
in feri
in es</w>
im pren
im pida</w>
im perio</w>
ib ij</w>
i ris</w>
hu milla
hu eso</w>
hon ran</w>
hon da</w>
hi ji
hab ido</w>
gu a</w>
gri tos</w>
g ían</w>
furi oso</w>
fu isteis</w>
fon dos</w>
fin es</w>
fal le
f es</w>
exis tir</w>
ex clu
estudi amos</w>
esta rían</w>
est ri
esfor zó</w>
escu chado</w>
escri bo</w>
esca par</w>
es cen
ent ren</w>
enseñ arnos</w>
encontra ba</w>
en fu
en comen
empi ece</w>
elimin ará</w>
ela qʼom</w>
ec a</w>
dis te</w>
dig nas</w>
dificul tad</w>
di rán</w>
destru idos</w>
descan sar</w>
des cien
defen dió</w>
deb o</w>
de primi
da ciones</w>
cˈu lan</w>
cäqui takej</w>
cä quinimarisaj</w>
cä kˈalajinic</w>
cumpli era</w>
cuj raj</w>
cuesti on
cu sach</w>
cu lo</w>
cu le
cu inem</w>
cru el
cor rió</w>
converti rse</w>
conso lar</w>
conden ación</w>
con taron</w>
con sola
com probar</w>
co jic</w>
ci ta</w>
chu cämisaxic</w>
chu chu
choma x</w>
chi chomaj</w>
che i
cha jinel</w>
ch emos</w>
ces ar</w>
cen tró</w>
carpinter o</w>
car án</w>
car ácter</w>
cab ello</w>
c án</w>
bʼan tajinaq</w>
bus camos</w>
bur las</w>
br indis</w>
bochiˈ n</w>
benefici ado</w>
bas an</w>
baj ó</w>
ay uno</w>
aw etaʼmanik</w>
ata ques</w>
asomb r
asi stentes</w>
arma dura</w>
archi vos</w>
ar os</w>
apren den</w>
apan oq</w>
ano che</w>
anima do</w>
angu a
angua ge</w>
anali zará</w>
ama ˈ</w>
ama s</w>
alu pe</w>
alter na
alcohóli cas</w>
alcan zado</w>
al f
ajpa cheˈ</w>
adap tarse</w>
ad alupe</w>
acu sado</w>
actu ó</w>
acti tudes</w>
acer can</w>
acab aba</w>
ac am
ab un
a xk</w>
a turas</w>
a tin
a lo</w>
Xe ʼu
W al
UTZ IJO
UTZIJO XIK</w>
UTZ I
U KU
Tyo xlaj</w>
Tho mas</w>
Ta kanel</w>
TIJ OX
Sá bado</w>
Sy l
Sig nifi
SAL MO</w>
S aba</w>
S EN
Recuer da</w>
Recor demos</w>
QA KʼUʼX</w>
Pre párese</w>
Pe ter</w>
PRO FEC
PREGUN TAN</w>
O tra</w>
L é
L anguage</w>
KA WAJ</w>
KA BʼIJ</w>
Je waʼ</w>
JA ʼ</w>
HER MANOS</w>
H os
Gu adalupe</w>
Get semaní</w>
Escu che</w>
Eli e</w>
EST AS</w>
ES TI
EJEMP LO</w>
E OS</w>
D anos</w>
D a
Cristi anos</w>
Chi xel</w>
Ch nimarisax</w>
CHO MAN</w>
CH O</w>
C waj</w>
C ali
Bi enaventu
Ayu da</w>
Anali ce</w>
Ale x</w>
Ab rán</w>
AN TE</w>
AN A</w>
A h
A PREN
9 000</w>
5 3
4, 7
30 7</w>
3 33</w>
29 5</w>
28 8</w>
27 6</w>
27 4</w>
27 0</w>
20 1</w>
19 92</w>
19 22</w>
18 1</w>
17 2</w>
1 17
ˈ aj</w>
ʼ J</w>
ý rios</w>
é tico</w>
é stas</w>
é mosle</w>
Á ng
Á N</w>
z it</w>
yoˈ winak</w>
yaʼo wik</w>
ya c
xu k
xqui tzucuj</w>
xqui to</w>
xoj kunik</w>
xoj bʼanowik</w>
xla nik</w>
xki tzukuj</w>
xke b</w>
xili taj</w>
xi ya</w>
xeu ya</w>
xeu chaˈ</w>
xe lik</w>
xe in
x tzʼibʼan</w>
x majix</w>
x cämic</w>
x cowin</w>
x an</w>
winaqi lal</w>
wa chi
vé an
video juegos</w>
vi entos</w>
ver éis</w>
ven cer
vari edad</w>
val oraba</w>
val en</w>
univer sal</w>
umu ʼjal</w>
ue lo</w>
u xutuxik</w>
u kʼulaj</w>
tzʼi bʼan
tzʼaqa til</w>
tzʼaqa tik</w>
tzuku b</w>
tzijo bela</w>
tze ʼj</w>
tzaq om</w>
tz rajwaxic</w>
tu n</w>
tro mp
tromp etas</w>
trib uno</w>
transfu siones</w>
tor re</w>
to men</w>
to alla</w>
tic bal</w>
the w</w>
tewchi m</w>
ter res
ter cero</w>
ten ed</w>
tem en</w>
tar las</w>
tana el</w>
tacˈ al</w>
t te</w>
t ha</w>
t el</w>
suti m</w>
sorpren de</w>
so ñ
sin to
ser vía</w>
sen d</w>
secun d
sa chom</w>
sa ca</w>
s ú
s ter
s t</w>
rí n
riq oj</w>
ri t
reve lan</w>
represen tantes</w>
repo so</w>
rein ará</w>
regoci j
regis tra
refi rió</w>
refer ía</w>
recono cen</w>
recibi endo</w>
reali zan</w>
re ctitud</w>
ra yi
ra x</w>
qˈuex a</w>
qʼoxo wem</w>
qʼa poj</w>
qui po</w>
qui coj</w>
quer éis</w>
que tzak</w>
que lic</w>
que kˈijilan</w>
que il</w>
que chˈawic</w>
qe bʼsaj</w>
qa chalaxik</w>
q ana
prohib i
progres o</w>
progres ando</w>
procu rador</w>
pres as</w>
prepar ando</w>
pregun tarse</w>
prefier en</w>
predi caba</w>
preci so</w>
po tencias</w>
pla ya</w>
pier de</w>
pien sas</w>
pi damos</w>
pes cados</w>
pelícu la</w>
patri arca</w>
paralí tico</w>
par as</w>
pa kal</w>
p in
p esta
pesta ña</w>
os cientos</w>
organiz ada</w>
organiz aciones</w>
oper ar</w>
olvi demos</w>
oji c</w>
oj o
ofen dido</w>
ocˈo w</w>
ocu par</w>
obedeci endo</w>
obede zcan</w>
o pe</w>
nomb raron</w>
nie ve</w>
necesi to</w>
necesi tas</w>
na zi</w>
na do</w>
muli xic</w>
movi miento</w>
mostra mos</w>
mostr arle</w>
mol de
mer ecen</w>
medi anoche</w>
mebʼa yil</w>
malv ada</w>
ma jik</w>
ma gia</w>
ma el</w>
m esas</w>
m bia</w>
lám paras</w>
lo qʼo
liber ar</w>
lib ras</w>
levan tará</w>
levan taron</w>
lar gas</w>
lab al</w>
la q</w>
kʼi ʼk</w>
kuna tajik</w>
ku xeʼj</w>
ku qʼatej</w>
ku qasaj</w>
kqʼa xex</w>
kqa tzalij</w>
kolo bʼal</w>
kojki tatabʼej</w>
koj tzalij</w>
kkʼa man</w>
kin tij</w>
kin kʼulmaj</w>
kili tajik</w>
ki kʼa
ki cuerpo</w>
ki chʼa
keʼu toʼo</w>
keʼi litaj</w>
keta maj</w>
kesa ch</w>
ke tzʼaqat</w>
ke qelen</w>
ke kʼasux</w>
ke kʼam</w>
ke bʼison</w>
ke bʼek</w>
kchʼobʼo taj</w>
k warik</w>
k taq</w>
k naqajin</w>
k makunik</w>
k ku
k jach</w>
k bʼek</w>
jun tas</w>
jun ta</w>
ju chˈob</w>
jawi jeʼ</w>
ja q
ja cha</w>
invi tamos</w>
impresion antes</w>
im pon
ilustra ciones</w>
il ij</w>
i ki
i e</w>
i cana</w>
humani taria</w>
ho yo</w>
hered eros</w>
he chas</w>
har ina</w>
h ás</w>
h arás</w>
gui la</w>
guer reros</w>
grati s</w>
gol pe</w>
go z
gi gante</w>
g ada</w>
fu mar</w>
forni cación</w>
fij arnos</w>
figu ra</w>
fac tores</w>
f o</w>
f as
extra ñ
exten dió</w>
ex pi
evi ta</w>
etí ope</w>
estudi a</w>
estru c
esta dio</w>
esper ábamos</w>
específi cas</w>
es enta</w>
er ación</w>
epi dem
envi ados</w>
ent era</w>
enoj ado</w>
enfr enta</w>
energ ía</w>
encontr é</w>
en tales</w>
en inak</w>
em presa</w>
elem entos</w>
ech an</w>
e zo</w>
e ci
due le</w>
don dequiera</w>
distin gui
dis tra
descub rió</w>
des vi
des pier
demostr arles</w>
dej aran</w>
declar ó</w>
de ten
de partamentos</w>
de los</w>
dañ ar</w>
d és</w>
d estro
d ales</w>
cäqui yac</w>
cäqui lo</w>
cäcˈul i</w>
cä tzak</w>
cuj cowin</w>
cu qˈuex</w>
cri terio</w>
cre o</w>
cre an</w>
cor dero</w>
convi er
conoz camos</w>
confir man</w>
conden ado</w>
con v
con tienen</w>
con tamos</w>
con tado</w>
con exi
con cep
compor tamiento</w>
co dici
chʼajchʼoj alaj</w>
chu xeˈ</w>
chu sachic</w>
chq anikʼoj</w>
chi s
chat el</w>
cha bʼana</w>
ch é</w>
ch kʼol</w>
ced entes</w>
cas amos</w>
car me</w>
car ik</w>
cam ello</w>
blasf emia</w>
biblio teca</w>
bi n</w>
be yal</w>
ban co</w>
ayu daba</w>
ati ra</w>
aten tos</w>
at z</w>
arque ólogos</w>
ar ena</w>
aprove cha</w>
anima rnos</w>
ama rlo</w>
am on
aloqʼoqʼ ej</w>
ale gre</w>
alaban zas</w>
ador ando</w>
ado remos</w>
ad qui
acusa ción</w>
acu dir</w>
acer cado</w>
abandon aron</w>
ab re</w>
a wixoqil</w>
a wi
a ter
a se</w>
a caso</w>
Z A
Xe u
X quibij</w>
X equi
VID EOS</w>
V ida</w>
US TE
U TI
Ti atira</w>
TOMA Bʼ</w>
TE RIO</w>
Si er
SU É</w>
SIG NI
SIGNI FICA</w>
S I</w>
RE Y</w>
R O</w>
Qui eres</w>
Qui ere</w>
Po co</w>
Par ti
PRO V</w>
O tros</w>
O c
Na tanael</w>
Mar tín</w>
Ma di
M ostremos</w>
M il
M IN
MIN IS
MINIS TERIO</w>
M BRE</w>
Li dia</w>
Lec ciones</w>
Lau ra</w>
Lamen tablemente</w>
LABʼ OM</w>
KʼA Kʼ</w>
Kol onel</w>
K ýrios</w>
K sach</w>
K ajtij</w>
Joh an
JU EC
JUEC ES</w>
JO SUÉ</w>
J i
Is mael</w>
In forme</w>
Hor st</w>
H IJ
Ge of
Gala cia</w>
G ó
G REG
Fine hás</w>
FELI Z</w>
Es per
Enseñ a</w>
ENT ES</w>
ENSEÑ A</w>
E F
D RA
Cu ban</w>
Colo mbia</w>
Chi ya</w>
Cheʼa toʼo</w>
Caperna úm</w>
Can á</w>
CU I
CON GREG
Bri zit</w>
Ar t
An t
Ala in</w>
ALI TOMABʼ</w>
AB RIL</w>
A jaw</w>
A LABʼOM</w>
9 7
38 4</w>
3 46</w>
3 30</w>
3 24</w>
200 9</w>
200 7</w>
20 7</w>
2 37</w>
19 93</w>
19 7</w>
19 76</w>
18 6</w>
16 6</w>
16 1</w>
15 9</w>
15 4</w>
ú l
ó xi
ó ne
ín te
ándo os</w>
Ñ ANA</w>
zañ a</w>
xuqu je</w>
xu riko</w>
xu kʼis</w>
xu kojo</w>
xu jaq</w>
xu cˈastajisaj</w>
xu chʼak</w>
xoj ki
xki chʼij</w>
xin kʼojiʼ</w>
xe tzijon</w>
xe chʼojin</w>
xe beˈc</w>
xa wilo</w>
xa tu
x rachi
xrachi kʼaj</w>
x quib
x qebʼ</w>
x kʼastajisax</w>
wäch inic</w>
wi lij</w>
we k</w>
waj xa
wa chilanik</w>
w are</w>
venta ja</w>
ven i
v áli
v ados</w>
us se
usse ll</w>
us en</w>
uqʼa toj</w>
u va</w>
u majim</w>
u kʼ</w>
u ju
té phanie</w>
tzuku m</w>
tz ej</w>
tu qa
tradu cido</w>
toʼ laʼ</w>
titu lada</w>
tin el</w>
ti ˈ
teri or
terior mente</w>
ter n
temp estad</w>
taso m</w>
taqo ʼ
taqo w</w>
t esta
suc eso</w>
sobr ino</w>
so ciedad</w>
so ci
sir vieron</w>
sincer as</w>
si go</w>
si as</w>
señ aló</w>
señ ala
san el</w>
saki ric</w>
sab ia</w>
s lemal</w>
s esenta</w>
rín cipe</w>
ro di
ri da</w>
restau rar</w>
respeta n</w>
recuer dos</w>
recomien da</w>
reci ó</w>
reci ban</w>
reali za</w>
re ver
re admi
razon ar</w>
ral mente</w>
ra jawibʼal</w>
r mu
qʼino mabʼ</w>
qʼa tenik</w>
quin oc</w>
quin kˈalajisaj</w>
quin coj</w>
quin chomaj</w>
quin ce</w>
qui tó</w>
qui tij</w>
qui takej</w>
qui ej</w>
quer iendo</w>
que dé</w>
que de</w>
que daban</w>
que bo
qu inak</w>
qu etamaj</w>
qu ec
qa tzʼaqat</w>
qa kochʼonik</w>
qa jil</w>
q an
pájar os</w>
pru dentes</w>
propi edad</w>
presen taron</w>
predi que</w>
predi caban</w>
preci osas</w>
posi blemente</w>
plan e
pien sen</w>
perdon ados</w>
per ver
pe dí
pareci eron</w>
parec ían</w>
pa saban</w>
p es</w>
organi zar</w>
odi c
odic ea</w>
obe decían</w>
o quinak</w>
o om</w>
o ko
o d</w>
nu patan</w>
nu mic</w>
nu mamá</w>
nor malmente</w>
noj inak</w>
necesi tábamos</w>
necesi tados</w>
na cí</w>
na ce</w>
mué stre
muer en</w>
mucha cha</w>
mu rmu
moti var</w>
mon tón</w>
mo difi
mi a
mia ˈl</w>
men os
mari hu
marihu ana</w>
man sos</w>
ma yi
ma tzej</w>
ma go</w>
lá mina</w>
luch an</w>
loqʼoqʼ en</w>
llen ado</w>
llama ron</w>
levan tado</w>
le r</w>
le erla</w>
lab ios</w>
la xelabʼ</w>
kˈi jol</w>
kʼo lem</w>
kʼiyi saj</w>
kʼi ʼa
kʼi xik</w>
ku tijo</w>
ku junamaj</w>
ku bʼaʼ</w>
kqa toqʼobʼisaj</w>
kq arayij</w>
kos ik</w>
koju tijoj</w>
koj kʼasiʼ</w>
kki tijoj</w>
kin wilo</w>
kin tzalij</w>
kin nimaj</w>
kin loqʼoqʼej</w>
ki wilo</w>
ki waj</w>
ki qʼijilanik</w>
ki lo</w>
ki kʼulaj</w>
ki kʼamom</w>
keʼ esax</w>
ke yem</w>
ke kamisax</w>
ka jawin</w>
k yak</w>
k qʼijilax</w>
k paqiʼ</w>
k niman</w>
k kʼex</w>
k kʼastaj</w>
k chʼa
justifi cado</w>
junami l</w>
ju días</w>
ji x</w>
ji b</w>
je kel</w>
ja ʼl</w>
j inaq</w>
iw etaʼm</w>
insul tos</w>
instru cción</w>
infor malmente</w>
impul só</w>
impul s
impresion ó</w>
im pide</w>
ib e</w>
i Dios</w>
hu yó</w>
ho mici
ho jas</w>
her ida</w>
hac ed</w>
habl emos</w>
h er</w>
h emo
gui ar</w>
gra fías</w>
gobier na</w>
gi ca</w>
fortale ciendo</w>
for nia</w>
for mó</w>
fij arse</w>
ez can</w>
extraordin aria</w>
extran jeros</w>
ex ceso</w>
establec er</w>
esta ré</w>
es cena</w>
enten dió</w>
enten dido</w>
enseñ aron</w>
en der
empe ñ
ele vadas</w>
ejecu tado</w>
efi caz</w>
económi co</w>
e ves</w>
e bre</w>
dur miendo</w>
dormi do</w>
divi dido</w>
distin to</w>
distin ta</w>
diri ja</w>
di tos</w>
di ré</w>
di mientos</w>
di ji
determina r</w>
desper tar</w>
dese e</w>
descen diente</w>
des obedientes</w>
des obediencia</w>
des cui
deci rles</w>
de volvió</w>
de l
d oscientos</w>
cˈa y
cäqui taˈ</w>
cäka taˈ</w>
cä cämic</w>
cu ente</w>
cu chˈob</w>
cor respon
converti rá</w>
conv inc
consul ta</w>
consider an</w>
consider aba</w>
conci li
con dición</w>
comer ciales</w>
comen ta</w>
comba tir</w>
com pon
colum nas</w>
ci mos</w>
ci f
ci cli
chˈa y</w>
chˈ at</w>
chʼaj chʼobʼ
chʼa yo</w>
chʼa qapil</w>
chu wek</w>
chu j
cho man
cha tzalij</w>
cha tijoj</w>
ch ariqa</w>
ch ar
ch an</w>
car la</w>
capaci tar</w>
can di
ca wil</w>
ca chalal</w>
bʼano j</w>
boni to</w>
bi s
becer ro</w>
bauti zaron</w>
bauti za</w>
b rech</w>
b eso</w>
az ú
auto móvil</w>
ar pa</w>
anun cio</w>
anima ron</w>
angusti ado</w>
alterna tiva</w>
aloqʼoqʼ ebʼal</w>
alitoma b</w>
alcan zar
al tos</w>
aj kun</w>
aguan tando</w>
agradeci da</w>
agra dó</w>
afron tamos</w>
afri canos</w>
ac to</w>
abi ertamente</w>
abandon ado</w>
ab raz
a xik</w>
a wumal</w>
a us
a sal
a qa
a pre
a paciencia</w>
a kʼulanem</w>
a jal</w>
Z oom</w>
Y ah
X qa
X pe</w>
War al</w>
W a</w>
Vi c
V es</w>
V e</w>
UN I
U nos</w>
U LE
ULE W</w>
Tz ʼibʼa
Syl via</w>
So cie
Si ón</w>
Si ga</w>
SAB ER</w>
S téphanie</w>
S ar
S TA</w>
S MO</w>
Ru anda</w>
Recuer de</w>
R ussell</w>
Qʼa x
QʼA BʼIL</w>
Quin bij</w>
Qu el</w>
Pi en
PROPI A</w>
PA TAN
PA LAB
P Ó
P ríncipe</w>
P al
Oc cidental</w>
NE T</w>
N ing
Ma qa
MO S
MA ÑANA</w>
M y
La odicea</w>
Kʼa slemal</w>
Kʼ U</w>
Ka ya</w>
Ka qa
K ajwataj</w>
K RAJ</w>
Ju ez</w>
Jam ás</w>
JU NA
Imag ínese</w>
Im perio</w>
INTER NET</w>
I L</w>
Her manos</w>
Hac e</w>
HA Y</w>
ES PER
Di ría</w>
Des i</w>
Deb ería</w>
DA DES</w>
Constru cción</w>
Con se
Cha tzujuj</w>
Cha chomajampeʼ</w>
Car ibe</w>
Cali fornia</w>
CHA YAʼ</w>
BʼAN OM</w>
Bil l</w>
Ber ea</w>
Asamb leas</w>
ANZ A</w>
A ver
A QʼABʼIL</w>
A GU
8 6
3 17</w>
26 8</w>
2, 4
2 59</w>
2 30
2 29</w>
19 71</w>
19 0
18 3</w>
10 8
1 1
ʼ jabʼ</w>
ʼ O</w>
óxi do</w>
ór d
órd enes</w>
í os</w>
én donos</w>
ár selo</w>
yo qʼ
yiko p
yikop em</w>
yb 16</w>
yaʼo winaq</w>
ya laʼ</w>
xu yaj</w>
xu toʼo</w>
xu tatabʼej</w>
xu l</w>
xu kʼuʼ</w>
xu kʼaq</w>
xki mayo</w>
xki chʼobʼo</w>
xin tzijon</w>
xin kʼiy</w>
xin kun</w>
xim ibal</w>
xesa ch</w>
xequi ya</w>
xe kʼaseʼ</w>
x tobʼanik</w>
x que
x junamataj</w>
x cojon</w>
x chʼakan</w>
x chaptaj</w>
x cha
wu kʼaj</w>
wal cˈual</w>
w17 03</w>
w 89</w>
vivi ente</w>
vi ética</w>
vesti duras</w>
vers ario</w>
ver ía</w>
ver siones</w>
ver ifi
ven to</w>
ven ia</w>
ve te</w>
v arón</w>
utzi r</w>
una ʼik</w>
un eʼ</w>
u to
u qʼinomal</w>
u lar</w>
u familiar</w>
u bʼaqʼwach</w>
tzʼapi xik</w>
tzuku nem</w>
tza kic</w>
tu al</w>
tropi ezo</w>
tr aron</w>
to ro</w>
to ban</w>
ti ja</w>
termina do</w>
ter r</w>
ter as</w>
tend encia</w>
tem b
tec no
tatu aje</w>
taq chij</w>
takʼa loq</w>
tak chiˈx</w>
tab las</w>
ta lidad</w>
ta la</w>
ta je</w>
t ones</w>
suy as</w>
sufri mientos</w>
str ong</w>
sorpren dió</w>
sol ía</w>
so p
ser lo</w>
segui remos</w>
secund aria</w>
se ver
se quía</w>
se pan</w>
satisfac er</w>
sali endo</w>
sal mos</w>
sabi as</w>
sa k
sa ida</w>
s tar</w>
s ando</w>
ru eb
rompi ó</w>
rode ado</w>
ro m
ro gó</w>
ro bar</w>
rit mo</w>
ri po
ri jabʼ</w>
reú ne</w>
resuci ten</w>
resuci tarán</w>
resplan deci
res ía</w>
res pi
reno var</w>
recuer dan</w>
recibi remos</w>
reali zó</w>
re pasar</w>
raj chak</w>
qˈui yic</w>
qˈui yi
qʼo mabʼ</w>
quine ˈc</w>
quin nimarisaj</w>
quin naˈ</w>
quin cˈut</w>
quedar nos</w>
que j
qu émonos</w>
qu ina
qu esaj</w>
qi laʼ</w>
qa tinamit</w>
qa ko
qa junabʼ</w>
qa chomam</w>
publi canos</w>
pu dimos</w>
provo cado</w>
proteger nos</w>
prote gen</w>
prof undi
produ cti
pro s
prision eros</w>
priori dad</w>
pregun témonos</w>
pre fi
poder osa</w>
pod ré</w>
poc resía</w>
po pu
pla to</w>
pi m</w>
pi dámosle</w>
pi di
pes cadores</w>
permiti rá</w>
perman ente</w>
perfec tamente</w>
perdon ará</w>
pen az</w>
pe z</w>
pe ores</w>
pas en</w>
pas emos</w>
pan talla</w>
ore ja</w>
ora d</w>
opan inak</w>
ofen sas</w>
odi aban</w>
obli g
obje tos</w>
obedeci eron</w>
o ren</w>
o ponen</w>
o logía</w>
o la</w>
o chiˈj</w>
nífi co</w>
noji m</w>
no vios</w>
nim k</w>
ner vi
na ve</w>
n ón</w>
n er</w>
n ar
muchísi mas</w>
mucha chos</w>
mu k</w>
mu darse</w>
mo der
mo da
mez c
meti do</w>
mer e
me ter
maj tajik</w>
ma ten</w>
ma tan</w>
m ones</w>
lla n</w>
limi tado</w>
li mos
leg ales</w>
lawa chi
lab radores</w>
la no</w>
l go
l d</w>
kˈalaji sam</w>
kˈ ebal</w>
kʼul ja</w>
kʼoj ik</w>
kʼo wik</w>
kʼo loʼ</w>
kʼis bʼalil</w>
ku tzʼaqatisaj</w>
ku j
kqa to</w>
kqa qʼaxej</w>
koju qʼatej</w>
koj sipanik</w>
kki tzujuj</w>
kki tas</w>
kki bʼisoj</w>
kke yeʼj</w>
kin chʼobʼ</w>
ki xi
ki sikʼixik</w>
ki palaj</w>
ki koj</w>
ke tzaq</w>
ke qʼa
ke kʼastajisax</w>
ke bʼu
ke bʼantaj</w>
kat qaj</w>
kat chʼawik</w>
ka tra
ka tijo</w>
ka maltyoxij</w>
ka maj</w>
ka lkʼwaʼl</w>
ka kʼis</w>
ka kibʼan</w>
ka chajil</w>
ka b</w>
k u</w>
k toj
k takʼa
k ta</w>
k ni
k chomanik</w>
juz gados</w>
ju da
je q
ja cha
j onik</w>
ir ri
ir repren
invisi bles</w>
inter ru
insensa tos</w>
ini cu
incrédu los</w>
in volu
imi tarlo</w>
imi tamos</w>
im pidió</w>
ilu sión</w>
ili cia</w>
iki m</w>
igü e</w>
igu al
i mak</w>
i landia</w>
i kojonik</w>
i d</w>
hi pocresía</w>
habl aron</w>
hab rían</w>
h un
guar dado</w>
grani zo</w>
gr á
gal lo</w>
g antes</w>
g amo</w>
fu entes</w>
fra se</w>
fr an
fomen tar</w>
fi car</w>
f lor</w>
f en
f agu
fagu é</w>
expec ta
existi rá</w>
ex cu
etaʼ maxik</w>
eta mbal</w>
eta manic</w>
esta do
estado uni
est ó
escribi era</w>
esco ge</w>
es fuér
er no</w>
epi démi
entrevi ste</w>
entre gue</w>
eni cia</w>
encarcela do</w>
en tier
en frente</w>
emo ción</w>
em pren
elakˈ om</w>
ela qʼomabʼ</w>
ejemp lares</w>
egoí stas</w>
e vangeli
e v
e lección</w>
diver ti
dis posición</w>
dis per
di éramos</w>
di visiones</w>
destru yendo</w>
des pedi
des p
des gracia</w>
dem o</w>
deli to</w>
dej aba</w>
dedi can</w>
de volver
dar te</w>
da das</w>
d ándoles</w>
d res</w>
cˈas tajic</w>
cˈam ow</w>
cäqui cˈam</w>
cä wiˈ</w>
cä tokˈobi
cä nima
cä kil</w>
cä chˈojin</w>
cä bra
cäbra kan</w>
culp ables</w>
cul turas</w>
cuan tas</w>
cu tzucuj</w>
cu tatabej</w>
cu los</w>
crí ticos</w>
cru zar</w>
cos taba</w>
corri gió</w>
cor ta</w>
copi as</w>
convir tieron</w>
conqui sta</w>
confli ctos</w>
confli cto</w>
confi ado</w>
confi aban</w>
concent ración</w>
con spi
con mem
con io</w>
compren de</w>
compar arse</w>
comi ó</w>
comer ci
come ten</w>
co tic</w>
clar as</w>
cla ves</w>
cla mó</w>
cic le
ci zaña</w>
ci ente</w>
chä j</w>
chu taˈic</w>
chu chˈobic</w>
choman ampeʼ</w>
chi bʼij</w>
che qa
cha q</w>
cha jin
ch winakil</w>
cer rar</w>
cer es</w>
cele bró</w>
cel ular</w>
ce dió</w>
cambi an</w>
cam ina</w>
cam in
cal mar</w>
ca tin
bʼe yaʼ</w>
bʼ ini
bro te</w>
bri lla</w>
blasf e
bi ˈaj</w>
benefici arnos</w>
beb e</w>
b ná</w>
b ast
ayudar la</w>
aw as</w>
ata car</w>
asegur arse</w>
arrepi enten</w>
arci lla</w>
ar ma</w>
apren día</w>
apren dieron</w>
apoy amos</w>
apo calipsis</w>
apar tó</w>
angusti ados</w>
ana ʼtaj</w>
an daba</w>
ama ra</w>
am én</w>
am en</w>
alimen tó</w>
alimen tar</w>
ali ta</w>
ajyu qʼabʼ</w>
ajuwo caj</w>
aju s
ajcha jinel</w>
afron tan</w>
adver tencias</w>
activi dad</w>
aconte cido</w>
acer cará</w>
acep temos</w>
ac aban</w>
a yaʼom</w>
a v
a tro</w>
a tijonik</w>
a o</w>
a jawibʼal</w>
a C</w>
Ze landa</w>
Xu ban</w>
XA Q</w>
War wick</w>
Wa ch
W et</w>
Ví rgenes</w>
V eni
Uni ón</w>
UTZI LAL</w>
UN OS</w>
Tro as</w>
Ten go</w>
Ten d
Tar so</w>
TI MO
TIMO TEO</w>
TA ʼ</w>
T alita</w>
Su e</w>
Su dán</w>
Su d
So viética</w>
Se gu
Se bná</w>
Sam oa</w>
S usa</w>
S ri</w>
S acer
S TO</w>
Ri ca</w>
Re unión</w>
Re la
RE LA
RAZ ONES</w>
R ÍA</w>
QʼA TAL</w>
Qa jaw</w>
Qa chak</w>
Q ˈu
Q akʼaslemal</w>
Pu erto</w>
Pres ente</w>
Pas tor</w>
PU BLI
PUBLI CA
PAN Eʼ</w>
P ér
OM S</w>
Nor te
Nico demo</w>
Ne w
Ne pal</w>
Mat thew</w>
Mar tin</w>
Madi án</w>
MA L
M á
M EN
Lan ka</w>
Kʼa teʼ</w>
Kin ya</w>
K ong</w>
K O</w>
K AN
Joh n</w>
J in</w>
IMPORTAN TES</w>
I conio</w>
I TZ
Hab rá</w>
H ong</w>
H of
Gran ville</w>
G OS</w>
F í
F or
Eslo venia</w>
Es fuércese</w>
Elen a</w>
EST ER</w>
ESI OS</w>
ES DR
ESDR AS</w>
EF ESIOS</w>
E vi
Domin go</w>
Di ccionario</w>
Dem ostremos</w>
DE B
D atán</w>
D C</w>
Choj kikot</w>
Chi xux</w>
Cam paña</w>
Cab o</w>
CU ER
CRE ER</w>
CONGREG ACIÓN</w>
CON FI
CO R</w>
C ilicia</w>
C hab
Bri an</w>
Bet saida</w>
Bet fagué</w>
As penaz</w>
Am nón</w>
AN IK</w>
A ri
A prove
A d
A cer
A J</w>
6 39</w>
6 37</w>
5 71</w>
5 10</w>
49 8</w>
49 2</w>
48 2</w>
40 8</w>
40 3</w>
38 6</w>
29 9</w>
29 4</w>
29 0</w>
26 1</w>
2 Te</w>
2 55</w>
2 35</w>
2 32</w>
2 27</w>
19 85</w>
19 0</w>
18 5</w>
17 0
16 8</w>
15 6</w>
15 3</w>
10 ,
- send</w>
- 9</w>
úbli ca</w>
í bamos</w>
í ais</w>
Áng eles</w>
z ara</w>
z ador</w>
yu k</w>
yu j</w>
xuk eʼ</w>
xu toˈ</w>
xu tijo</w>
xu takej</w>
xu sachisaj</w>
xu qʼatej</w>
xu naˈ</w>
xu loqʼ</w>
xu kamsaj</w>
xu junamisaj</w>
xu jeˈ</w>
xqʼala jinik</w>
xqu etamaj</w>
xqa chaʼ</w>
xkˈalaji sax</w>
xki sikʼij</w>
xke bʼano</w>
xina lax</w>
xin ok</w>
xin kʼam</w>
xin kikot</w>
xin eˈ</w>
xi lik</w>
xeʼu mulij</w>
xeʼu loqʼoqʼej</w>
xeʼ in
xeu pixbaj</w>
xe tzeʼn</w>
xe taq</w>
xe canaj</w>
x yoˈw</w>
x tzak</w>
x toˈtaj</w>
x jach</w>
x em
x chʼa
x banic</w>
wäch bal</w>
wu lij</w>
waʼ ka
wach ij</w>
wa lkʼwal</w>
wa kib</w>
w ok</w>
w etaʼmam</w>
ví rgenes</w>
vol viera</w>
vo tos</w>
vo to</w>
visi tó</w>
vio lar</w>
viaj ó</w>
ver ás</w>
ven der</w>
ve la
ve is</w>
va te</w>
v in
utz a
uteren e
uni ó</w>
uni da</w>
unaʼta saxik</w>
un en</w>
un ció</w>
u wi
u juluwem</w>
u bʼe
u bi
tˈi kbal</w>
términ os</w>
tzʼa lam</w>
tzij onic</w>
tze ʼnik</w>
tzali x</w>
tza ˈm</w>
tz are</w>
tri un
tre n</w>
trabaj aba</w>
tra temos</w>
tor no</w>
toj tzij</w>
to memos</w>
ti ʼt</w>
terres tre</w>
terene ʼx</w>
tas tal</w>
tar te</w>
t ándose</w>
sóli da</w>
suf ramos</w>
subi eron</w>
su sten
sto r</w>
st ía</w>
sirvi éndole</w>
sir van</w>
sir vamos</w>
simbóli ca</w>
simb oli
senci lla
sencilla mente</w>
sembra dor</w>
seg undos</w>
sedu mbre</w>
se co</w>
se ca</w>
sanguí neas</w>
sali era</w>
sali da</w>
sal ían</w>
sach an</w>
sab erlo</w>
sab ed</w>
sa la</w>
s ía</w>
s emb
ru ido</w>
ro garon</w>
ri sam</w>
ri ones</w>
ri jobʼik</w>
reuni rnos</w>
reuni dos</w>
resuci te</w>
resuci ta</w>
restri cciones</w>
responder emos</w>
res pal
relacion a</w>
regres a</w>
refi ri
reb eli
re l</w>
re concili
ra t</w>
ra m
r or</w>
qʼax em</w>
quix cojon</w>
quisi eron</w>
quin tzelej</w>
qui taˈ</w>
qui tarnos</w>
queta mbal</w>
que ka
que dará</w>
que caˈy</w>
qu etas</w>
qaj inaq</w>
qa loqʼoqʼenik</w>
qa familiar</w>
qa congregación</w>
q arajil</w>
prote ja</w>
pro puso</w>
priori dades</w>
pri mo</w>
preocupa do</w>
preocupa ción</w>
precurso ras</w>
pod íamos</w>
pla ceres</w>
pira gua</w>
pier den</w>
pi edad</w>
perten ecen</w>
perten ec
per siguen</w>
per fu
per ec
pe cho</w>
pare cidos</w>
palo max</w>
pal m
pacífi co</w>
pa que
pa f
p ó</w>
ox ij</w>
ox cˈal</w>
or as</w>
op anic</w>
oki bʼal</w>
océ ano</w>
ocu pa</w>
obser v
ober ano</w>
obedecer lo</w>
o ían</w>
o ch
och enta</w>
no s
niqˈui ajal</w>
nega tivas</w>
ne gro</w>
nave gación</w>
n abe
mí n</w>
muchísi mos</w>
movi do</w>
mon e</w>
mo x</w>
mision al</w>
milla n</w>
mi ó</w>
mi ré</w>
mi el</w>
mesi ánico</w>
mensa jeros</w>
menos preci
medi temos</w>
mayi bʼalalaj</w>
manu scri
manten gan</w>
manif estado</w>
man sedumbre</w>
man cha</w>
ma ti
ma lig
logr é</w>
log ra</w>
lleg aría</w>
lla da</w>
lin do</w>
lib era</w>
li kal</w>
lej ana</w>
le y
ladri llos</w>
la ta</w>
la mos</w>
la ciones</w>
l era</w>
kˈino mab</w>
kˈiji laxic</w>
kˈa tom</w>
kʼut unik</w>
kʼaskʼa toq</w>
ku tijoj</w>
ku naʼtajisaj</w>
ku l
ku kol</w>
ku kamsaj</w>
kqa kʼexo</w>
kq anim</w>
koju tatabʼej</w>
ko mon</w>
kki rayij</w>
kki maltyoxij</w>
kki lij</w>
kix tzijon</w>
kin bʼisonik</w>
kin bʼek</w>
ki ʼa
ki petik</w>
ki kʼut</w>
ki kʼulmam</w>
ki chʼichʼ</w>
ki chomam</w>
keʼu kʼasuj</w>
keʼa wil</w>
keri q
ker ap
kerap anik</w>
keqa toʼo</w>
ke kʼaseʼ</w>
ke kaj</w>
ke chʼawik</w>
ke bʼixonik</w>
kat qebʼ</w>
k yaʼowik</w>
k tij</w>
k riq
k q</w>
k majix</w>
k chʼakan</w>
juz ga</w>
je qe
je ki</w>
ja chin
ja chic</w>
ja c
ixo qil</w>
iwa choch</w>
interes antes</w>
inten taron</w>
instala ciones</w>
ing res
inesper ado</w>
in fec
in cul
impac tante</w>
imag inar</w>
ib le</w>
i za</w>
hu yendo</w>
hu mo</w>
hon ra
histori al</w>
higi ene</w>
he chi
hallar á</w>
hablar á</w>
hab las</w>
gu ste</w>
ga lo</w>
g aría</w>
funcion ario</w>
funcion a</w>
fr ío</w>
fi co</w>
expul sados</w>
expres ó</w>
estó mago</w>
esp ina</w>
escar lata</w>
es can
ern as</w>
equivo cado</w>
enter aron</w>
enfren tarnos</w>
encu entre</w>
encarcela dos</w>
en caj
emocion ales</w>
el z
ed or</w>
e lo
dá di
du erme</w>
disfru tarán</w>
di remos</w>
di fundi
determina ción</w>
destin o</w>
desta có</w>
despier tos</w>
desobedeci eron</w>
desa ho
des pe
demostr ará</w>
deli tos</w>
dej aré</w>
dej arse</w>
d anos</w>
cˈäji saxic</w>
cˈu yal</w>
cˈam o</w>
cˈa tic</w>
célu la</w>
cäya ˈtaj</w>
cä tun
cä ketamaj</w>
cä chomaj</w>
cä ch</w>
cuˈ bisaj</w>
cuna taj</w>
cun inak</w>
cumpli ría</w>
cuj el</w>
cui daría</w>
cu jiquiba</w>
cu cˈäjisaj</w>
cre encia</w>
cor tina</w>
cor te</w>
cor re</w>
conven cer
cono céis</w>
confi esa</w>
confi aron</w>
conden ó</w>
conclu ir</w>
conce dido</w>
con junto</w>
con creto</w>
comuni carse</w>
come temos</w>
com parti
co que
co ordina
co c
cion ales</w>
chˈi jic</w>
chˈac anic</w>
chu bʼanik</w>
chqa kʼutuʼ</w>
choma xic</w>
chi cäch</w>
chi cos</w>
chi chajij</w>
chajin elab</w>
cha ta</w>
cha qʼ</w>
cha kʼamaʼ</w>
cen tra</w>
celo t</w>
car n
car agua</w>
can tando</w>
cambi aron</w>
cali ente</w>
cal cu
caden a</w>
cab ras</w>
ca sualidad</w>
ca le</w>
ca julew</w>
c t</w>
bre ves</w>
bo tom</w>
bi cicle
bauti zarme</w>
bas tante</w>
ba sadas</w>
b ó</w>
b un
b ru
añ adi
ayú delos</w>
audi os</w>
aten der
at óni
as na</w>
arrepinti ó</w>
arre piente</w>
arra stra
argu mentos</w>
ar inak</w>
apoy ando</w>
anunci aron</w>
anun cia</w>
anima mos</w>
an ojisaj</w>
an du
an dan</w>
ampli ar</w>
alu mb
ali ento</w>
ali ados</w>
al ertas</w>
al bor
ajyu kˈ</w>
ajma kalaj</w>
ajcha j
aj qʼij</w>
ago bi
adolesc encia</w>
actuali zar</w>
acti vo</w>
acep té</w>
acep tamos</w>
ab uelo</w>
a wiʼ</w>
a tivo</w>
a tar
a quim</w>
a pres
a kemb</w>
a fer
a familiar</w>
a chaji
Y H
YH W
YHW H</w>
XU BʼAN</w>
X oc</w>
X i
X chˈaw</w>
X a
Wach brech</w>
Vu el
Vo sotros</w>
Veni d</w>
U KʼU
UKʼU TIK</w>
Tri bun
Tra ct</w>
To davía</w>
T RA
Socie ty</w>
Ser ie</w>
San tas</w>
Sacer dote</w>
Sab emos</w>
SU R
SI TU
SE CCIÓN</w>
S oberano</w>
Rub én</w>
Rab í</w>
RIQ BʼAL</w>
RE INO</w>
R Á</w>
R NOS</w>
QʼA LAJ</w>
Qui enes</w>
Pad res</w>
P ública</w>
P ren
P E</w>
O b
Ni caragua</w>
N am
Mu y</w>
Mo lom</w>
Mac millan</w>
Ma x</w>
Lan celot</w>
LO QʼALAJ</w>
Kʼ IS
KU N</w>
K AJ
KAJ WA
Jo ˈ</w>
Je ʼ
Ja wiʼ</w>
J en
J ama
Ir landa</w>
I I</w>
Hero días</w>
Hac er</w>
Ha z</w>
H U
G Á
G lo
F lo
F er
F RE
Est án</w>
Ema ús</w>
E paf
Di señ
DA N</w>
Culti vemos</w>
Cui demos</w>
Ci ren
Chu j
Chqa chomajampeʼ</w>
Chat chʼaw</w>
Cha tzukuj</w>
Ch qui
Ch aloqʼoqʼej</w>
CH E
C ena</w>
C as
Bus quemos</w>
Be elz
BA UTI
Apo y
Anali cemos</w>
An ás</w>
Amé rica</w>
Abi ram</w>
A rabia</w>
A li
A cep
A DO</w>
9 ,
8 4
4 59</w>
4 30</w>
4 11</w>
30 6</w>
30 1</w>
3, 0
3 68</w>
3 44</w>
27 1</w>
20 4</w>
2 49
2 45</w>
2 38
19 99</w>
19 75</w>
19 67</w>
19 57</w>
19 50</w>
19 2</w>
18 7</w>
13 5
10 7
ʼ TAJ</w>
últi mas</w>
í nate</w>
ér date</w>
én ta
él gica</w>
é gr
égr ense</w>
Ín dice</w>
z e</w>
z cáis</w>
ya ʼl</w>
y c</w>
xu tzʼapij</w>
xu tewchiʼj</w>
xu sipaj</w>
xu kʼajisaj</w>
xu junamaj</w>
xqʼala jin</w>
xqui tij</w>
xqui kˈijilaj</w>
xqui jach</w>
xoju toʼ</w>
xo panik</w>
xo cˈow</w>
xki to</w>
xki patanij</w>
xki chap</w>
xinki toʼ</w>
xin wetaʼmaj</w>
xin may</w>
xin cˈoji</w>
xi xin
xi mi
xe ʼi
xe makunik</w>
xe kʼasiʼ</w>
xe chakun</w>
xe bʼanowik</w>
xa bʼano</w>
x xuqui</w>
x ro
x qʼat</w>
x kʼutu
x ja
x cämisax</w>
x chʼojin</w>
x chap</w>
wi ktal</w>
waʼka tem</w>
w9 7</w>
w9 6</w>
w16 07</w>
w w
vini endo</w>
vi ven
vi d</w>
veh ículo</w>
ve lo</w>
vas os</w>
vali ó</w>
va cidad</w>
utu ke
uti jonik</w>
ut ik</w>
un tos</w>
un g</w>
ul ón</w>
uju m</w>
u winaq</w>
u tem</w>
u taqik</w>
u s</w>
u qʼijol</w>
u mos</w>
tzʼapi bʼal</w>
tzʼa pal</w>
tzʼ iʼ</w>
tze ʼx</w>
tu j</w>
tro poli
tris tes</w>
transmi ti
transmi te</w>
transgres i
trabaja dor</w>
tra ten</w>
tra sla
tra ge
trage dia</w>
tor ce</w>
to ra</w>
ti oxij</w>
ti dos</w>
teocrá ticas</w>
ten tado</w>
tempo ral</w>
tempo rada</w>
te lej</w>
tas ik</w>
taqo mal</w>
tana bʼaʼ</w>
tam pe</w>
ta za</w>
ta kem</w>
ta dores</w>
t ojic</w>
t inaq</w>
supervi sa</w>
suger encia</w>
sufri eron</w>
suced ería</w>
sub título</w>
su scri
su bʼu
solter os</w>
so tras</w>
so lom</w>
so f
sigui era</w>
si vos</w>
si bles</w>
ser le</w>
sepulc ros</w>
senci lle
sencille z</w>
segui dor</w>
se l
satisfe cho</w>
san elabʼ</w>
sald rán</w>
sald rá</w>
sal ga</w>
sacrifi car</w>
sa cha</w>
s y
rue ga</w>
rodi llas</w>
ri lawachi
rilawachi xik</w>
respon derá</w>
renunci ar</w>
relacion ada</w>
ref res
rebel ó</w>
reali zado</w>
reaccion aron</w>
re yem</w>
re inos</w>
re f</w>
re cto</w>
re construir</w>
re confor
raz ao</w>
ran abʼ</w>
rachi kʼ</w>
ra stre
ra di
r y</w>
qˈuiä ka</w>
qʼo yo
qʼo xom</w>
qʼi saj</w>
qʼe ʼl</w>
quin to</w>
quin kˈat</w>
quin junamaj</w>
quin cowinic</w>
qui tarse</w>
qui se</w>
qui ej
quiej eninak</w>
qui chˈij</w>
que tzelej</w>
que patänin</w>
qu inaˈ</w>
qa wäch</w>
qa patan</w>
qa metas</w>
qa kuchuj</w>
pá is</w>
pul mones</w>
pti ble</w>
proh í
procu raban</w>
pro ver
pro cur
privi leg
privileg ios</w>
principa lmente</w>
primi cias</w>
pri vacidad</w>
pri siones</w>
pregun té</w>
preci pi
practi car</w>
practi can</w>
pos tura</w>
portu gu
portugu és</w>
pond rán</w>
pon i
pla za</w>
pidi éndole</w>
pi do</w>
ph en</w>
persu a
person aje</w>
permi tan</w>
perfec tas</w>
perfec cion
percibi r</w>
pedi rles</w>
pe lea</w>
pas é</w>
pare jas</w>
par ques</w>
pan tes</w>
pa dos</w>
pa decer</w>
p ta</w>
p ciones</w>
oí s</w>
or é</w>
olvi de</w>
olvi dado</w>
oki es</w>
ofrecer se</w>
ocur rir</w>
ocur ra</w>
obedeci do</w>
ob s
o bis
nu tijoxelabʼ</w>
nu bʼiʼ</w>
nor r</w>
noji saj</w>
no k</w>
neut ral</w>
ne y</w>
ne g
nazar eos</w>
nabe al</w>
mwb 16
multi pli
mu tu
mu do</w>
mostr ará</w>
mori rán</w>
mori mos</w>
milagr osa</w>
mil lón</w>
mi ʼy</w>
mi xok</w>
men t</w>
me baˈ</w>
mar tes</w>
manuscri tos</w>
man tuvieron</w>
mal tioxij</w>
mag is
magis tra
ma tea</w>
ma dure
madure z</w>
ma das</w>
m y</w>
m oni
lí n</w>
lé alo</w>
lv ania</w>
lo so
lo kˈ
llu vi
llev arse</w>
llev ara</w>
lleg ando</w>
lla dos</w>
lig encia</w>
liber ación</w>
li xik</w>
li x</w>
lgo ta</w>
lan dés</w>
kˈ aj</w>
kʼul ik</w>
kʼe xik</w>
kʼam bʼal</w>
kuna taj</w>
ku tzʼibʼaj</w>
ku qʼaxej</w>
ku machʼ</w>
ku loqʼ</w>
ku chʼuq</w>
koj tobʼanik</w>
kkʼa jisax</w>
kki machʼ</w>
kke tij</w>
kke bʼano</w>
ki wuj</w>
ki rayinik</w>
ki chʼi
keʼu mulij</w>
keʼu kamisaj</w>
ke te
ke taq</w>
ke tal</w>
ke lesax</w>
ke jeqiʼ</w>
ke bʼinik</w>
ke bʼ
kat qʼax</w>
kana ˈ</w>
kam saxik</w>
kaki riq</w>
ka sukʼumaj</w>
ka qʼalajisaj</w>
ka jawa
ka chʼobʼo</w>
k tzaq</w>
k sikʼix</w>
k qʼoyiʼ</w>
k patanin</w>
k naʼta
k kʼiyik</w>
k ko
k ari
julu wic</w>
jule ʼ</w>
jachin oq</w>
jabʼ uj</w>
ja k</w>
ja da</w>
ja chik</w>
introdu cir</w>
inten tar</w>
inteli gentes</w>
infor mes</w>
infor mar</w>
inf ancia</w>
inclu yó</w>
i wi
i jol</w>
i Tat</w>
hor ri
honra dez</w>
hon rado</w>
hon r
he av
heav y</w>
halla mos</w>
hal lan</w>
hablar a</w>
hab erlo</w>
h ref</w>
h ana</w>
h amb
gu ían</w>
gu emos</w>
gri taron</w>
gan da</w>
g no</w>
g es</w>
fund amento</w>
fun ciones</w>
fuer as</w>
fra ter
fo to
fi jado</w>
fi caciones</w>
fer vor</w>
fa ti
f echas</w>
expli carles</w>
exp lo
exis tido</w>
exi lio</w>
exhor tación</w>
exhor ta</w>
eta n</w>
esta rás</w>
espa l
espa cio</w>
esp inos</w>
escuch en</w>
escuch aron</w>
er éis</w>
er ais</w>
entend ían</w>
enten día</w>
ent rado</w>
ender ez
encar ga</w>
emb orra
eli ge</w>
egoí smo</w>
edifi cación</w>
e xili
dí gale</w>
dádi va</w>
dul ce</w>
du ración</w>
don esia</w>
do l
diver sas</w>
disfru ten</w>
disfru tando</w>
dis teis</w>
dis puesta</w>
dis pu
dis positivo</w>
dici al</w>
di versos</w>
di ag
descen día</w>
der se</w>
dej aremos</w>
dedi ca</w>
deci rlo</w>
deber ías</w>
de do</w>
da ños</w>
da der
d éis</w>
cˈas taji
cäre tzelaj</w>
cäqui jach</w>
cäqui chˈobo</w>
cäqu esaj</w>
cäka xej</w>
cä tzˈakat</w>
cä rilo</w>
cä kilo</w>
cä cˈastaj</w>
cä chakiˈj</w>
cä banic</w>
cump lan</w>
cujo c</w>
cuj quicot</w>
cui dó</w>
cuad ro</w>
cu án</w>
cu toˈ</w>
cu sto
cu siqˈuij</w>
cu bre</w>
cti va</w>
cruel dad</w>
cri ar</w>
cre éis</w>
cre áis</w>
cos tado</w>
conver tir</w>
contribu ciones</w>
consi gue</w>
conser var</w>
confí o</w>
confí e</w>
conexi ón</w>
conden ados</w>
con stante</w>
con s
comun ismo</w>
compr ó</w>
compr a</w>
compa tible</w>
comi tés</w>
comi eran</w>
com ían</w>
com pro
colabora n</w>
co raza</w>
co okies</w>
ci viles</w>
ci ar</w>
chʼobʼi saxik</w>
chʼajchʼobʼ ej</w>
chu tzucuxic</w>
chu chˈijic</w>
chila m</w>
cha tok</w>
cha pal</w>
ch uni
ch naˈtaj</w>
cer ía</w>
cen taje</w>
cen se</w>
caus as</w>
casti gó</w>
cariñ osa</w>
car é</w>
ca torce</w>
ca dá
bus caban</w>
bur lan</w>
bre n</w>
bo mbas</w>
blo que
blan cas</w>
bendi to</w>
be ba</w>
bauti ce</w>
ba tal
b inic</w>
ayun ar</w>
ayudar les</w>
avi ón</w>
avi so</w>
avan zada</w>
atra e</w>
atar decer</w>
asisti eron</w>
asi sten</w>
as mín</w>
arrepenti rse</w>
arra ig
ari saj</w>
are tokib</w>
ar cas</w>
aprovech ó</w>
aprovech ando</w>
apren dimos</w>
apoy ó</w>
anunci en</w>
anima ʼaj</w>
anima rlos</w>
ani llo</w>
alegr arnos</w>
al tas</w>
al cˈuala
ajaw inik</w>
aj kʼay
aj cˈa
ahor rar</w>
agradecer le</w>
agra de</w>
admi te</w>
adi v
acu mu
acer cándose</w>
acep taron</w>
acep tan</w>
ac lar
ab ulón</w>
a vari
a preci
a las</w>
a junabʼ</w>
Z abulón</w>
Y asmín</w>
X KI
X EL</w>
W EM</w>
Vi ernes</w>
Uste des</w>
USTE D</w>
U kojik</w>
U BʼANOM</w>
Tzʼibʼa talik</w>
Tz ujum</w>
Tribun al</w>
To da</w>
Ten ga</w>
TIJOX ELABʼ</w>
TAJ IN</w>
TA DA</w>
Sud américa</w>
Su mo</w>
Ste phen</w>
Solici tud</w>
Sof ía</w>
Signifi ca</w>
Si saq</w>
Servi cios</w>
SUR G
SER VI
SE GUI
S é</w>
Ru mania</w>
Ri co</w>
Re inado</w>
Re ina</w>
Re cibi
RELA TADA</w>
R etaʼmaxik</w>
Qʼax inaq</w>
QAS AN
QASAN JAʼ</w>
QA CHUQʼABʼ</w>
Pér gamo</w>
Pro fec
Po int</w>
Pien sa</w>
Per ú</w>
Par ís</w>
Par te</w>
Pan amá</w>
PUBLICA CIONES</w>
PA RA
P ap
Ni qˈui
New s</w>
NU ESTROS</w>
Mala sia</w>
ME TAS</w>
MA RIL</w>
Lí bano</w>
Le gales</w>
LI B
L una</w>
L am</w>
Kin bʼan</w>
Ka z
KQA YA</w>
KQA BʼIJ</w>
KKI YA</w>
K o</w>
K norr</w>
K ariq</w>
K OJ</w>
Jam es</w>
JUNA M</w>
JA MARIL</w>
JA CHI
JACHI N</w>
J ab
J IJ</w>
In donesia</w>
Imag ínate</w>
ITZ EL</w>
IN IK</w>
His toria</w>
Ha gamos</w>
H on
Gó lgota</w>
Gre te</w>
Geor gia</w>
G hana</w>
G AR</w>
Fu lano</w>
F re
Es temos</w>
Encontr ará</w>
E quipo</w>
E LI
Don aciones</w>
Diseñ o</w>
D ec
D ORES</w>
Cu razao</w>
Cu ba</w>
Choj chomanampeʼ</w>
Chi yaʼ</w>
Chi le</w>
Cha ya</w>
Cha xutuj</w>
Cha tzʼibʼaj</w>
Ch in
Ch arles</w>
Ce dar</w>
Car ol</w>
Car ol
Car ac
CHʼ O
CHA WE</w>
C raj</w>
C AR
Ber lín</w>
B élgica</w>
As untos</w>
Ari matea</w>
Ar ca</w>
Alg una</w>
Alf eo</w>
Acer quémonos</w>
Ab ner</w>
AM A</w>
A la</w>
A gra
A PACI
A LEG
9 0
7 6
6 03</w>
48 6</w>
4 23</w>
3, 8
3 22</w>
28 6</w>
26 3</w>
26 2</w>
20 3</w>
2 51</w>
2 44</w>
2 28</w>
2 23</w>
2 19</w>
19 95</w>
19 88</w>
19 6</w>
19 68</w>
1, 4
ʼa bʼ</w>
ú r
ínti mos</w>
í na</w>
í for
ífor o</w>
ér qu
é c
ándo la</w>
yaʼo l</w>
ya quic</w>
y áis</w>
y oj
xwali jic</w>
xuj cˈoji</w>
xu yak</w>
xu tas</w>
xu rayij</w>
xu qui
xuqui ˈc</w>
xu chʼabʼej</w>
xqa koj</w>
xki xeʼj</w>
xki tij</w>
xki raq</w>
xke koj</w>
xin tzˈibaj</w>
xin opan</w>
xin chaʼ</w>
xi qui
xiqui n</w>
xeʼu sikʼij</w>
xeʼu chajij</w>
xeʼo panik</w>
xeke bʼax</w>
xeke b</w>
xe ya</w>
xe tzaq</w>
xe qa
xe kʼiy</w>
xe bʼin</w>
xa laxik</w>
xa jäb</w>
xa jabʼ</w>
x keriq</w>
x eni
x cowinic</w>
wu x</w>
we h</w>
vícti ma</w>
véan se</w>
volver ía</w>
vol vía</w>
viven cias</w>
visi ble</w>
vesti dura</w>
ver az</w>
vend ían</w>
vend ría</w>
ven dieron</w>
ve inti
val oran</w>
v ine</w>
v es
uwo kik</w>
utoqʼobʼi saxik</w>
ur gencia</w>
upatan inel</w>
ul inak</w>
uchʼaj chʼobʼisaxik</w>
u takʼa
u mulixik</w>
u kʼulaxik</w>
u che
uche ʼal</w>
tzˈap ij</w>
tzʼibʼa xik</w>
tzʼi bʼanik</w>
tra taban</w>
tra en</w>
tra diciones</w>
toqʼobʼi sabʼal</w>
tojo labal</w>
to qij</w>
to mé</w>
to cando</w>
tin ta</w>
ti on</w>
ti dades</w>
tewchi bʼäl</w>
terne ʼj</w>
termin aron</w>
teri as</w>
ter son</w>
tem áis</w>
tem i
tan nica</w>
taji saxik</w>
ta sa</w>
ta os</w>
ta mientos</w>
ta li
t áis</w>
sur jan</w>
sur ge</w>
super fici
suje tos</w>
sue gra</w>
su premo</w>
su ministros</w>
su jeta
su bic</w>
sorpren dente</w>
solucion ar</w>
sir va</w>
siqˈu ix</w>
si pan
si on</w>
senci llas</w>
sen tarse</w>
sen das</w>
se páis</w>
santifi cado</w>
salu do</w>
s ik</w>
s emi
romp er</w>
rin dió</w>
ri ʼj</w>
restaura da</w>
resplan dor</w>
religi osa</w>
recuer den</w>
re r</w>
re parti
re construcción</w>
re conocieron</w>
ra wanimaˈ</w>
qʼa tisaj</w>
quiä k</w>
quix cˈoji</w>
quin xej</w>
quin wesaj</w>
quin tzucuj</w>
quin quicot</w>
quico jo</w>
qui xej</w>
qui tas</w>
que wiˈc</w>
que mar</w>
que bisonic</w>
qu é
qa yaʼom</w>
qa patanij</w>
qa choqʼabʼ</w>
q etaʼmaj</w>
q esaj</w>
próxi mo</w>
prover bio</w>
proteger se</w>
prometi da</w>
pro vin
pro mueve</w>
preocupar se</w>
preocu pan</w>
pregun to</w>
pregun temos</w>
pregun taban</w>
predi cho</w>
pos tró</w>
po n</w>
plen o</w>
perten ecer</w>
permi tía</w>
per sigue</w>
per seguir</w>
per diendo</w>
peligr oso</w>
pec a</w>
pe tir</w>
pas arán</w>
particip amos</w>
pari ente</w>
pare des</w>
palo ma</w>
pag aré</w>
pa tanim</w>
p anim</w>
os tra
orto do
orig ina
orgullo sa</w>
organiz ó</w>
organi za</w>
organi smos</w>
orden ado</w>
or ob
orob abel</w>
opan aq</w>
ofi cina</w>
ocurri do</w>
obli gó</w>
obli ga</w>
ob reros</w>
nu qʼabʼ</w>
nu mik</w>
nu cuerpo</w>
niñi tos</w>
nima n
ne ʼabʼ</w>
na kˈa
n í</w>
n abej</w>
muéstre le</w>
mu ro</w>
mu dé</w>
mos taza</w>
mol esta</w>
mo dernos</w>
minis tras</w>
mi so</w>
mi re</w>
mi dad</w>
mez cla
mer cado</w>
mem ente</w>
me ten</w>
me los</w>
mata m</w>
mani fi
ma teri
ma tarle</w>
ma tajik</w>
ma rá</w>
m ora</w>
logr aremos</w>
lo gros</w>
lo go</w>
llen e</w>
llama das</w>
lla nura</w>
lla me</w>
liter almente</w>
lib ra</w>
lan zó</w>
la zos</w>
la das</w>
l unes</w>
l ing
kˈo mab</w>
kʼule laj</w>
kʼo m</w>
kʼo lom</w>
kʼi ʼaj</w>
ku xutuj</w>
ku toʼo</w>
ku to</w>
ku qʼ
ku kʼol</w>
ku kʼayij</w>
ktakʼa bʼan</w>
kri lij</w>
kqe bʼ</w>
kqa terenej</w>
kqa loqʼ</w>
kqa kikotemaj</w>
kolo tajik</w>
koj ril</w>
koj nimanik</w>
koj naw</w>
koj junamataj</w>
ko mal</w>
knima nik</w>
kki yaʼo</w>
kki tzeʼj</w>
kke koj</w>
kin wesaj</w>
kin maj</w>
kin bʼison</w>
kiko lik</w>
ki xu
ki ri
ki kʼiyisaxik</w>
ki kamisaxik</w>
ki familiares</w>
ki bʼaqil</w>
keʼu chaʼ</w>
keqa sikʼij</w>
ke qʼijilan</w>
ke maltyoxinik</w>
ke maltyoxin</w>
ke kʼulmataj</w>
ke kʼamow</w>
ke jabʼ</w>
katra j</w>
katki toʼo</w>
kat niman</w>
ka ti
ka laxik</w>
ka jin</w>
ka chilaxik</w>
k walij</w>
k tzalix</w>
k tz
k ta
k loqʼoqʼex</w>
k kʼuleʼ</w>
k kʼaq</w>
k kuy</w>
k chʼobʼ
ju gar</w>
jos qʼij</w>
ja laj</w>
invi erno</w>
inun daciones</w>
interes an</w>
inten te</w>
inten tan</w>
inteli gente</w>
inscri pción</w>
ini qui
ingres os</w>
inferi or</w>
inesper ada</w>
indígen as</w>
inc l
in äq</w>
in mor
in d
in compar
imagin amos</w>
igual dad</w>
igu ales</w>
ib ia</w>
i dó
hu esos</w>
hu bier
hon do</w>
hi elo</w>
here dar</w>
haci éndolo</w>
habl é</w>
h ú
guer rero</w>
gu eme</w>
gol pes</w>
gener aciones</w>
g or</w>
g lor
g ali
fundamen tal</w>
fru ta</w>
frag mentos</w>
fin anci
favo ri
fal samente</w>
fal la</w>
ez co</w>
expecta tivas</w>
exi ge</w>
exa ger
eter nas</w>
estudi an</w>
estudi ado</w>
espiritu alidad</w>
escuch aban</w>
escu do</w>
es íforo</w>
es pero</w>
er al</w>
equivo cadas</w>
epidem ias</w>
entrevi stas</w>
entreg arle</w>
entr éis</w>
ent raba</w>
enseñ ará</w>
en la
en dem
endem oni
en da</w>
en ca
empez amos</w>
ela qʼa
ela kˈomab</w>
el inaq</w>
ej os</w>
efec tos</w>
e vento</w>
e unu
e los</w>
e kaˈn</w>
du er
don ación</w>
divor cio</w>
divi dió</w>
div inas</w>
discip lin
diri gió</w>
diji mos</w>
di vul
di ligencia</w>
di eci
destru ya</w>
descu bre</w>
describi ó</w>
descri ben</w>
desafí o</w>
des t
des pi
des obedecer</w>
des esper
des cuidar</w>
des aparec
de ta
de presión</w>
de dos</w>
da la</w>
cˈo wi
cˈay ibal</w>
cˈas tajinak</w>
cˈ ol
cätokˈobi san</w>
cäqui cämisaj</w>
cäka coj</w>
cä quinimaj</w>
cá mara</w>
cuj cojon</w>
cui dara</w>
cuer dos</w>
cu chi
cru zados</w>
cor to</w>
cor tado</w>
cor regi
cor rección</w>
coordina dor</w>
conver tido</w>
contribu ye</w>
continú e</w>
contin úa</w>
cont emp
constan tes</w>
constan cia</w>
consi guen</w>
conoci das</w>
conocer án</w>
confir mó</w>
concentr arse</w>
compro miso</w>
come ter
com prueb
co pas</w>
circui tos</w>
chˈäka tak</w>
chˈoj inic</w>
chʼ onik</w>
chu siqˈuixic</w>
chu palaj</w>
choma naq</w>
chi ʼo
chi xquicot</w>
chi waj</w>
chi sikʼij</w>
che ʼ
che qilaʼ</w>
cha tzijoj</w>
ch taj</w>
cer ró</w>
cer rado</w>
cent ramos</w>
caus ó</w>
cas an</w>
car o</w>
car b
capaci dades</w>
cap tu
candi datos</w>
can tidades</w>
can tan</w>
ca waj</w>
ca tu
ca se</w>
ca sada</w>
ca lami
ca kan</w>
c terias</w>
c ro
c encia</w>
blan ca</w>
bib lia</w>
bast ón</w>
bar a
baj aron</w>
ba sados</w>
ba m</w>
b onitas</w>
b ella</w>
atra ves
arro z</w>
arro di
arrepenti dos</w>
ar éis</w>
ar du
apro bado</w>
apren derá</w>
apar tar</w>
ani me</w>
anh ela
an oʼj</w>
ami ga</w>
amena zas</w>
amen az
amb as</w>
am entos</w>
ali gno</w>
alab om</w>
ajno ʼjabʼ</w>
aj qʼatbʼaltzij</w>
agrade zco</w>
agra decen</w>
afli cción</w>
afec to</w>
ado re</w>
ad úl
acu só</w>
acti va</w>
abri eron</w>
abandon ó</w>
abandon ará</w>
a poder
a cuerpo</w>
Z orobabel</w>
Z O</w>
Yah weh</w>
Xeb eˈ</w>
W IK</w>
Vol un
Vo y</w>
Ver sion</w>
Uni ver
U YA
Tam poco</w>
TIV OS</w>
T om</w>
Sil ó</w>
SU CHE</w>
SAB ES</w>
S em</w>
S OS</w>
Qʼa tojtzij</w>
Qui ché</w>
Qu í
Qa tat</w>
QA KOJONIK</w>
Q E
Pro gra
Pregún tele</w>
Pon cio</w>
Pat terson</w>
PE L
PEL ÍCU
PACI ENCIA</w>
P í
P ri
P S</w>
On esíforo</w>
ONI O</w>
O Q</w>
Niqˈui aj</w>
Nam ibia</w>
Na da</w>
NA ʼTAJ</w>
N u</w>
N ame</w>
N aj</w>
Men or</w>
Mantén ganse</w>
Ma kʼistaj</w>
M aligno</w>
M IK</w>
Lo ida</w>
LAN IK</w>
LA N</w>
KʼUL MA
KʼO JI
KʼOJI ʼ</w>
Ka bʼan</w>
KAJWA TAJ</w>
K ONOJEL</w>
Jun abʼ</w>
Jo ʼ</w>
Jo safat</w>
Jo e</w>
Je tró</w>
JA TE</w>
In tro
IJ OJ</w>
Ho mbres</w>
Hab ía</w>
Hab lar</w>
H I
Ga yo</w>
G er
FÍ JATE</w>
F o
Eli aquim</w>
EST OS</w>
Di ana</w>
Deb erían</w>
D os</w>
D U
Cä pe</w>
Cä caˈn</w>
Cui dado</w>
Ciren e</w>
Chu pam</w>
Chqa xutuj</w>
Chi wilampeʼ</w>
Chi bʼanaʼ</w>
Cheqa toʼ</w>
Che i
Chat walijok</w>
Cha tzˈibaj</w>
Cha majij</w>
Centro américa</w>
Carac as</w>
CI E
CHʼA WEM</w>
CHATZ IJOJ</w>
C ru
C EN
Bʼ E
BÍBLI CO</w>
Bri tannica</w>
Bienaventu rado</w>
BU EN
BAUTI SMO</w>
B ru
Aus tria</w>
Apren da</w>
Ala bʼom</w>
A cab
A LAJ</w>
9 3
9 ,000</w>
8 5
8 000</w>
7 4
5, 5
5 37</w>
39 6</w>
39 5</w>
39 2</w>
30 5</w>
3, 3
3 48</w>
3 25</w>
28 3</w>
26 0</w>
20 6
2 48</w>
2 42</w>
2 24</w>
2 23
2 18
19 70</w>
19 31</w>
19 1</w>
18 70</w>
14 ,
1 1000</w>
0 8
0 ,000</w>
0 ,
ˈ nic</w>
ˈ jal</w>
úni cas</w>
ó polis</w>
ï k</w>
ér co
érco les</w>
é stor</w>
é ral
éral din
éraldin e</w>
ár sela</w>
Ú BLI
Á S</w>
z ania</w>
yo qʼo</w>
yo kˈ</w>
y os</w>
y n
yn dale</w>
y ana</w>
xu tzaq</w>
xu taqchiʼj</w>
xu nim</w>
xu mol</w>
xquib ochiˈj</w>
xqa jach</w>
xoju x</w>
xoj o
xki taq</w>
xka ˈno</w>
xin kʼulmaj</w>
xin jach</w>
xin chʼobʼ</w>
xi kil</w>
xeʼu tzuq</w>
xeʼ esax</w>
xer aˈ</w>
xeki kʼam</w>
xe ˈ
xe teri</w>
xe quicotic</w>
xe kʼejeʼ</w>
xe kikot</w>
xe kamisax</w>
xe cämic</w>
xe cäm</w>
x makun</w>
x kʼastaj</w>
x kʼasiʼ</w>
x kuy</w>
x ho
xho sa</w>
x cˈastaji
wp16 3</w>
wp 173</w>
wo kk</w>
wila mpe</w>
we yebʼal</w>
we ta</w>
w220 3</w>
w19 06</w>
w19 02</w>
w17 11</w>
w17 07</w>
w16 05</w>
w16 02</w>
w 86</w>
volver é</w>
voluntari amente</w>
vol vi
vol vamos</w>
vivi eran</w>
visi tan</w>
vini era</w>
vigi lando</w>
vi ste</w>
vi sa</w>
vi ente</w>
ver la</w>
ven go</w>
ven g
ven en
ve dad</w>
vac as</w>
v án</w>
v ina</w>
uto ʼom</w>
uterene ʼxik</w>
us er
us as</w>
us arlo</w>
ungi ó</w>
ul g
ulg aria</w>
ukʼis tajik</w>
uko lik</w>
ue cia</w>
uchi ja</w>
u yoʼm</w>
u taqom</w>
u saqil</w>
u rilik</w>
u machʼachʼem</w>
u la
u kʼulanem</w>
u kojonem</w>
u cheʼ</w>
tzˈu maj</w>
tz ʼo
tz elax</w>
tuqa r</w>
tu vi
tu ania</w>
tru enos</w>
triun f
tri ko</w>
trai gan</w>
trai ción</w>
traduc tor</w>
tradu cen</w>
trabaj aron</w>
tra sto
tra je</w>
tra dición</w>
to ques</w>
to bʼik</w>
tier na</w>
ti sta</w>
the ós</w>
teor ía</w>
tecno logía</w>
tasa la</w>
tan as</w>
tako winak</w>
table ta</w>
ta se</w>
ta ma
ta ba
taba co</w>
t han</w>
sy lvania</w>
suje to</w>
suc es
su ra</w>
su minis
su lami
sulami ta</w>
su fr
su cˈu
solter o</w>
sob res
so le
so las</w>
sirvi ente</w>
sir vo</w>
sipa xic</w>
simp li
signifi car</w>
sie ga</w>
si me</w>
si fi
sexu almente</w>
sex to</w>
servi rá</w>
ser ia</w>
senti rán</w>
sembra r</w>
sel va</w>
se quías</w>
san as</w>
san ar</w>
sali mos</w>
sal ario</w>
sacrifi cado</w>
sach bal</w>
s ran
s chel</w>
ro llos</w>
ro dea</w>
ris mal</w>
rin da</w>
ri qui
riqui llo</w>
ri p</w>
reuni r</w>
reuni do</w>
retz ela
resul tó</w>
respon día</w>
resca tará</w>
represen tar</w>
remo tas</w>
regis tro</w>
recuper ó</w>
recor daba</w>
reco ger</w>
reci entes</w>
reci ente</w>
rebeli ón</w>
re í
re to</w>
re pro
re medio</w>
re den
raj chʼoj</w>
r ón</w>
r bi
r ara</w>
r ando</w>
qʼi jabʼ</w>
qʼalaji sanik</w>
quixqui cot</w>
quix tzak</w>
quin quicotic</w>
quin jach</w>
qui xel</w>
qui mulij</w>
quetz ales</w>
quer ida</w>
quequi jach</w>
que za</w>
que mada</w>
que cäm</w>
que banow</w>
qu eni
qu el
qa bʼij</w>
públi camente</w>
publi car</w>
pu ros</w>
provin cia</w>
propósi tos</w>
promo ver</w>
proce dimientos</w>
pro ced
presen tará</w>
pren da</w>
pregun ten</w>
pregun tado</w>
predi cador</w>
preci samente</w>
pre juicio</w>
pre dice</w>
practi ca</w>
posi bili
pon go</w>
pod rías</w>
po tente</w>
pla quetas</w>
pi tales</w>
pi so</w>
pi so
pes ada</w>
perió dico</w>
peri encias</w>
perfu me</w>
per la</w>
per e
per damos</w>
pe ciales</w>
pañ as</w>
patan exik</w>
particip ando</w>
par to</w>
par ar</w>
pan di
pa ga</w>
pa ción</w>
organiz ados</w>
orden aron</w>
oni do</w>
ol or</w>
ofrecer le</w>
ofre cían</w>
ofre cía</w>
of ré
odi an</w>
odi aba</w>
oblig aciones</w>
obli gado</w>
obedecer le</w>
obe decía</w>
o presión</w>
o dres</w>
nu tobʼanik</w>
nu preguntas</w>
nu miʼal</w>
nu jolom</w>
nima m</w>
nie gan</w>
nie ga</w>
ner vios</w>
n sylvania</w>
n amente</w>
muer ta</w>
mostr aré</w>
mol ino</w>
mo lé
molé cu
misericordi osos</w>
mi ya</w>
mi de</w>
mere cida</w>
mebʼa yibʼ</w>
me tropoli
mar in
manu al</w>
man tén
ma tu
ma tri
ma tal</w>
m oj
m ni
lo loj</w>
lo l</w>
lo gran</w>
lo b</w>
limos na</w>
liber ó</w>
lib ró</w>
la wux</w>
l onel</w>
l da
lda via</w>
kˈiji lanic</w>
kˈab aric</w>
kˈa poj</w>
kʼule ʼik</w>
kʼama naq</w>
kʼa l</w>
kqʼala jisax</w>
kqʼa tow</w>
kqa tzujuj</w>
kqa taq</w>
kqa machʼ</w>
koju to</w>
koj resaj</w>
koj kʼaskʼatik</w>
koj kemchak</w>
koj bʼin</w>
koj bʼek</w>
kki to</w>
kki sach</w>
kki qʼatej</w>
kix kun</w>
kina qaj</w>
kin toʼ</w>
kin taq</w>
kin kʼutu</w>
kin chʼobʼo</w>
kin chʼij</w>
kicha pik</w>
ki stán</w>
ki respuestas</w>
ki pwaq</w>
ki mulim</w>
ki los</w>
keʼu walajisaj</w>
keʼu tewchiʼj</w>
keʼu kol</w>
keʼin toʼ</w>
keʼi lik</w>
ke yaʼow</w>
ke tzʼa
ke tijox</w>
ke qʼabʼarik</w>
ke loqʼoqʼen</w>
ke chʼojinik</w>
kat waj</w>
kat toʼw</w>
kaqa bʼan</w>
kam ïk</w>
ka xutuj</w>
ka lic</w>
ka l
ka chʼ</w>
k tu
k es
juyu bal</w>
juda ísmo</w>
ju wiˈ</w>
ju go</w>
ji komal</w>
jeq el</w>
ja luj</w>
j ï
j tal</w>
j era</w>
ixo qi
is tán</w>
interru mpi
inten samente</w>
insi stencia</w>
inquie tudes</w>
ino k</w>
ini maj</w>
ini am</w>
ing er</w>
inf ini
indi que</w>
inclu idos</w>
incircunci sión</w>
ina je</w>
in útil</w>
in utoʼm</w>
in mortal</w>
in merecida</w>
in m
impu reza</w>
imi t
im pí
im pedi
im pacto</w>
idó la
i xikil</w>
i sikʼim</w>
i remos</w>
i chaj</w>
homb ro</w>
ho landés</w>
histó rico</w>
him nos</w>
hici ste</w>
hal l</w>
h o</w>
gui dó</w>
gri tan</w>
gor riones</w>
go lia</w>
gen io</w>
gas taron</w>
gas car</w>
gar et</w>
gar an
garan tía</w>
g entina</w>
fun dación</w>
fu éramos</w>
fir memente</w>
fi loso
fas cin
f rey</w>
f am
extra ña</w>
extra vi
expres a</w>
ex al
evi tamos</w>
etz inger</w>
eter namente</w>
etaʼma bʼäl</w>
estudi aba</w>
estadouni den
estadouniden ses</w>
est éis</w>
espal da</w>
escri tura</w>
escla va</w>
escen ifi
escan da
escanda li
er amente</w>
equivo cada</w>
enví e</w>
entreg aron</w>
entreg a</w>
entien dan</w>
enten dieron</w>
enseñ amos</w>
enla ces</w>
en em
enem is
em án</w>
em presas</w>
elegi dos</w>
ele bʼal</w>
ela kˈ</w>
el les</w>
ech bal</w>
ech ando</w>
e y
e v</w>
e t
e f
du ka</w>
don ativos</w>
dolor osa</w>
docu mento</w>
do li
distribu ir</w>
disfru taremos</w>
di á
di gas</w>
di gamos</w>
di ccionario</w>
destru ye</w>
desp oj
desobedeci ó</w>
desanima rnos</w>
desani memos</w>
desani me</w>
deri ck</w>
demostra ba</w>
dedi carle</w>
declar ado</w>
deci d</w>
decepcion ado</w>
de tiene</w>
dader amente</w>
da torios</w>
da gascar</w>
d s</w>
d lo</w>
cˈol inak</w>
cäka takej</w>
cä retamaj</w>
cä qˈuiäk</w>
cä cˈutu
cä chˈob
cä chacun</w>
cä bantajic</w>
cun anic</w>
culti vando</w>
cuar tos</w>
cu walijisaj</w>
cu sipaj</w>
cu ello</w>
cu cojo</w>
cu chaplej</w>
cri atura</w>
cre tas</w>
cr on
corru ptible</w>
corre ctos</w>
convier tan</w>
conta mina</w>
cont este</w>
constru yeron</w>
consider ó</w>
conquis tar</w>
confi den
con tarle</w>
con siguió</w>
comuni ón</w>
compren sión</w>
compla cer</w>
cometi eron</w>
col gado</w>
co kˈ</w>
científi co</w>
ci tó</w>
ci ru
ci osos</w>
chˈa yo</w>
chʼo bʼisaj</w>
chʼi jaʼ</w>
chʼa yanik</w>
chuchu ʼ</w>
chu xukut</w>
chu tatabej</w>
cho wik</w>
cho w</w>
chix niman</w>
chi wach</w>
cheʼa sikʼij</w>
chaku b</w>
chaji tal</w>
cha kach</w>
cha b</w>
cer teza</w>
cer em
celo so</w>
celebra ban</w>
cela r</w>
ce les</w>
casti gar</w>
cande la</w>
canan eos</w>
can sados</w>
cam pañas</w>
cab ellos</w>
ca ña</w>
ca y
ca d</w>
c ábamos</w>
c k
bus cáis</w>
bur laban</w>
bri llan
bra zo</w>
bor riquillo</w>
bo ya</w>
bib lista</w>
bib lias</w>
bi do</w>
beb és</w>
beb en</w>
bauti zan</w>
ban aˈ</w>
ba cterias</w>
b y</w>
b es
b ania</w>
autén tica</w>
auto estima</w>
asomb rados</w>
asisti endo</w>
asi stencia</w>
as no</w>
arres taron</w>
arreg larnos</w>
are pta</w>
ar o
ar ero</w>
ar bus
apar tado</w>
apa wijeˈ</w>
anunci ando</w>
ante lación</w>
anima doras</w>
ani paˈ</w>
ani kʼaj</w>
anali zando</w>
anali zan</w>
ana ʼ</w>
an om</w>
an na</w>
ami gas</w>
ami g
ali vi
alf abe
alfabe to</w>
alab ó</w>
al men
al deas</w>
[...]
