#version: 0.2
r e
c h
i k</w>
o s</w>
n a
r u
t a
ʼ a
e h</w>
i n
m a
ch i</w>
e n
r i
e s
e r
d e</w>
q u
p a
k i
t i
a c
a j</w>
l i
re ʼ</w>
e l</w>
l a
o r
qu e</w>
w i
e s</w>
a n
k ʼ
l a</w>
q ʼ
h a
q eh</w>
b ʼa
re h</w>
e n</w>
o n
c i
ta qeh</w>
t a</w>
o r</w>
r a
k ʼa
h o
ac h</w>
ch a
w ach</w>
n e</w>
q a
m i
t o</w>
d o</w>
s i
b ʼ</w>
k a
J e
kʼ u
u n
t o
a l</w>
ho v
Je hov
Jehov á</w>
t e</w>
ri ik</w>
a l
d i
a s</w>
l o</w>
b ʼ
d e
i os</w>
i ru
i j</w>
j e
a r
pa n</w>
c o
e e
ma n
l os</w>
r a</w>
ma ʼ</w>
u u
D ios</w>
c u
o q</w>
ó n</w>
r e</w>
k o
j a
s o
l ik</w>
a n</w>
ru u
v i
m o</w>
l o
s e
ri ij</w>
o ʼ</w>
k ʼ</w>
s e</w>
in ki
s u
qʼ or</w>
d a
C ha
m p
r o
R e
na q</w>
qʼ or
u n</w>
bʼa n</w>
c on
t e
s a
g u
l e
m os</w>
es t
d a</w>
p er
n i
la s</w>
c a
kʼa cha
uu j</w>
li a</w>
n u
o j
an to</w>
li h</w>
wi lih</w>
ch u
n o</w>
p u
e r</w>
g o</w>
a r</w>
o o
t u
p o
H uuj</w>
S anto</w>
Re ʼ</w>
L aj</w>
bʼa l</w>
x u
pa ra</w>
na j</w>
m b
ch ik</w>
w oʼ</w>
n oq</w>
á s</w>
i na
i bʼ</w>
ruu kʼ</w>
wi lik</w>
l e</w>
i l</w>
i b
í a</w>
in qa
m o
h ta
ac i
kʼu x</w>
en te</w>
m u
ja riik</w>
B ib
je naj</w>
co n</w>
Bib lia</w>
p or</w>
p re
x a</w>
2 0
J es
ta q</w>
a j
ee j</w>
t ra
a w
t en
ch i
x ki
ú s</w>
Jes ús</w>
un a</w>
es ti
m ás</w>
p e
r o</w>
u s
t z
in ik</w>
on es</w>
y u
s u</w>
ci ón</w>
re el</w>
da d</w>
iru qʼor</w>
k or
a mi
kʼacha reel</w>
a m</w>
h i
n os</w>
d el</w>
d os</w>
q ʼa
a ʼ</w>
ʼ i
p ro
n a</w>
wi l</w>
f i
v er
ra aj</w>
qu é</w>
oj bʼal</w>
ʼ ojbʼal</w>
o m</w>
je ʼ</w>
na ʼojbʼal</w>
ó mo</w>
en t
m a</w>
l es</w>
ha b
h ik</w>
c a</w>
kʼ wach</w>
b re</w>
h er
re s</w>
an do</w>
ee w</w>
m e
Q u
gu i
na s</w>
b i
i ik</w>
ruu m</w>
aci ón</w>
bʼa na
qʼor ik</w>
qu i
pu e
m i</w>
j en
y eew</w>
lo hik</w>
her man
kʼ i
a bʼ</w>
ho lohik</w>
ch o</w>
so bre</w>
k eh</w>
w a
Cha jariik</w>
r os</w>
bʼ i
e t</w>
h ac
g os</w>
ko j</w>
jen oʼ</w>
i mp
ru ka
v e
a yu
j ik</w>
kor ik</w>
L a</w>
Qu é</w>
r ik</w>
ʼ n
t esti
la ʼ</w>
kʼu hta
x i
m e</w>
c e</w>
bʼ eej</w>
an i
ta s</w>
s aj</w>
n o
oo j</w>
j u
l u
p i
y e
ch el</w>
d es
o n</w>
ka pa
y a</w>
m en
a b
D E
j iik</w>
o t
kʼacha riik</w>
S al
kapa aj</w>
í as</w>
nu est
re et</w>
na a
k o</w>
cha wil</w>
qʼ i
ʼn chel</w>
s o</w>
kʼuhta aj</w>
s i</w>
x a
h bʼa
bʼ e
@ -
@- @</w>
er a</w>
f e
b u
ma n</w>
f u
á n</w>
e mp
chu ʼnchel</w>
kʼa x
o b
i ibʼ</w>
chi ʼ</w>
pa am</w>
i raaj</w>
to o
n e
su s</w>
bʼana m</w>
s t
1 1</w>
na mi
d o
h chiʼ</w>
d u
a kʼa
t er
e l
ti nami
M a
C ómo</w>
co mo</w>
ha ʼ</w>
1 0</w>
y o
kʼa hchiʼ</w>
20 2
d es</w>
ma j</w>
c ri
s a</w>
V I
R E
te o</w>
c o</w>
akʼa l</w>
ta n
ha t</w>
ruka bʼ</w>
k u
ru man</w>
1 5</w>
in o</w>
mb i
on ik</w>
t os</w>
é n</w>
g i
mb re</w>
z a</w>
ni kʼwach</w>
wi h
e el</w>
de ci
es i
man ik</w>
iru bʼan</w>
f or
1 7</w>
us te
tz ʼi
h a</w>
ar ik</w>
pue de</w>
c re
to bʼeej</w>
d as</w>
ci a</w>
P or</w>
1 3</w>
un i
qʼi ij</w>
m ente</w>
cu ando</w>
T i
J u
j un</w>
herman o</w>
e h
s as</w>
VI DE
na ru
di ce</w>
wih ʼ
VIDE O</w>
Sal mo</w>
re s
r á</w>
chu wach</w>
per so
es ta
vi da</w>
ja aw
jaaw riik</w>
uste d</w>
ti en
f ami
c ción</w>
wihʼ ik</w>
C H
1 4</w>
chu paam</w>
mi en
e x
ra s</w>
g ra
N i
b a
si gui
l aj</w>
s ti
g un
1 2</w>
es per
la l</w>
cha jariik</w>
g a
s en
d ar
q oj
a li
hbʼa al</w>
K ʼ
c as</w>
oo n</w>
1 9</w>
er o</w>
c h</w>
ye ʼa
testi go</w>
kʼa xki
ti v
ru qʼor
a h
i ʼ</w>
A ta
ko om</w>
Ata la
é l</w>
too bʼ</w>
to koom</w>
Atala ya</w>
se r</w>
1 6</w>
Ni kʼwach</w>
wa aj</w>
h u
s ta</w>
kʼax ik</w>
a t</w>
I n
é s</w>
L e
fami lia</w>
Ju an</w>
t es</w>
qa kʼux</w>
e mos</w>
ch os</w>
man os</w>
sigui ente</w>
Cha aj</w>
1 8</w>
qʼor oq</w>
pa h
in ka
í cu
wi iʼ</w>
tinami t</w>
c ómo</w>
c os</w>
perso nas</w>
e b
n ik</w>
ju ʼ
ta n</w>
er on</w>
v o
kʼu hbʼaal</w>
j arik</w>
uu kʼ</w>
a s
ti qʼoroq</w>
p en
A N</w>
so n</w>
ma l</w>
l le
Ma teo</w>
ka na
g o
or g</w>
l en</w>
sa b
mien to</w>
E s
su q
lo qʼ
j w
re g
x ta</w>
kʼu l</w>
c ar
ti ʼ</w>
ti je
jw org</w>
v en
u h
pa r
naa h</w>
la al</w>
h k</w>
á n
r ía</w>
in u
de r</w>
R I
w ik</w>
hac er</w>
hab len</w>
b li
to do</w>
j un
inki bʼan</w>
tz ʼ
qu e
na qa
lo j</w>
juʼ jun</w>
er ra</w>
an ik</w>
P ro
bʼe eh</w>
R U
ta r</w>
in i
a kʼux</w>
p r
mbi én</w>
testi gos</w>
na l</w>
de b
a d
si ón</w>
r an
h uuj</w>
a toobʼ</w>
M i</w>
ru bʼi
inki qʼor</w>
al es</w>
in ti
i n</w>
yeʼa abʼ</w>
j o</w>
k ik</w>
es o</w>
per o</w>
O S</w>
2 1</w>
la b
na al</w>
ki wach</w>
li l</w>
la riik</w>
imp onik</w>
p or
a haʼ</w>
s es</w>
a mos</w>
m un
hta lil</w>
est á</w>
v a</w>
es ta</w>
ícu lo</w>
ma s</w>
ru ko
re q</w>
ha n</w>
t ʼa
n i</w>
mo loj</w>
aw eh</w>
Re ino</w>
wi l
ta mbién</w>
ci ones</w>
A L
wi naq</w>
ra jaawriik</w>
p on
con t
ñ os</w>
on a</w>
iru yeew</w>
xu qʼor</w>
ka manik</w>
CH A
C u
2 4</w>
ti j
ta j</w>
ru tobʼeej</w>
ma hk</w>
c or
mu y</w>
i x
s er
pa at</w>
es te</w>
an os</w>
z o</w>
c es</w>
ma ʼ
a m
T esti
en do</w>
e li
c e
in a</w>
man lik</w>
iru kʼuhtaaj</w>
or a</w>
h naal</w>
202 2</w>
C o
A N
mi s
an za</w>
kʼi h</w>
kʼaxki lal</w>
Le an</w>
e lik</w>
da des</w>
tien e</w>
co sas</w>
c r
tije j</w>
p o</w>
le cción</w>
e j</w>
E l</w>
herman os</w>
aci ones</w>
ki kʼux</w>
di s
se ñ
C or
t i</w>
sa ías</w>
i s</w>
I saías</w>
qʼ e
na bʼ
e htalil</w>
c la
inti os</w>
Cor intios</w>
C h
ver b
t u</w>
ot ros</w>
de más</w>
ki il</w>
ci as</w>
I C
kʼa m</w>
h saj</w>
ru kʼux</w>
v o</w>
ta qʼa
verb ios</w>
maʼ xta</w>
h e
es to</w>
R o
Pro verbios</w>
ú n</w>
su f
m ik</w>
ka x
imp or
su q</w>
me j
cr ani
ent es</w>
u ti
tij inik</w>
so lo</w>
re n
la r</w>
bʼ inik</w>
í an</w>
sa r</w>
ni ma
crani a</w>
U crania</w>
naa k</w>
na ʼa
l eej</w>
eh tʼa
ten er</w>
ch ʼi
R A</w>
y o</w>
s to</w>
con o
chi h</w>
t ri
mun do</w>
kana aʼ</w>
ha y</w>
ee m</w>
ti emp
er e</w>
bi en</w>
ayu dar
2 2</w>
na j
ha abʼ</w>
est u
e m</w>
na bʼeej</w>
d er
ti ij</w>
ruqʼor om</w>
kax ar
g reg
u x
pah qa
oo l</w>
kʼ raaj</w>
fu er
bʼ ik</w>
ar t
í bli
re hta
con greg
b a</w>
é n
ta l</w>
k ee
ch a</w>
x o</w>
to dos</w>
gui en</w>
1 9
rehta al</w>
o na
en cia</w>
al guien</w>
sen ti
vi vi
pre n
man eel</w>
esper anza</w>
cri sti
a w</w>
2 0</w>
p ri
on i
kʼ o
c er</w>
ami go</w>
si n</w>
e d
I N
2 9</w>
ñ o</w>
si s</w>
g a</w>
ta d</w>
q i
k uukʼ</w>
emp re</w>
congreg ación</w>
co m
a wi
R u
E h</w>
tra s</w>
suf ri
ee t</w>
k ri
es tas</w>
si empre</w>
ki ibʼ</w>
ri o</w>
w eh</w>
ru bʼana
d en</w>
b le
A J</w>
ʼ O
rubʼi hnaal</w>
ho j</w>
b íbli
N oq</w>
ri ibʼ</w>
kʼu x
inka aj</w>
cha lik</w>
est án</w>
ru loqʼ
pre di
per s
ni maneel</w>
na bʼan</w>
in wihʼik</w>
g ente</w>
en señ
je mp
V e
vi de
q ʼ</w>
hi il</w>
2 5</w>
y ʼ
q iibʼ</w>
pers ona</w>
nuest ros</w>
na ki
Ro manos</w>
ʼ reʼ</w>
ʼ naak</w>
ux la
ina waaj</w>
AL G
se xu
en a</w>
e jemp
H e
ver dad</w>
ne c
mu er
lo m</w>
kʼ ik</w>
ki ʼ
aj nimaneel</w>
na a</w>
li is</w>
art ículo</w>
ye ʼ
xu bʼan</w>
v er</w>
j os</w>
ba uti
tzʼ uh
pre gun
pahqa aj</w>
o j</w>
li b
hi n</w>
eb re
de mos</w>
cu r
am or</w>
E N</w>
2 3</w>
se gui
s al
l la
da r</w>
uxla bʼal</w>
me di
j ool</w>
ehtʼa l</w>
cu en
Q U
p eet</w>
nima al</w>
i b</w>
al go</w>
ri lariik</w>
j e</w>
E M
p onik</w>
nuest ra</w>
ma r
kee bʼ</w>
ca li
an ti
C U
u x</w>
kʼacha rik</w>
g ún</w>
es cu
aj wach</w>
Ti erra</w>
Cha wil</w>
yu ʼnaak</w>
ve z</w>
tiv os</w>
ma r</w>
kʼa x</w>
gun os</w>
e mbre</w>
b aj
U N
B ʼ
ma reh</w>
ayu da</w>
X a</w>
0 0</w>
tiemp o</w>
mo la
impor tan
co mp
ch o
b le</w>
qʼe ʼ</w>
qui ere</w>
mej or</w>
kaxar o</w>
ca r</w>
a ños</w>
I K</w>
vide o</w>
v e</w>
ta r
t ros</w>
p ó
i t</w>
ha aʼ</w>
g ar</w>
fe li
ent os</w>
ejemp lo</w>
a do</w>
W i
wi il</w>
tinami it</w>
qʼa bʼ</w>
le a</w>
kʼux liis</w>
N A
A po
2 8</w>
2 7</w>
te x
re su
po si
es e</w>
ed ro</w>
c er
Testi gos</w>
P edro</w>
He chos</w>
sa m</w>
ru nimaal</w>
pa re
no mbre</w>
fe c
con tra
RU M
se gu
L u
rubʼana riik</w>
p sis</w>
cali psis</w>
c an
kʼi jool</w>
as í</w>
A H
ru bʼan</w>
ko w</w>
hac e</w>
tzʼi hbʼa
por que</w>
b o
a b</w>
tzʼuh kri
estu di
a t
Apo calipsis</w>
z ar
ti r</w>
re uni
ob je
inqa bʼan</w>
er na
al gunos</w>
Ti mo
RUM AN</w>
A C
x nu
ti ʼ
si ones</w>
qa kʼachariik</w>
mola abʼ</w>
d ía</w>
bʼa al</w>
a pren
pi en
nec esi
a u
S CU
sab er</w>
ru kʼachariik</w>
ja aw</w>
inki koj</w>
eli ik</w>
Kʼ U
si l</w>
s tra
n te</w>
mi go</w>
men to</w>
kʼax ooj</w>
in kʼu
ca mbi
c l
Timo teo</w>
3 3</w>
ko w
an tes</w>
s os</w>
p í
na li
g r
ami gos</w>
to das</w>
si g
ma ja
ka pe
f í
ci o</w>
C on
z ar</w>
y a
pro ble
e nas</w>
bu enas</w>
R e</w>
Lu cas</w>
ten i
suq kiil</w>
re ʼreʼ</w>
n ooj</w>
lle v
ki mik</w>
con fi
M aʼ</w>
L os</w>
H ebre
tz ʼa
se xo</w>
pu és</w>
po d
pe ch</w>
E S</w>
mis mo</w>
cristi anos</w>
E n</w>
AN T
tex to</w>
ri tu
or ik</w>
ob erna
bʼa nooj</w>
S e
3 7</w>
si a</w>
ru nabʼ
re l
inki kapaaj</w>
g e
E S
D IC
po demos</w>
j o
es pi
cha jarik</w>
awi ibʼ</w>
Q ʼO
tzʼi r</w>
tu mi
tumi in</w>
ru naʼojbʼal</w>
par te</w>
p a</w>
y e</w>
v al
K I
Hebre os</w>
20 0
pa d
mu cho</w>
he cho</w>
cu l
J o
u e
ruko wiil</w>
ko ruman</w>
des pués</w>
a wach</w>
wil keebʼ</w>
ro n</w>
re li
espi ritu
b re
uu t</w>
es a</w>
cha s</w>
bi er
2 6</w>
s an
o l
m naq</w>
ka mnaq</w>
de mo
bʼe es</w>
M Á
yʼ inik</w>
yo h
so tros</w>
re mos</w>
ra n</w>
pue den</w>
nuest ro</w>
gu nas</w>
ca da</w>
bʼ jik</w>
SCU B
SCUB RA</w>
DE SCUBRA</w>
ruu k</w>
ruloqʼ il</w>
ru tinamiit</w>
n in
ko j
ix oq</w>
CHA RE
ve an</w>
l í
in ter
es po
cuen ta</w>
S e</w>
MÁ S</w>
3 5</w>
202 1</w>
z ó</w>
un que</w>
ta q
no sotros</w>
est os</w>
a z
L o</w>
r aj</w>
q anik</w>
Ch i</w>
taq e</w>
runabʼ jiik</w>
res pe
f es
e la</w>
CHARE Q</w>
ALG O</w>
sa cha
pa z</w>
pa ra
p li
p la
l l
i ri
g en
e mb
deci r</w>
N a
M ar
E n
4 5</w>
3 0</w>
w u
to ri
si gu
la rik</w>
en f
d an</w>
c ti
ar á</w>
wa al</w>
uu m</w>
qoj rutobʼeej</w>
m or
m in
ki kʼa
jun eliik</w>
al gunas</w>
S u
Ru sia</w>
J U
I L
reli gi
pah qanik</w>
j ot
j a</w>
da do</w>
a cha
S er
D e
xa aj</w>
x o
se a</w>
pri m
obje tivos</w>
ki kʼachariik</w>
ci miento</w>
ah ora</w>
Wi lik</w>
ver s
t re
si kʼ</w>
s k</w>
kiʼ ibʼ</w>
iru kʼam</w>
ina qʼor</w>
in qʼorik</w>
N e</w>
B L
ta xaaj</w>
i r</w>
ha la
esi s</w>
cha aj</w>
S o
N o</w>
t or</w>
ra j
qa hsaj</w>
pa lab
o p
kʼu un</w>
bu nal</w>
T A
QʼO R</w>
P A
x qa
tien en</w>
o so</w>
inki yeew</w>
for ma
di jo</w>
ali dad</w>
u d</w>
tu s</w>
t ik</w>
qʼ o
mu chas</w>
el los</w>
cu mp
S i</w>
ver da
ta h
mu est
m wik</w>
importan te</w>
hab lar</w>
f al
er an</w>
ad or
én esis</w>
y iibʼ</w>
taqʼa nik</w>
si tu
s í</w>
mar zo</w>
i li
baj o</w>
G énesis</w>
ti rutobʼeej</w>
re gi
nu kʼux</w>
man era</w>
lo w</w>
for ma</w>
er po</w>
con se
al mente</w>
Je naj</w>
IN KI
Cha kapaaj</w>
3 1</w>
proble mas</w>
no vi
ko ʼ
ki naʼojbʼal</w>
en contra
e go</w>
ci l</w>
aj waal</w>
ah chi</w>
a riik</w>
vo l
s anik</w>
ru kʼu
o tras</w>
kʼa mal</w>
h nik</w>
di ci
ac ti
Cha jarik</w>
yeʼ em</w>
re ci
nuest ras</w>
cont ra</w>
a st
Cha bʼan</w>
segui r</w>
o res</w>
c en
E N
yo mal</w>
vo lu
ku y</w>
ina bʼan</w>
fu e</w>
el la</w>
U U
Qu i
D i
A L</w>
ó ven
óven es</w>
á r
z as</w>
to mar</w>
ran te</w>
r án</w>
r se</w>
maja aʼ</w>
j us
inqa koj</w>
in ci
i de
fes ios</w>
P a
E fesios</w>
ta mos</w>
ra l</w>
naj tir</w>
muer te</w>
l jik</w>
kʼaxki laal</w>
j óvenes</w>
f ru
c en</w>
an te</w>
Ve a</w>
UU J</w>
C I
yo ʼ
reuni ones</w>
qʼ inik</w>
po der</w>
j al
ina kapaaj</w>
emp e
T ra
I na
y oo
u l</w>
s anto</w>
re n</w>
kʼo yomal</w>
ka maj</w>
hu man
des e
R a
yoh kik</w>
tu q
t z</w>
p ru
oberna nte</w>
mu chos</w>
ki ʼi
go bier
espiritu al</w>
do l
anti a
an a</w>
a unque</w>
T N
TN M</w>
S a
4 0</w>
ve ces</w>
tzʼihbʼa aj</w>
to da</w>
s mo</w>
qi lom</w>
l oq</w>
hu manos</w>
f e</w>
es cri
QU E</w>
L AJ</w>
ten emos</w>
qʼa qʼinik</w>
q il</w>
pr inci
naʼa bʼanam</w>
li o</w>
ja r</w>
hab ía</w>
ha sta</w>
c tu
antia go</w>
ac u
S antiago</w>
O Q</w>
H UUJ</w>
A T
xu yeew</w>
naru bʼanam</w>
men sa
iru q</w>
inqa aj</w>
hi zo</w>
forma ción</w>
er ía</w>
er os</w>
du rante</w>
co men
ci e
bʼi laal</w>
Je ʼ</w>
A RI
ʼ u
us o</w>
ru to
n et</w>
in chalik</w>
g an</w>
esta r</w>
c to</w>
Testi go</w>
S ANT
SANT O</w>
x ik</w>
wi kʼraaj</w>
uu y</w>
un o</w>
t yoo
qʼa aʼ</w>
ex pli
c lu
bʼ jiik</w>
D a
v a
ta dos</w>
kikʼa mwik</w>
b us
ab ri
a po
a demás</w>
M i
3 4</w>
Ó N</w>
tu d</w>
ra z
na da</w>
l wik</w>
j il</w>
ho mbre</w>
feli z</w>
du cción</w>
cl esi
ca sa</w>
RE H</w>
Q a
P ero</w>
I J</w>
y oj
w o</w>
vivi r</w>
too bʼinik</w>
ta do</w>
situ ación</w>
qʼor om</w>
pa í
ob e
ni manik</w>
naqa bʼanam</w>
n un
lu m</w>
h il</w>
en es</w>
demo stra
deci siones</w>
d est
clesi ast
c ación</w>
a q</w>
P an</w>
I J
C re
ya bʼilaal</w>
un os</w>
u yʼinik</w>
res pu
koj om</w>
k ini
clesiast és</w>
cha wach</w>
ES T
E clesiastés</w>
E H</w>
AH CH
x ti</w>
qʼor arik</w>
pen sar</w>
pa s
naj t</w>
m á
di fí
di do</w>
d ías</w>
4 4</w>
í fi
á cti
pr ácti
m on
lo o
ka hnik</w>
h on
g ani
e xi
cor az
ar on</w>
an ci
RI IJ</w>
R O
tan to</w>
senti do</w>
ru wiiʼ</w>
pen ses</w>
o nal</w>
m oni
k in
ju lio</w>
inki kʼul</w>
ili penses</w>
do na
b en
F ilipenses</w>
D e</w>
20 19</w>
ten d
s ta
ru k</w>
re qa
r ó</w>
pien sa</w>
ot ra</w>
or ar</w>
ni m</w>
hi jos</w>
hac en</w>
g una</w>
ent re</w>
coraz ón</w>
bʼi saj</w>
I ʼ</w>
0 00</w>
ʼn ik</w>
sexu al</w>
s to
qa wach</w>
ot ro</w>
nali dad</w>
mi na
ma g
dis fru
aci as</w>
Y ah
Jo b</w>
3 2</w>
teni miento</w>
s jiik</w>
ru kor
re h
ra migo</w>
qʼa h
pad res</w>
or gani
moni o</w>
ma tri
ka at</w>
fi ci
d on
ci ona
ayu dar</w>
ani ma</w>
a k</w>
a ajwaal</w>
T a
Mar cos</w>
Kʼ AHCH
H a
A j
tiv a</w>
ser vi
pr on
palab ras</w>
o cu
ni m
ci er
c al
bo mb
KʼAHCH Iʼ</w>
3 9</w>
ti cias</w>
si in</w>
s in
r ás</w>
qui enes</w>
ni fi
mi entos</w>
lu gar</w>
lo gra
la aj</w>
k i</w>
g l
dest ru
b an</w>
al l
ac er
ab lo</w>
tuq ki
sa maj</w>
ru ku
qʼor oj</w>
pregun tas</w>
o ri
hac er
g el</w>
er as</w>
ci encia</w>
abri l</w>
a kʼachariik</w>
a gu
EM OS</w>
E s</w>
4 1</w>
án gel</w>
tzʼi h
tra bajo</w>
to bʼinik</w>
tah q
pro pi
nun ca</w>
n or
mi s</w>
l ee
kʼo ʼnik</w>
j i
inqa qʼor</w>
i m</w>
fu tu
es as</w>
enf er
en to</w>
cu i
ayu ʼ</w>
an o</w>
P er
P AN</w>
I r
Es cu
E L</w>
A haʼ</w>
v es</w>
tzʼ uuy</w>
sexu ales</w>
mu je
loo qʼ</w>
f un
es pí
en cias</w>
deb e</w>
cump li
c ía</w>
bʼa an</w>
al qui
Yah m</w>
T o
Aj wach</w>
202 3</w>
sa h
res pon
lab ra</w>
futu ro</w>
es pe
cu alqui
an sil</w>
Ve amos</w>
T ri
Pa labra</w>
P RE
H o
G obernante</w>
Cu erpo</w>
C ri
vers ículo</w>
t inik</w>
suq ki
se res</w>
ri tu</w>
pru eb
mi t
matri monio</w>
ma yo</w>
koʼ leej</w>
in te
gr acias</w>
esper tad</w>
enseñ a</w>
e le
d or</w>
ar a</w>
anci anos</w>
al e
a go
QU É</w>
O L
G u
D espertad</w>
Co lo
19 9
xki qʼor</w>
x kʼu
s tan
resu l
oj ik</w>
ko o
j al</w>
iru koj</w>
inka manik</w>
do res</w>
bu en
a ma
L A</w>
KʼU X</w>
su per
sa li
re cu
qʼor bʼal</w>
i ij</w>
fe bre
febre ro</w>
fami li
espí ritu</w>
ca do</w>
W AC
WAC H</w>
N ue
D ani
Cha nabʼeej</w>
4 8</w>
yoʼ jik</w>
u ro
ti ca</w>
t ú</w>
t ran
sah chik</w>
ruqʼor bʼal</w>
rubʼi ral</w>
ru kʼuhbʼaal</w>
mi gos</w>
kor saj</w>
koo ch</w>
in waaj</w>
esta ba</w>
des de</w>
c an</w>
bʼi raj</w>
a h</w>
a dos</w>
W IL
INKI QʼOR</w>
H A
Cu ando</w>
suqki leej</w>
sen ses</w>
s ino</w>
ruqʼor ariik</w>
ru suqkiil</w>
nu wach</w>
mo mento</w>
mi n</w>
mb res</w>
ko h
ix ibʼ</w>
g e</w>
ac tu
Tri bunal</w>
S U
Colo senses</w>
A KʼUX</w>
á g
ti ki
ta l
reci bi
pre ocu
nu e
kʼu lum</w>
ki to
kape bʼaal</w>
inki kʼuhtaaj</w>
h e</w>
di o</w>
deci sión</w>
chu ku
J a
x oq</w>
u sar</w>
tiv o</w>
ti co</w>
so l
sa do</w>
s uut</w>
ri a</w>
paí s</w>
obe de
n ú
lla ma
lib ro</w>
li g
lee r</w>
la r
la do</w>
g ru
emb ar
deb emos</w>
cualqui er</w>
ac ab
a ja
a da</w>
P I
K O
In formación</w>
Escu ela</w>
A le
á ni
y es</w>
v en</w>
tuqki lal</w>
predi car</w>
pa ñ
pa so</w>
ki paat</w>
i ib</w>
ho y</w>
gu erra</w>
for me</w>
embar go</w>
de muest
cur s
cont ro
a gra
X ki
S i
I M
5 0</w>
yoj i
xu kʼuhtaaj</w>
w aʼ</w>
tije m</w>
sig nifi
re ej</w>
ra jaaw</w>
m í</w>
lu ego</w>
inqa yeew</w>
in ooj</w>
espo sa</w>
ent ífi
en ero</w>
el oq</w>
e res</w>
de di
c ciones</w>
ar se</w>
a ab</w>
Sal ud</w>
I ru
Dani el</w>
A d
1 0
xki bʼan</w>
v í
t k
t en</w>
re la
pro me
pre para
pe ri
novi embre</w>
mi ll
mensa je</w>
men os</w>
g as</w>
ent ro</w>
en ten
e volu
da ños</w>
d in
ch ʼu
bauti zar
a na
a ha</w>
U ni
M un
Cu á
x kahnik</w>
un ci
tu ras</w>
ter min
so ʼ</w>
ru reqa
qʼa tal</w>
oo m</w>
nu k</w>
koh laaj</w>
hta aj</w>
difí cil</w>
di ó</w>
d ó</w>
ci u
ci entífi
b ri
aw ehtʼal</w>
ani ma
al gún</w>
ago sto</w>
a familia</w>
T u</w>
R uum</w>
In ter
ARI K</w>
A toobʼ</w>
3 6</w>
vi sta</w>
uu k</w>
so ci
sigu e</w>
s an</w>
pó n
pod ría</w>
po lí
po li
no ticias</w>
kʼi siin</w>
ka man
ka jaawriik</w>
ina koj</w>
herman a</w>
hala kʼuun</w>
fe ren
evolu ción</w>
e vi
e en</w>
di e</w>
de j
chuku j</w>
ch e
ca so</w>
aw uukʼ</w>
TA Q
TAQ EH</w>
J ARIK</w>
Ir ina</w>
D E</w>
Cha tzʼir</w>
án do
yoji bʼik</w>
v esti
sa bi
per mi
p un
o f
m é
la n
l ti
l ación</w>
ki ij</w>
i kʼ</w>
ga se</w>
estudi ar</w>
con su
cha qʼ
ca sas</w>
aw amigo</w>
an eel</w>
aj Yahm</w>
PRE G
P ablo</w>
Nue vo</w>
E uro
A l
ó ni
ó n
xi yojibʼik</w>
x wihʼik</w>
tk eel</w>
ta le
ser á</w>
s te
qui en</w>
pre xo</w>
p es
jot ʼ</w>
hab la</w>
fe cha</w>
e qui
don de</w>
conse jos</w>
com uni
bíbli co</w>
bu ena</w>
b les</w>
al can
Tra ducción</w>
OL OQ</w>
N o
M ás</w>
Kʼ OLOQ</w>
E va</w>
s te</w>
s jik</w>
ru b</w>
qʼor ooj</w>
pón gase</w>
pó sto
pron to</w>
pro m
posi ble</w>
naru sacha
nabʼ eem</w>
m en</w>
kʼuhta am</w>
ki kʼ</w>
fu eron</w>
fi r
esta mos</w>
d en
curs al</w>
ch aj</w>
b e
a si
a bʼanam</w>
P i
P RO
EM A</w>
CHA JARIK</w>
B I
ʼ JU
ʼJU N</w>
yo wa
wi ʼ
wi laʼ</w>
wi i</w>
verda d
v an</w>
termin ó</w>
qa h
pre sen
on ces</w>
kow ej</w>
i m
ho q</w>
ho mbres</w>
f ía</w>
din ero</w>
des cu
cre cimiento</w>
cono cer</w>
cha koj</w>
au tori
ami lia</w>
T EMA</w>
Ra jaawriik</w>
RE ʼ</w>
Per so
JU ʼJUN</w>
F amilia</w>
E M</w>
A S</w>
xa kohlaaj</w>
v ali
ti erra</w>
tan ás</w>
ta ción</w>
t res</w>
ri dad</w>
par ti
p ág
organi z
o ctu
octu bre</w>
k lik</w>
inqa kʼuhtaaj</w>
ina wil</w>
ha rá</w>
for tale
espe ci
es c
cre encias</w>
ac e
Sa tanás</w>
Qui én</w>
Perso nalidad</w>
K ʼi
A migos</w>
6 5</w>
4 2</w>
ten ción</w>
sigu en</w>
ruko jariik</w>
pue des</w>
pu bli
or ación</w>
ni ik</w>
na die</w>
muje r</w>
l ó
l jiik</w>
kiʼi lwik</w>
inqa tijej</w>
h er</w>
gru po</w>
g re</w>
f á
f on
di al</w>
der os</w>
cor ro</w>
con ven
cho p</w>
ayudar á</w>
aw a
ali dades</w>
a al</w>
Re paso</w>
RE SU
P O
Cri sto</w>
C an
x ponik</w>
v os</w>
uu n</w>
tu lo</w>
to y</w>
te mp
s tad</w>
ru chʼi
re a</w>
qa k</w>
pu esto</w>
pre sión</w>
po h</w>
pes ar</w>
nor mas</w>
na to
ma las</w>
m entos</w>
kʼu n</w>
h aci
dol esc
ca pí
c li
bíbli cos</w>
ami stad</w>
acu er
ab a</w>
UN DIC
UNDIC EMOS</w>
RESU M
RESUM EN</w>
PRO F
PROF UNDICEMOS</w>
L as</w>
IJ EM</w>
En tre
C hu
Ad án</w>
AT IJEM</w>
ti cia</w>
ta ron</w>
ruloqʼ jiik</w>
respu esta</w>
qʼah xoq</w>
qa tiij</w>
pro fec
llev ar</w>
lib er
li dad</w>
ki naah</w>
k an
ix o
iru kapaaj</w>
inki req</w>
in qʼorarik</w>
i s
human i
hi ci
go hiil</w>
espo so</w>
ent re
dici embre</w>
bi o
al guna</w>
al co
acha riik</w>
ace p
a pósto
a naʼojbʼal</w>
a haaʼ</w>
a dolesc
X u
UN OS</w>
U n</w>
S I
Pro póngase</w>
Entre tenimiento</w>
ALG UNOS</w>
í amos</w>
á la
ála tas</w>
x qʼ
wi ij</w>
ten ía</w>
sufri eron</w>
si ente</w>
rel aciones</w>
pad re</w>
ne u
medi o</w>
ma m</w>
ma l
m ías</w>
iri kʼraaj</w>
i kʼik</w>
hi jo</w>
h ora</w>
gen er
fi n</w>
en e</w>
du c
di st
cl uso</w>
as un
aja bʼees</w>
Se gún</w>
N E</w>
Mun do</w>
L O</w>
J Bʼ
JBʼ AL</w>
I A</w>
G álatas</w>
5 5</w>
20 11</w>
ícu los</w>
z ca</w>
tz uh
tyoo x</w>
tahq aneel</w>
san gre</w>
sa q</w>
religi ones</w>
re des</w>
q ehtʼal</w>
pa n
mill ones</w>
in elik</w>
hon ra
gu sta</w>
ga mos</w>
g en</w>
expli ca</w>
de jar</w>
cu alidades</w>
comp le
cha weh</w>
a kʼ</w>
BL IC
B Í
AL I
ʼO JBʼAL</w>
ú lti
vi d</w>
verda deros</w>
ti po</w>
ru paat</w>
ru haaʼ</w>
ru bʼanam</w>
re chos</w>
pue b
pu di
po co</w>
man eras</w>
kow laj</w>
jo lal</w>
ja ruu
i cio</w>
es os</w>
e dad</w>
di feren
cho l</w>
chi hi
che laal</w>
chaqʼ la
ca m
aw u
acti tud</w>
a qu
WIL I
WILI H</w>
PA RA</w>
M u
Kʼi h</w>
Es cri
Da vid</w>
BL IA</w>
BI BLIA</w>
7 2</w>
3 8</w>
202 0</w>
é r
yu ʼ</w>
xki yeew</w>
uni o</w>
ta mente</w>
sufri r</w>
sti r</w>
signifi ca</w>
q ani
pu es</w>
pre s
p ti
p ios</w>
nim laj</w>
la n</w>
kʼ een</w>
k tor</w>
inu bʼan</w>
inqa req</w>
ina l</w>
gl esi
feli ces</w>
esper a</w>
deb er
cri sto</w>
ci dad</w>
cha loq</w>
ch u</w>
capí tulo</w>
bʼe hsaj</w>
bʼana rik</w>
ben e
b eb
aj kʼamal</w>
a g
a de
Ser gu
NA ʼOJBʼAL</w>
Ina qʼor</w>
Ch aj</w>
BÍ BLIC
A AJ</w>
yeʼa rik</w>
xi kimik</w>
wu k
u cristo</w>
te l
su t</w>
st ru
s ik</w>
s ac
rureqa riik</w>
ruka maj</w>
resu ci
r le</w>
qui én</w>
pro te
or aciones</w>
oni a</w>
nin qʼiij</w>
n chel</w>
mi il</w>
ma y
ma la</w>
m es</w>
ko p</w>
ko oj</w>
ki j
inter net</w>
in f
in cluso</w>
ha al</w>
gu sta
gobier no</w>
f o
ent onces</w>
e ren</w>
da mos</w>
chi kop</w>
ce le
bu en</w>
apo y
acer ca</w>
Y u
T es
P ad
Jes ucristo</w>
20 14</w>
á fi
tzʼuhkri saj</w>
te mos</w>
sufri miento</w>
se an</w>
sal ud</w>
rukʼu lariik</w>
ru mahk</w>
reh tʼa
que te
nu kʼachariik</w>
neu tra
man tener</w>
j unio</w>
i gu
i do</w>
gra fía</w>
fuer zas</w>
fuer za</w>
di r</w>
di a</w>
com pañ
ch eel</w>
ca us
ca ri
bʼi hnaal</w>
b ra</w>
acuer do</w>
R T
L e</w>
E st
D escu
D I
CH I</w>
A n
vivi do</w>
vi r
v ía</w>
v u
v ino</w>
to b</w>
tiemp os</w>
ti ru
t ó</w>
t eew</w>
soci ales</w>
se pti
septi embre</w>
pág ina</w>
poli cía</w>
po der
or al</w>
oni cen
onicen ses</w>
nú m</w>
na qilom</w>
ma nas</w>
m ini
k uum</w>
in ten
in di
f a
el las</w>
e lo</w>
d í
cla ro</w>
as jik</w>
al onicenses</w>
Tes alonicenses</w>
Pad re</w>
L OS</w>
Inter net</w>
DIC EN</w>
4 6</w>
20 12</w>
20 10</w>
é i</w>
É l</w>
x ooj</w>
tri bunal</w>
to qʼaaʼ</w>
so bre
si do</w>
ri os</w>
re si
re alidad</w>
raj tahqaneel</w>
qʼi jil</w>
qʼa taj</w>
qui era</w>
pueb lo</w>
pla ne
ma lo</w>
kʼi haal</w>
ki qʼorik</w>
jaruu j</w>
inkʼu larik</w>
i mag
humani dad</w>
fá cil</w>
enfer me
de f
cie lo</w>
ci do</w>
cer ca</w>
car se</w>
bauti zó</w>
a pa
V EN
Sergu éi</w>
Sal ones</w>
PREG UN
P ara</w>
N e
M o
CI ÓN</w>
xi ikʼ</w>
v an
u htaaj</w>
tzʼuhkri samaj</w>
tran s
ti kʼa
t r
so mos</w>
sin oq</w>
si er
se cu
ruka pe
rel ación</w>
r ías</w>
pue do</w>
plane ta</w>
ni maj</w>
na nu
mun dial</w>
mi ik</w>
le y</w>
kini maj</w>
ki miik</w>
kaxar o
ka bʼ
iru tobʼeej</w>
in qil</w>
in clu
hala kʼun</w>
gra ves</w>
glesi a</w>
ga do</w>
g ran
enten der</w>
di ri
con ciencia</w>
co quete
chʼi klik</w>
ca s
bʼe h
bautizar se</w>
apósto l</w>
ad or</w>
a qʼ</w>
Uni dos</w>
Q ʼ
P o
Ha y</w>
Es tados</w>
Co mit
xu koj</w>
uni dad</w>
t í
t uut</w>
suq bʼisaj</w>
sigui entes</w>
secu ción</w>
s ach</w>
re ali
r ían</w>
perso nal</w>
per secución</w>
pe lig
pare ce</w>
oj b</w>
o cur
mien tras</w>
kʼi hik</w>
ki bʼanam</w>
ja n</w>
inqa kʼul</w>
ina wikʼraaj</w>
ina kʼuhtaaj</w>
i h
h or
gr áfi
est é</w>
es toy</w>
di eron</w>
deb ería</w>
cre ó</w>
ci onal</w>
cha wiij</w>
ch ʼa
cele b
cam ino</w>
c emos</w>
bʼ eem</w>
ac o
a te
a a</w>
W O
V i
RE E
Pi en
K o</w>
Ja aw</w>
In forme</w>
Descu bra</w>
ʼ ooj</w>
ón de</w>
án der</w>
z o
x ánder</w>
x iik</w>
x eej</w>
to rio</w>
to h
si to</w>
respe to</w>
ra r</w>
prome te</w>
o u
nima q</w>
mi l</w>
man i
kʼi sinoq</w>
kij ibʼ</w>
ki kamaj</w>
jen o</w>
ja bʼ</w>
in vesti
in kik</w>
ide as</w>
ha ga</w>
g oberna
escu cha
enf ren
ehtʼa li
do c
dist in
ch ʼ</w>
bíbli cas</w>
all í</w>
agu an
ac ciones</w>
a ño</w>
WO ʼ</w>
Q il</w>
P ue
K i
Je re
Escri turas</w>
Cuá l</w>
Cre e</w>
Co rea</w>
20 18</w>
20 13</w>
ú bli
vi si
vi ol
tzuh bʼ</w>
tiʼ jolal</w>
teni do</w>
taqʼa niik</w>
tan do</w>
t ro
su cursal</w>
s é</w>
reg al
re almente</w>
raj kaman
qu n
prácti cas</w>
o sos</w>
narusacha m</w>
mo l</w>
mi emb
lle g
l en
kape bʼinik</w>
hac emos</w>
ex tre
di o
descu bri
demo st
cul pa
con ta
cier to</w>
cambi ar</w>
c entro</w>
bʼa naj</w>
bʼa hiil</w>
aj qʼatal</w>
Su r</w>
Sal ón</w>
NA Bʼ
Da tos</w>
A nato
xa t
x oj
wil kooj</w>
w anik</w>
u ter
tz ʼ</w>
sal v
ru yeʼem</w>
ru q</w>
ri ca</w>
prueb a</w>
profec ías</w>
pro pó
por no
ne el</w>
na cimiento</w>
mo ri
loqʼ ej</w>
la nte</w>
k uuk</w>
jun sut</w>
j u</w>
iru kʼax</w>
in kinimaj</w>
human o</w>
gráfi cos</w>
gra n</w>
g ri
encontra r</w>
de cla
da ño</w>
cu at
bio gráficos</w>
bauti smo</w>
ar le</w>
alcan zar</w>
ab an
a xik</w>
N CI
KʼU L
H u
BÍBLIC O</w>
A ño</w>
4 7</w>
0 7</w>
Ó VEN
ÓVEN ES</w>
xu tzʼuhkrisaj</w>
wil kaat</w>
tra ba
te ri
suq bʼik</w>
ser ía</w>
s pi
ruko ʼ
regi ón</w>
re ʼ
que ri
qa l</w>
porno grafía</w>
pa ʼ</w>
on o
na tu
muer tos</w>
mi o</w>
me tas</w>
l la</w>
l ena</w>
kʼ saj</w>
ju icio</w>
gusta ría</w>
gi r</w>
escri bi
e mo
disfru tar</w>
destru i
dese a</w>
d ando</w>
cuat ro</w>
con duc
cha ʼ
ch e</w>
ce p
c í
c ando</w>
ayu dó</w>
apren der</w>
ana m</w>
aj reʼ</w>
acti vi
a rio</w>
P AH
PAH Q
O N
J ÓVENES</w>
I RU
A r
A R
19 7
ú n
án ge
ánge les</w>
É xo
Éxo do</w>
xki kʼul</w>
xki koj</w>
xi la
wih ʼi
vu el
verdad ero</w>
uter ono
uterono mio</w>
us a</w>
sali r</w>
rukor kiil</w>
ru yeew</w>
ru kimiik</w>
r nos</w>
qun chelaal</w>
q o
propó sito</w>
pro ve
polí tica</w>
pa tinik</w>
p úbli
naru kʼu
mp i
kaxaro hiil</w>
kapa am</w>
k eh
k e
inqa nabʼeej</w>
inqa kapaaj</w>
inqa chih</w>
inkʼu ljik</w>
inf lu
hacer lo</w>
hab er</w>
ha bʼ
fi el</w>
f ra
escu ela</w>
demuest ra</w>
confi ar</w>
ciu dad</w>
científi co</w>
cambi o</w>
ca pa
c aciones</w>
buen os</w>
bomb a</w>
awi lom</w>
ar te</w>
acha reel</w>
a ʼ
Y ou
PREGUN T
P RI
O le
O O
De uteronomio</w>
D A</w>
Can ción</w>
5 7</w>
4 9</w>
20 15</w>
óni cas</w>
é fon
z ona</w>
yo hbʼaal</w>
y u</w>
xa ta</w>
wi h</w>
ve lación</w>
uste des</w>
tyoo xeej</w>
tu vo</w>
to res</w>
ten er
tel éfon
ta rá</w>
s ra
ru kʼa
ru familia</w>
reʼ yuʼ</w>
rela to</w>
rehtʼa l</w>
re ce</w>
r lo</w>
r i</w>
qu u
proble ma</w>
pro b
pri sión</w>
pen a</w>
pa sa</w>
nin gún</w>
mon ios</w>
mi e
mie do</w>
medi ante</w>
lla ma</w>
kʼi sa</w>
ki in</w>
jus ticia</w>
inu kapaaj</w>
inki l</w>
in qi
in mor
imp u
i glesia</w>
ho l</w>
hab ían</w>
ha ya</w>
fal ta</w>
ex o</w>
es fuer
er da</w>
di ver
di fi
cu á
co mi
co me
ci ó</w>
buen o</w>
awa jaaw</w>
an unci
ale g
alco hol</w>
al e</w>
a ma</w>
X asjik</w>
T U
Re velación</w>
Ma reh</w>
K orik</w>
J IK</w>
I sra
4 3</w>
ú ni
zo nas</w>
yeʼ wik</w>
xki kanaaʼ</w>
xa wil</w>
wihʼi ik</w>
v as</w>
tori a</w>
tar se</w>
sier vos</w>
ri as</w>
reuni ón</w>
respu estas</w>
religi ón</w>
qʼ ik</w>
princi pi
principi o</w>
pon er</w>
pe o</w>
pe nal</w>
pe cado</w>
ot her</w>
o l</w>
naki bʼanam</w>
na h</w>
ko kʼ</w>
kiʼi kʼik</w>
jun elik</w>
j as</w>
iru kʼul</w>
inki pahqaaj</w>
inki koʼleej</w>
inki b</w>
ide a</w>
i qal</w>
hab rá</w>
go al</w>
f r
dol or</w>
d ente</w>
cre en</w>
ca b
adolesc entes</w>
ab le</w>
You r</w>
T he</w>
PRI NCI
PRINCI PI
PRINCIPI O</w>
PREGUNT AN</w>
P re
OO L</w>
O lena</w>
N ik</w>
Jere mías</w>
IRU QʼOR</w>
HA T</w>
C am
8 3</w>
5 3</w>
. .</w>
. ..</w>
áni ma</w>
ándo se</w>
xila k</w>
uni ver
tzʼihbʼa maj</w>
su ce
si kʼa
ru kʼaxooj</w>
ru ch</w>
regal o</w>
qa yeʼaabʼ</w>
qa qʼijil</w>
qa migo</w>
parti ci
ob ra</w>
o ʼ
no ta</w>
ni kʼ</w>
mis ma</w>
mina r</w>
la m</w>
l lo
ku y
kee b</w>
kana ʼ</w>
iru b</w>
inki mik</w>
ina tijej</w>
ina req</w>
in qani
in eel</w>
i h</w>
hici eron</w>
hi s
habʼ ul</w>
gobier nos</w>
gen i
fí si
fuer te</w>
fal sas</w>
en tra
e les</w>
di cen</w>
de tal
cu erpo</w>
cri sis</w>
cre er</w>
cla se</w>
car ta</w>
cambi ó</w>
an zas</w>
al jik</w>
ador ación</w>
a nabʼeem</w>
V í
U na</w>
S E
L E
Kʼ IJ
KʼIJ OOL</w>
I ÓN</w>
G e
AC IÓN</w>
A b
í so</w>
yeʼa riik</w>
xo waaj</w>
xi kʼik</w>
wi ibʼ</w>
val or</w>
tzʼih bʼjik</w>
tu ra</w>
tien es</w>
ti do</w>
ten go</w>
ten cia</w>
si mo</w>
s or
r ónicas</w>
pro c
princi pios</w>
prim ero</w>
prim era</w>
poder oso</w>
op ción</w>
mu el</w>
mo so</w>
man o</w>
loqʼ inik</w>
llama da</w>
ko v</w>
ki yeʼaabʼ</w>
kana am</w>
inqani maj</w>
inki kʼax</w>
ina chih</w>
hi ik</w>
ha a</w>
h ebre
ga res</w>
especi al</w>
er ún</w>
en vi
e fec
dis cí
discí pu
di ciones</w>
deb en</w>
chʼi hil</w>
chihi im</w>
cha kapaaj</w>
bíbli ca</w>
ayu dado</w>
autori dades</w>
ami gohiil</w>
aguan tar</w>
ab an</w>
a nali
T en
Sa muel</w>
Qa Jaaw</w>
Pue de</w>
NA Q</w>
Le ah</w>
Le a</w>
Isra el</w>
IC A</w>
Hu manos</w>
De rechos</w>
Cam erún</w>
C rónicas</w>
6 0</w>
5 6</w>
20 17</w>
z an</w>
z ado</w>
yowa abʼ</w>
x tzʼuhkri
x jal
wiʼ k</w>
vi eron</w>
univer so</w>
tzʼa pa
tiʼ kiil</w>
ti bʼ
teléfon o</w>
ta les</w>
sti tu
so y</w>
so lu
sig lo</w>
servi cio</w>
ru bʼeh
ri saj</w>
rel aci
re fu
r é</w>
prom esas</w>
predi cación</w>
pas ó</w>
p ár
organiz ación</w>
or ía</w>
o sa</w>
o co</w>
mé di
m es
l mente</w>
ko jarik</w>
jus to</w>
je ʼreʼ</w>
iru bʼehsaj</w>
inki tzʼir</w>
in vi
in sahchik</w>
hebre o</w>
he ri
h chʼ</w>
gu er
g eli
ex peri
est ás</w>
enseñ anzas</w>
en en</w>
empe zar</w>
ee ʼ</w>
discípu los</w>
dese o</w>
demostra r</w>
de monios</w>
cu án
confi anza</w>
clu sión</w>
chʼi ka
chaqʼla miil</w>
ayudar le</w>
ar res
ar lo</w>
agu a</w>
aban dona
a tiij</w>
a res</w>
a fir
S O</w>
P e
LE C
DIC E</w>
Con o
A l</w>
200 4</w>
0 9</w>
últi mos</w>
ó li
xa reʼyuʼ</w>
ve a</w>
ti qʼaaʼ</w>
ter ri
ten ga</w>
tah qa
sabi du
sabidu ría</w>
sab emos</w>
s tu
s tas</w>
ru kʼam</w>
re c
rajkaman oom</w>
qʼa hsaj</w>
qui z
qah sam</w>
pun to</w>
prueb as</w>
pre exo</w>
pon en</w>
po l</w>
pe que
pa sar</w>
or om</w>
na req</w>
na b</w>
n do</w>
muer to</w>
mo do</w>
ló gi
loqʼ il</w>
lle gar</w>
le ctu
k un
k ehtʼal</w>
ju dí
ja lam</w>
inu koj</w>
importan tes</w>
igu al</w>
i den
iden ti
ha mbre</w>
h t
gran des</w>
g or
famili as</w>
cur so</w>
cli má
chʼi hchʼ</w>
ca mos</w>
bo l</w>
ba mos</w>
ayudar nos</w>
anti gu
activi dades</w>
a fec
Z ACIÓN</w>
TU ALI
TUALI ZACIÓN</w>
Re yes</w>
R eh</w>
M e</w>
In qa
H i
C A
AC TUALIZACIÓN</w>
0 5</w>
0 1</w>
ñ a</w>
xkʼu ljik</w>
xki mik</w>
vol ver</w>
van geli
v sk</w>
uti li
tzʼih bʼ</w>
tzʼi ri
ti qʼorik</w>
taqʼa aj</w>
tahqa aljik</w>
ta ba</w>
t yo
stan te</w>
si quiera</w>
si mp
si ento</w>
si endo</w>
servi r</w>
segu ra</w>
sa dos</w>
ruku xiik</w>
ru bʼaan</w>
ro pa</w>
regi stra
re q
req em</w>
re cha
ra mos</w>
que remos</w>
pregun tan</w>
permi te</w>
pen di
palab ra</w>
o sas</w>
natu ra
men ores</w>
me ta</w>
ma si
ko wiil</w>
kiʼ ooj</w>
ki ponik</w>
ki n</w>
ki kamanik</w>
kabʼ cheel</w>
juʼ ju
jot ʼ
iru k</w>
inkʼu tinik</w>
ina nabʼeej</w>
impor ta</w>
i le
his toria</w>
ha ab</w>
gen es</w>
ge y</w>
fun da
esta rá</w>
esta ban</w>
en ni
e j
def en
de masi
de bi
d ónde</w>
cre e</w>
con si
co pi
c ó</w>
c ru
bene fici
be bi
an o
ade lante</w>
a vi
a tención</w>
T O
Ser gey</w>
O T
K A
Est á</w>
EM P
C on</w>
C O
A nali
ya riik</w>
y ó</w>
y endo</w>
xu tzʼihbʼaaj</w>
x i</w>
w eh
volu men</w>
vol un
vi o</w>
tzʼiri m</w>
to da
toda vía</w>
tibʼ ka
ti s
ti cos</w>
ta rio</w>
si r
segu ros</w>
sacha rik</w>
ri bu
res ca
relaci ona
re htalil</w>
raz ón</w>
que dar
qu yʼinik</w>
qoj ki
publi caciones</w>
propi a</w>
pro h
princi pa
pregun ta</w>
pe di
obede cer</w>
neutra les</w>
necesi tamos</w>
necesi ta</w>
nec es
ne e</w>
muest ra</w>
mi les</w>
me mor
m ó</w>
li ik</w>
le yes</w>
l i</w>
l bʼees</w>
ka aj</w>
jo h
j es</w>
ixo wanik</w>
in tobʼinik</w>
in iik</w>
in for
ho mo
haci endo</w>
guer ras</w>
gu ía</w>
ge ren
fra g
evi tar</w>
esper ar</w>
enferme dades</w>
eh bʼik</w>
e eh</w>
dar le</w>
d ena</w>
conduc ta</w>
cari ño</w>
c ár
c in
c al</w>
bʼi h</w>
ate mala</w>
asun to</w>
aj e</w>
acab ará</w>
X nu
Ta mbién</w>
So corro</w>
S A
R E</w>
R A
PAHQ AAJ</w>
M an
M O</w>
In ki
Gu atemala</w>
Euro peo</w>
Euro pa</w>
Cu án
Cre ador</w>
B a
ARI IK</w>
A AL</w>
5 4</w>
0 000</w>
yʼ eej</w>
y i
xqʼ uun</w>
wa qiibʼ</w>
tiʼ elik</w>
tikʼa aʼ</w>
ti ana</w>
ta mp
tamp oco</w>
ruchʼi hiil</w>
rubʼana rik</w>
ru yeʼariik</w>
ru wi
ru tzʼa
ru bʼahiil</w>
re pu
ra kʼuun</w>
pudi era</w>
prom esa</w>
proc eso</w>
pro du
pa jarik</w>
ocur ri
ne a</w>
mu ri
m bʼal</w>
lu lar</w>
llev an</w>
liber tad</w>
lectu ra</w>
la res</w>
kor sam</w>
ki taqʼanik</w>
ki rutobʼeej</w>
jun tos</w>
jo ven</w>
ji naj</w>
j inik</w>
inki tijej</w>
inka n</w>
in suqbʼik</w>
in spi
in bʼaan</w>
i mi
her manas</w>
fu era</w>
fo to</w>
fi estas</w>
estu vo</w>
es cla
e ʼ</w>
doc tor</w>
des ta
cul pa</w>
cristi ano</w>
comi da</w>
chi bʼih</w>
cha yeew</w>
bʼa hi
bʼ il</w>
aʼ n</w>
ar ía</w>
ac ción</w>
a pare
a mente</w>
a aj</w>
Ví ktor</w>
Ta tiana</w>
M a</w>
LEC CIÓN</w>
KʼU H
Ho oʼ</w>
Anato li</w>
A unque</w>
0 6</w>
0 2</w>
én es</w>
z h
y an</w>
x qʼorik</w>
ví cti
vers ículos</w>
tzʼa p</w>
tra ducción</w>
tra baj
tend rá</w>
so corro</w>
segu ras</w>
s ent
ruku yariik</w>
ruka na
ruka b</w>
ru sikʼa
ru sacha
ru qʼor</w>
repu tación</w>
refu gi
re y</w>
re de
ra vi
ra m</w>
ra h
ra f
r te</w>
r inik</w>
qʼo reej</w>
qui eren</w>
qa naʼojbʼal</w>
pár raf
prácti ca</w>
posi ción</w>
ori g
naqa hsaj</w>
na waaj</w>
miemb ro</w>
mes es</w>
men ti
memor ación</w>
me tros</w>
mani a</w>
man e
li mpi
l eem</w>
ki mahk</w>
ki haaʼ</w>
juʼju naal</w>
j in
inki kʼraaj</w>
in wikʼraaj</w>
in kʼa
in formación</w>
i hil</w>
frag mento</w>
famili ares</w>
f le
er ta</w>
en er
en e
empe zó</w>
d ora</w>
con ver
ci r
ci les</w>
chu k</w>
chi iʼ</w>
chaʼ je
ca mente</w>
c el
bomb ar
bombar de
b e</w>
ar reg
a mbi
Z AR
Ti to</w>
S í</w>
Qʼ eʼ</w>
PI ZAR
No é</w>
N U
M e
L i
INKI PAHQAAJ</w>
IM PO
H ab
DE L</w>
D eb
Cono zca</w>
Con memoración</w>
Cha sikʼ</w>
5 1</w>
1 19</w>
ʼ sil</w>
úni co</w>
én do
á zar
ázar o</w>
á cu
z a
yʼ eem</w>
y en</w>
xu kanaaʼ</w>
xtzʼuhkri sanik</w>
xkʼu larik</w>
xa riik</w>
x raaj</w>
wuk tik</w>
wiʼ jal
vol ver
viol encia</w>
vi ve</w>
vi l</w>
uh b</w>
tra du
too b</w>
ti smo</w>
tar án</w>
tahq eej</w>
t ʼu
sig an</w>
senti mientos</w>
segu ro</w>
sa ch
ruto b</w>
rukor sjiik</w>
rubʼeh el</w>
ro o
ro jiik</w>
ri ʼsil</w>
raz ones</w>
raz ona
r ación</w>
qʼ uh
qu ería</w>
q anima</w>
pu l
pro gra
predi jo</w>
por t
perso nalidad</w>
o cul
nin guna</w>
nabʼ jik</w>
na qʼor</w>
na les</w>
mej orar</w>
maʼ chih</w>
man a</w>
ma ravi
m ón</w>
kʼi naq</w>
kʼi m</w>
ku xi
ki waʼ</w>
ki kʼuhtaam</w>
kana a</w>
k san
inmor alidad</w>
ini kʼik</w>
ina kʼul</w>
in taqʼanik</w>
in qu
imp i
i dio
fuer tes</w>
estudi o</w>
esta ble
est ro</w>
en car
di endo</w>
des cri
da tos</w>
d era</w>
cár c
cárc el</w>
cumpli r</w>
culpa ble</w>
coquete ar</w>
científi cos</w>
ci endo</w>
chʼu wa
ch eeʼ</w>
ca sos</w>
ca si</w>
bʼahi lbʼees</w>
beb er</w>
aw amigohiil</w>
asi stir</w>
apren dido</w>
aleg ría</w>
ag re
a i
Wi l
Tra baj
Re y</w>
RU KʼUL
RUKʼUL ARIIK</w>
REE T</w>
R uukʼ</w>
R es
Na ta
N I
L ázaro</w>
E vangeli
E lla</w>
Bʼ E
ANT ES</w>
5 9</w>
1 6
ʼ jun</w>
ú pol</w>
xu req</w>
xu q</w>
xi ʼooj</w>
x tzʼihbʼjik</w>
x sahchik</w>
wil keeb</w>
ven ta
ve mos</w>
tyo x
too bʼjik</w>
to l
ti ik</w>
t es
super ar</w>
su s
st ácu
st ri
senti r</w>
segu ridad</w>
se x
se is</w>
sa tis
ruto bʼeem</w>
ru haa</w>
ri úpol</w>
ra mente</w>
r re
qu ías</w>
qoj qʼorik</w>
qa hermano</w>
pre ven
posi tiva</w>
pen sa
pe le
para íso</w>
pa sado</w>
p os</w>
ori s</w>
ob stácu
o port
nue vo</w>
na ción</w>
m eros</w>
lu z</w>
le za</w>
la g
l onia</w>
l ac
kʼaxki leej</w>
ki xilak</w>
ki q</w>
ki kʼulum</w>
k a</w>
iru kanaaʼ</w>
inqa pahqaaj</w>
inki kʼam</w>
ina nimaj</w>
ina kanaaʼ</w>
impu l
honra dos</w>
hab i
ha go</w>
g ía</w>
ex ac
escla vo</w>
er te</w>
equi vo
entre tenimiento</w>
ele c
e v
difí ciles</w>
dar á</w>
d ale</w>
cre ación</w>
conse jo</w>
confi r
comple to</w>
co sa</w>
ci ona</w>
chʼika aʼ</w>
cha qʼor</w>
cha bʼan</w>
ce lular</w>
ayudar án</w>
autori dad</w>
asun tos</w>
aqu í</w>
an cia</w>
ador ar</w>
ac oso</w>
abandona do</w>
Xki qahsaj</w>
Ti ene</w>
R OS</w>
NA ʼ
N os</w>
Ma riúpol</w>
KO RUMAN</w>
KO J</w>
K ʼa
Ju ʼjun</w>
J E
IMPO RT
F í
EST EMOS</w>
E sta</w>
E R
D es
B ri
B oris</w>
Ale xánder</w>
A pren
A WACH</w>
A W
9 7</w>
200 3</w>
20 16</w>
1 45</w>
ʼ reej</w>
ʼ lik</w>
áni mo</w>
yoʼ jiik</w>
yo j</w>
yi hk</w>
ye ja
ye j</w>
x qʼorarik</w>
wiʼjal eel</w>
vi sto</w>
val e</w>
tyox ej</w>
tran qui
ti l</w>
ti cas</w>
ter re
ten gan</w>
tar de</w>
t on
t la
tla na</w>
su e
se mana</w>
se amos</w>
san eel</w>
sab e</w>
sa mb
ruwi hiik</w>
ru bʼeeh</w>
resu rre
reh kʼeen</w>
recibi r</w>
re as</w>
ra do</w>
ra da</w>
r me</w>
qʼi jinik</w>
qoj ru
qoj ikʼik</w>
qa mahk</w>
qa bʼanooj</w>
públi ca</w>
preven tiva</w>
prepara do</w>
pon e</w>
per fec
per der</w>
pa sos</w>
op ina
opina n</w>
o kik</w>
naru wihʼiik</w>
na suqkileej</w>
na cional</w>
má genes</w>
mp onik</w>
mi lag
mi l
mensa jes</w>
mal dad</w>
len gu
lab ores</w>
kʼacha abʼ</w>
ki bʼi
judí o</w>
je e
j ar
inqa jik</w>
inki tobʼeej</w>
in stru
in sk</w>
in forme</w>
importan cia</w>
imp resi
i raj</w>
i mágenes</w>
i kʼinaq</w>
gra ve</w>
g obernante</w>
fortale cer</w>
fa v
esta do</w>
escribi ó</w>
es co
ent en</w>
enseñ ó</w>
eh kʼ
e ter
di señ
detal les</w>
demuest ran</w>
deci dir</w>
deber íamos</w>
de re
cu ad
contra rio</w>
con stru
co mien
ci os</w>
cel esti
cas ó</w>
ayudar on</w>
ayu dan</w>
ar re
ab us
a soʼ</w>
a me
a kanaaʼ</w>
a jaawriik</w>
a halakʼuun</w>
VI G
VIG IL
VIGIL ANTES</w>
T e</w>
Se ñ
SI EMP
SIEMP RE</w>
RI B
Pien se</w>
P U
O S
M AN
L IK</w>
Es te</w>
Cuá les</w>
Comit és</w>
Cha koj</w>
Ch ri
CA SO</w>
A hora</w>
1 4
ʼ bʼik</w>
ñ ana</w>
í sti
Í AS</w>
xu jal</w>
x q</w>
wi low</w>
w uukʼ</w>
w ehtʼal</w>
w a</w>
vi ene</w>
val ores</w>
un d
tzʼ u
tu s
tra ta</w>
to ma
ti ó</w>
ten gamos</w>
sobre llevar</w>
si en
se cción</w>
sach bʼal</w>
rusikʼa riik</w>
ruchʼi hil</w>
ru xiikʼ</w>
ru nim
ru bʼanooj</w>
resurre cción</w>
re ve
rah án</w>
qui eres</w>
que da</w>
qa kapebʼaal</w>
qa bʼanam</w>
q rik</w>
párraf o</w>
pru dente</w>
prim eros</w>
prim er</w>
po m</w>
paí ses</w>
pa t
pa r</w>
oʼ q</w>
obje tivo</w>
o si
nue va</w>
ni ños</w>
mu cha</w>
mor ales</w>
mo stra
mi sta</w>
maravi llo
maja a</w>
ma du
m er
lí nea</w>
le mente</w>
le al</w>
kʼax am</w>
kʼ em</w>
kor sanik</w>
koj bʼal</w>
je j</w>
iru pahqaaj</w>
investi ga
ini dad</w>
in jus
i il</w>
haci a</w>
gun da</w>
gri ego</w>
ga nas</w>
g er</w>
g ar
fi eles</w>
fav or</w>
exi ste</w>
ex per
estudi ando</w>
est én</w>
espiritu ales</w>
encontra rá</w>
en ci
e du
dona ciones</w>
demost r
cu anto</w>
consu elo</w>
cono ce</w>
con dena</w>
comp ro
comp ren
ciona r</w>
cie dad</w>
cho pom</w>
chi ca</w>
cer á</w>
cen tra
bʼe hik</w>
bus car</w>
bu los</w>
b an
b all
ball ena</w>
apo yo</w>
al rede
agra deci
a xki
a man</w>
X kamanik</w>
Vi ktor</w>
V er
To dos</w>
Señ or</w>
SCU R
RT E</w>
RIB IL
RIBIL LO</w>
NABʼ AN</w>
N u
N T
Ma ʼ
KʼUH Bʼ
KʼUHBʼ AAL</w>
K a
Ina kapaaj</w>
IMPORT ANT
IMPORTANT E</w>
Hi jo</w>
EST RIBILLO</w>
DI SCUR
Ab rahán</w>
6 6</w>
1 7
ʼa n</w>
ñ a
í n
ár kov</w>
z ados</w>
yeʼ ooj</w>
y uu
xu b</w>
xjal wik</w>
x elik</w>
wa ch
verdad era</w>
val ora</w>
v el</w>
tus lik</w>
toh qʼik</w>
tex tos</w>
t or
st ya
sor pren
situ aciones</w>
ru taqʼaniik</w>
ru koj</w>
ro res</w>
re fle
qʼe bʼ</w>
qʼa t</w>
qʼ ehbʼik</w>
queri dos</w>
qah sanik</w>
pu erta</w>
pu do</w>
proh ib
progra ma</w>
preocu pa</w>
preocu pa
pre g
preg ún
pa cto</w>
pa aj</w>
p e</w>
or b</w>
op ti
novi o</w>
natura leza</w>
muje res</w>
mis mos</w>
mi la</w>
mi gohiil</w>
men tal</w>
may oría</w>
man iik</w>
ma d
mad re</w>
lle va</w>
li am</w>
lab or</w>
kʼuhta nik</w>
kʼ ooj</w>
kri stya
kow jik</w>
ki kojom</w>
ki kapebʼaal</w>
ki bʼanooj</w>
j reet</w>
is és</w>
iru kuy</w>
iri l</w>
inu qʼor</w>
inti ʼbʼik</w>
inqi kʼraaj</w>
inkʼu lik</w>
inclu ye</w>
ina kʼax</w>
in yeʼarik</w>
in toobʼinik</w>
in ku
in geni
ht jiik</w>
hi ja</w>
ha s</w>
h na
geren cias</w>
gener al</w>
g lo
enni s</w>
en bʼees</w>
demostra mos</w>
demasi ado</w>
d mila</w>
cuen cias</w>
cor re
contro l</w>
conta cto</w>
conse cuencias</w>
con f
comuni carse</w>
compañ eros</w>
comen zó</w>
climá tico</w>
ci da</w>
cha pahqaaj</w>
cha n</w>
cha m</w>
celesti al</w>
cal ma</w>
ca paz</w>
bi lonia</w>
au to
at uut</w>
ar án</w>
anunci os</w>
alrede dor</w>
al o
actu ar</w>
ac on
a to
Wil liam</w>
T Z
PA RTE</w>
PA AJ</w>
OT ROS</w>
ON ES</w>
O B
NAʼ LIK</w>
Mo isés</w>
Kʼ A
KA PAAJ</w>
J árkov</w>
I mponik</w>
F ran
ES E</w>
D ennis</w>
Comit é</w>
Chu ʼnchel</w>
Ba bilonia</w>
A sí</w>
1 8
0 8</w>
ó gi
zar on</w>
xa qʼor</w>
x yeʼarik</w>
wu tkeel</w>
wa chi
ví tico</w>
vali entes</w>
v amos</w>
trabaj ando</w>
tra tar</w>
tiʼ bʼisaj</w>
tiv as</w>
ta te</w>
ta des</w>
ta da</w>
ta ciones</w>
su é</w>
su r
su fici
si maj</w>
si kʼim</w>
se ri
ru too
ru tkeel</w>
ri low</w>
reqa rik</w>
regi st
re presen
qʼe q</w>
qui si
qui ero</w>
que as</w>
qi ij</w>
qi ib</w>
qa kamaj</w>
pun tos</w>
predi cando</w>
par tes</w>
pa ciencia</w>
ol ógi
of rece</w>
o do</w>
nu tiij</w>
ne ʼ</w>
ne ga
naʼa qʼorom</w>
na wil</w>
na tijej</w>
na kʼuhtaaj</w>
na koj</w>
má xi
mu ch
much í
mb ios</w>
man tener
man da
maja ʼ</w>
lu gares</w>
logra r</w>
le o</w>
le c
lan do</w>
kʼux bʼal</w>
kʼa am</w>
kor samaj</w>
ki tinamiit</w>
ki moloj</w>
ki ló
ki ib</w>
ki familia</w>
ka ʼ
j ese</w>
inte res
inqa tiqʼaaʼ</w>
inqa kʼax</w>
inka hnik</w>
in tyoox</w>
in kojarik</w>
impor tar</w>
imp li
identi fi
i qʼo
i lwik</w>
ha z</w>
gra ti
ga na
g ü
g er
f inal</w>
estu vi
escucha r</w>
es for
er rores</w>
ent ó</w>
ehtʼali im</w>
du l
diferen tes</w>
d í</w>
d é
cuá les</w>
con tiene</w>
con clusión</w>
ci dos</w>
cha r</w>
ca mbios</w>
ca dos</w>
bene fi
avi ón</w>
apren diendo</w>
apa ri
anima les</w>
ali mento</w>
a pli
a dul
VI D</w>
T I
R i
P ol
P L
Ole g</w>
Ne w</w>
Mi queas</w>
Le vítico</w>
Jo sué</w>
EST O</w>
Co mien
Chu paam</w>
Cha tijej</w>
CO VID</w>
Bri an</w>
Al ina</w>
AN IK</w>
5 8</w>
10 4</w>
ʼ I
ón yu
ó ta
á bamos</w>
z amos</w>
yoh b</w>
y ot
xu kʼul</w>
xu k
xki korsaj</w>
xi ponik</w>
x tobʼinik</w>
x kik</w>
wuk tiik</w>
vir gen</w>
ver as</w>
u r
tʼu ch</w>
tzʼi h</w>
tra te</w>
tol er
to j
terri torio</w>
terre mo
ten ían</w>
te r</w>
taqʼa neel</w>
t sk</w>
ser án</w>
senti mos</w>
sent ía</w>
sab ía</w>
s óta
rusacha riik</w>
rukʼu htjiik</w>
ru tz</w>
ri ib</w>
recu per
recu erda</w>
re cor
ra s
qʼ oom</w>
quu kʼ</w>
pu estos</w>
propi o</w>
pro fe
posi tivos</w>
pla n
pien san</w>
pi de</w>
per dido</w>
pensa mientos</w>
orig inal</w>
o f</w>
novi az
noviaz go</w>
neces a
narukʼu lariik</w>
na rojiik</w>
n ee
muchí simo</w>
mu ere</w>
mo l
mis mas</w>
mini ste
ma ñana</w>
ma rik</w>
logra rá</w>
le g
le cciones</w>
ku ch</w>
ki yohkik</w>
ki ru
ki qʼabʼ</w>
ki halakʼuun</w>
ki bʼeeh</w>
ki b</w>
kan sanik</w>
ja más</w>
iri low</w>
investiga dores</w>
inqa suqkileej</w>
inqa kanaaʼ</w>
inki q</w>
inki korsaj</w>
ini larik</w>
ina ah</w>
in g</w>
h mik</w>
gu e</w>
gor o
ge co</w>
f ina
ele gir</w>
el lo</w>
ehkʼ enbʼees</w>
difi cul
di e
di cho</w>
dere cho</w>
demost ró</w>
dedi car
decla ró</w>
deci de</w>
deb es</w>
de tención</w>
de mi
da d
d entro</w>
cuán to</w>
cui dado</w>
cont ribu
cie los</w>
ci f
chʼa q</w>
chaʼje ej</w>
cha hmik</w>
ch inaah</w>
car ro</w>
cal or</w>
cab o</w>
c ónyu
bu r
aw eh
as pe
art ículos</w>
apoy ar</w>
ali men
ah í</w>
a ña
a xooj</w>
a toob</w>
a tijem</w>
a segu
T A</w>
Su cursal</w>
S in</w>
RU NABʼ
RI K</w>
PO R</w>
PIZAR RA</w>
Nata lia</w>
M A
K o
J un
E R</w>
E H
Di ría</w>
C a
Anali ce</w>
0 4</w>
ʼ oo
óli cas</w>
ó bulos</w>
íbli ca</w>
z os</w>
y iib</w>
xu tobʼeej</w>
xqa bʼan</w>
xnu koj</w>
xki req</w>
xa tijej</w>
xa ma
xama ano</w>
xa kʼul</w>
x in
wi lom</w>
volun tad</w>
vi ó</w>
uni maj</w>
tzʼi ra
to q</w>
tiki tobʼeej</w>
tibʼka al</w>
teni endo</w>
te le</w>
t bol</w>
sus pendi
sufici ente</w>
si enten</w>
si cal</w>
si ca</w>
ser v
rukape bʼjiik</w>
ru tuut</w>
ru sik</w>
ru mo
ro oq</w>
ro mp
ri fi
resul tado</w>
respon de</w>
respe tamos</w>
recibi endo</w>
re sa</w>
ran sil</w>
ra am</w>
r á
r les</w>
qʼa am</w>
quiz á</w>
qa familia</w>
pu so</w>
pro ce
pres ente</w>
pre ci
pr ó
pon er
pod rían</w>
po v</w>
po ca</w>
per mane
per d
pelig ro</w>
pelig ro
p esi
or amos</w>
op ini
ocul tismo</w>
obstácu los</w>
o s
o puesto</w>
o posición</w>
o gado</w>
o dia</w>
o cho</w>
o ca
no ticia</w>
necesi tas</w>
ne en
narusacha riik</w>
naru yeʼem</w>
naqa kojom</w>
na ri
n er
mu sical</w>
mu e
milag ros</w>
mi li
mi ci
mici li
micili ario</w>
mag ed
maged ón</w>
ma mbʼal</w>
ma h
mah kun
mahkun ik</w>
lo caus
locaus to</w>
lleg ó</w>
le ales</w>
kiʼ elik</w>
kini manik</w>
kiló metros</w>
ki kʼ
kape bʼal</w>
inqa suqbʼisaj</w>
inqa loqʼej</w>
inqa kʼam</w>
inki kanaaʼ</w>
in qʼi
in e</w>
impli ca</w>
ih b</w>
i tzʼih</w>
h ólicas</w>
h emos</w>
gu el</w>
goro d</w>
go l
gl óbulos</w>
físi co</w>
fr on
feli cidad</w>
experi encia</w>
es ca
en cu
en can
do miciliario</w>
distin tas</w>
dificul tades</w>
di os</w>
de rechos</w>
d ó
d én</w>
d or
d i</w>
contro lar</w>
cono cimiento</w>
confi able</w>
con ten
com pa
co mit
co lab
ci on
ci ento</w>
chʼi hiil</w>
cho pa
chihi m</w>
chi co</w>
car a</w>
ca u
c é
c un
bus ca</w>
bi lidad</w>
bebi das</w>
ayu de</w>
ayu dando</w>
arres to</w>
ar nos</w>
ali mentos</w>
alco hólicas</w>
al ina</w>
ac us
ac e</w>
ab ogado</w>
a un</w>
a tra
a nas</w>
a mahk</w>
a kapebʼaal</w>
a kamaj</w>
Z ONES</w>
V a
So l</w>
So ciedad</w>
S AL
SAL MO</w>
RUNABʼ JIK</w>
REE R</w>
RA ZONES</w>
Pol onia</w>
Ole xánder</w>
Mi guel</w>
Maʼ xta</w>
Li u
Ju das</w>
Jo sé</w>
Iru qʼor</w>
IN Q
I raaj</w>
I R
Ho locausto</w>
G alina</w>
Es to</w>
EN T
EH T
E dén</w>
Comien za</w>
Cha tzʼihbʼaaj</w>
CHA J</w>
C her
C REER</w>
B íblica</w>
Ar magedón</w>
A r</w>
4 000</w>
200 9</w>
20 00</w>
0 3</w>
0 0000</w>
ʼoo bʼ</w>
ʼa rik</w>
Ú NT
ÚNT ESE</w>
yuu qʼ</w>
yo res</w>
y entes</w>
xu tijej</w>
xqʼ un</w>
x yeʼwik</w>
x qil</w>
wil kiin</w>
wil i</w>
wi rik</w>
wa jaaw</w>
vo z</w>
vi o
vi enen</w>
ve h
u nas</w>
ti yohkik</w>
te mente</w>
ta ría</w>
ta rios</w>
ta ria</w>
t á
sóta no</w>
suspendi da</w>
su stitu
sta des</w>
st en</w>
si ona
se mos</w>
se cre
sac arle</w>
sab le</w>
sa da</w>
s tencia</w>
runim jiik</w>
ruko j
ru ye</w>
ren te</w>
religi osos</w>
re cur
razona ble</w>
qa haaʼ</w>
pu estas</w>
prove cho</w>
pron unci
pro vo
per dona
pare cer</w>
pa la
pa j</w>
oport unidad</w>
nu bʼan</w>
no v
ni ño</w>
naa bʼanam</w>
n tes</w>
máxi mo</w>
mori r</w>
mo tiv
mo da</w>
may or</w>
man do</w>
ma yores</w>
ma al</w>
logra rlo</w>
la jee
l ú</w>
l lo</w>
kʼu h
kʼa h</w>
ki loqʼil</w>
keh saj</w>
ke te
ka mambʼal</w>
jun kʼaam</w>
joh tik</w>
iru sach</w>
inkʼa mwik</w>
inki to
inki chih</w>
infor mes</w>
in wil</w>
hna leej</w>
g ando</w>
fi s
f rica</w>
f recu
exi sti
ex actitud</w>
esfuer zo</w>
equi po</w>
enferme dad</w>
enfer mos</w>
enci ma</w>
en ga
do poderoso</w>
dici onal</w>
di vi
descubri r</w>
demostr ándose</w>
dedi carse</w>
dar nos</w>
cuá l</w>
cristi ana</w>
consu ela</w>
comp or
co stu
co mb
cla ramente</w>
cin co</w>
ci vil</w>
chʼu waʼ</w>
chaqʼla am</w>
cha aqʼ</w>
capa cidad</w>
bʼa j</w>
bu lú</w>
b on
b er
b en</w>
ar ro
apari encia</w>
ami stades</w>
al ma</w>
a samb
a mal</w>
WIL IK</w>
W a
V al
U ste
Trabaj ó</w>
TO BʼE
TOBʼE E
TOBʼEE J</w>
Si kʼooj</w>
SI G
SIG NI
SIGNI F
SIGNIF ICA</w>
RU TOBʼEEJ</w>
Q O
QO J
QOJ RUTOBʼEEJ</w>
PREG ÚNTESE</w>
P or
OS OTROS</w>
Na ʼojbʼal</w>
N OSOTROS</w>
K on
J an
INQ A
HA Y</w>
Fí jese</w>
E O</w>
Di ablo</w>
A demás</w>
ʼa riik</w>
ú tbol</w>
ú a</w>
ér ci
y eej</w>
y ar
xu qahsaj</w>
xu nabʼeej</w>
xu m</w>
xnu kapaaj</w>
xki tobʼeej</w>
xki qahsaj</w>
xi sacharik</w>
x toobʼinik</w>
x kaaj</w>
x k</w>
wachi is</w>
wa xa
vícti mas</w>
vi ven</w>
vi erte</w>
vi a
ver dades</w>
vali ente</w>
va rios</w>
va rias</w>
v gorod</w>
v ar
tu vieron</w>
tu los</w>
tri bu
trans mi
tra tan</w>
tra n</w>
to bʼil</w>
ti ponik</w>
ter mina
temp oral</w>
te ma</w>
ta aj</w>
sufri do</w>
su gerencias</w>
stan cias</w>
sex teo</w>
sen tencia</w>
s ki
ski y</w>
s inti
s ando</w>
rureqa rik</w>
rukʼa xariik</w>
rukana am</w>
ru wihʼik</w>
ru sal
ru qʼi
roo x</w>
ri es
resul taron</w>
re sol
re loj</w>
re fi
re b
raj laal</w>
ra dos</w>
r jiik</w>
r aci
qʼuh tik</w>
qʼo riik</w>
qu er
qoj tahqaaljik</w>
pu h
prote ge</w>
pro pios</w>
principa les</w>
pregún tate</w>
peri odo</w>
pe ti
partici par</w>
pare ja</w>
pa sa
pa l</w>
or den</w>
ol vi
o di
necesi tan</w>
necesi dades</w>
necesi dad</w>
naqa chihiim</w>
na nabʼeej</w>
na ciona
n é
médi co</w>
muri ó</w>
mp e
mo st
mo mentos</w>
maravillo so</w>
manda to</w>
ma teri
ma dos</w>
m or</w>
lo gr
li sta</w>
li gente</w>
le al
leal tad</w>
la quías</w>
la am</w>
kʼax ool</w>
kʼa mam</w>
ksan d
ksand r</w>
kristya an</w>
kin elik</w>
ki wuktik</w>
ki wihʼik</w>
ki qʼorbʼal</w>
ki habʼul</w>
jun to</w>
jo s
jin oʼq</w>
ja miento</w>
inter ro
inte ligente</w>
inspi rada</w>
inqa tyooxeej</w>
inqa kuy</w>
inki mol</w>
injus ticias</w>
ina s</w>
in k</w>
impresi ona
imp uso</w>
imp e
im pacto</w>
ih ch</w>
i siin</w>
i hnaal</w>
i e
hu bi
hor as</w>
ho gar</w>
hi ʼlik</w>
hi y</w>
hacer se</w>
ha gan</w>
gu í
for mas</w>
f rente</w>
extre mo</w>
ex pul
er lo</w>
enseñ an</w>
encontra do</w>
eh e
ehe mías</w>
e z</w>
dó lares</w>
do min
dis puesto</w>
def ini
deci mos</w>
debi do</w>
de por
de je</w>
cun stancias</w>
con vers
con dicional</w>
comit és</w>
comen tario</w>
comen ta</w>
comb a
cla ve</w>
cla ses</w>
ciu dad
cir cunstancias</w>
cif ras</w>
cier tas</w>
ci r</w>
cha mam</w>
cer lo</w>
ca mp
c é</w>
bʼa nik</w>
bier to</w>
benefi cia</w>
ben diciones</w>
axki lal</w>
awu chʼihil</w>
an u
an teri
ama mos</w>
alo jamiento</w>
al ta</w>
adolesc ente</w>
acon se
ac tos</w>
ab und
a turas</w>
a tijinik</w>
a naj</w>
a das</w>
a an</w>
Yu ri</w>
To do</w>
TZ ʼI
TA WOʼ</w>
Ser vi
SE RI
SERI E</w>
S ab
S OS</w>
R us
Q AKʼUX</w>
Nu est
Na qilom</w>
N ehemías</w>
Ma laquías</w>
Kʼa hchiʼ</w>
Ka ren</w>
Ju lia</w>
Je rusal
INQA KOJ</w>
IM A
I mag
Ha i
DISCUR SOS</w>
Co mo</w>
B ʼ</w>
B us
Ale ksandr</w>
Al gunos</w>
AT E</w>
A ja
8 6</w>
6 3</w>
5 2</w>
200 7</w>
19 14</w>
ú til</w>
ñ as</w>
ñ ar</w>
érci to</w>
z ʼ
xu toqʼaaʼ</w>
xi wihʼik</w>
wihʼ oq</w>
vir g
virg inidad</w>
vi a</w>
ve tlana</w>
v ían</w>
ux liis</w>
u hbʼaal</w>
tzʼuhkri saneel</w>
tzʼihbʼa nik</w>
tzʼa aq</w>
tuq kiil</w>
traba jar</w>
traba ja
tra ta
tinami ta
tinamita al</w>
tij in
ti wihʼik</w>
ti chol</w>
terremo tos</w>
temp lo</w>
tan ta</w>
tal mente</w>
t ʼ
suce de</w>
su el
sol da
sen ci
segui dores</w>
se ʼ
satis f
sab en</w>
sa mente</w>
rukoʼ leej</w>
rukor sam</w>
ru tzʼuhkri
ru qʼabʼ</w>
registra n</w>
re e</w>
qʼi il</w>
qʼe htaaj</w>
qʼah sam</w>
qʼa aqʼ</w>
qʼ un</w>
qʼ oj</w>
qʼ il</w>
qui énes</w>
queri do</w>
qa tumiin</w>
qa qʼabʼ</w>
qa huuj</w>
q ik</w>
pue da</w>
profec ía</w>
pro fun
pro fes
pon iik</w>
pod rá</w>
pien se</w>
pi es</w>
per ju
pe or</w>
pan demi
pa p
p inik</w>
p eew</w>
nú meros</w>
nu tuut</w>
no che</w>
ni e
ne bʼa
naki kʼachariik</w>
na m</w>
n y</w>
miemb ros</w>
mej or
medi das</w>
man tiene</w>
m ó
lle to</w>
lib ros</w>
li ci
le yendo</w>
la h
lah tzʼ</w>
kʼa ch
ku t</w>
kito bʼjik</w>
ki tiij</w>
ki qʼorom</w>
ki kabʼcheel</w>
ki jotʼ
ka peew</w>
ka bʼ</w>
iru bʼiraj</w>
iqʼo maneel</w>
inqa min</w>
inki low</w>
ina qahsaj</w>
in kowjik</w>
in eh
in chol</w>
imag ina</w>
idio ma</w>
i naq</w>
i da</w>
hubi era</w>
ho ʼoobʼ</w>
heri dos</w>
hac es</w>
hab lar
hab lando</w>
gu s
gu ar
grati tud</w>
famili ar</w>
ex tra
esta ría</w>
est re
escu cha</w>
escu ch
es ías</w>
er no</w>
ene migos</w>
en cont
en ca
emp leo</w>
emp ie
efec to</w>
e xa
e le</w>
diri gir</w>
diferen te</w>
di ga</w>
di entes</w>
destrui das</w>
de ja</w>
da ba</w>
d rá</w>
cre es</w>
cono cen</w>
con seguir</w>
cier ta</w>
chopa rik</w>
ch ʼ
celeb ran</w>
c ó
c ífi
c tos</w>
bombarde os</w>
ba stante</w>
ba s
ba do</w>
b or
awu chʼihiil</w>
at her</w>
ar ías</w>
apren der
an si
all á</w>
al tos</w>
aj iqʼomaneel</w>
agre siones</w>
ag entes</w>
ador arlo</w>
actu alidad</w>
aconse ja</w>
a ún</w>
a qʼabʼ</w>
a prove
a p
a bʼaj</w>
Y ev
Uste d</w>
T zʼ
Se gunda</w>
S vetlana</w>
S u</w>
R O</w>
OB JE
Mi k
Ma t
M esías</w>
M I</w>
L ib
K ʼ</w>
Ina waaj</w>
In waaj</w>
H AC
E x
DI OS</w>
D u
Cha kʼuhtaaj</w>
CHA KAPAAJ</w>
ALI L</w>
ʼi kʼik</w>
á b
z ne
z ando</w>
yar sk</w>
y n
yn dale</w>
xuk saj</w>
xki tzʼihbʼaaj</w>
xki sikʼ</w>
xi tzʼihbʼanik</w>
xa maʼ</w>
xa bʼan</w>
wi kʼ
wi ik</w>
vi vos</w>
va ya</w>
va dos</w>
us ando</w>
u larik</w>
u do</w>
tra to</w>
to v</w>
to talmente</w>
to bʼjik</w>
tijin bʼal</w>
tien do</w>
ti tu
tes or
ter minar</w>
tend ría</w>
taqʼa aʼ</w>
tan tes</w>
t ro</w>
super fici
sue ño</w>
sin c
simp le</w>
si ikʼ</w>
se gún</w>
sa qu
sa das</w>
rumo lariik</w>
rukʼa ma
rukoʼ ljiik</w>
rukape bʼaal</w>
rubʼi raj</w>
ru ti
ri y</w>
resul ta</w>
respon sable</w>
respon sabi
resi stir</w>
regi ones</w>
recha zar</w>
re vista</w>
re ino</w>
re al</w>
ras no
rasno yarsk</w>
r or</w>
r in
qʼo ʼreej</w>
qʼa ta
qʼ jil</w>
quiz ás</w>
qo je
qa soʼ</w>
qa migohiil</w>
pudi eran</w>
prote ger
propi as</w>
pro vienen</w>
pro f
pr acti
pon ib
po damos</w>
pien so</w>
pien sas</w>
pandemi a</w>
pa se</w>
pa ci
p es</w>
ori gen</w>
or ob
orob ada</w>
opti mismo</w>
of re
of en
ob li
o dio</w>
nue vas</w>
ne as</w>
nanu bʼanam</w>
na yeew</w>
mon os</w>
mola ab</w>
mis tas</w>
mill ón</w>
mi te</w>
men ciona</w>
me rece</w>
mb o
ma estro</w>
m ni
llama do</w>
ll ena</w>
ll en
li y</w>
li mi
lengu aje</w>
le as</w>
lar nos</w>
lar go</w>
la v</w>
la rse</w>
l l</w>
kʼu xum</w>
ku yu
kito bʼaal</w>
ki tzʼirim</w>
ki nabʼeem</w>
ki kʼaxkilaal</w>
ki juʼjunaal</w>
ki hermano</w>
ju ven
ji il</w>
jal jik</w>
j orobada</w>
j an
is ra
iru koʼleej</w>
iru kowej</w>
iru jal</w>
iru chih</w>
inu b</w>
inter és</w>
inqʼi jej</w>
inqa tobʼeej</w>
inki nabʼeej</w>
inki jal</w>
inki chop</w>
ina yeew</w>
imag en</w>
ile món</w>
ide o</w>
ib a</w>
i qʼoom</w>
i jool</w>
hon or</w>
ho gares</w>
hab ría</w>
hab lan</w>
ha ría</w>
gl és</w>
frecu encia</w>
fec tos</w>
f útbol</w>
exper tos</w>
exi stencia</w>
eter na</w>
estudi os</w>
estudi antes</w>
escri tores</w>
es pa
emo cional</w>
ele gi
ejemp los</w>
ehtʼali maj</w>
e v</w>
e ces</w>
domin go</w>
diseñ o</w>
dis puestos</w>
dis ponib
dis ci
diri ge</w>
dici endo</w>
di miento</w>
di era</w>
desta ca</w>
descu bierto</w>
des ast
demostra rle</w>
deci di
deber ías</w>
de volver
de c
d ro
cónyu ge</w>
cuad ro</w>
cu al</w>
cre ar</w>
costu mbre</w>
corre cto</w>
consi der
con diciones</w>
comuni cación</w>
comp en
cli ma</w>
ciudad anos</w>
chʼuwa ʼ
ca sados</w>
ca das</w>
bʼe ho
bus can</w>
b o</w>
b lan
ar los</w>
antigu o</w>
ansi edad</w>
an gu
ami ga</w>
aj tij
aci onal</w>
abus os</w>
abund ancia</w>
ab les</w>
a molaabʼ</w>
a lar
Yu ʼnaak</w>
Yu riy</w>
Y a</w>
Xu bʼan</w>
Wi laʼ</w>
Ver sión</w>
V la
V ideo</w>
Tzʼ uuy</w>
Ti enen</w>
TZʼI R</w>
T yndale</w>
Su s</w>
S on</w>
S ara</w>
Ru mania</w>
Ra aj</w>
Po d
Pien sa</w>
PU E
P u
P ri
P en
P ar
OBJE CIÓN</w>
O P
No vo
NU EST
N acional</w>
Mu chos</w>
M AT
Liu dmila</w>
L o
L a
Ki ev</w>
KO RIK</w>
K rasnoyarsk</w>
Jerusal én</w>
Jan et</w>
IR AAJ</w>
IN A
IMA DA</w>
I I
Ho lohik</w>
HAC ER</w>
H ER
HER MAN
G ri
G re
F ilemón</w>
EHT ALIL</w>
E htalil</w>
Deb ería</w>
D O</w>
Anato liy</w>
An t
Ale mania</w>
AN IMADA</w>
7 8</w>
6 9</w>
6 7</w>
6 2</w>
200 8</w>
199 7</w>
199 3</w>
19 8
10 3</w>
1 39</w>
ʼa j</w>
é tica</w>
é ramos</w>
á no
Á frica</w>
yowa bʼjiik</w>
yot ʼ</w>
yeja al</w>
xu tz</w>
xqa tzʼihbʼaaj</w>
xqa req</w>
xo kik</w>
xnu tijej</w>
xnu bʼan</w>
xki q</w>
xi ʼ
wi hik</w>
weh t</w>
waxa qiibʼ</w>
wach eej</w>
w amigo</w>
vivi mos</w>
via jar</w>
uni ci
u lum</w>
tu vi
tri ste
triste za</w>
toj bʼal</w>
tiru jotʼ</w>
ti yoʼjik</w>
ti o</w>
ti go</w>
ter ísti
tend rás</w>
ten gas</w>
tar le</w>
t é</w>
t y</w>
suq b</w>
suel en</w>
stri to</w>
stri cciones</w>
sti anas</w>
sol dado</w>
so la</w>
si qʼjil</w>
sexu alidad</w>
se rio</w>
se jo</w>
se as</w>
san guí
salv ará</w>
sab ios</w>
sab es</w>
s ten
s ki</w>
s inik</w>
rutoo bʼjiik</w>
rukʼama riik</w>
rukoj om</w>
ruko w
ru tiij</w>
ru santo</w>
ru mb
ru ko</w>
ro qʼo
ro jos</w>
ri xqʼuun</w>
religi osas</w>
reli ik</w>
rela tos</w>
regist ro</w>
re stricciones</w>
re e
ree y</w>
re ac
r las</w>
qʼ un
qʼ oj
qojki tobʼeej</w>
qoje lik</w>
qa tiʼjolal</w>
qa juʼjunaal</w>
qa bʼeeh</w>
pue dan</w>
prácti cos</w>
principa l</w>
pres entó</w>
preocu par
pre fi
polí ticos</w>
permi ti
per don
per dieron</w>
pedi rle</w>
pe lo
pas ando</w>
pahqa ljik</w>
p l
osi ble</w>
opini ón</w>
oj os</w>
ob ras</w>
nu paat</w>
nega tivos</w>
ne g
naki wuktiik</w>
naciona les</w>
nabʼ jiik</w>
na pahqaaj</w>
na ciones</w>
mue ve</w>
most ró</w>
mor al</w>
mili tar</w>
mi so</w>
mi r</w>
menti ras</w>
men udo</w>
mej ores</w>
me c
m í
lógi co</w>
logra do</w>
li dades</w>
li bre</w>
le jos</w>
lajee bʼ</w>
la da</w>
l us
l lar</w>
kʼu taaj</w>
kʼu hbʼa
kʼach lik</w>
kʼa l</w>
kuy bʼal</w>
kun chelaal</w>
ko va</w>
ki yabʼilaal</w>
ki patinik</w>
ka qrik</w>
k ansil</w>
jal wacheej</w>
ixo waal</w>
isra eli
iru chop</w>
instru cciones</w>
inqa tahqeej</w>
inqa kowej</w>
inki suqkileej</w>
inki min</w>
inki kuy</w>
inka pe
indi ca</w>
ina sikʼ</w>
in reqarik</w>
in q</w>
in glés</w>
imp osible</w>
im patinik</w>
hac ía</w>
gun o</w>
g re
fuer as</w>
fr acciones</w>
fir me</w>
ex presión</w>
estuvi era</w>
esti lo</w>
esta mento</w>
er to</w>
entra n</w>
enseñ ar</w>
encar g
encan ta</w>
en cuen
elec tri
eh t</w>
e gas</w>
e di
e dades</w>
diver siones</w>
dio ses</w>
di v
di ría</w>
di rec
dese os</w>
des apare
deci dido</w>
deber ían</w>
de presión</w>
de jan</w>
de ja
de cep
dar án</w>
cu esti
cu a
cre ado</w>
copi as</w>
confir mados</w>
con tigo</w>
con migo</w>
compro miso</w>
comp u
com par
ci en
chʼu miil</w>
chi cas</w>
cha reel</w>
cha maj</w>
cari ñ
car ac
carac terísti
cambi ado</w>
ca be
cabe za</w>
ca ba</w>
c ina</w>
bʼi hnaleej</w>
ble mente</w>
blan cos</w>
bi ológi
b oni
b ar
aña de</w>
ayudar me</w>
aweh kʼeen</w>
aw ansil</w>
arre pen
ar ca</w>
ano v</w>
ame na
aj tzʼuhkrisaneel</w>
aj kʼaxool</w>
agradeci dos</w>
actu al</w>
acep tar</w>
acep ta</w>
a taj</w>
a qʼorom</w>
a prueba</w>
a paat</w>
X ti</w>
X KʼUL
XKʼUL JIK</w>
W I
Uni das</w>
U N</w>
TA S</w>
Si g
Res puestas</w>
RU U
RU QʼO
RUQʼO RO
RUQʼORO M</w>
Qui énes</w>
Por que</w>
PL ICA</w>
N aciones</w>
Mun dial</w>
Mar ía</w>
M aj</w>
Kon stan
Ko ruman</w>
Ju icio</w>
Ju eces</w>
Iru yeew</w>
Inter nacional</w>
IM PLICA</w>
I v
He ather</w>
Gri egas</w>
Evangeli o</w>
Es toy</w>
En t
Di strito</w>
Di s
Cri stianas</w>
Con clusión</w>
Cha jreet</w>
2 3
14 4000</w>
ʼ il</w>
ó mi
í do</w>
é rica</w>
ár bol</w>
án cer</w>
Ñ AN
z mo</w>
z ada</w>
yu ʼ
yoj om</w>
y ing</w>
xu sach</w>
xu pahqaaj</w>
xu chih</w>
xki tzʼap</w>
xki pahqaaj</w>
xjal jik</w>
xa mano</w>
wu quu
vícti ma</w>
vuel va</w>
vivi rán</w>
ven cer</w>
ve ri
ve amos</w>
us cri
unici pal</w>
u hta
tí n</w>
tzʼapa abʼ</w>
tuqki laal</w>
tr ación</w>
toh inik</w>
to ʼ
tiki min</w>
tibʼka l</w>
temp er
te le
te j</w>
tar nos</w>
ta lle
t ículo</w>
t ora</w>
t h</w>
sufri endo</w>
suf re</w>
su l
so lici
simp lemente</w>
si tio</w>
segui rá</w>
sal e</w>
sabi o</w>
sab a</w>
sa q
s ó</w>
s uu
s ma</w>
s en</w>
rá pi
ruto bʼjiik</w>
ruqʼor arik</w>
ruqʼi jiil</w>
rumb o</w>
rukʼu liik</w>
rukana aʼ</w>
ruka paam</w>
ruka paaj</w>
ru kʼuhtaam</w>
ru kʼi
ru kʼachaabʼ</w>
ru chiiʼ</w>
ru chi
ro jik</w>
ro de
ri j
resuci tar</w>
resu men</w>
respe tu
respe tar</w>
recur sos</w>
recu er
reali zar</w>
re para
re em</w>
ra í
r í
r ac
qʼor ol</w>
qui eran</w>
que tas</w>
qu yʼeem</w>
qu es</w>
qa tibʼkaal</w>
q ansil</w>
pág inas</w>
pu si
profes or</w>
profe ta</w>
prob ab
probab lemente</w>
presen tan</w>
predi can</w>
pon gan</w>
pod ían</w>
pl ina</w>
pi zar
peque ño</w>
pelo ta</w>
pele tohinik</w>
pedi mos</w>
pe l
pel ícu
pe cados</w>
pas an</w>
pap el</w>
pa na
p lo
p eso</w>
or k</w>
or gi
oca sión</w>
o qʼik</w>
o ambi
nu familia</w>
neutra l</w>
naru korsam</w>
naqa qʼorom</w>
naki yeʼem</w>
na r</w>
médi cos</w>
mun di
mu cha
ministe ri
mini st
min ooj</w>
mi ra</w>
menti ra</w>
medi oambi
medi da</w>
mantener nos</w>
m inu
m era</w>
lí der</w>
lí de
líde res</w>
lu char</w>
loqʼ em</w>
logr ó</w>
lo om</w>
lo oj</w>
lo g
llev aba</w>
lleg ará</w>
lle gado</w>
ll ying</w>
limpi a</w>
li sto</w>
l ó</w>
l inik</w>
kʼuhta neel</w>
kuxi saj</w>
ku yʼinik</w>
ko reʼ</w>
kito b</w>
kibʼi ram</w>
ki yeʼem</w>
ki tumiin</w>
ki tiʼjolal</w>
ki korsam</w>
ki ik</w>
kaʼ chareel</w>
juven tud</w>
jot ʼooj</w>
jot ʼarik</w>
jin e
jine tes</w>
jar dí
jardí n</w>
ja b</w>
iru jotʼ</w>
iru jalwacheej</w>
iri xowaaj</w>
inte lig
inqu yeej</w>
inqa b</w>
inki loqʼej</w>
inki jotʼ</w>
influ ir</w>
in yoʼjik</w>
in yeʼwik</w>
in o
in fi
imp on
ili p</w>
idio mas</w>
identi dad</w>
hu mil
hu manas</w>
hu ir</w>
homo sexualidad</w>
her moso</w>
he re
hacer nos</w>
ha yan</w>
ha lla
h kʼ
h aj</w>
gru pos</w>
g on
g an
g ación</w>
fortale ce</w>
fon do</w>
fici os</w>
ex pre
espiritu almente</w>
espe cífi
esfuer zos</w>
es con
er kin</w>
ener gía</w>
ene migo</w>
elec tr
ej ército</w>
ej er
efec tos</w>
e difi
e cha
distin tos</w>
disci plina</w>
diferen cia</w>
die zmo</w>
destrui dos</w>
des arro
defen der
deci dió</w>
deci da</w>
de t
de cía</w>
dar ía</w>
dar les</w>
d é</w>
cump le</w>
convers aciones</w>
conver ti
conven cido</w>
cont inu
cont in
cono zca</w>
congreg aciones</w>
conf li
con de
con clu
comple tamente</w>
comen tarios</w>
com er</w>
cla ra</w>
ciu dades</w>
ci eron</w>
ci entos</w>
ci al</w>
chi kiwach</w>
chi kinaah</w>
chi cos</w>
ch anik</w>
ce a
car á</w>
car on</w>
can te</w>
can ciones</w>
c áncer</w>
c la</w>
bu llying</w>
bomb eros</w>
benefici os</w>
bebi da</w>
ban dera</w>
b á
az a
at re
aspe cto</w>
asegu ra
ar c
ani smo</w>
angu sti
anci ano</w>
an s
alcan zar
al ter
ajtij ineel</w>
aj taqʼaneel</w>
agra de
afir ma
ac arías</w>
a ta
a por
a mar</w>
a mar
a kapaam</w>
a am</w>
Z acarías</w>
Y ork</w>
Y o</w>
Y erkin</w>
Va sil</w>
Ti mes</w>
T u
T estamento</w>
So lo</w>
Servi cio</w>
Sal mos</w>
S é</w>
S te
S an
Re pública</w>
Re gi
RUU Kʼ</w>
Qui ere</w>
Qu e</w>
Qa tijej</w>
Qa jaaw</w>
Q i
Q AH
Pre di
P ilip</w>
P E
Nuest ra</w>
Nue va</w>
Na qa
Ma ga
MA ʼ</w>
M unicipal</w>
L yu
Jun eliik</w>
I nu
Ha sta</w>
Gu ar
Ge orgi
E li
E cono
E J
Di ce</w>
Cuán do</w>
Chu wach</w>
Cha yeew</w>
Cha pahqaaj</w>
CHA TZʼIR</w>
B e
Ar tículo</w>
AH K</w>
A cep
8 4</w>
6 1</w>
5 00</w>
4 9
200 6</w>
200 2</w>
199 6</w>
últi mo</w>
ú meros</w>
í n</w>
é poca</w>
áno v</w>
Á R
ÁR ATE</w>
za dores</w>
z camos</w>
yowa bʼjik</w>
xqa qʼor</w>
xoj ki
xki kʼuhtaaj</w>
xki b</w>
xat ki
x tohqʼik</w>
x la
x b</w>
w o
w i</w>
w anima</w>
vivi endo</w>
vi vía</w>
vi ento</w>
vi endo</w>
vi das</w>
vi aje</w>
vesti r</w>
veh ículo</w>
ve je
v és</w>
v i</w>
ux b</w>
us ó</w>
us an</w>
u sa
tí tulos</w>
tzʼira riik</w>
tzʼapa rik</w>
trans fu
transfu siones</w>
tradu cciones</w>
tra i
ton e
to bʼeem</w>
tikʼa a</w>
ti qʼaam</w>
ti pos</w>
ti n</w>
tend remos</w>
ten taciones</w>
te el</w>
tan tas</w>
talle res</w>
ta woʼ</w>
ta reas</w>
ta ra</w>
ta dora</w>
t í</w>
t én
t h
sustitu torio</w>
super vi
suf ren</w>
suce dió</w>
su peri
st ó</w>
st ó
st es</w>
si ga</w>
si entes</w>
si bi
servi rle</w>
seri cor
senti rá</w>
senti rse</w>
se lo</w>
sanguí neas</w>
salv ar</w>
sac rifi
sa kʼa
s í
ruku xik</w>
ruka nabʼjiik</w>
rubʼi rjiik</w>
ru taqʼa
ru kʼul</w>
ru korik</w>
ru ja
ru chopom</w>
ru bʼ</w>
rij bʼik</w>
ri or</w>
ri da</w>
resul tados</w>
respe cto</w>
resol ver</w>
relaciona das</w>
reg ún
re quisi
requisi tos</w>
re ina
re comen
r ó
qʼun il</w>
qʼuh teel</w>
qʼa ʼ</w>
qʼa t
qoj wihʼik</w>
qa toobʼjik</w>
qa qʼorom</w>
qa moloj</w>
qa kojbʼal</w>
q aj</w>
pro ye
pregun te</w>
prefi eren</w>
pod remos</w>
po b
pesi mismo</w>
permane cer</w>
per ten
pen sado</w>
pele to</w>
pas ará</w>
pala w</w>
osi dad</w>
organi zar</w>
or o</w>
or gu
or ariik</w>
op ciones</w>
ob stante</w>
nu soʼ</w>
nu jalam</w>
nu haaʼ</w>
nu bʼanam</w>
neces ario</w>
naʼa chihiim</w>
naru qʼorom</w>
naru kor
naqa tiqʼaam</w>
nami ento</w>
mun es</w>
mon ía</w>
mo ria</w>
mil las</w>
mi sericor
me moria</w>
mb a</w>
may iij</w>
materi ales</w>
mal vados</w>
ma t</w>
ma do</w>
m ú
m laj</w>
m jiik</w>
lla mar</w>
le años</w>
lac er</w>
la das</w>
l los</w>
kuy uuj</w>
ku xoq</w>
ku chʼihil</w>
ksan a</w>
kor jik</w>
kiru pinik</w>
kin yoʼjik</w>
kibʼi rinik</w>
ki tijem</w>
ki kimik</w>
kax lan</w>
kan saj</w>
ka r</w>
ka migo</w>
ka jaaw</w>
ka h
k anima</w>
ju z
jo laal</w>
ji low</w>
iru tiʼbʼisaj</w>
iru qahsaj</w>
invi tamos</w>
inu yeew</w>
inter nacionales</w>
inte re
inkito j</w>
inki ʼan</w>
inki xowaaj</w>
inki sikʼ</w>
infi erno</w>
ina kuy</w>
in yohkik</w>
in ta</w>
in q
in os</w>
in kʼihik</w>
in ki</w>
imag ina
igu al
igual dad</w>
i samaj</w>
i rá</w>
i r
i ci
hor mi
homo sexuales</w>
ho mas</w>
ho l
ha riik</w>
h n</w>
gus tan</w>
goberna r</w>
goberna ndo</w>
gi ó</w>
gener oso</w>
gar anti
ga vio
g al</w>
for mar</w>
fo lleto</w>
f re</w>
f er
extre mista</w>
experi encias</w>
ex plo
estu vieron</w>
esta rán</w>
est rel
especi ali
er á</w>
enten der
ener g
encont ró</w>
en da</w>
eli mina
electr óni
el mente</w>
e w</w>
e te</w>
du elo</w>
du da</w>
dis tan
di j
di g
di c
di bu
detal le</w>
destru ir</w>
descubri ó</w>
descri be</w>
des can
den ó</w>
de z</w>
de fectos</w>
cé lu
cuán do</w>
cumpli miento</w>
cump leaños</w>
cui da</w>
cuesti ones</w>
cu bri
cristi anismo</w>
cre ía</w>
cre ciendo</w>
cor rec
contro la</w>
cono cemos</w>
con so
con segui
compañ ías</w>
come tido</w>
com ún</w>
com para
co munes</w>
co fre</w>
cla ves</w>
cion ó</w>
chʼuwaʼ risaj</w>
chʼuwa ʼreej</w>
cha kuy</w>
ch ej</w>
cau sado</w>
cariñ oso</w>
característi cas</w>
car re
car le</w>
camp o</w>
ca sti
ca er</w>
c ent
bʼi rinik</w>
bus que</w>
ba al</w>
b ar</w>
awu tkeel</w>
au tén
au men
asamb lea</w>
arrepen ti
arreg larnos</w>
apósto les</w>
apren demos</w>
anima do</w>
ani mar</w>
ana riik</w>
aj tzʼihbʼ</w>
aj kʼuhtaneel</w>
agre sión</w>
ador amos</w>
ade cu
acha aqʼ</w>
acab ar</w>
ac t
a x</w>
a tal</w>
a mb
a las</w>
a fron
a a
Y e
U S
Ti qʼoroq</w>
T homas</w>
Sig nifi
Se a</w>
SA R</w>
S E</w>
Ro m
Re loj</w>
RI IK</w>
RE S</w>
Qui z
Q akʼa
Po demos</w>
Par ti
PAHQ ANIK</w>
P á
P ÁRATE</w>
P regún
P on
P arte</w>
OP IN
O r
O ksana</w>
Ni zh
N úmeros</w>
Mu cha</w>
Mik e</w>
M I
L I
L A
Kʼ uhbʼaal</w>
In kamanik</w>
I OS</w>
HERMAN O</w>
Ge of
F inal</w>
Es tu
Ent onces</w>
En contra
D ónde</w>
D anos</w>
Cre es</w>
Con sejo</w>
Cha qʼor</w>
C la
C ar
Bʼ AN</w>
Anali cemos</w>
AW EH</w>
2 5
1 44</w>
óni o</w>
ísti ca</w>
én dice</w>
é monos</w>
á ro
áro vsk</w>
á li
á bado</w>
z al</w>
yeʼ ew</w>
xu tikʼaaʼ</w>
xu tik</w>
xu korsaj</w>
xo wanik</w>
xnu req</w>
xnu qʼor</w>
xnu kanaaʼ</w>
xki tik</w>
xki sik</w>
xki saj</w>
xki chih</w>
x yoj</w>
x roqʼo
x chalik</w>
wuquu bʼ</w>
wu kʼem</w>
wi saj</w>
w ánima</w>
w uuk</w>
w s</w>
w aj</w>
vu l
visi bles</w>
vide os</w>
vi va</w>
vi tlana</w>
ver gon
ve o</w>
v org</w>
uscri tos</w>
un en</w>
u semos</w>
u se</w>
u ros</w>
u liik</w>
tzʼuh bʼ</w>
tzʼa ʼaj</w>
tu des</w>
tri ste</w>
tre n</w>
tra vés</w>
toʼ ool</w>
tori as</w>
toler ancia</w>
toh q</w>
to tal</w>
to mó</w>
tiki jotʼ</w>
ter ía</w>
ter res</w>
ten tación</w>
temper aturas</w>
te ística</w>
tar ás</w>
ta das</w>
ta ble</w>
t se
t he</w>
t ha</w>
superi or</w>
super in
superin tend
su ya</w>
su ici
su c
st os</w>
solu ción</w>
solda dos</w>
sol ina</w>
soci al</w>
sinc ero</w>
sier vo</w>
sien ta</w>
sibi r
sibir sk</w>
si vo</w>
seʼ laaj</w>
sexu almente</w>
segui da</w>
satisf ac
satis fe
sal va</w>
sacrifi cio</w>
s é
s mos</w>
s esi
s c
sc ú</w>
ruto h
runabʼ jik</w>
rukʼu lum</w>
rukape bʼjik</w>
ru tijem</w>
ru sach</w>
ru qʼah
ru qahsam</w>
ru pa
ru ni
ru holohik</w>
ri kʼ
res er
ren ta</w>
relaciona dos</w>
refugi ados</w>
refi ere</w>
re emp
re compen
re comien
ra íso</w>
ra to</w>
r y</w>
r ando</w>
r aciones</w>
qʼoj arik</w>
quedar se</w>
que dado</w>
qoj raaj</w>
qa waʼ</w>
qa paat</w>
qa kʼaxooj</w>
qa kʼaxkilaal</w>
q oj</w>
q eht</w>
públi co</w>
publi ca
pu hbʼa
puhbʼa nik</w>
prohib i
prob able</w>
pro funda
profunda mente</w>
prepara rse</w>
pre siona
po día</w>
pla sma</w>
pla quetas</w>
pizar ra</w>
pi e</w>
perju dici
perdona r</w>
perd ón</w>
perd ona</w>
pen sando</w>
peligro so</w>
pañ a</w>
parti cu
pare cido</w>
pare cen</w>
pahqa am</w>
pa mos</w>
pa gar</w>
p á
p ción</w>
orgu llo
or oj</w>
or no</w>
or e</w>
ocur re</w>
ocu pa
obe dientes</w>
obe deci
o yentes</w>
o per
nu naah</w>
ne y</w>
naʼa wukʼem</w>
naʼa kojom</w>
natu ral</w>
nato qʼaaʼ</w>
naru taqʼaniik</w>
naqa yeʼem</w>
naqa reqem</w>
naki kojom</w>
na kapaaj</w>
n y
n tse
n cho</w>
mú sica</w>
muest ran</w>
mpe ch</w>
mp ios</w>
mis t</w>
min os</w>
mi temos</w>
men ta</w>
medi a</w>
medi a
mantener se</w>
man uscritos</w>
ma am</w>
m y</w>
m ina</w>
m ero</w>
lógi ca</w>
lus tración</w>
lo oq</w>
lo gía</w>
li mpios</w>
lengu a</w>
le y
le an</w>
lab a</w>
la rio</w>
kʼo loq</w>
kʼi h
kʼa marik</w>
kʼ raam</w>
koʼ ljiik</w>
kor sjik</w>
kor simaj</w>
kin inqʼijej</w>
kikʼa mam</w>
kikʼ eel</w>
kijotʼ om</w>
ki wiiʼ</w>
ki tinamitaal</w>
ki kʼaxooj</w>
ki kʼachaabʼ</w>
ki huuj</w>
ki haʼ</w>
ki bʼihnaal</w>
kape b</w>
kan sam</w>
ka wa
k inqʼorik</w>
jun tzuhbʼ</w>
ju mpech</w>
ju ez</w>
jos qʼiil</w>
jan kʼal</w>
ja te</w>
j ino</w>
j en</w>
j arse</w>
iru nimaj</w>
iru korsaj</w>
iru chʼaq</w>
iru bʼihnaleej</w>
invi tación</w>
inu kuy</w>
inqi kʼsaj</w>
inqa qahsaj</w>
inqa mol</w>
inqa chʼikaaʼ</w>
inqa bʼiraj</w>
inki tob</w>
inki taqʼaaj</w>
inki saj</w>
inki bʼiraj</w>
inkape bʼinik</w>
inka qrik</w>
ini lwik</w>
ini cia</w>
in tro
in media
in c
in bʼanarik</w>
impul sos</w>
impon en</w>
impi de</w>
ib an</w>
i loq</w>
humani taria</w>
ht jik</w>
honra dez</w>
ho spi
hici era</w>
he chos</w>
hala k</w>
hab lado</w>
hab la
ha ʼ
ha rías</w>
ha gamos</w>
ha b</w>
gü edad</w>
goberna ntes</w>
go v</w>
ga solina</w>
for ni
for man</w>
fi cina</w>
feren cia</w>
f re
f er</w>
expli car</w>
expli cación</w>
exac ta</w>
evi ta</w>
estrel las</w>
estre cha</w>
estable ció</w>
especi almente</w>
esfuer zan</w>
er ror</w>
equi lib
enni fer</w>
encuen tran</w>
encontra mos</w>
en tras</w>
en seguida</w>
empe zaron</w>
empe cé</w>
emo ciones</w>
emo ciona
emb a
elegi mos</w>
ehtʼali ij</w>
e uros</w>
e con
econ ómi
du ro</w>
du ele</w>
doc tora</w>
do y</w>
do minar</w>
diver ti
dist ribu
disfru temos</w>
dis lav</w>
di go</w>
di encia</w>
di a
destrui da</w>
destru ido</w>
des pla
des a
dej ará</w>
dej aron</w>
de lante</w>
dar se</w>
dar on</w>
da ñar</w>
da mente</w>
d y</w>
d entes</w>
cu esta</w>
cu erda</w>
cu alidad</w>
cru z</w>
conver sar</w>
conven ció</w>
conten tos</w>
consu l
consi dera</w>
cono cerlo</w>
con tenido</w>
con serv
con qui
con fí
con du
con centra
comuni car
compu tadora</w>
colab orar</w>
cla ridad</w>
ci mientos</w>
cho qik</w>
chi q</w>
cha tzʼir</w>
cha tzʼihbʼaaj</w>
cha r
cha jreet</w>
cer le</w>
cea c</w>
car ne</w>
can o</w>
cab al
ca sadas</w>
c anti
canti dad</w>
c ales</w>
bʼi sam</w>
bʼana riik</w>
bʼ iik</w>
bus cando</w>
bon dad</w>
bio grafía</w>
bier an</w>
bi tha</w>
bautizar me</w>
bas sa</w>
ba se</w>
b r
ayudar te</w>
at rás</w>
arc ángel</w>
ar é</w>
ar ás</w>
ar ries
ar os
aqu ellos</w>
apoy an</w>
apo ya</w>
ap éndice</w>
anti güedad</w>
an te
an d</w>
an cla</w>
ama ba</w>
am érica</w>
aleg ra</w>
aj ot
ai zal</w>
afir ma</w>
adul tos</w>
ad ora</w>
acu c</w>
aco san</w>
acha rik</w>
ab árovsk</w>
ab uso</w>
a yu</w>
a ves</w>
a tinamiit</w>
a qʼorbʼal</w>
a qahsam</w>
a prob
a par
a lab
a la</w>
a kʼulum</w>
a kooch</w>
a holohik</w>
a do
a bre</w>
Y el
Y aros
Xki koj</w>
X KI
Vla dislav</w>
U C
To dopoderoso</w>
Ta bitha</w>
T ú</w>
T Ú</w>
T e
T ar
T IN
Signifi ca</w>
Ser á</w>
SA ÍAS</w>
S vitlana</w>
S ha
S cien
Rus sia</w>
RO MAN
ROMAN OS</w>
R ÍAS</w>
R ob
R L
Qi low</w>
Pá vel</w>
Pue des</w>
Pri mera</w>
Pre gun
Per ceac</w>
Pe ch
Pa raíso</w>
PA BL
PABL E</w>
P r
P EN
PEN SAR</w>
Novo sibirsk</w>
Ni kʼ</w>
Ne ws</w>
Na a</w>
NUEST RO</w>
N i</w>
Mu y</w>
Mu chas</w>
Mo scú</w>
Man dy</w>
M al
La men
LA RA</w>
L PABLE</w>
Jes sica</w>
J ennifer</w>
J abárovsk</w>
J A
Iru kʼam</w>
I mitemos</w>
I SAÍAS</w>
Hai tí</w>
Hab acuc</w>
HA RÍAS</w>
H ace</w>
Gu é
Gu terres</w>
F u
F i
F aizal</w>
Evangeli zadores</w>
Es tas</w>
En sé
Econo mist</w>
Dis fru
Des pués</w>
Deb er
DE C
DEC LARA</w>
D o
D OS</w>
D AT
DAT OS</w>
Cuán to</w>
Cu anto</w>
Con templo</w>
Cla ro</w>
Cha suqkileej</w>
Cha chih</w>
Cha bʼiraj</w>
CU LPABLE</w>
CHA RIIK</w>
C ON
B re
B i
B en
Apren da</w>
Ant ónio</w>
Ale x</w>
Al gunas</w>
Aja bʼees</w>
A yu
A ga
A bi
A U
9 1</w>
9 0</w>
8 0</w>
7 9</w>
6 8</w>
3 6
20 0</w>
2 9
199 1</w>
10 5</w>
1 5
ʼi il</w>
ó vgorod</w>
ó r
ín ese</w>
í l</w>
éndo se</w>
é c
ándo le</w>
ÑAN Z
ÑANZ AS</w>
É N
zne t
z ni</w>
z co</w>
z can</w>
yu qʼ
y l
xu k</w>
xu chuk</w>
xqa jik</w>
xoj ru
xnu jal</w>
xla bʼal</w>
xkʼu loq</w>
xki toqʼaaʼ</w>
xki tijej</w>
xki qʼehtaaj</w>
xki kʼam</w>
xi b</w>
xa ti
xati kʼik</w>
x wilow</w>
x wikʼraaj</w>
x tobʼjik</w>
x sacharik</w>
x korsanik</w>
x eem</w>
wi ib</w>
weh kʼeen</w>
wach inik</w>
w e
w ansil</w>
w al</w>
vuel tas</w>
vol vió</w>
vo y</w>
vo ri
vivi ó</w>
vi van</w>
vi sión</w>
vi du
vi aj
veri gü
ver á</w>
ver nos</w>
venta na</w>
venta jas</w>
ve ía</w>
ve remos</w>
us as</w>
uni dades</w>
un ca</w>
uh kri
tzʼuh kʼ
tzʼira rik</w>
tzʼihbʼa neel</w>
tzʼa p
tzʼap lik</w>
tzʼ eet</w>
tu si
tribu nales</w>
traba jan</w>
tra tó</w>
tra taron</w>
tra s
tori os</w>
too bʼeej</w>
toma mos</w>
to me</w>
to man</w>
to ma</w>
to dopoderoso</w>
to cante</w>
tiʼ eloq</w>
ti ʼikʼik</w>
ti tahqaaljik</w>
testi monio</w>
ten ci
te oría</w>
te mor</w>
tal la</w>
ta rias</w>
ta ran</w>
ta mientos</w>
ta miento</w>
ta ban</w>
t era</w>
sí mbo
superfici e</w>
su elo</w>
su b
stu mb
solu cionar</w>
so s
so res</w>
so por
so l</w>
sinti ó</w>
sig los</w>
sien tan</w>
seri e</w>
ser ían</w>
segu ramente</w>
secre tario</w>
se quías</w>
se manas</w>
se gunda</w>
se gun
salv ación</w>
sali ó</w>
sali endo</w>
sakʼa aj</w>
rutoh qʼ
rutohqʼ iik</w>
ruto bʼaal</w>
rusacha m</w>
ruku xi
rukoʼ leem</w>
ruchi hariik</w>
ru yeʼaabʼ</w>
ru waʼ</w>
ru tzʼirariik</w>
ru tiʼkiil</w>
ru tiʼjolal</w>
ru sas</w>
ru nin
ru loq</w>
ru kʼax</w>
ru k
ru halakʼuun</w>
ru bʼehsaj</w>
ru b
ro b
ri co</w>
ri b</w>
resuci tó</w>
resuci tarán</w>
responsabi lidad</w>
respon der</w>
respon der
respe ta</w>
resca tará</w>
represen ta</w>
reemp la
recomien da</w>
recibi ó</w>
reb el
re du
re conocen</w>
r la</w>
r acias</w>
qʼor ariik</w>
qʼe bʼe
qʼa a</w>
qʼ o</w>
qu ía</w>
qu í
qu en</w>
qoj yoʼjik</w>
qoj rukoʼleej</w>
qoj chol</w>
qo hoq</w>
qa tijem</w>
qa qʼorbʼal</w>
qa kojom</w>
qa halakʼuun</w>
pí dale</w>
pró xi
pró ji
próji mo</w>
prome tido</w>
proh í
prof esi
produ ce</w>
pro duc
pri ori
prepara r</w>
predi ca
pre mo</w>
posi tivo</w>
posi tivas</w>
pon ga</w>
polí ticas</w>
pod rías</w>
po dido</w>
po cas</w>
perten e
perso naj
peque ña</w>
pendi entes</w>
pelig ros</w>
pe dir</w>
pahqa ljiik</w>
pa l
p ik</w>
organiz ada</w>
oport unidades</w>
on e</w>
odi ar</w>
ob lig
o v</w>
o las</w>
o kri
okri naq</w>
o k
o h</w>
o fici
nu kʼulum</w>
nor mal</w>
no mb
ni dad</w>
neutra lidad</w>
ner vi
naʼa tijem</w>
naʼa chamam</w>
natura les</w>
naru wihʼik</w>
naru kuxi
narukuxi sam</w>
naru kojom</w>
nari sam</w>
naqa chamam</w>
naa ki
na ruka
na qʼ</w>
na ndo</w>
na lmente</w>
na chih</w>
mé sti
mucha cha</w>
mit en</w>
ministe rio</w>
mi tos</w>
mi tes</w>
mi sión</w>
men tales</w>
medi os</w>
me tro</w>
mani pu
ma pa</w>
lí mites</w>
lo jik</w>
llen o</w>
lle ga</w>
lec tores</w>
le en</w>
la ʼ
la v
la aʼ</w>
l or</w>
l las</w>
l keebʼ</w>
kor san</w>
koj bʼaal</w>
kini maniik</w>
ki yoʼjik</w>
ki yojom</w>
ki xqʼuun</w>
ki rutob</w>
ki na
ki kanaam</w>
ki kahnik</w>
ki chopom</w>
ki bʼehik</w>
ki bʼanik</w>
ke tel
kabʼ chel</w>
ka q
ka kʼuun</w>
judí os</w>
ju día</w>
joh toq</w>
jal jiik</w>
j ero</w>
iru req</w>
iru min</w>
iru kʼu
investi gación</w>
inu tyoxej</w>
inu kʼuhtaaj</w>
inu kʼax</w>
inter medio</w>
inte rior</w>
inqu yʼeej</w>
inqa tyoxej</w>
inqa sikʼ</w>
inqa kʼaxkileej</w>
ino c
inkʼa marik</w>
inku xik</w>
inki qʼoreej</w>
inki kowej</w>
inki kanaʼ</w>
inki chuk</w>
ini ci
ineh chanik</w>
indi vidu
ina tyooxeej</w>
ina pahqaaj</w>
in tzʼi
in tención</w>
in kininqʼijej</w>
in jaljik</w>
in defen
in co
in cen
impi da</w>
impe dir</w>
ile qʼ</w>
i saj</w>
i ram</w>
i lu
i cios</w>
hon ra</w>
hi stó
her mo
hac ían</w>
hab las</w>
ha ré</w>
ha rán</w>
ha gas</w>
h lik</w>
gu en
gra do</w>
gobier ne</w>
glo rifi
glo ria</w>
gi do</w>
geren cia</w>
gener osidad</w>
gavio ta</w>
ga dos</w>
forni cación</w>
fis cal</w>
fina n
fi esta</w>
fi elmente</w>
fal lo</w>
fa vori
f ran
f lo
f en
exper to</w>
existi do</w>
exi stir</w>
exac tamente</w>
ex pres
ev entos</w>
esti ma</w>
esper amos</w>
específi co</w>
espa da</w>
escri tas</w>
esco ger</w>
esca se
es fuerza</w>
er la</w>
entre vi
entre namiento</w>
entra ron</w>
ent reg
ent er
enga ñ
enfren tarse</w>
enfren tan</w>
enfer mo</w>
energ ías</w>
encu ent
en tusi
en ta</w>
en ik</w>
eli ge</w>
electri cidad</w>
ejer ci
e uro
e es</w>
dé bi
du das</w>
du dar</w>
dor as</w>
do mésti
dis positivos</w>
di vino</w>
di rá</w>
di fun
di an</w>
devolver les</w>
det rás</w>
destru yendo</w>
dest ro
despla zados</w>
des ánimo</w>
demostra do</w>
dej ó</w>
defender te</w>
defen der</w>
dedicar le</w>
deci rse</w>
de tener</w>
de li
da ble</w>
d án</w>
cumpli rá</w>
cumpli eron</w>
cumpli endo</w>
culpa bles</w>
cul tiv
cuen tas</w>
cualqui era</w>
cre o</w>
cre emos</w>
conven cidos</w>
contra dice</w>
cono cido</w>
confli cto</w>
confi s
comple ta</w>
compañ ero</w>
comp lacer</w>
comen zar</w>
come temos</w>
chʼa hn</w>
chaʼje em</w>
cha kʼax</w>
cha kowej</w>
celeb ra
cas arte</w>
car ía</w>
car tas</w>
capa ci
can ción</w>
cali dad</w>
ca mi
c le
c esi
c es
bá si
boni ta</w>
bo v</w>
beb é</w>
bauti zado</w>
ba san</w>
b al</w>
aʼ nam</w>
awa jaawriik</w>
aw anima</w>
au tor</w>
aspe ctos</w>
ar monía</w>
ar les</w>
ar la</w>
aqu ella</w>
apren dí</w>
apren dió</w>
anunci ó</w>
antigu os</w>
anteri or</w>
anima mos</w>
anima m</w>
angusti a</w>
ana rik</w>
an ooj</w>
amb os</w>
alimen taria</w>
ali vio</w>
al guno</w>
akʼa xki
aj toʼool</w>
aj qʼorol</w>
ai re</w>
agra de</w>
adul to</w>
ador an</w>
ad vierte</w>
actu almente</w>
activi dad</w>
aco stumb
acep te</w>
ac a
a van
a tiʼjolal</w>
a su
a qʼiij</w>
a parece</w>
a pahqanik</w>
a p</w>
a kʼaxooj</w>
a kowiil</w>
a kojom</w>
a f
a er
a bʼees</w>
a ansil</w>
Xki qʼor</w>
X a
V an</w>
Trabaj a</w>
TIN IK</w>
T or
T al</w>
Su premo</w>
Se amos</w>
SE ÑANZAS</w>
S us
S h
S ali
Ru mahk</w>
Rom án</w>
Ra kʼuun</w>
RUM AHK</w>
RL L
RLL H</w>
R ÓN</w>
R uni
Qʼ E
Qui ero</w>
Pregun tas</w>
Predi camos</w>
PUE DE</w>
PREGUN TAS</w>
PRE PARA</w>
PL AN</w>
PIZAR RÓN</w>
O tros</w>
No vgorod</w>
Nizh ny</w>
Ni zni</w>
N óvgorod</w>
N unca</w>
N aj
N a</w>
Mi entras</w>
Ma k
Ma hk</w>
Ma a
MAT EO</w>
M BI
Lyu dmila</w>
L ES</w>
KʼA CHARIIK</w>
K EH</w>
Iv án</w>
Iru kʼuhtaaj</w>
I G
Geof f</w>
G ran</w>
G racias</w>
G o
G E
F o
F e
Est os</w>
Es per
Ensé ñ
EST IG
EN SEÑANZAS</w>
E L
E F
Du rante</w>
Disfru te</w>
D er
Con tro
Co mp
Cha qahsaj</w>
C i
C hi
BÍBLIC AS</w>
An tes</w>
AN AL
ANAL Í
A verigü
A g
2 7
, 000</w>
ʼ y
ú znet
úznet so
úznetso v</w>
í na
ína te</w>
í gov</w>
éndo le</w>
ándo les</w>
án gu
ág ri
áb insk</w>
á sti
Á LI
ÁLI DA</w>
z oso</w>
z ik</w>
z equi
zequi el</w>
z ación</w>
yuʼ saj</w>
yuqʼ eej</w>
yoj ib</w>
yeja aʼ</w>
ye l
yel mo</w>
y n</w>
y est
yest vi
yestvi t</w>
y as</w>
y ab
xu taqʼaaʼ</w>
xu taqʼaaj</w>
xu sikʼ</w>
xu kapaaj</w>
xtzʼuhkri sjik</w>
xroqʼo maj</w>
xqʼ ehbʼik</w>
xqa koj</w>
xojru tzʼuhkrisaj</w>
xo w
xkʼu lik</w>
xki tzʼir</w>
xki chop</w>
xiʼ elik</w>
xi m</w>
xa koj</w>
xa kapaaj</w>
xa chih</w>
x rilow</w>
x ku
x kamanik</w>
x bʼaan</w>
wu yʼeej</w>
wu ch</w>
wa qiib</w>
wa h
wah qʼeq</w>
wa am</w>
w uum</w>
w er</w>
vo sto
vo ción</w>
vivi remos</w>
vi vían</w>
vi v</w>
ver lo</w>
venta ja</w>
ven d
veh ículos</w>
ve l
vel c
velc ro</w>
vali osas</w>
val oramos</w>
v ro
vro pol</w>
utili zó</w>
utili za</w>
uni dos</w>
ue lo</w>
u y
tʼ us
tí simo</w>
tzʼu y
tzʼih bʼjiik</w>
tzʼi ro
tzʼiro ol</w>
tzʼapa m</w>
tzuh b</w>
tu simaj</w>
tu ber
tranqui la</w>
trabaja dor</w>
tra ten</w>
tra tarse</w>
tra tado</w>
tra erá</w>
tori al</w>
tone ladas</w>
toma do</w>
tiru qʼat</w>
tiru jil</w>
tiki low</w>
ti qʼehbʼik</w>
ti gu
terri bles</w>
tener se</w>
temp ran
tempran o</w>
te rio</w>
te mas</w>
te jworg</w>
tar lo</w>
tar les</w>
tan tos</w>
ta tu
t ón</w>
t ta</w>
t si</w>
t ra</w>
t ese</w>
suc esos</w>
stu r
sto p
stop her</w>
sten sen</w>
st ía</w>
st ro
st ine</w>
solu ciona
sol ter
sin ce
since ridad</w>
sikʼa rik</w>
sigui ó</w>
signifi cado</w>
sig nación</w>
si ste
si mb
simb óli
si len
silen cio</w>
si ih</w>
si ete</w>
señ al</w>
ser ás</w>
sen sa
segui mos</w>
segui dor</w>
secre to</w>
se pa</w>
se das</w>
saqu m</w>
san tos</w>
sal en</w>
sab an</w>
sa aʼ</w>
s ábado</w>
s tiendo</w>
s acer
rí o</w>
rutzʼuhkri sjiik</w>
rutzʼuhkri sam</w>
rutzʼa ʼil</w>
rutzʼa ʼariik</w>
rutaqʼa bʼjiik</w>
runabʼ eem</w>
ruko tej</w>
ruja lariik</w>
ru tzʼihbʼjiik</w>
ru qʼijil</w>
ru poniik</w>
ru pahqanik</w>
ru na</w>
ru ju
ru j
ru huuj</w>
romp er</w>
ro tobʼil</w>
ro tas</w>
ro t
ritu s</w>
ri r</w>
ri is</w>
ri ente</w>
reuni rse</w>
respe tan</w>
reser va</w>
resca te</w>
res ta
registra ron</w>
regal os</w>
reg re
refle ja</w>
recuer de</w>
recu ad
recuad ro</w>
recibi do</w>
reci ben</w>
reac ciona
re z</w>
re yes</w>
re se</w>
re na</w>
re hk</w>
re ga
raí ces</w>
razona bles</w>
rajkaman oon</w>
raci al</w>
ra ry</w>
ra ba</w>
r los</w>
r anima</w>
qʼor o
qʼoro bʼjik</w>
qʼor al</w>
qʼi looj</w>
qʼebʼe m</w>
quí mi
quer ían</w>
quedar on</w>
que re
que o</w>
qu y</w>
qu tkeel</w>
qoj qʼuhtik</w>
qoj kimik</w>
qani mlaj</w>
qa to
qa s</w>
qa naah</w>
qa kanaaʼ</w>
qa jik</w>
qa Dios</w>
q an
pusi eron</w>
pun eet</w>
pu esta</w>
pu de</w>
propi edades</w>
profun do</w>
prob ar</w>
pro mueve</w>
pro gre
presen tar</w>
presen ta</w>
prepara da</w>
preocupa do</w>
pregun taba</w>
pre par
pre ju
preju icios</w>
pre curs
precurs or</w>
pre ce
practi car</w>
posi bles</w>
poner se</w>
pon oq</w>
poli cia</w>
po s
po bre</w>
pla zo</w>
pien ses</w>
pi ente</w>
pi ed
pi do</w>
pi dió</w>
perso nalmente</w>
perso nales</w>
permiti rá</w>
perjudici al</w>
perfec tos</w>
perdon e</w>
per seguir</w>
per segui
per man
peque ñas</w>
pelícu la</w>
pe re
pe c
pat iniik</w>
particu lar</w>
parti do</w>
pare zca</w>
par tir</w>
par ta
pala aw</w>
paci ente</w>
p si
orig ina
organiz aciones</w>
or ra
or denó</w>
or arle</w>
op ina</w>
on g</w>
oj o</w>
ocurri ó</w>
oca siones</w>
obstácu lo</w>
obede cen</w>
obede cemos</w>
obede ce</w>
ob serv
o vo</w>
o riik</w>
o presión</w>
o món</w>
o mni
o la</w>
o ficina</w>
o cé
o b</w>
nú mero</w>
nue ve</w>
nu tijem</w>
nu ra</w>
nu qʼabʼ</w>
nu kowiil</w>
nov ios</w>
no mbres</w>
nima m</w>
nim bʼik</w>
ni ña</w>
ni mo</w>
ni kov</w>
necesa rios</w>
necesa rias</w>
nebʼa aʼ</w>
naʼa kʼulum</w>
naʼa chihim</w>
naru poniik</w>
naru b</w>
naqa kʼachariik</w>
naki wihʼik</w>
naki taqʼaniik</w>
na q
na kuy</w>
n ígov</w>
n to</w>
n es</w>
mí nimo</w>
muri eron</w>
mundi cia</w>
mostra r</w>
mori mos</w>
mon ta
mol esta</w>
mini m</w>
mi rar</w>
mi dad</w>
mer ovo</w>
mec ani
mar ca</w>
mane jar</w>
man tienen</w>
man dó</w>
man da</w>
man d
man chan</w>
man cha
ma ra</w>
ma a</w>
lo qʼ</w>
llev aron</w>
llev aban</w>
lleg aron</w>
lle gan</w>
llama das</w>
lla nto</w>
lla mar
lla man</w>
limpi e
limpie za</w>
lib ra</w>
lib eran</w>
lib era</w>
li ya</w>
leg almente</w>
le ón</w>
le m
le j</w>
le erla</w>
le e</w>
la rá</w>
la i
la dos</w>
l ágri
kʼuh to
kʼu n
kʼih bʼik</w>
kʼi x
kʼa h
kʼa ah</w>
kuyu j</w>
ku tsk</w>
ku kʼem</w>
ku k
ko kiik</w>
kiʼ okik</w>
kini mam</w>
kikʼa h</w>
ki tuut</w>
ki tobʼinik</w>
ki lom</w>
ki ko</w>
ki kaxaro</w>
ki jotʼarik</w>
ki jalam</w>
ki chol</w>
ki anam</w>
kete loom</w>
kaxaro hil</w>
kax oon</w>
kawa a
kawaa yo</w>
kape bʼ
kaman oom</w>
kabʼ laj</w>
k ánima</w>
k y</w>
k oq</w>
jus tos</w>
jun tas</w>
ju chʼ</w>
ju bi
ji saj</w>
jen oʼq</w>
je ta</w>
je ej</w>
ja mos</w>
ja ba</w>
ixo waaj</w>
israeli tas</w>
iru suqbʼisaj</w>
iru mol</w>
iru kanaa</w>
iri saj</w>
invi ta</w>
inu req</w>
inu qahsaj</w>
intzʼi rik</w>
interes es</w>
interes ante</w>
inter nacional</w>
intelig entes</w>
inqa qʼahsaj</w>
inqa kanaʼ</w>
inqa k</w>
inqa jil</w>
inqa cham</w>
inq ixowaaj</w>
inmedia tamente</w>
inki yeʼew</w>
inki tzʼap</w>
inki kʼsaj</w>
ineh sjik</w>
inclu yen</w>
incen dios</w>
ina tobʼeej</w>
ina taq</w>
ina kʼam</w>
ina k</w>
ina b</w>
in volu
in visibles</w>
in stitu
in si
in qʼor
in qʼat
in mundicia</w>
in b</w>
impi dió</w>
imi tar</w>
imi tan</w>
im par
identifi car</w>
identifi ca</w>
i ral</w>
i mos</w>
i kʼ
i klik</w>
humil de</w>
human a</w>
hu bo</w>
hu bieran</w>
hormi gas</w>
hor ri
honra do</w>
homo sexual</w>
histó rico</w>
hici eran</w>
hi elo</w>
heri das</w>
here darán</w>
hacer le</w>
hablar le</w>
ha rás</w>
h á
h t</w>
h niik</w>
guen i</w>
gu é</w>
gu ridad</w>
gu en</w>
gri e
gran de</w>
gra ve
gra da</w>
gol pes</w>
gobier na</w>
gi p
g es</w>
físi ca</w>
funda mentales</w>
fu ego</w>
fru to</w>
forma do</w>
fis cal
fiscal ía</w>
fir mes</w>
fi de
fe ri
expul sión</w>
explo sión</w>
exac to</w>
ex clu
euro peo</w>
esta rás</w>
esfor zar
esfor zamos</w>
escuch en</w>
escribi r</w>
escribi eron</w>
escri tos</w>
escri to</w>
escri be</w>
es capa
er nes</w>
envi ar</w>
entusi as
entusias mo</w>
entre vista</w>
ent ina</w>
enseñ anza</w>
enfren tamientos</w>
encontra ron</w>
encar ce
en vían</w>
en ven
en veje
en tien
en ti
en tales</w>
en o
empe or
emba raz
elimina rá</w>
eli ábinsk</w>
electróni cos</w>
el én</w>
el el</w>
ee tzʼ</w>
e val
e tsk</w>
e m
e ch
dona tejworg</w>
do queo</w>
div or
disponib le</w>
disfru ta</w>
direc tamente</w>
di na
di ario</w>
destru cción</w>
desarro llar</w>
des ani
der ra
demostra ron</w>
demasi ada</w>
deja do</w>
dej arse</w>
decidi mos</w>
decep ciona
de voción</w>
de cer</w>
d ras</w>
célu la</w>
cump len</w>
cultiv ar</w>
ctu res</w>
cru el</w>
cri aturas</w>
cre í
cre encia</w>
correc ta</w>
cor to</w>
cor d
coquete ando</w>
conven ce</w>
cont esta
conqui sta</w>
cono cía</w>
confir ma</w>
confi ando</w>
confi ables</w>
conde na
con vir
con viene</w>
con vi
con tarles</w>
con mo
con fía</w>
comuni smo</w>
compren der</w>
compa ti
compa sión</w>
comp on
come ti
comba tir</w>
ciona rio</w>
ci lmente</w>
ci era</w>
ci ales</w>
chʼika ʼ</w>
chi s
char d</w>
chaqʼ w
cha sikʼ</w>
cha qʼabʼ</w>
cer ía</w>
cer ve
cer te</w>
celeb ración</w>
celeb raciones</w>
ce der</w>
caus a</w>
cas arse</w>
car ga</w>
capa ces</w>
ca yó</w>
ca usar</w>
ca tá
ca jas</w>
bʼeho mal</w>
bur go</w>
bi yestvit</w>
bi r</w>
bautizar on</w>
bauti za</w>
bar co</w>
ba su
ba sados</w>
ayudar lo</w>
ayudar a</w>
ayu d
axki laal</w>
awi ib</w>
awa kʼuun</w>
aw ánima</w>
aw ehtʼaliim</w>
aw as</w>
au l</w>
au dio</w>
asi sti
asamb leas</w>
as jiik</w>
as es
aprender á</w>
ans ía</w>
anima da</w>
ani man</w>
ani mal</w>
an ya</w>
an dando</w>
ame mos</w>
ama rik</w>
ama do</w>
ama ble</w>
ama bilidad</w>
am cha
alter na
alcanzar las</w>
alar ma</w>
al to</w>
aj wal</w>
aj tzʼirool</w>
aj o</w>
aj mahk</w>
agra dan</w>
agra dable</w>
afir man</w>
ade lan
ad mi
acuer dos</w>
actu ales</w>
ac usa</w>
ac a</w>
ab ur
ab s
a tura</w>
a ter
a so
a peti
a pe
a mp
a maj</w>
a kʼun</w>
a kʼuhtaam</w>
a da
a bʼahiil</w>
a aq</w>
a Santo</w>
Yev gueni</w>
Y ago
Xu tik</w>
Xu qʼor</w>
Xnu tijej</w>
X kehsaj</w>
X i
X U
W at
W IK</w>
Val entina</w>
VI DA</w>
V ÁLIDA</w>
V ol
Tor res</w>
To das</w>
Ta mara</w>
T om</w>
T ex
T anya</w>
T IM
TIM OT
TIMOT EO</w>
So mos</w>
Si ga</w>
Se guridad</w>
Sal omón</w>
SI S</w>
S ó
S er</w>
S an</w>
Ru t</w>
Ru kabʼ</w>
Ri chard</w>
Re conocimiento</w>
QʼE Q</w>
Qakʼa m</w>
Qa tzʼir</w>
Q oj
Pi ctures</w>
Pe tro
Parti tura</w>
Pa vel</w>
PU ENT
PUENT E</w>
PO C
POC ALI
POCALI P
POCALIP SIS</w>
P eet</w>
P aul</w>
P anos</w>
P al
P ac
OPIN A</w>
O seas</w>
O biyestvit</w>
Nu estro</w>
Ni co
Ne cesi
Nata liya</w>
Naj tir</w>
NI Kʼ
NIKʼ WACH</w>
NA A
N A</w>
Me dia</w>
Mar doqueo</w>
Ma xim</w>
M y
M or
Lib rary</w>
L í
L viv</w>
L le
L es</w>
KʼU TINIK</w>
Konstan tín</w>
K úznetsov</w>
K re
K en
K ar
K amcha
Jo h
Jere my</w>
Ja ruu
J i
J W</w>
Ir kutsk</w>
Inu kapaaj</w>
In kito
Imag ínate</w>
INKI KOJ</w>
INA QʼOR</w>
IN KʼUTINIK</w>
IN DIC
INDIC AN</w>
II Bʼ</w>
I van</w>
I ruto
I lustración</w>
I a
I EL</w>
Hai ley</w>
Ha z</w>
H e</w>
Guar dian</w>
Gre g</w>
G i
Fí jate</w>
Fu e</w>
Fe der
F I
Escri tura</w>
Es dras</w>
En tran</w>
EN S
EMP LO</w>
EJ EMPLO</w>
E zequiel</w>
E t
E ra</w>
E mpe
Du ala</w>
Des car
Der ga
Dani el
DISCUR SO</w>
DE S</w>
D O
D AN
DAN IEL</w>
Contro l</w>
Co sta</w>
Chri stopher</w>
Chri stine</w>
Chri stensen</w>
Cher nígov</w>
Ch eliábinsk</w>
Ch el
Ch e
CHA WI
CA MBI
C ent
C ena</w>
C al
Bʼ AN
B on
B erna
B elén</w>
Averigü e</w>
Apren de</w>
Apren damos</w>
A wach</w>
A t
A samb
A mat</w>
A kʼ</w>
A POCALIPSIS</w>
9 3</w>
8 8</w>
8 1</w>
7 4</w>
7 0</w>
4 8
4 5
200 5</w>
199 8</w>
199 5</w>
198 9</w>
197 4</w>
197 1</w>
19 66</w>
19 57</w>
10 000</w>
1 65</w>
1 47</w>
1 46</w>
1 41</w>
1 30</w>
1 15</w>
1 000</w>
ʼi klik</w>
ʼ ibʼ</w>
ú ju
úju la</w>
ú an</w>
í aca</w>
é cord
écord s</w>
á ma
Ó MO</w>
zne tsk</w>
zh insk</w>
za das</w>
yoo xeem</w>
ye mos</w>
y eem</w>
y ah
yah m</w>
xu tikʼaa</w>
xqa tijej</w>
xqa b</w>
xo hkʼ
xnu toqʼaaʼ</w>
xki ʼan</w>
xki tz</w>
xki tikʼaaʼ</w>
xki jotʼ</w>
xi wih</w>
xi tobʼinik</w>
xi qʼorik</w>
xi kin</w>
xi kahnik</w>
xi a</w>
x wil</w>
x unimaj</w>
x tzʼaparik</w>
x toobʼjik</w>
x tohq</w>
x ti
x pahqaljik</w>
x p
xp oon</w>
x nun
xnun jik</w>
x kana
x irutobʼeej</w>
x iru
x aʼ</w>
wi kʼsaj</w>
w ehtʼaliij</w>
w amiga</w>
ví r
vír genes</w>
vuel ve</w>
vuel van</w>
volver án</w>
volun tarias</w>
vivi rá</w>
visi ta</w>
viaj es</w>
vi vo</w>
vi les</w>
ver ti
ven ir</w>
ven drá</w>
ven ción</w>
ve cin
var ones</w>
v ías</w>
v ski</w>
v iru
v ios</w>
v inc
v ado</w>
uxla b</w>
uu l</w>
us aría</w>
us arse</w>
uni ón</w>
uhta am</w>
uh r</w>
u wa</w>
u sado</w>
u ne</w>
u lik</w>
u laʼ
tʼus lik</w>
tzʼuhkʼ risaj</w>
tzʼu yej</w>
tzʼu bʼ</w>
tzʼa q</w>
tzʼ a</w>
tyo xeej</w>
tuq lik</w>
tu al</w>
tro on</w>
tri go</w>
transmi tir</w>
tranqui lo</w>
tranqui lidad</w>
tradu cen</w>
tra tando</w>
tra ge
too bʼjiik</w>
toler antes</w>
to qʼaa</w>
to mando</w>
tiʼ ooj</w>
tiʼ jolaal</w>
tiv amente</w>
tikʼa ʼ</w>
tigu o</w>
ti zó</w>
ti q</w>
tesor aron</w>
ter c
terc era</w>
ten tz
ten tes</w>
te c
te ban</w>
tar los</w>
tar jeta</w>
ta rik</w>
ta res</w>
ta b
t ʼi
t iniik</w>
t esta
t ente</w>
t el</w>
t bʼees</w>
suu tzʼ</w>
sur gen</w>
superintend ente</w>
suf ramos</w>
sue le</w>
suce der
su yo</w>
sten tes</w>
solda dor</w>
so los</w>
sin cer
simp les</w>
sien tas</w>
si mi
si m</w>
si kʼ
si dad</w>
señ ales</w>
ser é</w>
segun do</w>
se lec
satisfac er</w>
sal u
sal d
sacha m</w>
sacer do
sacerdo te</w>
sac ri
sacri ficios</w>
sac ar</w>
sab erlo</w>
sa nas</w>
sa lario</w>
s óli
s ín
s t</w>
s anti
santi fi
s ación</w>
rutzʼa ʼiil</w>
ruti hkʼ
rutihkʼ iik</w>
ruqʼah sjiik</w>
runin qʼi
rukʼu ljiik</w>
rukuxi saj</w>
rukow sjiik</w>
ruk sjiik</w>
rub los</w>
ru yu
ru wach</w>
ru tij
ru testigo</w>
ru sa</w>
ru req</w>
ru pción</w>
ru pahqaljiik</w>
ru novio</w>
ru nimaj</w>
ru nab</w>
ru na
runa ʼ
ru maam</w>
ru kʼuhtaaj</w>
ru kʼ
ru kimik</w>
ru jaljiik</w>
ru habʼul</w>
ru eb
ru cheel</w>
ru chaaqʼ</w>
ru cha
ru bʼa
ro mpi
ro ma</w>
ro m
rom án
ri xq</w>
ri que
ri lom</w>
ri c
ri bʼil</w>
ri ba</w>
ri amente</w>
reve ló</w>
reve la</w>
responsabi lidades</w>
respetu osos</w>
respe te</w>
represen tan</w>
repara r</w>
ren unci
rela ta</w>
rehtʼa li
recor dar</w>
recibi eron</w>
reci b
rec tas</w>
re zar</w>
re lik</w>
re j</w>
re hsaj</w>
re cti
re conoce</w>
re cerá</w>
re be
ra zo</w>
ra ya</w>
ra rá</w>
ra ron</w>
ra migohiil</w>
r és</w>
r écords</w>
r ánima</w>
r acción</w>
qʼo ʼ
qʼata rik</w>
qʼ eh
qʼeh bʼi
qʼehbʼi naq</w>
quisi era</w>
qui so</w>
qui eras</w>
qui e
qui a</w>
quere r</w>
que teo</w>
que dó</w>
qoj toobʼinik</w>
qoj rukʼam</w>
qoj ponik</w>
qoj kamanik</w>
qo h
qani manik</w>
qa yeʼem</w>
qa yabʼilaal</w>
qa qʼunil</w>
qa qʼiij</w>
qa kʼulum</w>
qa kowiil</w>
qa kanaam</w>
qa chiiʼ</w>
qa chaaqʼ</w>
qa bʼan</w>
q or</w>
q inik</w>
pár r</w>
pueb los</w>
pue das</w>
proye cto</w>
prote ger</w>
prote gen</w>
pron o
prome tió</w>
profe tizó</w>
produ cen</w>
proce dimiento</w>
pri vi
pri mo</w>
pri mi
preocupar me</w>
preocupa ciones</w>
predica ran</w>
pre sa</w>
pre cur
precur sores</w>
pon go</w>
polí tico</w>
poder osa</w>
pod rás</w>
po pu
po l
pol vo</w>
po cos</w>
plan te
plan es</w>
pla n</w>
perman ente</w>
per sigan</w>
peque ños</w>
pe que</w>
pat ía</w>
pas aría</w>
pas ara</w>
pare jas</w>
pare cida</w>
par á
pana wánima</w>
pa tri
pa ti
pa sión</w>
pa ces</w>
p ones</w>
p ee
oʼ loq</w>
ot os</w>
ot ik</w>
origina les</w>
organi za</w>
or me</w>
or dina
or de
or arik</w>
or ando</w>
opini ones</w>
ona les</w>
on ó</w>
omni presente</w>
ol oq</w>
ocupa dos</w>
obede cerlo</w>
ob sesi
o tobʼil</w>
nu naʼojbʼal</w>
nu kʼax</w>
nu koj</w>
nu cle
ni vel</w>
ner vios</w>
necesi te</w>
necesi tados</w>
ne zhinsk</w>
ne lik</w>
naʼa w
narukʼu ljiik</w>
naruka hniik</w>
naru kʼamam</w>
naru ku
naqa qʼahsam</w>
naqa kapaam</w>
naki kʼulum</w>
na wikʼraaj</w>
na suqbʼisaj</w>
na sikʼ</w>
na rukanaam</w>
na reliik</w>
na qʼoj</w>
na qoj
n unimaj</w>
n eeʼ</w>
mé rica</w>
muest re</w>
mu lti
mu l
mp e</w>
motiv ó</w>
mon tón</w>
mo tivo</w>
mo tiva</w>
mo d
misericor dia</w>
mis os</w>
minu tos</w>
ministeri ales</w>
ministeri al</w>
minist ración</w>
min e</w>
men tir</w>
men ciona
medioambi ente</w>
mecani smos</w>
me ti
materi al</w>
mar se</w>
mal mente</w>
madu ros</w>
madu ro</w>
ma t
ma stur
ma m
ma est
ma aj</w>
m pañ
m entó</w>
lí mite</w>
lu cha</w>
lti media</w>
lo l</w>
lo chʼ
lo cales</w>
lle gue</w>
ll ó</w>
li ter
li stas</w>
leg ales</w>
lee mos</w>
le van
le gi
lac e</w>
lab an</w>
la sti
la mente</w>
l sk</w>
l ga
l bʼaal</w>
kʼuh baal</w>
kʼu lik</w>
kʼo ʼn
kʼo ʼ
kʼix bʼilaal</w>
kʼi xik</w>
kʼax bʼal</w>
kʼa y</w>
kʼa t</w>
kʼ ej</w>
kʼ eej</w>
kuyu m</w>
kuy eej</w>
ku tu
kristya ano</w>
koʼ leem</w>
kow bʼisaj</w>
koh laam</w>
ko rehtaal</w>
kito bʼjiik</w>
kito bʼeem</w>
kini m
kin chol</w>
kijotʼ wik</w>
kij ib</w>
ki yoʼjiik</w>
ki yowabʼjik</w>
ki ye</w>
ki wih</w>
ki wa</w>
ki toobʼjik</w>
ki toobʼjiik</w>
ki toobʼinik</w>
ki tijinik</w>
ki reqem</w>
ki qʼojarik</w>
ki qahsam</w>
ki l</w>
ki kʼuxum</w>
ki chalik</w>
kete laaj</w>
keh t</w>
keh kʼeen</w>
kaman oq</w>
kah paaj</w>
k inki
juz gar</w>
jun suut</w>
ju gar</w>
jen cho</w>
je fe</w>
jaruu bʼ</w>
ja íl</w>
ja rubʼ</w>
j eh</w>
israeli ta</w>
irukʼu yuʼsaj</w>
iru yʼeej</w>
iru xowaaj</w>
iru kuxisaj</w>
iru kanaʼ</w>
iru chaʼjeej</w>
involu c
inu kanaaʼ</w>
inu k</w>
intro du
inten tan</w>
inten ta</w>
inten ciones</w>
inte resa</w>
inqʼat wik</w>
inqa koʼleej</w>
inqa jal</w>
inkʼu htjik</w>
inku yʼeej</w>
inki tzʼihbʼaaj</w>
inki kʼaxkileej</w>
inki kanaa</w>
inki chʼaq</w>
ini xowanik</w>
influ encia</w>
indi can</w>
ina toqʼaaʼ</w>
ina kowej</w>
in yoj</w>
in unimaj</w>
in to
in suqb</w>
in oq</w>
in men
in man
in justicia</w>
in johtik</w>
in e
ine a</w>
in dec
in de
in chahmik</w>
impul só</w>
impu estos</w>
impresi onó</w>
imp re
imp er
im bʼanik</w>
ili dad</w>
ile gal</w>
ih q</w>
i xib</w>
i ra</w>
i loo
i laal</w>
i g
hu ido</w>
hospi tal</w>
horri bles</w>
hol hik</w>
ho mb
hi ʼ
hi jas</w>
hi ce</w>
he cha</w>
hablar les</w>
habi tantes</w>
hab le</w>
hab er
ha rik</w>
ha mb
h kʼik</w>
gui r</w>
gu sto</w>
grave dad</w>
grati s</w>
gol pe</w>
gol pe
goberna rá</w>
go í
glesi as</w>
gip to</w>
gi a</w>
geni y</w>
geni tales</w>
garanti za</w>
gana r</w>
ga das</w>
ga da</w>
fá cilmente</w>
fun ción</w>
fun cionar</w>
fu ér
fu mar</w>
fortale ciendo</w>
flo recerá</w>
finan cia</w>
fina lmente</w>
feli ci
f otos</w>
f ac
extre mistas</w>
extra ordina
expli can</w>
existi rá</w>
exa ger
ex ami
eval u
esta lló</w>
est ábamos</w>
est rés</w>
est ra
esper ando</w>
escu che</w>
escri tor</w>
escri ba</w>
escon di
escase z</w>
escapa r</w>
es anik</w>
er án</w>
equivo cada</w>
envi ó</w>
ent ero</w>
encu esta</w>
enca jan</w>
en tal</w>
en se</w>
en orme</w>
en de
emp resa</w>
embaraz ada</w>
eh b</w>
ee r</w>
edu cación</w>
edi ficios</w>
e qʼoom</w>
e hik</w>
e goí
e c
débi les</w>
dona ción</w>
diver tido</w>
diver sos</w>
disponib les</w>
disfru tará</w>
disfru tando</w>
difun tos</w>
die ci
dibu jo</w>
di mos</w>
di mientos</w>
di gan</w>
di da</w>
di cha</w>
di ces</w>
di cción</w>
di as</w>
devolver á</w>
desast res</w>
desast re</w>
des pi
des per
des nu
des esper
des cen
des acuerdos</w>
dedi có</w>
decla ra</w>
decidi dos</w>
deci den</w>
de volvió</w>
de termina
de teri
de nas</w>
de jo</w>
de fi
de a</w>
dar te</w>
dar me</w>
d on</w>
d ob
cónyu ges</w>
cur ó</w>
cumpli do</w>
cui to</w>
cui dar</w>
cui dando</w>
cui da
cuad rados</w>
cua renta</w>
cu ra</w>
cu este</w>
cu er
cru eles</w>
cri ti
cre cer</w>
cr í
cr on
coquete a</w>
conven cida</w>
contribu ir</w>
contribu ciones</w>
contin úa</w>
conten to</w>
conta gi
cont esta</w>
consul tar</w>
consu mo</w>
constru cción</w>
cono zcamos</w>
cono ció</w>
cono cidos</w>
conmo vió</w>
confi amos</w>
con vinc
con sigue</w>
con fes
con cep
compor tamiento</w>
compañ ía</w>
cli c</w>
cla ras</w>
cir cuito</w>
chʼu wa</w>
chuku l</w>
chis me</w>
chaʼ jen</w>
cha wikʼraaj</w>
cha kanaaʼ</w>
ch es</w>
cerve za</w>
cer ás</w>
cer se</w>
ce nas</w>
caus as</w>
catá stro
car go</w>
capí tulos</w>
camp os</w>
cambi a</w>
cam paña</w>
cal en
ca ses</w>
ca minos</w>
ca denas</w>
c toria</w>
bʼi ram</w>
bʼi ral</w>
bʼa r
bʼ laj</w>
br újula</w>
bo ca</w>
biológi cas</w>
bi ó</w>
benefici an</w>
basu ra</w>
ba u
ba talla</w>
ba da</w>
b ot
b ella</w>
az án</w>
ayud ante</w>
ayu den</w>
aw uuk</w>
autén ticos</w>
auto mó
ato bʼal</w>
ate a</w>
at yooxeem</w>
at racción</w>
aso mb
asi kʼim</w>
asegura rnos</w>
arres tan</w>
arreg larse</w>
ar ru
ar ra
ar o</w>
ar o
ar me</w>
ar las</w>
ar gu
aprove char</w>
apli cación</w>
apeti to</w>
apare cen</w>
apa ci
antigu as</w>
anali za</w>
an he
ambi ente</w>
am en</w>
ale tas</w>
al tura</w>
akʼaxki laal</w>
aj tzʼihbʼaneel</w>
aj re</w>
aj kʼuhto
aj chaʼjen</w>
acus an</w>
acus ación</w>
acus aciones</w>
act úa</w>
aco s
aco mpañ
acab an</w>
ab usa
ab solu
ab ajo</w>
a x
a tumiin</w>
a toobʼinik</w>
a ran</w>
a qʼa
a propi
a nal</w>
a mo</w>
a la
a kaxarohiil</w>
a kanaam</w>
a kabʼcheel</w>
a hiil</w>
a dores</w>
a bʼihnaal</w>
a bʼeeh</w>
Yu lia</w>
Yev geniy</w>
Y E
Xu req</w>
Ve an</w>
V u
V ale</w>
V ESTIG
VESTIG AN
VESTIGAN DO</w>
UC AS</w>
U xlabʼal</w>
U Y</w>
U S</w>
U L
To da</w>
Ten go</w>
T r
Só l
Su gerencias</w>
Su gerencia</w>
Se cción</w>
Sab ías</w>
S ta
S ol
S nezhinsk</w>
S exo</w>
S O
S ENT
S ANIK</w>
Runi maal</w>
Ri lariik</w>
RE M
QʼO RIK</w>
Qʼ orik</w>
Quiz á</w>
Qa yeew</w>
QAH UUJ</w>
Pod ría</w>
PUE DES</w>
ON U</w>
Nico le</w>
Na die</w>
N í
N or
N anu
N OQ</w>
Mu ltimedia</w>
Mi jaíl</w>
Mak sim</w>
Maga dán</w>
Maga dan</w>
Ma estro</w>
Ma bʼan</w>
Lí nea</w>
Lu ego</w>
L UCAS</w>
Kʼ oʼloq</w>
Konstan tin</w>
Ko w</w>
K azán</w>
Jaruu bʼ</w>
Ja son</w>
J en
J e</w>
J EN
JEN AJ</w>
In vesti
In kaaj</w>
IN VESTIGANDO</w>
II L</w>
I m
I glesias</w>
I S
Ho y</w>
Hebre as</w>
H er
H at</w>
H a</w>
Gué vorg</w>
G ab
G a
G O</w>
Es teban</w>
Es taba</w>
Enséñ ele</w>
Eli ja</w>
ES TA
E so</w>
E j
E gipto</w>
Des de</w>
Deber ían</w>
DE S
D ona
D on
Co men
Ci vil</w>
Cha tobʼeej</w>
Cha req</w>
Cha nab</w>
Ch ʼiklik</w>
CU Á
CAMBI Ó</w>
C ÓMO</w>
C ha</w>
Bus quen</w>
B u
B or
B o
Asamb leas</w>
Apo yemos</w>
An tiguo</w>
Al tísimo</w>
Al guna</w>
Aja abʼees</w>
Ag entes</w>
A u
A tesoraron</w>
A li
A ha</w>
A R</w>
5 000</w>
3 00000</w>
199 0</w>
197 6</w>
19 60</w>
17 00</w>
16 00</w>
1 13</w>
1 ,
ʼn cho</w>
ʼ q</w>
ʼ AL</w>
úni camente</w>
ún en</w>
últi ma
última mente</w>
óni ca</w>
ó ticas</w>
ó dice</w>
ó di
ñ ado</w>
ífi co</w>
í s</w>
í odo</w>
éndo lo</w>
én ta
éc ni
é xi
éxi to</w>
é reas</w>
é ni
è ne</w>
ángu los</w>
áma to
ámato n</w>
áfi co</w>
áb anov</w>
á mi
á mbi
Ú S</w>
ÉN ES
ÉNES I
ÉNESI S</w>
zo v</w>
zh anov</w>
z qui
zqui erda</w>
z al
zal i</w>
yuʼ jik</w>
yuu q</w>
yu q</w>
yot ik</w>
yoh bʼisaj</w>
yl v
ylv ani
ylvani a</w>
ye w</w>
ye vsk</w>
yab insk</w>
y ánov</w>
y on</w>
y insk</w>
y ik</w>
y eron</w>
y c
yc lo
y bʼal</w>
y ana</w>
xuk et</w>
xu tzʼuhkʼrisaj</w>
xu tzʼir</w>
xu toq</w>
xu qʼehtaaj</w>
xu pa
xu kʼux</w>
xu kʼax</w>
xu kuxisaj</w>
xu koʼleej</w>
xu bʼiraj</w>
xti bʼik</w>
xojki tobʼeej</w>
xohkʼ rik</w>
xnu tobʼeej</w>
xnu qahsaj</w>
xnu pahqaaj</w>
xnu kʼul</w>
xnu kʼaxkileej</w>
xki kʼraaj</w>
xki kanaʼ</w>
xkana bʼjik</w>
xi ʼikʼik</w>
xi mahkunik</w>
xi li
xi kʼraaj</w>
xi kʼachariik</w>
xi choparik</w>
xa req</w>
xa qʼahsaj</w>
xa k</w>
x yojib</w>
x wiik</w>
x tzʼirarik</w>
x suqbʼik</w>
x risaj</w>
x qʼeq</w>
x kinimaj</w>
x kehsaj</w>
x inooj</w>
x ini
xini manik</w>
x ib
wu yeej</w>
wu chʼihil</w>
wo chi
wochi il</w>
wikʼ raj</w>
wi xqʼuun</w>
wi xowaaj</w>
weh saj</w>
wachi il</w>
w st
wst one</w>
w ar
war inik</w>
w an</w>
vul ner
vosto va</w>
volver á</w>
volun tarios</w>
vol ú
vivi enda</w>
visi te</w>
visi tar</w>
viol enta</w>
vide oj
videoj ue
videojue gos</w>
vide o
video con
videocon ferencia</w>
vi ética</w>
vi n</w>
vi mos</w>
vi gi
vi dad</w>
vi c
vi aja
ver ás</w>
ver sión</w>
ver los</w>
ven cerás</w>
vali osos</w>
val or
va ri
va quia</w>
va das</w>
v é</w>
v ri
vri li
vrili u
vriliu k</w>
v or
v le
vle v</w>
v ka</w>
v es
v ales</w>
utili zan</w>
uti kʼa
us s</w>
us aron</w>
us ach</w>
ur gan</w>
uni il</w>
und aciones</w>
un ik</w>
ulaʼ ineel</w>
uhta nik</w>
uhkri saj</w>
uh tzʼubʼ</w>
u lariik</w>
u crani
tʼu sul
tʼa n
tʼan lik</w>
tí tulo</w>
tí oco</w>
tzʼuy jiik</w>
tzʼih b</w>
tzʼ e
tzuh nik</w>
tz un
tz uhbʼaal</w>
tuvi eras</w>
tuvi era</w>
tu tbʼees</w>
tu sa
tusa riik</w>
tu mba</w>
tu gal</w>
tro poli
tropoli ta
tri stes</w>
tre inta</w>
trata mientos</w>
trans por
trans formar</w>
tranqui li
trage dia</w>
tra tamos</w>
tra st
tra gr
tragr ámaton</w>
tra e</w>
tra diciones</w>
tr áfico</w>
tor menta</w>
ton o</w>
to yotik</w>
to men</w>
to mar
to laj</w>
to j</w>
tk a</w>
titu lada</w>
tis t</w>
tiki b</w>
ti toobʼinik</w>
ti rutob</w>
ti raaj</w>
ti kʼixik</w>
ti kahnik</w>
ti il</w>
ti eron</w>
th y</w>
tesor os</w>
tes jik</w>
tes jiik</w>
terremo to</w>
termin e</w>
ter ina</w>
tend rán</w>
temp or
teléfon os</w>
tele visión</w>
tec no
te or
te mo
temo res</w>
te men</w>
te les</w>
te hlik</w>
te harik</w>
te cimientos</w>
tatu aje</w>
tar me</w>
tar las</w>
tan te</w>
ta blemente</w>
t ér
t écni
t t</w>
t ina</w>
t he
the w</w>
t esis</w>
t eh</w>
sóli da</w>
símbo los</w>
super a</w>
sufri ó</w>
sufri rá</w>
su stan
su puesto</w>
su minist
su erte</w>
su alidad</w>
stan se</w>
sor presa</w>
sopor tar</w>
soluciona rá</w>
soci ación</w>
sobre vivió</w>
sobre vivir</w>
sobre vivido</w>
so u</w>
siste ma</w>
sir íaca</w>
sir viendo</w>
sir ve</w>
sir va</w>
sinti eron</w>
sinc era</w>
simbóli co</w>
sikʼ wik</w>
sigui eron</w>
sig as</w>
si rej</w>
si kʼooj</w>
si h</w>
si go</w>
si dente</w>
si da</w>
si ble</w>
ser va</w>
senti miento</w>
sent í</w>
sen tenci
sen bau
senbau m</w>
se ños</w>
se quía</w>
se pamos</w>
se mb
se ll</w>
se la</w>
se g
se cciones</w>
se cará</w>
satisfe chos</w>
satisf acción</w>
salv ó</w>
sali eron</w>
sal mista</w>
sa mos</w>
s ylvania</w>
s simo</w>
s on
s hin</w>
s cul
ró ne
róne os</w>
rápi do</w>
rápi damente</w>
ruti hkʼik</w>
ruqʼi lariik</w>
runinqʼi jiik</w>
runi maniik</w>
runaʼ o
runaʼo bʼal</w>
rukʼu hbʼa
rukʼuhbʼa ljiik</w>
rukʼi hiik</w>
rukʼ jiik</w>
ruko jarik</w>
ruka aj</w>
ruju xwiik</w>
rubʼi hnaleej</w>
ru ʼi
ru ʼa
ru yoj
ru wihʼiik</w>
ru tzʼuyjiik</w>
ru tzʼuuy</w>
ru tzʼirim</w>
ru tzʼi
ru tusariik</w>
ru tuqkilaal</w>
ru sikʼim</w>
ru qʼata
ru pah
ru nimam</w>
ru mes
ru mensaje</w>
ru mano</w>
ru kʼaxkilaal</w>
ru kuy</w>
ru ke
ru jot
rujot ʼariik</w>
ru joh
ru chaʼjeem</w>
ru ce</w>
rot kin</w>
roo qʼ</w>
rompi ó</w>
ro to
ro sas</w>
ro bo
robo t</w>
ro américa</w>
ries go</w>
ri ó</w>
ri sjiik</w>
ri im</w>
ri do</w>
ri bʼiral</w>
ri bʼiraj</w>
reuni rnos</w>
reuni mos</w>
resuci tará</w>
resu el
responder ía</w>
respe ten</w>
res to</w>
repara rá</w>
ren c
renc or</w>
religi osa</w>
relaciona do</w>
rehtʼali im</w>
regist ros</w>
rega lar
regalar le</w>
reg res
refugi arse</w>
reempla zar
recti tud</w>
recomen d
recha za</w>
rebel ó</w>
reali zó</w>
reali zado</w>
reali sta</w>
reac cionar</w>
re únen</w>
re xia</w>
re vi
re signación</w>
re qʼo
re pi
re pe
re je</w>
re gu
re feri
referi rse</w>
re d</w>
re conocer</w>
re alidades</w>
re acción</w>
raí z</w>
ran s
ran don</w>
ran da</w>
raj lal</w>
raci smo</w>
rac t</w>
ra za</w>
ra x</w>
ra rán</w>
ra ma
ra di
r íamos</w>
r u</w>
r acciones</w>
qʼo reem</w>
qʼ u
qʼ ina
qʼina ʼ</w>
qui lla
que za</w>
qu émonos</w>
qu kʼem</w>
qu in
qu el</w>
qoj patinik</w>
qi kʼsaj</w>
qah simaj</w>
qa toobʼinik</w>
qa sikʼ</w>
qa q</w>
qa loqʼinik</w>
qa loqʼem</w>
qa kʼaxam</w>
qa koj</w>
qa kaxaro</w>
qa j
qa habʼul</w>
qa aʼ</w>
q ehtʼaliim</w>
públi cos</w>
pósto les</w>
párraf os</w>
pá rese</w>
puh bʼ</w>
puh b</w>
publica dores</w>
pu erto</w>
próxi ma</w>
prácti camente</w>
provo ca
pronunci ación</w>
pronunci aba</w>
prohib ir</w>
prohib ida</w>
produc tos</w>
proc esos</w>
pro por
privi legi
priori dades</w>
pres entes</w>
pregun tó</w>
predi có</w>
predi carle</w>
predi car
preci samente</w>
prece dentes</w>
pre juicio</w>
posi blemente</w>
pon inaq</w>
pon emos</w>
pon drá</w>
poder osos</w>
pod ríamos</w>
pod rán</w>
pob res</w>
pob lación</w>
po se
po oq</w>
po o</w>
po lac
po bre
pobre za</w>
pied ras</w>
pi erda</w>
pi e
pesi mista</w>
personaj es</w>
permi tió</w>
permi tir</w>
permi so</w>
perju di
peri ódi
perfec tas</w>
perfec tamente</w>
perfec ta</w>
pere pik</w>
per íodo</w>
per si
per las</w>
per ci
pen saba</w>
pen s
pen de</w>
pelícu las</w>
peligro sas</w>
pe z</w>
pe nales</w>
pe dido</w>
pañ ol</w>
pat ineel</w>
pat ente</w>
pasa tiempos</w>
pas en</w>
parta mento</w>
pan tzʼapaabʼ</w>
pan taq</w>
pan suqkiil</w>
pa tentes</w>
pa ses</w>
pa s</w>
p in
p h
ph en</w>
ot en</w>
os cu
ori lsk</w>
orgullo so</w>
or oso</w>
or ooj</w>
or ol</w>
or mente</w>
opti mistas</w>
ona ve</w>
ona t
on ás</w>
on to</w>
ol i</w>
ofre cer</w>
ofici nas</w>
of reci
océ anos</w>
ocurri r</w>
ocurri do</w>
ocul tar</w>
obedeci ó</w>
obede cer
obe diencia</w>
o yen</w>
o puerto</w>
o lo
o este</w>
o bʼ</w>
né yinsk</w>
ny der</w>
nu pahqanik</w>
nu kuy</w>
nu kojom</w>
nu kapebʼaal</w>
nu kapaam</w>
nu bʼahiil</w>
ntse va</w>
ntse v</w>
novi a</w>
nor te</w>
no ches</w>
nin guno</w>
nin g</w>
ni e</w>
nervi oso</w>
nega tivo</w>
necesi to</w>
necesa ria</w>
nebʼa ʼil</w>
naʼa wilom</w>
naruku xiik</w>
narukor sjiik</w>
narukor jiik</w>
naru sah
naru kʼuhtaam</w>
naru k
naruk sam</w>
naru bʼaan</w>
naqa tzʼirim</w>
naqa qʼoriik</w>
naqa nabʼeem</w>
naqa kʼuhtaam</w>
naqa kanaam</w>
nanu koʼljiik</w>
naki wihʼiik</w>
naki tzʼapam</w>
naj tiil</w>
naa kamanik</w>
na sta
na ra
na qukʼem</w>
na mos</w>
na loqʼej</w>
na kʼul</w>
na kukʼem</w>
na koʼleej</w>
na keh
n sylvania</w>
mó s</w>
mé todos</w>
má tico</w>
má tica</w>
mundi ales</w>
muer tas</w>
mu ro</w>
monta ñas</w>
mo vi
mo der
mo de
mode lo</w>
mina riik</w>
mina ción</w>
milag ro</w>
mi tad</w>
mi mé
mi c</w>
mensa mente</w>
men t</w>
men cionó</w>
mejor ará</w>
medi ca
medi ano
mediano che</w>
mec áni
me mos</w>
me mil</w>
me a</w>
matri monios</w>
mastur bar</w>
mand antes</w>
mancha do</w>
man tuvo</w>
man tenimiento</w>
man te</w>
mam á</w>
madu rez</w>
ma scul
ma quilla
ma qu
ma na
ma los</w>
ma gia</w>
m oʼ</w>
m jik</w>
m inik</w>
lógi cas</w>
lógi camente</w>
ló bulos</w>
lágri mas</w>
lu vio</w>
lu chan</w>
lu cha
loqʼ jik</w>
logra ron</w>
logr é</w>
lochʼ ik</w>
lo wstone</w>
lo vaquia</w>
lo v</w>
lo rida</w>
llev ó</w>
llev ando</w>
llev amos</w>
lle gué</w>
llama mos</w>
liber ar</w>
liber ados</w>
li via</w>
li cía</w>
li as</w>
lec tas</w>
le tra</w>
le mos</w>
le erlo</w>
lav l</w>
lar ga</w>
lan zó</w>
lan da</w>
lajee b</w>
lai v</w>
la ron</w>
la nik</w>
l é
l nikov</w>
l lu
l kiin</w>
l bʼal</w>
kʼun bʼees</w>
kʼuhbʼa linik</w>
kʼuhbʼa lej</w>
kʼi jolal</w>
kʼa yej</w>
kʼ raj</w>
kuxi sanik</w>
ku znetsk</w>
ku yʼeem</w>
ku tkeel</w>
ku ja</w>
koʼ ljik</w>
kow eej</w>
ko laiv</w>
ko k</w>
ko jariik</w>
kin ooj</w>
kikʼ iik</w>
ki ʼa
ki wuktiik</w>
ki tz</w>
ki taqʼaniik</w>
ki sikʼwik</w>
ki sikʼim</w>
ki sacham</w>
ki qʼiij</w>
ki pahqanik</w>
ki loqʼem</w>
ki kʼacharik</w>
ki kojbʼaal</w>
ki koj</w>
ki kaxarohiil</w>
ki kapaam</w>
ki ikʼik</w>
ki hab</w>
ki chahmik</w>
ki bʼaal</w>
ketel inik</w>
kana m</w>
kan tesjik</w>
ka xa</w>
ka terina</w>
ka s</w>
ka s
ka q</w>
k ó</w>
k rik</w>
k eliik</w>
k ehtʼaliim</w>
jotʼ ool</w>
ji naq</w>
jemp los</w>
jee b</w>
jal ooj</w>
ja w
ja remos</w>
ja min</w>
ja m</w>
ja aj</w>
j oq</w>
j eron</w>
ixo w
is la</w>
iru tzʼir</w>
iru tzʼihbʼaaj</w>
iru tus</w>
iru tijej</w>
iru qʼoreej</w>
iru chʼuwaʼreej</w>
iru chʼikaaʼ</w>
iri kʼsaj</w>
inu sikʼ</w>
into jarik</w>
inti bʼik</w>
interro gan</w>
interro g
intere sada</w>
inter pre
inten sa</w>
intelig encia</w>
institu yó</w>
inspi rado</w>
inqu y</w>
inqa qʼo</w>
inqa h
inqa chʼikaʼ</w>
inoc ente</w>
inmor ales</w>
inmor al</w>
inman lojik</w>
inki tzʼaʼaj</w>
inki ko</w>
inki kansaj</w>
inici a
inicia tiva</w>
ingeni eros</w>
ingeni ero</w>
ingeni era</w>
influ yen</w>
individu os</w>
inco mo
ina wikʼsaj</w>
ina wehtʼaliij</w>
ina tzʼir</w>
ina marca</w>
ina do</w>
ina bʼjik</w>
in ye</w>
in wilow</w>
in wih</w>
in va
in undaciones</w>
in tzʼihbʼjik</w>
in tohqʼik</w>
in son</w>
in sensa
in qʼuhtik</w>
in quie
in ofen
in mensamente</w>
in korsjik</w>
in korjik</w>
in kehsaj</w>
in k
in habi
inhabi table</w>
in gún</w>
in forma</w>
in experto</w>
in cho</w>
in bʼan</w>
in bʼ
inbʼ ee
inbʼee hik</w>
impul sa</w>
impu esto</w>
impresiona nte</w>
impor tan</w>
im bʼaan</w>
iloo kʼ</w>
igu ales</w>
ide on</w>
i zquierda</w>
i ses</w>
i rse</w>
i ro</w>
i rinik</w>
i maj</w>
i lol</w>
i loj</w>
i erto</w>
i endo</w>
i a</w>
há bi
hu yó</w>
hu ye</w>
hu rac
hor ario</w>
honra r</w>
hon y</w>
homb ro</w>
hol wochiil</w>
hi hk</w>
hi gi
hi er</w>
hermo sa</w>
heri do</w>
hbʼa aʼ</w>
halla rla</w>
habla mos</w>
habi tada</w>
hab rías</w>
hab erlo</w>
hab aro
habaro vsk</w>
ha z
ha llar</w>
ha il</w>
h wan</w>
h ib
h esi
gusta ba</w>
guar dar</w>
gu stó</w>
gu stas</w>
gran o</w>
gra ma</w>
gor sk</w>
goberna rse</w>
gani zación</w>
gana ndo</w>
ga stos</w>
g én
g or</w>
g man</w>
g ht</w>
g b
gb es
gbes sou</w>
g ante</w>
g ana</w>
físi cas</w>
físi camente</w>
fí os</w>
fí n</w>
funda mental</w>
funda da</w>
fuer an</w>
fran queza</w>
fortale za</w>
fortale cen</w>
fon ías</w>
fle xib
fir me
fina les</w>
fi ka</w>
fi ja</w>
fi j
fe men
favori to</w>
fal le
fac tores</w>
f lor</w>
f in
f an</w>
f an
f aci
extre mas</w>
expre sar</w>
expli carle</w>
exi sten</w>
ex ten
ex hib
ex c
evi tamos</w>
eter nidad</w>
estuvi eran</w>
estudi amos</w>
esta rías</w>
esta ción</w>
est ó</w>
est és</w>
espí ritus</w>
espo sos</w>
especiali stas</w>
espa cio</w>
esforzar se</w>
escuch ando</w>
escu e
escue las</w>
es pañol</w>
es jiik</w>
es fuér
es enci
es cen
er róneos</w>
envi ado</w>
entre na
entra r</w>
entra da</w>
enten dimiento</w>
enseñ aron</w>
eno gorsk</w>
enga ñar</w>
enfren tar</w>
enfer ma</w>
ende ll</w>
encarg ó</w>
encarg ará</w>
en temente</w>
en redes</w>
en in</w>
en in
en i
empie za</w>
empe ño</w>
emociona lmente</w>
emo ción</w>
eli minar</w>
eli gman</w>
eli gió</w>
elegi do</w>
electri ci
electrici sta</w>
el ine</w>
el enogorsk</w>
ejerci cio</w>
eh el</w>
eh chan</w>
egoí sta</w>
edu car</w>
edu cada</w>
edifi cio</w>
económi cos</w>
e x</w>
e vangeli
e ta
e rib</w>
e q</w>
e mite</w>
e hov
du ra</w>
dro ga</w>
dor mir</w>
don os</w>
domésti ca</w>
dob le</w>
do mina
do li
do cu
diverti rme</w>
distin guir</w>
disfru ten</w>
diri gi
diri gen</w>
din ámi
diferen cias</w>
dieci ocho</w>
dici éndole</w>
di sta</w>
di seños</w>
di mir</w>
di gamos</w>
di ción</w>
di cia</w>
dese ando</w>
desapare cido</w>
desa fíos</w>
des interesada</w>
des ierto</w>
des en
der son</w>
deli to</w>
dej as</w>
dej ando</w>
defini ción</w>
dedicar nos</w>
dedi cación</w>
deci rle</w>
deci dieron</w>
de tienen</w>
de terminar</w>
de tenido</w>
de primi
de pende</w>
de mandantes</w>
de le
de dos</w>
de bamos</w>
dar lo</w>
dar a</w>
da ña</w>
da rio</w>
da kova</w>
d és</w>
d á</w>
d á
d zhanov</w>
d reas</w>
d ona</w>
d encia</w>
có modo</w>
cumpli ó</w>
cump la</w>
cui daron</w>
cubri r</w>
cua torial</w>
cu ti</w>
cu lo</w>
cu an
cu ales</w>
crí ticos</w>
cru zar</w>
cri terio</w>
cri atura</w>
cre ían</w>
cre yentes</w>
cre as</w>
cre an</w>
cre a</w>
cre a
cr á
corre o</w>
cor riente</w>
cor responde</w>
cor regi
coquete an</w>
converti rá</w>
converti rse</w>
convers ación</w>
conven cer</w>
contro le</w>
continu ación</w>
cont estaría</w>
cont estar</w>
constru ir</w>
constru ido</w>
conserv ar</w>
cono cimientos</w>
cono cida</w>
cono cerá</w>
conduc tor</w>
conduc tas</w>
conde nas</w>
concep to</w>
con vierte</w>
con tar</w>
con stan
con for
con ec
con cre
comunicar me</w>
compon entes</w>
compar ten</w>
comp li
comien zos</w>
comien do</w>
cometi era</w>
comen zaron</w>
comen tan</w>
comba te</w>
com parti
com parte</w>
com para</w>
colab oramos</w>
colab or
co se
co lo
co lectas</w>
co dicia</w>
co b
climá ticas</w>
climá tica</w>
cier tos</w>
cie ty</w>
ci na
ci ber
ciber acoso</w>
chʼu q</w>
chu jumpech</w>
chi b</w>
cha wutkeel</w>
cha rse</w>
cha kʼul</w>
cha el</w>
cha chih</w>
cha am</w>
ch er
ch ando</w>
ces co</w>
cer quémonos</w>
ce reb
ce des</w>
caus ó</w>
catástro fe</w>
car lo</w>
cami ón</w>
cabal gando</w>
ca sualidad</w>
ca dena</w>
c ían</w>
c és</w>
c yclo
c tor</w>
c ro
bʼi sjiik</w>
bʼi r
bʼar co</w>
bʼana am</w>
bʼa qil</w>
bʼ uhr</w>
bʼ iniik</w>
bási cos</w>
bus caba</w>
bre ve</w>
bor de</w>
boni to</w>
bo la</w>
biológi co</w>
bio mimé
bi n</w>
bi lidades</w>
bi enven
benefi cio</w>
ben deci
beb en</w>
beb a</w>
bautizar nos</w>
bauti zados</w>
ban co</w>
baj a</w>
ba sada</w>
b é</w>
b ina</w>
aza kov</w>
ayu das</w>
awu yʼeem</w>
aweh t</w>
aw uyʼinik</w>
aw eliik</w>
avi ones</w>
auto estima</w>
aumen tando</w>
au xili
au diencia</w>
ato bʼaal</w>
ater ra
ate peque</w>
at yana</w>
asi stiendo</w>
asi stentes</w>
as cen
arries gar</w>
arrepenti mos</w>
arreg lo</w>
ar riba</w>
aqu el</w>
aprob ación</w>
apren des</w>
apren den</w>
apoy ando</w>
apo calipsis</w>
apli ca
ape lación</w>
antigu a</w>
anti cu
anteri ores</w>
ante lación</w>
ano rexia</w>
ani m
anali zar</w>
anali zando</w>
an un
an na</w>
an dar</w>
an da</w>
amena za</w>
amar lo</w>
ama m</w>
am eetzʼ</w>
ale gra
al ó</w>
al th</w>
al tas</w>
al s</w>
ajot ʼarik</w>
ajot ʼariik</w>
aj us
aj onia</w>
aj noticia</w>
aj korsan</w>
aj ixowaal</w>
ai atea</w>
afron tar</w>
afirma ción</w>
afir mó</w>
aer opuerto</w>
ado remos</w>
admi tir</w>
adecu ada</w>
ad hesi
acon tecimientos</w>
aco b</w>
acer carse</w>
acer can</w>
acab e</w>
aca so</w>
ac la
abus ones</w>
abs tenerse</w>
aban ov</w>
aa Dios</w>
a yoʼjiik</w>
a yeʼem</w>
a vergon
a tribu
a tibʼkal</w>
a ten
a segura</w>
a rena</w>
a ra
a pre
a kʼunbʼees</w>
a kikʼeel</w>
a hermano</w>
a fuera</w>
a dicción</w>
a awas</w>
Z elenogorsk</w>
Z ATE</w>
Z A
Yel lowstone</w>
Yel ena</w>
Ye katerina</w>
Yaros lavl</w>
Yaros lav</w>
Yah weh</w>
Y a
Xu b</w>
X utikʼa
X qʼeq</w>
X qa
X ponik</w>
X S
XS AHCH
XSAHCH IK</w>
Wat ch</w>
Wa qiibʼ</w>
Wa jaaw</w>
Wa als</w>
WIL O
W endell</w>
W ehtʼal</w>
Ví stanse</w>
Vol go
Vi ctoria</w>
Val era</w>
Val dés</w>
V en</w>
V aiatea</w>
Uni ón</w>
Uni ver
US A</w>
UN I
UNI DOS</w>
U no</w>
U I
UI EN</w>
U E</w>
Tra ta</w>
Tra ba
Tr inidad</w>
To wer</w>
Timo thy</w>
Ti ponoq</w>
Ti enes</w>
Ten ía</w>
Ten emos</w>
Te tragrámaton</w>
Tar de</w>
TA R
T rans
T ract</w>
T oo
T atyana</w>
T ICA</w>
T EN
T ANIK</w>
Su q</w>
Ste phen</w>
Ste fan</w>
So viética</w>
So lamente</w>
So fonías</w>
So ciety</w>
So bre</w>
Si rotkin</w>
Si erra</w>
Si ente</w>
Sergu í</w>
Ser ás</w>
Ser hi
Se x</w>
Se is</w>
Scien tist</w>
San tolaj</w>
San derson</w>
Sali kova</w>
SU GE
SUGE RE
SUGERE NCI
SO N</w>
S oten</w>
S ong</w>
S néyinsk</w>
S nyder</w>
S her
S enin</w>
S eligman</w>
S cuti</w>
S ajonia</w>
S OB
S MO</w>
Rus sell</w>
Ru kojariik</w>
Rob inson</w>
Ro z
Ro senbaum</w>
Ro mpe</w>
Ro man</w>
Ro das</w>
Ro bin</w>
Res u
Regi ón</w>
Re ina</w>
Re cor
Ra fika</w>
REM ÍAS</w>
RA IN
RAIN N</w>
R uxlabʼal</w>
R uuk</w>
R DA</w>
Quiz ás</w>
Qa nabʼeej</w>
Q ʼa
Pu es</w>
Pro te
Pro grama</w>
Pre dijo</w>
Pr onto</w>
Por tugal</w>
Po pov</w>
Po licía</w>
Petro v</w>
Pen za</w>
Pen nsylvania</w>
Pech kó</w>
Pech ko</w>
Pe w</w>
Pal esa</w>
Pac ífico</w>
PE D
PED RO</w>
PA D
PAD RES</w>
P é
P la
P S</w>
Or ganización</w>
OS ENS
OSENS ES</w>
OL OSENSES</w>
O on</w>
O livia</w>
O lia</w>
O ce
O b
O C
Novo kuznetsk</w>
Ne pal</w>
Naqa reqem</w>
NU KʼACHARIIK</w>
NAA H</w>
N orilsk</w>
N ingún</w>
My kolaiv</w>
Mo ises</w>
Mik hail</w>
Mi randa</w>
Mi chael</w>
Me di
Mat thew</w>
Mar k</w>
Mar burgo</w>
Man lik</w>
Mal y
Ma ssimo</w>
Ma li
Ma kuja</w>
M ini
M E</w>
Lu ch
Lo gbessou</w>
Liu bov</w>
Lib eran</w>
Le y</w>
Lamen taciones</w>
L oli</w>
L enin
L eer</w>
L aw
L au
L E</w>
KʼUH TANIK</w>
KʼA CHARE
KʼACHARE EL</w>
Kʼ oloq</w>
Kre men
Kon shin</w>
Ki ʼibʼ</w>
Kar dakova</w>
Kamcha tka</w>
K ábanov</w>
K urgan</w>
K u
K habarovsk</w>
K azakov</w>
K abanov</w>
Jun riim</w>
Joh ny</w>
Jo el</w>
Ji ll</w>
Jen oʼ</w>
Je ʼreʼ</w>
Ja iro</w>
JE REMÍAS</w>
JA BʼE
JABʼE ES</w>
J onás</w>
J onat
J acob</w>
J ES
JES ÚS</w>
J AL</w>
J AL
Iv ano</w>
Ir ène</w>
Inqa aj</w>
Inkito qʼaaʼ</w>
In tyoox</w>
In tohqʼik</w>
In suqbʼik</w>
In cluso</w>
Imag ínese</w>
IC O</w>
I na</w>
I ehov
Ho o</w>
He alth</w>
Hab rá</w>
Hab lar</w>
H or
H on
H ar
H K
Gu ía</w>
Gu inea</w>
Georgi yevsk</w>
Gab ón</w>
Ga vriliuk</w>
G ÉNESIS</w>
G ra
G lóbulos</w>
G ideon</w>
G PS</w>
Fran cia</w>
Fran chi</w>
Fran cesco</w>
Fo lleto</w>
Feder al</w>
FI F
FIF A</w>
F rede
F racciones</w>
F or
F lorida</w>
Evangeli os</w>
Et hier</w>
Estu dió</w>
Estu di
Est ás</w>
Est án</w>
Esper anza</w>
Escu cha</w>
Es ter</w>
Es tamos</w>
Es pí
Es lovaquia</w>
Encontra remos</w>
En cyclo
Empe zó</w>
ESTA DOS</w>
ES IOS</w>
ES C
ENT O</w>
EHT ʼAL</w>
EF ESIOS</w>
E xi
E se</w>
E res</w>
E llos</w>
E jemplos</w>
E cuatorial</w>
E A</w>
Don etsk</w>
Do o</w>
Di mit
Di ez</w>
Descar gar</w>
De partamento</w>
De muestre</w>
De jaremos</w>
De jan</w>
De cir</w>
Daniel s</w>
D ía</w>
D os</w>
D inamarca</w>
D RA
D C</w>
Cuán tas</w>
Cu ca</w>
Cri mea</w>
Con go</w>
Con fi
Colo mba</w>
Co misión</w>
Co atepeque</w>
Chi qunchelaal</w>
Cher ney</w>
Cher kas
Chel yabinsk</w>
Che ca</w>
Cha ʼan</w>
Cha sik</w>
Cha rles</w>
Cha korsaj</w>
Ch ina</w>
Cent roamérica</w>
Can tares</w>
Can tar</w>
Cal vin</w>
Ca ín</w>
CI A</w>
CHAWI IJ</w>
C ódice</w>
C uss</w>
C er
C ada</w>
C OLOSENSES</w>
C DC</w>
Bʼ IR
Bus que</w>
Bus car</w>
Bre a
Bon zali</w>
Bib lias</w>
Bib le</w>
Berna bé</w>
Ben jamin</w>
Be tel</w>
B ruce</w>
B randon</w>
B eh
B C</w>
B A</w>
Ant hony</w>
An tíoco</w>
Aga yánov</w>
Aga dzhanov</w>
Ad ministración</w>
Abi ga
AU DI
ANALÍ ZATE</w>
ALG UIEN</w>
A z
A wuum</w>
A sia</w>
A sa
A póstoles</w>
A prove
A nota</w>
A nasta
A na</w>
A mós</w>
A kil</w>
A er
A cu
A co
A cerquémonos</w>
A ajwaal</w>
A JABʼEES</w>
A J
A Bʼ</w>
A 7</w>
A 4</w>
8 9</w>
7 7</w>
7 5</w>
7 1</w>
5 9
5 3
4 7
4 00</w>
36 8
3 17</w>
2 68</w>
2 54</w>
2 50</w>
2 48
2 10000</w>
198 8</w>
197 9</w>
197 7</w>
19 72</w>
19 69</w>
19 62</w>
19 51</w>
18 7</w>
16 7</w>
10 1</w>
1 60</w>
1 50</w>
1 48</w>
1 37</w>
1 35</w>
1 33</w>
1 18</w>
1 12</w>
0 00000</w>
0 ,000</w>
ʼI H
ʼIH IIL</w>
ʼ l</w>
ʼ l
ʼl uul</w>
ʼ j</w>
ʼ ik</w>
úni ca</w>
últi mas</w>
úbli ca</w>
ú tov</w>
ú s
ó poli
ópoli s</w>
ó menos</w>
ñ an</w>
ín ti
ín ci
í smo</w>
í r
í go</w>
í das</w>
í bamos</w>
ér til</w>
ér tica</w>
ér dida</w>
ér ca
érca me</w>
éni to</w>
éndo te</w>
én donos</w>
éc tri
éctri ca</w>
é st
é merovo</w>
é ce
éce me</w>
ár selo</w>
ár bo
árbo les</w>
ándo te</w>
ándo lo</w>
án sito</w>
ámbi to</w>
áli kova</w>
áli da</w>
á uti
á pov</w>
ÑAN A</w>
zar án</w>
za remos</w>
z cas</w>
z ana</w>
z aban</w>
z aba</w>
yowa ab</w>
yoji naq</w>
yoh kiik</w>
yoh bʼal</w>
yeʼa ab</w>
ya pov</w>
y ápov</w>
y os</w>
y ab</w>
xupa hbʼaaʼ</w>
xu toqʼaa</w>
xu tiʼbʼisaj</w>
xu suqbʼisaj</w>
xu qʼebʼ</w>
xu ma
xuma y</w>
xu kut</w>
xu kowej</w>
xu kansaj</w>
xu chʼikaaʼ</w>
xqa yotʼ</w>
xqa yeew</w>
xqa chih</w>
xow jiik</w>
xoj qʼorik</w>
xoj mahkunik</w>
xo yej</w>
xnu k</w>
xnu b</w>
xki yew</w>
xki taqʼaaj</w>
xki taq</w>
xki qʼebʼ</w>
xki lal</w>
xki kʼsaj</w>
xki kut</w>
xki jal</w>
xiʼ okik</w>
xi yohkik</w>
xi tzʼihbʼjik</w>
xi teharik</w>
xi kʼsaj</w>
xi kʼamarik</w>
xi kʼ</w>
xi korsanik</w>
xi kojarik</w>
xi chahmik</w>
xat wihʼik</w>
xat rutobʼeej</w>
xat mahkunik</w>
xa sjik</w>
xa qahsaj</w>
xa kanaaʼ</w>
xa b</w>
x yohkik</w>
x tzʼuh
x tz</w>
x tob</w>
x tiʼ
xtiʼ bʼik</w>
x tijinik</w>
x ri
x nimbʼik</w>
x nabʼjik</w>
x kʼihik</w>
x kuyeej</w>
x korjik</w>
x jiik</w>
x inqʼorik</w>
x inikʼik</w>
x ibʼ</w>
x chi
x bʼal</w>
x an
wo lik</w>
wikʼ sam</w>
wikʼ raam</w>
wi la</w>
wi kʼ</w>
weh k</w>
waxa qiib</w>
wa k</w>
wa Jaaw</w>
w es
w amigohiil</w>
ví tov</w>
vul gar</w>
vuel ta</w>
volú pov</w>
volu pov</w>
vol vieron</w>
vol v
vo ca
voca bu
vocabu lario</w>
vivi era</w>
visi tó</w>
viru s</w>
vir tió</w>
vic torias</w>
vi u
viu da</w>
vi tov</w>
vi li
vi ernes</w>
vi embre</w>
veri gu
vergon zoso</w>
verda der
ver ía</w>
ver án</w>
ver tir</w>
ver siones</w>
ver la</w>
vend rás</w>
ven to</w>
ven imos</w>
ven ga</w>
veje z</w>
ve jas</w>
ve inti
vali oso</w>
vali osa</w>
val oro</w>
va yan</w>
v é
v á</w>
v uelo</w>
v skiy</w>
v ini
v indi
v ent
v as
v ador</w>
v ac
utili ce</w>
us en</w>
ur quía</w>
uni rse</w>
uni r</w>
uni mjiik</w>
uni den
uni da</w>
un jik</w>
uhkri saneel</w>
u yu</w>
u mni
u ma</w>
tʼusul keebʼ</w>
tí si
tísi mos</w>
tér minos</w>
tá vropol</w>
tzʼe htaaj</w>
tzʼa ʼ</w>
tzʼa ʼ
tzʼ uuk</w>
tzun lik</w>
tz u
tz kʼ
tzkʼ otik</w>
tyoo xjiik</w>
tuber an
tuberan cias</w>
tu x</w>
tu r
tu i
tu amente</w>
tribu ya</w>
trata miento</w>
trast orno</w>
tras ará</w>
transpor te</w>
transmi ti
trans miten</w>
trai ga</w>
trai cion
tradu ciendo</w>
trabaj a</w>
tra tas</w>
tra taba</w>
tra go</w>
tra er</w>
tra duc
traduc tores</w>
too bʼal</w>
tone lada</w>
ton to</w>
toma ron</w>
tol esi
toj om</w>
toj b</w>
to sas</w>
to qʼaʼ</w>
to mes</w>
to bʼ
titu torio</w>
tiki qʼat</w>
tij imaj</w>
tien de</w>
ti rukoʼleej</w>
ti ro
ti kʼoʼnik</w>
ti kʼachariik</w>
ti kaʼ
tikaʼ yik</w>
ti kamanik</w>
th an
than y</w>
tesor o</w>
terri torios</w>
ter ro
terro ri
terrori stas</w>
ter nura</w>
ter mina</w>
ter cer</w>
ter as</w>
ter a
tera pi
terapi a</w>
teor ológi
tentz un</w>
tend rían</w>
tenci a
ten íamos</w>
ten cias</w>
temp esta
tempesta d</w>
te za</w>
te os</w>
te mer
te li
te he
tehe eh</w>
te e</w>
tar te</w>
taqʼa bʼjik</w>
tal éceme</w>
ta riik</w>
ta remos</w>
ta rea</w>
ta lidad</w>
ta dores</w>
ta aqʼa
taaqʼa nik</w>
t é
t mo</w>
t ing</w>
t in
símbo lo</w>
suu q
sur gir</w>
sur gi
superintend entes</w>
superfici ales</w>
super sti
suici das</w>
suici darme</w>
sufri mos</w>
suceder á</w>
su tej</w>
su r</w>
su mer
su bi
stitu cional</w>
sti cas</w>
ste mente</w>
st s</w>
st ro</w>
st ente</w>
sorpren dió</w>
sorpren de</w>
sorpren da</w>
solter os</w>
solici tud</w>
sobre sali
siona da</w>
sincer os</w>
sin tamos</w>
simi lar</w>
sigui eran</w>
sigu es</w>
si gamos</w>
señ ora</w>
señ or</w>
señ aló</w>
sex te
ser lo</w>
ser le</w>
senti ría</w>
senti rás</w>
sentenci ado</w>
senci llo</w>
senci llas</w>
senci lla
sencilla mente</w>
seg ú
se remos</w>
se para
se mej
se ca</w>
satisfe cho</w>
saqu maal</w>
saq bʼisjiik</w>
saq b</w>
san ov</w>
sali mos</w>
sali da</w>
sal ón</w>
sacha riik</w>
sac ó</w>
sac an</w>
sab rán</w>
sab les</w>
sa ʼluul</w>
sa rio</w>
sa na
sa la</w>
sa am</w>
s ú
s f
rí os</w>
ruʼi glesia</w>
ruyu h
ruyuh bʼ</w>
ruyoj arik</w>
rutzʼa jariik</w>
rutoo bʼiniik</w>
rutoo bʼeej</w>
rutij al
rutijal jiik</w>
rusikʼa rik</w>
rupah qan
rupahqan iik</w>
runim bʼiik</w>
rumo lom</w>
rumes jiik</w>
ruloqʼ em</w>
rukʼa len
rukʼalen ik</w>
rukow ej</w>
rukor sjik</w>
rukoj bʼal</w>
rujoh tiik</w>
ruj ería</w>
ruchʼi ka
rucha liik</w>
rubʼana am</w>
rubʼa niik</w>
ru ʼ
ru yʼeem</w>
ru yoʼjiik</w>
ru yeʼarik</w>
ru yabʼilaal</w>
ru tyooxjiik</w>
ru tinamit</w>
ru ti</w>
ru suuq
ru sos</w>
ru so</w>
ru sikʼ</w>
ru saqumaal</w>
ru sahchik</w>
ru qʼoriik</w>
ru primo</w>
ru pahqaaj</w>
ru nabʼeej</w>
ru le
ru kikʼeel</w>
ru kete
rukete laam</w>
ru jotʼ
ru josqʼiil</w>
ru je</w>
ru jalam</w>
ru j</w>
ru ido</w>
ru habʼ
ru chʼuwaʼrisaj</w>
ru chopa
ruchopa riik</w>
ru carro</w>
ru Dios</w>
román tico</w>
rode an</w>
rode a</w>
ro ci
roci dades</w>
rin da</w>
rikʼ sjiik</w>
ric tamente</w>
ri to</w>
ri tmo</w>
ri tismo</w>
ri llo</w>
ri larik</w>
ri ih</w>
ri eron</w>
ri entos</w>
ri entes</w>
ri cos</w>
ri cano</w>
reve lan</w>
resul tó</w>
resul te</w>
resuci tados</w>
resta u
resta ble
respon sables</w>
respetu osa</w>
respe tados</w>
resca tar</w>
res tan</w>
represen tantes</w>
repe tir</w>
ren se</w>
ren dimiento</w>
ren da</w>
relaciona da</w>
relaci ona</w>
rela jarse</w>
reina rá</w>
reina r</w>
rehta l</w>
regre so</w>
regre sar</w>
refugi ado</w>
refu g
refug ios</w>
refle xi
reemplazar á</w>
recur rir</w>
recuper ará</w>
recuper arte</w>
recuper arse</w>
recuper ar</w>
recor dó</w>
recor da
recomend aciones</w>
recomen dó</w>
recibi mos</w>
reci én</w>
reci ente</w>
reb eli
rebeli ón</w>
reali zados</w>
reali za</w>
re tta</w>
re trasará</w>
re tra
re tos</w>
re quiere</w>
re pública</w>
re plante
replante ó</w>
re peti
re pasar</w>
re d
red ac
re confor
re ce
re bo
rebo sa</w>
re anu
rajkaman om</w>
raj loqʼ
rajloqʼ ineel</w>
radi car</w>
ra ʼj</w>
ra ón</w>
ra tobʼil</w>
ra mi
rami ga</w>
ra ga</w>
ra asjiik</w>
qʼoʼ reem</w>
qʼo mjik</w>
qʼo maj</w>
qʼi maj</w>
qʼa wach</w>
qʼa ah</w>
qʼ uun</w>
qʼ jiik</w>
quu m</w>
quisi eras</w>
quin ce</w>
qui té</w>
qui rir</w>
quete ar</w>
quer rá</w>
quedar á</w>
que dar</w>
que dan</w>
qu ense</w>
qu emos</w>
qu chʼihil</w>
qu ch</w>
qojru chej</w>
qojru chaʼjeej</w>
qojki seʼlaaj</w>
qoj tobʼinik</w>
qoj ruyeew</w>
qoj qʼoroq</w>
qoj ooj</w>
qoj kʼoʼnik</w>
qo p</w>
qo h</w>
qi kʼraam</w>
qato bʼaal</w>
qa ʼ
qa ye</w>
qa wiiʼ</w>
qa wa</w>
qa tinamitaal</w>
qa rik</w>
qa pahqaaj</w>
qa loqʼil</w>
qa kʼuxum</w>
qa kʼuhtaam</w>
qa kooch</w>
qa kaxarohiil</w>
qa kamnaq</w>
qa kabʼcheel</w>
qa kabʼ</w>
q ánima</w>
q e
puh ka
pudi mos</w>
pudi eron</w>
publi có</w>
publi cidad</w>
publi cado</w>
publi cación</w>
pu ras</w>
psi co
prácti co</w>
prueb e</w>
provoca tiva</w>
proteger se</w>
proteger nos</w>
prote cción</w>
prome te
prohí be</w>
prohibi ción</w>
progre so</w>
progre sar</w>
profesi onales</w>
profesi onal</w>
prof é
produc tivo</w>
produ cir</w>
proce de</w>
pro viene</w>
pro tuberancias</w>
pro pone</w>
pro mue
pro mo
privilegi o</w>
priori dad</w>
prim eras</w>
presiona rte</w>
presen tarse</w>
prepara tivos</w>
prepara rte</w>
prepara rnos</w>
prepara dos</w>
prepar ó</w>
preocupar se</w>
preocupar nos</w>
preocupa ción</w>
preocupa ba</w>
preocu pes</w>
preocu pan</w>
preocu p
pregún tese</w>
pregun tarle</w>
pregun tado</w>
preci oso</w>
pre so</w>
pre sidente</w>
pre pa
pre cio</w>
practi ca</w>
posi bilidades</w>
posi bilidad</w>
por ta
poner me</w>
pon gas</w>
pon gamos</w>
polac o</w>
poder osas</w>
pod íamos</w>
plan tas</w>
plan ta</w>
pla no</w>
pla nifi
pla gado</w>
pin tor</w>
pi tzʼ</w>
pi lo
pi er
pi diendo</w>
pi dan</w>
peti ciones</w>
pesi mistas</w>
pes ca
pertene cer</w>
pertene ce</w>
personaj e</w>
persegui dos</w>
pers pec
perspec tiva</w>
permi tido</w>
permane cerá</w>
periódi co</w>
perfec to</w>
perdon ándose</w>
pensa mos</w>
pen saban</w>
pen i
peni tencia
pe ores</w>
pe dí</w>
pe da
pe ces</w>
pe a</w>
patri os</w>
pasa jes</w>
partici pan
partici pa
pare zcan</w>
pare d</w>
pare cía</w>
pare cidos</w>
pare cer
par ques</w>
par cial</w>
pap á</w>
pan tosas</w>
pan teew</w>
palab rotas</w>
pal ma</w>
paci entes</w>
pa ʼlik</w>
pa ʼ
pa tux</w>
pa troon</w>
pa to</w>
pa sados</w>
pa saba</w>
pa ran</w>
pa m</w>
pa jam</w>
pa ga</w>
pa decer</w>
pa cífi
p tar</w>
p ro</w>
p né
pné uma</w>
p lí
p lena</w>
p len
plen o</w>
p lac
p ese</w>
ot ʼooj</w>
oscu ridad</w>
ori en
orgullo sos</w>
organiz ados</w>
organiz ado</w>
organi smo</w>
orde na
or é</w>
or aba</w>
opti mista</w>
oper ador</w>
oo w</w>
oo b</w>
on áuti
on de</w>
ológi co</w>
olvi dar</w>
ok rik</w>
oj iik</w>
ocurri eron</w>
ocur ren</w>
ocupa do</w>
obsesi ona
oblig ación</w>
obli ga</w>
obje tores</w>
obje to</w>
obede zca</w>
obede cerle</w>
ob vio</w>
o ʼnik</w>
o ído</w>
o yomal</w>
o vejas</w>
o ren</w>
o prim
o ponen</w>
o logía</w>
o i
o ces</w>
né tico</w>
nue vos</w>
nucle ares</w>
nu yeew</w>
nu tobʼeej</w>
nu qʼor</w>
nu qʼiij</w>
nu nabʼeem</w>
nu mer
nu mahk</w>
nu kanaam</w>
nu kamaj</w>
nu hermano</w>
nu halakʼuun</w>
nu haa</w>
nu cheel</w>
nu b</w>
nor ma</w>
nomb rado</w>
no mo</w>
nie tos</w>
ni ca</w>
neg ó</w>
neg ro</w>
neg arse</w>
neen ki
nee rubʼan</w>
necesi taba</w>
nebʼa ʼ</w>
ne go
ne ena</w>
ne en</w>
naʼaw ehtʼaliim</w>
naʼa nabʼeem</w>
naʼa kapaam</w>
naʼa kanam</w>
naʼa kanaam</w>
nato j</w>
narusah chi
narusahchi ik</w>
narukʼu ljik</w>
narukʼu liik</w>
naru tobʼeem</w>
naru tob</w>
naru sahchik</w>
naru ponik</w>
naru jalam</w>
naru bʼanariik</w>
nari lom</w>
naqoj iik</w>
naqa tojom</w>
naqa sikʼim</w>
naqa qahsam</w>
naqa q</w>
naqa kʼulum</w>
naqa kow
naqa kohlaam</w>
naqa chihim</w>
naqa b</w>
naq eliik</w>
naki wuktik</w>
naki sam</w>
naki lom</w>
naki kʼaxam</w>
naki kʼamam</w>
naki chihim</w>
naki chihiim</w>
naciona lidad</w>
naaki kʼaxam</w>
naa kʼulum</w>
na ʼlik</w>
na ti
na rojik</w>
na r
na qʼebʼ</w>
na qikʼraam</w>
na mente</w>
na kʼax</w>
na kohlaaj</w>
na kinimam</w>
na kanaaʼ</w>
na hi
na cer</w>
na bʼiraj</w>
n uni
n jik</w>
n en</w>
médi ca</w>
mé rito</w>
máxi ma</w>
muri era</w>
mul ta</w>
muer tes</w>
mucha cho</w>
mu tuamente</w>
mu h</w>
movi mientos</w>
mostra rá</w>
mostra rle</w>
mostra do</w>
most rando</w>
mori rán</w>
mori rá</w>
mon il</w>
mo tivos</w>
mo difi
misericor di
misericordi oso</w>
mini stra
mini o</w>
mien ta</w>
mi gra
men tas</w>
men or</w>
mejor arán</w>
medioambi entales</w>
medica mentos</w>
medi tar</w>
medi ci
medici nas</w>
me tá
me tropolita
me ter</w>
me temos</w>
me t
me re
me h
me es</w>
me dades</w>
maravillo sas</w>
mar tes</w>
mar me</w>
maquilla je</w>
maqu ina
maquina ria</w>
man zana</w>
man dado</w>
mal trata
mag nético</w>
maest ros</w>
madu ra</w>
ma te
ma ría</w>
ma mos</w>
ma les</w>
ma le
male du
maledu cado</w>
ma kapaaj</w>
ma ch
ma bʼan</w>
m ía</w>
m bʼik</w>
lucha ba</w>
log ías</w>
lo gos</w>
lo go</w>
lo calidad</w>
llu via</w>
llev ará</w>
llev arlos</w>
llev ados</w>
llen os</w>
lleg aría</w>
lle gada</w>
llamar ías</w>
llama dos</w>
llama ba</w>
lla nura</w>
lla mó</w>
limpi o</w>
liber ó</w>
liber arse</w>
liber ado</w>
lib ere</w>
li ʼl</w>
li s</w>
li mático</w>
li muh</w>
li il</w>
li ce</w>
ley en
leyen das</w>
lem oow</w>
leg al</w>
le tras</w>
lasti mar
lan za</w>
lab or
la ti
la q</w>
la midad</w>
la dora</w>
la dor</w>
l on
l keeb</w>
l k</w>
l iniik</w>
kʼuh bʼal</w>
kʼu y</w>
kʼu laaʼ</w>
kʼoʼ naal</w>
kʼacha reej</w>
kʼacha lkeebʼ</w>
kʼa mwik</w>
kʼa mol</w>
kʼa as</w>
kʼ taq</w>
kʼ er</w>
kutu m</w>
ku lk</w>
koʼ linik</w>
koʼ lbʼaal</w>
kow bʼik</w>
ko monil</w>
ko majaʼ</w>
ko kʼtaq</w>
kito qʼaam</w>
kito j
kin yo</w>
kin wuktik</w>
kin ponik</w>
ki yeʼwik</w>
ki wirik</w>
ki su
ki ribʼiraj</w>
ki qʼuhtik</w>
ki qʼijil</w>
ki qʼehbʼik</w>
ki los</w>
ki loqʼinik</w>
ki kuyum</w>
ki kojbʼal</w>
ki kaqrik</w>
ki kapeb</w>
ki kan
ki hiʼlik</w>
ki haa</w>
ki h</w>
ki choparik</w>
ki chaaqʼ</w>
ki ch</w>
ki bʼil</w>
kapebʼ inoq</w>
kapebʼ enik</w>
kan saneel</w>
kaman eej</w>
kah niik</w>
ka t</w>
ka rik</w>
ka l</w>
k ó
k sanik</w>
k inkitobʼeej</w>
k inkijotʼ</w>
k inkaqrik</w>
k inkapebʼinik</w>
k inkamanik</w>
k elik</w>
k e</w>
k bʼaal</w>
juʼju nal</w>
jun tzuhb</w>
jun k</w>
jubi lado</w>
ju meh
ju ego</w>
ju e
jue gos</w>
jot ʼi
jos q</w>
jo t</w>
je ʼncho</w>
je ʼ
je mos</w>
je em</w>
jaw riik</w>
jar bʼuhr</w>
ja dos</w>
ja da</w>
j ooj</w>
j eros</w>
j eran</w>
j era</w>
ixow aneel</w>
ix qʼun</w>
is las</w>
iru yoj</w>
iru tzʼihb</w>
iru tob</w>
iru taqʼaaʼ</w>
iru sutej</w>
iru sirej</w>
iru qʼahsaj</w>
iru paj</w>
iru kʼej</w>
iru chʼuwa</w>
iru chʼa
iru cham</w>
iru bʼihnaal</w>
iqʼo mbʼal</w>
involuc ran</w>
inu tobʼeej</w>
inu qʼoʼreej</w>
inu pahqaaj</w>
inu kʼul</w>
inu korsaj</w>
inu kanaa</w>
introdu cir</w>
intro ducción</w>
inti b</w>
interro gar
interro ga
inter na</w>
inten to</w>
inten ten</w>
inten tar</w>
inte g
integ ridad</w>
instru cción</w>
insensa tos</w>
inqi low</w>
inqah jik</w>
inqa tzʼuyej</w>
inqa tzʼir</w>
inqa toqʼaaʼ</w>
inqa tiʼbʼisaj</w>
inqa qʼoreej</w>
inqa paj</w>
inqa kʼayej</w>
inqa chuk</w>
inofen sivo</w>
inmen so</w>
inkʼu yuʼjik</w>
inkito qʼaʼ</w>
inki tyooxeej</w>
inki tiqʼaaʼ</w>
inki tahqeej</w>
inki sik</w>
inki sach</w>
inki qʼoj</w>
inki qʼahsaj</w>
inki paj</w>
inki kʼux</w>
inki kut</w>
inki ku
inki cham</w>
inka jik</w>
ink ehtʼaliij</w>
ingeni ería</w>
infor mó</w>
infor mar</w>
influ yó</w>
influ ye</w>
inf lación</w>
inf ini
indi có</w>
indi car</w>
indefen sa</w>
indec ente</w>
inco moda</w>
inclu ya</w>
ina wuyeej</w>
ina wilow</w>
ina tiqʼaaʼ</w>
ina taqʼaaj</w>
ina suqkileej</w>
ina propi
ina koʼleej</w>
ina korsaj</w>
ina bʼiraj</w>
ina a
in útil</w>
in wirik</w>
in wik</w>
in wihik</w>
in un
in tohq</w>
in tente</w>
in sul
in stante</w>
in sikʼarik</w>
in signifi
in sacharik</w>
in s
in pajarik</w>
in okik</w>
in kʼuhtanik</w>
in ko</w>
in justo</w>
in forma
in defini
in creí
in cli
in chu
in che</w>
impre sión</w>
impor tamos</w>
imper fectos</w>
impe di
imp ed
imped ír
imi tando</w>
imi tamos</w>
imi tación</w>
imag ínese</w>
ilu sión</w>
ili mi
ili m</w>
ikʼ samaj</w>
ig nor
i volúpov</w>
i sa</w>
i rehsaj</w>
i mo
i looj</w>
i ki
i jil</w>
i hik</w>
i dor</w>
i bʼirinik</w>
hábi tos</w>
hurac án</w>
humil dad</w>
hu tov</w>
hu mor</w>
ho oʼ</w>
hiʼ li
his tori
higi ene</w>
hi volupov</w>
hi rientes</w>
hi dro
hamb rientos</w>
hab íamos</w>
hab ló</w>
hab lemos</w>
hab laban</w>
hab laba</w>
hab l
hab ido</w>
ha yas</w>
ha remos</w>
ha l
h í
h un
h ra
h pik</w>
h o</w>
h ej</w>
gén ero</w>
gui ar</w>
guar dias</w>
gu sten</w>
gu ste</w>
grie gos</w>
grie ga</w>
gra tui
gra d</w>
gra bar</w>
gra b
gr aci
graci a</w>
glorifi car</w>
glo bal</w>
gi gante</w>
gi dos</w>
ge ria</w>
ge o
gar rillo</w>
gana rte</w>
g énito</w>
g ra</w>
g arse</w>
g aba</w>
fá bri
fábri ca</w>
funda mento</w>
fun ciona</w>
fu ria</w>
fu r
fu i</w>
fu ente</w>
fron teras</w>
frecu entes</w>
fre no</w>
fre nando</w>
fran cés</w>
fra se</w>
fortale cerá</w>
for taléceme</w>
fo res
fi las</w>
fi jarse</w>
fi ca</w>
fi ca
fica z</w>
fer oces</w>
fer medades</w>
fen ómenos</w>
femen ino</w>
felici tar</w>
favori tismo</w>
fal lado</w>
fa raón</w>
f értil</w>
f rán</w>
f rey</w>
f es</w>
f abri
extraordina rio</w>
expres arle</w>
expli caría</w>
exi gen</w>
exi ge</w>
exclu si
exc eso</w>
exami na
exager ación</w>
exa min
exa men</w>
ex cep
evi te</w>
eter no</w>
eta pa</w>
estra gos</w>
esti los</w>
esti er
estier ro</w>
estable cido</w>
estable cer</w>
esta n</w>
esta dos</w>
esta do
estado uniden
esta bilidad</w>
est rictamente</w>
est res
espi ritismo</w>
esper as</w>
esper an</w>
especiali sta</w>
esfuér cen
esfuércen se</w>
escucha n</w>
escucha mos</w>
escu do</w>
escri b
esca pe</w>
esca la</w>
es temos</w>
es par
es pantosas</w>
es jik</w>
es cenas</w>
er se</w>
er ri
er radicar</w>
equivo cados</w>
equivo cadas</w>
equilib rado</w>
equilib rada</w>
envi ando</w>
entrevi stas</w>
entrevi s
enter arse</w>
entender la</w>
ent orno</w>
ent era</w>
enseñ ado</w>
enfren temos</w>
enfren ta</w>
encuent ra</w>
encuen tras</w>
encontra rás</w>
encontra remos</w>
encontra ba</w>
encont ré</w>
encarce lados</w>
encar gado</w>
en vías</w>
en ví
en tiendo</w>
en sa
en rique
empie zan</w>
empeor ará</w>
empe zamos</w>
empe ora</w>
emb orra
em patía</w>
eli ta</w>
eli ces</w>
el éctrica</w>
ejerci cios</w>
eh saj</w>
efec tu
edu ca</w>
edi ción</w>
ed río</w>
ed en</w>
echa do</w>
ech ó</w>
e vsk</w>
e vento</w>
e ta</w>
e qarik</w>
e qal</w>
e merovo</w>
e ficaz</w>
e char</w>
e b</w>
dé cada</w>
dé b
déb il</w>
du re</w>
du ración</w>
du ra
du demos</w>
dro gas</w>
doli ó</w>
do minio</w>
do ce</w>
divor cios</w>
distribu yen</w>
distin gue</w>
distan te</w>
distan ci
diseñ ador</w>
dis culpa
disculpa s</w>
dis cri
dis capaci
direc tor</w>
dinámi co</w>
dij eron</w>
dij era</w>
dig nidad</w>
dibu jos</w>
dia riamente</w>
dia ria</w>
di to</w>
di rás</w>
di je</w>
determina ción</w>
deteri oro</w>
det esta</w>
destru yó</w>
destru ya</w>
destro zado</w>
desta car</w>
desta can</w>
despi ada
desnu da</w>
dese an</w>
descri pción</w>
descri ben</w>
descan so</w>
descan san</w>
des értica</w>
des vi
des preci
des igualdad</w>
des gracias</w>
des empe
des car
des agradan</w>
des acuerdo</w>
derra me</w>
dere cha</w>
deprimi do</w>
depor tivos</w>
depor tes</w>
den unci
demuest re</w>
demostra rá</w>
demostra rles</w>
demostr ando</w>
deli tos</w>
dele i
dej en</w>
dej arte</w>
defini tiva</w>
defi enda</w>
dedi qué</w>
dedi camos</w>
dedi cado</w>
dedi ca</w>
decla ración</w>
deci dan</w>
decep cionó</w>
dec ían</w>
debi ó</w>
de vas
de remos</w>
de quiera</w>
de gra
de fec
de as</w>
dad ero</w>
da remos</w>
da do
da ban</w>
d ándoles</w>
d ré</w>
d r
có moda</w>
cí o</w>
célu las</w>
cur sos</w>
cumpli das</w>
culpa r</w>
cul par
cul car</w>
cui demos</w>
cui de</w>
cui das</w>
cui dan</w>
cuer pos</w>
cubri rá</w>
cu rar</w>
cu lo
cu las</w>
cu lan</w>
cu bier
crá tica</w>
cron ológico</w>
cristi anas</w>
crea tivo</w>
cre ados</w>
costu mbres</w>
cose cha
correc cional</w>
cor rupción</w>
copi stas</w>
copi ar</w>
copi ando</w>
copi a</w>
convir tieron</w>
convinc entes</w>
convi cción</w>
contro larnos</w>
contra dic
contin ú
cont ó</w>
cont estó</w>
constan temente</w>
conso lar</w>
consi ste</w>
conse cu
cono zcas</w>
cono cieron</w>
cono certe</w>
confí e</w>
confli ctos</w>
confis can</w>
confi aba</w>
condu ciendo</w>
concre to</w>
conclu ir</w>
con tienen</w>
con taron</w>
con stitu
con siguió</w>
con lleva</w>
con denó</w>
comunicar nos</w>
comuni sta</w>
compren sivo</w>
compren dí</w>
compli cado</w>
comple jo</w>
compen sación</w>
compañ era</w>
compati bles</w>
compati ble</w>
comparti mos</w>
compara r</w>
compara ble</w>
compar ación</w>
comi eran</w>
come te</w>
co stó</w>
co sta</w>
co oper
co lor</w>
co lonia</w>
co dici
cir co</w>
cin ta</w>
ci vili
ci ma</w>
ci garrillo</w>
ci das</w>
chʼa qaj</w>
chʼ obʼ</w>
chu qʼorariik</w>
chu bʼaan</w>
cho va</w>
chi liʼl</w>
che va</w>
chaʼ jinik</w>
chaqʼw eej</w>
cha wisaj</w>
cha tyooxeej</w>
cha tijej</w>
cha q</w>
cha kʼuhtaaj</w>
cha juchʼ</w>
cha jal</w>
cha dos</w>
ch unimjiik</w>
ch el
ch ani
ch ace</w>
cer teza</w>
cer cano</w>
cer can
cercan a</w>
cep tos</w>
centra l</w>
cent ró</w>
cent ra</w>
celeb ró</w>
celeb rar</w>
cel da</w>
ce re
ce lo
ce dor</w>
carre tera</w>
carre ra</w>
cari as</w>
car los</w>
car gas</w>
car dio
can tar</w>
can sado</w>
can di
cali fi
calen dario</w>
cal umni
cal mar</w>
cal les</w>
cal le</w>
cal lado</w>
ca ta
ca se</w>
ca sado</w>
ca pi
ca os</w>
ca minar</w>
ca mina
ca lamidad</w>
c ándose</w>
c ino</w>
bʼir jik</w>
bʼi xbʼal</w>
bʼeho maal</w>
bʼeh san</w>
bʼeh sam</w>
bʼe le
bʼa njik</w>
bʼ ooj</w>
bus camos</w>
bur len</w>
bur larse</w>
bri lla</w>
bot ón</w>
bor rar</w>
bor ra
bon dado
bombarde o</w>
bombarde ado</w>
bomb ero</w>
bomb as</w>
bo s
biomimé tica</w>
bier no</w>
bienven ida</w>
bi fur
bi a</w>
bendeci rá</w>
ben dición</w>
ben diciendo</w>
be decer</w>
bas arse</w>
bar ba
ban carias</w>
ba sadas</w>
ba sa</w>
b u</w>
b rujería</w>
b ro
b edrío</w>
aza frán</w>
ayudar les</w>
awu y</w>
awi xqʼuun</w>
aw aʼ</w>
aw ajtijineel</w>
automó vil</w>
au tolesi
atre vida</w>
atra yentes</w>
atra er</w>
ate ísmo</w>
ata que</w>
at rocidades</w>
at ik</w>
asu sta</w>
ast ró
asomb rosas</w>
asisti ó</w>
asi sta</w>
asegura rse</w>
asegu ran</w>
arru ina
arres tado</w>
arre piente</w>
argu mento</w>
ar ma
aqu ellas</w>
aprove chando</w>
apropi ada</w>
aprender án</w>
apren dieron</w>
apor tar</w>
apare ció</w>
apar tar</w>
apa siona
apa rik</w>
ap lik</w>
anunci ará</w>
anticu ado</w>
anteri ormente</w>
ano vio</w>
anima doras</w>
ani mó</w>
anali cemos</w>
anali ce</w>
an ía</w>
an z
an g</w>
amp li
amena zas</w>
ambi o</w>
ambi entales</w>
ama rá</w>
ama riik</w>
ama bles</w>
ama ban</w>
am ígo</w>
am én</w>
alterna tivo</w>
alter ar</w>
alo qʼil</w>
alimen tario</w>
alimen tar</w>
ali vi
ali mentó</w>
ali maj</w>
ali im</w>
ali ento</w>
ale ta</w>
ale gre</w>
ale gr
alcan ce</w>
alar mante</w>
alab ar</w>
al so</w>
al o</w>
al lará</w>
al erta</w>
al bedrío</w>
akʼa ah</w>
ajkʼuhto m</w>
aja lam</w>
aj kʼay</w>
aj kamanoom</w>
aj bʼehsan</w>
ah xoq</w>
ah sam</w>
ah qʼeq</w>
ah qanik</w>
ah orra
ah or
agu ante</w>
agradeci miento</w>
agradeci do</w>
agrade zco</w>
agra dar</w>
agra da</w>
afirma ciones</w>
afec to</w>
afec tada</w>
afec ta</w>
ador no</w>
ador ará</w>
ador aban</w>
adolesc encia</w>
adhesi va</w>
ade lga
ada p
ad virtió</w>
ad quirir</w>
ad onde</w>
ad ministra
acu l
acu dir</w>
acu den</w>
act úan</w>
acostumb rado</w>
ace lular</w>
acab aban</w>
ac ércame</w>
ac to</w>
ac tiva</w>
ac emos</w>
abusa ran</w>
abur rida</w>
absolu to</w>
abri ó</w>
abandona r</w>
aban dona</w>
ab ores</w>
ab arca</w>
ab ar
a yabʼilaal</w>
a y
a xb</w>
a verigu
a tobʼinik</w>
a tiende</w>
a sus
a soci
a se</w>
a reqem</w>
a reloj</w>
a qʼahsam</w>
a pro
a parte</w>
a me</w>
a kʼuhtaaj</w>
a kʼixbʼilaal</w>
a kojbʼal</w>
a kapaaj</w>
a bʼixbʼal</w>
a bʼanooj</w>
Z imo
Z hivolupov</w>
Yago vítov</w>
Yago vitov</w>
YE ʼ
Y ivolúpov</w>
Xutikʼa aʼ</w>
Xnu bʼan</w>
Xki yeew</w>
Xki chop</w>
Xa reʼyuʼ</w>
XKI L
X usach</w>
X inqʼuhtik</w>
X choparik</w>
X at
X QʼEQ</w>
X NU
XNU KʼU
XNUKʼU L</w>
X JAL
XJAL WIK</w>
X AR
XAR O</w>
Wi h</w>
WILO M</w>
WI Iʼ</w>
W in
W ahqʼeq</w>
W EH</w>
W AH
WAH QʼEQ</w>
Vu el
Vi ernes</w>
Ver dadero</w>
Va ya</w>
VI VEN
VIVEN CIA</w>
V en
V amos</w>
V ali
V a</w>
U se</w>
U sanov</w>
U U</w>
U CH
UCH ʼIHIIL</w>
Tu s</w>
Tri stemente</w>
Traba jaba</w>
Too bʼinik</w>
To memos</w>
Ti yoʼjik</w>
Ti qa
Tex to</w>
Ten iendo</w>
Ten gan</w>
Ten er</w>
Ta i
TU RA</w>
TO RI
TORI A</w>
TI SMO</w>
TAR DE</w>
TA DA</w>
T urquía</w>
T i</w>
T erri
T OS</w>
T INA
TINA MI
TINAMI T</w>
T ER
T E</w>
Sus titutorio</w>
Sta vropol</w>
So cial</w>
Si empre</w>
Sha yápov</w>
Sha yapov</w>
Sh útov</w>
Sal vador</w>
Sa ra
SUGERENCI A</w>
SU R</w>
SU P
SUP ER
SUPER VIVENCIA</w>
SOB RE</w>
SI ÓN</w>
SI DE
SIDE NT
SIDENT E</w>
S álikova</w>
S y
S távropol</w>
S hutov</w>
S TA</w>
S AJ</w>
Ru yeʼariik</w>
Ru qʼorariik</w>
Ru kʼu
Ru bʼanariik</w>
Res puesta</w>
Regi onal</w>
Re pase</w>
Re cuerda</w>
Re cuadro</w>
Re chace</w>
Ra jaaw</w>
RU KA
RUKA Bʼ</w>
RI M
RIM ON
RIMON IOS</w>
RE J
REJ A</w>
R Á
R TADA</w>
Qʼa qʼinik</w>
QʼO R
Qui en</w>
Qu ería</w>
Qakʼa x</w>
QAH SANIK</w>
Pu eden</w>
Pregún tele</w>
Pregún tate</w>
Pre párese</w>
Pon te</w>
Pon le</w>
Pod rían</w>
Po co</w>
Pien sas</w>
Par ís</w>
PO RTADA</w>
PA REJA</w>
P ública</w>
P rueb
P h
P ahqanik</w>
O rar</w>
O bedecer</w>
O R
Ní ger</w>
Nuest ros</w>
Nor malmente</w>
No viembre</w>
No sotros</w>
Ni m</w>
Ni ko
Ni geria</w>
Necesi ta</w>
Nanu yeʼem</w>
NUEST ROS</w>
NAʼ A
NAʼA WILOM</w>
NA CI
N aza
N ar
Mini st
Mi to</w>
Me dio</w>
Maʼ chih</w>
Maa qʼor</w>
Ma ñana</w>
MAT RIMONIOS</w>
MA ÑANA</w>
M É
M on
M art
M WIK</w>
M UL
M OL
M EN
M AR
MAR C
MARC OS</w>
M AHK</w>
M A</w>
Lyu bov</w>
Le ópolis</w>
Le cciones</w>
L abores</w>
L AS</w>
Kʼa xik</w>
KʼA XKIL
KʼA MWIK</w>
Kʼ oʼnik</w>
Kʼ AL</w>
KI YEʼ
KI KʼUX</w>
KA XARO</w>
K émerovo</w>
K im</w>
K h
K eren</w>
K emerovo</w>
K an
Jonat án</w>
Ja rubʼ</w>
JU AN</w>
J otʼooj</w>
J im</w>
Isra elita</w>
Iruto qʼaaʼ</w>
Iru tikʼaaʼ</w>
Investi gación</w>
Inqa qʼor</w>
Inki yeew</w>
Inki sikʼ</w>
Inki koj</w>
Ina koj</w>
In wuyʼeej</w>
In ti</w>
In suqb</w>
In qʼorik</w>
In na</w>
Im pacto</w>
IS TORIA</w>
INKI KAPAAJ</w>
IN KʼAMWIK</w>
I xibʼ</w>
I rukapaaj</w>
I rubʼiraj</w>
I glesia</w>
I deas</w>
Hi y</w>
HA ʼ</w>
HA BL
HABL AR</w>
H ág
H allará</w>
H ISTORIA</w>
Gué zik</w>
Gu i
Gu erra</w>
Go bierno</w>
Georgi evsk</w>
Ge zik</w>
Ge vorg</w>
G ran
G an
G UE</w>
For tale
Fi j
F elices</w>
F alta</w>
F also</w>
Ex pre
Estudi ar</w>
Escu che</w>
Es ta
Es paña</w>
Es co
En vi
En fermedades</w>
Ej ército</w>
ESC RI
ES TAS</w>
Dona ciones</w>
Di rías</w>
Di luvio</w>
Descu bre</w>
Derga chova</w>
Derga cheva</w>
Deber íamos</w>
Deb e</w>
DES C
DESC AR
DESCAR GUE</w>
D a</w>
D UC
Cuán tos</w>
Cor in
Con tribuya</w>
Con stitucional</w>
Con cuerda</w>
Con ceptos</w>
Co retta</w>
Co queteo</w>
Co quetear</w>
Chri s</w>
Cherkas si</w>
Cha wixowaaj</w>
Cha suqbʼisaj</w>
Cha paj</w>
Cha koʼleej</w>
Cha kanaaʼ</w>
Cha chop</w>
Can dice</w>
Ca si</w>
CHA BʼAN</w>
CHA AJ</w>
C é
C limático</w>
C ambio</w>
C RE
C ESE</w>
BʼIR AJ</w>
BʼE EH</w>
Bʼ JIK</w>
Bi g</w>
Be thany</w>
Ba uti
B roma</w>
B ang</w>
B ER</w>
B AU
BAU TISMO</w>
Ayu damos</w>
Ayu da</w>
Ar restan</w>
Aprove che</w>
Apo ye</w>
An na</w>
Ali cia</w>
Aco so</w>
Acep tó</w>
Acep té</w>
Acep ta</w>
Ab salón</w>
AW UCHʼIHIIL</w>
AW IIBʼ</w>
AW EHTʼAL</w>
ANALÍ CESE</w>
AN U
A ʼ</w>
A yuʼ</w>
A toob</w>
A sociación</w>
A si
A mérica</w>
A mor</w>
A k</w>
A cab
A M</w>
A M
A KʼAL</w>
7 3</w>
3 500</w>
200 1</w>
199 4</w>
197 5</w>
197 3</w>
1 20
1 2
1 00</w>
, 9
י ה
יה ו
יהו ה</w>
ʼy inik</w>
ʼy ik</w>
ʼy iik</w>
ʼu k
ʼuk sjik</w>
ʼa l</w>
ʼ qor</w>
ʼ oq</w>
ʼ om</w>
ʼ jiik</w>
ʼ elik</w>
ʼ bʼaal</w>
ʼ b
ʼ U
ʼU HK
ʼUHK RI
ʼUHKRI SANIK</w>
ʼ N
ʼN CH
ʼNCH EL</w>
ł ki</w>
ús queda</w>
últi ma</w>
ú r
úr puras</w>
ú pi
úpi ter</w>
ú m</w>
ú aj</w>
ór g
órg anos</w>
ór d
órd enes</w>
ómi cos</w>
ó zov</w>
ó se
óse t</w>
ó ma
óma go</w>
ó logo</w>
ó leo</w>
ñ ad
ínci pe</w>
ífi lis</w>
í tico</w>
í r</w>
í metros</w>
í dos</w>
í do
ído lo</w>
ést re
ér sela</w>
ér quense</w>
ér co
érco les</w>
énta selo</w>
én tele</w>
én insk</w>
én da
énda se</w>
é rea</w>
é mi
émi ca</w>
é is
éis bol</w>
é dito</w>
é culas</w>
é bola</w>
æ dia</w>
ásti ma</w>
ásti cos</w>
ásti co</w>
ár sela</w>
áno va</w>
áni cos</w>
áni ca</w>
ángu lo</w>
ándo la</w>
áli sis</w>
ág ale</w>
á z
áz em
ázem ski</w>
á ri
ári v</w>
á reas</w>
á rea</w>
á ramos</w>
á monos</w>
á c
ác ter</w>
Ú zh
Úzh gorod</w>
Ú BLIC
ÚBLIC O</w>
Ó v
Óv ruch</w>
Ñ Ó</w>
Ñ O</w>
Í gor</w>
Í S</w>
ÉN TA
ÉNTA SE
ÉNTASE LO</w>
É ve
Éve res
Éveres t</w>
zh ki
zhki vka</w>
zh da</w>
zar las</w>
za vo
zavo d
za ran</w>
z ul</w>
z na
zna nte</w>
z lo
zlo b
zlob na
z i</w>
z ans
zans ky</w>
z aciones</w>
yu m</w>
yot ʼom</w>
yo lik</w>
yo ka
yo k</w>
yl g
ylg ren</w>
yi il</w>
yeʼ ja
yeʼja al</w>
yeʼ el</w>
yeʼ eem</w>
yeja am</w>
yeja a</w>
ye vo</w>
ye v</w>
yar co
yarco m</w>
yab lov</w>
ya kin</w>
y th
yth ing</w>
y son</w>
y s</w>
y s
ys sa</w>
y po
ypo x</w>
y ley</w>
y eran</w>
y era</w>
y ente</w>
y en
yen ge</w>
y da</w>
y d</w>
xu yoj</w>
xu yejaaʼ</w>
xu tyoxej</w>
xu tiqʼaaʼ</w>
xu tahqeej</w>
xu qʼoʼreej</w>
xu qʼahsaj</w>
xu min</w>
xu kʼam</w>
xu jil</w>
xu chop</w>
xu bʼ
xtzʼuh krik</w>
xroqʼo maaj</w>
xri l</w>
xqa tyoxej</w>
xqa pahqaaj</w>
xqa kʼul</w>
xqa kapaaj</w>
xow aneel</w>
xojki cha</w>
xoj rukanaaʼ</w>
xoj kik</w>
xo w</w>
xo h
xoh k
xohk r
xohkr ʼik</w>
xnu yeew</w>
xnu tyooxeej</w>
xnu tikʼaaʼ</w>
xnu tik</w>
xnu q</w>
xnu nabʼeej</w>
xnu kanaa</w>
xkʼu htjik</w>
xku xik</w>
xki toq</w>
xki suqbʼisaj</w>
xki seʼlaaj</w>
xki sach</w>
xki qʼahsaj</w>
xki nabʼeej</w>
xki low</w>
xki l</w>
xki kʼat</w>
xki koʼleej</w>
xki ko</w>
xki kanaa</w>
xki bʼiraj</w>
xiru tzʼaʼaj</w>
xiru tob</w>
xin yo</w>
xin oq</w>
xi ʼuksjik</w>
xi yojib</w>
xi wuktik</w>
xi tz</w>
xi toobʼinik</w>
xi tahqaaljik</w>
xi s</w>
xi qʼorobʼjik</w>
xi qiibʼ</w>
xi q</w>
xi ma
xima damente</w>
xi loqʼinik</w>
xi kʼ
xi ko</w>
xi kantesjik</w>
xi kamanik</w>
xi jotʼarik</w>
xi chu
xichu hpik</w>
xi chol</w>
xi bʼehik</w>
xchi h
xchih kik</w>
xatki tzʼap</w>
xatki tobʼeej</w>
xatki chop</w>
xat yohkik</w>
xat rutob</w>
xat qʼorik</w>
xat ponik</w>
xan d
xand ra</w>
xa yejaaʼ</w>
xa yejaa</w>
xa toqʼaaʼ</w>
xa suq</w>
xa q</w>
xa min
xamin emos</w>
xa ma</w>
xa kʼax</w>
xa kowej</w>
x wisaj</w>
x wih</w>
x uun</w>
x tzʼuhkʼ
xtzʼuhkʼ ri
xtzʼuhkʼri sanik</w>
x tahqaaljik</w>
x suqb</w>
x rik</w>
x reqarik</w>
x rehsaj</w>
x re
xre saj</w>
x qikʼsaj</w>
x qik</w>
x ool</w>
x oo
xoo ybʼal</w>
x min
x kʼihbʼik</w>
x kʼamwik</w>
x kʼamarik</w>
x koʼljik</w>
x kojarik</w>
x keh
xkeh chaaj</w>
x johtik</w>
x irukoʼleej</w>
x inkitzʼap</w>
x inkitobʼeej</w>
x inkitob</w>
x inik</w>
x inelik</w>
x imponik</w>
x eni
xeni ana</w>
x chaqʼ
xchaqʼ sanik</w>
x aro</w>
x am</w>
x aj
xaj al</w>
wuquu b</w>
wu yʼeem</w>
wu y</w>
wu qu
wuqu b</w>
wu laaʼ</w>
wihʼi naq</w>
wi xq</w>
wes aj</w>
we hin</w>
we b</w>
wa łki</w>
wa xiqiibʼ</w>
wa qʼi
waqʼi ibʼ</w>
wa q
waq ibʼ</w>
wa kʼuun</w>
wa jaawriik</w>
wa h</w>
w w
w oʼ
woʼ hoq</w>
w oq</w>
w ment</w>
w jiik</w>
w en</w>
w e</w>
w an
wan ma
wanma ke</w>
ví n
vín culo</w>
ví en</w>
vulner ables</w>
vulner able</w>
vuel to</w>
vosto k</w>
vor ki
vorki án</w>
vor k
vork yan</w>
volver ía</w>
volv érsela</w>
vol vemos</w>
vo le
vole ib
voleib ol</w>
vo cal</w>
visi tas</w>
visi ble</w>
viru ela</w>
viol ó</w>
viol ín</w>
viol ento</w>
viol ación</w>
vini era</w>
vindi cación</w>
vide z</w>
viaja do</w>
viaja ba</w>
via kin</w>
vi ves</w>
vi vamos</w>
vi su
visu ales</w>
vi stes</w>
vi sta
vista zo</w>
vi sor
visor y</w>
vi siones</w>
vi ga</w>
vi era</w>
vi e
vie jo</w>
vi amente</w>
vesti rnos</w>
ves es</w>
verti rles</w>
verdader amente</w>
verb o</w>
verb ales</w>
verb al</w>
ver íamos</w>
ver ything</w>
ver sario</w>
ver ru
verru gas</w>
ver o
vero don
verodon etsk</w>
ver bi
verbi o</w>
ver ano</w>
vent s</w>
vend rán</w>
ven tas</w>
ven i
veni o</w>
ven der
vender ían</w>
ven ciones</w>
ven cidos</w>
ven cia</w>
vecin os</w>
ve mente</w>
ve lo
velo cidad</w>
ve les</w>
ve ge
vege tación</w>
ve cino</w>
ve as</w>
var ían</w>
var to
varto vsk</w>
var d</w>
var chel
varchel i</w>
val orar</w>
val ente</w>
val en</w>
val de</w>
val d
vald ría</w>
vac í
va nas</w>
v álida</w>
v yakin</w>
v tsi</w>
v to
vto zavod
v s
vs ka
vska ya</w>
v lo
vlo vsk</w>
v ing</w>
v in
v et</w>
v ando</w>
v aci
uy un
uyun iik</w>
uy inik</w>
uxla nik</w>
ux ik</w>
uu yej</w>
uu jisaj</w>
uu ch</w>
utili zar</w>
utili zaban</w>
uti n</w>
uter s</w>
uscri to</w>
usa mos</w>
us tra
us tivo</w>
us es</w>
us arlas</w>
us arla</w>
ur t
urt ney</w>
univer sidad</w>
uni ó</w>
uni kʼeej</w>
uni eran</w>
uni era</w>
uni do</w>
uni das</w>
unci ona</w>
un g
ung ría</w>
un es</w>
un do</w>
un b</w>
uh tz</w>
uh tik</w>
uh n</w>
uh baal</w>
ue vorkián</w>
ue cia</w>
ucrani anos</w>
ucrani anas</w>
u ʼyinik</w>
u yej</w>
u va</w>
u tiniik</w>
u t</w>
u r</w>
u ljik</w>
u ksanik</w>
u j</w>
u el</w>
u cida</w>
u b</w>
tʼu saaʼ</w>
tʼi o
tʼio se
tʼiose j</w>
tʼ ik</w>
tʼ el
tʼel jik</w>
técni cas</w>
té tico</w>
tá reas</w>
tzʼuhkri sjik</w>
tzʼihbʼa am</w>
tzʼih b
tzʼaʼ laj</w>
tzʼapa lkeebʼ</w>
tzʼ uuyej</w>
tzʼ ik</w>
tz ger</w>
tz al</w>
tyoo xeem</w>
tuvi mos</w>
tur ne
turne d</w>
tuber culo
tuberculo sis</w>
tu yo</w>
tu ve</w>
tu na
tu mb
tumb as</w>
tu gu
tugu és</w>
tu almente</w>
tro pie
tropie zo</w>
tro pe
tri ángulos</w>
tri án</w>
tri nas</w>
tri bu</w>
tre me</w>
trata ran</w>
transmi tido</w>
transmi te</w>
tranquili za</w>
tran si
tran jero</w>
tradu jo</w>
trabaja mos</w>
trabaja dores</w>
trabaja dora</w>
trabaj ó</w>
traba jemos</w>
tra ye
tra tarás</w>
tra tarlos</w>
tra mp
tramp a</w>
tr óleo</w>
tr ánsito</w>
tr yan</w>
tr ina</w>
tr aciones</w>
tr ac
trac tor</w>
toʼ bʼaal</w>
tor sk</w>
tor o</w>
tor mento</w>
tor mentas</w>
too bʼlaj</w>
ton tos</w>
ton tería</w>
tomar án</w>
toler ante</w>
tobʼ ineel</w>
to wer</w>
to vski</w>
to tipo</w>
to sín
tosín tesis</w>
to qʼaam</w>
to mic</w>
to mas</w>
to k</w>
to h</w>
to do
todo xa</w>
to cara</w>
to car</w>
to ca</w>
to bʼjiik</w>
tiʼ okik</w>
tiʼ oj</w>
tiʼ laj</w>
titu lar</w>
titu lado</w>
tiru kʼam</w>
tiru ko</w>
tiru chaʼjeej</w>
tiro teos</w>
tiki saj</w>
tiki qʼoreej</w>
tiki koj</w>
tibʼ iik</w>
ti zadas</w>
ti yowabʼjiik</w>
ti yo</w>
ti wihʼoq</w>
ti tobʼinik</w>
ti sts</w>
ti sta</w>
ti s</w>
ti rukuxisaj</w>
ti rukanaaʼ</w>
ti rubʼiraj</w>
ti rlo</w>
ti rada</w>
ti ra</w>
ti qʼimaj</w>
ti qa
tiqa aj</w>
ti op
tiop ía</w>
ti lmente</w>
ti kʼihik</w>
ti koʼ
tikoʼ q</w>
ti kaqrik</w>
ti kapebʼinoq</w>
ti kapebʼinik</w>
ti kaaj</w>
ti i
tii j
tiij bʼal</w>
ti erno</w>
ti er
ti cidad</w>
ti cano</w>
testa ron</w>
testa mentos</w>
terri ble</w>
terre st
terre no</w>
ter ías</w>
ter á</w>
ter s
ters burgo</w>
ter rá
terrá neas</w>
ter o
tero sexuales</w>
ter nos</w>
ter no</w>
ter na</w>
ter mi
ter cio</w>
teorológi ca</w>
tentz uun</w>
teni dos</w>
tener lo</w>
tener les</w>
tener le</w>
tend í</w>
ten ías</w>
ten ticidad</w>
ten tará</w>
ten tado</w>
ten ta</w>
ten g
teng ámonos</w>
ten a</w>
tempor almente</w>
tempor ales</w>
temper atura</w>
temer le</w>
teli tas</w>
tele f
telef ónicas</w>
tel le</w>
tel la</w>
tecno logía</w>
te z</w>
te me</w>
te m</w>
te ji
teji do</w>
te jej</w>
te f
tef l
tefl ón</w>
te d</w>
te cho</w>
te américa</w>
tatu aj
tatuaj es</w>
tar ían</w>
tar é</w>
tar dan</w>
tan nica</w>
tal lu
tallu r
tallur gi
tallurgi ch
tallurgich es
tal i</w>
tal entos</w>
tah qanik</w>
tab la</w>
ta xi</w>
ta wo</w>
ta va</w>
ta ri
tari st
tarist án</w>
ta pu
tapu jos</w>
ta mon
tamon tes</w>
ta lla
ta lia</w>
ta j
ta d
tad j
tadj i</w>
t ó
t ánicos</w>
t ábamos</w>
t ty</w>
t te</w>
t t
tt mach
ttmach er</w>
t sia</w>
t s</w>
t ren
t remos</w>
t jaaj</w>
t inta</w>
t ino</w>
t ho
tho ut</w>
t est
test s</w>
sú b
súb di
súbdi tos</w>
sóta nos</w>
sín tomas</w>
sustitu ido</w>
sustan tivo</w>
sus tentará</w>
sur gió</w>
sur do</w>
suqki laal</w>
suq bʼisam</w>
supervi vencia</w>
supervi sa</w>
superfici es</w>
suminist ra</w>
sul te</w>
suici darse</w>
sufri rás</w>
sufri mientos</w>
suf ra</w>
sue gra</w>
suceder ía</w>
suce dido</w>
suc eso</w>
sub terráneas</w>
sub sa
subsa ha
subsaha ri
subsahari ana</w>
su yos</w>
su yas</w>
su tilmente</w>
su tem</w>
su pone</w>
su pi
supi eran</w>
su la
sula mi
sulami ta</w>
su gerencia</w>
su cio</w>
su ciedad</w>
su cia</w>
stó teles</w>
stra do</w>
sto v</w>
sto so</w>
sto m
stom el</w>
sto dia</w>
stitu to</w>
sti n</w>
stan do</w>
sta l
sta dor</w>
st ración</w>
st or
stor y</w>
st in
sos pe
sorpren der
sorprender nos</w>
sorpren den
sorprenden temente</w>
sor do</w>
son ri
soluciona rán</w>
solu ciones</w>
solter as</w>
solici tará</w>
solici tar</w>
sol ó</w>
sol tería</w>
sol tera</w>
sobresali entes</w>
so nar</w>
so lem
solem ne</w>
so las</w>
so lar</w>
so fía</w>
so ciedad</w>
so br
sobr ino</w>
so b
sob res
sir vió</w>
sir vieron</w>
sir ven</w>
sincer as</w>
sin tético</w>
sin g</w>
sin fín</w>
simi lares</w>
simbóli cos</w>
signifi que</w>
sig las</w>
si ya</w>
si vas</w>
si ty</w>
si tos</w>
si one</w>
si onal</w>
si on
si nal</w>
si mu
si mili
simili tudes</w>
si mas</w>
si ma</w>
si llo</w>
si j</w>
si im
siim bʼik</w>
si h
sih ij</w>
si bʼ</w>
sf érica</w>
seʼ el</w>
señ ores</w>
señ a</w>
sex y</w>
sex os</w>
sesi ón</w>
servi do</w>
servi cios</w>
seri amente</w>
ser vía</w>
ser t</w>
ser piente</w>
ser je</w>
senti ré</w>
senti rán</w>
senti rnos</w>
senti rme</w>
senti dos</w>
sensa tez</w>
senci lla</w>
sen tencias</w>
sen tados</w>
sen sible</w>
sen sación</w>
sen deros</w>
semb rar</w>
selec tivos</w>
selec cionar</w>
segú rese</w>
segun dos</w>
segui rán</w>
segui remos</w>
segui do</w>
secre ta</w>
se xis</w>
se tte</w>
se tenta</w>
se pul
sepul tura</w>
se pan</w>
se o</w>
se lé
selé ucida</w>
se lección</w>
se las</w>
se is
seis cientos</w>
se ht</w>
se da</w>
se d</w>
se cun
secun da
secunda ria</w>
se co</w>
se bada</w>
se ase</w>
satisfac torio</w>
saq bʼisaj</w>
santifi car</w>
santifi cado</w>
sanguí ne
sanguíne o</w>
sana dor</w>
san to
san o</w>
san iik</w>
salu daron</w>
sali rse</w>
sali do</w>
sald ría</w>
sal vo</w>
sal tamontes</w>
sal mos</w>
sal mo</w>
sal m</w>
sal jiik</w>
sal go</w>
sal gan</w>
sal ga</w>
sach ooj</w>
sabi as</w>
sabi amente</w>
sab rás</w>
sab el</w>
sa ú</w>
sa k</w>
sa grado</w>
sa grada</w>
sa g</w>
sa dor</w>
sa chik</w>
sa ach</w>
s ífilis</w>
s ánov</w>
s tras</w>
s tados</w>
s que
sque tbol</w>
s nov
snov ob
snovob or
snovobor sk</w>
s ha</w>
s cientos</w>
s ará</w>
s arc
s anos</w>
s ani
s acu
rá sticas</w>
ruʼa kʼ
ruyu bʼjiik</w>
ruwi riik</w>
rutzʼi rjiik</w>
rutzʼa ʼjiik</w>
rutzʼa j</w>
ruto jariik</w>
ruto bʼjik</w>
rutij iniik</w>
rutaqʼa am</w>
rusuuq b</w>
ruqʼor al</w>
ruqʼata riik</w>
ruqʼata m</w>
ruqʼah saljiik</w>
rupa jariik</w>
rupa hbʼa
rupahbʼa am</w>
rupa bʼa
rupabʼa am</w>
runin qʼjiik</w>
runi mal</w>
rule tzʼa</w>
rukʼu xariik</w>
rukʼu ljik</w>
rukʼi sinal</w>
rukʼi jolaal</w>
rukʼa marik</w>
ruku yum</w>
rukoʼ liniik</w>
ruko h
ruke tarik</w>
ruke tariik</w>
rukape hbʼaal</w>
rukape b</w>
ruka ʼyiik</w>
ruka ʼ
ruka xaro</w>
ruka maniik</w>
ruju xariik</w>
rujotʼ om</w>
ruja larik</w>
ruj ana</w>
ruhabʼ il</w>
rueb e</w>
ruchʼi h
rucha miil</w>
rubʼeh sjiik</w>
rubʼeh sam</w>
ru zhkivka</w>
ru yoj</w>
ru yohkik</w>
ru yohkiik</w>
ru yeʼaab</w>
ru ye
ru xlabʼal</w>
ru wih</w>
ru tzʼihbʼ</w>
ru tuqkilal</w>
ru tina</w>
ru tibʼkaal</w>
ru th</w>
ru tentzuun</w>
ru tas</w>
ru taqʼanik</w>
ru tahqeej</w>
ru ta</w>
ru suqbʼisaj</w>
ru sakʼaaj</w>
ru reqem</w>
ru ral</w>
ru qʼil</w>
ru qʼebʼem</w>
ru qʼahsam</w>
ru qah
ruqah sjiik</w>
ru puerta</w>
ru po</w>
ru pinik</w>
ru pahqaam</w>
ru najtiil</w>
ru mpi
ru minariik</w>
ru min</w>
ru mi</w>
ru mam</w>
ru m</w>
ru lo
rulo qʼiil</w>
ru kʼuhta
ru kʼaxam</w>
ru kansam</w>
ru jotʼ</w>
ru josq</w>
ru jil</w>
ru jal</w>
ru ina</w>
ru hor
ruhor ahiil</w>
ru halak</w>
ru familiar</w>
ru ego</w>
ru chʼuwaʼ
ru chʼuwa
ruchʼuwa ʼiil</w>
ru chuk</w>
ru chih</w>
ru chaqʼw
ru Testigo</w>
ru Qʼ
ruQʼ oral</w>
roto waaj</w>
roo kbʼaal</w>
roo k</w>
romp í</w>
romp e</w>
rode os</w>
ro so</w>
ro m</w>
rin cher
rincher adas</w>
rikʼ iik</w>
ries gos</w>
ric k</w>
ri éndose</w>
ri xowjiik</w>
ri tʼik</w>
ri stóteles</w>
ri sten</w>
ri s
ri osidad</w>
ri n</w>
ri ka
rika aq</w>
ri ge</w>
ri f
ri e</w>
ri dades</w>
ri ch</w>
ri c</w>
ri be</w>
ri an</w>
revi stas</w>
reve lado</w>
reuni r</w>
retra sando</w>
resul tará</w>
resul tara</w>
resul tan</w>
resuci ten</w>
resuci te</w>
resuci tado</w>
resuci tadas</w>
resuci ta</w>
restau rar</w>
restable cer</w>
respon día</w>
respon dió</w>
respon da</w>
respetu oso</w>
resol verá</w>
resi sti
resi ona
resiona n</w>
resca taron</w>
resca tarme</w>
resca tados</w>
res pi
res or</w>
res c
resc indi
reqʼo mjiik</w>
repi tió</w>
renunci ar</w>
ren ting</w>
ren tena</w>
ren dimos</w>
ren cea
rencea u</w>
ren ce</w>
rela tivamente</w>
rela jar
relajar nos</w>
reina do</w>
rehtʼa al</w>
reh tʼeljik</w>
reh tesjiik</w>
reh t</w>
regu lar</w>
regres ó</w>
registra rlas</w>
registra r</w>
regi onal</w>
rega la</w>
reg ener
refugi ando</w>
refugi an</w>
refle jo</w>
refle je</w>
refle jar</w>
refle jan</w>
refi rió</w>
refi riéndose</w>
refi eren</w>
redu cir</w>
redu cido</w>
recuper é</w>
recuer dan</w>
recorda torio</w>
recor daba</w>
reconfor tantes</w>
recompen sas</w>
recompen sará</w>
recibi rán</w>
recib ían</w>
recib as</w>
reci entemente</w>
reci be</w>
reci ba</w>
recha zan</w>
recha zado</w>
rece ta</w>
rec k</w>
rebel des</w>
rebe larse</w>
rebe laron</w>
reanu da</w>
reali zando</w>
reali zan</w>
reali zada</w>
reacciona rías</w>
reacciona ron</w>
re ʼaj</w>
re za</w>
re yiil</w>
re veses</w>
re t</w>
re seca</w>
re ros</w>
re par
re p
re nov
re mor
remor dimientos</w>
re mon
re mo
re medio</w>
re lo
relo jero</w>
re l</w>
re jeh</w>
re ja</w>
re inos</w>
re in
rein en</w>
re go
rego ci
re copi
re conocimiento</w>
re cono
re baja</w>
re acciones</w>
raz os</w>
ran car</w>
rama torsk</w>
rama tizadas</w>
raj waam</w>
rah liil</w>
rah i</w>
raci sta</w>
raci ona
raciona rían</w>
ra zas</w>
ra tos</w>
ra te</w>
ra stro</w>
ra sak</w>
ra rse</w>
ra rnos</w>
ra rme</w>
ra riik</w>
ra ra</w>
ra na
rana abʼ</w>
ra k</w>
ra jw
rajw an
rajwan jik</w>
ra dio</w>
ra dic
ra das</w>
ra ble</w>
ra aʼ</w>
r úaj</w>
r ón</w>
r ti
r ri</w>
r oq</w>
r no
rno hra
rnohra d</w>
r l
rl ene</w>
r ini
rini maal</w>
r ge
rge on</w>
r d
rd ino</w>
qʼun inik</w>
qʼu ch</w>
qʼoʼ rinik</w>
qʼoj om</w>
qʼo mjiik</w>
qʼo maaj</w>
qʼi larik</w>
qʼi lariik</w>
qʼi jiil</w>
qʼe qu
qʼequ m</w>
qʼata riik</w>
qʼat bʼal</w>
qʼa qʼ
qʼaqʼ ineel</w>
qʼa bʼi
qʼabʼi is</w>
qʼ uniil</w>
qʼ nuwach</w>
quími cos</w>
quími ca</w>
quu k</w>
qun cheel</w>
qui tar</w>
qui tan</w>
qui tado</w>
quer ría</w>
quedar án</w>
quedar me</w>
quedar a</w>
que ma</w>
que hac
quehac eres</w>
que dé</w>
qu émica</w>
qu lkeebʼ</w>
qu eline</w>
qojru min</w>
qojru jotʼ</w>
qojki jotʼ</w>
qojki cha</w>
qoj ʼooj</w>
qoj yowabʼjiik</w>
qoj yo</w>
qoj rutobʼeem</w>
qoj rutob</w>
qoj ruk</w>
qoj rubʼiraj</w>
qoj risaj</w>
qoj rijbʼik</w>
qoj qʼehbʼik</w>
qoj q</w>
qoj kʼachariik</w>
qoj kapebʼinik</w>
qoj chalik</w>
qoh rutoobʼeej</w>
qo kri
qokri sam</w>
qi lariik</w>
qi kʼraaj</w>
qaʼ nam</w>
qato bʼjiik</w>
qani maniik</w>
qa ʼa
qa yoʼjiik</w>
qa tyooxeem</w>
qa tobʼeem</w>
qa tiʼkiil</w>
qa tiʼjolaal</w>
qa tinamiit</w>
qa qʼorobʼjik</w>
qa minim</w>
qa mayiij</w>
qa kʼuhbʼa
qakʼuhbʼa ljik</w>
qa kʼu
qakʼu larik</w>
qa kʼa
qa kuyuj</w>
qa kojbʼaal</w>
qa kapebʼal</w>
qa kapaam</w>
qa kapaaj</w>
qa juʼjunal</w>
qa ju</w>
qa holohik</w>
qa haa</w>
qa bʼehomal</w>
q ooj</w>
q lik</w>
q is</w>
q animam</w>
q ana</w>
pón gan
póngan se</w>
pí fan
pífan es</w>
pusi eran</w>
pusi era</w>
pun tual</w>
pul sar</w>
puhka aljik</w>
puh kaaj</w>
pudi éramos</w>
publica dora</w>
publica dor</w>
pu se</w>
pu ra</w>
pu lar</w>
pu la
pula to</w>
pu l</w>
pu chados</w>
psico lógica</w>
psi có
psicó logos</w>
próxi mos</w>
pró tesis</w>
pru nov
proye ctos</w>
provo cará</w>
provo can</w>
provo cado</w>
prove cho
proteger me</w>
proteger los</w>
propó sitos</w>
propor ciona</w>
pronunci aban</w>
prono mbres</w>
prono mbre</w>
promue ven</w>
prome ten</w>
prohí ben</w>
prohibi dos</w>
prohibi das</w>
prohib ido</w>
progra mas</w>
profé ticos</w>
profun di
profundi dad</w>
profun das</w>
profun da</w>
profes ora</w>
profe tas</w>
prof ética</w>
produ cto</w>
produ cido</w>
proce dimientos</w>
proce dentes</w>
pro verbio</w>
pro totipo</w>
pro t
pro puesto</w>
pro ponen</w>
pro pee
propee ta</w>
pro medio</w>
pro cur
procur ando</w>
pri vando</w>
pri vados</w>
pri vado</w>
pri sion
pri mo
primo génito</w>
presiona n</w>
presen ciales</w>
presen ci
pres tas</w>
pres tar</w>
prepara ron</w>
prepara ba</w>
prepar ación</w>
preocu pe</w>
preocu para</w>
pren sa</w>
pregún tele</w>
pregun té</w>
pregun to</w>
pregun ten</w>
pregun taría</w>
predicar án</w>
predica ban</w>
predi camos</w>
prece dente</w>
pre ten
pre sos</w>
pre serv
pre sas</w>
pre feri
preferi mos</w>
pre feren
pre ex
preex ojik</w>
pre decir</w>
pre cios</w>
practi can</w>
pr éndase</w>
pose erán</w>
pos tura</w>
porta voz</w>
por tugués</w>
por ta</w>
por né
porné ia</w>
popu lares</w>
popu lar</w>
poner nos</w>
poner lo</w>
pon erte</w>
poli c
polic ías</w>
po ética</w>
po lo</w>
po lio</w>
po es
poes ía</w>
pli nar</w>
pli có</w>
planifi cación</w>
pla ta</w>
pla stados</w>
pla na</w>
pizar rón</w>
pilo to</w>
pied ra</w>
pie zas</w>
pi f
pif ani
pifani o</w>
pi enten</w>
pi el</w>
pi des</w>
pi demi
pidemi as</w>
pi da</w>
pi ch
pich eej</w>
pi cada</w>
peti ción</w>
pesca dor</w>
persi ste</w>
persegui do</w>
permiti eron</w>
permi ta</w>
permane cen</w>
perjudici ales</w>
peri odi
periodi sta</w>
perdona rá</w>
perdona rnos</w>
perdona rlo</w>
perci bir</w>
perci ben</w>
per verti
per tos</w>
per miten</w>
per dió</w>
per diendo</w>
per der
pensa miento</w>
pens arlo</w>
penitencia ria</w>
pendi ente</w>
pendi endo</w>
pen sé</w>
pen e
pene tración</w>
peligro sa</w>
pee ch</w>
pedi rías</w>
pedi ría</w>
peda zo</w>
pe tróleo</w>
pe nas</w>
pe mos</w>
pe lee
pelee to</w>
pe dia</w>
pe caron</w>
pe car</w>
pe ca</w>
pe ca
pe ace</w>
paʼ lojik</w>
pati tis</w>
pati a</w>
pasa mos</w>
pas tores</w>
pas aron</w>
pará cli
parácli to</w>
pará bola</w>
particu lares</w>
participan do</w>
participa ción</w>
partici pemos</w>
partici pan</w>
partici pamos</w>
partici p
particip ó</w>
parta mentos</w>
parecer nos</w>
para rnos</w>
para r</w>
par émonos</w>
par ánima</w>
par que</w>
par ac
parac ai
paracai dista</w>
pana tiij</w>
pan tz</w>
pan kokʼ</w>
pahqa al</w>
pah qaj</w>
pah b</w>
pacífi cas</w>
paci al</w>
pa tas</w>
pa semos</w>
pa sas</w>
pa rukʼux</w>
pa rukʼisinal</w>
pa rubʼihnaal</w>
pa reh</w>
pa nimaq</w>
pa mahk</w>
pa lu
palu dis
paludis mo</w>
pa li
pa jooj</w>
pa gue</w>
pa de
pade cemos</w>
pa cio</w>
pa c
p úrpuras</w>
p érdida</w>
p ædia</w>
p oq</w>
p lacer</w>
p inti
p inta</w>
p ino</w>
p ho
pho to</w>
oʼ loom</w>
ou é</w>
ou s</w>
ot her
other s</w>
os qʼiil</w>
os f
osf era</w>
orien tación</w>
organi zaron</w>
organi smos</w>
organi ce</w>
ordena do</w>
or to</w>
or sionada</w>
or ro</w>
or rea</w>
or k
ork ino</w>
or dán</w>
or dena</w>
or bal</w>
oprim ían</w>
oper ación</w>
oo tzʼ</w>
oo qʼ</w>
oo k</w>
oo d
ood ni
oodni ght</w>
onáuti ca</w>
oni ca</w>
ona r</w>
ona le</w>
ona ber
onaber i</w>
on ka</w>
on er
olvi daría</w>
olvi daremos</w>
olo gi
ologi co</w>
olo dimir</w>
ol vida</w>
ol vamos</w>
ol er
oler ancia</w>
ol da
olda via</w>
ol ación</w>
ok bʼal</w>
ofreci ó</w>
ofre cerse</w>
ofre cerle</w>
ofre cer
ofen da</w>
odi an
odian ka</w>
océ ano</w>
ocurri ría</w>
ocurri endo</w>
ocur ran</w>
ocul tarse</w>
obsesiona dos</w>
obsesi vo</w>
observ ar</w>
observ ado</w>
obli guen</w>
obli gamos</w>
obje tos</w>
obedecer ían</w>
obede cían</w>
ob tener</w>
ob serva</w>
ob s
ob rable</w>
o í</w>
o zov</w>
o ye</w>
o y</w>
o vio</w>
o tob</w>
o samente</w>
o reja</w>
o o</w>
o namiento</w>
o mbʼal</w>
o logías</w>
o ch
och enta</w>
o ara
oara me
oarame as</w>
né simo</w>
ny tsia</w>
ny i</w>
nun ovio</w>
nun jinaq</w>
numer osos</w>
nucle ar</w>
nu yo</w>
nu waʼ</w>
nu tri
nu tinamiit</w>
nu tibʼkal</w>
nu sik</w>
nu req</w>
nu qʼorom</w>
nu qʼoral</w>
nu q</w>
nu puhbʼ</w>
nu mensaje</w>
nu kʼuhtaaj</w>
nu kʼaxkilaal</w>
nu kʼaxam</w>
nu kimiik</w>
nu kaxarohiil</w>
nu habʼul</w>
nu bʼanooj</w>
nu b
nub es</w>
nu Santo</w>
nu Dios</w>
nov tsi</w>
nor malmente</w>
no cen
nocen ce</w>
no c</w>
nim bʼisaj</w>
nie ve</w>
nie ta</w>
nie gan</w>
ni veles</w>
ni ta</w>
ni pro</w>
ni miento</w>
ni kʼ
ni do</w>
neu tro</w>
neu monía</w>
nervi osa</w>
nega tiva</w>
neen qa
neen chalik</w>
nee ru
nee natijej</w>
necesi ten</w>
ne vartovsk</w>
ne th</w>
ne gi
negi e</w>
ne fi
nefi li
nefili m</w>
ne ch
ne a
nea u</w>
naʼa n</w>
naʼa kʼu
naʼakʼu laam</w>
naʼa jalam</w>
nato b</w>
nati onal</w>
narukʼu tiniik</w>
narukʼu lik</w>
narukʼu larik</w>
naruka maniik</w>
naru yowabʼjiik</w>
naru yeem</w>
naru ye</w>
naru qʼoriik</w>
naru qʼatariik</w>
naru q</w>
naru patiniik</w>
naru nimam</w>
naru kʼulum</w>
naru kʼa
naru kimik</w>
naru k</w>
naru johtik</w>
naru chalik</w>
nari kʼraam</w>
nara sjik</w>
nara sjiik</w>
nar ra</w>
naqoj rutobʼeem</w>
naqakow em</w>
naqa tijem</w>
naqa patiniik</w>
naqa kʼuxum</w>
naqa kʼaxam</w>
naqa kʼamam</w>
naqa kaman
naqa k</w>
naqa chopom</w>
nanu wikʼsam</w>
nanu qʼorom</w>
nanu q</w>
nanu kʼulum</w>
nanu kojom</w>
nanu chihiim</w>
nami n</w>
naki tzʼa
naki tobʼeem</w>
naki tijem</w>
naki taqʼanik</w>
naki qʼorom</w>
naki qahsam</w>
naki kanaam</w>
naki jalam</w>
naki b</w>
nakeh chaam</w>
naj il</w>
naj e</w>
nahi is</w>
naaki sutem</w>
naa tijem</w>
naa sikʼim</w>
naa rilariik</w>
naa qʼorom</w>
naa kojom</w>
naa keh
naakeh chaam</w>
naa kapaam</w>
na zi</w>
na wilow</w>
na wilom</w>
na ve
na u
na rán</w>
na rukapaam</w>
na qʼnuwach</w>
na qʼawach</w>
na qʼahsaj</w>
na qokrisam</w>
na nimaj</w>
na mor
namor ados</w>
na kuxoq</w>
na kowej</w>
na kaat</w>
na i
na dar</w>
na ció</w>
na cido</w>
n nytsia</w>
n jaljik</w>
n cla</w>
mó viles</w>
mí sima</w>
mí ra
mé todo</w>
multi tud</w>
mul tas</w>
muest ras</w>
mu éstre
mu rti
mu r</w>
mu qulkeebʼ</w>
mu eren</w>
mu dó</w>
mpi e
motiv arnos</w>
motiv ar</w>
motiv ados</w>
motiv ación</w>
mostra mos</w>
mori rme</w>
mor almente</w>
mor alidad</w>
mor ada</w>
moni as</w>
mon taba</w>
mon o</w>
mon ja</w>
mol éculas</w>
mol esto</w>
modifi cado</w>
moder ación</w>
mod esti
modesti a</w>
mod ales</w>
mo ʼq</w>
mo y</w>
mo tú</w>
mo sférica</w>
mo lwik</w>
mo lom</w>
mo dé
modé do
modédo vo</w>
mo dos</w>
mo crática</w>
mni stía</w>
mis mísima</w>
mis ha
minu to</w>
minu ir</w>
mini stras</w>
mina ted</w>
mina rik</w>
min na</w>
min eros</w>
min era</w>
mili an</w>
mil y</w>
migra torias</w>
mi ércoles</w>
mi ti
mi sil</w>
mi ró</w>
mi cro
micro bi
microbi ólogo</w>
metá for
metropolita nas</w>
meti éndose</w>
meti da</w>
met ían</w>
mere zco</w>
mer cio</w>
mensa jeros</w>
menciona mos</w>
men se</w>
men ka</w>
men cion
mencion en</w>
memor a
memora tivas</w>
mejor e</w>
mej oren</w>
medioambi ental</w>
medi cina</w>
mecáni co</w>
me ten</w>
me te</w>
me reci
me mori
me la</w>
mbo ya</w>
mbo v</w>
mb ul</w>
mb er
mber l
mberl y</w>
matri z</w>
mate mática</w>
mat qʼorik</w>
mat kaqrik</w>
mascul inos</w>
mascul ino</w>
maravillo sa</w>
maravi lla</w>
mar t</w>
mar cha</w>
mar caron</w>
manipu lado</w>
manipu lación</w>
mani obrable</w>
mani f
mane cer</w>
manda miento</w>
mana aʼ</w>
man tienes</w>
man tengamos</w>
man tenemos</w>
man ej
manej ó</w>
man datos</w>
man cha</w>
maltrata ban</w>
mal vado</w>
mal trato</w>
ma xta</w>
ma terna</w>
ma rá</w>
ma ria</w>
ma po</w>
ma lig
malig no</w>
ma león</w>
ma kanaaʼ</w>
ma jej</w>
ma dera</w>
ma cro
macro evolución</w>
m wikʼ</w>
m m
mm er</w>
m eetzʼ</w>
m bʼisaj</w>
lí n</w>
lágri ma</w>
lus traciones</w>
lu znante</w>
lu ces</w>
loqʼ ombʼal</w>
loo din
loodin g</w>
logra mos</w>
logra ba</w>
log ros</w>
log ra</w>
lo yd</w>
lo xeniana</w>
lo wa</w>
lo va</w>
lo sofía</w>
lo e</w>
lo bal</w>
llev en</w>
llev as</w>
llev arte</w>
llev arse</w>
llen ó</w>
lleg arles</w>
lle vo</w>
lle ve</w>
lle tin</w>
lle narán</w>
lle nar</w>
lle mos</w>
lle gamos</w>
lle do</w>
llamar nos</w>
lla ntes</w>
lla n</w>
lla me</w>
ll oré</w>
ll ones</w>
ll in
llin tsi</w>
liter almente</w>
liter al</w>
limpi ar</w>
limi tar</w>
limi tan</w>
limi taciones</w>
lici osos</w>
liber al</w>
lib res</w>
lib rarse</w>
li tos</w>
li stos</w>
li so</w>
li n</w>
li kooj</w>
li keebʼ</w>
li eta</w>
li cción</w>
li c</w>
lga ta</w>
ley éndo
ley enda</w>
levan tan</w>
len eej</w>
len b
lenb rook</w>
lectu ras</w>
lec tor</w>
le ña</w>
le tín</w>
le tzʼ</w>
le tt</w>
le tre
le tas</w>
le ta</w>
le qʼ</w>
le mbʼal</w>
le es</w>
le c</w>
le almente</w>
laʼ in
laʼin eej</w>
lati on</w>
lar gas</w>
lan dia</w>
lan des
landes es</w>
lan ca</w>
labor a
lab emos</w>
la tín</w>
la tina</w>
la tado</w>
la ta</w>
la ran</w>
la mil</w>
la men
la kʼun</w>
la ine</w>
la go
l ías</w>
l ástima</w>
l yn</w>
l unes</w>
l les</w>
l es
les s</w>
l ento</w>
l acer
kʼuhta maj</w>
kʼu tjaaj</w>
kʼu tinik</w>
kʼoʼn eel</w>
kʼoʼn eej</w>
kʼi siimbʼik</w>
kʼi saj</w>
kʼi jolaal</w>
kʼi hsaj</w>
kʼax wik</w>
kʼax arik</w>
kʼah inik</w>
kʼah chi</w>
kʼa xaaj</w>
kʼa tzkʼotik</w>
kʼa leneej</w>
kʼa ha
kʼaha am</w>
kʼ lik</w>
kʼ eem</w>
kó vlev</w>
kuy eem</w>
kuy bʼaal</w>
kuk sjiik</w>
ku yariik</w>
ku xik</w>
ku chʼihiil</w>
koʼ loom</w>
koʼ lembʼal</w>
kow b</w>
kor sen</w>
koj ki
koj b</w>
ko ʼ</w>
ko wil</w>
ko vsk</w>
ko vlev</w>
ko rukoj</w>
ko ri
ko lbʼal</w>
ko jiik</w>
kiʼi xowanik</w>
kiʼ okrik</w>
kitoj om</w>
kito q</w>
kisu tinik</w>
kiru qʼat</w>
kiru kʼax</w>
kinim bʼisam</w>
kini kʼik</w>
kina wilow</w>
kin yohkik</w>
kin unjik</w>
kin q</w>
kin g</w>
kiló metro</w>
kikʼa mwikʼ</w>
kikʼa ach</w>
kikʼ raam</w>
kikan sjik</w>
ki yowabʼjiik</w>
ki yo</w>
ki wachinik</w>
ki vsk</w>
ki vino</w>
ki tzʼapam</w>
ki tzʼaaq</w>
ki tiʼjolaal</w>
ki tibʼkaal</w>
ki teléfono</w>
ki soʼ</w>
ki sahchik</w>
ki sacharik</w>
ki rukowej</w>
ki reloj</w>
ki qʼoʼreem</w>
ki qʼoral</w>
ki qʼilariik</w>
ki qʼebʼem</w>
ki qʼe
ki qʼa
ki puhb</w>
ki naj
ki nabʼeej</w>
ki molaabʼ</w>
ki minim</w>
ki minarik</w>
ki mahkunik</w>
ki maam</w>
ki loqʼ
ki lo</w>
ki laal</w>
ki kʼu
ki kʼoʼnik</w>
ki kʼik</w>
ki kʼihik</w>
ki kʼihbʼik</w>
ki kʼaxwik</w>
ki kutum</w>
ki koʼleem</w>
ki kowjik</w>
ki kimiik</w>
ki josqʼiil</w>
ki ikʼ</w>
ki foto</w>
ki familiar</w>
ki chaʼ
kichaʼ j
kichaʼj anik</w>
ki celular</w>
ki carro</w>
ki bʼahiil</w>
ketel enik</w>
ke ypox</w>
ke q</w>
ke hta
kehta l</w>
kaʼ picheej</w>
kaq wachinik</w>
kana bʼjiik</w>
ka xkilal</w>
ka migohiil</w>
ka bʼi
ka b</w>
k wik</w>
k u</w>
k s
k lin</w>
k ka</w>
k inu
k inqajik</w>
k inkichop</w>
k inik</w>
k hi
khi d
khid nyi</w>
k er</w>
k ana</w>
jw anik</w>
juz ga</w>
juven il</w>
jus ti
jus tas</w>
jun tzʼuhbʼ</w>
jun tarse</w>
jun tar</w>
jun ta</w>
jun chʼuq</w>
jubi lación</w>
ju x</w>
ju naal</w>
ju gu
jugu ete</w>
ju go</w>
ju dici
judici al</w>
jotʼi saj</w>
jotʼ ol</w>
jotʼ bʼal</w>
jos qʼ</w>
jeʼ woʼ</w>
jen oq</w>
jee bʼ</w>
je fes</w>
je bʼ</w>
jan k</w>
jan dr
jandr ino</w>
jal wik</w>
ja ruj</w>
ja h</w>
ja do</w>
ja b
jab al
jabal í</w>
j aj</w>
ix b</w>
is s</w>
is quémica</w>
is ky</w>
iruchʼa qʼ</w>
iru yotʼ</w>
iru yeʼew</w>
iru xow</w>
iru tzʼap</w>
iru tz</w>
iru toqʼaaʼ</w>
iru toobʼeej</w>
iru toj</w>
iru tiqʼaaʼ</w>
iru taq</w>
iru sik</w>
iru qor</w>
iru nabʼeej</w>
iru le
iru koweej</w>
iru kowbʼisaj</w>
iru hiʼli
iruhiʼli saj</w>
iru chʼobʼ</w>
iru cha
iru ch</w>
iru bʼi
iri m</w>
ir jik</w>
investiga dor</w>
investi gar</w>
investi gando</w>
investi gan</w>
investi g
investig aciones</w>
inu tzʼuuyej</w>
inu tyoxeej</w>
inu q</w>
inu pahqanik</w>
inu pahqaj</w>
inu nabʼeej</w>
inu kʼam</w>
inu ketelaaj</w>
inu chop</w>
inu chih</w>
introdu jeron</w>
inti karik</w>
interroga torio</w>
interrog aron</w>
interrog arlo</w>
interpre tar</w>
interes an</w>
intere sado</w>
inter venciones</w>
inter cambiar</w>
inten taron</w>
inten tado</w>
inten sas</w>
instru c
inspi ró</w>
insignifi cante</w>
insi sten</w>
insi ste</w>
ins cri
inqʼor ar</w>
inqʼor a
inqʼora ar</w>
inqʼi lwik</w>
inqi kʼraj</w>
inqa yotʼ</w>
inqa tik</w>
inqa taq</w>
inqa sihij</w>
inqa qʼoʼreej</w>
inqa qʼebʼ</w>
inqa q</w>
inqa korsaj</w>
inqa kahpaaj</w>
inqa bʼehsaj</w>
inq an
inqan inqʼijej</w>
inoc entes</w>
ino américa</w>
inmor tal</w>
inmen sa</w>
inmedia to</w>
inkʼu hlik</w>
inku kʼej</w>
inku chej</w>
inkito qaaʼ</w>
inkiku htaaj</w>
inki yohbʼisaj</w>
inki tz</w>
inki tiʼbʼisaj</w>
inki tikʼaaʼ</w>
inki tikʼaa</w>
inki sij</w>
inki qʼoʼreej</w>
inki qʼehtaaj</w>
inki qʼebʼ</w>
inki qahsaj</w>
inki kʼraj</w>
inki kʼoʼneej</w>
inki kamaneej</w>
inki jil</w>
inki chʼuwaʼrisaj</w>
inki ch</w>
inkape bʼjik</w>
inka ʼyik</w>
injus tamente</w>
injus ta</w>
ini mbʼik</w>
ini h
inih qinik</w>
ini cu
ingeni oso</w>
informa dos</w>
influ ido</w>
influ encias</w>
infini to</w>
inf ali
individu almente</w>
indi que</w>
indi g
indefini do</w>
indefen sos</w>
indefen so</w>
inde cen
indecen temente</w>
increí blemente</w>
incomo dar</w>
inclu ía</w>
inclu yan</w>
inclu ido</w>
inclu ida</w>
inclu i
incli nación</w>
inci dente</w>
inchu kwik</w>
inc esto</w>
inaa kik</w>
ina ítico</w>
ina wuyʼeej</w>
ina wisaj</w>
ina tzʼihbʼaaj</w>
ina tikʼaaʼ</w>
ina sjik</w>
ina qʼoreej</w>
ina qʼil</w>
ina qʼahsaj</w>
ina mol</w>
ina min</w>
ina kʼutjaaj</w>
ina kut</w>
ina kohlaaj</w>
ina kanaa</w>
ina jotʼ</w>
ina jil</w>
ina chʼuwaʼreej</w>
ina chʼikaaʼ</w>
ina chop</w>
ina cep
inacep table</w>
in ó</w>
in yowabʼjik</w>
in wachinik</w>
in vertir</w>
in vención</w>
in tzʼirarik</w>
in tzʼaparik</w>
in tz</w>
in toobʼjik</w>
in tolerancia</w>
in tobʼjik</w>
in stin
in seguros</w>
in rupinik</w>
in rich</w>
in qʼehbʼik</w>
in ponik</w>
in patinik</w>
in pahqaljik</w>
in ook</w>
in nimbʼik</w>
in loqʼjik</w>
in kʼisiimbʼik</w>
in kʼaxarik</w>
in kʼacharik</w>
in kʼachariik</w>
in kuyeej</w>
in koʼlinik</w>
in kowbʼik</w>
in korsanik</w>
in kini
in jalwik</w>
in ja
in i</w>
in gre
ingre dientes</w>
in formado</w>
in fec
in fe
infe rior</w>
in evi
inevi tablemente</w>
in es</w>
in ee
in deci
in da</w>
in d</w>
in d
ind al</w>
in culcar</w>
in correcto</w>
in comparable</w>
in chʼ
inchʼ eqarik</w>
in capaz</w>
in bʼirjik</w>
in bʼirinik</w>
in bʼeh
in bʼanjik</w>
impul s
impresiona ron</w>
impresiona r</w>
impresiona ntes</w>
impresiona do</w>
impedír selo</w>
impe rio</w>
impar ten</w>
impar cial</w>
imp rescindi
imp renta</w>
imi ta</w>
imagina rse</w>
imagina r</w>
imagina do</w>
imagina ción</w>
imag inas</w>
imag in
im pahqaljik</w>
im pac
im bʼan</w>
ilu siones</w>
ilimi tado</w>
ili dades</w>
ile q</w>
iki bʼan</w>
igu almente</w>
identifi que</w>
identifi carlo</w>
ide ologías</w>
ide al</w>
ib óset</w>
ib lista</w>
ib e
ibe ria</w>
i xi
i vka</w>
i tovski</w>
i sing</w>
i sam</w>
i rán</w>
i rte</w>
i rotowaaj</w>
i rik</w>
i lustración</w>
i lbʼees</w>
i larik</w>
i hiik</w>
i fi
i ente</w>
i co
ico misos</w>
i cia</w>
i bʼooj</w>
hí lnikov</w>
hu yendo</w>
hu mo</w>
hu eso</w>
hta nik</w>
hospi talidad</w>
hormi ga</w>
honra das</w>
honra da</w>
hon ró</w>
hon ren</w>
ho lic</w>
ho ja</w>
ho garse</w>
hna al
hnaal eej</w>
histori adores</w>
hici éramos</w>
hi tta</w>
hi s</w>
hi lnikov</w>
hermo sas</w>
herman dad</w>
heri r</w>
heri da</w>
here je</w>
her ra
her pes</w>
he terosexuales</w>
he resa</w>
he patitis</w>
he mor
he e</w>
he chi
hechi cería</w>
he chas</w>
he c
hec táreas</w>
haʼ saaʼ</w>
haʼ lakʼun</w>
haʼ j</w>
haz te</w>
halla do</w>
hal laba</w>
haci éndote</w>
hacer te</w>
hacer me</w>
hacer les</w>
habla ron</w>
habl ándole</w>
habi tualmente</w>
habi tante</w>
haber me</w>
hab ilidades</w>
hab ilidad</w>
ha ustivo</w>
ha rían</w>
ha mas</w>
h úa</w>
h í</w>
h ágale</w>
h áb
h lenbrook</w>
h leen</w>
h in
h eni
heni y</w>
h da</w>
h bʼik</w>
h Or
hOr g</w>
guí en</w>
gusta da</w>
gus tado</w>
gui ado</w>
guer reros</w>
guar dia</w>
gu ían</w>
gu stando</w>
gu b
gub erna
guberna mental</w>
gu an
guan temos</w>
gráfi ca</w>
gri tar</w>
gri ta</w>
gran ja</w>
grab aciones</w>
gra du
gra de
grade zcamos</w>
gr ani
gor ro</w>
gon orrea</w>
gobier nen</w>
goberna rán</w>
go zoso</w>
go zo</w>
go sto</w>
go bi
gobi erna
gobierna n</w>
glorifi ca</w>
gi tal</w>
gi ra</w>
gi as</w>
geni al</w>
gener osamente</w>
gener almente</w>
gener ali
gener ación</w>
geli ka</w>
ge rel</w>
ge o</w>
ge lan</w>
gavio tas</w>
garanti zar</w>
garanti zan</w>
gana n</w>
gan ó</w>
gan sk</w>
ga ran</w>
g ó</w>
g la</w>
g la
g ini</w>
g aron</w>
g arle</w>
g ale</w>
g al
fí jese</w>
fí jate</w>
fá ciles</w>
futu ras</w>
fun cionario</w>
fun ciona
fun cion
funcion e</w>
fuer temente</w>
fu éramos</w>
fu ri
fru stración</w>
fron tera</w>
fre cuen
frecuen temente</w>
fra ses</w>
fr acaso</w>
forma ron</w>
forma mos</w>
forma lmente</w>
fores tales</w>
for tuna
for mó</w>
for mando</w>
for d</w>
fon dos</w>
fo tosíntesis</w>
flexib le</w>
flexib ilidad</w>
fis cales</w>
firme za</w>
firme mente</w>
finan ci
fin landeses</w>
fide o</w>
fide lidad</w>
fide icomisos</w>
fi losofía</w>
fi jan</w>
fi gu
fi cas</w>
fen icia</w>
fen demos</w>
fe cción</w>
fan tino</w>
falle ció</w>
fal te</w>
fal tas</w>
fal taba</w>
fal sos</w>
fal samente</w>
fal sa</w>
fal lar</w>
faci lidad</w>
faci li
fabri car</w>
fa ri
fa mo
fa ma</w>
fa el</w>
f ór
f or</w>
f lu
f ibóset</w>
f ford</w>
f as
fas cina
f aro</w>
f ante</w>
f acul
f acción</w>
extre mi
extraordina ria</w>
extra ño</w>
extra ñ
exten dió</w>
expul só</w>
expul sados</w>
expre siones</w>
explo siones</w>
expli có</w>
expli caciones</w>
expli c
experi men
exi stente</w>
exi lio</w>
exhib idor</w>
exclu sivo</w>
excep ción</w>
examin ó</w>
exa mine</w>
ex tremos</w>
ex tranjero</w>
ex ternos</w>
ex puso</w>
ex puestas</w>
ex positivo</w>
ex pec
ex haustivo</w>
ex cu
ex cre
evi temos</w>
evi tas</w>
evi tarás</w>
evi tarlo</w>
evi dencia</w>
evangeli o</w>
evalu ó</w>
eter namente</w>
estuvi eras</w>
estudi e</w>
estudi arla</w>
estudi ado</w>
estres antes</w>
esti mu
estadouniden ses</w>
estable ciera</w>
estable cerá</w>
estable ce</w>
esta ré</w>
est ómago</w>
est ru
est ro
espo sas</w>
esper o</w>
esper e</w>
esper aría</w>
esper ado</w>
específi cas</w>
especi es</w>
especi ales</w>
espe luznante</w>
espe jo</w>
espe c
esi ón</w>
esi a</w>
esfor zando</w>
esenci ales</w>
esenci al</w>
escucha ron</w>
escucha do</w>
escucha ban</w>
escuch é</w>
escu chas</w>
escrib ía</w>
escri ta</w>
escri bieran</w>
escondi dos</w>
escondi das</w>
escon dieron</w>
esco lar</w>
esco jamos</w>
esco gido</w>
esco ge</w>
escen t</w>
escen ifi
es tando</w>
es tan
es p
es ous</w>
es húa</w>
es hitta</w>
es encia</w>
es cor
escor pi
es ano</w>
es amaj</w>
erna ndo</w>
er óticas</w>
er ías</w>
er zas</w>
er zamos</w>
er ten</w>
er t</w>
er mo</w>
er lín</w>
er les</w>
er cedes</w>
er ba
erba i
equivo cado</w>
equi valente</w>
enví es</w>
enveje cieron</w>
enveje cemos</w>
entífi cos</w>
entrevis tarlo</w>
entrena dores</w>
entreg aré</w>
entien de</w>
entien dan</w>
enti dades</w>
enter é</w>
entender ía</w>
ent ró</w>
ent ren</w>
ent ra</w>
enseñ ará</w>
enseñ arle</w>
enseñ ando</w>
enseñ aban</w>
enseñ aba</w>
engañ ando</w>
engañ an</w>
enga ña</w>
enfren tando</w>
enfer mera</w>
encuent res</w>
encuent ren</w>
encu estados</w>
encontra rán</w>
encontra rlas</w>
encar gan</w>
encan taron</w>
enca puchados</w>
enca mina
enca jar</w>
en é</w>
en vía</w>
en ter</w>
en sk</w>
en ry</w>
en peace</w>
en oj
en de</w>
en co
empie zo</w>
empie zas</w>
empie ce</w>
empe zado</w>
emp u
emp le
emociona ntes</w>
emborra charse</w>
emba razo</w>
eli jas</w>
eli jamos</w>
eli gi
eli ci
elici ty</w>
electróni co</w>
ele v
ele mentos</w>
ele jeeb</w>
ele fante</w>
ele ará</w>
el son</w>
el leza</w>
el inda</w>
el d
eld man</w>
el b
elb y</w>
ejemp lares</w>
ej orro</w>
ehtʼa lil</w>
ehkʼ e
ehkʼe enbʼees</w>
eh sjik</w>
eh san</w>
eh samaj</w>
eh chanik</w>
efectu ado</w>
efec tivo</w>
edifi cándose</w>
edifi car</w>
ed or</w>
echa rán</w>
echa ron</w>
ech ando</w>
e verodonetsk</w>
e ve</w>
e tz</w>
e ts</w>
e pidemias</w>
e namorados</w>
e landa</w>
e lan</w>
e his</w>
e facción</w>
e cha</w>
e ather</w>
e ar
ear ch</w>
dí gale</w>
débi to</w>
dé cadas</w>
dá frica</w>
dura dera</w>
du ros</w>
du ran</w>
du dan</w>
du cir</w>
dor ski</w>
dor mi
dona r</w>
don dequiera</w>
domésti cos</w>
domina do</w>
dol ía</w>
dol escent</w>
docu mentos</w>
doc trinas</w>
doc trina</w>
do wment</w>
do scientos</w>
do ma</w>
divor cio</w>
divi sión</w>
divi nas</w>
divi dido</w>
divi den</w>
divi de</w>
diverti rte</w>
diver sión</w>
div inos</w>
div ina</w>
distin ta</w>
distan cia</w>
dist orsionada</w>
disfru tarás</w>
disfru tamos</w>
diseñ ó</w>
discri minación</w>
disci plinar</w>
dis te</w>
dis puestas</w>
dis para</w>
dis minuir</w>
dis gustada</w>
dis gusta</w>
dis curso</w>
dis cu
discu tir</w>
dis cer
discer nimiento</w>
diri gía</w>
diri gido</w>
diri g
dij eran</w>
dig no</w>
dig nas</w>
dig na</w>
difi eren</w>
di vostok</w>
di son</w>
di simu
di ré</w>
di rán</w>
di l</w>
di ji
di gital</w>
di ente</w>
di almente</w>
di ablo</w>
devas tadores</w>
destrui rán</w>
destrui rá</w>
destro zada</w>
desta có</w>
desta cados</w>
dest ino</w>
despiada da</w>
desper tar</w>
desesper ado</w>
desen tierra</w>
desempe ñan</w>
dese en</w>
dese ados</w>
dese ado</w>
descubri rlo</w>
descubri mos</w>
descubri miento</w>
descubri era</w>
descu b
descri bió</w>
descri bir</w>
descen dientes</w>
desarro lla
desapare ció</w>
desapare cerá</w>
desani marme</w>
desa hogarse</w>
des pe
des obedecerle</w>
des obedecer</w>
des hda</w>
des hacer</w>
des gracia</w>
des gar
des esperanza</w>
des e</w>
des contro
des consider
des conocida</w>
des agrade</w>
des a</w>
derra man</w>
der s</w>
der rotas</w>
depor tivo</w>
depor tista</w>
depor te</w>
depor tado</w>
denunci an</w>
den se</w>
den o
demuest ren</w>
demostra rás</w>
demi c
demic s</w>
demasi adas</w>
deja mos</w>
dej é</w>
dej es</w>
dej arán</w>
dej arlo</w>
defender me</w>
defec to</w>
dedicar á</w>
dedi can</w>
decla ran</w>
decla rado</w>
decla raciones</w>
decla ra
deci rnos</w>
deci rme</w>
deci rlo</w>
deci rles</w>
deci des</w>
dec ente</w>
debi lidades</w>
debi li
debi eron</w>
debi da</w>
deb ía</w>
deb er</w>
de ón</w>
de ña</w>
de zhda</w>
de vuelva</w>
de volvérsela</w>
de volver</w>
de tenerse</w>
de ren</w>
de pendiendo</w>
de partamentos</w>
de la</w>
de l
de grada</w>
de ducir</w>
dar é</w>
dar ás</w>
da y</w>
da ran</w>
da mérica</w>
da me</w>
da ge</w>
da dos</w>
da der
da das</w>
d ían</w>
d rásticas</w>
d remos</w>
d ramatizadas</w>
d ot
d nikov</w>
d ney</w>
d murti
d estierro</w>
d ale
dale cio</w>
cuán ta</w>
cur ación</w>
cump les</w>
cump lan</w>
culpar se</w>
cul tura</w>
cuida dos</w>
cuida da</w>
cui daría</w>
cuesti ón</w>
cuen to</w>
cuen tan</w>
cuan tos</w>
cuan tas</w>
cuad ros</w>
cuad radas</w>
cua rentena</w>
cu én
cu stodia</w>
cu riosidad</w>
cu rará</w>
cu lar</w>
cu entre</w>
cu ello</w>
cru elmente</w>
cron esia</w>
cristi an
cristian dad</w>
cre ído</w>
cre erías</w>
cre ci
creci ente</w>
cr ónica</w>
cr édito</w>
cosecha rá</w>
corregi r</w>
coraz ones</w>
cor tes</w>
cor tada</w>
cor ta</w>
cor rompió</w>
cor romp
cor dialmente</w>
cooper ar</w>
convir tió</w>
convinc ente</w>
conver samos</w>
conven iente</w>
conven certe</w>
contro len</w>
contro lan</w>
contribu irá</w>
contradic torios</w>
contra taría</w>
contra ste</w>
continú en</w>
continu arán</w>
continu ar</w>
contin úan</w>
contagi osas</w>
contagi osa</w>
conta minar</w>
conta minación</w>
conta mina</w>
consu mir</w>
consu mi
consu elan</w>
constru yó</w>
constru ida</w>
constitu ye</w>
conso lado</w>
consider ación</w>
conserv aron</w>
consegui do</w>
conqui stador</w>
cono ciera</w>
confí o</w>
confí en</w>
confis cadas</w>
confir man</w>
confi arán</w>
confes emos</w>
confes arle</w>
conf ían</w>
conf ines</w>
conf esión</w>
condu cen</w>
condu ce</w>
condena dos</w>
conclu ya</w>
conclu siones</w>
concentra rte</w>
concentra rnos</w>
concentra mos</w>
con tenía</w>
con tarnos</w>
con tarle</w>
con tamos</w>
con stante</w>
con siguiente</w>
con serje</w>
con memorativas</w>
con junto</w>
con ces
conces sione</w>
con ce
comuni dad</w>
comuni cando</w>
compu esta</w>
compro misos</w>
compro bar</w>
compro b
compren sible</w>
compor tarnos</w>
comple jas</w>
compar ó</w>
compar tir</w>
compa ran</w>
comp rar</w>
comp lacer
comp la
comit é</w>
comien zan</w>
comien za</w>
comi ó</w>
comi sión</w>
come terá</w>
comba tes</w>
com partido</w>
com erán</w>
com entó</w>
colabor adores</w>
codici oso</w>
cob ran</w>
co tt</w>
co sta
co queteo</w>
co lección</w>
co l
co cina
cocina n</w>
co bre</w>
cla ros</w>
cla ración</w>
cl ense</w>
civili zaciones</w>
ciudad ano</w>
cin e</w>
cif rar</w>
cier ran</w>
cien de</w>
cie ga</w>
ci tas</w>
ci tado</w>
ci rujana</w>
ci lia</w>
ci c
cic lo</w>
ci an</w>
chʼa qoj</w>
chu sachariik</w>
chu koʼljiik</w>
chu bʼanariik</w>
chu bʼan</w>
chu b</w>
cho qinik</w>
chi wach</w>
chi riij</w>
chi quncheel</w>
chi kunchelaal</w>
cher bina</w>
che que</w>
che ologico</w>
che e</w>
che co</w>
chaqʼla m</w>
chani kʼeej</w>
cha xoyej</w>
cha wesaj</w>
cha tʼiosej</w>
cha toobʼeej</w>
cha sik</w>
cha qʼahsaj</w>
cha qahsaj</w>
cha pitzʼ</w>
cha nabʼeej</w>
cha naah</w>
cha mos</w>
cha kʼam</w>
cha kanaʼ</w>
cha chaqʼweej</w>
cha awuukʼ</w>
cha aweh</w>
cha aq</w>
ch ó</w>
ch tower</w>
ch lik</w>
ch era</w>
ch ensk</w>
cereb ro</w>
cereb ral</w>
cere monias</w>
cer án</w>
centra rse</w>
centra n</w>
centra mos</w>
cent ímetros</w>
celo so</w>
celesti ales</w>
celebra rán</w>
celebra remos</w>
cele bre</w>
cele bra</w>
ce bada</w>
caus arle</w>
caus ante</w>
caus ando</w>
caus an</w>
cau ciones</w>
carre ras</w>
cariñ osa</w>
cari ta</w>
cardio patía</w>
característi ca</w>
car ácter</w>
car te</w>
car patia</w>
car nos</w>
car la</w>
candi datos</w>
can tamos</w>
camina ndo</w>
cambi é</w>
cambi e</w>
cambi arás</w>
cambi aron</w>
cambi ando</w>
cambi an</w>
calumni as</w>
calen tamiento</w>
cal mó</w>
cal mado</w>
cal efacción</w>
cal culan</w>
cabal los</w>
cabal lo</w>
ca ídas</w>
ca sar</w>
ca p
ca maleón</w>
ca h</w>
ca ería</w>
ca dá
ca ble</w>
c ú
c í</w>
c érquense</w>
c én
c án</w>
c esto</w>
c ese</w>
c cionario</w>
c ca</w>
c anto</w>
bʼi maj</w>
bʼele jeebʼ</w>
bʼeho m
bʼahi ilbʼees</w>
bʼa jaj</w>
bʼa aq</w>
bʼ wik</w>
bʼ uul</w>
bʼ ur</w>
bʼ oq</w>
bʼ ootzʼ</w>
bʼ enik</w>
bási camente</w>
bá squetbol</w>
bus qué</w>
bus caron</w>
bur lan</w>
bro mas</w>
bri tánicos</w>
bri sa</w>
bre vemente</w>
bre n</w>
bot ones</w>
bos ques</w>
borra chera</w>
bondado so</w>
bon os</w>
bon neau</w>
bombarde ando</w>
bo tella</w>
bo lowa</w>
bo lledo</w>
bo da</w>
ble ta</w>
biológi cos</w>
bifur can</w>
bi rías</w>
bi enes</w>
ber t</w>
benefici arán</w>
benefici amos</w>
ben é
ben dijo</w>
ben diga</w>
ben dice</w>
beb erá</w>
beb e</w>
be telitas</w>
be cca</w>
bauti zada</w>
bauti ce</w>
bas ó</w>
barba ridad</w>
ban dos</w>
ba ten</w>
ba tal
ba sta</w>
ba sado</w>
ba las</w>
ba lanza</w>
ba dos</w>
b úsqueda</w>
b ús</w>
b éisbol</w>
b zansky</w>
b ru
b roma</w>
b rinda</w>
b razos</w>
b razo</w>
b ramos</w>
b iblista</w>
b elleza</w>
aña dió</w>
aña dido</w>
az le</w>
ayudar ían</w>
ayudar ía</w>
ayudar los</w>
ay er</w>
ax am</w>
awi kʼsaj</w>
awi kʼraam</w>
awi hiik</w>
awa as</w>
awa aj</w>
aw ajkʼuhtaneel</w>
averigu ar</w>
avergon zar
avan zando</w>
avan cemos</w>
auxili ares</w>
auxili ar</w>
autén tico</w>
automó viles</w>
autolesi ona</w>
auto bús</w>
aumen tar</w>
au tos</w>
au to</w>
au tenticidad</w>
au mento</w>
au mente</w>
au di
atribu irse</w>
atre verás</w>
atra ídos</w>
atra en</w>
ato bʼjiik</w>
ato bʼeem</w>
aterra dores</w>
aten der</w>
ata ques</w>
at án</w>
at rincheradas</w>
at rac
at or
at inoamérica</w>
at holic</w>
at hleen</w>
at han</w>
astró nomo</w>
asisti do</w>
asi sten</w>
ases ino</w>
ases ina
asegu ró</w>
ascen sional</w>
as t</w>
as ne</w>
as mine</w>
as aron</w>
art lett</w>
art hOrg</w>
art esano</w>
arruina ndo</w>
arro llemos</w>
arro ja</w>
arries gando</w>
arres taron</w>
arres taran</w>
arrepen tido</w>
arreg le</w>
arreg lar</w>
arre pinti
arre pienten</w>
arra san</w>
argu mentos</w>
ara tadji</w>
ar ían</w>
ar y</w>
ar ti
ar rancar</w>
ar mas</w>
ar mados</w>
ar mado</w>
ar ma</w>
ar chi
ar bados</w>
aqʼa b</w>
aqu ello</w>
aprove charse</w>
apro ximadamente</w>
aprender ás</w>
apren día</w>
apren diera</w>
apren deremos</w>
apren de</w>
apren dan</w>
apren da</w>
apre su
apoy arse</w>
apoy arlo</w>
apoy ado</w>
apoy aban</w>
apor taciones</w>
aplica bles</w>
apli car</w>
apli caciones</w>
apasiona ban</w>
apari encias</w>
apare cería</w>
apar ta</w>
apa lkeeb</w>
apa ab</w>
anz uelo</w>
anun cia</w>
anu al</w>
ante ce
ans son</w>
ano va</w>
ano ta</w>
anima dora</w>
anima dor</w>
anim ándose</w>
ani vtsi</w>
ani versario</w>
ani sha</w>
ani manik</w>
ani llo</w>
anhe la</w>
angu a
angua ge</w>
anali zaremos</w>
anali zan</w>
ana dá</w>
ana b</w>
an álisis</w>
an telle</w>
an ny</w>
an ni</w>
an ne</w>
an lo</w>
an gerel</w>
an dreas</w>
an demics</w>
an daba</w>
ampli ar</w>
amp lia</w>
ami g
ame c</w>
amb as</w>
ama lia</w>
am án</w>
am oroso</w>
am or
am my</w>
am es</w>
alterna tiva</w>
all ó</w>
alimen tarse</w>
alegr ías</w>
aleg ro</w>
ale y</w>
ale rie</w>
ale jan</w>
ale jados</w>
ale ja</w>
ale b</w>
alcanzar los</w>
alcan zas</w>
alcan zado</w>
alar mas</w>
alab anza</w>
ala qis</w>
ala bamos</w>
al tísimos</w>
al dea</w>
al d</w>
akʼaxki lal</w>
ajtij om</w>
ajkʼuhto om</w>
aja minik</w>
aja abʼees</w>
aja ab</w>
aj wanik</w>
aj tzʼuuy</w>
aj tz</w>
aj tobʼineel</w>
aj tob</w>
aj qʼiij</w>
aj osqʼiil</w>
aj la
aj kʼoʼneel</w>
aj kʼamol</w>
aj korsen</w>
aj korsam</w>
aj keteloom</w>
aj kabʼlaj</w>
aj itovski</w>
aj ileqʼ</w>
ai man</w>
ahorra rás</w>
ahor ramos</w>
ah úm</w>
ah uuj</w>
ah tzʼ</w>
aguan tan</w>
agradeci da</w>
agrade cerle</w>
agrade cen</w>
agrade ce</w>
ago bia</w>
ag resor</w>
ag encia</w>
ag ar
afron tan</w>
afron tamos</w>
afirma ban</w>
afec taría</w>
afec tarán</w>
afec tando</w>
afec tan</w>
afec tados</w>
afec tado</w>
afec tadas</w>
af ricano</w>
af licción</w>
af amalia</w>
aer onave</w>
adul ta</w>
ador e</w>
ador aron</w>
ador ando</w>
ado p
administra r</w>
adelga zar</w>
adelan to</w>
adecu ados</w>
adecu ado</w>
adap ten</w>
ad ónde</w>
ad vertirles</w>
ad mite</w>
ad hi
acu sado</w>
acu mu
acu estan</w>
acu a
acua re
actu arás</w>
acti vista</w>
acti tudes</w>
acos tado</w>
aco sando</w>
aco sador</w>
acla rar</w>
acla ra</w>
acer có</w>
acer cará</w>
acer camos</w>
acep tó</w>
acep to</w>
acep tará</w>
acep taron</w>
acep tan</w>
acep tamos</w>
acep ta
acab ó</w>
acab amos</w>
acab aba</w>
aca ri
ac res</w>
ac atán</w>
abusa dores</w>
abus ón</w>
abus ó</w>
abar car</w>
abandona rá</w>
abandona ran</w>
ab é</w>
ab ue
ab surdo</w>
ab ru
ab orto</w>
ab lov</w>
ab ejorro</w>
a zar</w>
a yej</w>
a yeew</w>
a y</w>
a xariik</w>
a videz</w>
a tzʼirim</w>
a tuqkilaal</w>
a signación</w>
a qʼunil</w>
a qʼoriik</w>
a qʼoral</w>
a qʼo</w>
a q
a pó
a preci
a plastados</w>
a motú</w>
a manecer</w>
a kʼuxum</w>
a kʼijolal</w>
a koj</w>
a kaxaro</w>
a kanaa</w>
a kal</w>
a habʼul</w>
a fín</w>
a fueras</w>
a divinos</w>
a chiiʼ</w>
a bʼjik</w>
a bʼiram</w>
a bʼan</w>
a bier
a asjik</w>
a aqʼ</w>
Zimo vski</w>
ZA DO
ZADO RES</w>
ZA DA</w>
Z yablov</w>
Z elanda</w>
Z A</w>
You th</w>
Yev heniy</w>
Ye ar</w>
Yah vé</w>
Ya kóvlev</w>
Ya kovlev</w>
YE E
YEE W</w>
Y eshúa</w>
Y ap</w>
Y ana</w>
Y O
Y H
YH W
YHW H</w>
Xu nabʼeej</w>
Xu kʼuhtaaj</w>
Xu koj</w>
Xu kanaaʼ</w>
Xqa tobʼeej</w>
Xnu req</w>
Xnu koj</w>
Xki saj</w>
Xi ʼelik</w>
Xi kantesjik</w>
Xa asjik</w>
XU PAHQAAJ</w>
XU JAL</w>
XU BʼAN</w>
XKI JAL</w>
X wihʼik</w>
X tijinik</w>
X suqbʼik</w>
X sahchik</w>
X qʼorarik</w>
X qikʼraaj</w>
X ooj</w>
X jaljik</w>
X bʼanarik</w>
X TZʼI
XTZʼI H
XTZʼIH BʼJIK</w>
X TZ
XTZ ʼUHKRISANIK</w>
X OQ</w>
X KO
XKO JARIK</w>
X ICO</w>
Win nie</w>
Wil l</w>
Wi thout</w>
Wat chtower</w>
Wa qiib</w>
W hat</w>
W eather</w>
W as</w>
W ar</w>
W ach</w>
W H
WH O</w>
Ví nnytsia</w>
Vu lgata</w>
Volgo grado</w>
Volgo grad</w>
Vla divostok</w>
Vla dimir</w>
Vi ázemski</w>
Vi tali</w>
Vi olación</w>
Ver dad</w>
Ver bo</w>
Vali ó</w>
Va ticano</w>
VIDE OS</w>
VI SU
VISU AL</w>
VI CI
VICI O</w>
VEN EM
VENEM AN</w>
V Á</w>
V oy</w>
V olodimir</w>
V ine</w>
V i</w>
V era</w>
V er</w>
V e</w>
V alerie</w>
V ajitovski</w>
V EA</w>
V AN
VAN GE
VANGE LI
VANGELI ZADORES</w>
Uste des</w>
Univer sity</w>
Univer sidad</w>
UU Kʼ</w>
US T
UST E
USTE D</w>
US B</w>
UN TOS</w>
UN IC
UNIC E
UNICE F</w>
UN DO</w>
UN A</w>
UL ARIIK</w>
U ʼNCHEL</w>
U valde</w>
U sánov</w>
U hlenbrook</w>
U dmurti
U M</w>
U D
UD NU
UDNU T</w>
Tu amotú</w>
Trans lation</w>
Trans carpatia</w>
Tra to</w>
Tra te</w>
To ma</w>
To day</w>
Tiqa yuqʼeej</w>
Tex as</w>
Tes t</w>
Terri torial</w>
Ten drá</w>
Ten dremos</w>
Te rumi</w>
Te resa</w>
Tar yn</w>
Tar taristán</w>
Tai landia</w>
Ta qeh</w>
Ta mbov</w>
Ta e</w>
TZ I
TZI H
TZIH BʼAN
TZIHBʼAN E
TZIHBʼANE EL</w>
TO R</w>
TO JBʼAL</w>
TI YO
TI V
TI QʼOR
TIQʼOR OQ</w>
TI EN
TIEN E</w>
TER H
TERH OL
TERHOL M</w>
TEN I
TENI DO</w>
TEN GO</w>
TA M
TAM BER</w>
T ruth</w>
T ras</w>
T olerancia</w>
T heresa</w>
T en</w>
T ara</w>
T anisha</w>
T ammy</w>
T U</w>
T R
T O</w>
T ESTIG
T AJ</w>
Sól ntseva</w>
Sól ntsev</w>
Sy dney</w>
Sus hílnikov</w>
Sus hilnikov</w>
Su wałki</w>
Su wanmake</w>
Su rgeon</w>
Su rasak</w>
Su mmer</w>
Su dáfrica</w>
Su damérica</w>
Su bʼuul</w>
Ste ven</w>
Sol ntseva</w>
Sol ntsev</w>
So y</w>
So snovoborsk</w>
So fía</w>
So doma</w>
Sig n</w>
Si milian</w>
Si everodonetsk</w>
Si di</w>
Si cilia</w>
Si ablov</w>
Sher hiy</w>
Sher bina</w>
Sha rlene</w>
Sh elby</w>
Sh cherbina</w>
Servi mos</w>
Serhi ivka</w>
Serhi i</w>
Ser ía</w>
Ser vet</w>
Ser afín</w>
Se paran</w>
Se indal</w>
Se gui
Scien tists</w>
Scien ce</w>
Sara h</w>
San dage</w>
Sali nas</w>
Sab ina</w>
Sab es</w>
Sab er</w>
Sa rahi</w>
SENT EN
SENT ACIÓN</w>
SE ÑÓ</w>
SE R
SER VICIO</w>
SE J
SEJ OS</w>
SA M
SAM BL
SAMBL EA</w>
SA DO</w>
SA BÍ
SABÍ AS</w>
S ábado</w>
S ylgren</w>
S uecia</w>
S onia</w>
S mart</w>
S khidnyi</w>
S ir</w>
S inaítico</w>
S iberia</w>
S enti
S cío</w>
S cott</w>
S PU
S JIK</w>
S A</w>
RÁ TICA</w>
Runi mjiik</w>
Rukʼu htjiik</w>
Ru nabʼjiik</w>
Ru minariik</w>
Ru kuyariik</w>
Ru kanabʼjiik</w>
Roz dorski</w>
Roz dil</w>
Rom pamos</w>
Rob ert</w>
Rob b</w>
Ro stov</w>
Ro sa</w>
Ri ght</w>
Ri ca</w>
Ri asne</w>
Resu men</w>
Resu ci
Res olvamos</w>
Res earch</w>
Regi onale</w>
Recor demos</w>
Recor d</w>
Re ʼreʼ</w>
Re yon</w>
Re vyakin</w>
Re viakin</w>
Re uters</w>
Re turned</w>
Re latado</w>
Re gla</w>
Re d</w>
Re ctor</w>
Re bolledo</w>
Re becca</w>
Ra quel</w>
Ra mapo</w>
Ra ising</w>
Ra hab</w>
Ra fael</w>
RU KʼUHBʼAAL</w>
RU K</w>
RU BʼAN
RO O
ROO X</w>
RI N</w>
RI E
RE SPU
RE PRE
REPRE SENTACIÓN</w>
R yan</w>
R ené</w>
Qui eres</w>
Qu er
Qu aratadji</w>
Qoj rujil</w>
Qoj kamanoq</w>
Qa sikʼ</w>
Qa qʼor</w>
Qa kuy</w>
Qa korsaj</w>
Qa koj</w>
Qa chih</w>
QU I
QUI E
QAH SAJ</w>
Q ʼi
Q ehtʼal</w>
Q AWACH</w>
Pé tzal</w>
Pé rez</w>
Pu yda</w>
Pu ida</w>
Prueb an</w>
Prote ja</w>
Pro tests</w>
Pro metida</w>
Pregún tese</w>
Predi cación</w>
Pre vención</w>
Pre parémonos</w>
Pre cauciones</w>
Pr íncipe</w>
Pon erse</w>
Pol tava</w>
Pod ré</w>
Pod rán</w>
Po st</w>
Po pular</w>
Po lio</w>
Pla sma</w>
Pla quetas</w>
Pien san</w>
Pi rri</w>
Pi oner
Pi da</w>
Ph elicity</w>
Per vo
Pen semos</w>
Pe tro</w>
Pe tersburgo</w>
Pe ter</w>
Pe ks
Pe ace</w>
Parti turas</w>
Pal ermo</w>
Pad res</w>
Pac ker</w>
Pa z</w>
Pa renting</w>
Pa mela</w>
PRO DUC
PRODUC CIÓN</w>
PREGUNT A</w>
PRE SIDENTE</w>
PI ENS
PIENS A</w>
PI DI
PIDI Ó</w>
PE E
PEE T</w>
PA ÍS</w>
PA SADO</w>
P ÚBLICO</w>
P utin</w>
P salm</w>
P resionan</w>
P raga</w>
P eshitta</w>
P ese</w>
P eleará</w>
P andemics</w>
P UNTOS</w>
P R</w>
P R
P 27</w>
Or lo
Oce ánica</w>
Oce anía</w>
Ob viamente</w>
OS TERHOLM</w>
OPIN AN</w>
OP CIÓN</w>
OL F
OLF O</w>
OC RÁTICA</w>
OC H</w>
OB TENIDO</w>
O tras</w>
O tra</w>
O ro</w>
O riente</w>
O ral</w>
O pónganse</w>
O nésimo</w>
[...]
