#version: 0.2
o s</w>
ʼ n</w>
b ʼ
k y
a n
t u
t i
t z
e r
i n</w>
e s
q u
i l</w>
e n
e l</w>
t o
e n</w>
d e</w>
q ʼ
a s</w>
a j</w>
c h
i n
ʼ j</w>
o n
a r
a m
qu e</w>
t e</w>
tu ʼn</w>
u n</w>
e s</w>
j a
c i
l a</w>
u n
a l
a j
k ʼ
bʼ il</w>
e x</w>
a n</w>
d o</w>
t r
ti ʼj</w>
a ʼn</w>
d i
h o
e m
i os</w>
a b
to j</w>
c o
p o
r e
k u
i m
l o</w>
j un</w>
@ -
@- @</w>
ʼ n
D ios</w>
J e
q a</w>
Je ho
n a
Jeho v
Jehov á</w>
l os</w>
l i
t e
a l</w>
a r</w>
ó n</w>
c u
y o
tz aj</w>
v i
x i</w>
j u</w>
i t
ˈ n</w>
p r
y a</w>
a d
n i
b ʼ</w>
s i
l u</w>
d e
x ja
s e</w>
p er
p ar
a q
o r
t o</w>
t qʼ
bʼ an
c on
ky i
j un
xja l</w>
s e
ku bʼ</w>
p u
l e
t x
a s
m i
l e</w>
k u</w>
ci ón</w>
m o</w>
es t
í a</w>
o k</w>
m in
r i
b ˈ
l as</w>
o ʼn</w>
tu ʼn
n o</w>
a c
aj u</w>
s o
q e</w>
J es
t l</w>
ch e</w>
b r
x i
par a</w>
e l
e r</w>
x na
tz ʼ
Jes ú
a q</w>
k x</w>
Jesú s</w>
yo l</w>
to q</w>
m an
qʼ tz
ti ʼ</w>
m a</w>
ʼ j
t w
ky e</w>
m u
xna qʼtz
j lu</w>
l a
ky u
j o</w>
po r</w>
co n</w>
bʼ aʼn</w>
m o
s u
kʼ u
t en
it z</w>
n ya</w>
d a</w>
ja ku</w>
g u
em os</w>
n o
d a
á s</w>
am aʼn</w>
o r</w>
m a
kyi ʼj</w>
y e
s u</w>
b li
t a</w>
t en</w>
a t</w>
b i
q an
n os</w>
bʼan t</w>
e c
e j
q i
ky aq
to k</w>
k ʼ</w>
x im
an do</w>
un a</w>
o n</w>
t z</w>
u s
pr o
da d</w>
T i
ni m</w>
o k
tz un</w>
e ʼn</w>
bʼ aj</w>
am os</w>
a do</w>
es tr
en te</w>
kʼ il</w>
a ción</w>
qu ʼn</w>
q ˈ
d el</w>
p a
g r
in ch
am bʼil</w>
q e
p i
i l
n u
r a</w>
v er
f i
l en</w>
a y
k a
m e</w>
1 0</w>
g o</w>
o j</w>
kyaq il</w>
xnaqʼtz bʼil</w>
o l
aj bʼ
T yol</w>
per o</w>
te j</w>
xi x</w>
br e</w>
er a</w>
min tiʼ</w>
q o</w>
B i
tqʼ amaʼn</w>
n im
tu ˈn</w>
en t
on es</w>
am i
B ʼ
Bi bli
d es
Bibli a</w>
t bʼan
1 5</w>
ja w</w>
c a</w>
h ab
ʼn e</w>
bʼ inch
ch ʼ
qu i
em p
yo l
t an
p re
h ac
o s
jun tl</w>
tw itz</w>
tbʼan el</w>
f u
e t</w>
Q u
tqʼ oʼn</w>
qʼ oʼn</w>
po r
m as</w>
á n</w>
l es</w>
on in</w>
bʼ i
r a
a x</w>
tz eʼn</w>
é n</w>
pu e
t na
1 1</w>
j a</w>
kyu ʼn</w>
di c
t el</w>
tuʼn ju</w>
su s</w>
m ás</w>
h i
d os</w>
1 2</w>
jun jun</w>
o j
e x
t ten</w>
l u
Q ʼ
m an</w>
k ˈ
nu estr
t er
qu é</w>
al i
i kx</w>
ka w
ajbʼ en</w>
u d
kʼu ʼj</w>
co mo</w>
p e
y e</w>
í as</w>
to k
co m
a qʼ
i k</w>
1 3</w>
1 4</w>
ó mo</w>
cu ando</w>
Qu é</w>
ye kʼ
tu m
g un
er man
r es
t kyaqil</w>
a te
t kubʼ</w>
é l</w>
tz al
tu kʼil</w>
tr os</w>
qʼ i
u q
J u
w i
m i</w>
ab a</w>
ti ʼ
mu ch
ti ʼj
s i</w>
w e
in o</w>
T u
1 7</w>
mo qa</w>
s on
es ti
c o</w>
O S</w>
am bi
ˈ n
tna m</w>
1 6</w>
yol in</w>
en s
i s
tz i
u c
d r
per son
ci a</w>
ni kʼ</w>
x o
xim en</w>
m aj</w>
tok len</w>
t n
m e
é s</w>
a t
er o</w>
o tx
Ti ʼ</w>
ri s
gu i
chʼ i
tum el</w>
s er
k bʼ
ci ones</w>
er man</w>
h a
a ʼ
d em
p á
qʼ uq
c a
a bʼ
er on</w>
b u
t aq</w>
u ʼj</w>
p e</w>
an te</w>
l al</w>
1 9</w>
t as</w>
I s
t a
qe ju</w>
e ch
r o
h erman
1 8</w>
ˈ j</w>
en tr
in e</w>
g os</w>
am a</w>
A N
in a</w>
p on
l l
ʼn a</w>
t qan
ky aj</w>
í an</w>
bʼinch aʼn</w>
ar on</w>
t xi</w>
qi ʼj</w>
a u
ad os</w>
an t
t tzaj</w>
i kʼ</w>
qʼ amaʼn</w>
an a</w>
kʼu j
g i
tx qan
txqan tl</w>
ch aq</w>
E s
2 0</w>
s ab
p as
ay ud
ad a</w>
ambi én</w>
w u
a bʼil</w>
min s</w>
n ok</w>
mi ʼn</w>
ky e
di s
co s
ku kx</w>
ti l
Ju an</w>
so bre</w>
ar á</w>
h a</w>
al es</w>
t os</w>
A l
se r</w>
ok s
est a</w>
es i
ar i
t aq
ʼ otx
kyu kʼil</w>
f or
l le
ti en
ad r
ʼotx ʼ</w>
vi da</w>
m in</w>
hac er</w>
t ambién</w>
yekʼ in</w>
tz un
k an
m en
tw i
E S
tz a</w>
po d
R e
de ci
ˈ y</w>
e ʼ
C ómo</w>
de b
tuʼn a</w>
o b
bˈ il</w>
I n</w>
di jo</w>
T z
no q</w>
z a</w>
S al
pue de</w>
m aj
ch i</w>
por que</w>
j u
en do</w>
c as
la bʼil</w>
w itz</w>
a ñ
j el</w>
o toq</w>
P or</w>
o ʼ
t bʼ
tiʼ chaq</w>
v e
tz qi
tzʼ ok</w>
P ab
t esti
to do</w>
u ʼj
tiʼj ju</w>
2 1</w>
v o</w>
dic e</w>
T Z
g a</w>
s in</w>
tz in</w>
cu r
ʼ N</w>
con tr
g ar</w>
n i</w>
al ab
I L</w>
se ñ
e tz</w>
person as</w>
ma bʼil</w>
t bʼant</w>
re g
e li
2 4</w>
ky oj</w>
to n
c re
di o</w>
aj bʼil</w>
T I
ch in</w>
es o</w>
te ch
2 2</w>
o tr
d ad
K Y
qʼ i</w>
tqan il</w>
e b
abʼ qʼi</w>
chʼi x
taq ikʼ</w>
o c
an qʼ
i t</w>
emp lo</w>
Pab lo</w>
d u
x a</w>
pa kbʼ
es tu
kʼ w
es te</w>
de o</w>
m bre</w>
en to</w>
s o</w>
c ar
til il</w>
tzun ju</w>
a p
r as</w>
d as</w>
cos as</w>
pá r
ti emp
so tros</w>
le c
tn ej
a vi
f r
tuʼn tzun</w>
aqʼ un
k x
h u
to dos</w>
v en
t qˈ
Tu ʼn
c l
ye t</w>
í bli
b ˈ</w>
tz e
Ti quʼn</w>
t al</w>
ʼj e</w>
b íbli
aj e</w>
v a</w>
bʼ e</w>
mu y</w>
ja tumel</w>
pr en
m ej
J a
as í</w>
q kʼuʼj</w>
t ar
tech el</w>
kyaq il
t ku
bu en
un i
tz yet</w>
u l</w>
tuʼn j</w>
est á</w>
x it
el los</w>
vi s
en ti
i ky
ky xo
kaw bʼil</w>
P e
vi deo</w>
2 3</w>
tiemp o</w>
k e</w>
3 0</w>
de r</w>
s to
ab an</w>
i kʼ
p ens
m la
L a</w>
es to</w>
q tzun</w>
á n
ci as</w>
er ra</w>
M A
2 0
qu ˈn</w>
en cia</w>
al kye</w>
M ate
tu j</w>
z o</w>
al gun
oks lal</w>
Mate o</w>
mi s
an i
m al</w>
herman os</w>
d on
so n</w>
d o
co r
po n</w>
tzʼ el</w>
kʼ i
tbʼ i</w>
oj tzqi
s em
c ómo</w>
E L</w>
D I
ti ˈj</w>
S a
o tros</w>
0 0</w>
nuestr a</w>
T x
en señ
P ro
x aq</w>
jun juntl</w>
k a</w>
ej emplo</w>
ate ʼ</w>
ja ʼ
an os</w>
c es</w>
tnej el</w>
ni kʼ
qe ʼ</w>
tz ˈ
hab ía</w>
m os</w>
Tx ʼotxʼ</w>
oʼ kx</w>
ky qʼoʼn</w>
xim bʼ
Sal mo</w>
j os</w>
n ec
q nikʼ</w>
fu e</w>
D E</w>
pod emos</w>
ky kyaqil</w>
us te
t ar</w>
bi en</w>
r o</w>
tzi ˈn</w>
c os</w>
an s
g reg
pu és</w>
ami li
tzal aj</w>
d ía</w>
i o</w>
tqʼ ama</w>
l in</w>
D avi
T E
kyi m</w>
p l
con se
d en</w>
Davi d</w>
con greg
or es</w>
ja w
ar a</w>
y o</w>
ra z
pro f
p li
í cu
Bʼ IL</w>
T U
é n
si ón</w>
2 5</w>
es c
f amili
d es</w>
m as
anqʼ in</w>
kyxo l</w>
pr im
t al
m al
ent es</w>
J o
ky witz</w>
I N</w>
C an
t ja
A ju</w>
e la</w>
m un
n aʼn</w>
des pués</w>
bʼi ʼn</w>
Is ra
ci on
ant es</w>
em pr
Tuʼn tzunju</w>
qu e
Isra el</w>
qʼi j</w>
adr e</w>
s al
ˈ j
J er
jaʼ lo</w>
t tz
I N
2 8</w>
lu gar</w>
tw u
T O
1 9
dem ás</w>
t em
t ch
ay u
pro b
q qʼoʼn</w>
Tz eʼn</w>
R o
dad es</w>
ve z</w>
a xix</w>
ver s
E x</w>
or ación</w>
i a</w>
ú n</w>
kˈ a</w>
no sotros</w>
hab l
im por
s ino</w>
e a</w>
es per
pre gun
congreg ación</w>
A J</w>
empr e</w>
añ os</w>
a tz</w>
ri tu
ap ó
M e</w>
l o
Al kye</w>
ximbʼ etz</w>
s an
te ya</w>
on ka</w>
tien e</w>
testi gos</w>
si empre</w>
ris ti
v os</w>
aj a</w>
mo d</w>
wu ʼne</w>
2 9</w>
bˈ aj</w>
ar se</w>
2 7</w>
ma ˈn</w>
an e</w>
M ar
am or</w>
t an</w>
a tzun</w>
dr o</w>
i s</w>
man os</w>
ten er</w>
ci o</w>
l oj</w>
apó sto
on te</w>
r it
kaw il</w>
2 6</w>
i ˈn</w>
a qu
d er
a pren
pre dic
v er</w>
v ol
tz ul</w>
p í
much o</w>
l aʼn</w>
x jel</w>
si g
Pe dro</w>
O R
ris to</w>
t h</w>
a ciones</w>
no qtzun</w>
bʼ in</w>
nec es
x e</w>
fu er
L A</w>
es e</w>
K ʼ
ver dad</w>
p ec
h an</w>
mla y</w>
f er
s enti
mu er
c risti
V I
gr a
p alab
mu j
am ente</w>
bʼ abʼil</w>
t yekʼin</w>
v e</w>
ky qʼamaʼn</w>
uste d</w>
n aj
Is a
A L</w>
k w
A L
tiʼj a</w>
nuestr o</w>
kan et</w>
in ti
ha y</w>
re ci
en ta</w>
mun do</w>
t kʼuʼj</w>
t kyaqil
aqʼun tl</w>
s aʼn</w>
b ios</w>
kʼuj labʼil</w>
j yo
tz aj
ky kʼuʼj</w>
C u
xnaqʼtz an</w>
xit l</w>
t jaw</w>
n el</w>
t tx
ye ju</w>
ho ra</w>
y aj
u t</w>
qʼ o
pr es
o ˈn</w>
E l</w>
Can ción</w>
Bʼ itz</w>
aʼ l</w>
est aba</w>
N o
jaw il</w>
s tr
C or
tzʼ onin</w>
ícu lo</w>
ky ok
ton ces</w>
el la</w>
ech o</w>
uʼj it</w>
mas ke</w>
eʼ y
ky a
so lo</w>
p o</w>
v o
impor tan
ˈ x</w>
am a
bʼ en</w>
p aj</w>
tze ˈn
y an</w>
f e</w>
E N
on bʼil</w>
ent os</w>
t ja</w>
DI OS</w>
g ente</w>
m el
tzʼ i
se gu
ayu da</w>
ll am
c e
b ar
L I
men os</w>
qu er
B I
k eʼy
Y O
te ˈ</w>
au ti
si s</w>
e go</w>
e w
raz ón</w>
l em
i r</w>
ch mabʼil</w>
si gui
Qʼ onka</w>
Re ino</w>
na ʼj</w>
ja n</w>
algun os</w>
ku bˈ</w>
chʼix me</w>
es a</w>
m br
se gui
kx el</w>
K y
t bˈ
t aj</w>
est as</w>
vi vi
t u</w>
cu er
to ri
famili a</w>
c am
C h
i li
hi zo</w>
3 1</w>
du r
an za</w>
qʼuq bʼil</w>
as ta</w>
po si
S e
ar nos</w>
tz e</w>
es cu
p w
er an</w>
aʼ yeju</w>
A S</w>
s a</w>
hi jos</w>
apósto l</w>
x qʼuq
li br
kʼ loj</w>
ho mbre</w>
e z
o y
t ajbʼen</w>
qʼi bʼil</w>
lle v
b auti
o te
c as</w>
maj x</w>
res u
ver bios</w>
qʼ oj</w>
pue den</w>
Pro verbios</w>
tan ás</w>
pár r</w>
le a</w>
Sa tanás</w>
g o
Q U
t es</w>
much os</w>
re uni
Q a</w>
1 0
tr ab
es po
TU ʼN</w>
ʼ x</w>
g ún</w>
bˈ e
en tonces</w>
con fi
f eli
T im
pu mal</w>
t bʼinchaʼn</w>
ky im
E S</w>
di ó</w>
A po
es pi
R I
tu ra</w>
J os
to j
p un</w>
M i
cu l
ʼ J</w>
deb emos</w>
ojtzqi ʼn</w>
mis mo</w>
M o
YO L</w>
twi tza</w>
i ˈy</w>
ʼ ye</w>
in ci
ans yan</w>
twu tz</w>
s í</w>
ti ʼn</w>
min tiʼ
ac er
tu kˈa</w>
vis it
nuestr os</w>
qui er
P ero</w>
res pon
es t</w>
E n</w>
Isa ías</w>
n in
j e
S an
O N
con oc
al l
aj o</w>
k bʼan
Tim ote
en es</w>
re c
espi ritu
e j</w>
un que</w>
estu di
TO J</w>
ser vi
re y</w>
maj en</w>
ali dad</w>
ky nikʼ</w>
h echo</w>
bˈ in</w>
l i</w>
ari o</w>
3 3</w>
hac e</w>
t aj
m ente</w>
Jo b</w>
al o</w>
al go</w>
ta d</w>
est os</w>
en e</w>
ar t
VI D
mej or</w>
- -</w>
m ar</w>
d ar</w>
Timote o</w>
ky an
n onin</w>
h asta</w>
b en
N o</w>
j us
0 00</w>
kw est</w>
os o</w>
tx ʼotxʼ</w>
kyok len</w>
ti quʼn</w>
mel tzʼ
i k
3 2</w>
pw aq</w>
prob lem
B LI
ku x</w>
L e
jun x</w>
a x
we ʼ</w>
b le</w>
tr a
nim xix</w>
f ec
uc ción</w>
inti os</w>
c ada</w>
w in
a ʼ</w>
ten ía</w>
g an</w>
est án</w>
ech os</w>
na bʼil</w>
A Qʼ
br a
e lo</w>
Cor intios</w>
to das</w>
we ye</w>
L uc
n a</w>
ok el</w>
os tr
me di
da do</w>
a hora</w>
T YOL</w>
us al
much as</w>
Jer usal
in ter
kyi bʼ</w>
ja ku
Jerusal én</w>
tx e</w>
pr inci
3 5</w>
it o</w>
xim ana</w>
T E</w>
na ʼ
ch j
tx ˈ
nu e
cu m
an im
xi ʼ</w>
q yolin</w>
k jawil</w>
wi ʼje</w>
person a</w>
m il</w>
c er
A x</w>
kʼuj laʼn</w>
3 7</w>
oj txe</w>
eb re
ami w
E R
x toq</w>
Ti erra</w>
x uʼj</w>
neces it
qʼ in
3 4</w>
qʼo ʼne</w>
co razón</w>
ec es</w>
Luc as</w>
u estr
q ximen</w>
E N</w>
c an
r u
f í
e ci
cas a</w>
palab ras</w>
ky ximen</w>
man era</w>
no mbre</w>
X jan</w>
se a</w>
pakbʼ an</w>
cur s
gui en</w>
en contr
ES T
al guien</w>
r á</w>
tan to</w>
fi c
t bʼaj</w>
tzʼ aq
on il</w>
Mo is
C I
art ículo</w>
s a
o l</w>
kbʼ el</w>
kʼw aʼl</w>
g l
kˈ u
ky ok</w>
un o</w>
ñ o</w>
tien en</w>
dem ostr
to da</w>
entr e</w>
Mois és</w>
v al
ky x
chʼ in</w>
Jos é</w>
cristi anos</w>
A bra
ten emos</w>
naʼ m
con vers
s ti
tu kʼ
min ut</w>
mi l
so l
en a</w>
a unque</w>
C H
t ó</w>
chʼi y</w>
le y</w>
esi s</w>
ami w</w>
tzeˈn ku</w>
mbr es</w>
BI BLI
par te</w>
de j
á c
ob e
T oj</w>
bíbli co</w>
xnaqʼtz aʼn</w>
an ci
én esis</w>
Ja ku</w>
G énesis</w>
tku ʼx</w>
D ani
a g
Jes uc
BIBLI A</w>
d ar
ky ja
m ya</w>
cu enta</w>
c í
tzi y
xqʼuq in</w>
a ˈ</w>
i do</w>
n ti
xi len</w>
bˈe ˈx</w>
q naʼn</w>
otr as</w>
sem an</w>
d ías</w>
win q
ka bʼe</w>
ku ʼ
po co</w>
keʼy in</w>
kya ʼj</w>
j w
t nikʼ</w>
t majen</w>
importan te</w>
nim en</w>
m on
est ar</w>
o m
v en</w>
c ali
hi jo</w>
te x
n aj</w>
er os</w>
A j</w>
p a</w>
p adr
4 0</w>
o f
el el</w>
rit u</w>
pí ritu</w>
I n
kye qe</w>
lec tura</w>
a gu
w en</w>
c ambi
po dr
pa ci
tkyaqil ju</w>
P alab
kˈ w
im os</w>
an o</w>
si er
H echos</w>
t bʼinch
n chi</w>
ky ˈ
bʼ et</w>
ˈ ja</w>
deci r</w>
oks labʼil</w>
qui enes</w>
E J
twi ʼ</w>
tqˈ maˈn</w>
o ʼna</w>
otx ˈ</w>
m ar
ci endo</w>
lle g
gr an</w>
iky jo</w>
U N
n e
pu bli
pu es</w>
pue b
chj onte</w>
buen as</w>
bʼi s</w>
a gr
c e</w>
Dani el</w>
or ar</w>
re la
libr o</w>
1 4
tz aqʼ
aj el</w>
lu ˈn</w>
v eces</w>
ti bʼ</w>
meltzʼ aj</w>
q o
ad or</w>
M an</w>
p sis</w>
esc ri
V ea</w>
herman o</w>
quier e</w>
cali psis</w>
si ones</w>
problem as</w>
m or
dis cí
discí pu
q qʼamaʼn</w>
padr es</w>
muer te</w>
otr o</w>
un os</w>
L os</w>
u e
tzal ajbʼil</w>
tr i
testi go</w>
ma yo
txˈ otxˈ</w>
er n
é r
Apo calipsis</w>
q ʼ</w>
yekʼ un</w>
fr u
w 0
a ya</w>
T kawbʼil</w>
tzʼi bʼin</w>
ˈj jo</w>
n ej
kbʼan tel</w>
ho mbres</w>
nikʼ e</w>
q Man</w>
kʼ elel</w>
de c
C risto</w>
b a</w>
ky ch
pakbʼ abʼil</w>
ku ya</w>
x jo</w>
oy aj</w>
ci er
pueb lo</w>
contr a</w>
ami gos</w>
ad as</w>
p un
ju majx</w>
tr at
h e</w>
el es</w>
kuʼ x
b us
Se ñ
or g</w>
estu dio</w>
A d
y a
Señ or</w>
D i
qi bʼ</w>
tzi kʼ</w>
ayud ar</w>
kʼ okel</w>
jw org</w>
i j</w>
Ro manos</w>
á b
ky qˈ
fi ci
ar án</w>
al e</w>
M at</w>
t s
S am
qʼin u
ky qʼ
H ebre
A J
to r
reci bi
par ec
pa z</w>
mi s</w>
S al</w>
pá g</w>
í s
aq ˈ
K u
xim ane</w>
R E
Abra h
wi ʼ</w>
escu ch
ar es</w>
o ci
un ca</w>
i j
qan in</w>
a ye
ʼn toq</w>
segui r</w>
S i</w>
Abrah án</w>
k ol
ab ˈ
T ES
en ten
vivi r</w>
ac ti
otr a</w>
z as</w>
nuestr as</w>
ky bʼinchaʼn</w>
di y</w>
ac e
sig ni
L u
A demás</w>
y u
qui en</w>
E z
x uʼj
u eb
l aj</w>
kʼu ʼje</w>
f al
ch ˈ
ti kʼ</w>
t tnam</w>
ab ʼ</w>
f in</w>
ti erra</w>
dur ante</w>
aq pi
a tzin</w>
don de</w>
agr ad
qʼinu mabʼil</w>
gu s
discípu los</w>
ex pli
3 8</w>
ton in</w>
di do</w>
bˈ inch
pr ueb
y abʼil</w>
kyu ˈn</w>
Bʼ AN
qʼ et</w>
q yekʼin</w>
min is
t ado</w>
al e
M in
li gi
tzʼ ajbʼen</w>
t nikʼ
o taq</w>
J A
tn aʼn</w>
e qui
tqʼ oʼna</w>
l ti
cu i
AN Qʼ
ja r</w>
hac er
E l
tori o</w>
prof ec
ab le</w>
s ac
des e
P adre</w>
z ar
p in</w>
o br
m í</w>
de as</w>
naʼm xtoq</w>
ky nim
i m</w>
tnikʼ a</w>
T ej</w>
ti pumal</w>
U MA
Hebre os</w>
C on
tqan in</w>
pi o</w>
com pa
1 ,
re ligi
kaw in</w>
F ili
3 9</w>
t ados</w>
cum pli
aq e
Jesuc risto</w>
j ni
N AQʼ
tu d</w>
e ta</w>
di a</w>
ris t</w>
TE N</w>
A n
n ajbʼen</w>
KY E</w>
sem ana</w>
n unca</w>
X NAQʼ
XNAQʼ TZ
yaj xitl</w>
res pe
na da</w>
en cias</w>
in tl</w>
des de</w>
ver dad
es píritu</w>
anci anos</w>
í amos</w>
tex to</w>
r ía</w>
E f
yol ine</w>
t yol</w>
q bʼinchaʼn</w>
o kx</w>
kʼw al</w>
A M
tu l</w>
kuʼx un</w>
g an
L AL</w>
t kʼu
f ri
at toq</w>
TES OR
Qʼ IN
Ad án</w>
UMA BʼIL</w>
QʼIN UMABʼIL</w>
t tziy
emp ez
chʼ ex
Tu ʼn</w>
TESOR OS</w>
vo sotros</w>
C RI
P re
al il</w>
a si
Q o</w>
t mod</w>
posi ble</w>
sier vos</w>
a w
in ten
ten dr
ax pe</w>
sigui ente</w>
pregun tas</w>
o cu
is ra
algun as</w>
isra eli
for ma</w>
d emos</w>
mo j
jyo n</w>
ar lo</w>
O K
k le
e d
xna qˈ
nim ku</w>
tx ʼ
tr es</w>
sab er</w>
xja n</w>
u el</w>
ch i
habl ar</w>
g en
ti ˈjjo</w>
em ías</w>
ˈ y
ó n
to r</w>
q ok</w>
z ar</w>
h er
ad u
Q e</w>
qʼ am
E n
su per
na ʼne</w>
im i
d an</w>
en vi
TI ʼJ</w>
o p
h on
us o</w>
ser á</w>
os a</w>
il toq</w>
c lu
San ti
kʼi w
kʼ onil</w>
ci elo</w>
á r
T TEN</w>
espo sa</w>
tqʼ ama
lec ción</w>
or a</w>
é is</w>
pens ar</w>
kʼ am
añ o</w>
O K</w>
tu ˈn
bʼi le</w>
ku bʼ
TZ AJ</w>
esper anza</w>
Q man</w>
es pe
a go</w>
VID A</w>
R A</w>
Tu ˈn
t kawbʼil</w>
i r
3 6</w>
p an</w>
Sam uel</w>
ti l</w>
AN A</w>
i y</w>
án g
m ens
bʼi la</w>
tx i
gra cias</w>
winq lal</w>
tzʼaq li</w>
l í
bʼ il
ʼ ya</w>
t pon</w>
per las</w>
all í</w>
reuni ones</w>
ky yekʼin</w>
fi ca</w>
bíbli ca</w>
Santi ago</w>
mo str
J un
n or
for ma
bʼ aj
l alil</w>
d in
bi er
a po
pr esi
mla y
con t
al mente</w>
t bʼiʼn</w>
in xa</w>
a ˈn</w>
ch e
ar in</w>
erman a</w>
em bar
bauti s
we bʼil</w>
ʼj a</w>
ttz aqʼ
in vi
qʼ an
bˈ aj
al qui
ace p
r s</w>
mej e
i la</w>
AL KYE</w>
pon ga</w>
q x
á l</w>
o xe</w>
gi p
di e</w>
4 5</w>
xnaqʼtz bʼen</w>
ky ten</w>
hi ci
Al kyeqe</w>
si r
ho y</w>
c h</w>
tz ma
ter io</w>
tkʼu ʼja</w>
en t</w>
N I
qʼi ʼn</w>
pár rs</w>
c ab
si do</w>
jaku toq</w>
5 0</w>
tw i</w>
e le</w>
ar ía</w>
4 1</w>
si tu
so r</w>
po der</w>
Mar ía</w>
p adre</w>
mi ll
KY ANQʼ
visit a</w>
trab ajo</w>
U ʼj</w>
pre par
on ia</w>
s ent
kye ˈ</w>
ʼj in</w>
xnaqˈ tz
n qˈ
mi ento</w>
chʼ intl</w>
P A
Ju diy</w>
u dad</w>
or g
en fer
C or</w>
tukʼ e</w>
le to</w>
israeli tas</w>
bʼ alo</w>
ens es</w>
OK S
ky bʼiʼn</w>
ci r
cur so</w>
cu alqui
bʼil al</w>
n nikʼe</w>
f in
tr o
princi p
con oci
al ky
J un</w>
4 4</w>
re cu
q an</w>
res pu
kʼ aj</w>
Qu i
n qʼoʼne</w>
j iˈy</w>
an jel</w>
L O</w>
conse j</w>
bˈ an
t kyim</w>
t ajbʼil</w>
pro me
men to</w>
m am
entr as</w>
S TI
1 7
erman o</w>
ñ a</w>
ad ores</w>
qʼ on
kye ˈy</w>
espe ci
Cu ando</w>
y es</w>
hab ían</w>
hu man
1 8
Min tiʼ</w>
w eʼn</w>
ex ku</w>
xo bʼ</w>
predic ar</w>
ci udad</w>
in cl
yo n</w>
par ti
g amos</w>
di fí
alky exku</w>
b er
T esti
c el
a tr
D e
i c
n et</w>
g una</w>
fu tu
e dad</w>
lo gr
kan oʼn</w>
est aban</w>
es as</w>
er es</w>
OKS LAL</w>
Ja co
D e</w>
em bre</w>
ky ja</w>
enseñ a</w>
T o
Palab ra</w>
ti n
la do</w>
cl ar
yo ʼn</w>
tx u
ja ˈ
CRI STI
ar le</w>
ama ʼne</w>
jus ti
bʼ a</w>
s in
ra f
ik ju</w>
wi tze</w>
embar go</w>
e xi
pl aj</w>
fu eron</w>
aqe ju</w>
KYANQʼ IN</w>
CRISTI ANA</w>
in i
forma ción</w>
V e
tn aj
muj bʼabʼil</w>
lu ego</w>
ky aj
el las</w>
an ali
tu lo</w>
t amiw</w>
ab il
J a</w>
pár raf
futu ro</w>
per fec
j ud
til bʼilal</w>
espiritu al</w>
cas o</w>
S i
kaw bˈil</w>
fu era</w>
H e
H i
y on
so mos</w>
q witz</w>
os os</w>
jni ˈ</w>
ch ikʼ
L o</w>
J ud
kyaqil x</w>
ec h</w>
ti ca</w>
l in
ky naʼn</w>
imi ento</w>
E gip
pu l
í n</w>
A ʼ
al aˈ</w>
a ʼna</w>
ri a</w>
kyja luˈn</w>
T BʼAN
Egip to</w>
com p
bʼ al
org ani
na die</w>
bíbli cos</w>
pres ent
chʼix pu
1 6
z ó</w>
v as</w>
pu esto</w>
ka ˈy
v ía</w>
ja pun</w>
hac en</w>
No qtzun</w>
Ch mabʼil</w>
4 2</w>
S I
Jaco b</w>
ew bʼaj</w>
muj er</w>
jun xitl</w>
c al
xnaqʼtz an
i le</w>
espiritu ales</w>
di eron</w>
t i</w>
c ri
buen a</w>
segu r
l aj
sal v
r at</w>
a ten
ttziy en</w>
profec ía</w>
ky ajbʼen</w>
bus c
escri bi
ca us
l en
ar a
U ni
tqˈ oˈn</w>
pá g
est amos</w>
Ve amos</w>
vi o</w>
ti j</w>
t kyaj</w>
jaˈ lin</w>
q ximbʼetz</w>
meje bʼ
co mi
a kʼaj</w>
Bʼ aʼn</w>
n qʼ
c la
as t
in k
xi ʼye</w>
ten e</w>
mintiʼ toq</w>
feli z</w>
bʼ l</w>
abil onia</w>
tu vo</w>
pe tziˈn</w>
B abilonia</w>
pakbʼ al</w>
bu en</w>
, 000</w>
tuʼn tzunju</w>
ti kʼ
ri ó</w>
k tel</w>
conoc er</w>
aqʼ un</w>
tzal u</w>
em o
senti do</w>
qe ye</w>
mi entras</w>
l im
go bier
O V
mejebʼ le
ay in</w>
R OS</w>
tz aqpi
abʼ j</w>
a ʼne</w>
N ue
M a</w>
t emplo</w>
n ximane</w>
J E
pre ocu
VID E
E li
án do
tu r
quer ía</w>
incl uso</w>
di fer
au di
ter i
se amos</w>
pro te
pro m
le c</w>
v el
kʼam oʼn</w>
TBʼAN EL</w>
gu e</w>
t yekʼun</w>
prim ero</w>
or i
deb e</w>
E s</w>
to q
servi r</w>
qˈ ij</w>
U N</w>
Hi jo</w>
palab ra</w>
mam bʼaj</w>
Jun jun</w>
princi pio</w>
mens aje</w>
k tzaj
espo so</w>
pr ác
jud í
d estr
cualqui er</w>
He b</w>
tzaqʼ webʼil</w>
se c
qui z
kʼi x
g as</w>
an to</w>
v ali
s ali
minis terio</w>
qo ʼ</w>
publi c
pi ens
pec ado</w>
d ó</w>
am b
Y aj
Tuˈn petziˈn</w>
vol un
signi fica</w>
qu ʼne</w>
aqʼun an</w>
Ó N</w>
l an
j o
im on
din ero</w>
x in
tz aʼn</w>
e ʼ</w>
ar emos</w>
VIDE O</w>
C rist</w>
vis ta</w>
tx ok
me dio</w>
ca pí
t bʼi
audi torio</w>
ú lti
ñ os</w>
to mar</w>
ky wiʼ</w>
jyo ʼn</w>
i gu
ter min
convers ar</w>
apren der</w>
x ewbʼaj</w>
tu s</w>
Pre gun
N a
M t</w>
JA K
vi eron</w>
h emos</w>
B e
A r
n naʼne</w>
ben e
aqu el</w>
ale gr
prim era</w>
A tal
la qʼ
en di
se x
ma tr
yol ina</w>
qi ʼn</w>
nti ˈ</w>
gr an
bˈ iˈn</w>
an g
ó ni
tku bˈ</w>
t nim
t k
su fr
ky w
ac tu
TI ʼ</w>
AJ U</w>
er r
QU É</w>
Mar cos</w>
ó ven
óven es</w>
un ci
i deas</w>
buen o</w>
X i</w>
A jaw</w>
xja w</w>
tqʼ ij
ta ʼ</w>
matr imon
es os</w>
dis fru
Ro m</w>
ú l</w>
x el</w>
tkyaqil jo</w>
e te</w>
ate ʼ
Tuʼn ju</w>
xin aq</w>
txʼ ol
q alaˈ</w>
di j
ayud ó</w>
organi z
l ar
hu manos</w>
g ob
u d</w>
el xix</w>
de dic
ami go</w>
Sa úl</w>
a m</w>
twu tz
nue vo</w>
kle t</w>
for tal
chʼex paj</w>
ch oj
S l</w>
qʼ aqʼ
ch o</w>
ttzaqʼ weʼn</w>
tnaj saʼn</w>
ky onin</w>
j óvenes</w>
E X</w>
E M
ti bʼaj</w>
hu mil
tz in
re visita</w>
JAK U</w>
H ech</w>
t yolin</w>
conse jos</w>
c entr
ayud ará</w>
tja qʼ</w>
hi sto
f a
e le
d uc
cier to</w>
tx in</w>
pe di
es con
S e</w>
E va</w>
gen er
4 3</w>
é s
ttx laj</w>
per mi
ad or
predic ación</w>
d ol
Pro v</w>
Jer emías</w>
tqʼij lalil</w>
sab i
g a
n ya
al im
Atal aya</w>
b o
Mi ʼn</w>
txʼol bʼabʼil</w>
ti co</w>
pro pi
tem a</w>
t tzʼibʼin</w>
q aj</w>
je ʼ</w>
5 5</w>
resu l
j el
con su
ex per
con si
ad es</w>
per don
c ari
dem uestr
a par
ti ó</w>
ser es</w>
ky kubʼ</w>
en ci
compa ñ
t ú</w>
in formación</w>
ex sin</w>
aqu í</w>
a y</w>
á li
we ˈ</w>
fi r
Testi gos</w>
ti vos</w>
t aja</w>
mo jeʼ</w>
xi ˈ</w>
tja pun</w>
respu esta</w>
2 ,
ta jaw</w>
kʼuj la
en se</w>
cur sor</w>
c ru
S E
tem bʼil</w>
en el</w>
re cor
mu estr
mejebʼle ʼn</w>
a ˈ
ten ían</w>
tbˈ i</w>
q ten</w>
n kʼuʼje</w>
kan in</w>
i chin</w>
acer do
M es
JE H
pas o</w>
di o
cl esi
ch eʼ
4 8</w>
to m
pre cursor</w>
ky mod</w>
x taq</w>
no ti
in te</w>
feli ces</w>
OV Á</w>
JEH OVÁ</w>
toq xi</w>
quiz ás</w>
pro p
in tro
d ucción</w>
b re
E clesi
pod ía</w>
cam ino</w>
ast és</w>
X J
v ino</w>
tna ʼna</w>
t amos</w>
san to</w>
pro v
ay e</w>
In ter
Eclesi astés</w>
mo mento</w>
li c
an xa</w>
yol il</w>
uste des</w>
qu emos</w>
p es
jun al
es ios</w>
t amiw
a z
pl an
obr a</w>
ar ios</w>
C re
v u
sac ri
s tan
deci siones</w>
T A
Ef esios</w>
A t</w>
mi la
xnaqʼtzan kuya</w>
q nim
nej enel</w>
bʼ an</w>
t kʼujlabʼil</w>
su fri
o toqxi</w>
o ca
co l
sol dad</w>
j yon
er as</w>
pro gr
m adre</w>
le pe
em i
C O
reuni ón</w>
resu ci
ky yol</w>
a te</w>
s acerdo
se gún</w>
p aʼn</w>
f un
Lu c</w>
no q
ca ciones</w>
V i
CI ÓN</w>
xuʼj il</w>
re cuer
llam ado</w>
kyan qʼibʼil</w>
twi tz
pas ado</w>
mi x</w>
ky bʼ
ha ga</w>
convers ación</w>
Sal om
J on
kyu kˈa</w>
au tori
txok bʼil</w>
men cion
de a</w>
toj jo</w>
Q E</w>
to qe</w>
t ación</w>
ky wu
im ag
ajbʼ el</w>
M EJ
C U
í s</w>
com en
X I
B us
trab a
il xix</w>
6 5</w>
te r</w>
áli sis</w>
respon sab
kyx ol
q bʼiʼn</w>
kʼi le</w>
an tza</w>
Salom ón</w>
ác il</w>
tzal aje</w>
obe dec
nim aq</w>
intro ducción</w>
estudi ar</w>
yaj il</w>
w an
q ch
prueb a</w>
l ar</w>
f ácil</w>
de bi
s an</w>
S u
prof eta</w>
tum il</w>
por tu
nec esi
m é
a c</w>
v í
matrimon io</w>
kˈw al</w>
OR ES</w>
Es c
kya ˈj</w>
judí os</w>
e ter
ami s
C r
qʼ in</w>
chikʼ bʼabʼil</w>
T qʼ
I s</w>
C o
jo ven</w>
enten der</w>
É l</w>
twitz ju</w>
tqʼama ʼna</w>
párraf o</w>
e vi
di ciendo</w>
D A</w>
txi x</w>
le er</w>
eʼ l</w>
QU E</w>
q ine</w>
herman a</w>
ac ab
P R
kyi ʼn</w>
ha ciendo</w>
capí tulo</w>
c er</w>
y ajbʼil</w>
pens es</w>
bˈ a</w>
bauti z
an álisis</w>
tze ʼ</w>
na ˈ
deb er
vers ículo</w>
ti vo</w>
so ci
EST ROS</w>
min a</w>
i tz
deb en</w>
agu a</w>
N ya</w>
1 5
kʼu l
ad ucción</w>
te l
taj toq</w>
t qan</w>
pr on
oʼ kx
ant ar</w>
Fili penses</w>
t am
s aq
q onin</w>
h ará</w>
ar an</w>
ajbʼ ene</w>
TZ ʼ
tan qʼibʼil</w>
qan qʼibʼil</w>
ari a</w>
No é</w>
4 6</w>
justi cia</w>
con str
w in</w>
pun to</w>
fuer zas</w>
Esc ritu
q ajbʼen</w>
ec e</w>
bʼ itz</w>
pas en
pasen s</w>
mayo r</w>
e za</w>
b on
ad el
qʼuq il</w>
d amos</w>
al gún</w>
a kux</w>
ti do</w>
ob je
ben di
ac to</w>
k bʼil</w>
di das</w>
T r
entr e
Mes ías</w>
le v
im o</w>
g e</w>
t la</w>
ky ximbʼetz</w>
ón de</w>
naj saʼn</w>
kye ye</w>
ky qanin</w>
ky bʼinch
buen os</w>
ye kˈ
q meltzʼaj</w>
dur ía</w>
di os</w>
XNAQʼTZ AL</w>
N e
Inter net</w>
u ˈn</w>
to kx</w>
sabi duría</w>
S ara</w>
P r
man o</w>
t kawin</w>
o portu
i dio
U se</w>
MEJ ORES</w>
K U
ter r
situ ación</w>
os as</w>
m aʼn</w>
ani a</w>
gl esi
fi eles</w>
de jar</w>
MA ESTROS</w>
hici eron</w>
cer ca</w>
anqʼ il</w>
us ar</w>
t amente</w>
pr i
kʼu lin</w>
an ti
Bʼ I
volun tad</w>
t at</w>
nqʼ amaʼne</w>
fuer te</w>
es for
de l
acer ca</w>
su curs
re ino</w>
pre curs
ni dad</w>
li s
e di
c r
P ara</w>
sec ción</w>
Uni dos</w>
Es tados</w>
si on
or aciones</w>
li ber
chʼixpu bʼil</w>
or ia</w>
ti li
pr ó
in as</w>
deci sión</w>
bʼal un</w>
tch ikʼ
sab ía</w>
pe que
ew in</w>
bʼinch et</w>
S A
Bus quemos</w>
xnaqʼtz al</w>
re p
hab la</w>
ar los</w>
D O</w>
C ol
É x</w>
r le</w>
igu al</w>
i dad</w>
fi el</w>
d oc
m it
destr u
choj bʼil</w>
N im</w>
J n</w>
á is</w>
xit bʼil</w>
r an
kyim ni</w>
en emi
í o</w>
í fi
vu el
tx ku
tu kʼi
qˈ oˈn</w>
q kanoʼn</w>
ha ya</w>
g er
T L</w>
áb amos</w>
txku p</w>
tch mil</w>
lepe ʼ</w>
v esti
cuer po</w>
ti j
ten ga</w>
q mod</w>
nim il</w>
mo do</w>
gr u
T N
L U</w>
vi v
uʼj ink
ser i
qʼ oj
m em
kʼ oʼn</w>
con ven
ali dades</w>
y ent</w>
v uestr
te ʼ</w>
g ri
especi al</w>
c il</w>
Le y</w>
llev ar</w>
histo ria</w>
hacer lo</w>
gr e</w>
difí cil</w>
N abʼ
ó s
an e
Nabʼ itz</w>
quer emos</w>
mo n</w>
ma tij</w>
escon didas</w>
cu án
x tal
lle gar</w>
b e</w>
tnej il</w>
qan mi</w>
organiz ación</w>
O k</w>
q xo
ú m
tan mi</w>
san gre</w>
servi cio</w>
ma g
lu ch
en fr
con clu
bˈ aˈn</w>
X na
t ajbʼ
o cur
ja ˈ</w>
hab er</w>
clar o</w>
al a
Escritu ras</w>
ú ni
ye le</w>
ky xi</w>
es fuer
ci do</w>
chˈ in</w>
b eb
O j
Bʼ A
t chʼiy</w>
t aron</w>
sab emos</w>
n ela</w>
jaku lo</w>
encontr ado</w>
Palab ras</w>
L AS</w>
publi caciones</w>
medi ante</w>
ik tzun</w>
expli c
equi el</w>
d or</w>
com e
ab r
T en
Ez equiel</w>
tzun te</w>
ol il</w>
m er
y il</w>
t keʼyin</w>
ky xiʼ</w>
d en
Pe d</w>
so y</w>
qui én</w>
podr ía</w>
noti cias</w>
hac emos</w>
Tz ʼ
tqʼ uq
ti v
su ce
prim er</w>
p al</w>
nin gún</w>
na ción</w>
man kbʼil</w>
ar les</w>
A sí</w>
ˈn il</w>
val or</w>
n e</w>
tor es</w>
nqˈ maˈn</w>
kˈu ˈj</w>
kyi j</w>
j e</w>
di al</w>
Q AN
ti n</w>
r se</w>
pa kbʼan
mal as</w>
a txix</w>
Ja ku
ximbʼ e
qan il</w>
kyi bʼaj</w>
i la
des c
d ará</w>
ar é</w>
a cuer
Ti m</w>
rec ción</w>
iky xjo</w>
Be tel</w>
Apo c</w>
q ja</w>
kol in</w>
P o
w ok
a la</w>
E R</w>
yekʼ bʼil</w>
wi t</w>
pod er
o í
la y</w>
es al
ech a</w>
Tqʼ ama</w>
L as</w>
ES P
tu ʼj
se an</w>
on o</w>
n in</w>
pu so</w>
k chi</w>
c ár
as amb
T bʼan
toj tzqi
kyan mi</w>
T a
D A
sal ud</w>
q qʼ
áng eles</w>
tna bʼil</w>
t ab
parec e</w>
ky jaw</w>
im it
cu alidades</w>
adr o</w>
X qʼuqil</w>
confi anza</w>
bar k</w>
tri bu
ni kyˈ
ll en
g r</w>
al guna</w>
a ʼn
R ut</w>
presi ón</w>
n w
m es</w>
j il</w>
il ju</w>
escu ela</w>
ter ri
da vía</w>
ci e
bˈan t</w>
b an</w>
amis tad</w>
Y A</w>
Xna qʼtz
G UN
áng el</w>
q on
t y</w>
mi e
ma la</w>
esc la
del ante</w>
cár c
to y</w>
ari se
a cu
ky yolin</w>
ikʼ un</w>
Tz aj</w>
S o
tzal uˈn</w>
t aba</w>
r án</w>
q kyaqilx</w>
no che</w>
n witze</w>
mis ma</w>
kʼiw labʼil</w>
ej emp
T esal
tukʼ ilju</w>
ktzaj el</w>
escribi ó</w>
Qu ˈn</w>
vis to</w>
q ayin</w>
enfer me
c in
ar r
ami entos</w>
P RE
E ʼN</w>
pron to</w>
pa ís</w>
of rec
com pren
bˈ ila</w>
A t
q ok
El ías</w>
q ya</w>
q Ajaw</w>
prop ós
p it
bene fici
ad oración</w>
A tzun</w>
tuʼj ina</w>
as ti
a d</w>
L i
prueb as</w>
lleg ó</w>
kʼw aʼ
kʼ un</w>
confi ar</w>
Re y</w>
P O
3 ,
ícu los</w>
we ˈy</w>
vo z</w>
qi pumal</w>
q kʼujlabʼil</w>
kyu kʼ
ja tz</w>
i x
ni x</w>
ane tziˈn</w>
kbʼ ajel</w>
cárc el</w>
Qui én</w>
C o</w>
s pi
qi ʼje</w>
oj os</w>
neces ario</w>
mie do</w>
jus to</w>
4 7</w>
mi entos</w>
i ba</w>
d ente</w>
comp leto</w>
Ku bʼ</w>
EJ U</w>
w abʼj</w>
tbˈ an
sab e</w>
qu ʼjin</w>
n xi</w>
n eʼl</w>
apósto les</w>
ttz i</w>
tr ans
q bʼinch
tok lin</w>
to davía</w>
sucurs al</w>
pon er</w>
ky il</w>
ca paci
Isa ac</w>
ʼj il</w>
recu adro</w>
pon e</w>
ky oj
ami ento</w>
tqʼ aj
ti bʼa</w>
ser ía</w>
princip ios</w>
p la
ju i
in x</w>
in toq</w>
N U
20 0
si endo</w>
ky aje</w>
ci encia</w>
acti tud</w>
6 0</w>
ʼ l</w>
tbʼinch aʼna</w>
laqʼ eʼ</w>
glesi a</w>
ari as</w>
tx al
pas ó</w>
ky bˈinch
importan tes</w>
ho r
fi cio</w>
a ku</w>
Ku kx</w>
G e
vel ación</w>
t ades</w>
re alidad</w>
propós ito</w>
kʼiw laʼn</w>
i endo</w>
fin al</w>
expli ca</w>
acuer do</w>
TZ AQʼ
TZAQʼ W
5 1</w>
se gun
re des</w>
qʼ il</w>
pue do</w>
nor mas</w>
ky na
fic ado</w>
er se</w>
dij eron</w>
com par
KY I
ti va</w>
se p
qʼuq li</w>
qʼ ajel</w>
n ja
mi lal</w>
gobier no</w>
ver emos</w>
ten go</w>
segu ro</w>
G u
A l</w>
soci ales</w>
ikʼ bʼil</w>
i encia</w>
al kyeqe</w>
Tu ʼjil</w>
qʼuq bʼaʼn</w>
pas ar</w>
hon r
b ri
autori dad</w>
Bʼ inch
tz en</w>
kˈ iy</w>
car ta</w>
ab u
T Z</w>
L e</w>
tikʼ x</w>
tem as</w>
q wiʼ</w>
L OS</w>
4 9</w>
tar ía</w>
responsab ili
ja l</w>
as un
Pregun ta</w>
N im
J UN</w>
os enses</w>
la tas</w>
com ent
atr o</w>
Kʼ loj</w>
Kʼ U
C ON
x pe</w>
p an
mlay x</w>
mi r
di ri
conse jo</w>
amiw bʼil</w>
ʼ N
ti r</w>
mila gr
dic en</w>
demostr ar</w>
R A
G é</w>
2 8
q pakbʼan</w>
na ciones</w>
n bʼi
mi tiʼ</w>
conclu sión</w>
b as
ab les</w>
á latas</w>
n ch
mi seri
man e</w>
gru po</w>
esc rit
d í</w>
Col osenses</w>
í so</w>
s im
re ch
muj eres</w>
miseri cor
apren demos</w>
5 2</w>
te yele</w>
raz ones</w>
q tzalaj</w>
q il</w>
mill ones</w>
human idad</w>
g ó</w>
f ol
aten ción</w>
2 9
t paj</w>
s bʼ
ky k
junal x</w>
f ía</w>
es es</w>
di ci
cla se</w>
ara ón</w>
apo y
G álatas</w>
s te</w>
no ta</w>
m en</w>
it a</w>
G o
verdad ero</w>
le br
kyim len</w>
ky ˈ</w>
jun xi
est é</w>
a un</w>
li ˈn</w>
kʼix kʼ
M O</w>
ni ños</w>
in clu
esfor z
enfr ent
empez ó</w>
a tzunte</w>
M as
G én</w>
religi ón</w>
q qanin</w>
o mi
mis mos</w>
man ten
lec c</w>
A Q
p os</w>
mal o</w>
T qanil</w>
u tili
tbʼinch bʼen</w>
s kʼoʼn</w>
muer tos</w>
in f
gob ern
g ado</w>
agrad eci
vol ver</w>
s amaʼn</w>
li o</w>
ky bˈ
feli ci
M a
s yent</w>
p et</w>
na tur
ec er</w>
ci os</w>
ca p</w>
b o</w>
un do</w>
tz ma</w>
re ali
prom esa</w>
j am
di cho</w>
des ea</w>
cari ño</w>
tr as</w>
X jel</w>
G U
vi sión</w>
ti s
qʼ eʼn</w>
g ares</w>
en car
ar me</w>
x jel
te tz</w>
Nue vo</w>
wi ˈja</w>
v ej
v an</w>
su é</w>
que d
pes ar</w>
parti ci
on ic
onic enses</w>
mintiʼ xix</w>
ll ama</w>
hab len</w>
at taq</w>
M u
Jo sué</w>
v es</w>
qʼ onte</w>
Ro ma</w>
L A
Ez e
tqʼaj qʼajel</w>
qʼ onka</w>
oportu nidad</w>
mor ir</w>
gu en</w>
est ado</w>
H er
z ca</w>
tzˈ i
sir vi
o ˈ
muestr a</w>
U n</w>
T kyaqil</w>
D es
ttx olil</w>
s or
resu r
necesit amos</w>
kˈu ˈja</w>
fi er
an as</w>
Jud á</w>
én do
ten a</w>
sex u
qan inxa</w>
pec ados</w>
n ej</w>
much a</w>
mar zo</w>
l xix</w>
j y</w>
entr o</w>
con ten
Jud as</w>
ˈj il</w>
tqʼuq bʼaʼn</w>
si dad</w>
prác tica</w>
dar le</w>
cu atro</w>
Tesal onicenses</w>
Re velación</w>
tbʼ et</w>
t kʼ
mill ón</w>
enemi gos</w>
di era</w>
ayud arnos</w>
T X
tar de</w>
qon ikʼ
o ˈn
o bli
ce lebr
U na</w>
ó li
á cu
vi ene</w>
us tr
jun lo</w>
fol leto</w>
bʼ al</w>
óni cas</w>
tz u
respe to</w>
n bʼinch
l an</w>
Vi deo</w>
Pr im
tan qʼi
re paso</w>
qʼ un
paci encia</w>
kyi ˈj</w>
am ento</w>
tukʼi la</w>
t ex</w>
problem a</w>
l f
it os</w>
es toy</w>
di endo</w>
caus a</w>
al can
visit ar
tku bʼaj</w>
man d
m ent
kʼixkʼ oj</w>
at án</w>
ts ty</w>
tij en</w>
nw tsty</w>
mar avi
ky pon</w>
itz ʼj</w>
h ebre
deci di
cos a</w>
re gr
par eci
dem on
aqˈ win</w>
XNAQʼTZ BʼIL</w>
Jaku pe</w>
CH ʼ
u ter
twutz xix</w>
tanqʼi bʼila</w>
ser v
cir c
aye ˈ</w>
M I
Ef es</w>
tzeˈn ku
si ente</w>
recibi r</w>
hu bi
cie los</w>
bʼi s
uter on
uteron omi
uteronomi o</w>
s t
obedec er</w>
n qayin</w>
De uteronomio</w>
Co mo</w>
Aʼ Y
5 3</w>
ʼ k</w>
vi de
resur rección</w>
pregun ta</w>
ku xa</w>
e br
cel esti
reg alo</w>
pe li
gu erra</w>
g ía</w>
ew bˈaj</w>
ejemp los</w>
e z</w>
e fec
abr il</w>
L E
tiemp os</w>
so bre
pue des</w>
junxi chaq</w>
es p
am e</w>
P r</w>
Cre ador</w>
gl oria</w>
cristi ano</w>
P or
B ʼ</w>
5 4</w>
2 7
x sin</w>
x in</w>
tzal aj
p endi
g en</w>
es co
b ajo</w>
aq ʼ</w>
J UN
I k</w>
qʼi bʼile</w>
peli gr
n tzaj</w>
i tzʼ
i er
ch ex</w>
San t</w>
Pab l</w>
K ʼ</w>
ttz aqpi
sigui entes</w>
piens a</w>
gu ía</w>
ci ó</w>
xnaqˈtz bˈin</w>
t kʼwaʼl</w>
t kanet</w>
por ke</w>
h all
di g
cumpli r</w>
cos tum
TE S</w>
ú n
x ku</w>
wu ˈn</w>
tbʼan elxix</w>
si a</w>
segur os</w>
qˈ uq
qʼam anxa</w>
pu er
X ewbˈaj</w>
kyukʼ e</w>
dol or</w>
asamb lea</w>
ís imo</w>
obr as</w>
kyu ʼne</w>
P er
Ch ʼ
ẍ e</w>
xim a</w>
t tzalaj</w>
ser án</w>
s aq</w>
on ine</w>
che bʼe</w>
an unci
am ar</w>
T Qʼ
I deas</w>
A MA
wu kʼile</w>
tze ʼn
si gue</w>
d ónde</w>
XJ AL</w>
xnaqʼtz ana</w>
tqʼ oj</w>
t bʼis</w>
respon dió</w>
in str
J W</w>
ti ˈ</w>
obe di
ex tr
cu anto</w>
com er</w>
H ch</w>
AʼY EJU</w>
últi mos</w>
tzˈ ok</w>
ri t</w>
p ú
oʼkx ju</w>
lim pi
li dad</w>
in taq</w>
em br
dej ó</w>
curs os</w>
ajbʼ en
v ang
t yekʼ
nue va</w>
lu gares</w>
ja do</w>
eter na</w>
estu vo</w>
el toq</w>
a tz
KY AQ
C r</w>
winq il</w>
s as</w>
re b
qu ías</w>
on a</w>
kybʼ i</w>
gu ar
uni ver
tja ya</w>
il te</w>
di go</w>
cambi ar</w>
aye tzin</w>
M an
Cr ónicas</w>
txal paj</w>
maj l</w>
i da</w>
fa v
consi der
abˈ l</w>
s os</w>
po lí
p ar</w>
mun dial</w>
mayo r
jun tos</w>
D ES
z os</w>
xtal bʼil</w>
si ca</w>
ky anqʼin</w>
e c</w>
Je r</w>
us a</w>
mu rió</w>
T O</w>
S er
R u
PRE GUN
Es t
Es cu
xo do</w>
tchikʼ bʼaʼn</w>
tbʼi ʼna</w>
man tener</w>
llam ada</w>
hac ía</w>
est ab
en cu
bautis mo</w>
anci ano</w>
4 ,
t kˈ
saq ch
mintiʼ tl</w>
g ar
cion al</w>
mi sion
ka bʼin</w>
ap lic
S a</w>
NU EST
5 7</w>
sent ía</w>
mon os</w>
lu z</w>
k abˈ
exper iencia</w>
des cu
K aw
C E</w>
tr a</w>
te ˈ
q amiw</w>
asti w</w>
ar rep
É xodo</w>
re gi
qui era</w>
pu estos</w>
k ami
el lo</w>
Yaj tzun</w>
R ESP
Q I
ti o</w>
hab rá</w>
en g
Jesuc rist</w>
H A
w aj
sig lo</w>
pág ina</w>
muer to</w>
mlay toq</w>
lev ant
d é
celesti al</w>
an gu
M al
G ál</w>
super inten
qʼan ch
q xnaqʼtzan</w>
q qʼoʼne</w>
man eras</w>
ma estr
la ción</w>
con ti
KYAQ IL</w>
AMA ʼN</w>
3 0
vi r
si ete</w>
q ex</w>
progr ama</w>
no vi
kˈw el</w>
du da</w>
di fi
bˈ l</w>
P ue
5 6</w>
yo la</w>
un e</w>
tzʼ aq</w>
tzal aja</w>
taj lal</w>
r á
cambi o</w>
b les</w>
vi ol
twi ˈ</w>
si s
or o</w>
no k
aj es</w>
L o
Cu án
reci b
ol vi
d é</w>
Nue va</w>
E L
ttx u
senti r</w>
qʼo l</w>
q xqʼuqin</w>
n lay</w>
mo l
di ca</w>
asi sti
Oj tzqi
A b
Í A</w>
testi mon
qʼaqʼ bʼil</w>
pú bli
ky okslabʼil</w>
j ar
inter es
cir cu
ci les</w>
Prim era</w>
8 3</w>
7 0</w>
pre ci
n kubˈ</w>
fal ta</w>
difer entes</w>
QU ʼN</w>
5 8</w>
s pit
prof e
ha cia</w>
h emías</w>
envi ó</w>
cul pa</w>
cab eza</w>
b e
Ne hemías</w>
A teʼ</w>
tzaqpi ʼn</w>
mu lti
jun to</w>
inf lu
encontr ar</w>
dis tin
cor rec
com uni
cheʼ x</w>
ttz aqˈwin</w>
ti cas</w>
situ aciones</w>
re vista</w>
re ac
n úm
misericor dia</w>
kami k</w>
d ores</w>
Re yes</w>
Is a</w>
v amos</w>
ro pa</w>
o q
kye tz</w>
i dos</w>
escuch ar</w>
cui dado</w>
ch ikʼ</w>
V er
R e</w>
KYI ʼJ</w>
H o
Í AS</w>
tuˈn tzin</w>
testimon io</w>
senti mientos</w>
p al
nja ye</w>
maravi ll
en ten</w>
bʼ e
bíbli cas</w>
G ali
tzaqʼ w
si k
s inti
nin guna</w>
mayo ría</w>
m á
len gu
ky kʼwal</w>
idio ma</w>
cu al</w>
constr u
ci to</w>
alegr ía</w>
ad orar</w>
Tbʼan el</w>
T e</w>
C on</w>
tzin tla</w>
ti pin</w>
t aqʼun</w>
rela ción</w>
qi t</w>
prom esas</w>
per man
p ac
oca sión</w>
nue vas</w>
kyi bˈ</w>
ku j
chʼi x</w>
bˈ e</w>
bautis arin</w>
S im
M Á
L u</w>
Con mem
tze ˈn</w>
prome te</w>
pi dió</w>
n y
n ajbʼil</w>
kʼul bʼil</w>
kyqˈ oˈn</w>
2 6
sufr imiento</w>
r e</w>
man s</w>
gus taría</w>
gra fía</w>
f o
ed uc
cul tades</w>
congreg aciones</w>
bon dad</w>
Conmem oración</w>
y aj</w>
wan qʼibʼile</w>
se t</w>
qʼ u
pul s
naʼm x</w>
fri ca</w>
f arise
eli o</w>
dec ía</w>
c ant
an zas</w>
Her o
Cu ál</w>
A s
7 2</w>
tr o</w>
ti embre</w>
sep tiembre</w>
qʼ aqʼ</w>
pro duc
lf f</w>
le al</w>
ky aqʼun</w>
jui cio</w>
ja pun
gran des</w>
difí ciles</w>
contr ol
T QAN
TQAN IL</w>
ẍ neʼl</w>
yo ˈn</w>
tzˈ aq
ti bˈ</w>
t í
t man</w>
l jo</w>
ky bʼet</w>
ju z
felici dad</w>
do min
dese o</w>
da ño</w>
a segur
a fir
wu q</w>
tbˈ inch
tan im</w>
qʼ a</w>
profec ías</w>
l ab
ch winqlal</w>
al la</w>
acer c
xnaqʼtz ane</w>
vi ó</w>
v emos</w>
uc ciones</w>
tzˈ el</w>
rela cion
q nimen</w>
mal os</w>
in ar</w>
ha m</w>
ej iˈy</w>
circu ito</w>
Es píritu</w>
xi x
xi m</w>
ve a</w>
t yajil</w>
propi a</w>
p en</w>
ni kyˈ</w>
naj chaq</w>
ky kʼwaʼl</w>
kaˈy in</w>
esper a</w>
conoci miento</w>
RESP ON
PA RA</w>
én es</w>
un d
twi ʼya</w>
tna ʼl</w>
te q</w>
t emos</w>
qu kʼil</w>
poder oso</w>
hab it
demostr ó</w>
de tal
cre ación</w>
Q O</w>
Pe gr</w>
Mas ke</w>
y abʼ</w>
x bʼalun</w>
ej ér
d ón</w>
ci ent
ab ˈj</w>
Lu ego</w>
tr adu
ten ido</w>
pró xima</w>
mi embr
m eses</w>
lle va</w>
kˈu ˈj
in os</w>
f ono</w>
con duc
con ciencia</w>
Tr aducción</w>
ís es</w>
vi era</w>
tzaj ni</w>
s enci
qu it
qan qʼin</w>
pi ense</w>
necesit an</w>
l ene</w>
err ores</w>
dis curso</w>
L EN</w>
tz jo</w>
sacerdo tes</w>
pres ente</w>
ojtzqi ʼntoq</w>
kyi ʼje</w>
kyi bˈa</w>
dr o
demuestr a</w>
chi ˈ</w>
car ne</w>
Yaj xitl</w>
I EN
visitar il</w>
prov ech
nim o</w>
kyi ˈja</w>
kyan mi
ky bʼant</w>
cas ti
aj tz</w>
1 3
quier en</w>
q in</w>
m entos</w>
kyqʼ on
cre en</w>
chʼix mi</w>
angu sti
T K
A N</w>
ti cos</w>
regr es
jam ás</w>
i d
ar te</w>
u r
si tio</w>
r emos</w>
qxo l</w>
ky tz
gi ó</w>
d ando</w>
co pi
cam bios</w>
agu antar</w>
T bˈan
Sa m</w>
A xpe</w>
tuˈn tzintla</w>
tu vieron</w>
tr is
on ina</w>
núm ero</w>
nin ja</w>
kyi kʼ
in mor
famili ares</w>
dem asi
b a
anim ales</w>
acti vi
NUEST RA</w>
ʼn xix</w>
t maʼn</w>
s ta</w>
pakbʼan e</w>
nya toq</w>
ma ˈn
d entro</w>
cas i</w>
bʼinch an</w>
a sig
T ambién</w>
Jon atán</w>
wi x</w>
verdad era</w>
as es</w>
S ans
tzma toq</w>
tku x</w>
qʼi ʼntoq</w>
conse gui
aʼ y
ab lo</w>
Sans ón</w>
1 19</w>
ten gamos</w>
t moj
ok len
oklen j</w>
noq wit</w>
ky kʼ
im perfec
i x</w>
cre encias</w>
bu r
A unque</w>
ta te</w>
s aj</w>
qʼon k</w>
po ca</w>
ojtzqi bʼil</w>
ky kʼuʼje</w>
ky keʼyin</w>
ju lio</w>
h as</w>
fu ego</w>
em ente</w>
ec a</w>
cre ó</w>
bʼ yoʼn</w>
ar la</w>
a án</w>
Tbˈan il</w>
Can aán</w>
t yolina</w>
sacri ficio</w>
necesi dades</w>
in kuya</w>
en tu
ej er
ch mil
bˈ i
T AS</w>
Jos ías</w>
E ʼ
5 ,
tzʼaq lxix</w>
trab aj
s am
kyqˈ maˈn</w>
er ras</w>
comi da</w>
chʼex pu
ch a</w>
Abra ham</w>
prim eros</w>
oca siones</w>
ni ño</w>
com ún</w>
an qˈ
S ab
Le an</w>
Jon ás</w>
1 Co</w>
traba jar</w>
t kabʼin</w>
conoc e</w>
R o</w>
R a
C om
6 1</w>
uʼjink tze</w>
tzal ajel</w>
q tzaj</w>
q oʼ
o vej
ma yo</w>
l il</w>
ky tzaj</w>
cin co</w>
chʼix toq</w>
T ex
T A</w>
Ky uʼjinktze</w>
é monos</w>
ácu lo</w>
ya ẍ
w amiw
un stan
ti bˈaj</w>
tam poco</w>
t kʼiwlaʼn</w>
t ando</w>
qok len</w>
pendi ente</w>
laj aj</w>
in jiˈy</w>
hebre o</w>
gran de</w>
evi tar</w>
en ero</w>
circ unstan
cient ífi
y ó</w>
w p
txu ʼye</w>
t é</w>
qe tziˈn</w>
gi dos</w>
aq ˈ</w>
ajbʼ e
S in</w>
ʼ xix</w>
tqˈ ma</w>
sier vo</w>
re gu
herman as</w>
gri ego</w>
fav or</w>
eng añ
cum p
arrep enti
anti gu
Qʼ on
P a
ten cia</w>
t tena</w>
ri dad</w>
q nabʼil</w>
ky pakbʼan</w>
busc ar</w>
ay iˈy</w>
aqu ellos</w>
N A
8 6</w>
ti po</w>
terri torio</w>
q ajbʼil</w>
i dea</w>
enseñ ó</w>
enseñ ar</w>
doc tor</w>
difi cultades</w>
de f
d aba</w>
ant os</w>
H ay</w>
C a
6 2</w>
qan ine</w>
pregun tó</w>
posi ción</w>
n xiʼye</w>
mostr ar</w>
mas tl</w>
i w
for me</w>
f le
er nos</w>
conse cu
com pr
c ar</w>
bendi ciones</w>
a tziˈn</w>
8 0</w>
19 9
wi ʼye</w>
v oc
t jyoʼn</w>
senti mos</w>
s te
par a
l la</w>
ky ajbʼil</w>
k am
gus ta</w>
alim ento</w>
Hero des</w>
tzʼi bʼ
ta ta</w>
t kʼamoʼn</w>
qqʼ on</w>
p en
or gu
m aq</w>
kyi pumal</w>
dr as</w>
comp le
X im
í n
w aje</w>
tri b
taq ˈnil</w>
presi on
kyw a</w>
gob er
gi do</w>
fici os</w>
aqu ella</w>
XI M
S O
pa ña</w>
ok il</w>
necesit a</w>
mayor es</w>
efec to</w>
eci ó</w>
di v
Xnaqʼtz bʼil</w>
W at
W I
Ti ʼ
T tanim</w>
O ʼN</w>
N i
H ab
En tonces</w>
ér amos</w>
y endo</w>
w er</w>
tel é
se o</w>
pu mal
pre g
person alidad</w>
per se
ej a</w>
b an
ayud an</w>
ar ón</w>
apo yo</w>
TZʼ OK</w>
IN A</w>
ándo se</w>
y in</w>
ví tico</w>
recuer da</w>
nbʼinch aʼne</w>
j tz</w>
en o</w>
ed ón</w>
P OR
Ar mag
úni co</w>
z ado</w>
tu bre</w>
ts amaʼn</w>
sacerdo te</w>
r en
n txuʼye</w>
n qo</w>
imit ar</w>
ho spit
c at
TN M</w>
ON ES</w>
Le vítico</w>
F I
A na</w>
su fici
q amiwbʼil</w>
pas a</w>
oc tubre</w>
mi go</w>
l lo</w>
ja x</w>
circunstan cias</w>
ce p
aˈ l</w>
M i</w>
Escu ela</w>
Armag edón</w>
A R
z an</w>
ximbʼe tze</w>
to xin</w>
s bʼil</w>
qʼanch aʼl</w>
le yes</w>
in ka</w>
enseñ ado</w>
consu elo</w>
chmil bʼaj</w>
adel anto</w>
T ito</w>
P ila
Es ter</w>
C hi
8 9</w>
tien es</w>
t kʼw
o ʼne</w>
no mbr
la bʼin</w>
hubi era</w>
estudi ante</w>
cl ases</w>
ayu de</w>
al kye
ab an
a tzaj</w>
a provech
Re b
P u
CH E</w>
B el
5 9</w>
ˈ l</w>
tr aducción</w>
preg ún
estudi antes</w>
cre e</w>
bˈaj jo</w>
BʼAN T</w>
tzma xi</w>
t pakbʼan</w>
t pa
t kˈuˈj</w>
rela to</w>
qˈ aqˈ</w>
pa íses</w>
novi embre</w>
lar go</w>
ky xqʼuqin</w>
ky kʼujlabʼil</w>
ho ras</w>
gi r</w>
a ún</w>
XJ EL</w>
M as</w>
Eze quías</w>
v arias</w>
ti r
pro pio</w>
para íso</w>
l á
ky qʼi
j bʼal</w>
debi do</w>
Fili p</w>
7 3</w>
x bʼil</w>
un as</w>
tamiw a</w>
san jel</w>
q ojtzqiʼn</w>
n maq</w>
ma ñ
fuer za</w>
con centr
aban don
a to</w>
TZ EʼN</w>
Qʼ ij</w>
O M
pi es</w>
p ale</w>
o q</w>
nikʼ bʼaj</w>
kywu tz</w>
ky nimen</w>
e o</w>
d ados</w>
con o
T kˈwal</w>
O J
M undo</w>
L E</w>
tok s
tkʼw ala</w>
telé fono</w>
sufri r</w>
su r
pod ían</w>
g ü
er lo</w>
cru z</w>
compa sión</w>
bʼ el</w>
BI L
B o
á zar
tyekʼ ina</w>
tqʼ abʼ</w>
tendr á</w>
much ísimo</w>
ky nabʼil</w>
keʼy ine</w>
i glesia</w>
añ a
aw al</w>
ar ina</w>
T i</w>
SI GU
L ázar
wi bʼe</w>
op ini
lem ente</w>
le ales</w>
a parec
Reb eca</w>
EM OS</w>
6 6</w>
1 00</w>
x ma
w a
q naʼj</w>
pens amientos</w>
liber tad</w>
ky tzalaj</w>
habl ó</w>
h am
col ab
Q KYAQIL</w>
P U
NI M</w>
MÁ S</w>
Lázar o</w>
Aʼ yeju</w>
4 9
tar se</w>
t l
qʼan bʼil</w>
q jyoʼn</w>
kyqʼi qʼ</w>
ex qetziˈn</w>
10 3</w>
w0 6</w>
vide os</w>
n tene</w>
mé dic
mej ores</w>
inter és</w>
fru to</w>
f ebr
febr ero</w>
escrit o</w>
dici embre</w>
demon ios</w>
con migo</w>
an teri
am an</w>
adel ante</w>
To dos</w>
TO K</w>
Mu ch
A m
3 9
w ajbʼene</w>
t ará</w>
sex o</w>
pi e</w>
naˈ m
n tqˈmaˈn</w>
mel tzˈ
man da
ju diy</w>
gober na
for m
entu si
ent an</w>
ayu dado</w>
ar ías</w>
ar ían</w>
ang el</w>
I l
At pe</w>
vol ver
qonikʼ en</w>
preocu p
naj sa
mi les</w>
ma teri
kyaj toq</w>
g er</w>
demasi ado</w>
d encia</w>
cu ál</w>
conduc ta</w>
cheʼ w</w>
cam po</w>
ab ri
Di os
Al gun
we ʼye</w>
vi aje</w>
tzeˈnku xjo</w>
tzaqʼw et</w>
tx k
tr e
tr ad
sigui ó</w>
s é</w>
q yol</w>
mo mentos</w>
mañ ana</w>
man dó</w>
ky kyaqil
jyon kuxa</w>
ex pres
ejér cito</w>
disfru tar</w>
des as
al ma</w>
ac ciones</w>
a fec
SIGU IEN
Pue de</w>
PO R</w>
C ol</w>
A ca
z c
re fer
qʼaqʼ in</w>
prome tido</w>
ovej as</w>
fí si
fic ar</w>
enseñ anzas</w>
comi en
an cia</w>
aj kawil</w>
T kyimlen</w>
RI BIL
RIBIL LO</w>
EST RIBILLO</w>
u do</w>
t toq</w>
re yes</w>
public adores</w>
pa p
human o</w>
fi esta</w>
d or
bˈaj lin
ay iˈn</w>
ab ˈ</w>
X i
Tex to</w>
TZAQʼW EN
D is
BʼA ʼN</w>
vers ículos</w>
ten gan</w>
superinten dente</w>
segui da</w>
qˈ an
m adu
ky yajil</w>
ky el</w>
empez ar</w>
deber ía</w>
con sol
br es</w>
aye tziˈn</w>
No em
Di ablo</w>
vi ve</w>
ve an</w>
v aya</w>
us ando</w>
tr an
pue da</w>
n chin</w>
lec ciones</w>
kʼuj lalil</w>
kʼu xbʼil</w>
kyxol x</w>
ku kx
il u
hi ja</w>
famili as</w>
Noem í</w>
L ea</w>
F ran
és te</w>
sa tis
pan dem
kʼ un
japun el</w>
i or</w>
her mo
eʼ x</w>
er á</w>
b or
au to
Sal ón</w>
6 8</w>
y en</w>
tzqi j</w>
tra ta</w>
res ca
pedi r</w>
ky kanoʼn</w>
importan cia</w>
escla vo</w>
dr á</w>
con f
a to
T kʼwaʼl</w>
S AL
PREGUN TAS</w>
KU Bʼ</w>
ES I
w aʼn</w>
vol u
tja pin</w>
t tzi
t j
si enten</w>
sali r</w>
s bˈil</w>
raz on
qo p
qch winqlal</w>
pec to</w>
obe de
o la</w>
nti ˈ
n mane</w>
ku j</w>
i q
gu erras</w>
gi o</w>
g enes</w>
esper ar</w>
enferme dades</w>
desc en
des anim
T bˈajlin
G O</w>
E d
4 0
tz oq
so lu
mo tiv
mal v
le g
kyi bʼe</w>
ky kʼamoʼn</w>
f araón</w>
est én</w>
ci miento</w>
activi dades</w>
Tz al
Pregun tas</w>
J LU</w>
6 3</w>
tech il</w>
t kawbˈil</w>
satis f
mil il</w>
me tas</w>
iky tziˈn</w>
f ra
ar ca</w>
Eli seo</w>
8 8</w>
w0 7</w>
v imos</w>
q keʼyin</w>
nikyˈ a</w>
llam ó</w>
instr ucciones</w>
iky x</w>
hon or</w>
fr on
entusi as
ent as</w>
consecu encias</w>
ar ro
xim o</w>
tz an</w>
t jyo
sis tema</w>
precurs ores</w>
p aj
ob ˈ</w>
imag in
im a</w>
hab ría</w>
go zo</w>
an si
ad ora</w>
a yon</w>
Y o</w>
E no
2 Cr</w>
uʼjink tza</w>
re almente</w>
pu do</w>
kʼw ale</w>
il jo</w>
gra cia</w>
e ño</w>
bʼaj sbʼil</w>
ateʼ toq</w>
Por que</w>
O ʼ
D E
á les</w>
t tat</w>
t ese</w>
sor pren
si guen</w>
re fle
m et</w>
ky n
i teˈ
habl ando</w>
contr ario</w>
con ver
compañ eros</w>
cier ta</w>
bʼ i</w>
bautiz arse</w>
S u</w>
Eʼ Y
A arón</w>
á nimo</w>
v arios</w>
tzma x</w>
tzi kʼ
reac cion
prob able</w>
ok a</w>
mej orar</w>
ky qʼoʼne</w>
ktzaj il</w>
ier to</w>
don aciones</w>
asisti r</w>
a go
Y a</w>
Ta jaw</w>
M r</w>
we ʼ
verdad eros</w>
t kʼwal</w>
segu ridad</w>
resca te</w>
obe deci
noq x</w>
necesi dad</w>
le jos</w>
g as
comen zó</w>
bʼi bʼaj</w>
Qʼ am
B ro
AM OS</w>
6 ,
0 5</w>
terr emo
por no
mal dad</w>
kyu ʼjin</w>
emo cion
e cu
dese os</w>
am amos</w>
Y or
PR O
N abu
Li br
tziy en</w>
ttzaqpi ʼn</w>
párraf os</w>
os to</w>
o sor</w>
naˈ bˈl</w>
ky witze</w>
enferme dad</w>
cristi ana</w>
capaci dad</w>
an t</w>
ac arías</w>
Z acarías</w>
Tu ˈjil</w>
T witz</w>
Ja tumel</w>
J U
BLI C
7 6</w>
ʼj x</w>
u l
ta ña</w>
so la</w>
resul tado</w>
pi de</w>
kyxo la</w>
ky ex</w>
kabˈ e</w>
humil dad</w>
don osor</w>
co donosor</w>
au lo</w>
ar y</w>
aq ine</w>
ali a</w>
ag osto</w>
adu l
Yor k</w>
P ar
Nabu codonosor</w>
B ern
wan mi
vol vió</w>
tna bʼl</w>
ten imiento</w>
t ada</w>
sufici ente</w>
sti tu
s áb
r an</w>
pens emos</w>
na s
n etz</w>
kyoj ele</w>
ky xnaqʼtzaʼn</w>
ky klet</w>
in s
in dic
fr ente</w>
cu esti
constr ucción</w>
b ol</w>
T es</w>
Eno c</w>
9 0</w>
é poca</w>
ximbʼe tza</w>
q ja
plan eta</w>
n wiʼye</w>
miembr os</w>
kʼu ʼn</w>
ky kyim</w>
iky ˈ
idio mas</w>
ha gamos</w>
dis puesto</w>
demuestr an</w>
conti nu
acep tar</w>
N os</w>
xit en</w>
x u
x milal</w>
r ío</w>
r os</w>
q yekʼun</w>
puer ta</w>
porno grafía</w>
ob ern
kubʼ pe</w>
in vesti
il x</w>
explic ó</w>
er g
enseñ anza</w>
de ón</w>
d ud
asun tos</w>
NI Kʼ</w>
N OS</w>
G obern
Ez e</w>
ó gi
tran qui
respu estas</w>
responsabili dad</w>
q xiʼ</w>
predic ando</w>
mi tiʼ
j oy
ex puls
d est
cla ve</w>
M ás</w>
Ge deón</w>
Chʼ ix
0 2</w>
xi ʼya</w>
re fu
q kʼujlaʼn</w>
pu si
of reci
ham bre</w>
famili ar</w>
er te</w>
cuán do</w>
bʼinch al</w>
ab é</w>
Tz e
Gobern ante</w>
D t</w>
BʼA BʼIL</w>
7 1</w>
ʼn tl</w>
ʼj ine</w>
ó mi
tz aq
ti ˈj
si quiera</w>
segun do</w>
rá pi
rech a
per mit
per dido</w>
kyu w</w>
kyqʼ ama</w>
kych mon</w>
ju l</w>
j as</w>
exi sti
bʼinch ante</w>
ax ju</w>
SIGUIEN TES</w>
C ar
9 7</w>
yekˈ in</w>
xi tzin</w>
waj toqe</w>
tom ó</w>
ti vas</w>
sbʼ u
s antos</w>
po li
person al</w>
pandem ia</w>
or amos</w>
nim x</w>
nas yon</w>
man te</w>
ky bʼaj</w>
imag en</w>
i rá</w>
i bu
ha gan</w>
ec en</w>
ci ud
ci dos</w>
c l</w>
apren dido</w>
TQʼ AMAʼN</w>
O n
Mar ta</w>
Bern abé</w>
txi ʼya</w>
trat ar</w>
religi osos</w>
qnim saʼn</w>
pas os</w>
of re
obli g
ky kyaqilx</w>
in fier
escuch a</w>
decidi r</w>
cre er</w>
aplic ación</w>
ad á</w>
SE Ñ
DA D</w>
8 7</w>
tqan ina</w>
sacri ficios</w>
pág s</w>
j weʼ</w>
is mo</w>
in medi
iky tzin</w>
dis ci
demostr amos</w>
cul tiv
che wix</w>
ateʼ kux</w>
aq ikʼ</w>
VI D</w>
T aqikʼ</w>
H a
8 4</w>
tex tos</w>
salv ación</w>
ri ca</w>
re present
re de
q bʼis</w>
oj in</w>
lleg aron</w>
ky yekʼun</w>
im á
h ay
bˈinch in</w>
ansi edad</w>
a tzunju</w>
V ER</w>
Q a
Cu er
xim in</w>
ton ina</w>
signi ficado</w>
q bʼi
pumal e</w>
precurs ora</w>
milagr o</w>
jaʼ tzun</w>
infier no</w>
gobier nos</w>
est ás</w>
encu entr
e con
disci pl
des cri
cul p
chʼixpu ʼn</w>
al rede
Ojtzqi ʼn</w>
Cuer po</w>
8 ,
7 9</w>
ʼ J
tjyo ʼna</w>
ti ʼna</w>
r nos</w>
p acto</w>
humil de</w>
consegui r</w>
M e
M ar</w>
M A</w>
K A</w>
Bʼ alo</w>
A qʼun
20 22</w>
19 14</w>
í do</w>
responsabili dades</w>
permi te</w>
of en
kyanmi ˈn</w>
k japunel</w>
j iy</w>
il bʼaj</w>
cuán to</w>
control ar</w>
contr ibu
cas os</w>
bˈ in
b h</w>
actu ar</w>
a v
T est
S aulo</w>
J os</w>
xuʼj ilbʼaj</w>
univer so</w>
sali ó</w>
pág inas</w>
ch aq
Q A</w>
KʼU ʼJ</w>
Es te</w>
E x
D eb
CI ONES</w>
me tros</w>
m pi
li at</w>
kyim nin</w>
ky xnaqʼtzan</w>
kol bˈil</w>
gra ve</w>
ex la</w>
di os
cu ar
at lo</w>
ajbʼe bʼil</w>
ac ción</w>
ab el</w>
No q</w>
Go liat</w>
G ala
C Ó
ˈ xsin</w>
ʼn x</w>
ñ as</w>
xnaqˈtz il</w>
tz q
tab ern
tabern áculo</w>
sinti ó</w>
religi ones</w>
que dó</w>
kych winqlal</w>
dis puestos</w>
ar ás</w>
am ent
al te</w>
al in</w>
X jal</w>
Libr ary</w>
De ut</w>
B R
A hora</w>
6 7</w>
w w
tzu lo</w>
taq jo</w>
t lo</w>
r as
q kubʼ</w>
preocu pa</w>
pre dijo</w>
n yekʼ
n qanine</w>
mo da</w>
lo l</w>
i ban</w>
dar les</w>
cont est
OJ TZ
N ab
J or
Gali lea</w>
Es to</w>
Des pués</w>
CÓ MO</w>
A p</w>
ʼN A</w>
Á frica</w>
wamiw e</w>
ton bʼil</w>
recor dar</w>
q pasens</w>
prof es
p el
libr os</w>
jun io</w>
detal les</w>
dec ían</w>
d arnos</w>
car a</w>
a h
TI L
T al</w>
Q qʼonk</w>
MA S</w>
Ch e</w>
u m
traba ja
sol dados</w>
sexu ales</w>
princip ales</w>
podr ían</w>
pe le
ky bʼi
gener al</w>
exi ste</w>
entusias mo</w>
di vi
d i</w>
cui dar</w>
art ículos</w>
aqʼun al</w>
T e
N ú</w>
M ari
Jo h
C A</w>
6 9</w>
1 Sa</w>
un gidos</w>
segu ra</w>
recu per
pedi rle</w>
ocur ri
men udo</w>
jus tos</w>
ju ʼ
g ane</w>
cor ri
am in
a ver
TK EʼY
I ky
Aca b</w>
7 8</w>
vo y</w>
vi ven</w>
tu ʼjin</w>
sirvi endo</w>
r in
qe ˈy</w>
n ximbʼetze</w>
men ti
li pe</w>
kynim bˈila</w>
kyi ˈjjo</w>
id enti
fuer tes</w>
farise os</w>
de ja</w>
cum pl
confi r
a prob
U Q
TKEʼY INA</w>
T nej
Qu e</w>
M O
Aqʼun tl</w>
us ó</w>
tendr emos</w>
su c
quer ido</w>
q kʼamoʼn</w>
profe tas</w>
perse cu
n yoline</w>
it as</w>
il ó
ga se</w>
don os</w>
com pens
al co
Qa jaw</w>
E T</w>
tx qan</w>
pu di
oˈ kx</w>
ofre zca</w>
mu ri
mostr ó</w>
li xix</w>
in te
im presion
humil des</w>
g ol
er ía</w>
di rec
chʼexpu ʼn</w>
c ó
at ac
an te
9 8</w>
vang elio</w>
spi r
re al</w>
q kʼuʼje</w>
or den
ol esc
o dio</w>
nbʼi ʼne</w>
la bʼ
kyok lin</w>
kyan min</w>
ec emos</w>
e d</w>
cont acto</w>
bendi ción</w>
b at
asun to</w>
al tar</w>
a fron
Xim ana</w>
TO K
T at</w>
Qʼ il</w>
HA C
EN SEÑ
Cr ón</w>
CO VID</w>
A R</w>
y jil</w>
xuʼj ile</w>
w tlo</w>
w 11</w>
qʼam ante</w>
qui ero</w>
perdon ar</w>
pas ando</w>
n xuʼjile</w>
llev ó</w>
keʼy ina</w>
hab éis</w>
eʼ ye</w>
emp le
di bu
der es</w>
der echo</w>
at x</w>
alrede dor</w>
T he</w>
B Í
B ar
7 4</w>
últi mo</w>
taj bˈin</w>
t pasens</w>
su ger
so por
sir ven</w>
segun da</w>
qi ˈy</w>
per dón</w>
p ena</w>
lí deres</w>
luch ar</w>
lleg ado</w>
le al
leal tad</w>
laj oʼn</w>
ky gan</w>
invi tación</w>
i bʼ
gr ab
gl ori
econ ómi
d ín</w>
anali ce</w>
acu s
ab lemente</w>
X A</w>
Na zar
F eli
El la</w>
BÍ BLIC
0 7</w>
w ejiˈy</w>
vi aj
tzʼ onina</w>
tzʼ ela</w>
si ento</w>
opini ón</w>
no j
l te</w>
jar dín</w>
j an
in el</w>
ha b</w>
em pi
ejer ci
costum bre</w>
Ten x</w>
Ra hab</w>
Qʼ UQ
B RA</w>
7 5</w>
xo bʼe</w>
tzikʼ x</w>
tum b
sáb ado</w>
stan te</w>
respon de</w>
recibi ó</w>
qui so</w>
per der</w>
peque ño</w>
paci ente</w>
oj txi</w>
lim it
kˈw al
kʼwaʼ le</w>
f recu
empez aron</w>
el im
des ti
des a
d ó
d arse</w>
cambi ó</w>
aʼ ye</w>
all á</w>
abʼ en</w>
Test amento</w>
TE YA</w>
P as
ú sica</w>
xqʼuq il</w>
w aqʼun
tra i
tar je
t kˈwal</w>
saqch bʼil</w>
po s
piens an</w>
persecu ción</w>
no qit</w>
manda to</w>
ij il</w>
h áb
agradeci dos</w>
a ch
Tnej el</w>
Testi go</w>
Ju eces</w>
6 4</w>
0 1</w>
ándo le</w>
ven cer</w>
tqʼama tl</w>
tnim san</w>
tkˈ atz</w>
tendr án</w>
tch winqlal</w>
t paʼn</w>
si ˈn</w>
qˈ oˈn
qui s
per i
obje tivos</w>
la y
jaw ni</w>
il taq</w>
conoci do</w>
ci r</w>
cas as</w>
car r
anqˈ in</w>
Ju dea</w>
Jesú s
IN KA</w>
I M
Bʼ IN
7 ,
ú m</w>
xnaqˈtz bˈil</w>
tem or</w>
te le
su bi
segui dores</w>
que as</w>
man a</w>
in gl
i ro</w>
e as</w>
c amente</w>
aqˈ bˈil</w>
a conse
a con
Y ol</w>
X I</w>
TOK LEN</w>
S U
ON IN</w>
N uestr
Mi queas</w>
Lo t</w>
D EL</w>
9 4</w>
9 1</w>
z ona</w>
w 13</w>
tr am
t tata</w>
su mo</w>
ri que
re vel
re compens
que da</w>
l ares</w>
kyw i</w>
def en
c ación</w>
anqʼ ine</w>
ajbʼen toq</w>
IN TL</w>
I glesia</w>
D esper
B ˈ
sab en</w>
q xiʼye</w>
q nikʼe</w>
pu ro</w>
man i
m oʼn</w>
lis ta</w>
gr ado</w>
contr ol</w>
Tbˈajlin xiˈ</w>
TI QUʼN</w>
O pe</w>
F araón</w>
Est á</w>
E cl</w>
DI C
CHʼ INTL</w>
9 5</w>
7 7</w>
xi toq</w>
vi eran</w>
tu los</w>
t aban</w>
qe ʼk</w>
pas tor</w>
najsa m</w>
n anqʼin</w>
min abʼen</w>
kʼwaʼ la</w>
ky kˈuˈja</w>
kol bʼil</w>
in an</w>
hu bo</w>
hacer se</w>
fi j
esfuer zo</w>
ent er
en en</w>
en as</w>
der á</w>
c ón
anim a</w>
Pre par
O k
Es dras</w>
ES TU
vali ente</w>
ti dad</w>
pu esta</w>
pres enta</w>
par tes</w>
multi tud</w>
me bʼa</w>
ky pa
hon ra</w>
hi er
b lan
ato ʼ</w>
alim entos</w>
ad olesc
N YA</w>
I k
Desper tad</w>
As á</w>
A ustr
- 1</w>
x e
wi tzikʼ</w>
v ent
tzaj el</w>
tqʼ on</w>
resul tados</w>
qui énes</w>
q okslabʼil</w>
prof un
pro du
pregún tese</w>
pi er
o per
ne ʼ</w>
má ximo</w>
ma ʼ</w>
joy bʼil</w>
inter net</w>
in spir
i tzˈ
fortal ecer</w>
for mas</w>
e lec
c ó</w>
S ud
P e</w>
O r
Kaw bʼil</w>
Ed én</w>
Bel én</w>
Al em
A bi
1 39</w>
trad uc
tar lo</w>
señ al</w>
se is</w>
prote ger
pon i
nej inel</w>
mi r</w>
m j</w>
l aqˈ
habl an</w>
g in
fo to</w>
ens a</w>
dios es</w>
c é
ad em
acon te
T TZAQʼW
Le v
J ES
ESTU DI
. .</w>
. ..</w>
ttxu ʼ</w>
toj x</w>
t keʼyina</w>
t es
sab ios</w>
qe taq</w>
q w
q kʼulin</w>
prác ticas</w>
princip al</w>
po l</w>
ojtzqi ʼne</w>
o g
o f</w>
nya kuj</w>
no kx</w>
n bˈ
ky aq</w>
jni ʼ</w>
ir se</w>
ingl és</w>
gus to</w>
est ará</w>
en seguida</w>
di da</w>
deber íamos</w>
Dis fru
Bʼ AJ</w>
9 9</w>
ven ir</w>
te y
tbˈinch in</w>
t Ajaw</w>
qʼ an</w>
pu diera</w>
oí r</w>
na q</w>
meltzʼ aje</w>
ky ojtzqibʼil</w>
ju r
jel in</w>
impor tar</w>
i teˈ</w>
XI X</w>
A le
14 5</w>
tzaqpi ʼne</w>
tribu lación</w>
tna ʼj</w>
pon en</w>
obje tivo</w>
na qʼun
mo s
maestr o</w>
ky okx</w>
kubʼ toq</w>
k iló
itzʼ j
ili dad</w>
i g
g ana</w>
esp ada</w>
entr ar</w>
encontr amos</w>
difer ente</w>
des ierto</w>
al to</w>
X O
R aquel</w>
H E
Bʼinch al</w>
9 ,
tin e</w>
tar án</w>
tan min</w>
qʼoj in</w>
pr es</w>
podr á</w>
per ten
ob serv
o di
kyqʼ on</w>
kuj xix</w>
deci dió</w>
cón yu
correc to</w>
car se</w>
b esti
am aba</w>
Nazar et</w>
Es ta</w>
9 6</w>
0 9</w>
uʼj in</w>
tzaqʼ weʼn</w>
tz yu
toks labʼil</w>
tikʼ un</w>
ter man</w>
ten iendo</w>
t gan</w>
sig an</w>
pr ud
oí do</w>
ok toq</w>
ocu p
nqˈ oˈn</w>
n keʼyine</w>
medi da</w>
m onte</w>
kʼ ajbʼel</w>
ky ʼ
j yol</w>
es pec
du ro</w>
cr ania</w>
ar ine</w>
anali zar</w>
ac e</w>
Xi tzun</w>
U crania</w>
Tzal aja</w>
TTZAQʼW EʼN</w>
K jawil</w>
E u
C am
Alem ania</w>
x bˈ
wu ʼjine</w>
wanmi ye</w>
vir tió</w>
t kʼujlalil</w>
sab io</w>
rech az
qʼon xa</w>
q paʼn</w>
q moj
po l
perfec to</w>
ok e</w>
nim toq</w>
mi la</w>
l oc
ky paʼn</w>
ku ʼx</w>
jw es</w>
gra ti
err or</w>
el ex</w>
ejerci cio</w>
educ ación</w>
con den
ayud arlo</w>
actu alidad</w>
T AN
Q INKA</w>
OJTZ QINKA</w>
I r
Gala ad</w>
ven ga</w>
tzaj toq</w>
tr ono</w>
tiʼ toq</w>
termin ar</w>
tendr ía</w>
t meltzʼaj</w>
prov oc
parti r</w>
par tam
or ando</w>
no mbres</w>
ne ga
milagr os</w>
kyu kˈiy</w>
ky pan</w>
ky kyaj</w>
ku bˈ
k ja</w>
imá genes</w>
f at</w>
emp ec
empec é</w>
beb er</w>
ab und
Pila to</w>
20 20</w>
w en
u da</w>
tu des</w>
ttzaqʼ webʼil</w>
tn aj</w>
tar eas</w>
super ar</w>
sig amos</w>
ri co</w>
res ol
res is
r me</w>
qʼam et</w>
prop ios</w>
or den</w>
o sidad</w>
na qʼ
kw enti
ho gar</w>
di ez
dest ac
d entes</w>
com por
atr ás</w>
am ado</w>
a ti
TE O</w>
N úm
N in
2 Re</w>
0 3</w>
Ú S</w>
win qi
vuestr o</w>
tzʼ etz</w>
ttziy bʼil</w>
tarje ta</w>
propi as</w>
orgu ll
na cional</w>
mo ˈn</w>
ll ena</w>
li ci
kyqʼon ke</w>
ky pwaq</w>
ky nikyˈ</w>
ili dades</w>
hac ían</w>
gun o</w>
gr it
fun cion
fi cia</w>
f on
dibu jo</w>
deb ía</w>
carr era</w>
bene ficia</w>
aq ˈnil</w>
RESPON DA</w>
L O
2 5
w0 5</w>
tzʼi bʼen</w>
tzoq paj</w>
tz bʼil</w>
te ju</w>
t me
sexu al</w>
qx ol
podr íamos</w>
mencion a</w>
imperfec tos</w>
i ra</w>
enfer mos</w>
el pe</w>
cé lu
bʼis un</w>
San to</w>
Jor d
JES ÚS</w>
Al kye
1 10</w>
zar emos</w>
xo bʼa</w>
xjel inkuya</w>
wok lene</w>
ven ido</w>
tojtzqi ʼna</w>
t kyimlen</w>
t bˈaj</w>
se cre
qˈ oj
o h</w>
nti ˈx</w>
mila gr</w>
mi le</w>
meltzʼ aja</w>
me ta</w>
le emos</w>
is las</w>
im pli
entr ó</w>
e go
Sam aria</w>
S í</w>
P I
N ec
N ajbʼil</w>
Ky aj</w>
Ju di
Je z
0 8</w>
yu k
tqˈ ijil</w>
ta ˈ
t la
servi rle</w>
reg al
r ían</w>
qˈ iˈn</w>
q aq</w>
par eja</w>
no j</w>
ma do</w>
m ad
kʼw al
ky tx
kan e
k tza</w>
inmedi ato</w>
escri b
dol es</w>
cari ñ
cambi ado</w>
c en
bo ca</w>
apoy ar</w>
algun o</w>
T kawbˈil</w>
R i
R es
Jord án</w>
Jesús jo</w>
D em
D ER
20 19</w>
2 Co</w>
wu kˈiy</w>
wok e</w>
viv imos</w>
t yola</w>
suger encias</w>
so br
rela ciones</w>
public ación</w>
pr acti
partici par</w>
p ón
or din
necesit aba</w>
fuer an</w>
ez ca</w>
en da</w>
ed ra</w>
cu alidad</w>
ce lo</w>
cam paña</w>
cab o</w>
c rit
ara íso</w>
ar ri
P araíso</w>
G ran</w>
F l
Es o</w>
Disfru te</w>
AM BʼIL</w>
8 2</w>
yaẍ bʼil</w>
we ˈ
w e</w>
tqʼ o
tok a</w>
tojtzqi bʼil</w>
t kʼwaʼla</w>
qʼ on</w>
q el</w>
parec er</w>
par áb
men ta</w>
medi tar</w>
ky meltzʼaj</w>
ic ó</w>
ho l</w>
esfuer zos</w>
difer encia</w>
de clar
c ero</w>
c emos</w>
aq e</w>
MA J</w>
Jer icó</w>
Es a
14 7</w>
w 12</w>
tumb r</w>
tra v
te y</w>
t h
recibi do</w>
qʼ aj
pue dan</w>
pakbʼ et</w>
os tumbr</w>
o cul
l ol
kybʼinch bʼen</w>
itzʼj i</w>
is la</w>
en cant
elec tr
di ciones</w>
des car
al u
ad ver
T ROS</w>
T RA
M EL</w>
L U
G ran
Bʼ EN</w>
A nti
z aron</w>
ttx ˈ
tqʼ an
te c
tar nos</w>
tan qʼin</w>
tajbʼ ena</w>
t ú
qe t</w>
q ximane</w>
q najsaʼn</w>
lle gue</w>
lec tores</w>
kyaj lal</w>
ky kʼulin</w>
ky kʼujlaʼn</w>
habl aba</w>
h echos</w>
ex e</w>
di señ
desc endi
coment ario</w>
bˈe ˈxsin</w>
bi en
ajbʼ ile</w>
WI TZ</w>
TE N
Q NIKʼ</w>
M AN
JUN JUN</w>
DES CU
Cuán do</w>
9 2</w>
1 Re</w>
É N
tbʼ yoʼn</w>
sik t</w>
sal ud
s bˈ
or ó</w>
materi ales</w>
lab or</w>
l x</w>
kʼu l</w>
ky amiwbʼil</w>
histo ri
gobern ante</w>
discipl ina</w>
diez mo</w>
de jado</w>
can ciones</w>
c era</w>
beb é</w>
ad ap
acab ará</w>
P i
El í</w>
DESCU BRA</w>
Can adá</w>
BʼI TZ</w>
yekʼ inxa</w>
xja lil</w>
xi lin</w>
tien do</w>
ti pu
tipu mala</w>
ti eron</w>
t chʼexpaj</w>
sa fat</w>
respon der</w>
q ˈ</w>
pi edra</w>
pe la</w>
pa g
p in
nin tz</w>
le tra</w>
ky nikyˈa</w>
in xe</w>
g enti
debi li
de pen
chʼi y
cal ma</w>
c án
bʼi ʼx</w>
ari dad</w>
an kye</w>
U ʼj
Kaw il</w>
Jeho safat</w>
Je f
Esa ú</w>
EN ES</w>
E C
C AS</w>
BʼIN CH
BʼI LAL</w>
B en
ár bol</w>
xim el</w>
xi ˈy</w>
wu tza</w>
wi q</w>
w0 4</w>
tx aj</w>
tqˈ aqˈbˈil</w>
tele visión</w>
se l
qxol x</w>
qi ˈn</w>
ori gen</w>
nin guno</w>
n xnaqʼtzane</w>
n kubʼ</w>
kʼun te</w>
ky qʼuqbʼaʼn</w>
it é</w>
in dica</w>
ha go</w>
est emos</w>
enseñ an</w>
an j
alcan zar</w>
Y e
TIL BʼILAL</w>
P en
K yaj
AN Z
1 2
y eron</w>
vuestr a</w>
vi a</w>
val e</w>
tzˈaq le</w>
tz aʼn
ti les</w>
te le</w>
t pan</w>
t kʼujlaʼn</w>
t kan
segu imos</w>
qˈ oj</w>
qˈ maˈn</w>
qop tzˈ
pusi eron</w>
pun tos</w>
op inan</w>
o ye</w>
n tzaqpiʼne</w>
n nim
n gane</w>
mi li
meltzˈ aj</w>
lo gía</w>
llev an</w>
llen o</w>
kyna bʼl</w>
ky xilen</w>
in g</w>
estab le
er án</w>
dis poni
di ción</w>
constru ir</w>
con tiene</w>
ch ej</w>
c é</w>
bʼ txaj</w>
alco hol</w>
adem ás</w>
ac er</w>
V AN
T u</w>
Nim xix</w>
Jez abel</w>
DI CE</w>
AL GO</w>
x oʼn</w>
w0 8</w>
v ini
ti ˈn</w>
tar a</w>
t yekˈin</w>
t junalx</w>
si ga</w>
sent ado</w>
re pi
qui e
qi bʼe</w>
po cos</w>
ob st
le as</w>
kʼ ok
kynim bˈil</w>
i y
fu i</w>
ego ís
e ˈ
di ga</w>
cualqui era</w>
científi co</w>
ci entos</w>
ayud arán</w>
V ER
TU ʼNA</w>
Sal ud</w>
Núm eros</w>
LA BʼIL</w>
L es</w>
F u
D ónde</w>
C AN
8 5</w>
8 1</w>
txu bʼtxaj</w>
tuʼn jo</w>
tr e</w>
to ma</w>
sig los</w>
quer ían</w>
polí tica</w>
ori gin
obedi entes</w>
nor te</w>
li toq</w>
ky ˈx</w>
ky qʼoj</w>
ky kaˈy
equi voc
en o
dej aron</w>
deci mos</w>
bri r</w>
benefici os</w>
alim ent
TZAQʼWEN XA</w>
T ej
M aˈn</w>
Algun os</w>
A Y
óni ca</w>
án donos</w>
u ˈj</w>
terr eno</w>
ten tl</w>
tamiw bʼil</w>
t kʼujla
pens aba</w>
le ón</w>
ky jaʼtzun</w>
ex ac
cultiv ar</w>
con forme</w>
ci al</w>
a tine</w>
TZ AL
Po demos</w>
P on
P arise
J ap
I mag
D an</w>
AM I
10 00</w>
ér min
é xit
yo liˈn</w>
weʼ yaj</w>
vuestr os</w>
tqˈ obˈ</w>
taj tz</w>
t nimen</w>
t ales</w>
sem anas</w>
se par
pel ícu
pakbʼan a</w>
kane tel</w>
in justi
im posible</w>
estudi ando</w>
car tas</w>
c ción</w>
c ay
apar eció</w>
anali zaremos</w>
an c
ale za</w>
S E</w>
O R</w>
ESTUDI O</w>
10 5</w>
1 27</w>
w0 9</w>
u j
trib un
to l
tch j
sigui eron</w>
sem ej
regu lar</w>
qe ku</w>
prome tió</w>
pens ando</w>
pac es</w>
nyekʼ ine</w>
ni a</w>
natur aleza</w>
n no
mo d
m úsica</w>
logr arlo</w>
kyikʼ saʼn</w>
ky in</w>
ku y</w>
k o
in to</w>
gra ves</w>
físi co</w>
descen dencia</w>
d era</w>
cónyu ge</w>
ch met</w>
c ti
ayud arlos</w>
anim ar</w>
ah í</w>
a qa</w>
Judi y
20 00</w>
2 Sa</w>
éxit o</w>
y os</w>
v i</w>
tzʼi bʼil</w>
ti ˈ
te za</w>
t ley</w>
rique zas</w>
recibi eron</w>
qʼin un</w>
quer idos</w>
qch mon</w>
permi tió</w>
partam ento</w>
n x
lle ga</w>
kʼuj l
kʼ ay
k oj
k ar</w>
ja xku</w>
ikʼ x</w>
exi s
equi po</w>
der r
ch to
can tidad</w>
bʼan ttoq</w>
bʼaj xix</w>
bʼ ete</w>
bus ca</w>
aʼy ex</w>
au xi
asig nación</w>
aqe ye</w>
anteri or</w>
an x</w>
TU MEL</w>
P RI
P ER
K yo
I Kʼ
Dios jo</w>
A T</w>
xim an</w>
xi xa</w>
w 2
tzeʼn x</w>
tu ve</w>
termin ó</w>
tar in</w>
si enta</w>
qʼu qeʼ</w>
prof undo</w>
plan es</w>
peligr o</w>
ofrec e</w>
nok toq</w>
nok pe</w>
ni e
mision ero</w>
kyoj jo</w>
kukx toq</w>
investi g
hab ilidades</w>
h ú</w>
gu el</w>
ex tra
er t</w>
enci ma</w>
ej ecu
ciud ades</w>
c eso</w>
anim ó</w>
al í
a parece</w>
Mi guel</w>
M OS</w>
KʼU J
Ho y</w>
ANQʼ I
20 13</w>
ˈn taq</w>
z ando</w>
viol encia</w>
vi vía</w>
us an</w>
univer sidad</w>
signi fic
qonikʼ an</w>
pon erse</w>
p h
ol o
kyu ˈn
kynim in</w>
kybˈinch in</w>
ku bʼaj</w>
fal sos</w>
fal sa</w>
d ían</w>
chto wer</w>
aparec en</w>
am ó</w>
Wat chtower</w>
Sim ón</w>
M é
CO N</w>
20 15</w>
20 12</w>
yekˈ bˈil</w>
v ac
sbʼ un</w>
ro de
rela tos</w>
reb el
q tzan</w>
prepar ar</w>
pens amos</w>
on al</w>
nim in</w>
ne u
ma tar</w>
m ó</w>
lengu a</w>
ky tzaqpiʼn</w>
ky junalx</w>
kiló metros</w>
juʼ tzun</w>
im prim
im as</w>
hi bi
es ca
er le</w>
discípu lo</w>
deb ían</w>
deb es</w>
con ce
car ga</w>
an kuya</w>
abʼ l</w>
T í
T OS</w>
Sab es</w>
Much os</w>
M lay</w>
Kʼ EL
A j
xix tl</w>
vali entes</w>
tzi la</w>
tris te</w>
tr as
tiʼj x</w>
t meltzʼaja</w>
qʼin te</w>
qe ˈ</w>
pu t
paci entes</w>
oj e</w>
nno ʼk</w>
n Maˈn</w>
mal te</w>
l ena</w>
ky xnaqʼtzbʼil</w>
ky l
k chin</w>
el il</w>
di ver
de por
cre cimiento</w>
conoc en</w>
con vi
ch an</w>
ben deci
bar co</w>
am as</w>
VAN CE</w>
U S
Parise y</w>
L is
KʼEL EL</w>
Fran cia</w>
A VANCE</w>
ú til</w>
yo le</w>
w onine</w>
vi vo</w>
ttx k
su l
sin cer
res pecto</w>
r lo</w>
pri sión</w>
pap el</w>
p aq
p aja</w>
or ado</w>
llev aba</w>
li x</w>
li bre</w>
ky tzʼibʼin</w>
in k</w>
her e
entr en
e ˈ</w>
dar ía</w>
d aban</w>
bautis arina</w>
aw o
O L
M un
J O
DES CRI
A qeju</w>
20 14</w>
1 Pe</w>
úni ca</w>
és ar</w>
winqi la</w>
wi pumale</w>
w erman</w>
v ay
tzˈi bˈin</w>
tzaj nin</w>
te ˈn</w>
tbˈan ilx</w>
t ía</w>
t aqʼ
rit o</w>
recor demos</w>
pró j
prój imo</w>
peque ños</w>
o posición</w>
ny axix</w>
médic o</w>
mo ẍ</w>
maravill oso</w>
l las</w>
ky man</w>
ky kˈuˈj</w>
k lol</w>
judí o</w>
injusti cias</w>
deci dido</w>
cán cer</w>
bi lidad</w>
bat alla</w>
autori dades</w>
ar reg
TZ A</w>
P CIÓN</w>
KY Qʼ
Es tu
C ésar</w>
AY U
A Q</w>
ʼN E</w>
x la</w>
we ʼya</w>
viv ían</w>
ve amos</w>
tzun jo</w>
tu ras</w>
trat ó</w>
tja x</w>
t jo</w>
sin ago
senti rse</w>
sac ar</w>
qbʼinch bʼen</w>
prepar ado</w>
pe or</w>
or e</w>
o qʼ
llev aron</w>
kyu kʼile</w>
kyk astiw</w>
hab iendo</w>
goberna r</w>
ex cel
d ale</w>
cor re
con tó</w>
bʼaj il</w>
bʼ le</w>
apren dí</w>
anqʼ intoq</w>
an da</w>
an d</w>
a b</w>
W il
Mun dial</w>
I l</w>
Chʼix me</w>
C lar
A pren
éndo le</w>
y n</w>
vi cio</w>
tzʼ aj</w>
tx ol</w>
tiʼ xku</w>
ten tación</w>
t at
qˈ ol
qu ía</w>
qi kʼun</w>
pro cl
pod amos</w>
nue vos</w>
n tate</w>
lis te
ky kawbʼil</w>
ky amiw</w>
g eo</w>
fi liste
e volu
dese an</w>
d í
cu esta</w>
apren diendo</w>
agu ante</w>
agrad ar</w>
Ver dad</w>
QU I
N e</w>
In formación</w>
ER A</w>
DESCRI PCIÓN</w>
A si
0 4</w>
xtal bˈil</w>
xnaqʼtz et</w>
ver dades</w>
ve ía</w>
v ec
t nu
t ario</w>
suc esos</w>
s é
reci be</w>
re co
po bres</w>
pareci da</w>
ma ʼne</w>
kyˈ iw
kyja lu</w>
ky ojtzqiʼn</w>
ky nej
in quie
ila ˈ</w>
h al
gan as</w>
e vangelio</w>
capí tulos</w>
c an</w>
besti a</w>
aq in</w>
aj qˈoj
M ag
Ky kyaqil</w>
J U</w>
G ÉN
Eze q</w>
éndo se</w>
y as
xi co</w>
w it
tzˈ aq</w>
trans mi
taq ˈ
t kolin</w>
re in
q amiw
profe ti
pr im</w>
pr em
parec ía</w>
oks la
nu l</w>
n t</w>
maestr os</w>
m í
kyx bʼalun</w>
kyi kʼun</w>
impor ta</w>
hab le</w>
for d</w>
eʼ ya</w>
en or
do poderoso</w>
dis cu
destr ucción</w>
dar é</w>
cristi anas</w>
au ment
acab ar</w>
P E</w>
IM POR
Ho mbre</w>
GÉN ESI
GÉNESI S</w>
DI S
D R
C CIÓN</w>
B a
A tz</w>
4 000</w>
óli ca</w>
ó lo
ífi co</w>
z ada</w>
xbˈ alin</w>
w abˈj</w>
tukʼi x</w>
tar le</w>
s abʼil</w>
resu men</w>
refu gi
q ajbʼebʼil</w>
q aj
públi ca</w>
pón gase</w>
nin qʼij</w>
natur al</w>
mu ro</w>
mo de</w>
mal bʼil</w>
kʼ o
kywu tz
kye xjal</w>
ky tnam</w>
kw ent</w>
hi ce</w>
desas tres</w>
de lo</w>
dar án</w>
conten tos</w>
compren der</w>
co razones</w>
ch el</w>
bˈaj il</w>
bˈ is
b á
b h
am án</w>
a compañ
Tze ˈn
S nt</w>
Qui énes</w>
PU E
No q
N O</w>
K w
IMPOR TAN
C ant
20 17</w>
10 4</w>
1 18</w>
tuʼn x</w>
su el
s amaʼne</w>
profes or</w>
pro ce
pa se</w>
ocur rió</w>
obedi encia</w>
llam aba</w>
l v
kʼix bʼi
kyu w
kyi bˈaj</w>
dij e</w>
consu l
científi cos</w>
c al</w>
bh s</w>
ac tú
Tzʼ ibʼ
Q KʼUʼJ</w>
Oʼ kx</w>
ẍ in</w>
óli co</w>
í ni
w ojtzqiʼne</w>
w 16
visit ar</w>
vi vos</w>
tzq inka</w>
tu m</w>
tori a</w>
tku ʼ
tat bʼaj</w>
t san
qu en</w>
q el
progr es
pi ˈn</w>
paráb ola</w>
p ción</w>
mu l
mision eros</w>
ment al</w>
l as
kykyaqil jo</w>
hacer nos</w>
fal sas</w>
ex am
escla vos</w>
entre g
emple o</w>
dro ga</w>
dedic ación</w>
ch man</w>
ch il</w>
car go</w>
c en</w>
ayud aron</w>
au r
an qʼibʼil</w>
acep tó</w>
a se
a paci
TA DA</w>
T bʼi</w>
Qʼam anxa</w>
N ya
Mé xico</w>
Jap ón</w>
JU AN</w>
En tre
Cor n
1 1,
0 6</w>
xo ˈl</w>
w 17
txˈ ix
trav és</w>
tan te</w>
su eño</w>
ro m
resuci tado</w>
qˈ in
qʼ ol
qnim san</w>
nim saʼn</w>
nch mile</w>
logr ar</w>
levant ó</w>
l ógi
l v</w>
kubʼ ni</w>
jun x
ilu vio</w>
hici era</w>
genti les</w>
est a
especi almente</w>
ele gir</w>
di ez</w>
cumpli rá</w>
cor ro</w>
conven cidos</w>
choj bˈil</w>
bˈ ilte</w>
bʼ aʼna</w>
b ol
as us
Wat ch</w>
To wer</w>
Se gún</w>
Kyo j</w>
Eu ropa</w>
EM ÍAS</w>
D iluvio</w>
A sia</w>
1 Ti</w>
ye c
w 15</w>
vivi endo</w>
tec no
t moda</w>
t mana</w>
t kaˈyin</w>
suce dió</w>
sir ve</w>
s í
s kˈ
resol ver</w>
re fier
ra í
qʼon x</w>
que o</w>
q witze</w>
partici p
paj jo</w>
o fr
neu tr
nbʼi se</w>
muer e</w>
kyxol jo</w>
ky moj
ky kˈ
ky bˈaj</w>
ky bʼis</w>
jui cios</w>
jaku pe</w>
ho bo
hobo am</w>
gan ar</w>
ex ten
ent al</w>
en tien
en can
descendi entes</w>
de presión</w>
cab al
busc ando</w>
auxi li
au i</w>
atz toq</w>
apren dió</w>
am or
am o</w>
ab a
Tuˈn tziˈn</w>
SAL MO</w>
Re hoboam</w>
N or
Mo qa</w>
Mal aui</w>
M IN
H e</w>
D é
Clar o</w>
B auti
Ab el</w>
A CIÓN</w>
10 6</w>
1 20</w>
w 10</w>
vi g
val ora</w>
v a
uni dad</w>
tzˈ in</w>
trat ado</w>
tqˈ maˈn
te is</w>
tan tas</w>
tan mi
su puesto</w>
ru m
regi ón</w>
recuer de</w>
re pu
re presenta</w>
r é</w>
qˈ malte</w>
qʼoj il</w>
qx jelin</w>
qe ʼxix</w>
q atzun</w>
o ʼ</w>
h aría</w>
fun d
frecu encia</w>
evolu ción</w>
electr óni
dr ía</w>
conoci ó</w>
com put
cas arse</w>
aprob ación</w>
RESPON DER
M U
L ec
KY U
BʼI LE</w>
BR E</w>
A tzin</w>
1 Cr</w>
0 000</w>
ví cti
txu bʼaj</w>
tsan jil</w>
tqˈ ajqˈoj
ten íamos</w>
t án</w>
s enten
qnim bˈil</w>
pec adores</w>
par i
p le</w>
mej e</w>
lá gr
ky najsaʼn</w>
ky jyoʼn</w>
i encias</w>
h á
ex presión</w>
escribi r</w>
equi libr
e dr
dej e</w>
d ero</w>
contest ó</w>
conoc ía</w>
ayud arle</w>
aten der</w>
as te</w>
ar las</w>
an o
aj xi</w>
V en
Tej tzun</w>
RESPONDER ÍA</w>
P ens
Jef té</w>
G re
An tes</w>
Abi ga
ú tiles</w>
yol in
vi uda</w>
tu viera</w>
ttz ik</w>
tqˈajqˈoj il</w>
tk abʼ</w>
ti ˈja</w>
terremo to</w>
te xa</w>
sufr en</w>
senci lla</w>
ro b
recib en</w>
q jyon</w>
q junalx</w>
q erman</w>
pres encia</w>
pec tos</w>
pas an</w>
pareci do</w>
pa gar</w>
p esc
natur ales</w>
m ari
kyxol xe</w>
kyqʼ abʼ</w>
k y</w>
ja tum</w>
ez as</w>
esper aba</w>
encan ta</w>
cumpli ó</w>
chʼix pet</w>
ce los</w>
c ad
bʼinch ama</w>
be bi
as pectos</w>
am en
Nab al</w>
ENSEÑ ANZ
Di osa</w>
C OR
Austr alia</w>
AL I
A y
20 18</w>
20 11</w>
xi xjo</w>
tí tulo</w>
txʼ uʼj</w>
tum elxix</w>
ti yjil</w>
tbˈan il</w>
tbʼi ya</w>
tamiw bʼila</w>
t bautisarina</w>
ser emos</w>
regal os</w>
quier es</w>
q na
q ale</w>
pri vi
peque ña</w>
n wutza</w>
n ajbʼentoq</w>
li g
kyi ʼjx</w>
ky kanin</w>
ky ech
k pol</w>
jyon a</w>
israeli ta</w>
gener osidad</w>
enemi go</w>
cu áles</w>
cier tas</w>
ch winqil</w>
cer ebr
aʼ ye
arr ol
ar d</w>
an ía</w>
TN EJ
T aj
S on</w>
R ob
I MA
Es te
Corn elio</w>
C A
A Bʼ
ó s</w>
w 14</w>
vivi ó</w>
vi a
tzal j
toj ju</w>
tja tz</w>
t kanin</w>
t her
so lici
qˈ mante</w>
qqʼ amaʼne</w>
q kyim</w>
pro cur
p as</w>
o jo</w>
o do</w>
o cho</w>
noti cia</w>
naʼ l</w>
mor ales</w>
mon taña</w>
mo delo</w>
l oʼ
kˈ aj</w>
kʼ el</w>
ky juʼtzun</w>
gol pe
farise o</w>
enseñ arles</w>
do y</w>
di r</w>
cre ía</w>
ch j</w>
bʼi y
as o
ad mi
U ʼJ</w>
TNEJ EL</w>
Min tiʼ
L IN</w>
C AM
A qu
5 00</w>
ẍ i</w>
un tl</w>
tzaj pe</w>
tribun al</w>
tqʼama ʼntl</w>
tqʼ maʼn</w>
to n</w>
tajbʼ ila</w>
ta la</w>
t soldad</w>
pu ra</w>
pregun te</w>
po cas</w>
pe ti
nor mal</w>
na q
moj eʼye</w>
limpi a</w>
le yendo</w>
kˈuˈj lin
kʼo mil</w>
kyja ʼ</w>
ky nikʼe</w>
ky ka
kwenti n</w>
inmor alidad</w>
il tiʼj</w>
g al
esforz amos</w>
ens o</w>
enfer mo</w>
div or
cumpl imiento</w>
cu a</w>
cl ara</w>
cer r
ali la</w>
aj l
P au
M y
M I</w>
I SA
En señ
E mpi
Com ité</w>
Ca ín</w>
A geo</w>
waqʼun e</w>
w i</w>
tra to</w>
tecno logía</w>
tan ta</w>
so ber
sem br
resuci tó</w>
rep ente</w>
qe jo</w>
posi tiva</w>
nim xixtl</w>
ni s
muri eron</w>
min u
laqˈ e</w>
kyqʼon xe</w>
kyk ostumbr</w>
iq tz</w>
il la</w>
habl amos</w>
grati tud</w>
fir me</w>
estu viera</w>
encontr ará</w>
elim in
dr án</w>
do queo</w>
dis tribu
der echa</w>
da ñ
conti go</w>
chj oʼn</w>
busc an</w>
a f
Tzʼ ok</w>
T R
S te
Per son
Mar doqueo</w>
ISA ÍAS</w>
G ra
Fl p</w>
Este ban</w>
E vang
CU R
BÍBLIC O</w>
19 19</w>
z amos</w>
x milil</w>
w aʼl</w>
ven drá</w>
uni dos</w>
tzʼaq lixix</w>
tzʼ okx</w>
tzʼ ex</w>
tris teza</w>
tok lena</w>
tk am
ti f
tech laʼn</w>
t tzalaja</w>
si vo</w>
se pul
res to</w>
qui si
qu em
prud ente</w>
pres entes</w>
pi e
or an</w>
ojtzqi ˈn</w>
oc rá
o t</w>
o fic
n neʼl</w>
n jaw</w>
n as</w>
mis mas</w>
kˈ bˈil</w>
kʼ ele
kyi ẍ</w>
ky aqʼunan</w>
kan oʼ
kam bʼan</w>
inter ior</w>
in tza</w>
i kx
emo cional</w>
d amente</w>
cor ru
conten to</w>
coment arios</w>
bautiz ado</w>
bauti zó</w>
aña de</w>
asi s
asamb leas</w>
ar repi
ajl abˈl</w>
aj as</w>
agu ant
TE R
Si las</w>
Se amos</w>
S oci
Qʼ OʼN</w>
Ma estr
Lev í</w>
Cor into</w>
Ch i</w>
C antar</w>
B re
ANQʼI BʼILE</w>
AJ BʼEN</w>
A ʼN</w>
yu ˈn</w>
xim ente</w>
vi enen</w>
tzʼ ajtz</w>
tradu cir
tmoj bʼaʼn</w>
t aʼ
s il</w>
reg is
puer tas</w>
produc e</w>
pro hibi
present ar</w>
podr emos</w>
paq x</w>
o dia</w>
nis án</w>
mo desti
modesti a</w>
mi j</w>
le p
kubʼ lo</w>
k jel</w>
f g</w>
encuentr a</w>
eci do</w>
du elo</w>
des arrol
demon io</w>
con tar</w>
con stan
com enta</w>
ca paz</w>
ca d</w>
aso mbr
ar it
angusti a</w>
TX QAN
TXQAN TL</w>
Oj tzqinka</w>
MA TEO</w>
Cant ares</w>
10 ,
1 33</w>
- 2</w>
á frica</w>
z ías</w>
y abˈ</w>
x kʼomil</w>
wi bʼaj</w>
we y</w>
w ale</w>
t aqʼunan</w>
so los</w>
sbʼu ʼn</w>
salv ar</w>
regres ar</w>
ra dio</w>
qx en
posi tivo</w>
oy entes</w>
ok xa</w>
nikʼ x</w>
na cido</w>
mo tivos</w>
l toq</w>
kʼuj lan</w>
itzʼ je</w>
in justicia</w>
iky ˈx</w>
i te</w>
especi ales</w>
en erg
célu la</w>
conven cido</w>
bauti zar
aqu ías</w>
al ta</w>
a tra
U ste
T WITZ</w>
Sud áfrica</w>
Sal ones</w>
S an</w>
Mal aquías</w>
Go g</w>
F amili
C iro</w>
3 8
y cl
w t</w>
ttzi ʼ</w>
tin g</w>
ther ford</w>
ta qa</w>
sam arit
respe tar</w>
re par
qʼon kja</w>
qx milal</w>
qoʼ ye</w>
públi co</w>
prote cción</w>
p ad
obede cer
n kˈuˈja</w>
n bˈant</w>
n bˈaj</w>
n bʼ
mintiʼ x</w>
manten erse</w>
labʼ ine</w>
kyqʼ ojin</w>
kyi ˈj
kw est
ju rat</w>
is tán</w>
hay an</w>
fi el
est ábamos</w>
envi dia</w>
energ ías</w>
edr ín</w>
e gip
b il</w>
ar k</w>
aqˈ untl</w>
anunci os</w>
amis tades</w>
a cor
XIM EN</w>
T EL</w>
San edrín</w>
Ru therford</w>
K AN
Joh n</w>
Famili a</w>
Empi ece</w>
CHʼ IN</w>
A M</w>
á ni
z ados</w>
xo l</w>
ver lo</w>
txu k</w>
tel xix</w>
ta ciones</w>
t aʼl</w>
suce de</w>
su je
su elo</w>
so is</w>
sigui endo</w>
si y</w>
se as</w>
sal e</w>
rápi do</w>
responsab le</w>
r em
q bʼet</w>
prote ge</w>
nu mj</w>
n tzˈi
n mode</w>
muestr an</w>
menti ras</w>
mam á</w>
kyuˈn xjal</w>
ky kanet</w>
kubˈ sin</w>
ku ˈ
ku tz</w>
j y
inclu ye</w>
in for
ik y</w>
ha z</w>
enor me</w>
culp able</w>
cre ado</w>
compr ar</w>
com er
colab orar</w>
chj et</w>
ayud ara</w>
ara c</w>
ab ier
a ẍ
a z</w>
W ANQʼIBʼILE</w>
Tbʼan elxix</w>
Si g
POR TADA</w>
K en
JUN TL</w>
Cu áles</w>
Bʼinch ankuya</w>
B arac</w>
A c
xma yin</w>
wu tz</w>
tzeʼn j</w>
ttz aj
tja qˈ</w>
sufri endo</w>
su b
q gan</w>
prob ablemente</w>
pro yec
poli siy</w>
pal til</w>
pa usa</w>
ol ina</w>
ob stante</w>
no tas</w>
naqʼun an</w>
n eʼ
n bˈinch
mo tivo</w>
me tzin</w>
la v
kynim saʼn</w>
kyn abˈl</w>
ky bˈiˈn</w>
k r</w>
iteˈ taq</w>
ir án</w>
i le
i das</w>
gr os</w>
gi a</w>
fu imos</w>
fortal ec
estudi os</w>
es pa
envi ado</w>
doc e</w>
des per
come tido</w>
clar amente</w>
ca er</w>
c antar</w>
c ans
as es
an alí
am bˈil</w>
a propi
S ol</w>
Pas cua</w>
N úm</w>
N unca</w>
Kʼ IL</w>
Kyaj lal</w>
Ju e</w>
I S
HAC ER</w>
A mi
4 ,000</w>
10 2</w>
1 Jn</w>
x qʼu
vivi rán</w>
vi ento</w>
v in</w>
u lar</w>
tzʼ in</w>
tzaq paj</w>
tribu s</w>
tiʼj xi</w>
refier e</w>
qˈ onte</w>
qja ye</w>
q xnaqʼtzaʼn</w>
q aqʼun</w>
origin al</w>
o se</w>
o pe
me dic
manten ernos</w>
kʼi x</w>
kyim e</w>
kyi ˈn</w>
h arán</w>
gri e
fic ación</w>
der emos</w>
d al
cu ales</w>
che ˈ
br a</w>
ay il</w>
aprovech ar</w>
abˈ qˈ
Na ʼnx</w>
MA N</w>
KYQʼ AMAʼN</w>
K X</w>
I chin</w>
Eli sab
E f</w>
Di ose</w>
20 21</w>
14 1</w>
1 50</w>
1 30</w>
1 16</w>
últi ma</w>
É f
Éf eso</w>
w el
tz aje</w>
tuˈn jo</w>
tk abˈ</w>
sin tamos</w>
si pet</w>
san t</w>
recib imos</w>
r ol
qoʼ x</w>
qoptzˈ aj
q klet</w>
ocur re</w>
ob tener</w>
n na
n lay
mi ra</w>
mer ece</w>
mad ero</w>
kʼujla ʼnxix</w>
kʼujla ʼntoq</w>
kywu tza</w>
kyu l</w>
kyna bʼle</w>
ky qan
koj bʼil</w>
junal xe</w>
in da</w>
im pul
g la
g e
estab lec
escrib as</w>
encar g
do ma</w>
cui da</w>
correc ta</w>
convers aciones</w>
conver ti
confi amos</w>
ci c
cariñ oso</w>
ben dijo</w>
aʼn xix</w>
ayud en</w>
as tr
analí celo</w>
agrad ecemos</w>
a ec</w>
TE J</w>
So doma</w>
S U</w>
Prepar e</w>
Person alidad</w>
P E
N aciones</w>
Cuán to</w>
Bauti sta</w>
Asi ria</w>
Ami gos</w>
9 3</w>
3 00</w>
í sti
ver á</w>
tz pet</w>
tor ios</w>
terremo tos</w>
ten gas</w>
t chʼixpuʼn</w>
super ior</w>
se lo</w>
sa ʼne</w>
s tas</w>
reali zar</w>
q naʼne</w>
q bʼe</w>
pre juicios</w>
pi ẍ</w>
perfec ta</w>
or aba</w>
nqʼ oje</w>
mand amientos</w>
logr ado</w>
li ˈy</w>
li p
kyxo le</w>
kyu kʼix</w>
ky jel</w>
kuʼx in</w>
j yet</w>
her r
habit antes</w>
estr ellas</w>
en das</w>
em ia</w>
em erg
e tz
dó lares</w>
don ia</w>
di vino</w>
de termin
cor regi
cam inos</w>
bʼ inx</w>
aˈ l
alkye ju</w>
acep ta</w>
a ku
T aja</w>
Ru sia</w>
PRI M
Much as</w>
Mi entras</w>
Entre tenimiento</w>
BI OS</w>
A W
ár amos</w>
ácu los</w>
xim et</w>
vuel to</w>
vol vieron</w>
u q</w>
tk astiw</w>
tis mo</w>
ti tu
ter cera</w>
tbʼ e</w>
t ín</w>
so l</w>
sa ʼna</w>
qued arse</w>
qi ʼjx</w>
pre cio</w>
pe tzulo</w>
orgu llo</w>
obje ción</w>
ne go
naq tzen</w>
mis ta</w>
mem oria</w>
malv ados</w>
llam ar</w>
kʼix bʼis
kynim iˈn</w>
kyi bˈ
ky kawin</w>
k astiw</w>
jaw sbˈil</w>
fir mes</w>
er no</w>
dro gas</w>
dis cursos</w>
consu ela</w>
con virtió</w>
com un
casti go</w>
cas ting</w>
can ción</w>
bʼaj toq</w>
bá si
ayud ando</w>
auxili ar</w>
au dio</w>
ad casting</w>
a dic
Tiʼ tzun</w>
TX ʼ
Re cuer
Q alaˈ</w>
N O
Gali ley</w>
CUR S
C at
Bro adcasting</w>
20 10</w>
1 15</w>
ˈ ẍ</w>
x qˈuq
x kubˈ</w>
tzin tzjo</w>
tzalj bˈil</w>
to tal</w>
te win</w>
t pajjo</w>
si t</w>
s ama</w>
pudi eran</w>
prote ger</w>
pl emente</w>
ojtzqi ʼnxix</w>
médic os</w>
minis tr
logr ó</w>
le vi
kuʼ tz</w>
kan iˈn</w>
k kawil</w>
inter esa</w>
fiel mente</w>
excel ente</w>
en oj
emp e
deci rle</w>
cul tura</w>
comput adora</w>
bʼi tz
arri ba</w>
arrepenti do</w>
ar ma</w>
ab ilidad</w>
a k
Y o
TE MA</w>
SE AMOS</w>
S ea</w>
QI ʼJ</w>
Pau l</w>
Pa kbʼ
PRO F
PR OV
O li
O B
JA TUMEL</w>
H ar
F il
Elisab et</w>
De partamento</w>
Bre taña</w>
íni ve</w>
É XO
ÉXO DO</w>
yu p
yo r</w>
xi xtoq</w>
ww w
w 18
ven za</w>
uni ce</w>
tzˈaq le
tzaʼn x</w>
trat an</w>
tna bʼila</w>
ti la</w>
ten te</w>
taqˈ in</w>
t lo
sobre llevar</w>
ras il</w>
pes cad</w>
pe lo</w>
p ó
ope dia</w>
ofrec er</w>
necesit aban</w>
n yola</w>
me tro</w>
loʼ chj</w>
lan da</w>
kyˈ in</w>
kyx milal</w>
k it</w>
j teʼ</w>
in di
extra ordin
explic ar</w>
di mos</w>
de fin
continu ación</w>
cel ular</w>
cam pos</w>
c ycl
bʼaj xi</w>
b t</w>
b ora</w>
as és</w>
abˈqˈ e</w>
a tx
V al
TN AM</w>
TI ʼJ
O ri
N ínive</w>
Man asés</w>
Ir landa</w>
H an
Es d</w>
En cycl
E unice</w>
B rasil</w>
é rica</w>
án doles</w>
zc an</w>
x bʼal
u min</w>
tzʼi bʼan</w>
ttxu yil</w>
til el</w>
tif ar</w>
taj bˈil</w>
t érmin
t kwent</w>
su e
repu tación</w>
re quis
r endi
qʼan il</w>
qan min</w>
posi tivos</w>
pi ente</w>
per dió</w>
pa ciones</w>
man yor</w>
m ón</w>
li pe
lengu aje</w>
le gio</w>
kywutz xjal</w>
kywu tzjo</w>
kyim a</w>
kubʼ san</w>
kaˈy iˈn</w>
k an</w>
impli ca</w>
il qe</w>
i z
hici eran</w>
estr és</w>
es ar
desas tre</w>
chʼix wi</w>
can o</w>
ambi ente</w>
Y E
U zías</w>
Tí tulo</w>
Tuʼn tzunjo</w>
Po tifar</w>
LE CCIÓN</w>
Dé bora</w>
CH IKʼ
Bʼ aʼn
Al qiʼj</w>
2 4
1 34</w>
yaẍ in</w>
www jworg</w>
viv an</w>
val ores</w>
tw a</w>
tro pe
trib u</w>
to tal
tien da</w>
ter ra</w>
tbʼi sa</w>
tar ea</w>
sober anía</w>
so corro</w>
sin cero</w>
s ó
ra za</w>
qˈuq bˈil</w>
qi bˈ</w>
preocu paciones</w>
pelícu la</w>
os amente</w>
oper ación</w>
obst áculos</w>
mu r
mu j</w>
m ío</w>
le t</w>
ky bʼe</w>
juz gar</w>
i ores</w>
herr ami
gu í
gu é</w>
glesi as</w>
gla terra</w>
fí sica</w>
fortal ece</w>
for mar</w>
extr em
expli car
du ra</w>
dic o</w>
cre y
cr í
ci da</w>
cerebr o</w>
c ado</w>
bʼ ech</w>
antigu o</w>
am yent</w>
afron tar</w>
ad amente</w>
a que</w>
a cos
YE Kʼ
UN A</w>
SI G
Qʼam antza</w>
K a
In glaterra</w>
Ik tzun</w>
I t
H asta</w>
H a</w>
An dr
Algun as</w>
A y</w>
A D
1 23</w>
1 21</w>
í do
w il</w>
tzaqpi bʼil</w>
ter o</w>
tchj et</w>
t laj</w>
sim ple</w>
segu ía</w>
ri cos</w>
q kʼ
public ador</w>
prob ar</w>
pi da</w>
permi ti
pec ador</w>
p aje</w>
ne g
ma ʼxix</w>
li a</w>
lab ores</w>
kʼwal bʼaj</w>
kye j</w>
kle tel</w>
ja ba</w>
human a</w>
honr ar</w>
gas tos</w>
gan toq</w>
fu ente</w>
extr anj
escri tor</w>
er me</w>
entre tenimiento</w>
domin io</w>
destru ir</w>
da tos</w>
cru el</w>
circ unci
chˈ i
bˈ et</w>
bi les</w>
am érica</w>
abˈ la</w>
TA N</w>
Qui z
Per sia</w>
O TROS</w>
Mo ab</w>
Mari y</w>
M ej
KU ʼ
K xel</w>
G abri
El los</w>
EN TE</w>
B EN
Al b
1, 0
1 35</w>
vi das</w>
ts kʼoʼn</w>
total mente</w>
tor menta</w>
tin ú
t ten
t bautisarin</w>
so s
sim plemente</w>
sab ían</w>
re vis
qu kʼile</w>
qi ˈj</w>
q qʼuqbʼaʼn</w>
pá jar
predic amos</w>
pla ta</w>
person ales</w>
on e</w>
na qʼet</w>
na ció</w>
mos le</w>
mod estos</w>
misericor di
medi a</w>
man do</w>
l ad
kʼul un</w>
kynej il</w>
kx pe</w>
jyon e</w>
jy q</w>
j ese</w>
in ta</w>
in esper
i chan</w>
hi jas</w>
fon do</w>
exper tos</w>
est arán</w>
de vo
cuesti ones</w>
col or</w>
cl aridad</w>
cay ó</w>
cas ados</w>
bʼ aʼne</w>
as pecto</w>
ac tos</w>
Wil li
T aj</w>
RE VI
Q ˈ
PROV ER
PROVER BIOS</w>
IMPORTAN TE</w>
Gran de</w>
Feli pe</w>
D ur
Cre e</w>
Alb ania</w>
- 3</w>
ˈ tzin</w>
és tos</w>
én ito</w>
yo ʼne</w>
xu ˈjil</w>
xqˈuq il</w>
xe w</w>
wi ʼne</w>
w aja</w>
vig il
uestr o</w>
tem ente</w>
t nikyˈ</w>
só lo</w>
re pren
re a</w>
qʼam alte</w>
q ajbʼene</w>
oˈ kx
ok tzun</w>
ofreci ó</w>
o qʼ</w>
o las</w>
naj le
na z
mu e
mani f
luch ando</w>
li pen</w>
l yn</w>
ky al</w>
ka ʼ
ini ci
inci enso</w>
in sul
hacer le</w>
esi ones</w>
doc tr
desa fí
d on</w>
compañ ero</w>
ci tos</w>
aẍ jel</w>
avi dad</w>
an u
adul tos</w>
ac ter
ac as
a segura</w>
To do</w>
TZAQʼWEN TZA</w>
Si ria</w>
Q M
Pro póngase</w>
NA BʼIL</w>
J ER
It alia</w>
Il pe</w>
Es cri
CI A</w>
Ba al</w>
20 16</w>
2 Ti</w>
z co</w>
xqʼuq ine</w>
volu men</w>
vali osa</w>
u ʼn</w>
tzʼ eʼ
tu kˈ
tqʼan in</w>
tnim bˈil</w>
tch mila</w>
t tzʼ
sali eron</w>
re ina</w>
r les</w>
qˈ on
qued aron</w>
qbʼinch aʼne</w>
q pakbʼane</w>
q nikyˈ
pu dieron</w>
prov echo</w>
presi ones</w>
po lic
pl an</w>
pas amos</w>
pari entes</w>
pa ˈ
obedec en</w>
na ʼn
n kʼ
le e</w>
kˈuˈj lin</w>
kyanmi ye</w>
ky chʼiy</w>
ku bˈe</w>
kanoʼ mil</w>
k kanetel</w>
k er</w>
jyo ʼne</w>
je fe</w>
ja witz</w>
i as</w>
hier ro</w>
fer encia</w>
est ando</w>
esper ando</w>
emerg encia</w>
dor mir</w>
de fec
costum bres</w>
co se
bi a</w>
aver igu
ateʼ qe</w>
anteri ores</w>
aj tzin</w>
a ˈn
Tu ˈn</w>
PA K
ON BʼIL</w>
A ll
3 7
0 ,
wp 16
ver as</w>
ve o</w>
vali oso</w>
uni ón</w>
twutz x</w>
tn i</w>
tkʼujla bʼila</w>
tku bʼ
ti na</w>
tch mon</w>
tbˈan t</w>
tbʼinch an</w>
t kˈwal
superinten dentes</w>
sopor tar</w>
san ti
resis tir</w>
qˈoˈn te</w>
qx milil</w>
q yoline</w>
pres a</w>
pi den</w>
per ju
oportu ni
oportuni dades</w>
op ía</w>
o fici
ni ña</w>
n maʼne</w>
n junalxe</w>
mol de
minis teri
mas toq</w>
mand amyent</w>
kyˈ a
ky kʼwale</w>
ky kubˈ</w>
j i
itz ʼ</w>
fa ci
er to</w>
encontr ó</w>
di dos</w>
dese amos</w>
cump le</w>
comple ta</w>
bur l
b aj
a ta</w>
X Kʼ
TQʼ OʼN</w>
Sim un</w>
Se gun
O toq</w>
Nim aq</w>
N avidad</w>
Gabri el</w>
E Z
D o
CH OS</w>
C esar
Bʼ E
Bro ok
A nim
4 8
10 1</w>
ˈj in</w>
É S</w>
xqʼu qit</w>
xnaqʼtz aʼne</w>
xja l
vuel ve</w>
tzʼeʼ y</w>
tnej ilxix</w>
tajbʼ e
t pwaq</w>
t pw
t aqʼun
sobre vivir</w>
si entan</w>
sep h</w>
secre to</w>
sa grado</w>
resuci tar</w>
religi osas</w>
recompens a</w>
re conoce</w>
qʼo ʼn
privi legio</w>
pele ar</w>
pas ará</w>
par ezca</w>
on de</w>
n qʼoʼn</w>
mon ta
li ter
le ʼn</w>
kyim en</w>
ky naʼj</w>
k net</w>
k abʼ</w>
juz g
itzˈ je</w>
ink tza</w>
im puls
i ʼn</w>
hospit al</w>
er amente</w>
div ina</w>
de y</w>
cul ar</w>
conoc erlo</w>
chˈ uq</w>
centr al</w>
bus que</w>
at os</w>
aj bˈin</w>
T ú</w>
T on
Su r</w>
SA B
Pila t</w>
M el
Jo seph</w>
Es t</w>
Dur ante</w>
y abˈ
xim lal</w>
vícti mas</w>
ven g
trabaj ando</w>
tpa ʼna</w>
ti opía</w>
ti da</w>
tes oro</w>
tanmi ya</w>
t kyʼ
su r</w>
si ble</w>
señ or</w>
sal mista</w>
ritu s</w>
res cat
r est
qˈ a</w>
qo kx</w>
pí ritus</w>
po bre</w>
padr en
pa tr
ntiˈ taq</w>
n abʼ</w>
mi ʼ</w>
mand amiento</w>
lógi co</w>
lleg ará</w>
kyja pun</w>
j teˈ
i p</w>
filiste os</w>
espiritu almente</w>
escuch ó</w>
e pi
dis tr
de jan</w>
de cep
ca u
aˈ la</w>
as co</w>
ace donia</w>
a toq</w>
a el</w>
X QʼUQ
Tzeˈn tzin</w>
Ti ene</w>
T ra
Sal v
Q kyaqilx</w>
PUE DE</w>
N man</w>
Mag dal
L inda</w>
Ja w</w>
Gra cias</w>
Fili ste
E tiopía</w>
DIS CURS
D alila</w>
Cesar ea</w>
Bʼ I</w>
Ben jam
B er
A ya</w>
A kux</w>
A PO
2, 0
ó bu
è le</w>
ándo lo</w>
Ó V
ÓV ENES</w>
w ok</w>
w aˈn</w>
tuˈn taq</w>
tuʼn e</w>
tem por
tan tos</w>
sucurs ales</w>
su yos</w>
ser ían</w>
sent í</w>
semej ante</w>
sal vo</w>
ro g
recuer do</w>
qʼ ina</w>
quiz á</w>
qi kʼ
q kˈuˈj</w>
preocu par
peri ó
pens ó</w>
peligr os</w>
padren uestro</w>
oy ó</w>
or emos</w>
or arle</w>
op ción</w>
nim an</w>
naˈm xtaq</w>
na cion
n chi
medi das</w>
malv ado</w>
m bo
lis to</w>
kʼi tz
ky txu
ky muj
junx il</w>
it jo</w>
in e
hospit al
ha ci
exper iencias</w>
esi dades</w>
esfuer zan</w>
esforz arnos</w>
ent emente</w>
dud as</w>
don ate
donate jworg</w>
disponi ble</w>
desc ans
cl ima</w>
cier tos</w>
ci eron</w>
bʼ ayil</w>
bon dad
aña dió</w>
apar iencia</w>
antigu os</w>
ador as</w>
acer car
abund ancia</w>
a kˈaj</w>
T oj
T kʼwal</w>
PRIM ERA</w>
P ol
Nec esidades</w>
M í
Judiy qe</w>
JER EMÍAS</w>
J ÓVENES</w>
IMA G
Es paña</w>
EM P
EL TZʼ
E ra</w>
Di ce</w>
A yu
2 3
14 3</w>
1 11</w>
yuk ch</w>
x eʼ
visit as</w>
ver sión</w>
ustr ación</w>
twutz jo</w>
trans fu
tojtzqi ʼn</w>
toj xix</w>
tkan oʼna</w>
tja qʼ
tendr ían</w>
te la</w>
taˈ ye</w>
tan qʼina</w>
t tzʼibʼen</w>
sí mbo
señ as</w>
resul ta</w>
qʼuq litoq</w>
q tzaqpiʼn</w>
q qˈmaˈn</w>
q pone</w>
pueb los</w>
prepar ados</w>
pregun tan</w>
pie dras</w>
p ti
p eso</w>
orden ó</w>
na qtzun</w>
muestr e</w>
li la</w>
kʼam oʼne</w>
kyka bʼil</w>
ky mejebʼleʼn</w>
k o</w>
in c
i yil</w>
i cio</w>
hermo so</w>
hermo sa</w>
h aremos</w>
gü en
goberna dor</w>
go g</w>
g or
f echa</w>
enseñ ando</w>
d aron</w>
confi able</w>
con mo
comple tamente</w>
co br
celebr ar</w>
cam in
bʼ abʼl</w>
bautis arine</w>
at aq</w>
ari amente</w>
an xe</w>
an mar</w>
am ar
ala am</w>
abʼ e</w>
ab rió</w>
a h</w>
Xnaqʼtz al</w>
XKʼ OM
XKʼOM IL</w>
Uste d</w>
TRA R</w>
TE X
T ley</w>
T BʼI</w>
Sig ni
S AM
Rob ert</w>
Quiz ás</w>
My anmar</w>
Ma gog</w>
M en
M ad
M acedonia</w>
L ab
Ju icio</w>
Ju ec</w>
CHIKʼ BʼABʼIL</w>
C ale
C R
Bi ble</w>
B alaam</w>
AN OS</w>
A CIONES</w>
1 26</w>
óbu los</w>
y lal</w>
vi c
vali osas</w>
tzʼ oka</w>
traducir in</w>
tra te</w>
tjaqʼ xi</w>
testi w</w>
tbʼinch en</w>
t én
t junal
t he</w>
t est
si chʼ
san tu
sa cu
ri am</w>
res er
refugi ados</w>
re z</w>
qui eran</w>
qoptzˈaj iyil</w>
qe toq</w>
qan inx</w>
pri sion
po dido</w>
pas aba</w>
pa tía</w>
mens ajes</w>
me bʼayil</w>
kʼ aẍjel</w>
kyi l
ky ejiˈy</w>
k tzalajel</w>
in forme</w>
i ca</w>
háb itos</w>
her encia</w>
hac es</w>
fin almente</w>
fi car
ele qʼ</w>
domin go</w>
diri gi
debi ó</w>
conf lic
cion e</w>
bautiz ados</w>
bar ca</w>
an ku</w>
am able</w>
al dea</w>
afir ma</w>
Uʼj inktza</w>
TA R</w>
Salv ador</w>
SI TA</w>
S ino</w>
S h
S ant
REVI SITA</w>
Maestr o</w>
M at
M E
Lec tura</w>
Jeho ás</w>
H u
Gre cia</w>
Estu di
Con go</w>
CAM BI
C O</w>
AM OR</w>
10 7</w>
1, 8
1 31</w>
0 ,000</w>
ó r
xna qʼ</w>
vini eron</w>
utili za</w>
us amos</w>
tzun taq</w>
tar ios</w>
tar an</w>
tajbʼ iltoq</w>
su pli
señ al
s al</w>
rit os</w>
refer irse</w>
recuper ar</w>
qʼ e
qo x</w>
qi kʼ</w>
polí ticos</w>
oj qel
na ˈn</w>
n er
much a
miembr o</w>
matrimon ios</w>
luch a</w>
l el</w>
kyim in</w>
ky tat</w>
j iky
ir e</w>
in mens
in kuxa</w>
i de
gü edad</w>
g on
esper amos</w>
esi ón</w>
eli z
el taq</w>
di eran</w>
descu br
deci dí</w>
deci de</w>
cre ían</w>
cre es</w>
conoc emos</w>
co pa</w>
bˈinch il</w>
bʼ ene</w>
bra zos</w>
bar ro</w>
awo ˈy</w>
aqu ellas</w>
anti güedad</w>
alegr a</w>
alcan ce</w>
ab ajo</w>
R us
Qʼ I
Q kanoʼmil</w>
MA R
F E
EST A</w>
EN TO</w>
D ES</w>
Brook lyn</w>
5 000</w>
3 000</w>
1 24</w>
ís ara</w>
zc amos</w>
z ará</w>
xo bʼ
weˈ k
vi va</w>
vi endo</w>
to c
ter cer</w>
te ye</w>
tch ˈ
t Kawbʼil</w>
suel en</w>
servi rme</w>
s amente</w>
ro mano</w>
ri s</w>
recha zar</w>
reac ción</w>
qʼam anx</w>
q oʼn</w>
q la
pregun taron</w>
por tada</w>
pon gamos</w>
podr án</w>
pens ado</w>
pas aron</w>
p ant
oqʼ el</w>
olo gía</w>
oblig arin</w>
nombr ado</w>
ni ca</w>
naj bˈil</w>
n yole</w>
n s
n pakbʼane</w>
n eltoq</w>
mencion ó</w>
men or</w>
m esa</w>
lí n
lágr imas</w>
kynim san</w>
kych winqil</w>
kybˈinch iˈn</w>
ky tziyen</w>
ky si
ky paj</w>
jan xix</w>
gener oso</w>
fi de
escri be</w>
entre gó</w>
encuentr an</w>
e w</w>
dé biles</w>
du mbre</w>
distin tas</w>
des obedeci
con serv
come tió</w>
ci l
bo da</w>
bi o
bas ado</w>
av an
aqʼun ane</w>
anqʼ ina</w>
adu ra</w>
ad ecu
a se</w>
Willi am</w>
S ísara</w>
Q bʼinx</w>
Magdal ena</w>
Lab án</w>
KU KX</w>
K ar
JO B</w>
J YO
F U
AL GUN
A tzunte</w>
20 0</w>
ído los</w>
xjel ina</w>
w 19
tw eʼ</w>
tu vieran</w>
ttx ʼ
tr ás</w>
tqˈ uq
te j
tch kʼel</w>
t tzʼibʼ
sufri do</w>
sim b
ser piente</w>
sel l</w>
se d</w>
qnikyˈ in</w>
qja kʼunte</w>
q en</w>
pw aqe</w>
pron unci
present ación</w>
perfec ción</w>
oʼkx toq</w>
o taq
nega tivos</w>
neces arios</w>
n yolin</w>
much ís
l ale</w>
ky kʼwaʼle</w>
kx qʼuqil</w>
kol ine</w>
kabˈ lajaj</w>
j tan</w>
in xix</w>
herrami entas</w>
fund ament
f á
f ac
ex hor
est aría</w>
espo sas</w>
escrit os</w>
er la</w>
dé bil</w>
di rección</w>
detal le</w>
demostr ado</w>
deber ían</w>
d ob
cumpli do</w>
cu ra</w>
con tinú
com pl
chˈi xtaq</w>
bor ra
ar t</w>
ap li
amb os</w>
am ables</w>
am abilidad</w>
agu as</w>
agrad able</w>
acu c</w>
ab or
ab o
a pe
TI ʼ
T tat</w>
Rus sell</w>
O S
M on
M il
Hab acuc</w>
G RA
ELTZʼ AJ</w>
E m
E X
E QUI
B il
14 6</w>
1 12</w>
ˈn in</w>
ʼj el</w>
ín ci
xi t</w>
uʼj il</w>
ud as</w>
txi ʼ</w>
tu ʼj</w>
ti bʼajxi</w>
se y</w>
sab éis</w>
razon able</w>
r r</w>
qˈuq le
qˈ aqˈ
qʼaqʼ an</w>
po bre
pl en
obedi ente</w>
na l</w>
menti ra</w>
man á</w>
lín ea</w>
lle gan</w>
ll orar</w>
kʼixbʼi saʼn</w>
kʼele tz</w>
kyw aʼn</w>
kybʼ yoʼn</w>
ky xiˈ</w>
ja pin</w>
ini dad</w>
in jus
hor ario</w>
hab lado</w>
gl óbulos</w>
gan toqe</w>
g ante</w>
fu ér
es píritus</w>
envi aron</w>
dig no</w>
di miento</w>
di gan</w>
destru ido</w>
dedic ar</w>
cuesti ón</w>
cu entas</w>
cre emos</w>
con ec
car acter
ala qa</w>
agradeci do</w>
adver tencia</w>
ad onde</w>
ace ite</w>
U r</w>
TEX TO</w>
R ES
Qʼ uq
Q tat</w>
Pu bli
MI ʼN</w>
FI CA</w>
Chi ˈ</w>
Aʼ N
A qeye</w>
A U
A T
A C
200 4</w>
2 40</w>
14 4</w>
1 38</w>
z on
xqʼuq ina</w>
w ajbʼile</w>
vivi do</w>
utili zar</w>
tzaqpi ˈn</w>
txk oʼn</w>
ttzaqpi ʼna</w>
tkˈwal taq</w>
tes or
tbʼinch a</w>
t ón</w>
t sanjel</w>
t qoptzˈajiyil</w>
t kaw
sinago ga</w>
sab es</w>
refu gio</w>
refle xi
pre di
pobre za</w>
p inas</w>
org e</w>
or as</w>
o i
nim bʼil</w>
naˈm taq</w>
le ta</w>
kych winqila</w>
ky kolin</w>
jun chˈin</w>
inter eses</w>
incl in
gru pos</w>
gener ación</w>
en ví
ele gido</w>
e v
du ras</w>
descri be</w>
deb ajo</w>
de trás</w>
cumpli endo</w>
cuar enta</w>
cont esta</w>
conoci dos</w>
bier to</w>
bi enes</w>
an ías</w>
an d
am entos</w>
ajbʼen x</w>
a ire</w>
a hor
YO LIN</w>
T or
S of
R OM
QM ELTZʼAJ</w>
Ok pe</w>
Lis tra</w>
LO J</w>
KʼUJ LABʼIL</w>
Kʼ LOJ</w>
KAN ET</w>
Fili pinas</w>
Eli hú</w>
D escu
D OS</w>
C RE
Bʼ ant</w>
Ale x
vesti r</w>
ven ida</w>
v il</w>
tzʼ okxa</w>
twi tzikʼ</w>
tqʼ ij</w>
tbʼan ilxix</w>
t é
t ma
t era</w>
super iores</w>
sol amente</w>
sal ón</w>
ri es
respon diendo</w>
que te</w>
q yekʼ
q tene</w>
prepar ó</w>
pon a</w>
pol vo</w>
person ajes</w>
paˈ bˈin</w>
on it</w>
on g</w>
mu si
mayor do
llam ados</w>
la u
kyikʼ x</w>
kwest toq</w>
ku ẍ
k tzalaj
jur amento</w>
in tz</w>
i glesias</w>
gr adu
gobern antes</w>
expres ar</w>
er ta</w>
empi eza</w>
ele v
el x</w>
e y</w>
dó lar</w>
dis tan
diri gir</w>
dar me</w>
con diciones</w>
com pli
caracter ísti
can al</w>
c li
b om
aʼ m
anali cemos</w>
adolesc ente</w>
acer carse</w>
a costum
Tiʼ toq</w>
Ta ta</w>
Re visita</w>
R O</w>
Q EJU</w>
Mí riam</w>
MIN TIʼ</w>
KUʼ X
JA W</w>
I BʼIL</w>
HE CHOS</w>
Chi kʼ
B u
Ar t
Alkye tzun</w>
1 36</w>
yol te</w>
u fra
trai cion
traba jan</w>
tol er
te ˈy</w>
solu cion
sal mo</w>
pí dale</w>
prác ticos</w>
prof esi
pres u
perman ecer</w>
perfec tos</w>
pap á</w>
pant alla</w>
orgull oso</w>
naj tz</w>
mintiʼ wtlo</w>
mas lo</w>
ma quʼn</w>
m ía</w>
leg al</w>
l adr
kyaq naj
inter pre
influ encia</w>
i ˈn
gener osos</w>
escu che</w>
enten der
en er
em ano</w>
di rá</w>
devo ción</w>
dej amos</w>
de li
copi a</w>
con ferencia</w>
ch es</w>
bʼ am
bʼam po</w>
ben dice</w>
auto control</w>
asegur ó</w>
apo yan</w>
ant emano</w>
alab ar</w>
ac h</w>
a ves</w>
Uni das</w>
TZAL AJ
T en</w>
SIG NI
QʼI J</w>
N aʼm
LU CAS</w>
Ky xjel</w>
K I
J A</w>
H az
Benjam ín</w>
Anim e</w>
Andr és</w>
A Ñ
A tzaj</w>
A txix</w>
1, 000</w>
yu ʼn</w>
xuʼj ila</w>
xnaqˈ tzin</w>
x qo</w>
vuel va</w>
volun tarios</w>
tzˈaqle xix</w>
tz aja</w>
tri y</w>
tok taq</w>
tn ana</w>
ti pun</w>
taqʼ una</w>
t pakbʼana</w>
t gana</w>
salv ó</w>
rápi damente</w>
rest aur
ren unci
re conocer</w>
qu es</w>
qmoj bʼaʼn</w>
q qʼonx</w>
q qʼoj</w>
q aqʼunan</w>
q aje</w>
per ci
pal o
p ér
o v
o te</w>
nu ario</w>
neces arias</w>
n jyoʼne</w>
monta ñas</w>
minis tro</w>
mil las</w>
m aq
kʼ ayin</w>
kyqˈ ma</w>
kyi kʼ</w>
ky wi
ky s
ju ez</w>
jteˈ bˈin</w>
j weˈ</w>
inter nacional</w>
in ku
imprim i
fi estas</w>
exac tamente</w>
esti lo</w>
dio se</w>
d á
cu brir</w>
cri sis</w>
cre cer</w>
cre ar</w>
cono zco</w>
cier tamente</w>
bˈ il
bʼinch bʼen</w>
bʼe ttoq</w>
aw o</w>
apren de</w>
an h
an emia</w>
an dar</w>
an dando</w>
ac o</w>
Ye kʼun
T KUBʼ</w>
SIGNI FICA</w>
Re paso</w>
Pol onia</w>
Pens emos</w>
K eʼy
Filiste o</w>
EN S
EN CON
Di jo</w>
D ía</w>
D ej
B U
A u
A nuario</w>
4 7
ʼn taq</w>
í b
xo bʼil</w>
wok liˈn</w>
wi le</w>
vay an</w>
tum ba</w>
trope zar</w>
te li
señ ales</w>
saqch an</w>
salv aje</w>
ra d</w>
r en</w>
qu ʼj</w>
pri ori
present aciones</w>
precurs orado</w>
pl í
pedi mos</w>
ofici al</w>
naz i</w>
n kʼwale</w>
mir ar</w>
mi sión</w>
mencion an</w>
mencion ado</w>
laqʼ eʼya</w>
kˈ aˈ</w>
kʼitz qeku</w>
kybʼinch en</w>
ky samaʼn</w>
kx bˈil</w>
kle ta</w>
jyon xa</w>
hall ar</w>
h un
f l
esp ías</w>
es par
envi ar</w>
encar gó</w>
encar cel
edi fic
dej emos</w>
dej ará</w>
corregi r</w>
constan temente</w>
confi aba</w>
come ter</w>
casti g
c es
bˈ alaqa</w>
bʼ ent</w>
ante ye</w>
ant jo</w>
an toq</w>
am ados</w>
agr ada</w>
adr es</w>
Y E</w>
Sim e
S y
Re cor
Nec es
Na amán</w>
N aq
Kʼ I
Kʼ AM
KYANQʼ IBʼIL</w>
J se</w>
J am
G I
F esto</w>
C ada</w>
Bˈ e
Anti gu
A pe</w>
17 ,
14 2</w>
ˈy aj</w>
ʼotx ʼ
ándo los</w>
Ó NI
xit j</w>
x kˈ
wi ˈn</w>
wa ˈyaj</w>
tzi kyˈx</w>
tzalaj xix</w>
ttzʼibʼ ina</w>
tre inta</w>
tradu ci
toj xi</w>
tme ʼl</w>
te cos
tch moʼn</w>
tbʼ e
tar emos</w>
t és</w>
t tzyet</w>
t kanoʼn</w>
solu ción</w>
so f
rol lo</w>
respe tamos</w>
res e</w>
religi oso</w>
relacion ados</w>
ra g
qʼi j
qbʼi ʼne</w>
present ó</w>
poder osos</w>
pi dieron</w>
per segui
pas tores</w>
pan es</w>
ofic ina</w>
obedec emos</w>
neutr ales</w>
nbʼi ye</w>
n qan
n ex</w>
mon ía</w>
minu tos</w>
man da</w>
mal mente</w>
madu rez</w>
kʼ elex</w>
kyx el</w>
kych mil</w>
kybˈ yoˈn</w>
kybʼinch ame</w>
kyaq ile</w>
ky najbʼil</w>
ky la
ky ajbʼebʼil</w>
inten tó</w>
in acti
ikʼ set</w>
habl arles</w>
gus taba</w>
gra tu
gar anti
fa z</w>
f om
en gen
em patía</w>
defec tos</w>
decidi dos</w>
consol ar</w>
compañ ías</w>
chikʼ bʼaʼn</w>
cas ado</w>
cab ezas</w>
c k</w>
b ú
avi ón</w>
arrepenti miento</w>
ad op
ac ci
XIM ANA</w>
X ewbʼaj</w>
Tu r
To dopoderoso</w>
Ti ro</w>
Su s</w>
Qʼon k</w>
Pen tecos
Nin tz</w>
N E
Mari e</w>
M am
Kʼ uj
KUʼX UN</w>
Iky tziˈn</w>
IMAG EN</w>
I Kʼ</w>
Ex pli
Es toy</w>
EST O</w>
All í</w>
ALGUN OS</w>
A un</w>
3 6
1, 7
1 29</w>
1 17</w>
ín ese</w>
tzʼibʼ ine</w>
tz y
trat amos</w>
tom aron</w>
ti qu
tex jo</w>
ten éis</w>
te ʼ
tbʼi yoʼn</w>
t mij</w>
t chʼexpuʼn</w>
sufr e</w>
spi kʼun</w>
ser io</w>
s ok</w>
reb año</w>
re za</w>
re fi
qʼan el</w>
qw a</w>
public ado</w>
piens o</w>
perse ver
permit en</w>
p es</w>
oʼkx ku</w>
naqʼ li</w>
n tzi
n kaw
mé dica</w>
meje ʼ</w>
materi al</w>
maravill osas</w>
manten imiento</w>
lá m
l lu
l ament
ky qan</w>
ky amiw
ktzalaj ela</w>
kaˈy laj</w>
ka ˈ
k m</w>
j toj</w>
invi te</w>
inmor al</w>
i ría</w>
hubi eran</w>
h aré</w>
güen za</w>
gan se</w>
fí jese</w>
fra g
estu vieron</w>
er los</w>
equilibr ado</w>
entr ada</w>
engen dr
empr esa</w>
emo ciones</w>
diri ge</w>
corru pción</w>
consi dera</w>
con v
con for
comuni cación</w>
ciud ad
cil mente</w>
chʼi ye</w>
bˈ yoˈn</w>
bio grafía</w>
ax jo</w>
as ar</w>
am asco</w>
ador arlo</w>
X T</w>
Tesal ónica</w>
TO Q</w>
TA QI
TAQI Kʼ</w>
Ser á</w>
Segun da</w>
Qʼ I</w>
O N</w>
O J</w>
Nuestr o</w>
KY AJ</w>
H is
Fu e</w>
Eli faz</w>
EZ EQUI
EZEQUI EL</w>
ENCON TRAR</w>
E ʼ</w>
D amasco</w>
Cale b</w>
CAMBI Ó</w>
1, 9
1 14</w>
ólo gos</w>
ÓNI CAS</w>
und amente</w>
u ela</w>
trabaj os</w>
tnim saʼn</w>
tch winqil</w>
t qu
t kyˈ
t gantoq</w>
sbʼu bʼil</w>
reg oci
re conoció</w>
re comien
rag ón</w>
r ías</w>
r es</w>
r ar</w>
pájar o</w>
pun e</w>
pu estas</w>
prof undamente</w>
pr a</w>
posi bilidad</w>
pi ro</w>
per io</w>
nu kˈbˈil</w>
necesi te</w>
nbˈinch iˈn</w>
na ve
mili tar</w>
limit aciones</w>
lim pio</w>
le pra</w>
kyu j</w>
ky tene</w>
kw art</w>
ir gu
invi tó</w>
invi ta</w>
in x
in oc
histori as</w>
h ech
fi ca
extr añ
esco gido</w>
esco ger</w>
escla vi
enci al</w>
en vej
egip cios</w>
eci eron</w>
e tzan</w>
doctr ina</w>
chaq ku</w>
car rito</w>
c ro</w>
bʼan tni</w>
bi bli
aʼy ine</w>
atx toq</w>
an un
aj qʼoj</w>
agradeci miento</w>
adul terio</w>
acostum br
acerc ó</w>
S ad
Q yekʼ
Pu es</w>
No sotros</w>
NI Kʼ
Mi ra</w>
L ES</w>
Kw est</w>
I m
ENSEÑANZ A</w>
Des de</w>
Bʼaʼn pe</w>
Bo az</w>
5 8
20 23</w>
14 8</w>
ʼn tzun</w>
y t</w>
xim en
x wit</w>
waqʼun ane</w>
w aʼy
waʼy ij</w>
w al</w>
vol v
val oramos</w>
v ios</w>
tu vimos</w>
trad ucciones</w>
tr om
to mado</w>
tey le</w>
tesor os</w>
terri torios</w>
taj taq</w>
t pas
sue ños</w>
su po</w>
servi cios</w>
serv imos</w>
senti rnos</w>
re comen
pro ve
pri v
pr eso</w>
polic ía</w>
pla ta
pe ta</w>
ob o
n yol
musi cal</w>
mol est
mitiʼ tl</w>
mi bʼan</w>
llev aban</w>
lleg amos</w>
lle gué</w>
llam an</w>
lip che
lep chi
l los</w>
kˈ ul</w>
kʼixbʼis abʼil</w>
kyukʼ ex</w>
ky kaˈyin</w>
ja ban</w>
iz quier
g al</w>
esforz arse</w>
engañ ar</w>
e t
distin tos</w>
di fun
dese aba</w>
descu brir</w>
des can
der nos</w>
depen de</w>
demostr aron</w>
copi ar</w>
comuni dad</w>
cion ario</w>
chˈ intl</w>
bˈi yil</w>
bʼ aʼn
bʼ a
bri o</w>
atz tzun</w>
alab anza</w>
ador an</w>
aconte ció</w>
a ven
Y ES</w>
W eʼ
Re pública</w>
ROM ANOS</w>
RE YES</w>
Oli vos</w>
Ne w</w>
Na ʼn
M E</w>
Luc ía</w>
J en
FI CI
D EMOS</w>
Ca i
CR ÓNICAS</w>
BEN E
Ay ud
Am ós</w>
ABʼ QʼI</w>
2 2
1, 3
Í CU
yup j</w>
y ana</w>
xi pe</w>
vec inos</w>
trat aba</w>
tr en</w>
tor no</w>
tiʼ xix</w>
t amiento</w>
so me
si len
sal va</w>
respe tu
qe xix</w>
qbʼinch an</w>
q paj</w>
q bˈinch
prim eras</w>
pon emos</w>
perió dico</w>
perdon ó</w>
otaq xi</w>
on ar</w>
ok taq</w>
na bʼl</w>
mo di
minis tros</w>
logr ará</w>
lev adura</w>
las f
l pe
imperfec ción</w>
im il</w>
form ó</w>
ez er</w>
ex actitud</w>
estr ic
es en</w>
er ún</w>
enseñ aba</w>
em ón</w>
ech aron</w>
ec ía</w>
deci dieron</w>
decep cion
d ena</w>
cu este</w>
cristi an
cri ti
cre ciendo</w>
conten ido</w>
consi go</w>
compañ ía</w>
ci mientos</w>
ca paces</w>
bʼal umin</w>
be d</w>
aʼ lil</w>
ar que
ar monía</w>
apropi ado</w>
antigu a</w>
amen a
Tr ac
TZAL AJ</w>
TU KʼIL</w>
TO RI
Se gu
SI S</w>
S er</w>
Q bʼinch
Pi ense</w>
Pentecos tés</w>
Par ker</w>
M edi
JYO N</w>
J ac
IN TI
Fil emón</w>
F AMI
Eli ezer</w>
D U
Cam erún</w>
B rit
AQʼ UN
A S
5 6
5 ,000</w>
14 4000</w>
1 25</w>
zon as</w>
x kye</w>
volun t
via jar</w>
ve y</w>
tzʼ il
tzaqʼw en
tzaj nin
tuʼn tzen</w>
ttxˈ otxˈ</w>
tranqui li
tra erá</w>
tpa ˈn</w>
ti ˈy</w>
ter os</w>
ten taciones</w>
tch qˈoˈn</w>
taqʼun bʼen</w>
sufr imos</w>
su yo</w>
sam et</w>
reaccion ó</w>
re un
r í
r ás</w>
r ios</w>
qʼanch aʼ
qu ina</w>
qi x</w>
q s
q ojtzqibʼil</w>
pér dida</w>
prepar arse</w>
pon iendo</w>
po pul
plata forma</w>
peri odo</w>
pe dido</w>
oks lan</w>
obo án</w>
naj in</w>
na jal</w>
mu q
mi ca</w>
man tiene</w>
man dado</w>
li brio</w>
kʼix bʼi</w>
kyn abˈla</w>
ky ximin</w>
k qe
k bʼaʼn</w>
is ta</w>
invi tar</w>
im pedir</w>
hor no</w>
habit ada</w>
ha gas</w>
gus tan</w>
go bi
gobi ern
g ú
ex amin
eter no</w>
esper an</w>
especi ali
escrit as</w>
equi librio</w>
enter ó</w>
ent ía</w>
encant aba</w>
eliz adores</w>
ed n
ech ó</w>
e dades</w>
descu bierto</w>
dej é</w>
cump le
cuar to</w>
con viene</w>
comen zaron</w>
co me</w>
centr o</w>
c alidad</w>
bʼ la</w>
bre ve</w>
bene ficio</w>
ba se</w>
b lasf
ax lo</w>
ateʼ kx</w>
arreg l
ajbʼe bʼile</w>
ajbʼ ena</w>
afir man</w>
adolesc entes</w>
a pe</w>
Ye kʼ
XIM BʼE
Weʼ ktza</w>
Tzʼibʼ inkuxa</w>
T am
Ste ph
SE R</w>
Qʼ oj</w>
QI Bʼ</w>
O ʼNE</w>
Ky xol</w>
KI T</w>
Jer oboán</w>
Ja iro</w>
Il ustración</w>
I mit
HAC ER
G l
FAMI LI
Deb emos</w>
D ar
Con o
Bar z
B r
An t
AYU DA</w>
AL ES</w>
A kʼaj</w>
A caso</w>
A XIX</w>
3 ,000</w>
10 9</w>
1, 6
é tica</w>
ár bol
árbol es</w>
z aba</w>
yol intoq</w>
wp 15</w>
volver á</w>
vic toria</w>
ver güenza</w>
ven ía</w>
tzeˈn qeku</w>
tram p</w>
tpas ensa</w>
to me</w>
tbˈ aj
t kyij</w>
sufri ó</w>
su ele</w>
sinti eron</w>
senci llo</w>
segur amente</w>
santu ario</w>
s mo</w>
respe tarin</w>
re cursos</w>
r ojos</w>
qʼe q</w>
qʼan it</w>
q qʼamanx</w>
q qaninx</w>
pu de</w>
pro mo
pro ceso</w>
pon drá</w>
permi so</w>
perman ece</w>
paj il</w>
p ala
op ina</w>
nue ve</w>
no vio</w>
nim sin</w>
n q
n pone</w>
maravill osa</w>
m ac
lí der</w>
lle guen</w>
li le</w>
kʼujla ʼna</w>
kyi yjil</w>
ky paltil</w>
ky bʼin</w>
izquier da</w>
is a</w>
interes ante</w>
influ ir</w>
i qʼet</w>
hu r</w>
hier ba</w>
hici mos</w>
habl aban</w>
g ani
fr anc
fortal eció</w>
for man</w>
f i</w>
ex acto</w>
est aremos</w>
est ad</w>
escri tores</w>
er i
enten dimiento</w>
descan so</w>
der ía</w>
depor te</w>
dedic ado</w>
de quías</w>
d ragón</w>
cru ci
con quis
comen cé</w>
chaq x</w>
ch os</w>
cal um
ca pit
c amos</w>
c adas</w>
bʼaj ilxix</w>
ayud arte</w>
ar c
anim al</w>
an et</w>
al ter
ad virtió</w>
aconse ja</w>
acab ó</w>
abʼ a</w>
a is</w>
Y olina</w>
X qʼuq
Uʼj inxa</w>
Ton y</w>
Ti quˈn</w>
TIʼJ JU</w>
T TZAJ</w>
Si empre</w>
Se dequías</w>
SO BRE</w>
SE RI
PROF UN
N i</w>
Lo gros</w>
K olil</w>
J teʼ</w>
J bʼal</w>
INTI OS</w>
H ER
Es tas</w>
COR INTIOS</w>
Art hur</w>
A ye
A x
5 0
18 ,
í l</w>
é str
z ación</w>
xnaqʼtz bʼile</w>
xnaqʼtz aʼna</w>
xja lila</w>
wel l</w>
tzalaj toq</w>
tz u</w>
tri w</w>
trabaja dores</w>
tnim in</w>
tkyaqil x</w>
tiʼj ele</w>
ti ni
te les</w>
tchikʼ bʼabʼil</w>
tan ia</w>
t kyaj
sepul cro</w>
satisf acción</w>
sal en</w>
ro manos</w>
reali sta</w>
re du
ra c</w>
qˈol bˈil</w>
qi ˈja</w>
qch winqil</w>
q kʼwale</w>
produ cir</w>
pro stitu
preocup aba</w>
polí tico</w>
perdon a</w>
pas ados</w>
pa ʼne</w>
oy eron</w>
opini ones</w>
o x</w>
najsa ʼne</w>
mul qʼ
medi os</w>
llev amos</w>
lis tos</w>
kʼ an</w>
k naj
in cre
imprimi rit</w>
i qʼin</w>
hay amos</w>
hal lado</w>
fide lidad</w>
f e
ez uela</w>
exis tencia</w>
en d
elimin ará</w>
edn ego</w>
e m</w>
e ju</w>
e jo</w>
dol or
di ario</w>
desafí os</w>
der án</w>
dedic arse</w>
de z</w>
cu lo</w>
confi ables</w>
con fía</w>
comer ci
coment ar</w>
cal le</w>
ca í
bʼan xa</w>
ban dera</w>
aven tur
ari t</w>
al bʼil</w>
ac aba</w>
a tivos</w>
a is
W al
Ven ezuela</w>
U EL</w>
Tr inidad</w>
TE CH
TECH EL</w>
T kyaqil
Su ger
Sad rac</w>
Qʼon tza</w>
QʼUQ BʼIL</w>
Q an
Pro me
Pe ter</w>
O nin</w>
Ni co
Naʼm xtoq</w>
Min is
Mes ac</w>
M lay
M au
Ju dey</w>
Ja el</w>
IN O</w>
I MÁ
Har vey</w>
G ri
DISCURS OS</w>
Ch ris
CH AQ</w>
C OS</w>
Bel s
An ali
Al f
Abiga íl</w>
Ab ednego</w>
20 ,
10 8</w>
1 37</w>
é li
xnaqʼtz aʼnxix</w>
wu tz
wp 17
waj xaq</w>
viv amos</w>
v ari
tzaqʼ we
tzaj il</w>
twu tza</w>
tu mil
tu kˈiy</w>
trat amiento</w>
traduci rit</w>
tna ʼ</w>
tar les</w>
t kˈuˈja</w>
su ʼn</w>
si vos</w>
seri e</w>
sali do</w>
sa d</w>
s ens
s en
religi osa</w>
regis tr
re emp
qʼaj laj</w>
qu kˈa</w>
qop tzʼaj</w>
prim og
pon gan</w>
po se
po sad</w>
person almente</w>
pens é</w>
p ios</w>
oksla bʼl</w>
observ ar</w>
o t
o qxen
mostr ado</w>
mar ca</w>
ma m</w>
loc ales</w>
le ído</w>
kyˈ el</w>
kyqˈ iq
kyqˈiq ˈ</w>
kych moˈn</w>
kybˈinch bˈin</w>
ky yoline</w>
ky xim
ky nikyˈ
ky dios</w>
k asti
j yolte</w>
j tan
invi tados</w>
instr u
inmor ales</w>
ikʼ sabʼil</w>
her ed
hebre os</w>
h í
gobier ni</w>
gobern ará</w>
fuér c
existi rá</w>
espiritu alidad</w>
espa ñ
escuch ando</w>
escribi eron</w>
el ios</w>
educ ar</w>
edi ficio</w>
distr ito</w>
di cia</w>
des apar
der ro
debili dades</w>
d re
cur ó</w>
com ba
cie gos</w>
chi bʼ
ch qˈoˈn</w>
cam p
c ama</w>
bʼi yoʼn</w>
bʼan jtz</w>
bʼ ena</w>
bien estar</w>
bi ó</w>
bauti cé</w>
b en</w>
b asta</w>
ayud arme</w>
au tom
ase yt</w>
as a</w>
ab solu
a tiva</w>
Xnaqʼtz anxa</w>
SAM UEL</w>
S in
PROFUN DIC
PROFUNDIC EMOS</w>
PREGUN TAN</w>
PA SA
Mi q</w>
Mam bʼaj</w>
L es
KYU ʼN</w>
Je hú</w>
JUN JUNTL</w>
In dia</w>
IMÁ G
IMÁG ENES</w>
G aba
Estudi antes</w>
Escri ba</w>
Es tos</w>
ER MAN</w>
EN CIA</w>
Descu bra</w>
Dani èle</w>
D ON
Cor dero</w>
CHʼ I
C risti
B RE
Antigu o</w>
An kye</w>
AN DO</w>
A te</w>
6 9
ẍ chˈin</w>
ʼotxʼ il</w>
ʼn ktza</w>
yol bʼil</w>
xo ˈn</w>
wit lo</w>
verdad eramente</w>
ven gan</w>
ve la</w>
v emente</w>
tw aʼna</w>
ttxk oʼn</w>
tqʼo ja</w>
tme ʼjel</w>
tjunal xa</w>
ti y</w>
tajbʼe bʼil</w>
t empr
soci al</w>
señ ala</w>
senti rá</w>
se pa</w>
ren ov
reemp la
qˈuq le</w>
qʼinu ma
q tx
predic an</w>
pec ar</w>
pa piro</w>
ocup ados</w>
o a</w>
mo r</w>
ministeri ales</w>
ma tarlo</w>
llen os</w>
le y
lar ga</w>
l aja</w>
kˈw ala</w>
kʼiw la
kʼ on
kypa ˈn</w>
kybˈ i</w>
ky kʼujlan</w>
k tz</w>
ju ego</w>
j tal</w>
inten ción</w>
ins tal
imi entos</w>
il las</w>
ikx tzun</w>
ho mo
habl aremos</w>
forma do</w>
ex presiones</w>
eter nidad</w>
esfuer za</w>
enseñ e</w>
elim inar</w>
electróni cos</w>
económi cos</w>
divor ci
difer encias</w>
di vers
dej en</w>
conoc í</w>
conf ían</w>
colab or
ch ʼ</w>
ch inxe</w>
ch ino</w>
ca p
ca i
bʼinch alte</w>
be teli
ax te</w>
ax sa</w>
averigu ar</w>
at aque</w>
ali vi
al qiʼj</w>
a xix
TIʼ CHAQ</w>
T KYAQIL</w>
So lo</w>
SERI E</w>
S AL</w>
Qan inxa</w>
Publi cación</w>
Pakbʼ al</w>
P SIS</w>
Noq wit</w>
N atán</w>
MI ENTO</w>
M EN</w>
Ky jaʼtzun</w>
Keʼy inka</w>
In cl
Gu erra</w>
Ge orge</w>
Es tamos</w>
E se</w>
Dar ío</w>
D a</w>
Cu i
Ch in</w>
CO M
C ALI
CALI PSIS</w>
Bʼ is
Bels asar</w>
Be tania</w>
B ri
APO CALIPSIS</w>
AL A
4 6
2, 9
ʼ mil</w>
és ta</w>
én doles</w>
yaj bˈil</w>
x eʼl</w>
x bʼant</w>
vuel ta</w>
vivi eron</w>
val orar</w>
u le</w>
u la</w>
tzˈ el
tzun x</w>
tzeˈnku ˈ</w>
tra er</w>
tqʼ ojin</w>
tpw aqa</w>
to nia</w>
tn abˈl</w>
tendr ás</w>
tar los</w>
t taq</w>
t able</w>
su s
si entes</w>
segu ían</w>
relacion adas</w>
raí ces</w>
razon ables</w>
qxo pin</w>
quer er</w>
qe ʼ
q jaw</w>
pumal j</w>
pro por
po zo</w>
po tencia</w>
per í
peque ñas</w>
parec en</w>
par cial</w>
pala cio</w>
pa d</w>
orgull osos</w>
or ra</w>
on tza</w>
ofr enda</w>
o ya</w>
no ches</w>
ne gó</w>
n kyqˈmaˈn</w>
much e
mor al</w>
mlay lo</w>
mi te</w>
manda tos</w>
ma ter
lo bʼaj</w>
llev ado</w>
li ya</w>
lengu as</w>
le tz
la tr
l é
l ados</w>
l ada</w>
kʼujla bʼile</w>
kyaqnaj nabʼ</w>
kyaj taq</w>
ky erman</w>
ky abʼqʼi</w>
ku ˈx</w>
iw án</w>
ini cio</w>
i pumalj</w>
i do
ido latr
hu r
hu ir</w>
ho mi
hi st
gi eron</w>
g áis</w>
fom ent
faci lidad</w>
ez co</w>
explic ación</w>
exper im
estr echa</w>
entr aron</w>
ent aq</w>
ejér citos</w>
ej as</w>
edi ción</w>
dí g
dob le</w>
disponi bles</w>
di lu
des preci
demuestr e</w>
corre o</w>
com ete</w>
ch qʼajlaj</w>
cal or</w>
c í</w>
c aron</w>
ayud aría</w>
aq il</w>
amor oso</w>
actú a</w>
actu al</w>
activi dad</w>
aconse j
abo gado</w>
a parte</w>
Yekʼun xa</w>
Tqʼ ama
Ta iwán</w>
TORI A</w>
TA R
Ru b
PA R
O seas</w>
Mintiʼ pe</w>
Le v</w>
Ky mane</w>
Ku bʼ
J ni
Imit emos</w>
H al
Gu ía</w>
Gaba ón</w>
F E</w>
E vangelio</w>
Cor al</w>
BʼINCH AʼN</w>
At toq</w>
Al ab
7 7
200 3</w>
2 ,000</w>
15 1</w>
14 9</w>
1, 5
ẍ kyin</w>
è v
èv re</w>
xo bʼajil</w>
xi xtaq</w>
wi bˈa</w>
ver nos</w>
vent ajas</w>
un te</w>
tzʼ il</w>
tzin jiˈy</w>
ttz yuˈn</w>
tram pa</w>
tom amos</w>
to mar
to có</w>
tnaj saʼna</w>
tkyʼ a
ti tzˈin</w>
terri ble</w>
tbˈinch bˈin</w>
tbʼan il</w>
su a
spit al</w>
skˈ oˈn
sent ían</w>
ru ego</w>
ru e
revis tas</w>
requis itos</w>
reci én</w>
re d</w>
qxo le</w>
qx bʼalun</w>
qon ine</w>
q pan</w>
q bautisarin</w>
proyec to</w>
progr amas</w>
profun das</w>
pens aban</w>
pe da
on to</w>
ol ógi
ocup ado</w>
na cimiento</w>
n tzʼibʼine</w>
n kan
n anqʼintoq</w>
n abˈl</w>
mé todos</w>
mucha cho</w>
mit es</w>
ma ˈ</w>
ma tó</w>
le r</w>
kʼujla m</w>
kyx uʼjil</w>
kytz aq
kytxu ylal</w>
kybʼinch an</w>
ky pasens</w>
ju ven
ja dos</w>
ja bˈ</w>
il ustr
ic ana</w>
hist ó
hab íamos</w>
h echa</w>
fu mar</w>
frag mento</w>
fr acas
f èvre</w>
exis ten</w>
exam en</w>
est áis</w>
ent ero</w>
electróni co</w>
el qʼ
e las</w>
direc tamente</w>
der echos</w>
deci den</w>
confi ó</w>
con vir
con fí
con dena</w>
compa sivo</w>
co dicia</w>
ci ego</w>
ci dad</w>
ch y
cabal lo</w>
c á
bʼi tzin</w>
bʼ yol</w>
atz tzu</w>
ases in
asegur arse</w>
am én</w>
am aban</w>
ad vi
a tura</w>
US TE
Tzʼibʼ inkuya</w>
To más</w>
Ten emos</w>
T kabʼin</w>
Sal mos</w>
SO TROS</w>
S AN
Ro jo</w>
R el
ON I
O tros</w>
Naʼn tza</w>
NO SOTROS</w>
N mane</w>
Le fèvre</w>
LE V
Kʼ elel</w>
Jeho i
Is cari
Incl uso</w>
Evang elios</w>
Escritu ra</w>
Cat ólica</w>
CAN CIÓN</w>
Ayu de</w>
AW BʼIL</w>
AQʼUN TL</w>
14 ,
1 32</w>
1 28</w>
ẍ chʼin</w>
ˈn tz</w>
ˈn jiˈy</w>
ólo go</w>
í nti
w exe</w>
vide oj
vi eja</w>
u s</w>
ttx aʼn</w>
transfu siones</w>
tqʼ abʼa</w>
to dopoderoso</w>
tnim an</w>
tmoj bʼan</w>
tkubʼ len</w>
tbˈ iˈn</w>
tbʼan eltoq</w>
t ísimo</w>
t pona</w>
t klet</w>
subi ó</w>
sor presa</w>
solici tud</w>
senti remos</w>
se áis</w>
se la</w>
represent an</w>
refer encia</w>
qu il
qe tz</w>
qe ku
q qʼonk</w>
q kolin</w>
progres ar</w>
profun da</w>
pregun taba</w>
predic ó</w>
pre para</w>
permit a</w>
parti do</w>
os cu
o quía</w>
nu m
ntzˈi bˈiˈn</w>
nombr ó</w>
noj ni</w>
n meltzʼaje</w>
n kaˈyiˈn</w>
n gantoqe</w>
mé todo</w>
mu tx
mir ando</w>
mej or
m er</w>
lv ania</w>
lim pios</w>
libr es</w>
li b
lf fi</w>
le ˈn</w>
le en</w>
kˈu lin</w>
kˈ ay
kynim an</w>
ky kyˈ
ky chmabʼil</w>
ju pu
itz ˈ</w>
invi taron</w>
inspir ada</w>
indic an</w>
in ku</w>
in ea</w>
imag ina</w>
im puestos</w>
iky ˈ</w>
hospital arios</w>
grie ga</w>
gr o</w>
fá cilmente</w>
fi ja</w>
fi gu
fac tores</w>
f ás</w>
extrem o</w>
ex pul
esti ma</w>
encontr aron</w>
económi ca</w>
ech ado</w>
e ty</w>
du eño</w>
diseñ o</w>
dis positivos</w>
dis cer
dij era</w>
dig it
des obedecer</w>
des gracia</w>
der se</w>
defen der</w>
cump la</w>
cu entan</w>
conf es
comien ce</w>
ch as</w>
cam inar</w>
bˈ aˈn
blan cos</w>
bi r</w>
ayud as</w>
ay ú
auto dominio</w>
ar íamos</w>
aqu es</w>
aq oʼ</w>
apren den</w>
apo ya</w>
ama ʼna</w>
al ej
afir mó</w>
Z ac</w>
Yekʼ inxa</w>
Soci ety</w>
RES U
Nuestr a</w>
Ju d</w>
Jehoi adá</w>
Imag ínese</w>
IS TORIA</w>
Hebre as</w>
H ISTORIA</w>
Gu yana</w>
Gu inea</w>
Fili pos</w>
FICI OS</w>
F echa</w>
EJ EMP
DIC EN</w>
Cai fás</w>
AÑ O</w>
Anti oquía</w>
Abiga il</w>
1 3,
ífi cas</w>
áni co</w>
án tate</w>
á tico</w>
Á S</w>
viol ento</w>
val entía</w>
v ar
términ o</w>
tzma taq</w>
tw aʼlil</w>
ttzaqpi ˈn</w>
ttxk oˈn</w>
trat aron</w>
traduc tor</w>
tori as</w>
tor ment
tna bʼla</w>
tkam bʼet</w>
ti pos</w>
ti kyˈx</w>
ti erno</w>
terri bles</w>
tar me</w>
tab aco</w>
t kyim
sé pti
su pi
sik t
senti miento</w>
sa gr
reuni rse</w>
responsab les</w>
recor dó</w>
ra to</w>
r ostr
rostr o</w>
qˈ in</w>
q waʼn</w>
q keʼyine</w>
profesi onal</w>
pon ía</w>
plan ta</w>
pl acer</w>
pa ga</w>
oí dos</w>
nyekʼ une</w>
ni ñ
na ʼna</w>
mon e
misericordi oso</w>
medic ina</w>
mbr a</w>
man tuvo</w>
lí mite</w>
llam aban</w>
lin cu
kʼul une</w>
kʼam oʼna</w>
kʼ al</w>
kyxo bˈil</w>
kych ikʼ
kyan min
ky xiʼye</w>
ky ximane</w>
ky tzaqʼweʼn</w>
ky man
ky aja</w>
kol il</w>
im puesto</w>
idolatr ía</w>
her idas</w>
hab erse</w>
go z
gan da</w>
gan ado</w>
fin es</w>
extranj ero</w>
estr ella</w>
esclavi tud</w>
erman e</w>
entren ar</w>
entien de</w>
encar gado</w>
en i
em is
di ría</w>
dedic amos</w>
de lincu
cre a</w>
concentr ación</w>
con texto</w>
co r</w>
ci en</w>
chˈ ix</w>
característi cas</w>
capaci tación</w>
c aja</w>
b abil
babil on
az o
ayud amos</w>
ayud aba</w>
au tén
au tor</w>
aqu ello</w>
aplic ar</w>
am pli
al las</w>
al as</w>
ag arr
ad well</w>
ach bʼil</w>
a por
Tz aqʼ
Tuˈn tzintzjo</w>
Ti qu
T y
T er
T AJ
Suger encia</w>
Steph en</w>
Sh adwell</w>
Qʼon xa</w>
PR ES
Minis terio</w>
J us
In vi
HACER LO</w>
H ace</w>
F in
Evang elizadores</w>
E V
D EM
CAN CIONES</w>
An tza</w>
AN TE</w>
1 40</w>
é gu
w0 3</w>
w 99</w>
ven ían</w>
ve ían</w>
tzʼ is</w>
tkʼ aʼn</w>
tja witz</w>
tiˈj ile</w>
tini eb
tinieb las</w>
ti bˈa</w>
tempr ano</w>
t jyona</w>
sinago gas</w>
ser ás</w>
sac arle</w>
s óli
recha zó</w>
re vela</w>
raí z</w>
qw aye</w>
quisi era</w>
que dado</w>
qi ʼne</w>
public ó</w>
prem o</w>
pl ena</w>
peligr oso</w>
on dr
om orra</w>
ocrá tica</w>
o bˈa</w>
neʼ ẍ</w>
nego cios</w>
n yekˈ
n kʼamoʼne</w>
mo dos</w>
mi bˈin</w>
ma taron</w>
m y
loc al</w>
le ones</w>
le j
kˈ a
kyqˈ maˈn
kyim el</w>
kyi bˈajjo</w>
ky tzi
ky txʼotxʼ</w>
ky ajbʼ
kasti y</w>
ju eces</w>
is in</w>
im presión</w>
im pr
ig nor
human as</w>
hospit alidad</w>
honr ados</w>
herman dad</w>
gus tó</w>
gr ano</w>
fundament al</w>
franc és</w>
fic ados</w>
fal so</w>
expuls ado</w>
ex pec
espo sos</w>
epi dem
enfrent arse</w>
enfrent ar</w>
eli gió</w>
egoís ta</w>
e wix</w>
e os</w>
defin ido</w>
de prim
d ada</w>
compor tamiento</w>
chʼix taq</w>
chʼexpu ʼne</w>
chy uʼj</w>
ch it
cas ó</w>
bˈ lin</w>
bˈ inte</w>
ban quete</w>
aver gon
asig naciones</w>
ar ru
apren da</w>
apaci bilidad</w>
an nica</w>
ad mir
abu r
Tzʼ onina</w>
Trac t</w>
Su curs
Si gamos</w>
Sant ya
S ON
S ER
Q eʼ
PER SON
Or gani
NA ʼN</w>
N aj
Ma pe</w>
L le
L AN
Ku kxpe</w>
Inter nacional</w>
H arán</w>
H amán</w>
G omorra</w>
F or
Encycl opedia</w>
ENS ES</w>
E c</w>
DI U</w>
DE B
DA TOS</w>
D ESP
Cono zca</w>
C lau
Brit annica</w>
Bo b</w>
BENE FICIOS</w>
As amb
4 5
3 3
2, 8
1 22</w>
É ufra
Éufra tes</w>
Á N</w>
xo bˈa</w>
xma yil</w>
w anqʼine</w>
ver sidad</w>
ven cido</w>
us emos</w>
ul g
ulg aria</w>
tzaj xix</w>
tu gal</w>
tu a</w>
tn ej</w>
tchikʼ bʼaʼna</w>
ta ˈ</w>
t ó
super vis
silen cio</w>
segui rá</w>
ro mpi
recibi rá</w>
re conocen</w>
que br
q pwaq</w>
q pon</w>
pu se</w>
pr ínci
pr e</w>
permi tir</w>
per na
pe dí</w>
pas ajes</w>
pas aje</w>
parti cular</w>
oˈkx jo</w>
otx jo</w>
os ta</w>
ocurri rá</w>
nu kʼ
ni v
ni ky
neces aria</w>
naj liya</w>
muq bʼil</w>
mue ve</w>
mu darse</w>
llev arnos</w>
llam arin</w>
l aje</w>
kˈu l
kʼok eltoq</w>
kyxol xa</w>
kykʼ aʼn</w>
kyk am
ky kʼujl
juʼ ẍ</w>
j es</w>
inici ativa</w>
ini cu
in u
in t</w>
ik xix</w>
f am
f all
estu vieran</w>
estable cido</w>
esco gió</w>
ent err
engendr ó</w>
ener gía</w>
en vía</w>
en de</w>
el em
ech ar</w>
distin gui
destru irá</w>
desarrol lar</w>
des ánimo</w>
de tenga</w>
de le
d ara</w>
cuer pos</w>
cristian ismo</w>
cre to</w>
contr a
cont amin
con stitu
cli c</w>
cat ólico</w>
cas co</w>
calum ni
ca e</w>
bˈ injiˈy</w>
bur go</w>
bri ll
br in
aq ˈnin</w>
an ta</w>
ali le</w>
al erta</w>
acerc ará</w>
acep tado</w>
acci dente</w>
X JE
W aj
V amos</w>
Ti enen</w>
Santya w</w>
SO L</w>
Res puesta</w>
RE G
Q YOLIN</w>
Por tugal</w>
Ori ente</w>
Ojtzqi ʼn
Na die</w>
Jni ʼ</w>
Jaku lo</w>
J yo
IN TER
HER MAN
Expli que</w>
D er
Ca perna
BÍBLIC AS</w>
B ulgaria</w>
An anías</w>
A gar</w>
6 00</w>
éndo lo</w>
á sti
xja ljo</w>
x tzun</w>
wit ju</w>
winq lale</w>
w aˈl</w>
vesti do</w>
val le</w>
utili zó</w>
un gido</w>
tzeʼn xix</w>
tzaj tzun</w>
tzaj lo</w>
ts bʼ
trom peta</w>
tqʼuq bʼil</w>
tok xa</w>
til oʼ</w>
tien das</w>
ten dencia</w>
te or
tbʼinch et</w>
taq l</w>
t émonos</w>
t yaj
t mejebʼle
tmejebʼle ʼna</w>
t kʼamoʼna</w>
t jyon</w>
t emp
su i
sui ci
sor dos</w>
son ido</w>
sol dado</w>
si bles</w>
senten s</w>
rum bo</w>
respe ta</w>
res plan
recomien da</w>
recibi rán</w>
qued aba</w>
q xi</w>
q qanine</w>
q muj
pó crit
primog énito</w>
pre fer
pr est
pon ernos</w>
piens en</w>
pa tri
ofreci eron</w>
ocul tismo</w>
n xjel
n tqanin</w>
n elpe</w>
n aje</w>
má quina</w>
lí mites</w>
lu m
llen ó</w>
ll anto</w>
laqʼ eʼye</w>
lan dia</w>
l ana</w>
kyx bˈ
kytx laj</w>
kyqˈ on
kyqˈ obˈ</w>
kyi xkˈ
ku ẍe</w>
k ar
juven tud</w>
jun tas</w>
jud ía</w>
inten so</w>
in kuy</w>
in justo</w>
i ˈ
i yen</w>
fun ción</w>
fu ri
exper to</w>
espec ífico</w>
escri ba</w>
er e</w>
en l
e ˈy</w>
dor mi
di án</w>
destac a</w>
demostr ando</w>
de le</w>
de di
de cí
d ense</w>
crí ticos</w>
cr é
bˈe ta</w>
bˈ it</w>
bʼa ʼntoq</w>
bʼ eta</w>
busc ó</w>
bu r</w>
b rió</w>
b el
at as</w>
am an
ali g
adap tarse</w>
acercar nos</w>
abandon ar</w>
a fuera</w>
XI LEN</w>
Tz iyen</w>
Tur quía</w>
Tqʼama tl</w>
TXʼ OL
TXʼOL BʼABʼIL</w>
T ho
T ar
So f</w>
Se ol</w>
S EN
Qyekʼ inx</w>
Qeʼ k</w>
Q XIMEN</w>
Prome tida</w>
PASA DO</w>
P LI
Mej ore</w>
Mar y</w>
L au
Ky qʼon
KY KʼUʼJ</w>
Jyo ʼnktza</w>
Jo el</w>
HE BRE
H ades</w>
G OS</w>
E xsin</w>
D u
Cor é</w>
Chʼ ex
CON VER
At lo</w>
Aqu í</w>
AN I
A B
19 18</w>
15 ,
ˈ mj</w>
á monos</w>
á i</w>
y ing</w>
xo ch</w>
xnaqʼtzan x</w>
wanmi ˈn</w>
vuel van</w>
vivi rá</w>
vi ejo</w>
ver se</w>
ve inte</w>
vali osos</w>
v é
uq in</w>
uni vers
tyekʼ una</w>
tr aj
tqˈ oˈn
tnim ana</w>
tey ile</w>
ten tes</w>
tem ores</w>
tch ewix</w>
tbˈ inte</w>
t ían</w>
t muro</w>
t le</w>
sé ñ
spi ca
secre tario</w>
san o</w>
s ante</w>
ris a</w>
ri o</w>
respon dieron</w>
reg ún
ra m</w>
qˈ ij
qʼinuma bʼl</w>
qok lene</w>
qbʼi tzin</w>
q tzaqʼweʼn</w>
q atzin</w>
proteger á</w>
propor cion
pres os</w>
prepar arnos</w>
pregun tarnos</w>
po str
plen amente</w>
plan te
pl ant
perí odo</w>
permi tido</w>
pens amiento</w>
pas ense</w>
p una</w>
op ciones</w>
ojqel an</w>
obst áculo</w>
nya tzin</w>
nu mer
nu be</w>
novi a</w>
ner vi
ne tz
na do</w>
n xnaqˈtz
n naʼj</w>
n kʼwaʼle</w>
multi tudes</w>
mulqʼ aj</w>
muche dumbre</w>
mor imos</w>
mo des
modes to</w>
m ara</w>
lol qe</w>
lo ˈn</w>
ll ying</w>
l ando</w>
kytz yuˈn</w>
kyibˈ aja</w>
kyi pun</w>
kychikʼ bʼaʼn</w>
kych i
ky naj</w>
kan un</w>
k taq</w>
k in</w>
jus ta</w>
jni ˈ
j tze</w>
in va
ic k</w>
h er</w>
gobiern e</w>
gar ant
fru ta</w>
for ni
f as
existi r</w>
exac ta</w>
estable ció</w>
er les</w>
enfrent amos</w>
emocion ante</w>
egoís tas</w>
du l
di rán</w>
destru ida</w>
decidi mos</w>
d ándole</w>
cumpli eron</w>
culp ables</w>
cul to</w>
cu bier
crey entes</w>
cono zca</w>
confir ma</w>
con ci
com prob
co bre</w>
cic lo</w>
ch ej
caus an</w>
c ent
bˈ iljo</w>
bu llying</w>
bre vemente</w>
babilon ios</w>
atr e
at ado</w>
aqˈ ni
anun cio</w>
am on
am en</w>
alu ˈmj</w>
al mac
agrad ec
ador aban</w>
adic ción</w>
ad qui
a tl</w>
VER DAD</w>
Uni versidad</w>
USTE D</w>
Tz aj
Tu kʼil</w>
TU L</w>
SAL MOS</w>
R ita</w>
Pu erto</w>
P regún
P W
On és
OK LEN</w>
O h</w>
N at
Mi tiʼ</w>
Mi ch
M ina</w>
Kʼ onil</w>
Ken ia</w>
K i
Ja w
J yon
FE LI
F ij
En séñ
En contr
Chʼix mi</w>
Chʼex paj</w>
Chi pre</w>
CONVER SA
A ˈ</w>
200 6</w>
17 5</w>
í fica</w>
ác ter</w>
yol bˈin</w>
x ti</w>
w Ajaw</w>
vuestr as</w>
vuel ven</w>
ven drán</w>
us aron</w>
trabaja dor</w>
trab aja</w>
tr á
to man</w>
to car</w>
tl oʼn</w>
ti tzʼin</w>
tbˈan il
t qeʼ</w>
t ma</w>
sirvi ó</w>
sincer idad</w>
simb ólico</w>
sbˈ uˈn</w>
saq xix</w>
samarit ano</w>
s ín
ri do</w>
revel ó</w>
ren cor</w>
reb eli
qˈaqˈ in</w>
qʼol te</w>
qqʼ abʼ</w>
q chʼexpuʼn</w>
públi cos</w>
produc tos</w>
predic aba</w>
pre juicio</w>
posi tivas</w>
posi bles</w>
polí ticas</w>
plan e
pi a</w>
perdon ado</w>
p ej
on ías</w>
ol in</w>
oksla bʼile</w>
ok lo</w>
ofrec en</w>
o pe</w>
o li
nim set</w>
ni qayin</w>
naqʼ ete</w>
naj sama</w>
n xiˈy</w>
mí nimo</w>
mostr arles</w>
mis terio</w>
madu ros</w>
lu ˈ</w>
llev ando</w>
levi tas</w>
levi ta</w>
le o</w>
kʼwaʼ l
kʼwal x</w>
kyx jelin</w>
ky naj
ky jyon</w>
keʼy il</w>
kbʼ eltoq</w>
k ne
k ch
k bˈajil</w>
jaʼ le</w>
jaw je</w>
invi tamos</w>
inten ta</w>
inte lig
inclu ir</w>
im e</w>
i w</w>
hur ac
g ando</w>
fin ales</w>
fav or
ew aj</w>
estr a</w>
españ ol</w>
escuch an</w>
es encial</w>
ern es</w>
er emos</w>
encu entro</w>
embar az
em a</w>
dilu vio</w>
di estra</w>
des aparec
de terminar</w>
d ental</w>
célu las</w>
cump len</w>
cu antos</w>
cre o</w>
corre r</w>
confi emos</w>
comun es</w>
compar ación</w>
c ana</w>
blan co</w>
bautizar me</w>
bas tante</w>
asegur arnos</w>
ar mas</w>
ab e
a prueba</w>
Ver sión</w>
U s
TZʼ ONIN</w>
TXʼ O
TXʼO TX
TXʼOTX ʼ</w>
TI MO
TIMO TEO</w>
TE NI
T ok
T kabʼ</w>
Sof onías</w>
Sin a
Re v</w>
Re p</w>
Po dría</w>
PR IN
PRIN CI
PAK BʼABʼIL</w>
PA Í
P res
Mi rad</w>
Ma dián</w>
MAR COS</w>
M ac
Li p</w>
Les li</w>
L ine</w>
KʼI W
Jun tl</w>
Jes é</w>
Jaco bo</w>
Jac k</w>
Iky tzin</w>
Ik ju</w>
Haz te</w>
Ha b</w>
ES TE
ENSEÑANZ AS</w>
CONVERSA CIÓN</w>
CO S
8 9
8 0
7 9
2, 6
19 ,
16 0</w>
1, 4
ˈ tz</w>
yo len</w>
xi xe</w>
weˈk s</w>
wa k
wak ẍ</w>
w aˈl
vi les</w>
us aban</w>
uestr e</w>
tu ja</w>
transmi tir</w>
tranqui lo</w>
tranqui la</w>
tra ten</w>
tqʼ inu
tku bʼil</w>
tiʼ xti</w>
t yekˈ
t y
t nikʼe</w>
su al</w>
sac ó</w>
rom p
ri b
regres ó</w>
r íamos</w>
r la</w>
qˈ maˈn
qs qix</w>
q kʼulbʼil</w>
q bʼete</w>
prostitu ta</w>
profeti zó</w>
pro w</w>
pre dica</w>
poder osa</w>
pareci das</w>
ote q</w>
op ti
ojtzqi lte</w>
ofr endas</w>
obedeci ó</w>
obede ce</w>
nu tri
nu kʼuʼn</w>
nu kʼun</w>
ntzi ke</w>
nlay x</w>
nim i
naj l</w>
muri era</w>
mo tiva</w>
min aj</w>
mejebʼle ʼne</w>
ll amente</w>
le za</w>
le yó</w>
laj oˈn</w>
la ˈ</w>
kʼ ant</w>
kyˈiw lin
kyuw xix</w>
kyil bʼilal</w>
kyi j
kybˈ inte</w>
ky oks
k jawitz</w>
je le</w>
j otxjo</w>
investig ación</w>
inacti vos</w>
in justos</w>
il o
ik toq</w>
i qʼ
i d</w>
histori ador</w>
habl arle</w>
h im
físi cas</w>
fortal eza</w>
fo tos</w>
eˈ chil</w>
estudi amos</w>
er ro</w>
entre vis
enten día</w>
enseñ arle</w>
enfrent ó</w>
enfrent an</w>
el le</w>
dig na</w>
dic es</w>
deci rse</w>
crit os</w>
compren de</w>
ci tas</w>
ch inx</w>
cer em
camp amento</w>
bʼan te</w>
bendeci rá</w>
bas a</w>
b es</w>
b al
at pe</w>
asig n
ase gú
arri es
arrep inti
ami ga</w>
ambi a</w>
alkye xix</w>
alegr e</w>
al oj
ad ministr
actu ali
Timote y</w>
Ti ˈtzin</w>
TI CO</w>
TBʼAN T</w>
Sy l
Soci edad</w>
Ri co</w>
Re g
Qbʼinch anku</w>
PW AQ</w>
P an
NU EV
Mich ael</w>
M onte</w>
KʼAM OʼNE</w>
Kar en</w>
Imag in
G er
E xi
C i
Be t
Al tísimo</w>
Ab salón</w>
AYU DA
A mé
7 000</w>
5 9
28 ,
200 8</w>
17 8</w>
14 4,000</w>
ẍ mejeʼ</w>
úni cos</w>
ó set</w>
ífi cos</w>
é lix</w>
yaj xi</w>
xqʼuq ink</w>
xja tz</w>
xit jo</w>
x janxix</w>
we b</w>
w 00</w>
volv í</w>
vi siones</w>
v as
v ar</w>
un em</w>
tí tulos</w>
tziy bʼil</w>
tzi kyˈ</w>
ttzaqʼ we
tri go</w>
tra e</w>
ton el
toks la
tn an</w>
tkyaqil xjal</w>
tkyaj in</w>
ti bˈ
ten x</w>
ten ta</w>
tch man</w>
tch kyˈel</w>
tbʼe ya</w>
tbʼ aqʼ</w>
tab leta</w>
t tzˈibˈin</w>
t te</w>
t si
t lugar</w>
t kyˈiw
sik te</w>
señ ora</w>
ser é</w>
segui do</w>
se pan</w>
sabi endo</w>
s kʼ
s at
respe tan</w>
res pi
regi onal</w>
qˈin in</w>
qok lin</w>
qkʼ aʼn</w>
qamiw en</w>
q tziyen</w>
q qˈoˈn</w>
q lol
pi diendo</w>
perdon e</w>
per dieron</w>
pelícu las</w>
p ese</w>
p el</w>
olvi dar</w>
o í</w>
o z</w>
ntzˈi bˈinjiˈy</w>
nqˈ maˈn
nim el</w>
ni jabˈ</w>
nej ni</w>
n tx
mun di
mundi ales</w>
motiv ó</w>
mens aj
mencion ada</w>
men es</w>
mad era</w>
lí n</w>
lol te</w>
lleg ara</w>
liter al</w>
limpi eza</w>
le k
lad ri
la qʼet</w>
l un</w>
kˈ al</w>
kyx oʼn</w>
kyok a</w>
kykaˈy iˈn</w>
kyech el</w>
ky kʼulbʼil</w>
kle te</w>
k chʼi
kchʼi yil</w>
k aj
ja te</w>
it í</w>
irgu istán</w>
ins ens
im pu
im pac
iky qe
ibʼ jal</w>
habit ación</w>
gu err
fu ria</w>
fortal ecen</w>
fij ó</w>
ex cep
ex a</w>
estab ilidad</w>
esco gidos</w>
enfer m
empez amos</w>
ejemp lar</w>
edi ficios</w>
e gas</w>
dé cadas</w>
distan cia</w>
dig nidad</w>
destru yó</w>
dese ando</w>
descu bri
deb o</w>
cul turas</w>
cuer da</w>
cre yeron</w>
cos tó</w>
corri endo</w>
conoci da</w>
conflic tos</w>
col oc
circunci sión</w>
cer cano</w>
car ácter</w>
cal les</w>
bʼ aje</w>
br o
bondad oso</w>
aument ar</w>
as u
arr est
ar ero</w>
apren dan</w>
anunci ó</w>
anali za</w>
am emos</w>
ag as
advi erte</w>
ad ez</w>
acerc aron</w>
acep te</w>
ac el
ac a</w>
Z im
Ta a</w>
TENI DO</w>
Sucurs al</w>
Sina í</w>
Si dón</w>
SI EM
SIEM PR
SIEMPR E</w>
S unem</w>
Pue des</w>
PAÍ S</w>
On bʼil</w>
Ojtzqi ʼntoq</w>
O tra</w>
Nab ot</w>
Min tiʼtoq</w>
K lolqe</w>
K irguistán</w>
Il toq</w>
Hal lo
HEBRE OS</w>
H E</w>
Gri egas</w>
G i
F élix</w>
F OR
Es taba</w>
EJEMP LO</w>
E cu
Do min
DE CI
D or
Bʼinch ama</w>
B at</w>
Ale jan
A ris
A qine</w>
8 6
2, 4
1 Te</w>
1 13</w>
ˈ taq</w>
érmin os</w>
Í TICO</w>
w2 20
vuel tas</w>
voc es</w>
vide o
video conferencia</w>
ver los</w>
u m</w>
tzyu ʼn</w>
tze ʼntoq</w>
tx iˈy</w>
tw uqin</w>
trat ando</w>
traduc e</w>
tradu cir</w>
trabaja ba</w>
tqˈuq bˈil</w>
to ph
toph er</w>
tkyʼa jal</w>
tel toq</w>
tbˈan ilxix</w>
t yu
t nikyˈ
símbo lo</w>
super fici
su ya</w>
spica cia</w>
so mbra</w>
skˈ oˈn</w>
si d
sem an
salv ará</w>
s ana</w>
refer ía</w>
recuer dan</w>
rebeli ón</w>
qmoj bʼan</w>
q nikyˈ</w>
q kʼuʼn</w>
prote gió</w>
predic ado</w>
per s
par ed</w>
p á</w>
ostr emos</w>
oscu ridad</w>
ok xi</w>
oj tzq
oblig ación</w>
o x
niv el</w>
nimi ento</w>
necesit en</w>
nchi ʼj</w>
naʼm xtaq</w>
motiv ación</w>
mostr ando</w>
men tir
meje bˈlin</w>
mar ch
madu ro</w>
li wey</w>
l on
kʼul il</w>
kytz aqˈwin</w>
kyqʼ ama
kyok liˈn</w>
kyi pumale</w>
ky ximbʼetze</w>
ky bautisarin</w>
ku ye</w>
k ten
k il</w>
jus tas</w>
jo ven
inte gri
integri dad</w>
in gen
impresion ante</w>
impr esc
impresc indi
il le</w>
ikx witju</w>
honr adez</w>
hacer me</w>
guí e</w>
guar da</w>
grit ó</w>
gri pa</w>
grati s</w>
g es</w>
g ast
fier en</w>
ez can</w>
ez an</w>
expuls arin</w>
exam inar</w>
evi dente</w>
esta tua</w>
esper aban</w>
entre gado</w>
emp eño</w>
e vang
dur mi
discer nimiento</w>
descar gar</w>
descans ar</w>
dej es</w>
dedic an</w>
cuer nos</w>
cu ri
cre ído</w>
cono zcamos</w>
con ta
comien za</w>
co lum
chˈ iy</w>
caus ado</w>
car re
bˈi siˈn</w>
bˈ j</w>
bʼiy bʼil</w>
bʼiy bʼel</w>
bʼitz il</w>
bʼe til</w>
bási cas</w>
bus car
bra ille</w>
b lemente</w>
autom ó
anqʼ in
anim amos</w>
am ando</w>
ali vio</w>
al qe</w>
agas car</w>
ador aba</w>
acti tudes</w>
aconte cimientos</w>
acab aba</w>
abund ante</w>
a turas</w>
YEKʼ IN</w>
Xqʼuq ink</w>
V en</w>
UN I
Tzʼ elx</w>
Tiʼ tzulo</w>
TIL IL</w>
T érminos</w>
Signi fica</w>
Ser món</w>
PRINCI PI
PREGUN TA</w>
PO DEMOS</w>
PA CI
P at
NA CI
N KʼAMOʼNE</w>
Men cione</w>
Mad agascar</w>
K pol
GU I
Fij émonos</w>
Es tonia</w>
Eli ja</w>
Cre es</w>
Co rea</w>
Chris topher</w>
Bˈe ˈx</w>
Al ber
A z
A gripa</w>
7 8
6 07</w>
4, 8
29 ,
200 2</w>
2, 3
2 50</w>
19 58</w>
16 5</w>
ẍ chˈ
én donos</w>
ár selo</w>
ÍCU LO</w>
z ambi
zambi que</w>
yo ˈn
y abʼ
xjel in</w>
w naq</w>
vivi remos</w>
vesti dos</w>
ver án</w>
ven cer
tzˈi bˈin
tzʼ aqʼunan</w>
tzʼ ajbʼena</w>
tzaj ni
tw aʼn</w>
tur b
ttzaj xix</w>
ttz yuʼn</w>
tten ju</w>
tram pas</w>
tor mento</w>
tok xtaq</w>
to mando</w>
tili lx</w>
ten cias</w>
sorpren de</w>
si chʼ</w>
senci llamente</w>
satisf echos</w>
s ad
sad uc
romp er</w>
ries go</w>
reuni ó</w>
resuci tados</w>
res i
regu lar
regular mente</w>
reflexi onar</w>
recuer dos</w>
rechaz an</w>
reaccion ar</w>
re velación</w>
ra ci
r genes</w>
qˈan pwaq</w>
qˈan ch
qʼuq lixix</w>
qʼoj el</w>
qan qʼibʼile</w>
q tembʼil</w>
priv ado</w>
preocup ados</w>
pregun tarle</w>
pon ían</w>
pla ga</w>
pier da</w>
pe tzin</w>
parti ó</w>
p aq</w>
oʼ ye</w>
on in
ojtzqi ˈn
og le</w>
o re
no vios</w>
nim aʼ</w>
ne th</w>
ne as</w>
naˈm x</w>
n y</w>
n paʼne</w>
n n
n anqʼina</w>
multi media</w>
man us
mag n
leg ales</w>
le le</w>
l wey</w>
l aridad</w>
l am
kyman xe</w>
kyja ye</w>
kyixkˈ oj</w>
kyikʼ en</w>
kyi le</w>
ky soldad</w>
ko x</w>
kbʼ elex</w>
k aj</w>
jupu ʼn</w>
j r</w>
is te</w>
in fec
impul sa</w>
hi ri
hi pócrit
hab lo</w>
ha z
gl ob
fortal eci
form ada</w>
extraordin aria</w>
end ario</w>
emocion ales</w>
eb ec</w>
dud ar</w>
disfru tamos</w>
diri g
di ablo</w>
descu brió</w>
desanim ados</w>
des obediencia</w>
demostr aremos</w>
deci da</w>
de v
cuán tas</w>
cui dará</w>
cui dar
cose cha</w>
cor responde</w>
contr ola</w>
contr o
consul tar</w>
consi ste</w>
conmo vió</w>
come temos</w>
com partir</w>
com para</w>
ci ta</w>
caus ar</w>
cat ólica</w>
cal endario</w>
c ro
bˈinch it</w>
bʼis bʼajil</w>
bel leza</w>
b óset</w>
b aja</w>
ayud ante</w>
atac ar</w>
asi entos</w>
as im
ar di
aqe jo</w>
aq oʼye</w>
ap enas</w>
anc la</w>
ami s</w>
al tura</w>
acab e</w>
a tivo</w>
a di
a bʼaj</w>
U so</w>
U rías</w>
Te y
TU ʼN
TES TI
T ab
T RI
So y</w>
S en
Res u
Qu ebec</w>
Po co</w>
OB TENIDO</w>
O s</w>
Mo zambique</w>
M er
LEV ÍTICO</w>
L ament
Ky diose</w>
Ken neth</w>
KY OKLEN</w>
J toj</w>
H el
H I
Go ogle</w>
Gl oria</w>
Es a</w>
E F
D eci
D AS</w>
Ch j
C entr
A cep
9 00</w>
2, 7
2 14</w>
ʼj ele</w>
xi tziˈn</w>
xi tin</w>
vi ajes</w>
ve dad</w>
tzʼ aqa</w>
tzu ltoq</w>
tz ye
ttzaj len</w>
traduc tores</w>
tnim sin</w>
tla qʼoʼn</w>
tiqu ʼntzun</w>
ti tzˈ
ti puna</w>
ti erras</w>
ti camente</w>
ter ía</w>
ter a
tech o</w>
tab la</w>
t li
t consej</w>
t aqʼunal</w>
t adas</w>
suce dido</w>
subi r</w>
spi kyˈin</w>
signific an</w>
si va</w>
satisf acer</w>
sam ante</w>
sabi as</w>
s pad</w>
s ame</w>
rein ado</w>
regu laridad</w>
regres aron</w>
re quiere</w>
qx eˈchil</w>
qi bʼaj</w>
qbʼinch ante</w>
q bˈinchin</w>
pu ri
prác tico</w>
produc to</w>
produc en</w>
prision eros</w>
pregun tado</w>
po b
perman ente</w>
pe día</w>
patr ón</w>
par on</w>
p si
p inter
on intoq</w>
ob s
nor malmente</w>
nkan oʼne</w>
nim inte</w>
nim a</w>
necesit as</w>
naj le</w>
n tzalaje</w>
muer en</w>
moj eʼya</w>
mo der
mili la</w>
mi cr
manif est
man tenemos</w>
ma go</w>
ma el</w>
lle ve</w>
lepchi qeʼk</w>
le pro
laj xi</w>
l abˈ
kʼujla ʼne</w>
kyxol xjal</w>
ky xim</w>
ky xi
ky chʼixwi</w>
ky chʼixpuʼn</w>
kubʼ tzun</w>
ku xix</w>
ju bi
jaw toq</w>
ja j
j ine
jine tes</w>
investig adores</w>
inspir ación</w>
inmens o</w>
in voc
in d
imag inar</w>
im é
ij aj</w>
ho gares</w>
here darán</w>
hab rían</w>
gui ar</w>
gr a</w>
fuérc ese</w>
fi que</w>
fal le
f res
f lo
ex cu
etz al</w>
establec er</w>
esca par</w>
entre gar</w>
en os</w>
empez ado</w>
eli x</w>
eli le</w>
dur ó</w>
disfru tan</w>
direc tor</w>
digit al</w>
di to</w>
di cha</w>
di aria</w>
destr o
desti no</w>
des esper
debi lidad</w>
da ños</w>
cumpli ría</w>
cul tad</w>
convi erte</w>
converti rse</w>
consider ado</w>
con s
com pe
co cin
ciudad anos</w>
chʼix tl</w>
chit j</w>
caus as</w>
capaci tar</w>
bʼinch en</w>
b abu
au to</w>
ap las
ante pasados</w>
anim an</w>
alig no</w>
agrad an</w>
ac ceso</w>
a fri
V í
V o
T AL
Ser vicio</w>
S é</w>
S O</w>
RI O</w>
Q Eʼ</w>
Prim ero</w>
P al
OR ACIÓN</w>
O b
Noq pe</w>
N I</w>
Ky kʼujl
KY E
K u</w>
J aʼ
J as
J anet</w>
Iscari ote</w>
Is mael</w>
In tente</w>
EN TA
EN E</w>
DON ACIONES</w>
C ab
Bʼ inxa</w>
Apren damos</w>
Aj tzun</w>
Aj bʼen</w>
A tz
5 5
1 16
égu ele</w>
z aban</w>
x eʼ</w>
wi kʼ
we en</w>
wamiw bʼile</w>
w0 2</w>
vu l
vers ario</w>
vent ana</w>
v entan</w>
us en</w>
us aba</w>
términ os</w>
tzaʼn j</w>
tzaqʼwe ʼne</w>
txal paja</w>
twutz bˈiyil</w>
ttzaqʼwe ʼna</w>
tqˈ an
tom emos</w>
tnu kˈbˈil</w>
tkyim lin</w>
tij in</w>
tien de</w>
ti bˈajjo</w>
t ʼ
t yabʼ</w>
t chʼ
su stitu
ste is</w>
sikt leʼn</w>
servi do</w>
san e</w>
sa ica</w>
ru tina</w>
rin am</w>
ri v
resul te</w>
resuci tará</w>
respon da</w>
refle ja</w>
re pe
qˈan it</w>
qʼuq bʼaʼne</w>
qʼo ʼntoq</w>
qʼ mante</w>
qui se
qu q</w>
qu ito</w>
qu ej
q kʼwaʼle</w>
pudi mos</w>
profun di
pi t</w>
perten ece</w>
persever ancia</w>
perman ec
pendi entes</w>
organiz ado</w>
or en</w>
or al</w>
oc é
nnim ane</w>
nim il
ne y</w>
naj set</w>
n xim
n teˈn</w>
n chʼexpuʼne</w>
n bautisarine</w>
mor ir
mo v
mo saica</w>
mitiʼ taq</w>
mer ecen</w>
mel ay
man tienen</w>
m el</w>
lu ʼ
logr é</w>
lleg ada</w>
limpi ar</w>
levant ará</w>
l onte</w>
l aq</w>
kywi ˈ</w>
kyqˈ oˈn
kyna ˈn</w>
kykyaqil xjal</w>
kybʼinch ante</w>
kyanmin xjal</w>
kyamiw en</w>
ky tzʼibʼen</w>
ky tzaqpiˈn</w>
ky posad</w>
ky me
ky chjoʼn</w>
kaʼ yin</w>
k i
jun in</w>
jiky in</w>
ins cri
in g
imé lec</w>
ile qˈ</w>
i e</w>
hu mill
fic ó</w>
extraordin ario</w>
expul sión</w>
experim ent
esfor zó</w>
enseñ aron</w>
en toq</w>
empi ezan</w>
em in</w>
egoís mo</w>
ech an</w>
du reza</w>
du ele</w>
diver siones</w>
dis positivo</w>
des pier
de tuvo</w>
de jaba</w>
da os</w>
cumple años</w>
cu e
consider an</w>
conoc ían</w>
con fun
compar ar</w>
cl imá
cheˈ w</w>
caí da</w>
car ritos</w>
c anos</w>
c aba</w>
bˈi ˈn
bʼan ix</w>
bebi da</w>
babu e</w>
aˈ lx</w>
axix tok</w>
avi s
ato ʼye</w>
at ar
as en</w>
arc ángel</w>
ar chi
aqʼ bʼil</w>
ani e</w>
an teˈ</w>
amen az
aj toq</w>
abʼ qʼi
ab ierto</w>
Zim babue</w>
XIMBʼE TZ</w>
W in
Ti ˈ
Ten go</w>
TES TE</w>
T om
Su rinam</w>
Sa gr
SU S</w>
S ch
Q xnaqʼtzanx</w>
Q QʼOʼN</w>
Pa íses</w>
Mel quise
Me dia</w>
Mar gar
L an
Ky nim
Kw est
Hallo ween</w>
F e
ER OS</w>
Di ana</w>
Deb ería</w>
D ANI
DANI EL</w>
Con diciones</w>
CON TESTE</w>
BU EN
AR T
A tziˈn</w>
A DO</w>
8 8
7 ,000</w>
4 3
2 12</w>
19 88</w>
1 18
í ble</w>
yabˈ il</w>
xi tzun</w>
w le</w>
vo to</w>
visit ó</w>
ve inti
un g</w>
u se</w>
ttx ʼotxʼ</w>
ts aq
tr ón</w>
tr ajo</w>
tkʼu ʼn</w>
tkuʼ tz</w>
tera pia</w>
ter as</w>
tchˈ iy
taq tzin</w>
tan tes</w>
t í</w>
t su
t mandamyent</w>
t ador</w>
suce derá</w>
sto n</w>
sorpren dió</w>
soci edad</w>
sis tencia</w>
sirvi éndole</w>
sim il
señal ó</w>
serv ían</w>
sent ó</w>
sab ia</w>
ri ón</w>
resu el
relacion ada</w>
regr eso</w>
re ún
re di
r emo
qˈ um
qˈ ol</w>
qʼuq l</w>
qʼuq bʼet</w>
qʼaj t</w>
quit ar</w>
qued é</w>
que dan</w>
q okslabʼl</w>
q kyaqil</w>
q kyaj</w>
q bˈ
q ayon</w>
prud entes</w>
proyec tos</w>
progr eso</w>
pro viene</w>
preocu pan</w>
pregun tarse</w>
practi car</w>
pl ani
pi do</w>
pi ad
pa ganda</w>
oy en</w>
organi zar</w>
ofic inas</w>
nxjel ine</w>
nim ilqe</w>
nikʼ pun</w>
nbˈ iˈy</w>
naʼn xtoq</w>
naj li</w>
n xi
n an</w>
n amente</w>
n aja</w>
mu ˈẍ</w>
mu éstr
mostr aron</w>
mon tón</w>
mencion ar</w>
me ẍ</w>
man tenga</w>
mal dición</w>
maj la</w>
lám para</w>
logr aron</w>
llen ar</w>
letz ʼ</w>
l y</w>
kyˈ ix
kynim sin</w>
kymuj bˈil</w>
kykaˈy ink
kykam bʼan</w>
kyja x</w>
kyi kˈ
kybˈinch injiˈy</w>
kybʼinch aʼne</w>
kyajbʼ iltoq</w>
kx toq</w>
kx taq</w>
keʼy ilte</w>
kaˈ wnaq</w>
kaj on</w>
ja qet</w>
ja da</w>
j or
j et</w>
inquie tudes</w>
il pe</w>
il an</w>
identi dad</w>
habl emos</w>
gu es</w>
grab ación</w>
fun er
forma to</w>
exten dió</w>
exi st
entr is
entr a</w>
ens as</w>
ed or</w>
e ye</w>
disfru temos</w>
di tos</w>
der os</w>
demostr arle</w>
dej ando</w>
dedic ó</w>
deci rles</w>
deber ías</w>
de partamento</w>
de c</w>
dar in</w>
cre ados</w>
cor ona</w>
conv ento</w>
contribu ir</w>
conta gi
con stante</w>
comuni carse</w>
compar ó</w>
comba tir</w>
ci ma</w>
ch oʼn</w>
ch ew
celebr an</w>
car gas</w>
cai ga</w>
c ena</w>
c ados</w>
bˈ jil</w>
bˈ is</w>
bon ita</w>
benefici arse</w>
benefici an</w>
bas an</w>
ban co</w>
b all
añ a</w>
atr ap
at la</w>
at aq
ar éis</w>
ar ran
apren deremos</w>
an es</w>
alter na
alco h
ak sid
aj os</w>
actú e</w>
acep taron</w>
XQʼUQ IN</w>
W ar
Uni do</w>
U L</w>
Tzʼ oka</w>
Tzʼ aq
Taj pe</w>
TX I</w>
Sime ón</w>
S ob
S eb
S A</w>
Qʼon kja</w>
QAN IN</w>
P am</w>
Or pá</w>
NI M
NACI MIENTO</w>
Melquise dec</w>
ME DI
M úsica</w>
M is</w>
Le ah</w>
Lau ra</w>
Kʼ AJ</w>
K tel</w>
Jen ni
Es co
En tre</w>
ENSEÑ A</w>
E res</w>
Dis curso</w>
Dem ocrática</w>
DE U
DA DES</w>
Cristi anas</w>
Bʼis bʼajilxix</w>
Ad ri
ART ÍCULO</w>
AL E</w>
A cu
A KʼAJ</w>
4 00</w>
19 23</w>
- -
óli cas</w>
Ó N
yu go</w>
y i
wi piˈn</w>
w b
w alil</w>
w ajbʼebʼile</w>
w 98</w>
visitar ine</w>
vi ud</w>
vi ru
vej ez</w>
ve h
v ano</w>
uni do</w>
u va</w>
u chil</w>
tzˈ ele</w>
tumil jo</w>
ttziy in</w>
ttx ʼotxʼil</w>
ttx laja</w>
trat emos</w>
trans por
tradu cido</w>
tr u
tok toq</w>
titu lado</w>
tikʼ tl</w>
terr estr
ten tz</w>
t q
símbo los</w>
suc eso</w>
su ero</w>
sincer as</w>
sin te</w>
signific aba</w>
sem illas</w>
se tenta</w>
s per
ri r</w>
requis ito</w>
r ab
qʼo ʼna</w>
qx bʼalumin</w>
qan mi
q kˈuˈja</w>
q chʼiy</w>
propi edad</w>
pos tura</w>
poli s</w>
pi zar
peti ciones</w>
pesc ado</w>
peda zos</w>
pe yil</w>
pareci ó</w>
par ejas</w>
pa tio</w>
ondr es</w>
oj labʼil</w>
ofen dido</w>
obli gar
obje to</w>
ny alo</w>
neces ito</w>
na jan</w>
n er</w>
mo ẍ
mit ad</w>
mi so</w>
me lo</w>
mari do</w>
man sos</w>
m wb
m ales</w>
lo go</w>
le m</w>
l le</w>
kˈ we
kʼu mal</w>
kyi la</w>
kye tza</w>
ky teˈn</w>
ky kyaqile</w>
ky j
kx eltoq</w>
ju e
instr ucción</w>
indic ó</w>
in un
ila i</w>
il lo</w>
ikyˈ in</w>
identi ficar</w>
i ye</w>
ho mbr
hermo sas</w>
hall ó</w>
hacer les</w>
h e
gr á
gi da</w>
gi ca</w>
ger ia</w>
g aba
gaba on
fortalec erá</w>
expec ta
escuch ado</w>
escu elas</w>
epidem ias</w>
entris te
ent era</w>
enoj ó</w>
embaraz ada</w>
efec tos</w>
edi ficar</w>
don ación</w>
divor cio</w>
disfru tarán</w>
dis puesta</w>
derr am
demuestr en</w>
de volver
de fi
dar emos</w>
d ora</w>
d ame</w>
curi osidad</w>
cui dad
conven ció</w>
conserv ar</w>
concentr arse</w>
con tarles</w>
con cep
com pro
ci era</w>
ch it</w>
celebr ación</w>
ce dentes</w>
casti gó</w>
car pinter
capit al</w>
bˈaj il
bom ba</w>
bien venida</w>
bien aventur
bendeci do</w>
bebi das</w>
ay ana</w>
at amente</w>
anunci ar</w>
and ra</w>
an jtz</w>
am ita</w>
aksid ent</w>
aj us
afir ma
ador amos</w>
acti vo</w>
ac es</w>
Z AR
Y AJ</w>
XQʼUQ IL</w>
V ol
Tuʼn tzun</w>
To das</w>
Tho mas</w>
Tey le</w>
T NIKʼ
TNIKʼ A</w>
S hi
Re ina</w>
RESU MEN</w>
Qui ero</w>
Q OK</w>
PAR TE</w>
P on</w>
Organi zación</w>
O YAJ</w>
Nuestr os</w>
Nin ja</w>
Ni geria</w>
Ne h</w>
N ew
Mi ke</w>
Margar et</w>
Man d
MO D</w>
M aria</w>
L ondres</w>
Jo pe</w>
IN E</w>
Ha z</w>
H U
H A</w>
Ge or
DR O</w>
D on
Chʼ ix</w>
Cam ino</w>
CON T
Bʼ aj</w>
Barz ilai</w>
B an
Austr ia</w>
A suero</w>
8 00</w>
4, 7
3, 0
2, 5
2 Pe</w>
19 43</w>
17 3</w>
15 2</w>
ʼ LO</w>
íb amos</w>
ándo me</w>
z arse</w>
y lvania</w>
x taqjo</w>
x ta
wi ck</w>
we ʼxix</w>
utili zando</w>
us ado</w>
un es</w>
u dos</w>
tzʼ ine</w>
tzaj tl</w>
tu n</w>
ttx aˈn</w>
tqˈmaˈn l</w>
tqˈ oj</w>
tl am
tkʼujla ʼna</w>
tkʼ aʼna</w>
ti tud</w>
termin a</w>
ter cero</w>
tem en</w>
te ocrá
tch i
tbʼ aj
taʼ w</w>
t pi
t lajoʼn</w>
t abʼqʼi</w>
super a</w>
sirvi entes</w>
si embr
senti rme</w>
se ba</w>
saqch ane</w>
san ta</w>
salv ado</w>
sal ario</w>
s ú
revel ado</w>
respon deremos</w>
rebel ó</w>
r te</w>
qu kˈiy</w>
qu ita</w>
qok e</w>
qlol j</w>
qamiw e</w>
q mejebʼleʼn</w>
pró ximo</w>
proteger nos</w>
priori dad</w>
portu gu
podr ás</w>
pod íamos</w>
peti ción</w>
persegui dos</w>
permiti rá</w>
per sua
pec es</w>
pas ara</w>
partici pan</w>
p il</w>
oq ˈ</w>
on ile</w>
ok pe</w>
obedecer le</w>
nx mil
nu bes</w>
ns ylvania</w>
nim taq</w>
naˈ l</w>
nacion ales</w>
na cer</w>
n xnaqʼtzbʼile</w>
men sual</w>
mel ay</w>
medi o
man u
madu ra</w>
lágr ima</w>
luʼ lun</w>
lu ˈ
lu l</w>
lar gas</w>
ladr ones</w>
la go</w>
l aq
kʼon iltoq</w>
kyxo bʼil</w>
kyla qʼoʼn</w>
kyl oʼn</w>
kyi kyˈ
kybʼi yoʼn</w>
ky maʼn</w>
ka bʼ
k ostumbr</w>
ju ʼ</w>
ju gar</w>
jaʼ la</w>
jaw e</w>
j l</w>
invi tado</w>
inten ciones</w>
in si
in fer
in ado</w>
ij iˈy</w>
hurac án</w>
ho g
hall aron</w>
guar dar</w>
grie gos</w>
gr itos</w>
gabaon itas</w>
g ámonos</w>
g h
g antes</w>
fu ese</w>
fl ores</w>
fal taba</w>
explicar le</w>
es col
er ían</w>
enseñ arnos</w>
enseñ aban</w>
enl ace</w>
enfer ma</w>
emocion antes</w>
el qʼan</w>
distingui r</w>
dis posición</w>
di osa</w>
de ten
da ción</w>
cur ar</w>
cui dando</w>
cu la</w>
consider aba</w>
con tarle</w>
con du
compro miso</w>
compar e</w>
comen zar</w>
com ente</w>
colabor adores</w>
che bˈe</w>
ce der</w>
cat á
camin ando</w>
cambi an</w>
cambi a</w>
cabal los</w>
ca ído</w>
bˈ itz</w>
bʼ el
busc aba</w>
borra ch
bendi ga</w>
ball ena</w>
b añ
au mento</w>
ate a</w>
at aques</w>
as ma</w>
arrepi enten</w>
arr astr
apaci ble</w>
am á</w>
am arlo</w>
alu maj</w>
alegr ó</w>
agr esi
acep tamos</w>
abri r</w>
a u</w>
a os</w>
Waj toqe</w>
V e</w>
Tz ul</w>
Tbˈajlin xitziˈn</w>
TI V
So bre</w>
San tas</w>
SAB ER</w>
Recor demos</w>
R AS</w>
Qu ería</w>
Pr onto</w>
Por ke</w>
Pen nsylvania</w>
PR EN
Oʼ kxpe</w>
Ori ental</w>
Ok s
O MI
Ne pal</w>
N EL</w>
M ant
Lev ántate</w>
KʼIW LABʼIL</w>
Ky uʼn</w>
Ju li
Jes sica</w>
Jam es</w>
JA ʼLO</w>
J on</w>
J ab
Imagin emos</w>
Hebre o</w>
HERMAN OS</w>
F í
E di
DESP U
D ina</w>
Ch risti
COS AS</w>
C ris
B LE
Alejan dro</w>
6 6
3 5
3 32</w>
200 9</w>
2 41</w>
ú cia</w>
ís mo</w>
é l
æ dia</w>
Í n
ye taq</w>
y b
xma y
xit la</w>
x ju</w>
x bˈant</w>
w a</w>
vi do</w>
val en</w>
tzˈ okx</w>
tzʼil saʼn</w>
tzʼibʼ inte</w>
tzʼi bʼi
tzʼibʼi t</w>
tzʼ anqʼin</w>
tzy ul</w>
tzun xtaq</w>
tze le</w>
tzaqʼwen xa</w>
tz il</w>
ts pi
tr on
tku ˈx</w>
tiv amente</w>
termin ado</w>
tem e</w>
te jiy</w>
tbʼinch bʼena</w>
tar la</w>
tamiw oya</w>
tal bʼil</w>
taj er
tajer jes</w>
ta waʼn</w>
ta tu
t mi
t bol</w>
suce der</w>
son risa</w>
sir vamos</w>
sichʼ ine</w>
sel va</w>
sec und
sat éli
san ó</w>
san guí
rí os</w>
reuni eron</w>
reser v
relacion ado</w>
qʼ el</w>
qoʼ xe</w>
qe xa</w>
q ajbʼile</w>
prohibi do</w>
procl amar</w>
princip almente</w>
present an</w>
prem io</w>
pos esiones</w>
peligr osa</w>
pe ˈn</w>
patri arca</w>
pas aría</w>
pa ˈn</w>
or é</w>
op ædia</w>
olvi demos</w>
oj lan</w>
odi ar</w>
ocurri do</w>
o qˈ
o d</w>
nim xtaq</w>
nim sbˈil</w>
nie ve</w>
ni o</w>
nego cio</w>
nbʼ ine</w>
na ʼnx</w>
na cí</w>
n yoliˈn</w>
n xo
n pwaqe</w>
n moj
n bˈe
mí os</w>
mé rito</w>
mostr arle</w>
mostr amos</w>
mision era</w>
micr ó
medi tando</w>
man bˈaj</w>
ma x</w>
m ú
m esi
llu via</w>
liber ar</w>
lec h</w>
lan jtz</w>
la tín</w>
l abr
kˈu ˈn</w>
kʼ e</w>
kyˈa ˈjin</w>
kyl onte</w>
kykyaqil xjo</w>
kych moʼn</w>
ky xiˈy</w>
ky bˈin</w>
kuẍ eʼ</w>
kubʼ taq</w>
kubʼ len</w>
koj bˈil</w>
k istán</w>
jun tamente</w>
j bˈ
ir é</w>
iqʼ en</w>
inti ˈy</w>
inoc ente</w>
in stante</w>
in am
impresion ó</w>
imprescindi ble</w>
identi fica</w>
hu esos</w>
honr ado</w>
her ida</w>
habl aron</w>
h i</w>
h arás</w>
gui la</w>
guar di
gu era</w>
gobern ando</w>
gi gante</w>
gi era</w>
filiste o</w>
fi bóset</w>
fa cultades</w>
ex plí
ex ag
ew il</w>
estu ve</w>
escribi era</w>
er io</w>
envi di
ent ales</w>
en ca
empi ece</w>
em e</w>
ejer ce</w>
ejemp lares</w>
dr é</w>
do cu
docu mento</w>
dis te</w>
dig nos</w>
dese e</w>
des pedi
demostr arles</w>
de an</w>
cui dan</w>
cu én
cu bri
cru eles</w>
cre ció</w>
cont estar</w>
cont emp
cont amos</w>
cons ci
conoci eron</w>
confi ando</w>
con mem
con dición</w>
compren dí</w>
compa sivos</w>
come tieron</w>
cin cuenta</w>
ci dental</w>
ch mo
celesti ales</w>
cas amos</w>
cad enas</w>
c le
bˈis bˈajil</w>
bˈ yet</w>
bʼan e</w>
busc amos</w>
bur las</w>
bo das</w>
blan ca</w>
az u
ay un
asi a</w>
arr ab
arrab ás</w>
apren dieron</w>
an kyeˈ</w>
al mas</w>
al f
aj bˈil</w>
agradeci da</w>
adul to</w>
actu ó</w>
acti va</w>
ac á</w>
a o</w>
a co
Yo vi
X JA
Tx k
Ten ía</w>
TK ABʼ
TKABʼ IN</w>
TER ON
TERON OMI
TERONOMI O</w>
TA D</w>
T yola</w>
T man</w>
T ajbʼil</w>
T WI
Sud américa</w>
Segu ro</w>
Sam oa</w>
SE GUN
Recuer de</w>
RE INO</w>
R ÍA</w>
R Á</w>
R U
Qʼ an
Qui enes</w>
Qu ʼn</w>
Q NAʼN</w>
Pro medio</w>
Pon ga</w>
Pa kistán</w>
PRINCIPI O</w>
PA Z</w>
P ris
Nor te</w>
NE H
NEH EMÍAS</w>
Me fibóset</w>
M il</w>
M UN
LA ʼN</w>
L úcia</w>
KYU KʼIL</w>
K bʼel</w>
Jaku toq</w>
I K</w>
Ha ití</w>
Ha ga</w>
Geor gia</w>
G AR</w>
Enseñ emos</w>
Encycl opædia</w>
Ecu ador</w>
ESI OS</w>
EF ESIOS</w>
E th
E ri
E d</w>
E LO</w>
DEU TERONOMIO</w>
DESPU ÉS</w>
Con fi
Chikʼ bʼabʼil</w>
CO MO</w>
CHʼI Y</w>
BI LI
B arrabás</w>
Ayud emos</w>
Ar tajerjes</w>
Ar im
Am én</w>
Alex andra</w>
A ten
27 2</w>
20 2</w>
2 39</w>
19 8</w>
19 74</w>
19 50</w>
1 1
ʼj oʼn</w>
yekʼ un
yaj in</w>
y as</w>
xim al</w>
xeʼ chel</w>
volun tario</w>
vi gi
veng anza</w>
vay amos</w>
v arón</w>
v amente</w>
ue los</w>
u ra</w>
tzu y
tzaj tzin</w>
tz eʼl</w>
ttzʼ albʼil</w>
tris tes</w>
tqu qil</w>
tpa trón</w>
to yaj</w>
tl onte</w>
tj pel</w>
te w
t tzeʼ</w>
t ju
t acto</w>
sépti mo</w>
sur gir</w>
supli có</w>
suce da</w>
sobr es
ser vía</w>
satéli te</w>
samarit anos</w>
reún en</w>
recibi remos</w>
rechaz aron</w>
re cur
r los</w>
quebr ant
qu ense</w>
qtx laj</w>
qla x</w>
qi bˈa</w>
qch ma
qchma bʼile</w>
q tzʼibʼin</w>
q cerebro</w>
prínci pes</w>
prov echa</w>
progres ando</w>
pro hí
prepar ación</w>
pre fieren</w>
pr isa</w>
pon go</w>
pla gas</w>
piens as</w>
pi k</w>
pi di
per diendo</w>
pej kˈ
on ales</w>
ntx laje</w>
nombr aron</w>
na yon</w>
n najsaʼne</w>
n k
mur allas</w>
muchís imas</w>
much ach
mentir oso</w>
me za</w>
me te</w>
maravi llas</w>
man xa</w>
ma tla</w>
llev ará</w>
lleg aría</w>
li gente</w>
le an</w>
lan s</w>
lan d</w>
kˈwal bˈaj</w>
kʼujla ʼn
kyw aˈn</w>
kyok e</w>
kyaq ˈ
ky li</w>
ky chʼexpuʼn</w>
kten bˈil</w>
kam ey</w>
jyo ˈn</w>
jaw tzun</w>
j ye
j aj</w>
ir rit
invi sible</w>
inmedi atamente</w>
indic ar</w>
in ete</w>
ilustr aciones</w>
ile ˈ</w>
i ris</w>
háb ito</w>
hi po
hall ará</w>
garant ía</w>
fru tos</w>
fir meza</w>
fi co</w>
eʼ chel</w>
espa cio</w>
esi a</w>
er é</w>
eno ja</w>
encontr é</w>
encontr aba</w>
encarg ará</w>
el jo</w>
e fica
diri gen</w>
destru idos</w>
des obedientes</w>
des ci
dej aran</w>
dej ara</w>
deci dan</w>
de quiera</w>
de pendi
cri ar</w>
cos ta</w>
consecu encia</w>
con qui
compañ era</w>
comi endo</w>
ci la</w>
cans ado</w>
bˈe tin</w>
bˈan tn
bʼal une</w>
bon ito</w>
bautiz aron</w>
bar cos</w>
automó vil</w>
as teis</w>
apo s
an qʼi
almac en
alcan zar
aj qʼajel</w>
aj il</w>
afec tar</w>
admi te</w>
acep tan</w>
Y AJ
XNAQʼTZ AʼN</w>
Val era</w>
Uni ón</w>
U l</w>
Txk ontza</w>
Tu j</w>
Tr ans
Tam poco</w>
TZʼ EL</w>
TZ UN</w>
T ro
SEGUN DA</w>
PRE DIC
PE DRO</w>
PA DR
P adres</w>
Onés imo</w>
On il</w>
ON TE</w>
Nya toq</w>
Naq tzen</w>
N abʼil</w>
N AJBʼEN</w>
MA S
Kʼuj la
Kykʼujl ame</w>
KU X</w>
I I</w>
Hab ía</w>
H emos</w>
ER RA</w>
E vi
Cu r
Con str
Ch e
CI AS</w>
C osta</w>
C lo
Bʼ iʼn</w>
Bil l</w>
B AU
BAU TI
Atal ía</w>
Apren da</w>
An na</w>
Am bʼil</w>
Alab emos</w>
6 5
4 50</w>
3, 8
20 8</w>
2 21</w>
199 2</w>
10 000</w>
1, 2
ú tbol</w>
ís ima</w>
é c
án gu
É N</w>
z adas</w>
xnaqʼtz bʼila</w>
xi ʼ
x j
wi ʼ
w okslabʼile</w>
w al
w aj</w>
vol viera</w>
viru s</w>
vi ña</w>
vi ética</w>
vi udas</w>
vi ernes</w>
vi entre</w>
var ones</w>
v áli
uc tor</w>
tzʼ ajbʼenx</w>
tzeˈn qeku
tzajnin qe</w>
txʼ aʼ
txʼaʼ k</w>
tukˈ ax</w>
tukʼ eju</w>
ttxˈ ix
traba jado</w>
tom en</w>
to ra</w>
to qxen
tmoj bʼaʼna</w>
tkyˈiw bˈil</w>
tiˈj xi</w>
tiˈ chaqku</w>
til j</w>
ti ble</w>
ter son</w>
tbˈinch iˈn</w>
tbʼinch ante</w>
tbʼ yon</w>
taʼ toq</w>
tar é</w>
tal entos</w>
ta k
sur gió</w>
sur gen</w>
sir vieron</w>
si te</w>
senten cia</w>
sent ados</w>
sem illa</w>
segui remos</w>
se ver
se llo</w>
se lec
san tidad</w>
sal ía</w>
resuci tarán</w>
respon der
recib í</w>
reci ba</w>
re tir
re der
re confor
re ales</w>
r ón</w>
qʼoj lel</w>
qʼ l</w>
qʼ abʼaj</w>
quisi eron</w>
qued aban</w>
que dar</w>
qu í
qbˈinch bˈin</w>
qbʼinch am</w>
q tat</w>
q chikʼbʼaʼn</w>
priori dades</w>
presi dente</w>
preocup ado</w>
pren ta</w>
predic aban</w>
portugu és</w>
po quito</w>
pe ores</w>
pac ífico</w>
pa ti
pa f
p alo</w>
oˈ k
or aron</w>
oqʼ e</w>
on ce</w>
on bˈil</w>
ocurri r</w>
o to</w>
o to
o qe</w>
o prim
o este</w>
nya ku
nxmil ale</w>
nu cle
niky ˈjin</w>
netz ˈ</w>
nch ex</w>
nbʼinch anteye</w>
naˈ m</w>
na zar
n neʼ
n kˈwala</w>
n kyime</w>
n chikʼ
n bʼaj</w>
me tal</w>
manus critos</w>
man to</w>
man e
m adres</w>
m ados</w>
lo m
llen as</w>
lepe ʼye</w>
ladr ón</w>
labʼ le</w>
l una</w>
l tz</w>
kyxo lile</w>
kyxbˈ alin</w>
kyqʼama ʼntoq</w>
kymoj bʼan</w>
kykʼujl alile</w>
kyi pin</w>
kybʼi tzin</w>
ky kux</w>
ju p
jtan e</w>
j inete</w>
it és</w>
is tas</w>
intro du
insul tos</w>
injus tamente</w>
incre íble</w>
inclu yen</w>
in xjal</w>
imi la</w>
im pide</w>
im pi
i za</w>
hu a</w>
hor ri
hipócrit as</w>
hi guera</w>
hac éis</w>
hab ido</w>
h ana</w>
h alla</w>
grab aciones</w>
gi endo</w>
g aba</w>
fr ustr
fr an
fa vo
f áb
f o</w>
f ama</w>
eter namente</w>
espi ri
espec íficas</w>
er ano</w>
eng año</w>
elem entos</w>
el tzun</w>
e lección</w>
dá di
domin ar</w>
distin to</w>
destac ar</w>
dest aque</w>
des ilu
des at
der lo</w>
depor tes</w>
def ensa</w>
declar ó</w>
de volvió</w>
de udas</w>
d és</w>
cí o</w>
crit erio</w>
cre encia</w>
cos taba</w>
cor on
conven cer
continu ar</w>
consi gue</w>
conflic to</w>
con tienen</w>
compar arse</w>
comien zo</w>
com pon
com en</w>
cl opedia</w>
chʼ in
chi wt</w>
che ˈx</w>
can ane
bˈ antjo</w>
bʼe ye</w>
bʼe tel</w>
bʼan kuya</w>
beteli tas</w>
besti as</w>
benefici ado</w>
aˈl chaqx</w>
aʼye qe</w>
ayud arla</w>
asisti eron</w>
ar co</w>
apren día</w>
apoy amos</w>
ape dre
anqˈ intl</w>
anh el
angusti ado</w>
al da</w>
aku tzin</w>
ac as</w>
abu l
abier tamente</w>
a pa
a i</w>
XJA N</w>
X janxix</w>
V u
Tqʼ ajqʼajel</w>
TK AWBʼIL</w>
TESTI GOS</w>
Sob erano</w>
S ec
Rub én</w>
Qui ere</w>
Q qʼonx</w>
Q Qʼ
Pris cila</w>
Pre dic
Par ís</w>
Par ti
Pa z</w>
PERSON AS</w>
P EN
P AJ</w>
Nor te
Nat han</w>
N Ú
N ET</w>
N AJ
Mlay x</w>
Mat th
Mant én
L y
KʼUJ L
Kʼ okel</w>
Ky i
Ka ilan</w>
KY QANIN</w>
Jun xitl</w>
Joh an
Jaw sil</w>
Im perio</w>
Ge t
Gala cia</w>
G hana</w>
G a
FAMILI A</w>
F reder
E paf
D é</w>
D ec
Con oc
Clo dean</w>
C as
C AR
Bil dad</w>
B l
B ajos</w>
Al guna</w>
A teʼ
7 00</w>
7 0
6 8
3, 3
3 2
199 3</w>
19 56</w>
17 9</w>
últi mas</w>
z arán</w>
w0 1</w>
visit an</w>
uni g
unig énito</w>
uni da</w>
un x</w>
tí mi
té c
tzu l
txʼ yan</w>
tx o
tu al</w>
tri z</w>
tra ído</w>
tra dición</w>
tqʼinu mabʼil</w>
tqʼaj qʼojil</w>
tol sabʼil</w>
to re
to ca</w>
tkaw bʼila</w>
termin e</w>
tem per
tej xi</w>
tbˈ iy</w>
tbˈ e</w>
tbʼ eta</w>
tbʼ aqil</w>
t yol
t kˈuˈjlin</w>
t Kʼ
st atas</w>
sobres ali
si go</w>
ser le</w>
semej antes</w>
segui dor</w>
secund aria</w>
sec ta</w>
sal vos</w>
sab erlo</w>
s tata</w>
ru ido</w>
ro ca</w>
rit mo</w>
rin in</w>
ri cio</w>
res ía</w>
repar ar</w>
regoci j
reg las</w>
recha za</w>
rebel des</w>
r estric
qui la</w>
qu n</w>
qoptzˈ aj</w>
q kʼwaʼl</w>
proteger se</w>
prof é
pro paganda</w>
preci samente</w>
preci osa</w>
pre fi
pi ezas</w>
per mis</w>
per la</w>
pe z</w>
pas en</w>
parec ían</w>
pa si
oportu no</w>
olo caus
olocaus to</w>
obje tos</w>
o lo</w>
o bˈ
nega tiva</w>
naj sit</w>
nacion alidad</w>
na ce</w>
na bʼitz</w>
n tziy
n nikyˈa</w>
n kyima</w>
mu qet</w>
mu era</w>
mu dó</w>
mu dado</w>
mol esta</w>
mintiʼ lo</w>
mayordo m</w>
man ej
malv ada</w>
mal trato</w>
lí cito</w>
lo qiˈn</w>
llev emos</w>
lev antar</w>
le erla</w>
la ine</w>
l on</w>
l ino</w>
l era</w>
l chaq</w>
kyx ma
kyu ʼnx</w>
kymuj bˈin</w>
kyja ˈtaq</w>
ky naˈbˈl</w>
ky naʼne</w>
ky kʼulun</w>
ky kan
kuˈ xin</w>
kuʼ pin</w>
kubʼ sane</w>
kaʼ y
k kyˈ
k iy</w>
k e
k chʼiy
investi gar</w>
inten tar</w>
instal aciones</w>
inmens a</w>
inf ancia</w>
in tzin</w>
in gr
impresion antes</w>
im perio</w>
ila ˈ
il an
ilan dia</w>
igu al
honr an</w>
homi cida</w>
hici ste</w>
hi gi
guardi as</w>
garanti za</w>
g im
frecu entes</w>
fr ío</w>
fi carse</w>
expuls ados</w>
estudi a</w>
equivoc ado</w>
entr éguele</w>
enfrent aron</w>
en du
en cen
económi co</w>
ech as</w>
e tí
e tza</w>
dol ores</w>
do cum
diver sión</w>
destac ó</w>
descen dió</w>
dañ ar</w>
dar an</w>
da te</w>
có lera</w>
cubier ta</w>
cu yo</w>
cre yó</w>
cr im
corri gió</w>
cor to</w>
copi as</w>
convi er
converti rá</w>
conver tido</w>
conven i
conse gu
confir man</w>
con tado</w>
con siguió</w>
con junto</w>
compar aciones</w>
chˈ ot
ch ˈ</w>
caus ó</w>
cas adas</w>
car g
cambi aron</w>
c resía</w>
c esi
c esa</w>
c all
bˈis in</w>
bˈinch inte</w>
bʼ y
benefici arnos</w>
aʼye jo</w>
asegú rese</w>
arru in
ar reb
ar gu
aqˈni ˈn</w>
aqˈ win
apó statas</w>
anu al</w>
anim ado</w>
ami a</w>
aman ecer</w>
al em
al bor
al ar
adolesc encia</w>
ad o
acas o</w>
abu elo</w>
abier tos</w>
abandon ado</w>
ab raz
a us
Z el
Y A
XNAQʼTZ AN</w>
War wick</w>
W abʼj</w>
U ʼJ
Tzaqʼ wen
Ti ˈn</w>
Taj toq</w>
San ta</w>
Resu men</w>
Q nim
PI ZAR
Oks lal</w>
O fic
N chi</w>
Mau ricio</w>
MA BʼIL</w>
M ya</w>
L i</w>
Kubʼ pe</w>
KY OJ</w>
Jaʼ lo</w>
Invi te</w>
INTER NET</w>
I gu
I L
His toria</w>
Hab rá</w>
H olocausto</w>
G O
Estu dio</w>
Es per
Es lo
Enséñ eles</w>
El imélec</w>
ENTA CIÓN</w>
D el</w>
Car ol</w>
Can á</w>
CH MABʼIL</w>
Bu enas</w>
Bi en
Bar to
B al
Aten as</w>
Amé rica</w>
9 9
6 000</w>
4, 0
4 4
20 5</w>
2 22</w>
2 11</w>
17 1</w>
17 0</w>
ʼJ E</w>
ñ ado</w>
í gen
ígen o</w>
é i</w>
Á N
yol intaq</w>
yo ʼna</w>
yo kiy</w>
xu ˈj
x kubʼ</w>
wikʼ une</w>
vícti ma</w>
vi lle</w>
verdad eras</w>
ver ás</w>
ver dura</w>
vent aja</w>
us as</w>
u ʼ</w>
tzyu ˈn</w>
txˈ uj
trat amientos</w>
tra diciones</w>
tqʼama ʼntoq</w>
toj e</w>
tnim bˈila</w>
tkʼ ayin</w>
tj yet</w>
ti era</w>
taʼ ya</w>
tar ían</w>
ta ˈl</w>
t pe</w>
t paltil</w>
t my
t mojeʼ</w>
t familia</w>
solucion ar</w>
skˈoˈn xix</w>
sin to
sichʼ ina</w>
senti ría</w>
senci llas</w>
segu í</w>
se tz</w>
san ktz</w>
sal udo</w>
saduc eos</w>
s ten</w>
s anos</w>
ro gamos</w>
renunci ar</w>
regu lares</w>
refi rió</w>
reali zan</w>
re í
razon ar</w>
ra k</w>
r y</w>
r i</w>
qˈanch aˈl</w>
qˈ on</w>
qˈ obˈ</w>
qu l</w>
qu in
qnim saʼne</w>
qmuj bˈil</w>
qaj toqe</w>
qaj lo</w>
q xnaqʼtzane</w>
q wutza</w>
q li
q chibʼ
qchibʼ jal</w>
provoc ado</w>
prob lem</w>
pro vo
pro test
prision ero</w>
pon tzun</w>
pl acer
placer es</w>
pidi éndole</w>
pi dá
pidá mosle</w>
perju dic
pas aban</w>
palo m</w>
pa siones</w>
p ine</w>
ox ígeno</w>
or illa</w>
or gan
om ía</w>
olvi dó</w>
ok tzin</w>
ok ele</w>
oi ga</w>
ocu par</w>
obedeci endo</w>
o ja</w>
nqan iˈn</w>
nikʼ al</w>
najle qe</w>
n paja</w>
mis os</w>
mir ó</w>
mi el</w>
meltzˈ aja</w>
me letzʼ</w>
mayordo mo</w>
mar cas</w>
maj in</w>
ma pa</w>
m ada</w>
lv s</w>
loc alidad</w>
llev ara</w>
llam aron</w>
ll orando</w>
li pin</w>
lev anta</w>
l ex</w>
l anza</w>
kʼay il</w>
kʼay bʼil</w>
kyu ʼj</w>
kysi pen</w>
kyqˈ ol
kyqʼ am
kyok lene</w>
kyna qʼet</w>
kyi kyˈin</w>
kyech laʼn</w>
ky tziy
ky lo
kukx jo</w>
kuj iy</w>
kqe bʼil</w>
kiló metro</w>
k kolil</w>
k bˈan
jo t
jaw el</w>
ja pon
is teis</w>
inte ligente</w>
inesper ado</w>
inclu idos</w>
in jiy</w>
in dig
in definido</w>
imagin ación</w>
im prenta</w>
iky x
háb lele</w>
há g
hu yeron</w>
hu eso</w>
histó rico</w>
hipo cresía</w>
here dado</w>
habl é</w>
hab i
gü e</w>
gra vedad</w>
gol pe</w>
gobier na</w>
furi oso</w>
funcion arios</w>
fr e</w>
fon dos</w>
fo to
f útbol</w>
exi ge</w>
ex clu
estr echo</w>
er s</w>
enfr enta</w>
en fu
ejecu tado</w>
divers as</w>
dis culp
dic cionario</w>
di eci
di ag
desper tar</w>
descri ben</w>
des vi
demasi ada</w>
deli to</w>
dedic arle</w>
deb er</w>
de dica</w>
dad or</w>
d ones</w>
cru el
crey ente</w>
cre an</w>
cose ch
conven ce</w>
cont am
comi eron</w>
com ité</w>
co ti
co ordin
ci ento</w>
ci das</w>
chikʼ bʼanxa</w>
ch aʼ
ces ar</w>
car ros</w>
cad á
bˈ intaq</w>
bʼaj x</w>
aye j</w>
ay one</w>
asis tentes</w>
asim ismo</w>
ar ra
ar os</w>
ap én
ap el
ant taq</w>
anim aron</w>
an se</w>
amb as</w>
am er
alim enta</w>
al o
aj in</w>
adr os</w>
adecu ado</w>
aconse jar</w>
ac aban</w>
abu ela</w>
absolu to</w>
abr e</w>
a preci
Z ambia</w>
Z O</w>
Xna qˈ
XJE LIN</w>
Ver dad
V EN
Tzaqʼwen xa</w>
T ÉS</w>
T al
So viética</w>
Signi ficado</w>
S il
S ar
Recuer da</w>
RA Z
Qˈ ij</w>
Q xqʼuqink</w>
Q atzun</w>
Pro b
Prepar emos</w>
Ofic ina</w>
OJTZ QI
O ro</w>
NÚ M
NÚM EROS</w>
NUEST RO</w>
N el</w>
N ada</w>
N OK</w>
Mar tín</w>
Mar tin</w>
Mal ta</w>
MEDI TAR</w>
Li ber
L ESI
Ky u
Ku x</w>
K o
Ju lio</w>
Jos hua</w>
Jo ven</w>
Je an</w>
Jab ín</w>
Gu ayana</w>
Freder ick</w>
Fran cesa</w>
Feli sa</w>
Fe der
F i
D yos</w>
Con se
Col om
CU ANDO</w>
CO R</w>
CH AS</w>
B ur
Aye tzin</w>
Arim atea</w>
Aqu el</w>
Ant yokiy</w>
Am ón</w>
A br
4, 9
4 55</w>
3, 5
28 8</w>
200 7</w>
20 9</w>
2 30</w>
199 4</w>
19 76</w>
16 7</w>
15 4</w>
- 4</w>
ʼ me
úni camente</w>
ú l
ín te
í na</w>
ÓN DE</w>
É ste</w>
yas in</w>
y ilxix</w>
xjel bʼitz</w>
x mila
xmila la</w>
x meletzʼ</w>
wu la</w>
wp 14</w>
w n</w>
volver ía</w>
vir gen</w>
ver ía</w>
vari edad</w>
val oraba</w>
u bi
tzˈ u
tzʼaq e</w>
tzoq pi
tzma xiˈ</w>
tzin tza</w>
tzin tz</w>
tz a
trav es
trat ados</w>
tqu l</w>
to mas</w>
tn ame</w>
tmy al</w>
tlam el</w>
tk ach</w>
tja kʼunte</w>
ti kyˈ
tendr é</w>
tempor ada</w>
tem b
tbˈaj jo</w>
tar te</w>
tab li
t ẍkyin</w>
sufri eron</w>
sufr imientos</w>
signi ficar</w>
siembr a</w>
ser éis</w>
se kʼ
sali da</w>
sal drán</w>
s bˈin</w>
ro di
rein ará</w>
regi ones</w>
refer encias</w>
re inar</w>
re fres
re construir</w>
r amas</w>
qʼam al</w>
qʼ maʼn</w>
qyekʼ ine</w>
qxo la</w>
qx el</w>
qued ara</w>
qmoj bʼabʼl</w>
qan it</w>
q man</w>
pusi era</w>
prác ticamente</w>
promo ver</w>
profes ores</w>
preocupar nos</w>
pregún teles</w>
pregun té</w>
practi can</w>
pi el</w>
pi damos</w>
perfec tamente</w>
perdon ará</w>
pec ó</w>
pe tzun</w>
pas emos</w>
paráb olas</w>
ok xe</w>
océ ano</w>
o th
o presión</w>
o ponen</w>
nqˈ man
nqʼ abʼe</w>
no s
nikʼ an</w>
nikʼ aj</w>
ni co</w>
nega tivas</w>
necesit ábamos</w>
neces ariamente</w>
ne ˈẍ</w>
nch winqila</w>
n úm</w>
n koline</w>
n bˈiˈn</w>
mlay xtoq</w>
mi xla</w>
men os
medi tamos</w>
mari po
mane jar</w>
maj qe
lo qʼel</w>
llev en</w>
li via</w>
la la</w>
kʼwaʼ lx</w>
kʼu ʼne</w>
kʼu lul</w>
kʼ ikʼ
kʼ eʼ</w>
kyx milila</w>
kytz i</w>
kyqʼam anxe</w>
kyqan iˈn</w>
kykʼ ayin</w>
kyikˈ lel</w>
kyi tzʼin</w>
kych kʼel</w>
ky sbʼun</w>
kw ente</w>
kam bʼet</w>
k oˈn</w>
jun ta</w>
jun jun
ji qun</w>
jaʼ lin</w>
jaku taq</w>
interes antes</w>
intelig entes</w>
influ ya</w>
in stitu
in mun
in cul
im pida</w>
ij te</w>
hon da</w>
hall an</w>
gus te</w>
gu emos</w>
fí jate</w>
fij arse</w>
f es</w>
f abri
exag er
ex ceso</w>
estudi an</w>
est és</w>
esforz ándonos</w>
escuch amos</w>
equilibr ada</w>
enví o</w>
enten dió</w>
eno jado</w>
enfr ente</w>
en ce</w>
em pren
eci da</w>
eb e
dádi va</w>
distribu ir</w>
distin ta</w>
dis trai
diri gió</w>
dici al</w>
deli tos</w>
decí s</w>
dec er</w>
dar te</w>
cumpli rse</w>
cumpli era</w>
cu los</w>
cu adro</w>
cruci ficado</w>
cru zar</w>
cri ado</w>
coti di
convir tieron</w>
conveni ente</w>
contribu ye</w>
consul ta</w>
consider ación</w>
cono zcan</w>
con so
con io</w>
comp ad
comi das</w>
com probar</w>
chʼi ʼx</w>
chej il</w>
centr arnos</w>
celebr ó</w>
cal ami
c cionario</w>
c ami
c ajas</w>
bˈe ˈ
bˈaj xi</w>
bʼi ʼne</w>
bú s
bol sa</w>
bi o</w>
bi do</w>
beb e</w>
bautizar te</w>
ba jar</w>
auto estima</w>
atra e</w>
aten tos</w>
arro gante</w>
aq bʼil</w>
apó stata</w>
apren derán</w>
apren derá</w>
ano che</w>
anali zará</w>
an tas</w>
an na</w>
alivi ar</w>
agrad ecen</w>
agrad ables</w>
ador emos</w>
acus ado</w>
acu dir</w>
aconsej ó</w>
a yoˈn</w>
a terr
a pre
Z ebe
YEKʼ BʼIL</w>
Xnaqˈ tzil</w>
Win ston</w>
W aje</w>
VI GI
U tili
U nos</w>
U no</w>
U PE</w>
Tim or</w>
Te yele</w>
TZʼ I
T wutz
Si gue</w>
Ser vi
S TO</w>
S TA</w>
Reg la</w>
PRO PI
P arte</w>
O tro</w>
O bed</w>
Nim lo</w>
NU ESTROS</w>
MI RA</w>
M uestre</w>
M al</w>
Kpol pe</w>
K ˈ
K at
Jor dan</w>
Iky xitjo</w>
IMPORTAN TES</w>
I conio</w>
H or
FU ER
F er
Eʼ XIX</w>
EST AR
Di ccionario</w>
D ÓNDE</w>
Cuán tos</w>
Ch ina</w>
Car ta</w>
Caperna um</w>
CU I
C ali
Bʼ AJ
Bo x</w>
Bo livia</w>
Ber ea</w>
Apo y
Al qe</w>
Ac ér
AN IMA
AM A</w>
AL KYE
A Z
A X</w>
6 7
2 15</w>
2 13</w>
199 9</w>
199 5</w>
19 57</w>
18 2</w>
16 ,
1 27
1 26
ˈn te</w>
ʼj xe</w>
ú a</w>
yo bʼin</w>
xja wil</w>
x kyij</w>
x ar</w>
weˈk sa</w>
wa kx</w>
w ermane</w>
w at
w 89</w>
volver án</w>
volunt arias</w>
vo tos</w>
vivi entes</w>
vigil antes</w>
videoj u
videoju ego</w>
viaj ante</w>
vi ven
ver siones</w>
vac ío</w>
v es
univers al</w>
tzeˈn kux</w>
txo lek
txolek xi</w>
twutz xixjo</w>
tu vi
ttzi yele</w>
ttx a</w>
ts un
ts maˈn</w>
tro pi
tras torno</w>
traj eron</w>
tqˈmaˈn tz</w>
tqʼo bʼ</w>
tojtzqi bʼila</w>
to no</w>
tla qʼoʼna</w>
tkʼu lin</w>
tkʼ aʼ</w>
tkam bʼan</w>
tien den</w>
ti s</w>
ti dos</w>
temp estad</w>
tem er</w>
te tza</w>
tbʼan el
tan se</w>
tajbʼ en
taj walil</w>
t noj</w>
t muj
t chʼixwi</w>
t alidad</w>
superfici e</w>
su erte</w>
sof t</w>
so las</w>
simil ar</w>
sigui eran</w>
si la</w>
ser lo</w>
senti rán</w>
segun dos</w>
santi ficado</w>
salud ar</w>
sacri ficar</w>
sacerdo cio</w>
sa m</w>
s t</w>
s jan
rob ar</w>
ries gos</w>
reuni rnos</w>
resuci ten</w>
resuci te</w>
respon día</w>
respon derá</w>
res id
repren dió</w>
reci ban</w>
rec titud</w>
r al</w>
qʼoʼn ka</w>
qʼanchaʼ lxix</w>
qʼ ine</w>
quit ado</w>
quin ce</w>
qo ˈy</w>
q xjalil</w>
q ximin</w>
q pwaqe</w>
q meltzʼaje</w>
q chʼixpuʼn</w>
pudi éramos</w>
pu ˈn</w>
produ jo</w>
preocupar se</w>
preocup ación</w>
pregun temos</w>
predic arles</w>
posi blemente</w>
podr ías</w>
pob lación</w>
pla ya</w>
pl asma</w>
pin eˈ</w>
pers pec
pec aron</w>
pe lea</w>
pas é</w>
pas tore
pas aj
p ink
ovej a</w>
or to
olvi de</w>
olvi dado</w>
oli vo</w>
ok tz</w>
obedeci eron</w>
obedecer lo</w>
obede zcan</w>
nyol intaq</w>
nqʼ on</w>
nor r</w>
no ven
no qʼ</w>
neutr alidad</w>
necesit ados</w>
na dos</w>
n la
n kˈ
n ju
n g
n ar
mu ros</w>
mov imiento</w>
mone das</w>
moj bʼabʼil</w>
ministeri al</w>
mi tzin</w>
mi gr
mi co</w>
mem ente</w>
medic amentos</w>
me tió</w>
mari hu
marihu ana</w>
ma xitzun</w>
ma toq</w>
ma taran</w>
ma ta</w>
luch an</w>
lpe ʼ</w>
logr a</w>
llev arse</w>
lleg aba</w>
lipe ˈy</w>
lib era</w>
le tras</w>
laqʼ exe</w>
lan dés</w>
l la
kˈw aˈn</w>
kʼu lin
kʼiwla ʼna</w>
kyx u
kyqʼ amaʼne</w>
kyqan inxe</w>
kykʼ aʼ
kyk abˈ
kyi qen</w>
ky qʼinumabʼil</w>
ky onine</w>
ky ma
ky kʼuʼn</w>
knaj el</w>
kkyˈ elix</w>
kchʼiy el</w>
k kyimel</w>
juz ga</w>
junxi lchaq</w>
j teʼ
inti n
interes ado</w>
inten te</w>
influ ye</w>
in cré
incré du
imperfec ciones</w>
imit arlo</w>
ik jo</w>
human it
hab erlo</w>
h el
glori oso</w>
gar ri
fu entes</w>
fra se</w>
fr acción</w>
foment ar</w>
fi caciones</w>
fas cin
fa ti
expres ó</w>
expres a</w>
ew intaq</w>
estudi aba</w>
esper ábamos</w>
escuch en</w>
escuch aba</w>
escri bo</w>
es enta</w>
es car
enten dido</w>
emis ora</w>
elev adas</w>
ejecu ción</w>
edi tado</w>
e taq</w>
do li
disfru tando</w>
dis tra
difi cultad</w>
dici éndole</w>
di mientos</w>
di lig
descendi ente</w>
desapar ecido</w>
derr amó</w>
demostr ará</w>
dej arse</w>
defen dió</w>
de los</w>
dar lo</w>
d ándoles</w>
d áis</w>
có moda</w>
cumpl an</w>
cro soft</w>
cri aturas</w>
cre ce</w>
cor re</w>
cor por
continú a</w>
consi guen</w>
conse j
confi esa</w>
comuni car
compor tarnos</w>
comerci ales</w>
cl amor</w>
ci ru
ci garri
chibʼ j</w>
cheʼ xtoq</w>
ch is
capaci dades</w>
c entu
bˈis bˈajil
bˈisbˈajil xla</w>
bˈil xjal</w>
bʼel jaj</w>
bʼaj ju</w>
bienaventur ados</w>
bi s
baj ó</w>
b os
b ec
aʼye tzun</w>
ay on
ate q</w>
at em
asi rios</w>
arrepenti rse</w>
ar madura</w>
ar il</w>
apén dice</w>
apoy ó</w>
ampli ar</w>
am arán</w>
am ará</w>
aliment ó</w>
ali smo</w>
alab anzas</w>
al un</w>
al um
al tos</w>
al d</w>
ag e</w>
ador aron</w>
acep té</w>
acel i</w>
abandon aron</w>
a torment
a provecha</w>
Y as
Xim inkuya</w>
VIGI LAN
VIGILAN TES</w>
V ir
US AMOS</w>
Tuʼn pe</w>
Tkyaqil ju</w>
TZALAJ BʼIL</w>
TZ UL</w>
TIʼJ A</w>
TE TZ</w>
TAR DE</w>
Sec ción</w>
Sagr adas</w>
SIGUIEN TE</w>
SE A</w>
S is
S MO</w>
Qʼuq li</w>
Q ale</w>
Q OKS
Q KʼUJLABʼIL</w>
Q BʼINCH
Q ALE</w>
Pro fe
Po dr
PRI M</w>
PRES ENTACIÓN</w>
PA RA
P aʼ
P ALA
O P
Nin gún</w>
Mi crosoft</w>
Matth ew</w>
M ap
Lec ciones</w>
Lament ablemente</w>
LESI AS
LESIAS TÉS</w>
L aur
L a
K norr</w>
Ju lia</w>
I d</w>
I TZ
H acer</w>
G A</w>
Eth el</w>
Est án</w>
Es fuércese</w>
ESTE MOS</w>
EC LESIASTÉS</w>
E tz</w>
Don aciones</w>
Dani elle</w>
DEM ÁS</w>
Colom bia</w>
Ch arles</w>
Centr o
CON FI
BʼAN TEL</w>
Bibli as</w>
Ben ín</w>
B íbli
AʼN A</w>
Ar aceli</w>
Anali ce</w>
Abr án</w>
ANZ A</w>
AL IL</w>
A TE
6 ,000</w>
5, 5
3, 9
3, 6
3 4
29 7</w>
20 6</w>
2 20</w>
2 16</w>
19 9</w>
19 75</w>
19 60</w>
19 54</w>
19 4</w>
19 41</w>
18 8</w>
17 6</w>
15 9</w>
él gica</w>
á tica</w>
É bed</w>
z ate</w>
ye k
y eran</w>
xta ˈj</w>
xnaqʼtzan toq</w>
xit aq</w>
xi lo</w>
wp16 3</w>
wi ˈy</w>
wi bˈ
wen xix</w>
visitar ilte</w>
viol enta</w>
viaj ó</w>
ver ano</w>
veh ículo</w>
val oran</w>
utili zan</w>
tzˈi bˈit</w>
tzˈ ok
tzʼ exa</w>
tzeˈnqeku ˈ</w>
txˈ i
txˈi ˈx</w>
tuˈn x</w>
tuˈn tziˈn</w>
tu yo</w>
ttz mal</w>
ts kˈ
trans mit
trans gr
tranqui lidad</w>
tqʼuq bʼaʼna</w>
tor re</w>
toqxen in</w>
tok xtoq</w>
to nio</w>
to lin</w>
tnu q
tkyˈ i</w>
tkyaqil xjo</w>
tku tz</w>
tk lo
tk ar</w>
titu lada</w>
terrestr e</w>
teri or</w>
tem bʼile</w>
te lo</w>
tchj oʼn</w>
tbˈ isin</w>
ta wal</w>
t meltzˈaj</w>
t kyima</w>
t abʼqʼi
su mer
sol ía</w>
so le
sec ciones</w>
se ñ</w>
se co</w>
salv arse</w>
sa ci
s w
s maˈn</w>
s esenta</w>
ru mpi
rode ado</w>
ro jo</w>
ro gó</w>
ro dea</w>
revel an</w>
res te</w>
regis tro</w>
refi ri
reali zó</w>
reali zado</w>
re visitas</w>
re ver
re to</w>
re inos</w>
ra cial</w>
qˈ mal</w>
qˈ inte</w>
qui se</w>
qued arnos</w>
que m</w>
que de</w>
qi pun</w>
qan qʼine</w>
q ojtzqiʼne</w>
q bʼi</w>
pue das</w>
publi cidad</w>
provoc ar</w>
prote gen</w>
prob ado</w>
prepar ativos</w>
prepar ando</w>
pregún tate</w>
preci osas</w>
pr esti
pr estar</w>
pesc ados</w>
pedi rles</w>
pe tzila</w>
par ci
pa ñ
pa tin</w>
pa t
p ta</w>
ote ca</w>
os cur
ori da</w>
or mente</w>
onin pe</w>
ol vida</w>
odi an</w>
ocur ra</w>
obli ga</w>
o kʼ
nor ma</w>
no ke</w>
nneʼ la</w>
nna bʼile</w>
nkʼ ane</w>
ne gro</w>
nch mon</w>
nbˈ et</w>
nbʼinch ane</w>
naqʼun antoq</w>
naqʼun ane</w>
najle qetaq</w>
na te</w>
n tzaqʼweʼne</w>
n onintoq</w>
n kʼujlabʼile</w>
n dale</w>
mue ven</w>
much ˈ</w>
motiv ar</w>
mor irán</w>
mitiʼ x</w>
mer ecida</w>
mer cado</w>
mencion amos</w>
men tir</w>
me z
m ín</w>
m y</w>
logr os</w>
llev ados</w>
lipche qe
limit ado</w>
liber ación</w>
le amos</w>
l ó</w>
l d</w>
kˈwal bˈaj
kˈuˈj bˈil</w>
kˈul bˈil</w>
kʼok ex</w>
kʼixbʼis abʼl</w>
kʼay ine</w>
kyˈa ˈjil</w>
kyqˈ in
kyij xjal</w>
ky xiten</w>
ky wiʼye</w>
ky tzʼ
ky sentens</w>
kam bʼane</w>
k i</w>
k bˈaj
juz gado</w>
is mos</w>
invi sibles</w>
inten to</w>
inten tan</w>
inicu o</w>
in tla</w>
in merecida</w>
in ju
i qʼin
hu mor</w>
hech as</w>
hebre a</w>
h f</w>
guar dia</w>
gr ita</w>
glori fic
gen e
gan arse</w>
g esto</w>
físi cos</w>
fáb rica</w>
funcion ario</w>
fle xi
fir memente</w>
figu ra</w>
fi jado</w>
ez camos</w>
explicar les</w>
existi do</w>
ex toq</w>
ex pl
evi ta</w>
estr es
espiri tismo</w>
escon dió</w>
esc ena</w>
er til</w>
equivoc adas</w>
enci ales</w>
en torno</w>
electr ónicas</w>
durmi endo</w>
don dequiera</w>
divi dido</w>
divers os</w>
dis minu
di gas</w>
di gamos</w>
di entes</w>
determin ado</w>
desobedeci eron</w>
descri bió</w>
desafí o</w>
den unci
dej aría</w>
de uda</w>
cui de</w>
cuesti on
cue va</w>
cu ento</w>
cor te</w>
convi cción</w>
conv inc
conoc erán</w>
conden ado</w>
comuni dades</w>
come ten</w>
co dici
clar as</w>
cion ales</w>
chʼi ya</w>
chi p</w>
ch bˈil</w>
cent í
cas ada</w>
can di
cam ellos</w>
c aj
c aban</w>
bʼil te</w>
bʼ yoʼne</w>
bús queda</w>
bi cic
bas ados</w>
bar r
atz jo</w>
arrepi ente</w>
arr oj
ari be</w>
ar ena</w>
apli caciones</w>
apar iencias</w>
ami gas</w>
am i</w>
ali ˈn</w>
alcan zado</w>
agu ay</w>
afir m
ador ando</w>
acerc an</w>
ac lar
ac emos</w>
abandon ó</w>
ab un
a ˈy</w>
a tur
a tivas</w>
a gra
Yovi dón</w>
Yo ung</w>
Y an
Y ah
X jaw</w>
W a
W U
Vu el
Tze ʼntoq</w>
Tzal ajbʼil</w>
Ty ndale</w>
Tuˈn tzin</w>
TRI M
TRIM ONI
TO DOS</w>
T dios</w>
T an
Su premo</w>
Sof ía</w>
Si quem</w>
Santi dad</w>
SER VI
Ru anda</w>
Ri ch
RE CU
R osa</w>
R NOS</w>
Qʼ i
Qʼ OJ</w>
Qui eres</w>
Por tada</w>
Pi ensa</w>
Par aguay</w>
Ojtzqiʼn ka</w>
O be
Ni lo</w>
Neces it
Maestr os</w>
MU ER
MEJ E
MEJE Bʼ
MA TRIMONI
M EN
Lo u
Le on
LE C
L lev
L ati
KYI M</w>
KY WITZ</w>
K tzajel</w>
K ong</w>
K X
K BʼANTEL</w>
Ju ez</w>
Jas on</w>
JAK UPE</w>
J ar
Igu al</w>
H os
H ong</w>
H erman
H ag
Fl orida</w>
Ex amin
EC ES</w>
Dem ostremos</w>
DA N</w>
D en
D anos</w>
Cu enta</w>
Com ent
CI O</w>
CH J
C ena</w>
C aribe</w>
Bʼinch alte</w>
B élgica</w>
Asamb leas</w>
An ci
Al go</w>
Acér quense</w>
ANQʼ IN</w>
A tzunju</w>
A PREN
6 0
5, 8
4 54</w>
30 7</w>
200 5</w>
2 26</w>
2 25</w>
19 62</w>
19 52</w>
18 0</w>
17 4</w>
ó ne
é is
éis bol</w>
ásti co</w>
ángu lo</w>
ándo la</w>
zar ías</w>
z ara</w>
xuʼj el</w>
xobʼ toq</w>
xix lo</w>
xbʼal una</w>
xbʼal in</w>
x jiˈy</w>
wi tzʼine</w>
w 95</w>
ví n
vín culo</w>
vivi eran</w>
vini era</w>
videoj ue
videojue gos</w>
vi entos</w>
ver la</w>
veng arse</w>
ven dría</w>
ven der</w>
ven ción</w>
un en</w>
u alidad</w>
tzajni qe</w>
tumb as</w>
tu r</w>
tribun ales</w>
tri un
tnikyˈ tzajil</w>
tnaj sin</w>
tj lajxi</w>
ti wle</w>
ten gáis</w>
taˈ yetaq</w>
tar ina</w>
tar es</w>
tan ima</w>
tan ael</w>
tab les</w>
t ác
t pakbʼabʼil</w>
t li</w>
t familiar</w>
sufr amos</w>
sol teros</w>
sincer os</w>
si ʼ</w>
si ti
si on</w>
se ca</w>
saqch al</w>
saq in</w>
san ado</w>
sacu dida</w>
sac a</w>
s sa</w>
s amaʼna</w>
ri cas</w>
resul tó</w>
respon den</w>
represent antes</w>
rem e
reci ó</w>
reci entemente</w>
re pasar</w>
re loj</w>
qˈuqle taq</w>
qˈin imil</w>
qˈ i
qʼon e</w>
qʼi ʼne</w>
qʼ abʼ</w>
quit ó</w>
que za</w>
que dará</w>
qli x
qikʼ en</w>
qi qen</w>
qe ʼye</w>
q xim</w>
q tembʼile</w>
q pakbʼabʼil</w>
q bʼin</w>
q bʼaj</w>
públi camente</w>
pá rese</w>
prov in
profundi dad</w>
profes ora</w>
proce de</w>
pro mueve</w>
prepar ada</w>
pren da</w>
predic arán</w>
popul ares</w>
popul ar</w>
pon erlo</w>
po so</w>
pier den</w>
pi chˈ</w>
perspec tiva</w>
perci bir</w>
pe tla</w>
pe cho</w>
pal m
pa go</w>
p le
ok ˈ</w>
odi aba</w>
ob ser
o o
nqˈman jiˈy</w>
nla qʼoʼne</w>
nkʼ aʼne</w>
nim ane</w>
nikʼ jan</w>
nie to</w>
ni cas</w>
nch qˈoˈn</w>
n sichʼine</w>
n nikʼx</w>
n me
n lo
mu daron</w>
mostr emos</w>
mor irá</w>
molde ar</w>
micró fono</w>
me tieron</w>
me ter
manu al</w>
man tuvieron</w>
mal e
lé alo</w>
llu vi
llam adas</w>
ll o
levant ado</w>
le í</w>
le che</w>
l ine</w>
l asti
kˈa tza</w>
kyxo li
kymoj bʼabʼl</w>
kykˈ atz</w>
kyja ˈ</w>
kyiˈj lin</w>
kyi ja</w>
kybʼinch anteye</w>
kybʼ yon</w>
kyaj bˈin</w>
ky tzʼilsaʼn</w>
ky pasense</w>
ky noj
ky maʼne</w>
ky kuʼx</w>
ky kaw
kx eʼl</w>
kwenti l</w>
ku ch</w>
k ol</w>
jud ías</w>
jiky inxix</w>
j amos</w>
ir nos</w>
invi erno</w>
interes an</w>
inter medio</w>
injus ta</w>
influ yen</w>
inclu ido</w>
inam arca</w>
in iˈy</w>
imprim ir</w>
imit amos</w>
imagin arse</w>
im pre
ilu min
igu ales</w>
hu yó</w>
hombr o</w>
higi ene</w>
hi o</w>
hi go</w>
habl ara</w>
hab las</w>
grab arin</w>
gr ani
glori ficado</w>
gi e</w>
g aron</w>
g ada</w>
forni cación</w>
for nia</w>
f era</w>
f en
f ace
eˈ taq</w>
extranj eros</w>
etí ope</w>
estudi e</w>
est arían</w>
est ación</w>
especiali stas</w>
espe jo</w>
esp adas</w>
escuch aron</w>
escon dido</w>
eri b</w>
equi pos</w>
encarcel ados</w>
en comen
empe ñ
efica z</w>
dé cima</w>
du er
dormi do</w>
div inas</w>
disfru ten</w>
disfru taremos</w>
diseñ ó</w>
discu tir</w>
direc ta</w>
dig nas</w>
di visión</w>
di ariamente</w>
delincu encia</w>
dej aremos</w>
defin i
d éis</w>
d os
d ney</w>
d il</w>
cui dó</w>
cui dara</w>
cor dero</w>
cont aron</w>
conden ó</w>
conclu ir</w>
conci li
colum nas</w>
climá tico</w>
cla v
chʼix wi
cheˈ xa</w>
ch ˈj</w>
ch me
cer cana</w>
cay eron</w>
catá str
casti gar</w>
cas ualidad</w>
carpinter o</w>
cariñ osa</w>
cap tur
cal mar</w>
bˈantn in</w>
bˈ u
bˈ ine</w>
bʼ aʼnxix</w>
bú s</w>
bu s</w>
bas adas</w>
bas ada</w>
b éisbol</w>
b y</w>
b oc
b año</w>
az ú
auto bús</w>
aten ai</w>
at ku</w>
astr ólogos</w>
ar pa</w>
aqˈ wiˈn</w>
aqu erib</w>
apren dimos</w>
anim en</w>
an der</w>
ami g
alterna tiva</w>
alkye toq</w>
aliment ar</w>
alem án</w>
alcoh ólicas</w>
ahor rar</w>
ahor r
agrad ó</w>
agrad ezco</w>
ago bi
ag ri
afron tamos</w>
afec ta</w>
af lic
acos o</w>
acerc ado</w>
ac am
a zo</w>
a tzen</w>
a traves
a fr
Zel anda</w>
Yas mín</w>
Vi vi
V ic
Ten er</w>
Te ˈ</w>
TUʼN JU</w>
T atenai</w>
Sen aquerib</w>
SEN TI
S ue
Ro se</w>
Re ci
Ra chel</w>
RE Y</w>
R an
R ab
R O
Pregun témonos</w>
Paʼ mila</w>
Pat terson</w>
PU ESTA</w>
PADR ES</w>
P UMA
On tario</w>
ON U</w>
O hio</w>
Nya pela</w>
Nim ku</w>
Na tanael</w>
Na dia</w>
Na cional</w>
N EC
Me dic
Mas pe</w>
Map s</w>
MO QA</w>
M ol
M is
L una</w>
L il
Kʼuj laʼn</w>
Ki ri
K kanetel</w>
Jam ás</w>
JA W
ITZ ʼJ</w>
IKʼ BʼIL</w>
Hero días</w>
HI J
H on
H il
H an</w>
G r
Ef ra
EST AS</w>
ESP ER
Dor cas</w>
DI O</w>
D inamarca</w>
Chʼ in</w>
Ch ris</w>
Cali fornia</w>
CHJ ONTE</w>
C LA
BʼA N</w>
Bet f
B abel</w>
Ayu da</w>
Ar tur</w>
An ne</w>
Alf arero</w>
ALKYE QE</w>
A zarías</w>
A wt</w>
A li
A la
A bʼ
A P
6, 9
5, 0
49 ,
4 45</w>
28 1</w>
27 3</w>
2 65</w>
2 34</w>
19 89</w>
10 0
- 5</w>
ˈn x</w>
ˈj iˈn</w>
ú s</w>
ínci pe</w>
áni ca</w>
áb ado</w>
á mica</w>
á guila</w>
y aja</w>
xqʼuq en</w>
x kux</w>
x bʼaj</w>
wu l</w>
wiʼ yilxix</w>
w el</w>
viol entos</w>
ve te</w>
v ine</w>
tzʼi bʼanjtz</w>
tzyu bʼil</w>
tzun tl</w>
tzi laˈ</w>
tten tz</w>
tskˈ oˈn</w>
ts amaʼna</w>
tro pie
tropie zo</w>
tra ge
trage dia</w>
tr au
tqˈuq il</w>
tqˈ in
tpw ertil</w>
torment as</w>
toj xjo</w>
toj ile</w>
tnu kʼuʼn</w>
tlo me</w>
tkʼ okʼ
tkuʼ pin</w>
tis tas</w>
teocrá ticas</w>
tech al</w>
tch ewil</w>
tbˈaj lin
tbʼaj len</w>
tbʼ al
tatu aje</w>
tar co</w>
taqʼ a</w>
tal ón</w>
tab let</w>
tKʼ waʼl</w>
t ío</w>
t ándose</w>
t ábamos</w>
t tramp</w>
t nikyˈa</w>
t kʼiwlabʼil</w>
t kwentin</w>
sur ge</w>
sul amita</w>
su yas</w>
su premo</w>
sorpren dente</w>
sol tero</w>
sobresali ente</w>
sin g</w>
sin cera</w>
ser ia</w>
sent íamos</w>
saq bʼ
salud able</w>
sali endo</w>
sal drá</w>
rompi ó</w>
ro cío</w>
ro bar
res pal
relacion a</w>
rela ta</w>
redu cir</w>
recompens ará</w>
recibi endo</w>
rec to</w>
re r</w>
razon amientos</w>
r é
r las</w>
qˈij l</w>
qʼuq bʼante</w>
qyekʼ une</w>
qui co</w>
quer ida</w>
qnim in</w>
qbʼi ye</w>
pw ert</w>
prueb e</w>
prohí be</w>
prohibi da</w>
pro xim
pro sper
prepar e</w>
preci so</w>
pre dicho</w>
pla zo</w>
pier de</w>
pi edad</w>
perten ecen</w>
per seguir</w>
particip amos</w>
par alí
p injiˈy</w>
oʼ maj</w>
organiz ada</w>
organi zó</w>
on ido</w>
ol te</w>
ol bˈin</w>
ojtzqi ʼn
ofen de</w>
of ensas</w>
obedec ían</w>
nyekˈ iˈn</w>
noj nin</w>
nchikʼ bʼaʼne</w>
n á</w>
n xqʼuqine</w>
n pon</w>
n es
n elxix</w>
muchís imos</w>
mon ja</w>
mol é
moj il</w>
moj bʼaʼn</w>
moj bʼankuya</w>
mez cl
mesi ánico</w>
ment ales</w>
menos preci
mencion ados</w>
medi anoche</w>
maj ene</w>
ma gia</w>
logr amos</w>
lo gran</w>
lle vo</w>
ll anu
limpi ará</w>
li y</w>
li di
la ciones</w>
l amento</w>
kˈw an</w>
kˈuˈj liˈn</w>
kʼ ane</w>
kynim injiˈy</w>
kynikyˈ xjal</w>
kyil xjal</w>
kye win</w>
kych ˈ
kybʼi ʼne</w>
kybʼ e
kybʼe tin</w>
ky yol
ky yekʼ
ky xjel</w>
ky txˈix
ky tijen</w>
ky mutx
ky kwente</w>
kle til</w>
kaw it</w>
ka y</w>
k tze</w>
k oʼn</w>
k kyaqil</w>
joven citos</w>
invi tarlo</w>
inten taron</w>
in j
in form
in fin
in fiel</w>
in díg
indíg ena</w>
in ación</w>
impuls ó</w>
imagin amos</w>
im pí
im pon
il ái</w>
ikʼ en</w>
iky qex</w>
hubi éramos</w>
hu mo</w>
ho yo</w>
ho jas</w>
hi j
h emo
h arina</w>
go ta</w>
gen io</w>
fun ciones</w>
fu éramos</w>
fran queza</w>
fr acciones</w>
fortaleci endo</w>
fic an</w>
fam oso</w>
f er</w>
ex cl
estr uc
est all
espe j</w>
esco ja</w>
escla va</w>
es h</w>
ern as</w>
er las</w>
equi vo
enfrent arnos</w>
encu entre</w>
encarcel ado</w>
en cerr
emo ción</w>
em bri
egip cio</w>
efec tu
ec ían</w>
e bre</w>
dul ce</w>
dolor osa</w>
divi siones</w>
distin ción</w>
dis ta</w>
dis cul
dici ales</w>
di ll
di eta</w>
determin ación</w>
des pe
des nu
declar ación</w>
deci rlo</w>
de do</w>
d ón
cónyu ges</w>
cumpli rán</w>
cu br
cri atura</w>
cr ónica</w>
cor ta</w>
cor rió</w>
copi arin</w>
conver tir</w>
consu lte</w>
confi aban</w>
conden ados</w>
comi ó</w>
col ores</w>
co modi
chˈ iy
chʼiy set</w>
chʼex pun</w>
chj oʼne</w>
ch ijiˈy</w>
cerem onia</w>
cer teza</w>
centu rión</w>
celebr aban</w>
car gar</w>
cal ent
cab ello</w>
c ine</w>
bási cos</w>
busc ador</w>
busc aban</w>
bon itas</w>
beteli ta</w>
ayud aré</w>
asi st
arrepinti ó</w>
arrepenti dos</w>
arra ig
ap un
ante cedentes</w>
anim arlos</w>
ani versario</w>
an daba</w>
alu pe</w>
aguant ando</w>
agradec erle</w>
ad alupe</w>
acus ación</w>
ach bˈil</w>
a tribu
a pres
a fer
Vi da</w>
V an
V E</w>
V AL
Utili ce</w>
Tí quico</w>
Tro as</w>
To m</w>
TRA B
TI ERRA</w>
TI EMP
TAJ LAL</w>
T xiʼya</w>
T ema</w>
T JAW</w>
T JA
T BʼINCH
T BʼI
So lici
S ábado</w>
S ir
S ara
S aba</w>
R os
QU E
Q eju</w>
Q aj
Q XIMBʼETZ</w>
Profe tas</w>
Pro gr
Pr íncipe</w>
Pal esti
PUMA L</w>
OM BRE</w>
O kx</w>
O f
N u
Mi x</w>
Mar co</w>
Man ten
M eli
M aligno</w>
Lu gar</w>
Lo ida</w>
Li dia</w>
Leon ard</w>
LU GAR</w>
L AJ</w>
Kynim anxe</w>
KYI Bʼ</w>
K AW
Jun x</w>
Jeho ram</w>
J EN</w>
HA Y</w>
Gu adalupe</w>
G Á
G ue
G E
Fran z</w>
FELI Z</w>
FE CHAS</w>
F IN</w>
Epaf ras</w>
Enseñ a</w>
Encontr ará</w>
Eli e</w>
ESTAR ÍA</w>
ER O</w>
E t
E j
E G
Dios ju</w>
D on</w>
D C</w>
Cu lti
Co ordin
COR AZ
CORAZ ÓN</w>
CONT ESTARÍA</w>
CH O</w>
C en
Bˈe ˈxsin</w>
Bʼ L</w>
Bri an</w>
Barz ilái</w>
Bar b
Asamb lea</w>
An ás</w>
A ʼye</w>
A pó
A jo</w>
A cer
7 50</w>
4, 6
3, 7
27 4</w>
2 38</w>
2 10</w>
199 7</w>
19 65</w>
18 1</w>
17 7</w>
1 30
1 15
ˈy it</w>
ý rios</w>
ú ne</w>
óli cos</w>
í os</w>
í nate</w>
ér co
érco les</w>
yolin jtz</w>
xo bˈ</w>
xnaqʼtz ante</w>
ximen toq</w>
x mo
x mi
wok lin</w>
wok a</w>
weʼ xixe</w>
wan abʼe</w>
w aq
w 88</w>
vol vamos</w>
vivi ente</w>
visit aron</w>
vir tud</w>
ven dieron</w>
vel oci
veloci dad</w>
v or</w>
téc nicas</w>
té ph
téph anie</w>
tzˈel pineˈ</w>
tzʼ j
tzi ʼ</w>
tzeʼn xku</w>
tzaqʼwen tza</w>
tzalaj xa</w>
txk oˈn</w>
txal paje</w>
tw aʼl</w>
tukʼ ex</w>
ttziy ena</w>
ttzi ye</w>
ttxu ʼya</w>
ts mal</w>
tras lad
trabaj ó</w>
tpa kbʼaʼn</w>
toq tl</w>
tom é</w>
tom ará</w>
toksla bʼila</w>
tok xix</w>
tok liˈn</w>
to alla</w>
tku bʼel</w>
tis ta</w>
til jo</w>
tikʼ saʼn</w>
ti quˈn</w>
ti eran</w>
th e
tel ex</w>
te ar</w>
tch ikyˈ
tbʼ uchil</w>
tbʼ ent</w>
taq ik</w>
tajbʼen xix</w>
tajbʼe bʼila</w>
t p
t maq
t ljo</w>
t jaw
sóli da</w>
su ales</w>
ste in</w>
so vo</w>
sjan in</w>
sim pli
sigui era</w>
si gues</w>
si entas</w>
senti dos</w>
sens ación</w>
seman í</w>
sbˈ u
sbˈ ilte</w>
satisf echo</w>
saq set</w>
san ar</w>
sam anxa</w>
rue gos</w>
ru ina</w>
rode an</w>
ro bo</w>
ri ones</w>
ri f
restric ciones</w>
rep enti
reme dio</w>
regr esa</w>
recor damos</w>
reci entes</w>
re tos</w>
raz as</w>
ra te</w>
r one</w>
r c
rc unci
qˈi ˈntaq</w>
qʼuq bʼal</w>
quer iendo</w>
qu ʼjine</w>
qu émonos</w>
qnim ane</w>
q wiʼye</w>
q ojtzqiʼnxix</w>
q kʼujlalil</w>
q kyaqile</w>
q kaniˈn</w>
q comentario</w>
pú r
pájar os</w>
provoc ó</w>
provin cia</w>
prove che</w>
procur ador</w>
pro puso</w>
privi leg
privileg ios</w>
presi ona</w>
pregun tar</w>
preci oso</w>
pr endo</w>
por ta</w>
podr é</w>
pod éis</w>
plan tas</w>
pi so</w>
perten ecer</w>
person aje</w>
permit ía</w>
permit an</w>
per sa</w>
pareci dos</w>
par se</w>
par ar</w>
pandem ias</w>
pakbʼan toq</w>
p ado</w>
oth y</w>
origin ales</w>
organiz ados</w>
organiz aciones</w>
or ad</w>
opti mismo</w>
ol f</w>
ofreci do</w>
oc es</w>
obs esi
obligar il</w>
o ta</w>
núm eros</w>
ny ataq</w>
num je</w>
nukʼ bʼil</w>
nti ˈl</w>
no sti
nin tz
nim al</w>
nbˈ anttaq</w>
n xnaqʼtz
muestr as</w>
mucha cha</w>
mostr ará</w>
mir ada</w>
mi x
mensaj eros</w>
men ores</w>
meltzˈ aj
meltzʼ aj
mater ia</w>
manten gan</w>
mand aron</w>
m ba</w>
m amente</w>
libr arnos</w>
len te
le ía</w>
le tos</w>
laj et</w>
lab ios</w>
la ta</w>
la t
l adas</w>
kˈwe lix</w>
kˈw abˈj</w>
kˈuˈjlin xix</w>
kʼuj lan
kʼ as</w>
kytxu ʼ</w>
kyqʼ an
kyoks laʼn</w>
kyoj ile</w>
kyn abˈ
kykʼ mon
kyja kʼunte</w>
kyja kʼun</w>
kyiˈj xjal</w>
kyim ne</w>
kych mo
kybˈinch bˈiˈn</w>
kyaq ila</w>
kyaj xix</w>
ky yola</w>
ky mane</w>
ky kʼulune</w>
ky Dios</w>
kwest lo</w>
ku taq</w>
kol pet</w>
kbˈan til</w>
kaˈ min</w>
kabʼ laj</w>
ka bʼe
k sa</w>
k s
k ja
jniˈ qe</w>
japun x</w>
japon és</w>
ja chaq</w>
j ila</w>
is èle</w>
ir me</w>
ir in</w>
inter rumpi
infor mes</w>
inclu yó</w>
inci rcunci
in mundo</w>
in divi
indivi du
in compar
in cen
impul sos</w>
impor tan</w>
imit an</w>
im parcial</w>
i yaj</w>
háb il</w>
hu yendo</w>
hor mon
ho li
him no</w>
hacer te</w>
hab erle</w>
gra f
gol pes</w>
gener aciones</w>
g s</w>
g encia</w>
g adas</w>
fru tas</w>
fr ases</w>
fortal ecido</w>
fon os</w>
fo menta</w>
fl or</w>
f ór
ew ajil</w>
est ó
est aré</w>
esp alda</w>
esfor zar
escuch arlo</w>
escuch aban</w>
esc al
er u
equivoc ada</w>
envi ados</w>
entr ado</w>
enten demos</w>
encant ados</w>
en f
en der
emocion almente</w>
ele f
el o
ej os</w>
edi ficación</w>
discu sión</w>
dij imos</w>
diag nosti
di ré</w>
destru yendo</w>
des leales</w>
der ían</w>
dar ían</w>
da ciones</w>
cu ente</w>
cu antas</w>
cre cen</w>
cre as</w>
cre amos</w>
conven cida</w>
contribu yen</w>
consu el
confí e</w>
confir mó</w>
confi aron</w>
confi ado</w>
conduc e</w>
con cre
compren sión</w>
coment arin</w>
com prome
com eter
colab oran</w>
cocin ar</w>
co inci
cla ves</w>
chʼexpu ʼna</w>
ch ikyˈ</w>
centr arse</w>
car ro</w>
capaci tados</w>
ca f
c ía</w>
c émonos</w>
c tor</w>
c eb
bʼinch anjtz</w>
bʼi yen</w>
bʼan tel</w>
bʼ ajel</w>
bus quen</w>
bus quemos</w>
bre ves</w>
bibli oteca</w>
bi li
bautizar in</w>
bauti za</w>
b ón</w>
b eso</w>
b as</w>
aʼ l
as al
arro z</w>
arro gan
arrest aron</w>
aqˈ in</w>
aprovech ando</w>
aparec er</w>
anqʼin toqe</w>
anim adoras</w>
angusti ados</w>
angu age</w>
amer icana</w>
am ent</w>
am antes</w>
ali ento</w>
ale ta</w>
alab arlo</w>
ajbʼ ele</w>
agrad ecer</w>
ad ónde</w>
ad entro</w>
actu ales</w>
aconte cimiento</w>
abul ón</w>
abor rec
abandon ará</w>
Z ak
Y H
YH W
YHW H</w>
Ví rgenes</w>
Uste des</w>
U l
Ty rone</w>
Tu mba</w>
To davía</w>
Ti t</w>
Ten ga</w>
Ta ilandia</w>
TZʼI BʼIN
TZALAJ A</w>
TU J</w>
TRAB AJ
TE RIO</w>
T KUX</w>
T AJBʼEN</w>
Syl via</w>
Ser ie</w>
Sal udad</w>
Sab er</w>
SAL I
SALI DA</w>
S téphanie</w>
S on
S ol
S acerdo
S I</w>
Rub y</w>
Re unión</w>
R ud
Qnim sanktz</w>
Q YEKʼIN</w>
Q ONIN</w>
Q MAN</w>
Pregún tese</w>
Pon cio</w>
Per spicacia</w>
PROF EC
Oj txe</w>
OS O</w>
O xe</w>
O tras</w>
No ta</w>
No qit</w>
Na ín</w>
N ad
Mu y</w>
Mi ca
Me dio</w>
Mau d</w>
MUN DO</w>
MU J
MUJ BʼABʼIL</w>
MIN IS
MA M
M LA
Ly die</w>
Lati no
L anguage</w>
L am</w>
Ko sovo</w>
K ýrios</w>
K ati
K EʼY
JU ECES</w>
Ir ma</w>
In c</w>
Herman os</w>
Han anías</w>
H en
H ay
Get semaní</w>
G ó
G isèle</w>
For tal
FAMILI AS</w>
F r
F ine
F al
Exi sten</w>
Est ás</w>
Est her</w>
Escu che</w>
Eli sa</w>
Edi th</w>
EN TES</w>
EN DO</w>
Der echos</w>
Deb en</w>
DISCURS O</w>
D os</w>
Con greg
Coment ario</w>
Che bʼe</w>
Cab o</w>
CH IN</w>
C ru
Bibli cal</w>
Ber lín</w>
BR IL</w>
B LE</w>
Aris tarco</w>
An dre
Ala in</w>
Al ex</w>
Ac án</w>
Abʼ qʼi</w>
A xix</w>
A BRIL</w>
8 3
6, 6
5 7
3 41</w>
29 5</w>
29 2</w>
29 1</w>
28 7</w>
200 1</w>
20 7</w>
20 1</w>
19 71</w>
16 6</w>
16 1</w>
10 ,000</w>
1 13
- 7</w>
- 6</w>
ẍ chʼ
ẍ aq
ʼ ẍ</w>
ór d
órd enes</w>
é pocas</w>
é mosle</w>
án eo</w>
yon toq</w>
y ant</w>
xnaqˈ tziˈn</w>
xi ˈtz</w>
xi xsin</w>
xi kʼ</w>
xeʼ le</w>
xe tl</w>
x jan
x ela</w>
wen qe</w>
w es</w>
vol uc
viv íamos</w>
vi tam
vi tal</w>
ven cidos</w>
vali ó</w>
vac aciones</w>
v ían</w>
v asi
uni ó</w>
u r</w>
u mal</w>
tzˈu mil</w>
tzʼaq litoq</w>
tzʼ ok
tzʼ elx</w>
tzin jiy</w>
tz pe
tz i</w>
txi ˈ</w>
tu n
ttzi yan</w>
tsbʼ uʼn</w>
trat aran</w>
tqʼij lal</w>
tor y</w>
tonel adas</w>
tonel ada</w>
tla ˈy</w>
tkʼokʼ jal</w>
tkʼ an</w>
tkuʼ xu
tklo ma</w>
tikʼ una</w>
tikʼ en</w>
ti onal</w>
tey elex</w>
ten tado</w>
te jo</w>
tchˈiy sbˈin</w>
tch ibʼjal</w>
tbˈ antjo</w>
tbʼan qʼabʼ</w>
taq x</w>
tam año</w>
t á
t sichʼina</w>
t mejebʼleʼn</w>
t maj
sáb ados</w>
sufici entes</w>
subi eron</w>
su l</w>
spi kʼumal</w>
sole dad</w>
so ˈn</w>
skʼ oʼmaj</w>
siti os</w>
sir van</w>
separ ado</w>
sep amos</w>
sembr ar</w>
se ʼn</w>
se ll
sbʼ ul</w>
sanguí neas</w>
san jel
san as</w>
samarit ana</w>
sali era</w>
sab íamos</w>
sa ʼn
sa la</w>
s á
s man</w>
s chʼin</w>
rog aron</w>
rodi llas</w>
rode ados</w>
respe te</w>
respe taba</w>
refle jan</w>
recuer den</w>
recu adros</w>
reci ente</w>
re úne</w>
re tras
re li
re admi
r éis</w>
qʼoʼn k</w>
que daría</w>
qikʼ saʼn</w>
qi ti
qi pumale</w>
qan iˈn</w>
q yon</w>
q y
q tzaqpaj</w>
q txkoʼn</w>
q oks
q in
prim i
present aron</w>
pre ten
pre dice</w>
polic ías</w>
po ˈn</w>
pla to</w>
perdon ados</w>
peligr osas</w>
pele as</w>
particip ando</w>
partam entos</w>
pari ente</w>
par que</w>
pa ʼmil</w>
pa gado</w>
p les</w>
p ciones</w>
otx ˈ
os tas</w>
ore ja</w>
or th</w>
ol bʼen</w>
ok la</w>
ojtzqi bʼl</w>
oc ta
obr eros</w>
oblig aciones</w>
obli gó</w>
obli gado</w>
o ʼn
o irán</w>
nxnaqˈtz bˈiˈn</w>
nxnaqʼtz bʼene</w>
nutri ción</w>
num ja</w>
nja pin</w>
ne gros</w>
nch winqlale</w>
nbʼ yon</w>
naj sin</w>
naj san
n xnaqʼtzaʼne</w>
n tname</w>
n qa</w>
n nu
n liˈy</w>
n kawin</w>
n che</w>
n abˈ</w>
mé lec</w>
multi pli
muchach os</w>
mu tu
mostr aré</w>
min as</w>
me zc
me tziˈn</w>
mar tes</w>
manif estado</w>
man ch
maj ljo</w>
maestr a</w>
ma tan</w>
lom é</w>
lo qe</w>
llam as</w>
levant aron</w>
lepro sos</w>
laqʼ che</w>
kʼu ʼj
kʼu bʼil</w>
kʼok ela</w>
kyʼ iw
kyx milil</w>
kytz yuʼn</w>
kypa kbʼaʼn</w>
kykʼaʼ chit</w>
kykʼ an</w>
kyk ar</w>
kych ibʼjal</w>
kybˈ isin</w>
ky yole</w>
ky kyijxjal</w>
ky kubʼlen</w>
ky ajbʼene</w>
kuˈ tz</w>
keʼy inte</w>
kaw el</w>
kam bʼal</w>
kabʼe tl</w>
k tela</w>
jyon toq</w>
jun ele
junele ʼx</w>
jaw tzin</w>
jaj in</w>
ja c
j jo</w>
itzʼ x</w>
it y</w>
it la</w>
it amente</w>
iqʼin toq</w>
inter nacionales</w>
instru mento</w>
in voluc
in signific
in migr
im pidió</w>
im pedi
ide al</w>
i qin</w>
i al</w>
hi b
here deros</w>
hall amos</w>
haci éndolo</w>
hac íamos</w>
ha gáis</w>
gus tado</w>
guerr eros</w>
guerr ero</w>
gu ían</w>
gober nación</w>
glob ina</w>
gal lo</w>
g ales</w>
funcion a</w>
fu isteis</w>
for as
fij arnos</w>
fal la</w>
f ra</w>
f lu
explic an</w>
expecta tivas</w>
excu sas</w>
excel entes</w>
estó mago</w>
estudi é</w>
estudi ado</w>
esta dio</w>
escribi eran</w>
escrib ía</w>
esco ge</w>
es sing</w>
er éis</w>
entien dan</w>
enter aron</w>
enten dían</w>
enseñ ará</w>
enseñ amos</w>
eni cia</w>
emp o</w>
em pu
em il</w>
e tr
e ga</w>
dur ará</w>
dur ación</w>
docum entos</w>
doctr inas</w>
divi dió</w>
diri ja</w>
destru ya</w>
desobedeci ó</w>
descubr imos</w>
desanim arnos</w>
desanim ado</w>
der rib
dej as</w>
dej aré</w>
defen der
dad as</w>
d ri
có modos</w>
có modo</w>
cumple año</w>
cul ares</w>
cui dados</w>
cu lebr
cu ch
cruel dad</w>
cr on
correc tos</w>
cor rección</w>
continú e</w>
conoci das</w>
cono ciendo</w>
conden ación</w>
con creto</w>
compr a</w>
compor tarse</w>
comer cial</w>
coment ó</w>
co lec
cl íni
ci ar</w>
chʼi ʼn</w>
ch un</w>
ch inx
ch ikyˈ
cer ía</w>
centr a</w>
ce dió</w>
cas arin</w>
cant ando</w>
cans ados</w>
canane os</w>
can oa</w>
calami dad</w>
c én
bˈi y
bʼi sin
bʼan toq</w>
bʼan qʼabʼaj</w>
bʼ yan</w>
br it
blasf em
bec erro</w>
beb a</w>
baj aron</w>
aʼ lx</w>
ay o</w>
ax tzun</w>
ax tok</w>
awo tzin</w>
aw in</w>
aw aʼn</w>
au menta</w>
atz lo</w>
asis tiendo</w>
arrogan cia</w>
arreg lar</w>
aqʼ nan</w>
apar tado</w>
apaci bles</w>
antigu as</w>
ano te</w>
an illo</w>
amor osa</w>
amena zas</w>
alcan zó</w>
ajbʼen xix</w>
agri cul
agrad arle</w>
afirma ción</w>
afec to</w>
adver tencias</w>
adqui rir</w>
ado uni
admi tir</w>
acu mu
actú an</w>
actu almente</w>
ac en</w>
ab s
ab ismo</w>
a proxim
Z abulón</w>
Xim el</w>
Xi tzin</w>
W all
VIDE OS</w>
UN OS</w>
U ESTA</w>
Tz un
To xin</w>
Ti ʼj</w>
Ti empo</w>
TZʼIBʼIN KU
TEN ER</w>
T U</w>
T KʼUʼJ</w>
Sud án</w>
Ser ía</w>
Sacerdo te</w>
Sab ía</w>
SU É</w>
SI ÓN</w>
SEN S</w>
SAN TI
S us
S tan
RI TU
RESP UESTA</w>
RAZ ONES</w>
Qʼon kuya</w>
Q i
Q dios</w>
Q PA
Q BʼINCHAʼN</w>
Pre párese</w>
Pan amá</w>
PROPI A</w>
P ér
P onte</w>
P al</w>
P UN
P S</w>
Nab onido</w>
N ej
Mu erto</w>
Mi tiʼ
Mi re</w>
Mer oz</w>
MINIS TERIO</w>
MEJ OR</w>
MAM BʼAJ</w>
Le e</w>
L é
Kʼ W
Kyqʼon xe</w>
Ky qʼ
Ky kyaqilx</w>
Kwest pe</w>
KAW IL</w>
K E</w>
K AWBʼIL</w>
Jun juntl</w>
Jer em
JO SUÉ</w>
J ü
In tro
IN KU
I RITU
Hor st</w>
His tory</w>
Hel en</w>
Hab l
H as</w>
Fin landia</w>
Feli ces</w>
F Í
EST OS</w>
ESP IRITU
ES TI
Di ría</w>
D EN</w>
Cur so</w>
Cre ta</w>
Co ok</w>
Chj onte</w>
CRI STO</w>
CRE ER</w>
CO LO
CHʼ EX
C e
C ambi
Bl essing</w>
Barto lomé</w>
BAUTI SMO</w>
B LO</w>
Apo los</w>
AN TES</w>
AL EG
A ʼ</w>
A mer
A GU
9 8
8 7
6, 5
5, 4
40 ,
4, 3
4 83</w>
4 51</w>
3 30</w>
27 6</w>
27 0</w>
26 ,
19 67</w>
1 19
ó vu
óvu lo</w>
í fic
ífic amente</w>
és tas</w>
ár sela</w>
Ín dice</w>
zar lo</w>
z it</w>
yekʼ bil</w>
ye kbʼil</w>
yb 16</w>
y era</w>
xi a</w>
xbʼal umin</w>
x siˈn</w>
x bˈaj</w>
wi pune</w>
we y
w ojtzqi
w ena</w>
w aʼna</w>
volunt ariamente</w>
vol vieran</w>
visit amos</w>
vi amente</w>
ves in</w>
ver éis</w>
ver me</w>
ver i
ver bio</w>
ven eno</w>
ven dían</w>
ve lo</w>
val ía</w>
val u
us ará</w>
us arlo</w>
ur gente</w>
tzʼj len</w>
tzeˈn chaqku</w>
txʼ aj
txk oʼne</w>
txk on</w>
tx jet</w>
tw atl</w>
tuʼn toq</w>
tu lil</w>
tu el</w>
ttzʼ u
ttzʼ il
ttxu ylal</w>
tsbʼ un</w>
ts te</w>
triun f
trib uno</w>
trat aban</w>
transfu sión</w>
tqˈan in</w>
tqʼo ʼntoq</w>
tqʼ ma</w>
tpa tin</w>
tok e</w>
tma ʼna</w>
tl oʼ
tloʼ ch</w>
tkˈ moˈn</w>
tku j
tili lxix</w>
ten ed</w>
te xix</w>
te kuxix</w>
te jiˈy</w>
tchikʼ bʼanjtz</w>
tch leʼn</w>
tbˈ yoˈn</w>
tanmi ˈn</w>
tal il</w>
taj xix</w>
tabʼqʼi yil</w>
t yabˈ</w>
t chʼexpuʼna</w>
sín tomas</w>
suje to</w>
suger encia</w>
suce dería</w>
su ministr
su gi
sto rak</w>
sto l</w>
sos pe
sis temas</w>
sirvi era</w>
sir va</w>
sinti era</w>
sim bo
simbo li
si o</w>
sexu alidad</w>
servi rá</w>
selec cion
segui ría</w>
sanjel al</w>
salv arnos</w>
salv ajes</w>
salud an</w>
salud ables</w>
sal ían</w>
sal udos</w>
s endas</w>
ro mana</w>
ro bo
ri qu
reí r</w>
reuni dos</w>
resuel to</w>
respetu oso</w>
respe taban</w>
rem ol
reco br
reb años</w>
reali stas</w>
re poso</w>
re concili
r estr
qˈoˈn tz</w>
qˈan bˈil</w>
qʼol bʼen</w>
qʼol bʼe
qʼanchaʼ lix</w>
qw aʼne</w>
quit arnos</w>
qui a</w>
quer éis</w>
que tas</w>
qna qʼet</w>
qi bˈ
qe xe</w>
qanmi ye</w>
q skʼoʼn</w>
q oˈn</w>
q liˈy</w>
q kˈ
q kʼamoʼne</w>
q kastiw</w>
q ejiˈy</w>
púr pura</w>
pul món</w>
pti ble</w>
prote ja</w>
procl am
prob ab
probab ilidades</w>
pro hib
predi que</w>
posi bili
pon dr
pl eno</w>
pi ʼn</w>
pesc adores</w>
pes ada</w>
perfec tas</w>
perfec cion
per siguen</w>
per damos</w>
per cep
pe tzintzjo</w>
pe d
pas arán</w>
par to</w>
par e
pare des</w>
par ali
palo ma</w>
pag aré</w>
p lech</w>
p las</w>
p est
oˈ kqe
or aban</w>
ológi co</w>
ojtzq intoq</w>
ofrec erle</w>
ocur ren</w>
ocup ada</w>
obli ga
o bis
nya pela</w>
nqˈmaˈn jiˈy</w>
nombr ados</w>
nn ane</w>
nkaw iˈn</w>
nbʼinch bʼene</w>
na ufra
na ciera</w>
n ón</w>
n xjalil</w>
n tzaje</w>
n samaʼne</w>
n qʼuqbʼaʼne</w>
n kˈatza</w>
n kux</w>
n bʼant</w>
mú s
mé sti
mu dé</w>
mu darnos</w>
mone da</w>
mo tor</w>
mo dernos</w>
mit la</w>
mill an</w>
mi kyxi</w>
mej orado</w>
medi temos</w>
maripo sa</w>
mar cha</w>
man cha</w>
magn ífico</w>
madu ras</w>
ma triz</w>
llev arlos</w>
lleg ando</w>
liter almente</w>
lipe y</w>
liber ó</w>
le ña</w>
lat ka</w>
lar xix</w>
la zos</w>
l or</w>
kʼwaʼl bʼaj</w>
kʼulin toq</w>
kʼuj la</w>
kʼiwla ʼne</w>
kʼ bʼil</w>
kysi pin</w>
kykʼmon teye</w>
kykaˈy ink</w>
kyech il</w>
ky yajin</w>
ky xnaqʼtzaʼne</w>
ky ximan</w>
ky kyaqila</w>
ky kawil</w>
ky jyo
kuʼx una</w>
ku jiˈy</w>
k larxix</w>
k irgu
kirgu ís</w>
juzg ados</w>
junx chˈin</w>
joy bˈil</w>
jbˈ al</w>
j oˈn</w>
iˈ chaq
itz en</w>
inti mi
interes aba</w>
inten sa</w>
insens atos</w>
inku jiˈy</w>
inju ri
inici ar</w>
ingr esos</w>
ingen i
inesper ada</w>
in vent
in formó</w>
impac tante</w>
imagin arnos</w>
ilu sión</w>
il tz</w>
il l</w>
igual dad</w>
ide on</w>
i ˈj
i xa</w>
há gase</w>
humanit aria</w>
homo sexualidad</w>
hi gos</w>
hay as</w>
h ás</w>
h arían</w>
grani zo</w>
graf ías</w>
gl ad
gh t</w>
gener osa</w>
ga ta</w>
g em
g arse</w>
funcion e</w>
fuer as</w>
fron tera</w>
fracas o</w>
fra ter
ficar ía</w>
fi cara</w>
fal samente</w>
f rey</w>
f ilo
extrañ a</w>
exhor tación</w>
evi tamos</w>
eter nas</w>
esfor cemos</w>
escrit a</w>
es pero</w>
entr an</w>
entien den</w>
entender lo</w>
eno jo</w>
encar ga</w>
embar azo</w>
educ ada</w>
ech ando</w>
e ves</w>
e valu
e ta
du erme</w>
dos cientos</w>
do mésti
disfru ta</w>
discipl in
dis tante</w>
dis puestas</w>
dis pu
di arias</w>
dese ar</w>
desa hog
decepcion ado</w>
dec ente</w>
debili tar</w>
de volverá</w>
d s</w>
cá mara</w>
cui daría</w>
cu bre</w>
corru p
cor r
coordin ador</w>
conver tir
contribu yó</w>
contribu ciones</w>
cont este</w>
cont ando</w>
consu mo</w>
consol ó</w>
consider ó</w>
consci entes</w>
conqui sta</w>
concep to</w>
conce dido</w>
compr ó</w>
compl acer
co ma</w>
cion ero</w>
ci viles</w>
ci tó</w>
ci p
chmil bˈaj</w>
chi ʼl</w>
chi cas</w>
ch yon</w>
ch olas</w>
cerem on
cer ti
cer dos</w>
centr amos</w>
car agua</w>
candi datos</w>
can del
can cionero</w>
cambi en</w>
cam ina</w>
cadá ver</w>
c ando</w>
bˈ yol</w>
bˈ ijte</w>
bʼ ine</w>
bási co</w>
bur len</w>
brill ante</w>
blasf emia</w>
benefici ará</w>
bas ura</w>
ayud arlas</w>
av in</w>
autén tico</w>
ati ra</w>
atem ala</w>
asis ten</w>
ar am
apoy ando</w>
apar tar</w>
ap ente</w>
anim arnos</w>
anim ada</w>
anh elo</w>
anali zando</w>
an toqe</w>
amena za</w>
am bu
alkye tzun</w>
alkye taq</w>
ali s
alcanzar las</w>
ador en</w>
adecu ada</w>
ad ero</w>
acus ó</w>
ac teri
abier ta</w>
a torio</w>
a cia</w>
Z latka</w>
XO L</w>
XO Bʼ</w>
X itzen</w>
Vo y</w>
Ver sion</w>
Tzaqʼ webʼil</w>
Tuˈn petzintzjo</w>
Tok len</w>
Tiˈ tzila</w>
Tiqu ˈnil</w>
Ti l
Ti atira</w>
Tar so</w>
Tam ara</w>
TZʼIBʼINKU YE</w>
TR AS</w>
TEN X</w>
T qʼij
T ob
Su pongamos</w>
Su mo</w>
Su iza</w>
Sis aq</w>
Se p
Se m</w>
Se gui
Sant ísimo</w>
Sab emos</w>
S ri</w>
Ro m
Ri ca</w>
Ri ana</w>
Ran di</w>
RE LA
R ech
Q aj</w>
Q XI</w>
Q TEN</w>
Pue den</w>
Pro fec
Per ú</w>
PRO V</w>
PO SI
PAK BʼAN</w>
P ón
P ap
ON DAD</w>
OB JE
Nico le</w>
Ni cholas</w>
Ni caragua</w>
New s</w>
NI MA
NIMA Q</w>
N diose</w>
N aq</w>
Mon i
Meli ssa</w>
Mac millan</w>
MUER TE</w>
MEJEBʼ L
MEJEBʼL EʼN</w>
MAS TL</w>
M ya
Lan ka</w>
L am
Ky kyaqil
Ky anqʼibʼil</w>
KYI M
KY KYAQIL</w>
K W
Joh ny</w>
Jerem y</w>
Jenni e</w>
J im</w>
I v
Hen ry</w>
Hab lar</w>
H á
H ens
H able</w>
Gu atemala</w>
Ge of
Ga il</w>
GUI EN</w>
G ideon</w>
G avin</w>
G REG
Fine hás</w>
FOR TAL
F ul
F AL
Escu ch
En tr
El ena</w>
Efra ín</w>
E ma
Di señ
Di ez</w>
D O
Cuán tas</w>
Culti vemos</w>
Cui dado</w>
Constr ucción</w>
Com pr
Com ités</w>
Clau de</w>
Chi le</w>
Car olina</w>
Car men</w>
Caperna úm</w>
C arlos</w>
C amb
C ER</w>
Bʼ EL</w>
Bʼ E</w>
Bíbli ca</w>
Bri zit</w>
Br yn</w>
Bien aventur
Ben e
Be tuel</w>
Ban glad
B ONDAD</w>
B E
B A</w>
Aʼ ye
Atz pe</w>
Anali cemos</w>
An te</w>
Am nón</w>
Acer quémonos</w>
ATE ʼ</w>
AMI W
AL GUIEN</w>
A h
9 6
7, 0
6, 7
5, 9
5 71</w>
5 37</w>
40 8</w>
4 30</w>
3 65</w>
3 46</w>
3 33</w>
3 24</w>
29 4</w>
26 1</w>
2 37</w>
2 33</w>
199 0</w>
19 85</w>
19 7</w>
19 66</w>
19 59</w>
19 49</w>
19 31</w>
18 6</w>
17 2</w>
15 6</w>
15 13</w>
1 2000</w>
í ais</w>
ér f
ándo os</w>
Ñ ANA</w>
Á ng
yekʼun xa</w>
xo bˈil</w>
xiʼ toq</w>
x pen</w>
winq lala</w>
wi la</w>
weʼ yin</w>
wen jo</w>
visit ando</w>
vini endo</w>
vigil ando</w>
vigi lia</w>
via jaban</w>
vi o
vesti duras</w>
ver duras</w>
ven ia</w>
vas o</w>
vac ía</w>
v ara</w>
un in</w>
un i</w>
uestr a</w>
u e</w>
tzʼi bʼet</w>
tzul taq</w>
tzaqpi bˈl</w>
tzalaj ele</w>
txok ine</w>
trat ara</w>
tranqui los</w>
trai ción</w>
trabaj aron</w>
tor ce</w>
toj tzq
to car
tna ˈn</w>
tmoj bʼabʼil</w>
tma koʼn</w>
tlo kʼ</w>
tkˈ atzjo</w>
tkʼ aʼ
tkʼ as</w>
tj i
tiˈj x</w>
tiʼ tzun</w>
ti er
ti dades</w>
ti chaq</w>
terr áneo</w>
tempor al</w>
tem i
te xjal</w>
te tzbʼil</w>
te o</w>
te atro</w>
tch winqlala</w>
tbˈ iˈn
tar las</w>
taqˈ ni
taq ˈ</w>
tal e</w>
taj qˈoj</w>
ta yon</w>
t yuk
t t</w>
t s</w>
t le
t laj
t kleta</w>
t junin</w>
t ju</w>
sú b
sus ten
supervis a</w>
sufr ían</w>
sub título</w>
sto r</w>
sti n
sik ta</w>
sent arse</w>
sent ada</w>
sec ará</w>
se quía</w>
sbˈ ul</w>
sal í</w>
sal ga</w>
sagr ada</w>
sab rá</w>
sa ida</w>
ru inas</w>
ru eb
ro d</w>
riv ales</w>
ri da</w>
reun imos</w>
resul tará</w>
restr in
respetu osa</w>
renov ar</w>
refle jar</w>
recor daba</w>
rebel aron</w>
reali za</w>
re conocieron</w>
raci smo</w>
r ama</w>
r ado</w>
qˈ obˈa</w>
qʼu qe</w>
qx jel
quit arse</w>
quem ar</w>
que le</w>
que damos</w>
qlix je</w>
qe xixjo</w>
qan ilte</w>
q xnaqʼtzaʼne</w>
q xilen</w>
q saqchan</w>
q mejebʼleʼne</w>
q kʼwal</w>
q kan
pusi eran</w>
puer to</w>
psi có
propi edades</w>
produ cido</w>
pro verbio</w>
preci pit
pr esta</w>
pr emi
posibili dades</w>
por ción</w>
poder osas</w>
pizar rón</w>
pes im
persua dido</w>
perman ecen</w>
per spicacia</w>
per fu
per dida</w>
peque ñ
pen az</w>
pe tzele</w>
pas tor
paralí tico</w>
par ezcan</w>
pad ecer</w>
pa ʼ
pa quete</w>
pa gó</w>
pa bʼil</w>
oí rlo</w>
oy bʼil</w>
organ ismos</w>
or ador</w>
ol og
ol bʼaʼn</w>
ofrec erse</w>
odi aban</w>
octa vo</w>
ob vio</w>
o ían</w>
o xetl</w>
o dic
o ch
nyaku tlaj</w>
ns maˈn</w>
nnim saʼne</w>
nme ʼjele</w>
nja ˈy</w>
nin taq</w>
nie tos</w>
ni s</w>
neutr al</w>
nervi oso</w>
neg aron</w>
nbʼinch aye</w>
nazar eo</w>
na ve</w>
na h</w>
n yekˈin</w>
n xjalila</w>
n kʼwaʼl</w>
n kaniˈn</w>
n jyone</w>
n bʼeye</w>
mu damos</w>
mor tal</w>
mlay xix</w>
mit os</w>
mision al</w>
mir é</w>
minis tra</w>
milagr osa</w>
me los</w>
me bˈe</w>
mater na</w>
mas turb
mas car
mani fi
man tza</w>
ma ˈ
luˈ lin</w>
lo m</w>
lo bˈj</w>
lluvi as</w>
llev aría</w>
llev arlo</w>
llen ado</w>
llam e</w>
llam amos</w>
ll ene</w>
libr as</w>
libr arse</w>
liber ado</w>
lep che
lav arse</w>
lan zó</w>
ladri y</w>
labʼ ina</w>
l xjal</w>
l ones</w>
l ob
l ina</w>
l ento</w>
kˈu ˈjjo</w>
kˈay bˈil</w>
kʼixkʼ ej</w>
kywi ˈy</w>
kyu ʼjine</w>
kyqʼ maʼn</w>
kynim in
kynaj bˈilxjal</w>
kyna ˈn
kyl on
kykʼ am</w>
kykaˈyink tzin</w>
kych yoˈn</w>
ky xnaqˈtzbˈil</w>
ky ten
ky tata</w>
ky kʼujlalil</w>
ky kawbˈil</w>
kuj sin</w>
ku xixa</w>
ko ẍ
kaw ine</w>
k s</w>
justi ficado</w>
ju g
jaˈ lin
japun xix</w>
ja tlaˈy</w>
j eron</w>
inscri pción</w>
inquie ten</w>
inoc entes</w>
incompar able</w>
in útil</w>
in qe</w>
in l</w>
in correcto</w>
in che</w>
im parci
ilaˈ ku</w>
ikʼ una</w>
ikyqe xjo</w>
hu érf
horri ble</w>
hac ed</w>
habl ará</w>
h úm</w>
h em
gü e
gor riones</w>
go za</w>
gim na
gen era</w>
gan an</w>
g én
físi camente</w>
fundament ales</w>
for o</w>
fin anci
fer vor</w>
fer me
f il
expuls ó</w>
existi ó</w>
exist ía</w>
exi lio</w>
ex sin
ex pi
ex hibi
estudi arla</w>
estu vimos</w>
est arás</w>
est adouni
espec íficos</w>
esca se
es pon
enten damos</w>
ens al
enfer mó</w>
ender ez
encu esta</w>
en riqu
en j</w>
em rod</w>
em borrach
elqʼ aʼn</w>
ele g
el nin</w>
ec in
e tzin
dé cada</w>
don ativos</w>
divi dir</w>
disfru taba</w>
dis par
direc tos</w>
dieci ocho</w>
diagnosti caron</w>
di remos</w>
di chas</w>
destro zado</w>
despier tos</w>
desilu sion
descubr í</w>
des cuidar</w>
dependi endo</w>
depen derá</w>
dedic ados</w>
deb amos</w>
de jaban</w>
d ra</w>
cí r
cuán tos</w>
cri ó</w>
corri ente</w>
contr ato</w>
conten ta</w>
constru yó</w>
constan tes</w>
conoc es</w>
confi d
conec tarin</w>
concentr arnos</w>
concentr arme</w>
con tenía</w>
con ser
comun ista</w>
comun ismo</w>
comput adoras</w>
compren sivo</w>
compren día</w>
comple jas</w>
comi eran</w>
[...]
