#version: 0.2
l i</w>
c h
n a
o s</w>
a n
q u
l a
ʼ a
e s
e r
e n
c u
d e</w>
i n
s a
a n</w>
r a
e l</w>
r i
t i
t a
b ʼ</w>
r e
ch i
qu e</w>
c o
l a</w>
l e
u t</w>
r e</w>
i l</w>
c i
a r
u n
a b
e n</w>
l i
a l</w>
h o
e b</w>
r u</w>
la j</w>
e s</w>
i n</w>
d o</w>
na q</w>
k ʼ
d i
l os</w>
c a
t e
b ʼ
p o
m a
t o
b ʼa
k ʼa
e bʼ</w>
m i
na k</w>
s i
t e</w>
ß a
x y
l o</w>
e ho
ch i</w>
qu i
t o</w>
J eho
p a
t z
r o
d e
ó n</w>
l o
a s</w>
k i
j o
t a</w>
sa ʼ</w>
u n</w>
v i
n e
s o
t r
h a
m o
ch ʼ
la l</w>
j un
s u
qu e
ch a
e ʼ
s e</w>
i os</w>
ß u
co n
d a
q a
t en
s e
c ßa
p u
sa ß</w>
k a
m os</w>
p ar
D ios</w>
@ -
@- @</w>
m an
a j
t u
x b
d a</w>
la s</w>
p er
o o
r u
xy e</w>
Jeho v
m o</w>
k il</w>
q ßu
n o</w>
a l
í a</w>
m u
r a</w>
w an
par a</w>
b i
h i
o n
ci ón</w>
s u</w>
â n
s a</w>
x kʼ
co n</w>
k eʼ
que ß
q ʼ
li x</w>
m p
cu i
po r</w>
r es
j un</w>
j e
a ʼ
cu an
l e</w>
cu a
n i
le bʼ</w>
c h</w>
j u
bʼ a</w>
w i
ab ʼa
g u
d os</w>
J es
m e
a a
t ra
d el</w>
chi x
h eb</w>
x bʼa
o n</w>
s i</w>
o r
Jeho bʼa</w>
ri x</w>
e r</w>
a j</w>
o x
á s</w>
t â
a ß
le s</w>
Jehov á</w>
bʼa l</w>
n u
m en
y u
b re</w>
kʼa ʼ</w>
j o</w>
na ʼ
le b</w>
k ß
chi ru</w>
aʼ in</w>
ne keʼ
d es
ab ʼ
na mi
p ro
te nami
an ti
e l
b a
chʼ oo
á n</w>
h ab
d o
ch an
tenami t</w>
l â
t es
su s</w>
a k</w>
ú s</w>
da d</w>
Jes ús</w>
n o
f i
un a</w>
wan k</w>
U t</w>
J o
wi ʼ</w>
n os</w>
e e
c a</w>
Q u
m e</w>
chʼoo l</w>
e b
tz o
cu an</w>
anti l</w>
in kʼaʼ</w>
g a
f u
ch ß
cßa ß</w>
é n</w>
qu il</w>
u s</w>
chix jun
cua ß</w>
m a</w>
t in
b li
cui ß</w>
ch o
re s</w>
chi rix</w>
u s
qu eb</w>
g o</w>
m â
S antil</w>
er a</w>
t os</w>
ri kʼ
í as</w>
naʼ lebʼ</w>
tr os</w>
s ra
p e
aß an</w>
c ß
L i</w>
m in
K â
Y os</w>
x i
chi c</w>
h ebʼ</w>
p i
chi k</w>
H u</w>
xbʼa an
tz ʼ
t er
t an</w>
m ás</w>
xb an</w>
y a
l u
v er
o r</w>
co mo</w>
I sra
c o</w>
Isra el</w>
es ta
po r
x a
ra j</w>
é l</w>
j a
1 0</w>
S a
i bʼ</w>
h er
a h</w>
na x
Jehov ah</w>
ri s
k u
Kâ cuaß</w>
c e</w>
k ß</w>
e j</w>
on es</w>
te ß
rikʼ in</w>
1 5</w>
ri qßu
er on</w>
ch an</w>
s er
ti x
ân u</w>
tr a</w>
te ʼ
chʼ o
t an
t es</w>
J u
i s
é s</w>
r o</w>
p re
in cßaß</w>
re y</w>
kʼa ru</w>
es t
a w
a t</w>
y o</w>
m i</w>
ne queß
nu es
ra lal</w>
s o</w>
sa l</w>
qui x
a ʼa
e li
h a</w>
la k</w>
cuan do</w>
qßu e</w>
t u</w>
in kil</w>
v o
q al</w>
g i
k o
per o</w>
re heb</w>
b a</w>
d u
l an
a c
c es</w>
a na
chan ru</w>
d as</w>
q ʼa
a s
1 1</w>
qu é</w>
j os</w>
a r</w>
cu i</w>
en te</w>
n in
v e
ta s</w>
qui xye</w>
h e
b al</w>
L I</w>
ci a</w>
k o</w>
na s</w>
riqßu in</w>
m bre</w>
b ra
1 2</w>
aj cuiß</w>
tr o</w>
abʼa l</w>
ta l</w>
chixjun il</w>
to j</w>
na xye</w>
e mp
so bre</w>
c ar
i i
lo m</w>
i s</w>
man k</w>
ti n</w>
n k</w>
ki x
x in
aʼa n</w>
ch o</w>
m bi
B i
ten qʼ
xkʼ u
Qu é</w>
n a</w>
er o</w>
er ra</w>
por que</w>
a yu
c er</w>
ó mo</w>
o b
jo ʼ</w>
k an</w>
ma a
z a</w>
kʼ an
r á</w>
cha q</w>
B ʼ
m b
O S</w>
ʼ kan</w>
ô l</w>
x na
in k</w>
e x
1 4</w>
y e</w>
e d
1 3</w>
na qa
j i
b il</w>
A N
b an</w>
Bi bli
xkʼ e</w>
l le
in o</w>
Bibli a</w>
D a
g un
xbʼaan u</w>
e x</w>
jo ß</w>
ʼa j
aj wiʼ</w>
na ru</w>
ci ones</w>
di jo</w>
kʼ u
x chʼool</w>
â l</w>
j el</w>
sa l
s ta</w>
tz ʼa
v a
gu i
en do</w>
c er
ta a
mo ko</w>
p r
kʼa sal</w>
C h
l il</w>
k ebʼ</w>
vi d</w>
e mos</w>
lâ in</w>
J er
la n</w>
- -</w>
d es</w>
c an</w>
1 6</w>
Da vid</w>
1 7</w>
x al</w>
b u
to do</w>
an i
xb ê
i lo
í an</w>
M o
chʼ u
mbi én</w>
to dos</w>
re hebʼ</w>
min s</w>
man os</w>
x kʼa
y oo
xbʼa an</w>
ar an</w>
so tros</w>
cßa ß
na n</w>
an i</w>
cuan queb</w>
p á
cha k</w>
ta k
ân k</w>
t ê
ru u
tzo lom</w>
hi jos</w>
c an
y ô
en t
w a
f a
M a</w>
ra qal</w>
el los</w>
jo ʼkan</w>
t qa
men te</w>
f e
x u
cu î
ch ʼ</w>
g ra
d ar
x eʼ
ris ti
i x
to n
E n
xb ânu</w>
ki xye</w>
C H
chi ru
ta mbién</w>
f or
v o</w>
di o</w>
sa s</w>
per so
bʼ an
jo l</w>
ton ces</w>
cßaß ru</w>
ma laj</w>
es ta</w>
l bʼal</w>
v en
si lal</w>
1 9</w>
ka na
bʼ i
o c</w>
E S
cu a</w>
x cßa
ta r</w>
ʼa m</w>
po n
E s
ju naq</w>
d ía</w>
cu u
h u</w>
N a
n i</w>
b an
tz ß
ti erra</w>
cu e</w>
na ßa
g a</w>
M a
ox la</w>
w i</w>
chi ha
ti en
ch â
es i
chixjun i
la a
1 8</w>
in q</w>
m al</w>
x bʼ
u u
je j</w>
mi en
c ri
R e
d er
mp lo</w>
de ci
pa la
h u
k ʼ</w>
tra s</w>
se r</w>
vi da</w>
C u
o k</w>
y a</w>
est á</w>
á n
2 0</w>
ʼ q</w>
l ê</w>
di s
ta lil</w>
e ß
En tonces</w>
g r
q ʼ</w>
S e
t z</w>
un kil</w>
ten to</w>
se ñ
h il</w>
hab ía</w>
na ka
cuî nk</w>
w u
c ßu
z o</w>
ri l</w>
P or</w>
xbʼaan unkil</w>
es te</w>
ch ʼa
la c</w>
T i
l la
k eb</w>
K ʼa
cha abʼ
Ju an</w>
A A
co r
chß ôl</w>
ri b</w>
te o</w>
as í</w>
abʼa n</w>
a ñ
h e</w>
i m
ta r
pu e
c ción</w>
a c</w>
ch ß</w>
ma y
kʼa ʼ
chʼo chʼ</w>
o na
jun eli
K ʼ
C ómo</w>
x lo
an te</w>
ma an</w>
c ß</w>
un i
de o</w>
an do</w>
hi jo</w>
to o
a qu
ra s</w>
ha cer</w>
Mo is
k oo
in c</w>
mi s
mu ch
p res
x ta
ra ho
pu eb
Jer u
m k</w>
y o
di ce</w>
fu e</w>
ki lal</w>
abʼ an
o m</w>
l ti
2 1</w>
no koo
í bli
so n</w>
es to</w>
de b
c re
ab a</w>
P a
xbʼ e
u silal</w>
man o</w>
aa tin</w>
sa b
ab lo</w>
w inq</w>
A ba
ku tan</w>
la q</w>
Aba nan</w>
p â
o ra
an u</w>
chixjuni leb</w>
tenqʼ a</w>
xy u
L I
j w
kʼ e</w>
g os</w>
aß in</w>
ch e
l in
d re</w>
chi ʼ
ri bʼ</w>
qa chʼool</w>
v a</w>
s ti
chʼu ut</w>
T I
ca m
Mois és</w>
0 0</w>
naßa jej</w>
ra z
ca sa</w>
ti nak</w>
lo k</w>
k ßa
cuan quil</w>
co m
s an
2 2</w>
pue de</w>
chʼa ʼaj
pá r
kʼan je
ri a</w>
L â
es i</w>
ri q</w>
es ti
s en
ro n</w>
sal én</w>
u in</w>
P ablo</w>
x ka
ga r</w>
chi chʼochʼ</w>
l â</w>
Jeru salén</w>
bʼa ʼ</w>
i w</w>
pueb lo</w>
ar on</w>
s to
pu és</w>
po de
n eb</w>
S i
ris to</w>
ri o</w>
p en
ma s</w>
b en
ʼ ebʼ</w>
ho mbre</w>
da do</w>
co sas</w>
é is</w>
na raj</w>
u e
b íbli
z a
ti emp
s ut</w>
es tu
I n
queß x
3 0</w>
mâ c</w>
en cia</w>
lâ ex</w>
v u
h an</w>
cho ch</w>
chß o
c e
xcßa jol</w>
2 4</w>
c la
p ri
tenqʼ an
re ga
cu u</w>
us ta</w>
con tra</w>
es o</w>
bra s</w>
ox ibʼ</w>
pa abʼan
nu m
cho ʼq</w>
cho kß</w>
t ó</w>
di ó</w>
ú n</w>
her manos</w>
ê re</w>
chiha bʼ</w>
Ch an
t ri
ti jo
ß can</w>
xi c</w>
pro fe
l k</w>
chaabʼ il</w>
t bʼ
da des</w>
cu tan</w>
2 0
k tes
con o
kʼan jel</w>
c ab
bi en</w>
e ch
pu ktes
ha sta</w>
yu ʼam</w>
d r
ca s</w>
p o</w>
ci o</w>
des pués</w>
bʼa al</w>
J a
da r</w>
kana bʼ</w>
sa ʼebʼ</w>
chiru heb</w>
re ci
o s
k si</w>
gi p
d á</w>
L aj</w>
nues tra</w>
kʼaʼ ut</w>
tiemp o</w>
la m</w>
ee talil</w>
mb res</w>
2 3</w>
xkʼa bʼaʼ</w>
ci as</w>
a mo
ci e
L a</w>
wan q</w>
perso nas</w>
mu y</w>
bʼ il</w>
ja lan</w>
N A
an je
en tes</w>
y î
bʼ tes
xbê neb</w>
na j
eʼ k</w>
ch al</w>
w bʼal</w>
an eb</w>
ta w</w>
S al
xy ee
ar á</w>
D E</w>
el la</w>
t i</w>
si ón</w>
no sotros</w>
wan kebʼ</w>
q e</w>
s in</w>
qu in
Jes us</w>
ya al</w>
na ʼa
sa r</w>
li n</w>
Ju dá</w>
vo l
b o
e j
re e
teß x
t ro
na abʼal</w>
raz ón</w>
tzo l</w>
ti j</w>
j al
wi ibʼ</w>
en señ
chßo chß</w>
tes ti
b âl</w>
c os</w>
d on
cu ânk</w>
e je
ʼ k</w>
tu s</w>
cu lo</w>
res pon
tr u
c ómo</w>
t q
E gip
le n</w>
b eb</w>
í o</w>
y al</w>
do r</w>
nekeʼ x
an os</w>
Egip to</w>
hi zo</w>
lâ at</w>
mo co</w>
ni ma
a li
v os</w>
o tros</w>
c risti
m í</w>
mu er
ho m</w>
ca na
ci endo</w>
abʼa anu</w>
â tin</w>
r en
ho ra</w>
na q
pre gun
Qu i
ent re</w>
L e
a mos</w>
b aj
p ó
ta do</w>
c en
con g
a do</w>
xbê n</w>
cu al</w>
esta ba</w>
x wan
x jun
b ânu</w>
m un
I sa
Bʼ i
ha y</w>
y ô</w>
aj cui</w>
pr en
ne que</w>
ca u
ci u
ho mbres</w>
x ak</w>
ma r</w>
in quil</w>
Kʼa ru</w>
cong rega
añ os</w>
o f
paabʼan el</w>
C an
2 5</w>
chi q
ch ox
cu r
her maan</w>
b ra</w>
O R
aw abʼ
N o</w>
x cuanquil</w>
pu es</w>
v e</w>
to das</w>
ti na
ca r</w>
pa abʼal</w>
k risti
de lan
to da</w>
kristi ʼa
vo sotros</w>
pa tzʼ
ni m
bʼan kil</w>
t h</w>
ruu q</w>
ne c
a u
xbʼe en</w>
ra y
kristiʼa an</w>
g o
us te
chʼaʼaj kilal</w>
bʼa n</w>
po ya
R U</w>
L A
c â
in eb</w>
an jel</w>
yoo k</w>
nues tro</w>
la j
wu lak</w>
mo s
x sa
v er</w>
s inkil</w>
co razón</w>
de más</w>
T o
ray lal</w>
mi li
in a</w>
tzʼa qal</w>
tien e</w>
vu es
ser á</w>
emp re</w>
ca da</w>
kʼanje lak</w>
aqu í</w>
tz ßa
g ún</w>
L A</w>
E l</w>
yô queb</w>
te mplo</w>
maa kʼaʼ</w>
ed ro</w>
ta t
b e</w>
un quil</w>
chi ri
a m</w>
res i</w>
E L</w>
pode mos</w>
P ro
ju nak</w>
R I
qʼa xal</w>
Can ción</w>
2 8</w>
no mbre</w>
Bʼi ch</w>
xkʼ ut</w>
e z
fu er
B ʼ</w>
si empre</w>
nim la</w>
he cho</w>
tijo k</w>
qßu e
es per
ar a</w>
con tra
na m</w>
w e</w>
t ú</w>
k e
x c</w>
a mi
a les</w>
x ko
juneli k</w>
C ha
le c
u e</w>
P edro</w>
l en
wa ʼ</w>
ca do</w>
p le
d ías</w>
fa mili
ro ch
congrega ción</w>
ʼ A
C hi
mi s</w>
m in</w>
ab a
co b</w>
o so
c to</w>
eb al</w>
x tenqʼa</w>
ta xak</w>
xb ân
ca ß
s é</w>
ß leb</w>
î c</w>
xwan kil</w>
poya nam</w>
mien to</w>
te x
Jo ßcan</w>
c en</w>
cui ß
co mp
un o</w>
jo s
tzo lbʼal</w>
es cu
cuiß chic</w>
qʼ e</w>
ya abʼa
l í</w>
in ebʼ</w>
ra b
eje mplo</w>
qu er
Sal mo</w>
2 6</w>
0 00</w>
jw al</w>
cuu lac</w>
2 7</w>
re uni
Ma teo</w>
t í
w a</w>
re y
an tes</w>
p í
rikʼ inebʼ</w>
E S</w>
ve z</w>
na w</w>
2 9</w>
s í</w>
de r</w>
men to</w>
I D
chiq u</w>
patzʼ om</w>
x ti
esta s</w>
xbân unquil</w>
tu ra</w>
mis mo</w>
ñ o</w>
delan te</w>
se gui
in ci
xyee bʼal</w>
re tal</w>
f er
chiʼ us</w>
vi vi
ta m</w>
i k</w>
M ar
hab la
u x
re mos</w>
E N
ser vi
se a</w>
chox a</w>
na xkʼe</w>
tbʼ esi</w>
cu er
a gu
men os</w>
é n
so l
puktes ink</w>
si er
mo n
m ar
lu gar</w>
amo r</w>
M i
chiru hebʼ</w>
kßa xal</w>
an a</w>
x cß
lle v
N e
b er
du r
A bra
ver dad</w>
â lal</w>
w abʼ
m ón</w>
es e</w>
ter i
k e</w>
x chßôl</w>
ona l</w>
xy î
p la
ki xbʼaanu</w>
est án</w>
ne que
aj el</w>
er an</w>
e ji
xu l</w>
kß e
B I
a hora</w>
i r</w>
R uu
Lâ in</w>
f e</w>
cu en
T Z
1 9
o j
bu en
ree tal</w>
A po
ru chi
mun do</w>
Ja cob</w>
hi lal</w>
sa ch</w>
pre di
cui b</w>
í n</w>
di ciendo</w>
x tes
an za</w>
x naʼlebʼ</w>
me jo
uste d</w>
s te</w>
k cuan</w>
x ra
v an
Ruu chichʼochʼ</w>
con ver
si gui
im por
man a</w>
g ente</w>
b le
Se ñ
k al</w>
Señ or</w>
E bʼ</w>
g en
pala bras</w>
ân keb</w>
chʼo l</w>
si s</w>
er a
qʼa x</w>
ro choch</w>
r án</w>
jun chʼol</w>
ora ción</w>
x ch</w>
pu ed
hab i
cß anje
ni a</w>
nues tros</w>
tra baj
chʼ i
bʼi deo</w>
sen ti
es cri
par te</w>
mâ cßaß</w>
mu cho</w>
qu i</w>
î k</w>
L u
riqßu ineb</w>
sa ch
al gun
ta d</w>
C risto</w>
des de</w>
me di
la ak</w>
ban bil</w>
C a
kʼ a</w>
l la</w>
C o
eji lal</w>
V e
pár r</w>
b le</w>
tzʼa q
a pó
nec esi
Jo b</w>
tan to</w>
sto l</w>
ra hilal</w>
ple ti
en to</w>
tak la</w>
ta sal</w>
con fi
ra j
j a</w>
ʼa a
l bal</w>
E n</w>
P ero</w>
ilo c</w>
fu eron</w>
H a
Jo sé</w>
so lo</w>
n á
qui en</w>
ten er</w>
ma ak</w>
ten ía</w>
p a</w>
l mank</w>
es pi
a pren
xkʼu l</w>
ju lti
ba r</w>
chan chan</w>
é r
su m
aa tinak</w>
m â</w>
Re ino</w>
B e
na w
kʼ oxla</w>
ix k</w>
i do</w>
x ni
m ó</w>
juneli c</w>
Jes u
gr an</w>
k abʼal</w>
ha ce</w>
xy ânkeb</w>
ca min
ca b</w>
bʼa r
a ri
pa dre</w>
i b</w>
B LI
pí ri
d ó</w>
3 1</w>
tzʼ e
much os</w>
ayu dar
ES T
cer do
ab ilo
bʼar wiʼ</w>
b ê
Na q</w>
y e
ki xkʼe</w>
I L</w>
m an</w>
S A
mi na
ciu dad</w>
R o
án g
sa cerdo
ju d
ma aʼ
es a</w>
1 0
Sa ú
s es</w>
Saú l</w>
ayu da</w>
x tzolbʼal</w>
cßu l</w>
chiri x
â cue</w>
do res</w>
or o</w>
B abilo
ra b</w>
mu si
bʼ ej</w>
res u
pa ra
â tina
Babilo nia</w>
al lí</w>
x ku
awabʼ ej</w>
qa yuʼam</w>
ri lbʼal</w>
Q A
E li
o h</w>
xy aa
na l</w>
ch ee
ac e
ri tu
pa sa
res il</w>
me dio</w>
na u</w>
tzʼ il</w>
a b</w>
pri m
per el</w>
un que</w>
profe ta</w>
kß on
ha ʼ</w>
c ó</w>
qʼ e
x eß
pa re
e go</w>
ii k</w>
en es</w>
le a</w>
algun os</w>
Sa lo
L os</w>
E Bʼ</w>
âtina c</w>
wa k
s ino</w>
ne r</w>
c í
píri tu</w>
m il</w>
C or
A ß
ha q</w>
vi deo</w>
ji k</w>
pleti c</w>
en vi
jal an
tix qʼax</w>
si g
yo ʼ
c ía</w>
tu min</w>
man q</w>
s to</w>
ab an</w>
xi k</w>
may ej</w>
famili a</w>
impor tan
ho onal</w>
er e</w>
châ bil</w>
p li
er es</w>
d res</w>
man era</w>
qu in</w>
po si
li dad</w>
i ibʼ</w>
o jo
espi ritu
ch a</w>
tr uu
in ti
v ino</w>
ʼ an
E R
cu mp
ac er
t î
cha kß
sa bi
Sa ʼ</w>
es tos</w>
e di
vi si
Pa la
3 3</w>
o tro</w>
de j
ana kcuan</w>
w u</w>
i r
er to</w>
mo n</w>
bʼ en
tzʼ ii
chiha b</w>
aw il</w>
qui lal</w>
â k</w>
qßu in</w>
T a
je r</w>
qʼ on
ni m</w>
ta q
f eli
pr inci
se gu
q ibʼ</w>
mu jer</w>
mos tra
xyî b</w>
too ruuq</w>
pued en</w>
li b
xa maan</w>
na n
E f
aba ß</w>
con se
cam s
rey eb</w>
er os</w>
che ß</w>
c risto</w>
Q a
yu cuaß</w>
truu q</w>
ʼa wabʼ
sa ho
jo lo
xkʼ e
teʼ x
CH A
don de</w>
nu e
ki lebʼ</w>
an ci
Jesu cristo</w>
BI BLI
ruu chichʼochʼ</w>
mâ usilal</w>
maa re</w>
V ID
b ios</w>
CH I
3 2</w>
BIBLI A</w>
î n
e mb
ca ción</w>
ri beb</w>
S an
D ani
chʼu tam</w>
E b</w>
re li
xa q
r os</w>
ta dos</w>
d án</w>
ʼaj mank</w>
perso na</w>
S B
SB G</w>
c l
a do
in ter
estu di
mejo r</w>
pa dres</w>
ma k</w>
S o
si do</w>
ka mk</w>
k el</w>
z as</w>
s os</w>
re g
ch e</w>
E z
her mano</w>
t ô
ʼ ok</w>
d en
ân c</w>
3 5</w>
ta ron</w>
pa tz
di cho</w>
w 0
Chan ru</w>
f ru
xkʼu tbʼesi</w>
xy ebal</w>
o y
T esti
pa z</w>
e m
d an</w>
cha lk</w>
c ti
b us
chß ô
ari n</w>
t ân
qßu i
xna wbʼal</w>
di do</w>
di a</w>
Y OS</w>
3 4</w>
si kʼ</w>
cana b</w>
q ebʼ</w>
u ti
o so</w>
t ß
j cual</w>
fi ci
deb emos</w>
w an</w>
u l</w>
pa a
aqu el</w>
xta wbʼal</w>
naka a
nima jcual</w>
i mp
cu l
al go</w>
f al
en contra
Isa ías</w>
xkʼ oxla</w>
much as</w>
ch ê
ix q</w>
ar ón</w>
3 7</w>
u la
pala bra</w>
ten kß
ma do</w>
tz a
jo ß
û nk</w>
yaabʼa si</w>
tzʼ in</w>
nequeß x
Dani el</w>
C I
na ʼajmank</w>
chʼo l
TZ O
ue go</w>
ra r</w>
des e
x tenamit</w>
ka w
ar tí
ux l</w>
p es
L uego</w>
qʼ ra
ma l
T ES
Salo món</w>
xna ßleb</w>
na xkʼut</w>
gui en</w>
lle g
pe k</w>
deci r</w>
a unque</w>
es po
b e
le bʼaal</w>
gr an
al guien</w>
AA TI
apó stol</w>
S E
le c</w>
bíbli co</w>
á is</w>
to rio</w>
po co</w>
S I
xi cß</w>
to j
h as</w>
M A
T A
v en</w>
Ti erra</w>
ʼawabʼ ejilal</w>
qui enes</w>
o l
chee kel</w>
na ca
D i
qʼra bʼ</w>
mo lam</w>
tien en</w>
la do</w>
kß al</w>
ba leb</w>
h ar
x il</w>
k i</w>
ru heb</w>
4 0</w>
nu me
e k
ha k</w>
de as</w>
xyu ʼam</w>
muer te</w>
des tru
r é</w>
raj lal</w>
es il</w>
quix qßue</w>
kʼa m</w>
e mi
di os</w>
camin o</w>
f ri
paa bʼ</w>
j eb</w>
na da</w>
b tes
j as</w>
chʼ o</w>
pu er
hab ían</w>
a le
cuen ta</w>
Jo ʼkan</w>
N o
ʼa j</w>
in i
chan queb</w>
U N
a d
J O
áng el</w>
ver bios</w>
na ciones</w>
í os</w>
sa li
ra bʼ
LI L</w>
AATI N</w>
i laq</w>
esta ban</w>
xkʼe bʼal</w>
ro ksi</w>
o k
lâ o</w>
na bal</w>
Q U
Pro verbios</w>
su me</w>
M OS</w>
A arón</w>
f in</w>
z ar</w>
kʼ e
mi iw</w>
X CHA
reci bi
Q ʼA
o l</w>
cha p</w>
abʼa lebʼ</w>
Kâ cua</w>
n or
chʼo lo
chi cuu</w>
x qa
eb re
e de
Ti mo
yoo kebʼ</w>
xkʼu lu
A b
z ar
A J</w>
ku bʼ
hi ci
d rá</w>
t res</w>
com pa
x aa
i hom</w>
li s
cump li
ñ a</w>
ob er
o jos</w>
C ßa
c ô
bu e
tu u
tak lan</w>
AA Bʼ
tu d</w>
u t
sa cri
ruu k</w>
l lo
ilo k</w>
te r</w>
û l</w>
R E
un os</w>
R AATIN</w>
ten emos</w>
o choch</w>
cßanje lac</w>
b en</w>
ruchi chßochß</w>
cristi anos</w>
qui xbânu</w>
xy âlal</w>
co me
In cßaß</w>
an chal</w>
te e
ju sti
le van
ta mos</w>
o tras</w>
pro ble
Timo teo</w>
TES OR
di j
1 4
ßa j</w>
nues tras</w>
TESOR OS</w>
or g</w>
o tra</w>
ci ona
artí culo</w>
x cu
dis cí
discí pu
p ru
segui r</w>
ru silal</w>
kʼu lmank</w>
jw org</w>
xsa hil</w>
t án</w>
k ab
cie lo</w>
châ cuu</w>
f un
estu dio</w>
en ten
di eron</w>
QʼA LIL</w>
XCHA QʼALIL</w>
aa we</w>
lo r</w>
bʼ e</w>
O O
min is
es píritu</w>
ci ó</w>
Qu eß
an u
a ción</w>
ma aj
r s</w>
n un
B a
pa ci
le j</w>
pu bli
O N
tzß â
lec tura</w>
S al</w>
xni mal</w>
se gún</w>
d en</w>
s tru
ri si</w>
gu ar
can a</w>
C RI
anci anos</w>
g re</w>
a m
ta ber
taber ná
mu el</w>
añ o</w>
E l
mien tos</w>
ho y</w>
ban quil</w>
xtes i</w>
f í
tz ûl</w>
esta r</w>
v as</w>
taberná culo</w>
q ii
xi kʼ</w>
se mana</w>
naʼ le
ana q
sier vos</w>
ra ón</w>
x tenqʼan
kʼa l</w>
ca li
anaq wan</w>
M aa
que x</w>
a gra
na xbʼaanu</w>
e les</w>
dur ante</w>
cha qʼrabʼ</w>
bi ß</w>
ri ó</w>
du cción</w>
co men
Jo su
q as</w>
o í
inti os</w>
eho c</w>
S i</w>
ve ces</w>
jos kß
M at</w>
Ez e
re la
qii tzʼin</w>
respon dió</w>
g ri
G a
pro pi
ci do</w>
y âl</w>
to kil</w>
ro so
chakß rab</w>
ter tokil</w>
pe cado</w>
ca me
Cor intios</w>
j ûnk</w>
tq abʼaanu</w>
testi gos</w>
xbʼe en
cu b
cha len</w>
H i
P re
Lu cas</w>
cô eb</w>
Sa muel</w>
cui qßuin</w>
ca mbi
per las</w>
r se</w>
chʼol chʼo</w>
to ox
su e
i x</w>
X ʼawabʼejilal</w>
jun wa</w>
aw u</w>
qui ere</w>
par ti
en tra
s t
D e
rab i</w>
A ʼ
tenqʼan k</w>
o ch</w>
Chan chan</w>
qui cuan</w>
N ab
M u
N ak</w>
he ß</w>
ér ci
VID A</w>
xcß abaß</w>
ti xbʼaanu</w>
i t</w>
P A
ro n
o q</w>
pres en
jud ío</w>
g an</w>
a que
discípu los</w>
bue nas</w>
Ve a</w>
na wulak</w>
keʼ x
ha ß</w>
ca so</w>
teri o</w>
j al</w>
fa raón</w>
lib ro</w>
chirix ebʼ</w>
o lo
raho k</w>
laj u</w>
cu il</w>
chi xyebal</w>
an o</w>
nekeʼ xye</w>
L o
ta mente</w>
ca mp
bê n</w>
q on</w>
f o
L O
p sis</w>
cha awu</w>
el k</w>
cali psis</w>
Cha awil</w>
pá g</w>
pode r</w>
bíbli ca</w>
T U
ti l</w>
qʼ ej</w>
pár rs</w>
e ch</w>
I N
Kʼ U
x num
pla ta</w>
P AABʼ
J un</w>
su t
k ex</w>
san gre</w>
cau sa</w>
a la
J e
F i
3 8</w>
tr an
qu ías</w>
xb aneb</w>
qui leb</w>
al qui
Pa dre</w>
patz ʼ</w>
kʼu l</w>
ê rib</w>
cß âl</w>
s tos</w>
chixjuni lebʼ</w>
Aß an</w>
sol dado</w>
di e</w>
importan te</w>
es pa
Apo calipsis</w>
D I
nequeß iloc</w>
g lo
bʼa r</w>
cßa m</w>
c ô</w>
si kʼ
yo ß
ten qʼa
le cción</w>
x e
y ee
ca m</w>
mo ra
ha m</w>
la r</w>
b el</w>
maa junwa</w>
caß in</w>
D e</w>
sigui ente</w>
of re
jun kabʼal</w>
nun ca</w>
b ej</w>
pru eb
may ej
e dad</w>
ben eb</w>
A r
ba uti
E O</w>
wi bʼ</w>
so y</w>
po dr
A bʼan</w>
xy o
tzʼe q
tr ó</w>
le vi
chßô leb</w>
yî banbil</w>
mo ri
S TI
xyu ʼa
jun to</w>
aß aneb</w>
A t</w>
AN A</w>
û k</w>
jun jûnk</w>
kß e</w>
ech os</w>
se era
na do</w>
esper anza</w>
chi xbânunquil</w>
x o
JO ʼ</w>
pregun tas</w>
ana n</w>
P on
es pe
E N</w>
xkʼ anjel</w>
des cen
chß î
x oo
wak l
jun es</w>
vivi r</w>
EST R
m es</w>
co l</w>
c lu
M â
Josu é</w>
l ó</w>
mo ni
taa kʼe</w>
ser i
fi lis
car ner</w>
su kß
re talil</w>
r ía</w>
ox lo
l lo</w>
e kʼa</w>
PAABʼ AN
C on
g as</w>
3 9</w>
x chßôleb</w>
es a
ab anan</w>
w aʼ
es con
pu esto</w>
es is</w>
5 0</w>
res pe
pu l
n il</w>
ʼ U
ê b</w>
ob ra</w>
chi wu</w>
can âk</w>
PAABʼAN EL</w>
ta w
jun i
ayu dar</w>
Abra ham</w>
ha cer
CRI STI
A demás</w>
naʼa j</w>
kʼa joʼ</w>
ga mos</w>
fu era</w>
r ó</w>
chʼolo bʼ</w>
z ó</w>
nokoo xtenqʼa</w>
mu es
W i</w>
A bi
l í
g una</w>
vi eron</w>
ten qʼ</w>
pe c</w>
agu a</w>
pu so</w>
CRISTI ANA</w>
A S</w>
si ones</w>
raho bʼtes
r ê
r an
A si
jo ßcan</w>
en emi
vo z</w>
jun xil</w>
cua j</w>
sra eli
i sraeli
la aʼ
ci ento</w>
H echos</w>
musi qʼej</w>
ri os</w>
res i
ser án</w>
de mos</w>
R a
v esti
ka m
justi cia</w>
ami gos</w>
chßî chß</w>
ver da
ta ba</w>
proble mas</w>
châ lk</w>
Jer em
si r
julti k
eʼ q</w>
v ía</w>
ta wiʼ</w>
su fri
habla r</w>
ó n
tzʼeq ta
tzo lok</w>
su per
roch beneb</w>
cu alqui
ju na
ha ya</w>
Jerem ías</w>
nekeʼ raj</w>
i ma
án do
na abʼalebʼ</w>
ñ os</w>
de mostra
ßa k</w>
p lan
su men
si heb</w>
r ûk</w>
la jik</w>
kʼa mo
ca l
T aa
visi ta</w>
na die</w>
gu nas</w>
Cu i</w>
x ʼ
pu esta</w>
ka ʼaj
ca u</w>
Testi iw</w>
e za</w>
cßa mo
a ajel</w>
ri dad</w>
naʼa jej</w>
in for
xyaa lal</w>
kaʼaj wiʼ</w>
tq il</w>
nekeʼ xbʼaanu</w>
chiʼ i</w>
lan kil</w>
s antil</w>
moni o</w>
mo qon</w>
in chʼool</w>
T â
a ʼ</w>
tâ cuânk</w>
he mos</w>
Cu ando</w>
3 6</w>
sacerdo te</w>
qʼ i</w>
m ô
car n
tzʼaq on
ka w</w>
j ar
ta rá</w>
jun jun
jolo min
po s
ox ib</w>
na r</w>
eho k</w>
tân a</w>
ni fi
c emos</w>
sab er</w>
ra a
naj t</w>
yoʼ yo</w>
i ʼ</w>
es inkil</w>
cam si</w>
xeʼ x
san to</w>
res inkil</w>
S u
kʼ in</w>
A l
yô quin</w>
tu q
cho k</w>
o cu
T za</w>
ti naq</w>
la aw
ex pli
en fer
e le
á r
bi leb</w>
k in</w>
gra cias</w>
for ta
ʼan inkil</w>
reuni ón</w>
l las</w>
Pon ga</w>
B en
x co
to r
mien tras</w>
jun pa
tâ rûk</w>
n în
d ero</w>
t en</w>
r ás</w>
c il</w>
W iibʼ</w>
Cßa ß
î nk</w>
naʼle bʼa
in bil</w>
israeli tas</w>
K IL</w>
ʼ ut</w>
dar á</w>
Kʼa ʼut</w>
queß xye</w>
naqa j</w>
a f
A sí</w>
én esis</w>
bi ó</w>
au di
NA ʼ
G énesis</w>
C he
4 5</w>
tzß ek
testi iw</w>
o que
a q</w>
x tzolom</w>
d in
au to
ʼaa tinak</w>
men sa
g ober
ace p
aa chʼool</w>
fu ego</w>
a ma</w>
á l</w>
tzß î
emb ar
posi ble</w>
junjun q</w>
cristi an</w>
Qu ix
H ebre
or g
o ksi</w>
in ten
el las</w>
tix qßue</w>
si e
L EBʼ</w>
vi o</w>
in chßôl</w>
di os
1 7
va li
er á</w>
da dos</w>
vues tros</w>
no che</w>
na ßleb</w>
ma dre</w>
lo kßon
kʼaʼ uxl</w>
ha cia</w>
de ja
co mi
chʼaʼaj ko
aj o</w>
toj bal</w>
mi seri
mensa j
ci r
tan a</w>
le y</w>
i c
al gunas</w>
S e</w>
C ana
mô s</w>
R e</w>
vu el
qʼ o
i l
audi torio</w>
li dades</w>
junpa at</w>
tri bu
c in
trabaj o</w>
l los</w>
ki b</w>
i heb</w>
C or</w>
í amos</w>
xko mon</w>
ta ka
ta ción</w>
of ren
hici eron</w>
bʼa nan</w>
A bʼanan</w>
ki wank</w>
cß al</w>
bʼa anu</w>
M t</w>
G u
1 8
tu vo</w>
po der
nax naw</w>
miseri cor
embar go</w>
b re
xkʼulu bʼa</w>
sig nifi
a xal</w>
x paabʼal</w>
oque bâl</w>
la je
g ar
R i
O ksi</w>
E s</w>
E J
co s
bʼi lebʼ</w>
tzßâ ma</w>
man da
b eb
vi en
tî quilal</w>
se o</w>
came nak</w>
a cu
, 000</w>
xkʼ ojo
q ech
I N</w>
per mi
c ru
Q aa
tin ye</w>
h ará</w>
conver sar</w>
acer ca</w>
u l
jun ta
pâ b</w>
espiritu ales</w>
er as</w>
ch os</w>
joskß il</w>
for ma</w>
chß i
1 6
ja ʼ</w>
hu mi
k abʼ
ci er
bʼa lebʼ</w>
xa kil</w>
re kʼa</w>
ka t</w>
tuq tuu
pi en
ar tal</w>
ana li
S l</w>
â c</w>
forta le
xy an
puer ta</w>
minis terio</w>
maaj iʼ</w>
Bʼ A
4 1</w>
publi ca
ga do</w>
con si
cie los</w>
R E</w>
Qaa waʼ</w>
Pala bra</w>
ti vos</w>
sa aj</w>
queß côeb</w>
gu e</w>
ado ra
Le v
xlo kßal</w>
sacerdo tes</w>
reuni ones</w>
nima ß</w>
for me</w>
fi cio</w>
b ar
a kʼa
á ba
y ox
reli gi
CH AN
â ba
y ajel</w>
re ali
qßue heb</w>
pen sa
ti do</w>
t wanq</w>
pe ca
o c
ma ción</w>
QA TZO
ta aw
Ro manos</w>
In kʼaʼ</w>
roch ben</w>
ro y
mu j
din ero</w>
ani ma
T z
J o</w>
ciu dades</w>
us o</w>
muj eres</w>
CHAN RU</w>
y âlal</w>
ruchi ch</w>
A MOS</w>
4 4</w>
xlo qʼon
taw mank</w>
ta u</w>
cono cer</w>
sier vo</w>
oj yî
lo qʼon
dur ía</w>
conver sa
buen o</w>
Ch i</w>
emp ez
dij eron</w>
cua lal</w>
ʼa l</w>
s ó</w>
re ino</w>
quix takla</w>
pre para
bʼ e
tzʼii bʼa</w>
ti ó</w>
sabi duría</w>
r î
ob ede
joß caßin</w>
in el</w>
ha cen</w>
chi re</w>
fe c
b o</w>
in vi
in tro
A ta
A n
ro k
laaʼ o</w>
ci os</w>
Chi xjun
u bʼ</w>
jalan q</w>
tan ás</w>
Sa tanás</w>
nekeʼ xkʼe</w>
cßa t
Pre gun
Isa ac</w>
É l</w>
sie te</w>
ki ʼok</w>
is t</w>
S anti
i a</w>
bʼan bʼil</w>
ki xkʼul</w>
i deas</w>
cha r</w>
ro k</w>
y u</w>
y i
ta truuq</w>
ra do</w>
queß xbânu</w>
pro me
org ani
fi r
Qui én</w>
tzßa kal</w>
naßa jeb</w>
kʼ ox
bi er
x q</w>
x k</w>
vol un
ra miiw</w>
i te</w>
bʼ resi</w>
tin qßue</w>
ob je
lu z</w>
la aʼa
buen a</w>
f r
bʼa ʼ
NAʼ LEBʼ</w>
su ce
ko l</w>
Ch ʼ
ri ist</w>
le e
espo sa</w>
Hebre os</w>
tô nil</w>
toox tenqʼa</w>
so mos</w>
prim ero</w>
ko kʼal</w>
xna w</w>
w il</w>
senti do</w>
KʼU TU
xa qa
ru kß</w>
pâ ban
ha ga</w>
cßa ßak</w>
taa tzʼil</w>
ra q
la r
jo ʼ
U sta</w>
Q ilaq</w>
LA Q</w>
xta w</w>
ti xkʼe</w>
re de
q i
nue vo</w>
enseñ a</w>
ya lok</w>
pa í
o sa</w>
ma la</w>
J un
ê lk</w>
teßx qßue</w>
al rede
B us
sol dados</w>
na ción</w>
R A
P or
xlo kßon
vues tro</w>
m es
bʼ ebʼ</w>
ace ite</w>
T OO
ra m</w>
que mos</w>
ho n
bíbli cos</w>
S U
tzʼaqon k</w>
nin ye</w>
J or
H eb</w>
r ón</w>
qui én</w>
ku b</w>
za do</w>
ti xye</w>
ee t</w>
des i
Pala bras</w>
Fi li
tan do</w>
d era</w>
xra q
le j
cab eza</w>
xtenqʼan kilebʼ</w>
pr ó
a po
un k</w>
t q</w>
n kil</w>
la ción</w>
cu n
chê ru</w>
ac tu
oy bʼen
na ril</w>
ón de</w>
Ó N</w>
espe ci
a go</w>
Santi ago</w>
Hi jo</w>
ʼa q</w>
xti ki
t el</w>
si tu
ic r</w>
cu y</w>
SE AMOS</w>
ʼaa tinaq</w>
kana ak</w>
esta mos</w>
e xi
di fí
z ca</w>
xjun kabʼal</w>
ten dr
ju naj
a ten
misericor dia</w>
m ín</w>
espa da</w>
enemi gos</w>
a si
pala u</w>
jo lom</w>
comp le
al tar</w>
es os</w>
x caß
pen sar</w>
o ri
P e
tuqtuu kilal</w>
tri b
t ʼ
la aʼin</w>
glo ria</w>
ben di
qech paabʼanel</w>
li sis</w>
ch ßu
ki ʼ
espiritu al</w>
ab le</w>
xa m</w>
s tan
r an</w>
laa chʼool</w>
cuî mk</w>
bu en</w>
A dán</w>
mi k</w>
ca t</w>
pi ed
jun pâ
ʼU S</w>
é ste</w>
qui c</w>
princi p
cur so</w>
compa ñ
OR ES</w>
v or</w>
rok sinkil</w>
r le</w>
mâ queb</w>
con forme</w>
Mar ía</w>
i ra</w>
di das</w>
câ mk</w>
c ían</w>
Ben ja
4 2</w>
un to</w>
nequeß xbânu</w>
n es</w>
ma q</w>
m era</w>
laaʼa t</w>
ci miento</w>
CHI ʼUS</w>
xjun es</w>
na tawmank</w>
l len
W an
L O</w>
x sumen
ti i
pro te
me r</w>
m q</w>
fu tu
QATZO LAQ</w>
u m
per i
ten ían</w>
qʼ il</w>
queßx qßue</w>
ojyî n</w>
jolomin k</w>
de di
alrede dor</w>
tin o
jud íos</w>
cß anjel</w>
cualqui er</w>
S a</w>
vi sto</w>
tee p</w>
chan i</w>
vi sta</w>
tê bânu</w>
p an</w>
da mos</w>
bʼ ee
H O
y ó</w>
pa reci
junpâ t</w>
g en</w>
h o</w>
a kal</w>
p ti
intro ducción</w>
ch ßa
á cti
sut qʼ
naqa tzol</w>
ja lam</w>
camp o</w>
y os</w>
res puesta</w>
en cias</w>
conversa ción</w>
ESTR OS</w>
yu m</w>
te ma</w>
t re
qßu ebal</w>
ch ex
ac ti
L o</w>
y es</w>
u sa
men tos</w>
ej érci
chʼ ii
Y o</w>
Jor dán</w>
to mó</w>
ri xakil</w>
rey es</w>
chirix eb</w>
ar án</w>
CH ʼ
waʼ bʼej</w>
ta abʼaanu</w>
s ón</w>
humi l
Y u
nor te</w>
kʼu tbʼesi</w>
aj e</w>
ab i
P ri
Jo na
ʼa n</w>
fa vor</w>
cßu l
cßamo c</w>
ó ven
óven es</w>
xtiki bʼankil</w>
sa hil</w>
m eb</w>
her mana</w>
ha lla
futu ro</w>
cuu kub</w>
ci erto</w>
a tinak</w>
wak li
qa kutan</w>
predi car</w>
ca ri
TOO KʼUTU
TOOKʼUTU Q</w>
qßue heß</w>
T in
o res</w>
i q</w>
ná lisis</w>
chʼii chʼ</w>
an kil</w>
ac ab
A nálisis</w>
us eb</w>
ter ri
r re
cuu lak</w>
chaabʼ i
ú lti
naʼa atinak</w>
ju sto</w>
hab éis</w>
e ter
xka w
pr ácti
de a</w>
J E
D es
Benja mín</w>
te mos</w>
mp i
m er
lo q</w>
chʼi naʼ
a da</w>
Ve amos</w>
Sa ß</w>
Qu e</w>
M EJ
MEJ ORES</w>
ru bel</w>
laj êb</w>
ii y</w>
cßa jol</w>
MA ESTROS</w>
Lâ at</w>
CI ÓN</w>
na baleb</w>
cu â
bʼtes ihom</w>
a par
xy al</w>
v al
sacri ficio</w>
s ías</w>
mues tra</w>
j óvenes</w>
gu erra</w>
feli z</w>
cl uso</w>
xa k
se an</w>
na chalk</w>
la ya</w>
cha ki</w>
â leb</w>
kß eb</w>
ii q</w>
cor re
Mo ab</w>
ê chßôl</w>
si cß
kʼu l
K i
în c</w>
xaq il</w>
to mar</w>
raho btes
pa l
ofren da</w>
o ve
o ca
h eb
cu ânc</w>
U se</w>
Pro v</w>
El ías</w>
xsumen kil</w>
pa so</w>
es co
ab i</w>
R A</w>
M es
ê t</w>
xkʼa ʼ
cßu t
P ara</w>
xka mik</w>
mu lti
a dos</w>
Ata laya</w>
t é</w>
kʼa ʼaq</w>
hab ló</w>
h án</w>
carn e</w>
X in
yî b</w>
vi ó</w>
rabʼ inkil</w>
lla mado</w>
ki raj</w>
envi ó</w>
bʼ el</w>
EN T
to jaʼ</w>
si cß</w>
s í
jalan il</w>
fici os</w>
escon didas</w>
H ech</w>
A na
naʼlebʼa k</w>
yaabʼa sinkil</w>
xeß tônil</w>
xbʼeen ebʼ</w>
qa paabʼal</w>
lleg ó</w>
en tonces</w>
J n</w>
qui cuulac</w>
le bâl</w>
la b
chʼaʼajko ʼk</w>
X yaabʼasinkil</w>
Bus quemos</w>
ê bên</w>
tina nkil</w>
qʼa l</w>
Por que</w>
M â</w>
ya laq</w>
x sikʼ
ar ro
al ma</w>
4 3</w>
xin ye</w>
tu ras</w>
taa yaabʼasi</w>
seera qʼ</w>
p e</w>
no ti
man i
m ânk</w>
con te
1 ,
ê ch</w>
tzʼeqta ana</w>
ti co</w>
ob o
ju i
edi fi
cuer po</w>
conse jos</w>
bo ca</w>
ʼ eʼ
ßa m</w>
xkʼ ox
servi r</w>
lo bʼaal</w>
ka q</w>
ami go</w>
dis fru
M ana
v an</w>
tâ c</w>
mo do</w>
k u</w>
k in
hi ja</w>
deb e</w>
b resi</w>
ra f
pâban el</w>
mâ cua</w>
i gu
chʼoo lej</w>
b on
Lu c</w>
x lan</w>
t eb</w>
g e</w>
e mbre</w>
cßa joß</w>
Mar cos</w>
Ef ra
Abra hán</w>
os os</w>
Es cri
x qʼa
Pri mera</w>
5 5</w>
ya lak</w>
resu l
ma da</w>
ka a
di fer
bʼa anu
xu cua
tzßa c</w>
de bi
c el
C re
li o</w>
R aatin</w>
ó ni
wu laq</w>
rabʼ i</w>
organi za
m ebʼ</w>
kix kanabʼ</w>
fuer zas</w>
chßu tu
ar re
U ni
x ca
u b
ta da</w>
pro p
co sa</w>
N ue
4 8</w>
xkʼox lankil</w>
tzß in</w>
ser es</w>
pre ocu
pi e</w>
Nab u
y âba
m é
in cluso</w>
ci on
z ás</w>
teʼ ruuq</w>
r nos</w>
R U
tino bʼaal</w>
S AN
ñ ana</w>
muer tos</w>
m aron</w>
C U
x cha
sa lu
cßanje lak</w>
an un
al mente</w>
aa wibʼ</w>
ta ban</w>
pasa do</w>
na xkʼutbʼesi</w>
encontra do</w>
xcßa m</w>
con stru
pár raf
desi erto</w>
tza ca
ra ko
can do</w>
ayu dó</w>
vien e</w>
teʼ wanq</w>
nin gún</w>
may or</w>
E va</w>
tß icr</w>
c ed
O M
Cßaß ut</w>
A L
x kße
pa cto</w>
hu manos</w>
fr ente</w>
er o
che ʼ</w>
ayudar á</w>
Y o
Mu si
I s</w>
A cab</w>
me tzʼe
hab rá</w>
go bier
cu án
maa tan</w>
ka me
én do
taq la</w>
s â
bʼan k</w>
ar é</w>
v es</w>
ula ʼaninkil</w>
servi cio</w>
me tro</w>
lo kßal</w>
escu ch
e c</w>
cua tro</w>
ben e
V i
R om</w>
resu ci
quer ía</w>
predi cación</w>
kß ojyîn</w>
R ulaʼaninkil</w>
R ES
Aʼ IN</w>
x raqal</w>
tzaca ê
raho m</w>
pi o</w>
o bras</w>
naka aw
to y</w>
tenqʼa hebʼ</w>
maaʼ usilal</w>
naq abʼaanu</w>
hab er</w>
Mana s
Efra ín</w>
qui âtinac</w>
mu heb
hab la</w>
Jona tán</w>
H U</w>
xsikʼ bʼal</w>
ti vo</w>
naqa naw</w>
cuer do</w>
Manas és</w>
É x</w>
na xbânu</w>
m esa</w>
kʼa tq</w>
ka b</w>
da vía</w>
L a
xti k
mon te</w>
in di
gi do</w>
es cla
ejérci to</w>
metzʼe w</w>
ma ñana</w>
lo c</w>
L as</w>
E R</w>
xcaß cßâl</w>
te os</w>
su r</w>
re visita</w>
princi pio</w>
kʼa q</w>
gran de</w>
feli ces</w>
f ra
d ente</w>
co l
cha l
a un</w>
tran s
señ or</w>
se cción</w>
ove jas</w>
ma lo</w>
ma g
cer ca</w>
X Y
TZO LO
SAN TI
ʼa bʼ
ô queb</w>
x mâc</w>
ten ga</w>
kʼa bʼaʼ
cuan to</w>
xkʼu tbʼ
tza ca</w>
se gun
pres i
ma aw
jo ven</w>
cir cun
c r
P o
xna u</w>
mis ma</w>
lo ca
a t
a conte
xkʼutbʼ esinkil</w>
pe que
mensaj e</w>
car on</w>
al gún</w>
akʼa le
QU É</w>
E M
y aj</w>
xku tan
vol ver</w>
juni lo</w>
i y</w>
c to
c ciones</w>
C o</w>
pá g
e ß</w>
A ni</w>
y ânk</w>
volun tad</w>
ra l</w>
obo am</w>
mo mento</w>
lo gra
infor mación</w>
g ro</w>
Asi ria</w>
ê n
xku y
t bʼal</w>
nan te</w>
ku y</w>
Kʼ oxla</w>
Co lo
na c</w>
jo m</w>
g e
T eß
A m
xkʼaʼ uxl</w>
queß xyîb</w>
pro ve
oso r</w>
ne t</w>
laa d</w>
kʼanje lobʼaal</w>
don osor</w>
co donosor</w>
bʼa la
agu as</w>
a ß</w>
V I
Nabu codonosor</w>
Lâ ex</w>
H o
pregun tó</w>
o ch
num ta
con su
z os</w>
xkʼa m</w>
pes iiy</w>
junta qʼ
hi sto
cu e
come r</w>
x maak</w>
pro pesiiy</w>
ora ciones</w>
h eʼk</w>
Sa ma
Apo c</w>
man e
ma t
kubʼ ee
g l
con clu
apren der</w>
akʼale hom</w>
Ga laad</w>
Eze quías</w>
ú ni
xa kab</w>
t îc</w>
prueb a</w>
na kʼulmank</w>
maaʼ ani</w>
b les</w>
H e</w>
6 5</w>
ú m
yu waʼbʼej</w>
xloqʼon inkil</w>
signifi ca</w>
m ê
o p
ma tri
kßa xtesi</w>
ha ciendo</w>
fe cto</w>
c ta</w>
bʼtes i</w>
Re y</w>
QU E</w>
Kʼ A
ê riq</w>
yô quex</w>
tzßek tâna</w>
pro du
i ba</w>
est re
dios es</w>
di ri
SANTI L</w>
Di os
ô b</w>
sal v
s ent
na cuulac</w>
mo r</w>
la ayu
en k</w>
cu b</w>
ch in
bʼ k</w>
anima les</w>
xta u</w>
m c</w>
cua ß
1 5
é stos</w>
yu waʼ</w>
vol ver
tenqʼan kil</w>
sa haq</w>
reg res
qui ye
p an
ga res</w>
cßu lbal</w>
ale gr
T ra
uste des</w>
pi es</w>
kʼanje laq</w>
ki ril</w>
mayej a</w>
filis teo</w>
chʼa ʼaj</w>
G o
Chi rix</w>
4 6</w>
r lo</w>
qui zás</w>
noti cias</w>
llev ar</w>
kʼu lu
SA ʼ</w>
Kʼ e</w>
E sa
Be tel</w>
xyu waʼ</w>
xaa taw</w>
to davía</w>
te mas</w>
ro r</w>
pri mer</w>
e xa
bʼi ʼ</w>
a sa
a jol</w>
P i
xyee chiʼi</w>
re cor
peca dos</w>
nax qßue</w>
juna j</w>
hi b</w>
gu s
Pregun ta</w>
x e</w>
ter mina
qßu ehoc</w>
oxlo qʼ</w>
kʼul manq</w>
kame naq</w>
fuer te</w>
cu los</w>
cams îk</w>
an quil</w>
L ix</w>
pres encia</w>
organiza ción</w>
na keb</w>
mi go</w>
fi eles</w>
Sama ria</w>
C i
so bre
rî tzßin</w>
mo os</w>
ju ra
e do</w>
buen os</w>
Kʼa akʼalehom</w>
H A
ár bo
s in
profe tas</w>
ha b</w>
cß oxla</w>
contra to</w>
as t
yu ßam</w>
xkuy bʼal</w>
tâ châlk</w>
mi la
in stru
al guna</w>
R aa
xkʼojo bʼ</w>
tê qßue</w>
ti r</w>
tar án</w>
pu ubʼ</w>
m en</w>
lej il</w>
d é
conse jo</w>
cer á</w>
LA S</w>
L i
yee mank</w>
prim era</w>
kß a</w>
espo so</w>
A s
xtik lajik</w>
vi sión</w>
ree talil</w>
har é</w>
den tro</w>
ar ca</w>
Eli seo</w>
ten go</w>
si kʼaq</w>
ora r</w>
muer to</w>
g ru
confi anza</w>
uni dad</w>
ti go</w>
tan tes</w>
qui xyîb</w>
f á
en ga
con migo</w>
bʼan yox
a kʼ</w>
K I
xkße hil</w>
ten e
si mo</w>
n to</w>
l bʼe</w>
ki kʼulmank</w>
ju z
e er
cuan quilal</w>
cam pa
O N</w>
sa k
pre ci
a dor</w>
yoo ko</w>
x pa
kʼamo lbʼe</w>
enten der</w>
e qui
cie dad</w>
X K
x chʼoo
t û
ra mos</w>
paí s</w>
le li
ho r
a te
tri go</w>
ti xbânu</w>
su bi
saho ʼk</w>
sa che
m bʼal</w>
es ink</w>
aj ej</w>
xkʼa jol</w>
tenqʼan q</w>
t kʼulmanq</w>
qa naʼlebʼ</w>
mu rió</w>
lec c</w>
ka j</w>
pare ce</w>
mu k
mo neb</w>
estudi ar</w>
con tin
x to
tin bânu</w>
teʼ xbʼaanu</w>
ten k</w>
ta l
si c</w>
sa len</w>
sa do</w>
l á
ji c</w>
cß ut</w>
chix tojbal</w>
Raa tinankil</w>
K riist</w>
xchʼoo lebʼ</w>
xa t
x saʼ</w>
x ra</w>
tak l
qßui al</w>
ki xkʼutbʼesi</w>
fi el</w>
est é</w>
es toy</w>
chix kʼatq</w>
al can
aa tinobʼaal</w>
ß i</w>
xnum sinkil</w>
po día</w>
li ber
le x</w>
la heb</w>
cua les</w>
ca sas</w>
ca p</w>
Es píritu</w>
wakl esi</w>
nume ß</w>
jo qʼe</w>
ent reg
e ʼ</w>
do na
cur so
bʼ resinkil</w>
L e</w>
tâ canâk</w>
man dó</w>
m bra
levi ta</w>
xta q
xka m
tâ ye</w>
pes ar</w>
chan chan
U n</w>
San són</w>
Musi k</w>
Cana án</w>
tat xtenqʼa</w>
s ó
oybʼen ihom</w>
naqa kʼe</w>
e z</w>
ana w</w>
NA Q</w>
ê leli
ru qʼ</w>
ma ra
levi tas</w>
le er</w>
l bej</w>
jultik a</w>
es ios</w>
con tigo</w>
an gu
a z
T en
Jo ab</w>
va lor</w>
s pi
r âtin</w>
pre curso
por t
nekeʼ xnaw</w>
naßa j</w>
mos tró</w>
gran des</w>
g ó</w>
b ron
ab an
a y
a rio</w>
xi u</w>
s ink</w>
qui cam</w>
naj ter</w>
mi edo</w>
lu gares</w>
câ mc</w>
c tura</w>
bron ce</w>
D ES
tijo c</w>
pó si
po ner</w>
kʼ ehok</w>
ka ʼaj</w>
j y</w>
el lo</w>
con ta
cams îc</w>
baj o</w>
Qa sikʼaq</w>
Pe d</w>
J U
â cuiqßuin</w>
va mos</w>
s mo</w>
cl esi
a ta
a cuerdo</w>
Y U
G UN
va do</w>
u ineb</w>
tar ía</w>
le ʼk</w>
ent re
deja r</w>
ca sti
Ef esios</w>
D A</w>
Be t</w>
va lo
ten i
jultik ankil</w>
hab len</w>
A l</w>
xlo qʼal</w>
sa gra
ni mal</w>
nekeʼ xkʼoxla</w>
kaw resi</w>
filis teos</w>
di r</w>
cu ar
Ta mbién</w>
M e
tqa kʼe</w>
s tas</w>
roy bʼen
res in
prueb as</w>
lle gar</w>
di fi
d é</w>
ab ânu</w>
JE HO
Esa ú</w>
áng eles</w>
laje ß
di iy</w>
di cen</w>
con tro
a ma
L E
G ede
teß cuânk</w>
po d
mon ta
m ío</w>
k on</w>
i qʼ</w>
di o
deb er
cß abaß</w>
co cß</w>
N in
xlo k</w>
vues tras</w>
roso ʼ
no vi
l f
R O
ru la
pâ ban</w>
lâ k</w>
li bra
e vi
Aß aneb</w>
si endo</w>
na kʼanjelak</w>
ki xkʼut</w>
deci siones</w>
a mis
xqa tzol</w>
w t
wt st
wtst y</w>
tr an</w>
sto les</w>
pa só</w>
n wtsty</w>
mori r</w>
d ónde</w>
P O
ta u
sutqʼ iik</w>
sab emos</w>
q o</w>
mara vi
l c</w>
keʼ xye</w>
ka chʼ
P r</w>
K ʼ</w>
xco moneb</w>
te is</w>
ro xlo
ri xaqil</w>
ri as</w>
pro nto</w>
fru to</w>
du ra</w>
Le ctura</w>
Eze qui
4 7</w>
teß xbânu</w>
nax nau</w>
mis mos</w>
la lil</w>
es for
deb en</w>
d ando</w>
chox a
ca xlan</w>
apó stoles</w>
ñ as</w>
ß al</w>
x na</w>
wu laj</w>
tenami teb</w>
pro fun
lla mó</w>
en ta</w>
câ hib</w>
cui x</w>
con f
R ut</w>
I sa</w>
E j
xkʼu tbʼal</w>
sti tu
on el</w>
enfer me
cub ri
P er
Escri turas</w>
E clesi
xna ßaj</w>
testi monio</w>
sali ó</w>
nec esa
kßa xtes
el q</w>
con ven
anje lac</w>
a mente</w>
L u</w>
ê yânk</w>
yâba c</w>
vol vió</w>
tzßî banbil</w>
p ú
p os</w>
loca us
ho locaus
en car
asa mb
Ti m</w>
No é</w>
so r
m á
en so</w>
difí cil</w>
dar é</w>
cu abi</w>
con du
chi qa
So ciedad</w>
P RE
AN KIL</w>
xyaa lalil</w>
xkʼa mbʼal</w>
x jal
ver sí
v í
tu lo</w>
tar se</w>
p l
lla ma</w>
igu al</w>
hu bi
fi nal</w>
conclu sión</w>
ce le
TZ ʼ
P u
xtenqʼan kil</w>
x molam</w>
len gu
lan k</w>
i leb</w>
chʼi na
sacri ficios</w>
ro pa</w>
publica ciones</w>
ol vi
nin nau</w>
ma nas</w>
kß laj</w>
ji ß</w>
inci enso</w>
ho mak</w>
f es</w>
ex peri
d aba</w>
b esi</w>
ru kßeb</w>
ok si
ne ke
i da</w>
adora ción</w>
xbʼeen wa</w>
tß an
tzʼa lam</w>
terri torio</w>
ta t</w>
pro pósi
o port
naʼ bʼej</w>
g er
eho mak</w>
di ente</w>
d í</w>
comp ren
an o
Ro ma</w>
xyî banquil</w>
qui qßueheß</w>
num si</w>
ki kamk</w>
i dio
hacer lo</w>
f at</w>
es fuer
do m</w>
d ón</w>
bi o
P as
G U
Ej érci
x jolom</w>
u sar</w>
tê lom</w>
res ca
qʼa xtesi</w>
pueb los</w>
nîn kal</w>
mâ jiß</w>
d i</w>
Es ter</w>
A món</w>
re gi
rab in</w>
poder oso</w>
ni ño</w>
min kil</w>
medi ante</w>
lâ c</w>
chal q</w>
ate mala</w>
angu sti
Q ʼ
Gu atemala</w>
7 0</w>
r ío</w>
qui ril</w>
qa kʼaʼuxl</w>
ma las</w>
en ci
e na
c tos</w>
H ch</w>
Ejérci tos</w>
C â
x o</w>
wan ko</w>
t ʼan
sab e</w>
numta je
jui cio</w>
di endo</w>
c ías</w>
Dios eb</w>
A ʼan</w>
xbʼa l</w>
tzacaê mk</w>
sab ía</w>
kʼu tbʼ
he kß</w>
fá cil</w>
cßa me
an ebʼ</w>
T AA
M E</w>
ê n</w>
x nu
x chaqʼrabʼ</w>
tâ cuulak</w>
t wulaq</w>
mu x</w>
mo kon</w>
hi er
ex ten
di al</w>
alegr ía</w>
X ban</w>
Ba al</w>
2 8
x qßuebal</w>
vues tra</w>
rê kaj</w>
re ch</w>
podr ía</w>
pa sar</w>
o cur
nin guna</w>
ja ch</w>
deci sión</w>
chex ʼaatinaq</w>
T ex
C r</w>
pu si
fo lle
cam siheb</w>
aque llos</w>
M I
xy â
perso na
histo ria</w>
cla ro</w>
ID EO</w>
xyuʼa minkil</w>
wa q</w>
tak laheb</w>
queß cuan</w>
qa kʼanjel</w>
propi a</w>
pen ses</w>
pa cßal</w>
p unto</w>
na cuaj</w>
kʼ i
e ta</w>
aque lla</w>
Testi gos</w>
Bʼ IDEO</w>
va ción</w>
teri or</w>
i mi
f lu
esta do</w>
e en
auto ridad</w>
Es tados</w>
xkʼu lbʼal</w>
t tenqʼanq</w>
sukß i</w>
suce dió</w>
pâ bâl</w>
je fes</w>
h ebre
gr os</w>
cuan quex</w>
Uni dos</w>
Si ria</w>
D O</w>
xy e
xna ʼ</w>
ta des</w>
sal ón</w>
que dar
patz ß</w>
ni ños</w>
ke ß</w>
e mo
der os</w>
ab aß
a cuîmk</w>
I s
yô cat</w>
xy iibʼ</w>
xy a
só lo</w>
raz ones</w>
r éis</w>
quix q</w>
chi saʼ</w>
c li
VID EO</w>
Si me
B el
20 0
y ii
se pul
qa molam</w>
propósi to</w>
naqa taw</w>
gu en</w>
Fili penses</w>
A ma
2 ,
í do</w>
ába mos</w>
z an</w>
trib u</w>
qui rabi</w>
pl êt</w>
m poco</w>
fa ri
chix cßulbal</w>
I deas</w>
G é</w>
B íbli
ô leb</w>
tenkß a</w>
taa taw</w>
su tam</w>
gi ó</w>
d encia</w>
b el
N U
C on</w>
ver g
tzʼa ama</w>
situ ación</w>
re i
princip ios</w>
lin yuʼam</w>
i wil</w>
folle to</w>
di go</w>
consi der
cono cimiento</w>
co b
ca mos</w>
yoo kat</w>
xyan qebʼ</w>
ser ía</w>
olo b</w>
l bʼalebʼ</w>
ha cemos</w>
escri bió</w>
comple to</w>
xucua c</w>
ti k
ten ido</w>
oí do</w>
kʼ ojo
jura mento</w>
ja p</w>
hi jas</w>
g eli
f ren
chʼ ina</w>
aʼ anebʼ</w>
E ʼ
sue lo</w>
ru k</w>
nax chʼolobʼ</w>
lu ego</w>
di entes</w>
chß û
J ez
J er</w>
Gede ón</w>
x reyeb</w>
tr ás</w>
teʼ xkʼe</w>
tex to</w>
profe cía</w>
n úm
kʼu tu
ka ʼ
esta ble
cua lidades</w>
contin u
U na</w>
M un
M e</w>
Bíbli ca</w>
1 3
î banbil</w>
u i
taa ye</w>
necesa rio</w>
ki roksi</w>
es as</w>
Jeru salen</w>
J A
Ana kcuan</w>
x nînkal</w>
ven ido</w>
tar é</w>
sa fat</w>
rab inquil</w>
dej ó</w>
ʼabʼ ink</w>
ê ru</w>
z ías</w>
y an</w>
x q
ri fi
re cuer
ra jom</w>
pró xi
per mane
per fec
kix taqla</w>
eli c</w>
de os</w>
ast és</w>
S ab
Lo kßlaj</w>
Ju das</w>
Eclesi astés</w>
2 9
x tenqʼ</w>
te x</w>
matri monio</w>
laa q</w>
h ú</w>
chʼoo lejil</w>
car a</w>
5 1</w>
4 9</w>
xlokßon i</w>
xi w</w>
van geli
j i</w>
gen era
X tzolbʼal</w>
W I
á ni
y ink</w>
us ebʼ</w>
re cha
puktes inel</w>
kachʼ in</w>
eje mp
U s</w>
Ra lal</w>
G ali
Ab salón</w>
xqʼa xbʼal</w>
ta kßa</w>
men ti
habi tantes</w>
er se</w>
de cía</w>
chi ßi</w>
T ê
Co mo</w>
w ak</w>
sum laak</w>
ro q</w>
nequeß xye</w>
ki tenqʼank</w>
gra cia</w>
especi al</w>
con tes
ami iw</w>
T e</w>
Mois es</w>
Ezequi el</w>
B er
â chßôl</w>
yoʼ laak</w>
xa m
ru bʼel</w>
pro b
hu mani
en cuen
agu an
J W</w>
C ON
quer emos</w>
i c</w>
h an
chi ku</w>
Lev í</w>
D an</w>
ya q</w>
vi r
tzʼaq lok</w>
tqa kanabʼ</w>
taaw aj</w>
puer tas</w>
much a</w>
ex tra
ch as</w>
cel esti
San t</w>
5 2</w>
ú n
y eron</w>
xy ii
xkutan kil</w>
uti li
un tos</w>
tiemp os</w>
ro x</w>
re ch
r â
qa qʼe</w>
na ʼ</w>
kab ên</w>
ha mbre</w>
cier tamente</w>
Ne keʼ
í n
se mos</w>
san to
r i</w>
parti ci
núm ero</w>
mal dad</w>
m u</w>
lar go</w>
eß x
estu vo</w>
abaß eb</w>
SI Kʼ</w>
Re paso</w>
D A
u vas</w>
naka t
naka anaw</w>
na roksi</w>
mo nos</w>
maaw aʼ</w>
loqʼon i</w>
kix tzʼiibʼa</w>
co le
chaabʼi lal</w>
cau heb</w>
N i
ula ʼal</w>
ten drá</w>
re in
re cono
nekeʼ ilok</w>
importan tes</w>
esi lal</w>
en gen
des a
Queß x
B ar
wi kʼin</w>
tâ n</w>
ra s
párraf o</w>
naqa kʼul</w>
cul pa</w>
C A
z aron</w>
y ehoc</w>
xjal bʼal</w>
xin qßue</w>
re n</w>
pres ente</w>
fuer za</w>
chiri lbal</w>
aten ción</w>
a ún</w>
Wan k</w>
Jo sías</w>
Ch ee
qui era</w>
nax kʼam</w>
man quil</w>
lf f</w>
kʼ ti
g an
deb ajo</w>
Aʼ in</w>
v ar</w>
que tô
paabʼan kil</w>
pa r</w>
ku bʼ</w>
do lor</w>
der ra
demostra r</w>
chßutu b</w>
ca paci
N M</w>
A K</w>
6 0</w>
xkʼ i
verda dero</w>
rê chani</w>
qʼe t</w>
pa sto
llo nes</w>
dar le</w>
b or
xra hil</w>
tu k
sa n</w>
ra kß</w>
quiye heß</w>
prop eet</w>
oso btes
nor mas</w>
naq il</w>
lokßon i</w>
l ino</w>
kʼ oj
ko mon</w>
ki wulak</w>
i rá</w>
di era</w>
chʼi ʼ
camin os</w>
G aba
5 3</w>
tix sach</w>
se ebʼ</w>
pue do</w>
nequeß taklan</w>
ki kʼ</w>
emp e
ar se</w>
apren demos</w>
a ca
tijo q</w>
r á
lan do</w>
ji kebʼ</w>
in kilebʼ</w>
h i</w>
er i
al to</w>
T e
T EN
F a
E dom</w>
x ter
x kana
wi i
tro no</w>
ru hebʼ</w>
pal to
maaʼ us</w>
lin chʼool</w>
G e
si a</w>
ra hebʼ</w>
pro mesa</w>
pregun ta</w>
pied ra</w>
mon ios</w>
levan tó</w>
jos qʼil</w>
ja más</w>
de f
da mente</w>
cßat bil</w>
cab laju</w>
bʼa an</w>
b û
Gali lea</w>
D is
Cu an</w>
2 7
xkaw resinkil</w>
xa kab
ver emos</w>
sache kß</w>
re cu
qʼe hil</w>
qßue hekß</w>
na ß</w>
na tu
gi dos</w>
expli ca</w>
du e
confi ar</w>
bʼi ch</w>
T NM</w>
Ef es</w>
C E</w>
y aj
xeʼ xbʼaanu</w>
xaqa lil</w>
x haʼ</w>
so l</w>
qui q</w>
nakaa kʼoxla</w>
kubʼ si</w>
i si
feli ci
en fren
cin co</w>
cana beb</w>
awabʼ ej
Ne he
K abʼ
x w
x paabʼankil</w>
qʼo q
pos esi
laayu ʼam</w>
dese a</w>
cla se</w>
cab al
aconte ció</w>
SU ME</w>
Ca ßaj</w>
AN K</w>
án jel</w>
xraq bʼal</w>
ri que
necesi tamos</w>
nax sume</w>
mo r
humani dad</w>
escu char</w>
ca cuâ
ba ta
N E
Apo stol</w>
tzʼ i
tenkß an</w>
reli k</w>
no ta</w>
nax ra</w>
eb e
dis tin
amis tad</w>
Cu án
xyaa bʼ</w>
xka bʼ</w>
tz ʼ</w>
pu estos</w>
mâ n</w>
muheb âleb</w>
ilo l</w>
e cho</w>
com er
bu r
S ara</w>
S T
5 4</w>
xaqa bʼ</w>
tar de</w>
salu d</w>
s é
s ába
resu rre
quix c</w>
qui er
que o</w>
nekeʼx paabʼ</w>
mâ cuaß</w>
me lec</w>
lleg aron</w>
cuan quin</w>
ar u</w>
ab el</w>
Jo ʼ</w>
BʼA L</w>
quin ye</w>
pon dr
na yeemank</w>
mi o</w>
ju cub</w>
her edad</w>
escri to</w>
ab un
P RO
M Á
Kabʼ l</w>
G én</w>
A wabʼ
ʼA M</w>
â ma</w>
san tu
respon sabi
próxi ma</w>
presi ón</w>
mi llones</w>
lan quil</w>
kʼamo k</w>
gru po</w>
cßa lebâl</w>
cari ño</w>
PRE GUN
Jer i
ê riqßuin</w>
ut lebʼaal</w>
na taklan</w>
man dado</w>
kʼa bʼaʼ</w>
ka Dios</w>
go l
fal ta</w>
cur sos</w>
To dos</w>
Chixjun il</w>
x xu
vi a</w>
ta les</w>
segu ro</w>
ro s
naw aj</w>
multi tud</w>
e ere</w>
di g
de cla
d ro</w>
comi da</w>
comen zó</w>
bon dad</w>
b i</w>
U T</w>
LA L</w>
Chʼ utlebʼaal</w>
A c</w>
tî queb</w>
ti ik</w>
su cur
recibi r</w>
celesti al</w>
TZOLO M</w>
xyii bʼankil</w>
u tu
tâ oc</w>
tu vieron</w>
ten cia</w>
ta mpoco</w>
sigui entes</w>
si ente</w>
resurre cción</w>
o sas</w>
li mpi
f le
cumpli r</w>
Qui xye</w>
Nue vo</w>
In ter
In c</w>
5 7</w>
1 Co</w>
sal vación</w>
s ando</w>
prácti ca</w>
oso kß</w>
no co
na chʼaʼajkoʼk</w>
kʼox laq</w>
ha cía</w>
a k
a delan
BʼA AN
u r
ti va</w>
teß xye</w>
pti embre</w>
kʼu t
i k
ech a</w>
a fir
To j</w>
P U
Le an</w>
C O
xyuʼa mi</w>
xter am</w>
to res</w>
si c
r ero</w>
qʼoq yink</w>
qui xb
ok enk</w>
nax chap</w>
ma y</w>
in clu
eter na</w>
escu cha</w>
es ca
chix c</w>
chiqa junilo</w>
a g
NA X
L OS</w>
Chee yaabʼasi</w>
. .</w>
. ..</w>
ʼa mi</w>
êleli c</w>
re co
rahobʼtes i</w>
l es
k ar
in bʼil</w>
cui si</w>
bʼa yaq</w>
R o</w>
Jer oboam</w>
s anti
re a</w>
lle va</w>
li g
do queo</w>
cos tu
con ci
TAA SUME</w>
T ento</w>
No e
Mar doqueo</w>
K ßa
GU I
Chan chan
AA W
xkʼu bʼ</w>
us il</w>
tqa taw</w>
santu ario</w>
nue va</w>
loqʼon ink</w>
le yes</w>
im ón</w>
esta rá</w>
empez ó</w>
choxa hil</w>
asamb lea</w>
Des pués</w>
xkana bʼankil</w>
tzʼaq loq</w>
se e
much í
lin a</w>
junaj il</w>
in e
ee lom</w>
der echo</w>
bʼaanu mank</w>
anci ano</w>
TA S</w>
Mâ cßaß</w>
Câ x</w>
xin ʼok</w>
qu bʼ</w>
pro f
on o
man kil</w>
laa m</w>
keʼ ok</w>
jun tos</w>
es tro</w>
eer ibʼ</w>
S u</w>
O M</w>
Cu ál</w>
Ba laam</w>
xsa ho
x moos</w>
tâ k</w>
te mor</w>
ta te</w>
ro so</w>
ro cho
reali dad</w>
mi emb
ma los</w>
lo ni
le jos</w>
kʼa y
gen er
eb il</w>
co dos</w>
cele bra
ali mento</w>
PA TZʼ
M ê
H eb
Cre ador</w>
A caso</w>
â cuib</w>
si gue</w>
pa ri
na xkʼoxla</w>
manda mientos</w>
kʼoj kʼ
er ras</w>
ar ías</w>
a segu
Kßa xal</w>
ßa jeb</w>
teßx cßul</w>
pen diente</w>
ob âl</w>
o ja
naj til</w>
mar zo</w>
ma ri
lla m
ci dos</w>
chʼoo q</w>
cacuâ y</w>
Tz ol</w>
Tra ducción</w>
PATZʼ OM</w>
últi mos</w>
ú a</w>
x oc</w>
tzʼeqta ana
ti kʼti
m ías</w>
l á</w>
ki ʼaatinak</w>
du l
da ño</w>
bata lla</w>
aw eʼ</w>
profe cías</w>
nekeʼ ril</w>
li a</w>
joß queb</w>
i m</w>
dese o</w>
cha le
c la</w>
aʼ ebʼ</w>
a mar
X jultikankil</w>
í so</w>
yu cua</w>
xko lbʼal</w>
w er</w>
ti ki
qui cana</w>
pied ras</w>
oport unidad</w>
mâ tan</w>
maa ko
in quileb</w>
gu ía</w>
en ter
e la</w>
ci eron</w>
añ a
ab o
ab les</w>
a ciones</w>
Mo ko</w>
De u
Chixjun ileb</w>
A hora</w>
3 0
xna ßajeb</w>
tz e
r me</w>
que b
mu k</w>
le ʼq</w>
ju kubʼ</w>
gi r</w>
bʼ ru</w>
O X
Chan cha
CHI K</w>
ên t</w>
q abʼ
pe di
paci encia</w>
n el</w>
llev ó</w>
l ó
habla do</w>
gober na
cu ân
cre ación</w>
chßô lej</w>
c é</w>
ab ril</w>
ab ri
a tra
S O
R ub
M O</w>
t chalq</w>
se xu
rahobʼtes iik</w>
nequeß cßanjelac</w>
naʼ ok</w>
k a</w>
gl esi
ca pí
S er
P ON
NU ESTR
ter ono
terono mio</w>
su ced
que dó</w>
oksi mank</w>
obede cer</w>
o t</w>
ne er</w>
naca t
man do</w>
lo bâl</w>
her mo
engen dr
ejemp los</w>
cha do</w>
a pli
Deu teronomio</w>
B ʼa
5 6</w>
vi ve</w>
sufri miento</w>
roxlo qʼi</w>
o qu
ka ch</w>
camp os</w>
5 8</w>
ándo se</w>
yoo kin</w>
va ya</w>
segun do</w>
quetô mk</w>
pâ b
propi o</w>
ob edi
naw eʼk</w>
mo bresi</w>
mes es</w>
man eras</w>
in es</w>
her mân</w>
du ras</w>
cuan quileb</w>
cua cl
bʼala qʼil</w>
b ô
adelan to</w>
Y a
O h</w>
Lâ o</w>
G ober
C ho
za re
tzßâ manquil</w>
tro mp
too wanq</w>
reli c</w>
rako k</w>
pusi eron</w>
mun dial</w>
holocaus to</w>
hi l
e t</w>
difi cul
ci en
b h</w>
xaq abʼan
xa q</w>
x nin
ve lación</w>
tâ qßue</w>
t kße
ri lbal</w>
qa miiw</w>
nax q</w>
mâ re</w>
lo kß</w>
hu bo</w>
engendr ó</w>
enga ñ
c aba</w>
beb er</w>
an cia</w>
agra deci
a lal</w>
Z ac
Q ßu
Je hú</w>
CHʼ OO
A yu
ê u</w>
x qʼe</w>
x eb</w>
u lu
sukß îk</w>
servi dores</w>
sen ses</w>
o ke
nume naq</w>
may or
kʼulu bʼa</w>
cui dado</w>
A unque</w>
uu l</w>
q u</w>
pi m</w>
je fe</w>
esa loni
châ lc</w>
cen tra
b es
T esaloni
P en
Maa re</w>
Le a</w>
Gober nante</w>
y endo</w>
x rahom</w>
tâ xic</w>
t tzʼaqloq</w>
su r
sir vi
po drá</w>
ni kin
nekeʼ ruuk</w>
man ten
ma si
ju stos</w>
he chos</w>
escri bi
e du
d á
bʼee k</w>
b âc</w>
Zac arías</w>
RES PON
Le y</w>
Cu er
Colo senses</w>
x joskßil</w>
profe ti
nequeßx qßue</w>
in flu
ca sa
awabʼ ejilal</w>
Se de
Je f
Cuer po</w>
Ar an</w>
x tz</w>
u r</w>
s un
pa s</w>
kar neer</w>
H ero
yô co</w>
y on</w>
x tu
u c</w>
tqa kʼoxla</w>
ti les</w>
regi ón</w>
me j</w>
i dos</w>
cßa t</w>
cß oj
cen ses</w>
cana u</w>
Yu cua</w>
San to</w>
2 6
u me
tin a</w>
ter min
rula ʼaninkil</w>
rocho ch
queß el</w>
princi pa
mâ ji</w>
juntaqʼ ee
e kß</w>
e hil</w>
de masi
circun ci
anti gu
El los</w>
â tinak</w>
y bal</w>
xya abʼa
xin bânu</w>
xcß âl</w>
x mâqueb</w>
wakli iq</w>
tuk tû
saho kß</w>
naqa ye</w>
na ß
kʼ ut</w>
kʼ iik</w>
instru cciones</w>
enseñ ado</w>
eb ânu</w>
cristi ano</w>
cha p
ch u
bʼa mank</w>
ba la
ayudar nos</w>
T E</w>
Jo safat</w>
yu cuaß
xko ho</w>
tqa tzʼil</w>
segu ros</w>
ni quin
kʼu ulaʼal</w>
ki chalk</w>
kana aq</w>
gun o</w>
entra da</w>
bʼan onel</w>
bʼ o
abun d
Cßaß ru</w>
xo do</w>
w0 6</w>
ti fi
si s
pu ro</w>
pró ji
per se
of reci
nekeʼ xkʼut</w>
nekeʼ kʼanjelak</w>
musi k</w>
ka q
jw a</w>
juna jwa</w>
h á
esper a</w>
acti tud</w>
a res</w>
R ebe
Jo se</w>
I Bʼ</w>
E E
Bʼ A</w>
xyan q</w>
xbʼaan ebʼ</w>
wakli ik</w>
se me
re presen
que m</w>
próji mo</w>
na xyeechiʼi</w>
kubʼee k</w>
hebre o</w>
chßû tal</w>
asi sti
ar nos</w>
ab or
Pa tzʼ
í do
én es</w>
xko kʼal</w>
testi go</w>
tak l</w>
pi dió</w>
nequeß cßamoc</w>
mi yon</w>
man tener</w>
le beb</w>
la tas</w>
ini qui
fri ca</w>
esi l
es p
bíbli cas</w>
ar ri
X bʼaan</w>
Tesaloni censes</w>
Pi la
óni cas</w>
ßu x</w>
xna ʼaj</w>
t ris
stan te</w>
seme j
s inti
ros tro</w>
ris inkil</w>
pág ina</w>
posesi ón</w>
po l
ob e
obe deci
nakaaw aj</w>
mu xb
kʼutu k</w>
kʼox lak</w>
inter es
cua c
cu âtin</w>
bê c</w>
ado rar</w>
V er
Rebe ca</w>
Ma t
ve mos</w>
u x</w>
sach k</w>
ro xcßâl</w>
rela ción</w>
r ían</w>
pala cio</w>
l mente</w>
l el</w>
en tró</w>
com ba
chʼu tu
bʼi ho
bʼa chʼoolej</w>
b ân
Pila to</w>
Nab al</w>
Lo t</w>
J on
ENT ES</w>
árbo l</w>
queß cuulac</w>
prim eros</w>
pensa mientos</w>
hi m</w>
experi encia</w>
e en</w>
de cían</w>
d ras</w>
cua ca
chakß oc</w>
YU ʼAM</w>
Si ón</w>
SI GUI
Patzʼ om</w>
OM ON</w>
Jo ás</w>
E le
E MOS</w>
za dos</w>
tu bre</w>
to mar
tiki bʼ</w>
tii kilal</w>
teß xic</w>
principa les</w>
on i</w>
ojo b</w>
na canau</w>
i kß</w>
har ás</w>
gus taría</w>
e k</w>
cie mbre</w>
chʼol chʼooq</w>
campa mento</w>
b â
ani hebʼ</w>
ami iwil</w>
Rub én</w>
Inter net</w>
C ar
tra i
si on
sent ía</w>
oí r</w>
maako bʼk</w>
ma s
keʼ xbʼaanu</w>
cre ó</w>
a prove
S in</w>
Mun do</w>
xʼ Eva</w>
xyâ b</w>
sába do</w>
sabi o</w>
sa q
respe to</w>
qui cuil</w>
princip al</w>
kab ânu</w>
joß nak</w>
in ch</w>
gi o</w>
famili as</w>
dios eb</w>
câ k</w>
comp en
al lá</w>
8 3</w>
é monos</w>
xcu ênt</w>
u j</w>
tzßa k</w>
tuu lan
tien da</w>
se ptiembre</w>
quix cßam</w>
qui chal</w>
per do
neque nau</w>
naqa kʼutbʼesi</w>
mes as</w>
lle gado</w>
kaʼ in</w>
estudi ante</w>
escla vo</w>
congrega ciones</w>
chʼinaʼ usil</w>
car á</w>
cambi o</w>
bus car</w>
bendi ciones</w>
b res
anun ci
an bil</w>
XK OMON</w>
L ab
x qßue</w>
w0 7</w>
tra du
situ aciones</w>
si dad</w>
ne k
naqa kʼoxla</w>
mues tran</w>
i hebʼ</w>
descen dencia</w>
d ra
acti vi
a jo
X molam</w>
Noe mí</w>
NUESTR A</w>
Es to</w>
Es t
ßa j
xkʼojo bʼankil</w>
tze ke
religi ón</w>
pu ra</w>
manda to</w>
gen es</w>
es en</w>
cßu la
WI ʼ</w>
PREGUN TAS</w>
yu ʼami</w>
tê ye</w>
to ro</w>
sâ j</w>
sicß bal</w>
si ca</w>
qßue hak</w>
queß xcßam</w>
pro cla
kʼutbʼ esink</w>
in Dios</w>
i o</w>
felici dad</w>
condu cta</w>
compa sión</w>
amo rre
X BʼAAN
Taa kʼe</w>
Pas cua</w>
Lab án</w>
Jon ás</w>
Jo ß
Chi ru</w>
CHʼ O
x ho
ue he</w>
tien es</w>
taq lank</w>
san tos</w>
roy ben
rega lo</w>
nokoo ruuk</w>
ma teri
la res</w>
ku yum</w>
hi bʼ</w>
cuaca x</w>
bauti smo</w>
apo yo</w>
ali dad</w>
Sa m</w>
Ha y</w>
B o
Abra han</w>
2 Cr</w>
ʼ ani</w>
us tra
tzo lebʼaal</w>
sach bʼachʼoolej</w>
s inquil</w>
re ac
pon e</w>
le m
in bên</w>
est én</w>
e ce</w>
cuac li</w>
consu l
ci ales</w>
chi n</w>
chaabʼ ilo
cha him</w>
ab ej</w>
a leb</w>
Tex to</w>
S imón</w>
Es dras</w>
xsa ch
xni mankil</w>
wi x</w>
ven ir</w>
ve a</w>
v ini
so la
re cua
ima gen</w>
cua k
ad ver
a delante</w>
ES I
yô keb</w>
u sa</w>
tu vi
rosoʼ jik</w>
queß oc</w>
posi ción</w>
nue vas</w>
maaj un</w>
kße tkße
een t</w>
cua ßa
col ba</w>
a sig
M r</w>
H ab
8 6</w>
xbʼ eelom</w>
tzßek tâ
tz uul</w>
sab ios</w>
pod ían</w>
pa sos</w>
oca sión</w>
nokoo ʼeʼ
mâ cob
ma je
kß i</w>
her manas</w>
famili ares</w>
encontra r</w>
dificul tades</w>
der á</w>
debi do</w>
com ún</w>
bʼa q</w>
as pe
Hero des</w>
Cu an
7 2</w>
ßu j</w>
xbʼaan u
x tojbal</w>
x ex
verda dera</w>
tzo lo
tar lo</w>
takl ânc</w>
q oybʼenihom</w>
proble ma</w>
pa sa</w>
lla mada</w>
i si</w>
i na
ent en</w>
e gip
def en
cuán do</w>
co loc</w>
chix cßat
car ru
ani a</w>
an zas</w>
Mi ca
y as</w>
x sum
x cuanquileb</w>
ven ga</w>
so la</w>
re ba
pu estas</w>
pr ê
na bʼaanumank</w>
mi a</w>
ez er</w>
de tal
ci p
as unto</w>
za mos</w>
y i</w>
w al</w>
trabaj ar</w>
to ma</w>
tin ruuq</w>
ti qui
ti ca</w>
se t</w>
s teis</w>
rako c</w>
r y</w>
pi er
nin kße</w>
nekeʼ roksi</w>
mâ cob</w>
kʼojo bʼ</w>
ja laak</w>
g al</w>
eb rero</w>
dij e</w>
difer entes</w>
cßula ßal</w>
c al</w>
aguan tar</w>
W y</w>
MÁ S</w>
Mes ías</w>
K Eʼ
vo y</w>
vali entes</w>
tes i</w>
super inten
sa kße</w>
qßu i</w>
no mbres</w>
me mora
jos k</w>
gobier no</w>
di vi
cßul man</w>
co lok</w>
ci les</w>
ce p
cambi ar</w>
a zar</w>
a verg
T i</w>
Nekeʼ jolomink</w>
M ar</w>
Jeri có</w>
Bel én</w>
6 2</w>
yee chiʼi</w>
x ʼA
tâ cßanjelak</w>
tu r
tqa ye</w>
to m
ta ciones</w>
o ß</w>
nîn ki</w>
mé di
lin naʼ</w>
ho no
de muestra</w>
de mostró</w>
d or
cßut besi</w>
cuaßa c</w>
cha ki
car ta</w>
cams inquil</w>
P I
Ju dea</w>
G ál</w>
A ban</w>
á latas</w>
teʼ xye</w>
quer ub
pro vo
pien sa</w>
persona lidad</w>
or gu
nekeʼ xkʼul</w>
na wank</w>
mayor ía</w>
maravi llo
lu m
kaa hibʼ</w>
jal aneb</w>
hubi era</w>
di ción</w>
cu ál</w>
af li
T A</w>
N aru</w>
K a
Ga d</w>
Ez e</w>
x hoonal</w>
vi aj
tâ bânu</w>
trib us</w>
tix q</w>
ti s
t ʼ</w>
senti r</w>
se is</w>
ra hil</w>
pon ga</w>
nin guno</w>
k riist</w>
j e</w>
di ez</w>
cß a</w>
cualqui era</w>
chi cuix</w>
aa wu</w>
P RI
LO Bʼ
Jesu kriist</w>
D t</w>
8 9</w>
5 9</w>
20 22</w>
áni mo</w>
x tzʼa
tran j
tenkß anquil</w>
sucur sal</w>
pre g
po ca</w>
mâ cßaß
kam q</w>
joʼ kaʼin</w>
hu hil</w>
ex pres
enci ma</w>
cßu lu
ci onal</w>
b lan
arre pen
J UN
â cuu</w>
yi bʼru</w>
xin taw</w>
w aʼa
respe cto</w>
re fu
queß cana</w>
pú bli
pa abʼa
g é
ez as</w>
descen dientes</w>
bû r</w>
Re velación</w>
PA RA</w>
N I
Mo co</w>
Joß caßin</w>
G álatas</w>
Ele azar</w>
úni co</w>
ído los</w>
Í A</w>
yoß la</w>
xnin qal</w>
tê pa
tâ êlk</w>
tz a</w>
senti mientos</w>
sen ci
seera qʼi</w>
sali r</w>
q ex</w>
prome te</w>
ne ke</w>
m bal</w>
kʼe heʼk</w>
kana u</w>
hier ro</w>
genera ción</w>
fuer tes</w>
fi esta</w>
ex tranj
ex pul
cßa cßa
chi l</w>
Ma di
A sa
9 0</w>
0 5</w>
û b</w>
xa ye</w>
us ando</w>
u bal</w>
tzʼii bʼanbʼil</w>
tzeke mq</w>
to r</w>
ti k</w>
re al</w>
ra ción</w>
pol vo</w>
nekeʼx ra</w>
naq ekʼa</w>
na chal</w>
mâ us</w>
hi lobâl</w>
cß ti
cua kib</w>
chßi na
ch un
c esi
c era</w>
ben deci
V ER
Sede quías</w>
SIGUI ENTES</w>
L í
A L</w>
9 7</w>
20 19</w>
é sta</w>
xyuʼa mebʼ</w>
to maron</w>
t sach
re compen
qui si
pág s</w>
pareci ó</w>
nima ʼ</w>
m keb</w>
lo mej</w>
li bre</w>
la t</w>
kʼabʼaʼ i</w>
kix kʼam</w>
en can
difí ciles</w>
de monios</w>
d aban</w>
cui q</w>
chʼina ak</w>
chanchan eb</w>
a pare
Ti ro</w>
Nehe mías</w>
M ás</w>
K A
í tico</w>
É xodo</w>
zar se</w>
x ʼawabʼejilal</w>
versí culo</w>
su s
su k</w>
segui da</w>
se os</w>
raho ʼk</w>
pue da</w>
ofre zca</w>
o bli
mila gro</w>
juni lex</w>
inter net</w>
entra r</w>
enseñ ar</w>
cßame ß</w>
co cßal</w>
chßina ßu
ca dos</w>
bʼa tzʼ
ba k</w>
S í</w>
Nue va</w>
AAW IL</w>
A p</w>
1 19</w>
xna w
vi deos</w>
vangeli o</w>
sue ño</w>
mi ra</w>
may ores</w>
llev aron</w>
lengu a</w>
ju lio</w>
di re
cru z</w>
con ten
chiq ix</w>
Ti to</w>
Ma la
JEHO BʼA</w>
E c
CHʼOO L</w>
xy al
x qʼehil</w>
ter to</w>
roso btes
pien se</w>
naʼlebʼa q</w>
des o
ce lo</w>
bʼ en</w>
ana s</w>
a mar</w>
V ER</w>
Si on</w>
Kʼ AN
JA LA
Es tu
Abra m</w>
A ni
xto kß
xnum eʼk</w>
xkʼi ha
xka wu
x chʼolo
ven drá</w>
tuktû quil</w>
qi kʼin</w>
pro mesas</w>
na tenqʼank</w>
men cion
ma yo</w>
kix taw</w>
ki ruuk</w>
kam si
iniqui dad</w>
go ci
ga nado</w>
g ía</w>
be d</w>
ayu de</w>
a man</w>
xkam sinkil</w>
too ʼ
tik laak</w>
ti cßti
teß châlk</w>
sig lo</w>
recua dro</w>
q i</w>
prome tido</w>
pala w</w>
nequeß xic</w>
necesi dades</w>
muchí simo</w>
mu cha
memora ción</w>
me tzß
lec ciones</w>
di dos</w>
demasi ado</w>
cor ri
bʼe en</w>
abʼan yox
Si quem</w>
G O</w>
Cu r
xkʼ anje
x wakl
uni ver
ti o</w>
teʼ raj</w>
teß canâk</w>
sun unquil</w>
ri siheb</w>
re ina</w>
qa tij</w>
nekeʼ xtaw</w>
mina r</w>
le al</w>
gé ni
enseñ ó</w>
en ero</w>
eli k</w>
du da</w>
di da</w>
cß ox
châ bi
chi bâ
chibâ t</w>
bene fici
ayu dan</w>
To joßnak</w>
Re visita</w>
7 3</w>
1 00</w>
z ando</w>
xyee chiʼ
xin kʼe</w>
v in
u lo</w>
ti mil</w>
te xin
sigui ó</w>
sa tis
ra da</w>
qui raj</w>
paí ses</w>
naq ebʼ</w>
na rekʼa</w>
m ía</w>
julti kaq</w>
ju diiy</w>
in te
er te</w>
ee chʼool</w>
ani ma</w>
N aa
Heb rón</w>
Con memoración</w>
4 0
Í AS</w>
xloqʼon i</w>
xkʼulu bʼ</w>
x tzo
v ían</w>
tʼan eʼk</w>
teʼ wakliiq</w>
señ al</w>
ri bileb</w>
pued es</w>
ob ser
medi a</w>
mb ios</w>
maaʼ usebʼ</w>
la leb</w>
inter és</w>
in mora
hono r</w>
ha l
gol pe
esta tu
ent í
der echa</w>
compañ eros</w>
circun stan
ca mbios</w>
activi dades</w>
Wan kebʼ</w>
Q ʼa
C AS</w>
8 0</w>
y x</w>
xcu ybal</w>
vi u
va dos</w>
têpa leb</w>
s ta
rela to</w>
pa tz</w>
oso bʼtes
nokoo xra</w>
me tas</w>
ki tzʼii
jo k</w>
hab ría</w>
enemi go</w>
d ó
cuu kß</w>
conver ti
algun o</w>
X AAWIL</w>
R aquel</w>
NE KEʼ
M O
F I
xlokßon inquil</w>
x santil</w>
tikʼti ʼ</w>
teß oc</w>
ta rio</w>
t era</w>
rique zas</w>
ra rá</w>
qui lajeß
na ra
mâcßaß eb</w>
mostra r</w>
kubʼee q</w>
jalan ebʼ</w>
imi tar</w>
hi ce</w>
gu e
go zo</w>
g ará</w>
f ía</w>
envi ado</w>
dis curso</w>
cßa meb</w>
capí tulo</w>
E d
C O</w>
A N</w>
3 ,
1 Sa</w>
vi ento</w>
sali eron</w>
r ando</w>
qʼa x
oca siones</w>
na chß</w>
mi les</w>
kix patzʼ</w>
ki xkʼoxla</w>
ga dos</w>
g res
de vo
cuu k</w>
cab an</w>
ca t
ban o</w>
a demás</w>
T ix
KʼA RU</w>
Cur so</w>
xchʼolo bʼankil</w>
wi lal</w>
tâ cuaj</w>
ten gamos</w>
re bel
par tes</w>
o dio</w>
necesi tan</w>
ne bâl</w>
keʼ xkʼe</w>
hu mano</w>
estudi antes</w>
enseñ anza</w>
câ cßâl</w>
cre encias</w>
confi r
cla ses</w>
as ta</w>
abo mina
a dul
R es
N ú</w>
Lev ítico</w>
D ónde</w>
í ni
xu ku
x naʼle
w 15</w>
u hak</w>
tuulan il</w>
tin takla</w>
te ß</w>
publica dores</w>
para íso</w>
os to</w>
oja ri
o li
numtaje nak</w>
na ru
i ban</w>
e fecto</w>
chix qßuebal</w>
chi ka
chan cha
car se</w>
ca pi
an cha
T wanq</w>
PO R</w>
Kʼa joʼ</w>
A le
â cßajol</w>
y an
x tzʼaq
x metzʼew</w>
val le</w>
su mo</w>
resca te</w>
rein ó</w>
re vista</w>
ra dos</w>
pu rifi
pri mo
pe li
num ta</w>
llen a</w>
enferme dad</w>
de ja</w>
cu och
cir cui
ar ás</w>
an m</w>
abʼanyox i</w>
ab in</w>
T E
Sal ón</w>
Qa kʼoxlaq</w>
Kʼ E</w>
C r
6 8</w>
é xi
xra abʼal</w>
w 11</w>
ti cla</w>
rela ciona
r les</w>
qui chak</w>
juntaqʼ eet</w>
g er</w>
est re</w>
esil hu</w>
er án</w>
eho l</w>
du ro</w>
chixcßat k</w>
bô yx</w>
T es</w>
Is ma
9 8</w>
yô k</w>
xtokß obâl</w>
vi o
tr ón</w>
sut su</w>
ro res</w>
que da</w>
puktes inkil</w>
pro stitu
preg ún
na kʼehok</w>
mag ed
le mente</w>
l é
imp íos</w>
imp resi
idio ma</w>
i dea</w>
humil dad</w>
ent rega
do naciones</w>
di ciembre</w>
cre en</w>
cre e</w>
contra rio</w>
conci encia</w>
com para
co lab
chʼutu bʼ</w>
bio mal</w>
bendi ción</w>
a mb
XBʼAAN UN
XBʼAANUN KIL</w>
So do
SE Ñ
Pregun tas</w>
E u
Ar maged
Abi melec</w>
9 9</w>
6 1</w>
20 20</w>
é ramos</w>
xuku ut</w>
u k</w>
u heb</w>
te mente</w>
rî tz</w>
ro c
respon de</w>
quin qßue</w>
qa t</w>
prê xil</w>
po ni
palto ʼk</w>
pa ter
oc tubre</w>
nekeʼ wulak</w>
lin yuwaʼ</w>
jun xaqalil</w>
ex tre
e ces</w>
do ce</w>
di miento</w>
circunstan cias</w>
ci da</w>
chʼaʼajko ʼq</w>
W ANK</w>
Sodo ma</w>
P ue
û n
xnaʼle bʼebʼ</w>
xeʼ xye</w>
vi aje</w>
u i</w>
tâ qßuehekß</w>
tqa kʼul</w>
suced erá</w>
su fici
so is</w>
si guen</w>
se cß</w>
se as</w>
quier en</w>
qa tenqʼankil</w>
o fici
maa kʼaʼaq</w>
ma tó</w>
laaw amiiw</w>
k ßu
jun may</w>
is te</w>
i lebʼ</w>
cuán to</w>
ca ßaj</w>
arri ba</w>
a pe
a me
XY E</w>
Madi án</w>
B Í
x saß</w>
to qʼo
tes e</w>
t ía</w>
ra hi</w>
prop ios</w>
pro ba
on a</w>
nima jwal</w>
nax c</w>
mi kebʼ</w>
men ta</w>
kʼe hebʼ</w>
ja c</w>
i glesi
fu ror</w>
des ta
cul p
cono ce</w>
co lo
ci al</w>
chale naq</w>
ale gra
a cor
R AJ</w>
Lí bano</w>
L aa
Co l</w>
Chʼ ol
BÍ BLI
A hi
A c
9 4</w>
0 2</w>
xeʼ xkʼe</w>
vi vo</w>
verda deros</w>
tʼ ik
too ʼeʼ
tat xic</w>
t kʼanjelaq</w>
saho ß</w>
s en</w>
re fer
qui laj
qa j</w>
oy ó</w>
olo banquil</w>
o di
novi embre</w>
nequeß xcß
lo qʼ
li k</w>
l lan
ka waq</w>
emi as</w>
dr án</w>
cre to</w>
co mien
carru aje</w>
bʼ er
anti ox
Vi deo</w>
SA L
Li bra
F eli
7 6</w>
6 6</w>
xy ajel</w>
xu cua</w>
x puktesinkil</w>
wan kil</w>
vi ol
tê yîb</w>
ta k</w>
segun da</w>
sa hebʼ</w>
re ve
na ri
mu keß</w>
m ú
in vesti
i mos</w>
i as</w>
ga se</w>
cana ne
ca k
awabʼej ink</w>
anali ce</w>
a trás</w>
To do</w>
Ri qßuin</w>
M i</w>
Jer emias</w>
Isma el</w>
De ut</w>
A yu</w>
A ca
árbo les</w>
ye chißi</w>
x abânu</w>
waʼa k</w>
u nas</w>
tran qui
tii kebʼ</w>
ti eron</w>
ti bel</w>
tendr án</w>
ten gan</w>
sufri r</w>
su bió</w>
senti mos</w>
rochoch eb</w>
re goci
ra ron</w>
ra cuîmk</w>
pri mi
po bre</w>
po b
oso ß</w>
os cu
mi c</w>
mejo res</w>
julti co
is tra
f ebrero</w>
es tros</w>
do min
con suelo</w>
circui to</w>
chßi ß
abʼ ink</w>
Ma ria</w>
Ju diiy</w>
Jo ram</w>
Es te</w>
Di ablo</w>
8 8</w>
10 3</w>
â col</w>
va rias</w>
v i</w>
pu do</w>
per don
na xic</w>
ma dera</w>
kix sikʼ</w>
kaa xukuut</w>
junaj i</w>
ir é</w>
cui lal</w>
co j</w>
cak coj</w>
angusti a</w>
ala ban
aa tenqʼankil</w>
Sa ulo</w>
Libra ry</w>
Jez abel</w>
Fili p</w>
Ch in
Bʼi deo</w>
B RA</w>
7 1</w>
2 5
yoß yo</w>
x chaabʼilal</w>
wa miiw</w>
w 13</w>
u ir
tix kʼam</w>
tiqui b</w>
tin xic</w>
tin bʼaanu</w>
teʼ ril</w>
takl ânk</w>
t chʼaʼajkoʼq</w>
ru e
ri bʼebʼ</w>
res tau
pa trón</w>
p ra
or den</w>
neque x
na sahoʼk</w>
ma dos</w>
kʼe haq</w>
joskß oß</w>
hab lando</w>
estu vi
enferme dades</w>
disfru tar</w>
di ga</w>
cu as</w>
ba lak</w>
b esti
averg on
ad or
Sa haq</w>
J os</w>
Cha qʼrabʼ</w>
Ber na
x cab</w>
tâ câmk</w>
tzʼ iibʼ</w>
tra v
ti po</w>
super i
p bal</w>
of en
lan es</w>
ki kanaak</w>
ka he
in mâc</w>
da b</w>
cu ochoch</w>
cu lti
Ra hab</w>
N os</w>
HA C
E lí</w>
A j
9 5</w>
za da</w>
vali ente</w>
tin sach</w>
te m
tar nos</w>
roch bʼen</w>
rech paabʼanel</w>
r in
qui ero</w>
que dará</w>
qa ʼal</w>
perso nal</w>
o ra</w>
o bʼ</w>
neque bânu</w>
nekeʼ rekʼa</w>
naʼ elk</w>
mo ti
mas co</w>
maa kʼaʼ
in medi
f ron
e vangelio</w>
cßa j</w>
chʼ bʼil</w>
c ár
bʼiho mal</w>
be bi
aj l</w>
agra de
Pue de</w>
Da masco</w>
Cuan queb</w>
xy i</w>
xeʼ ok</w>
xam l</w>
tza kahe
sé pti
ri eron</w>
primo géni
ple e
o jo</w>
mu q
mon tes</w>
men ciona
ix qaʼal</w>
hon ra</w>
ha t</w>
h in</w>
eʼ yaal</w>
er nos</w>
cu ción</w>
com uni
circunci sión</w>
cha pe
cer án</w>
c lanes</w>
an te
U DI
T ú</w>
P e</w>
N u
6 9</w>
ó li
yu k</w>
xyu cua</w>
xnu mikebʼ</w>
wu qubʼ</w>
taa sume</w>
si quiera</w>
sa mente</w>
ro de
resul tado</w>
qui so</w>
queb ran
pro gra
per tene
oo bʼ</w>
nakaa ye</w>
kaw il</w>
kaw ebʼ</w>
kabʼ l</w>
ho ras</w>
g áis</w>
er rores</w>
due lo</w>
cier ta</w>
chê junilex</w>
car go</w>
ca si</w>
aa wikʼin</w>
V Á</w>
Re yes</w>
M er
JEHO VÁ</w>
9 2</w>
1 30</w>
ʼaa tin</w>
ê cßajol</w>
xkʼu lmank</w>
x tzʼi
u ehoc</w>
tz ima
tromp eta</w>
tin qßueheb</w>
tin i
tak abânu</w>
ta ra</w>
rá pi
roybʼen i</w>
re pren
raa tin</w>
qa komon</w>
pa p
natu ra
mi r</w>
in terior</w>
in cuanquil</w>
h ô
e cß
cab o</w>
as untos</w>
VI D</w>
Est á</w>
Cr ónicas</w>
A y</w>
9 6</w>
7 8</w>
6 7</w>
x tâna</w>
x josqʼil</w>
vol vieron</w>
viol encia</w>
ve an</w>
ula ʼan
ti b</w>
ta tin
so mb
si co</w>
re po
qa hoonal</w>
per e
paabʼan k</w>
oí dos</w>
obje tivos</w>
num tâc</w>
metzß êu</w>
kam si</w>
ju l</w>
inmedi a
in ban</w>
fari seo</w>
enseñ anzas</w>
empez ar</w>
c â</w>
a mado</w>
Si kʼ
R u
ON ES</w>
0 7</w>
0 1</w>
xyo tʼ</w>
xcß abaßeb</w>
wan kin</w>
tu si
ta b
so por
re chßa
qʼ inkil</w>
qʼ ebʼ</w>
muheb âl</w>
miemb ros</w>
kubʼ sink</w>
idio mas</w>
ha gan</w>
gober nante</w>
exi sti
esta rán</w>
di rá</w>
cí fi
cßul mânk</w>
c es
bʼa ʼebʼ</w>
ba da</w>
ar ía</w>
ar les</w>
Z i
T R
Ca leb</w>
CH I</w>
1 2
1 000</w>
0 000</w>
x patzʼ
tzakahe mq</w>
tqa tzol</w>
ta awil</w>
roso bʼtesi</w>
querub ines</w>
párraf os</w>
op ini
necesi dad</w>
na kanau</w>
na cuan</w>
kʼe mank</w>
habla ba</w>
der ro
deja do</w>
d remos</w>
cono z
cono cido</w>
co ro
bʼatzʼ unk</w>
bʼanyox i</w>
a vi
R oboam</w>
Qʼa xal</w>
EN SEÑ
Ci ro</w>
Bʼ E
BI L
Asi mismo</w>
AN A
7 9</w>
4 ,
tzima j</w>
sor pren
sis tema</w>
res ink</w>
re p
raho c</w>
pâ banquil</w>
num eʼk</w>
m án</w>
ko leʼq</w>
he k</w>
halla do</w>
gu sta</w>
evi tar</w>
deber ía</w>
d ín</w>
cß ojob</w>
cu ech</w>
cha awil</w>
car ros</w>
al tad</w>
abor re
aban do
Cßa joß</w>
Armaged ón</w>
A sa</w>
9 1</w>
8 7</w>
8 4</w>
20 00</w>
Ó MO</w>
xkʼiha lil</w>
w ar
us ó</w>
to mado</w>
sumen k</w>
res to</w>
recuer da</w>
ra d</w>
r ías</w>
qu es</w>
qa maak</w>
q il</w>
q abʼa
oso bʼtesihom</w>
oke ch</w>
ne quer
naʼ oksimank</w>
importan cia</w>
im pul
ho or</w>
en tusi
cu esti
chʼo k</w>
af ron
a poya
TZOLO K</w>
QA YUʼAM</w>
Na abʼalebʼ</w>
L in
EST UDI
C ÓMO</w>
7 5</w>
ó mi
z ará</w>
xku yum</w>
xkaw resi</w>
xcu x</w>
x toj
utu b</w>
tzßî ba</w>
tq oksi</w>
ser ás</w>
re almente</w>
qui xye
queßx cßul</w>
pleti k</w>
no kß</w>
nax kʼabʼaʼi</w>
naw ekʼa</w>
le altad</w>
ki xkʼulubʼa</w>
in junes</w>
humil de</w>
fari seos</w>
entreg ó</w>
egip cios</w>
do poderoso</w>
co c</w>
ci éndo
bʼi chan
ayu dado</w>
ajo lbej</w>
actu ar</w>
ac ciones</w>
Z ab
S us</w>
M edi
Kʼ ut</w>
Ha z
D eb
Chanchan eb</w>
Ab ner</w>
- At</w>
x xi
tí simo</w>
tqa kʼutbʼesi</w>
teʼ xtaw</w>
teni endo</w>
sen tado</w>
quix taklaheb</w>
quix chap</w>
ofre cer
nin naw</w>
necesi ta</w>
men u
li bra</w>
kix tenqʼa</w>
juntaqʼee ta</w>
in vo
i lmank</w>
gri ego</w>
g ra</w>
ent ó</w>
co leb</w>
chß ina</w>
chi rabinquil</w>
bi a</w>
Taa chʼolobʼ</w>
R u</w>
Ne cesi
M al
Jun elic</w>
E x</w>
Dis fru
B ro
A z
2 Re</w>
á les</w>
yî ban</w>
xraq ik</w>
xeʼ xkʼul</w>
vuel to</w>
tâ q</w>
tini eb
tinieb las</w>
tien de</w>
res puestas</w>
ra k</w>
qui chakßoc</w>
puktes i</w>
po lí
per dido</w>
ofren das</w>
nu bâl</w>
mo mentos</w>
mila gros</w>
la jic</w>
kiʼ elk</w>
gobier nos</w>
g ü
enten dimiento</w>
en se</w>
en oj
des cubri
cu t</w>
con ce
ch eß
b as</w>
a xtesi</w>
a ves</w>
Yu waʼ</w>
Sal u
RESPON DA</w>
Na zare
N ima
M P
H a</w>
Cha len</w>
ándo le</w>
x jolo
tix cßul</w>
sach eb</w>
roch bʼen
que dado</w>
pu pi
pra cti
pon en</w>
perse cución</w>
ne ba
n e</w>
llen o</w>
la da</w>
l lu
ko kʼ</w>
ki qßuin</w>
ha gamos</w>
escu ela</w>
el il</w>
destru cción</w>
cßa ßux</w>
chan do</w>
ca k</w>
abund ancia</w>
Y ôqueb</w>
Sa ul</w>
Q ʼ</w>
H E
Ed én</w>
1 10</w>
á genes</w>
x mâ
w0 5</w>
tra ta</w>
ti cos</w>
tenqʼa ak</w>
ta q</w>
so ber
semej ante</w>
re ta
raq eʼk</w>
qa jultikaq</w>
po li
perfec tos</w>
pe le
nax kanabʼ</w>
má xi
muxb il</w>
li mi
li at</w>
ki rabʼi</w>
j es</w>
is îk</w>
im ágenes</w>
hô nal</w>
cto r</w>
con tribu
ca mente</w>
c anti
T O</w>
Ri kʼin</w>
R elic</w>
K eʼ
Go liat</w>
D E
2 Co</w>
xtaq la</w>
xeʼ wank</w>
xbʼ er
xak li</w>
x ja
ve ge
ue hak</w>
too tijoq</w>
teni miento</w>
respon dieron</w>
qßui cheß</w>
preocu pa
pe da
pe chʼbʼil</w>
nek ee
neba ß</w>
na dos</w>
n ón</w>
mo l
lokßon inquil</w>
la bios</w>
kʼut unk</w>
habi endo</w>
gi nas</w>
for mación</w>
eb a</w>
constru cción</w>
cha qi
ca s
bi lak</w>
an quileb</w>
ag osto</w>
a das</w>
U zías</w>
Sime ón</w>
án tate</w>
xyaabʼa sinkil</w>
xtzʼi lbʼal</w>
xpatzʼ bʼal</w>
xkam si</w>
xcßa t</w>
versí culos</w>
ulaʼan ink</w>
u ebal</w>
tâ raj</w>
tex xic</w>
tes or
ta rios</w>
sufici ente</w>
royben inquil</w>
ro quic</w>
recibi ó</w>
ra mente</w>
precurso res</w>
peque ño</w>
nin kʼoxla</w>
mu xu
medi da</w>
kße t</w>
kßaxtes iheb</w>
keʼ wank</w>
isi ik</w>
i den
ha z</w>
ha cían</w>
fa z</w>
dis puesto</w>
der es</w>
cho y</w>
chix ch</w>
capaci dad</w>
asisti r</w>
ani mal</w>
acep tar</w>
ac ción</w>
a la</w>
L AA
CO VID</w>
A cu
y ehok</w>
xtzo lbʼalebʼ</w>
x câcßâl</w>
tâ cßulmânk</w>
tix c</w>
ter ren
tene bʼanbʼil</w>
tar ás</w>
su f
segu ridad</w>
se amos</w>
sach ba</w>
religi ones</w>
pres u
nequeß raj</w>
naʼa l</w>
lle gue</w>
liber tad</w>
kßa heb</w>
kix jal</w>
gober nan
fortale cer</w>
detal les</w>
den a</w>
con vir
a tin</w>
a me</w>
RI BIL
RIBIL LO</w>
Isa ias</w>
EST RIBILLO</w>
Disfru te</w>
â lokßal</w>
x Maria</w>
volver á</w>
sépti mo</w>
se lu
selu lar</w>
rosoʼ jikebʼ</w>
re fi
predi cando</w>
nu be</w>
neque ye</w>
na chʼ</w>
l bʼej</w>
jolo min</w>
er no</w>
entusi as
di v
cub si</w>
conta cto</w>
chaabʼi lebʼ</w>
cabal los</w>
bʼtes inel</w>
af ren
Nazare t</w>
ê chal</w>
yo bʼtesihom</w>
y â
xucua k</w>
xu wak</w>
xtzʼaq obʼ</w>
ui la</w>
tâ camsîk</w>
tz ac
tqa sikʼ</w>
sutqʼ iiq</w>
qabʼ een</w>
prepara do</w>
naqa paabʼ</w>
naka mk</w>
le tz</w>
est ás</w>
di eran</w>
demostra mos</w>
dar nos</w>
chʼi naʼal</w>
cambi ó</w>
c á
c el</w>
bʼa ak</w>
b é</w>
anu m
M an
CON T
AA L</w>
A dan</w>
7 7</w>
6 3</w>
1 Re</w>
Á frica</w>
yaabʼa k</w>
xin tzol</w>
xin eʼ
xeß x
x tenamiteb</w>
vesti do</w>
va rios</w>
u lbal</w>
tʼik r</w>
tí tulo</w>
tzʼ u
trav és</w>
teß xyîb</w>
sen sa
saho bʼresi</w>
rechßa lal</w>
oo q</w>
ni dad</w>
naq ara</w>
lá m
llam aba</w>
la v
jar dín</w>
ge o</w>
fu i</w>
en i
di mos</w>
cristi ana</w>
chiri bʼilebʼ</w>
a pa
To jaʼ</w>
DES CU
4 000</w>
ê c</w>
z i
xyo bʼtesi</w>
xq il</w>
xcßa jo
xco lbal</w>
x ebânu</w>
w e
w 12</w>
vesti duras</w>
uu k</w>
u ten
uten si
tra q
to chʼ</w>
terren o</w>
taa kʼehebʼ</w>
so lu
si enten</w>
pó n
propi as</w>
nume kß</w>
na xkʼulubʼa</w>
mu ra
mora da</w>
ja r</w>
j ó</w>
f a</w>
esper ar</w>
er g
en a</w>
des cri
cuu laj</w>
cau ti
bê lom</w>
b ón</w>
al deas</w>
aj u
T O
Na tán</w>
N OS</w>
Maa kʼaʼ</w>
H ar
DESCU BRA</w>
Chʼol chʼo</w>
A R
ñ osa</w>
zar o</w>
yi b
xko l</w>
w0 4</w>
tz ß</w>
reba ño</w>
re fle
ra í
ra m
or de
nin bânu</w>
le ales</w>
ki xyiibʼ</w>
junta kß
je kʼ
ir ta
extre mo</w>
encuen tro</w>
ele lik</w>
des nu
dar on</w>
d ri
cár cel</w>
cuan co</w>
cab ânu</w>
ca yó</w>
c ero</w>
Ro choch</w>
G i
G er
B en</w>
x tzßâmanquil</w>
w0 8</w>
tê raj</w>
tri si</w>
to ma
sepul c
sab en</w>
sa aj
recu per
par á
pa re</w>
nax taw</w>
mu estre</w>
lti l</w>
lo qʼ</w>
kix xaqabʼ</w>
jui cios</w>
eho m</w>
co zías</w>
co r</w>
chß in</w>
bus ca</w>
Yo bʼtesinel</w>
V AN
Sikʼ bʼil</w>
S aʼebʼ</w>
O cozías</w>
N im
N O
J IL</w>
F ran
B as
7 4</w>
0 3</w>
zar ías</w>
yib ru</w>
vi ven</w>
tzßa p</w>
to je
ten kßaheb</w>
si ʼ
ru ßuj</w>
responsabi lidad</w>
qʼe t
qui risi</w>
que x
qu en</w>
publi cación</w>
per der</w>
pa sando</w>
oxlo qʼi</w>
nin qʼe</w>
ni e
naq wan</w>
na sach</w>
mo des
ku yuk</w>
juni o</w>
gra fía</w>
di señ
de trás</w>
de muestran</w>
ci r</w>
chßa ßaj
car ga</w>
bʼe en
a fec
a conse
Berna bé</w>
A zarías</w>
A naqwan</w>
0 8</w>
xi i
x tân</w>
w 14</w>
vini eron</w>
un gidos</w>
u xta
tqa kʼam</w>
teʼ xkʼul</w>
su mal</w>
sirvi endo</w>
sir ven</w>
sigui eron</w>
sa ha
ri bil</w>
re mo
re gu
qui taklan</w>
pá ginas</w>
permi te</w>
ori ente</w>
multi pli
muk mu</w>
mori rá</w>
me mo
je nak</w>
invi tación</w>
humil des</w>
ha go</w>
di ver
di to</w>
cui kß
cono cer
chʼiʼ chʼiʼ
chßo l</w>
chi ʼ</w>
cha a
car é</w>
ba c</w>
ali mentos</w>
Si na
Nima jwal</w>
Ec l</w>
E x
Am án</w>
A ji
ʼ uj</w>
yoo q</w>
xsa ch</w>
x qßui
tzßa lam</w>
teß cßanjelak</w>
tex tos</w>
ter cer</w>
t kubʼeeq</w>
sinti ó</w>
ri i
ri co</w>
ra ba</w>
qui cßulman</w>
primogéni to</w>
parti r</w>
par on</w>
na cßanjelac</w>
máxi mo</w>
mon il</w>
men or</w>
ma t</w>
lab or</w>
laa teep</w>
la dos</w>
i rán</w>
i leʼk</w>
han k</w>
gu erras</w>
des per
cß abaßeb</w>
consu mi
con ómi
chix sicßbal</w>
ca das</w>
c ina</w>
Ne f
Jef té</w>
H asta</w>
Bas án</w>
Ab el</w>
AN Z
AL GO</w>
yu l
yo bʼtes
y ibʼ</w>
xsaho bʼresinkil</w>
xbʼaanu hom</w>
x pâb</w>
vien en</w>
vi gi
tzʼaqon q</w>
tix kanabʼ</w>
sicß bil</w>
s eʼ
ris mal</w>
pregún tese</w>
plee tik</w>
pi ente</w>
nequeß xnau</w>
neke ʼaatinak</w>
na xkʼojobʼ</w>
may e
ma tar</w>
laaw alal</w>
in spi
es tando</w>
e conómi
do c</w>
d entes</w>
cuâ r
contro l</w>
c án
b ro
anje lak</w>
ad mi
aa tinaq</w>
a paci
Sa doc</w>
P ER
D EL</w>
2 Sa</w>
úni ca</w>
xjun es
xin xtenqʼa</w>
xaq il
viu da</w>
tâ colok</w>
tzß û
tenkß ânk</w>
ser é</w>
sa có</w>
res is
quer ido</w>
mê x</w>
mâcob c</w>
li os</w>
ku tan
kaw resin
ee bʼal</w>
dese os</w>
d ían</w>
cu yo</w>
con tados</w>
co razones</w>
c eso</w>
bus can</w>
apren dido</w>
Y e</w>
I ta
I MP
G il
E ti
C A</w>
ʼaj ebʼ</w>
últi mo</w>
xyu waʼ
x ej</w>
w 2
tí n</w>
tribu lación</w>
teʼ xnaw</w>
teß camsîk</w>
tak lâc</w>
t ón</w>
si mp
ru pupi
responsabi lidades</w>
qui ra
preocu pa</w>
pob res</w>
pi de</w>
pará bo
ofre cer</w>
no mbra
naj to
lu char</w>
le ón</w>
le za</w>
ja do</w>
i xaqil
hab lan</w>
ex pi
dis cip
cuar enta</w>
ci o
casti go</w>
artí culos</w>
Ta t
T EO</w>
L U
ESTUDI O</w>
- 1</w>
ʼU JIL</w>
za remos</w>
xo c
x kabʼ
x câ</w>
va dura</w>
utensi lios</w>
tenami til</w>
superinten dente</w>
sa k</w>
ro b
recibi do</w>
raj bal</w>
r íos</w>
qʼ a</w>
qßu eb</w>
perdo nar</w>
pareci do</w>
pare cer</w>
o q
ni ma</w>
naq oksi</w>
na heb</w>
mi el</w>
llev aba</w>
kßetkße ti</w>
ku xej</w>
kaq sut</w>
guar da</w>
fir me</w>
dis puestos</w>
ca er</w>
c ón
bʼa y
ben dijo</w>
az o
Salo mon</w>
R aj
Qu e
Nef ta
Gaba ón</w>
Aca z</w>
é poca</w>
ye heʼk</w>
xyal bʼal</w>
xy âba
xtu qu
x cuuk</w>
wi xaqil</w>
w0 9</w>
vuel ve</w>
u bʼej</w>
tra tar</w>
tar le</w>
sum lajik</w>
subi r</w>
pre cio</w>
num tâk</w>
nakaaw ekʼa</w>
na k
mejo rar</w>
lib ros</w>
li mp
l baleb</w>
kʼojkʼ o</w>
ki yoʼlaak</w>
ixaqil bʼej</w>
imp ío</w>
en con
cu tan
cr ania</w>
costu mbre</w>
co lum
chßaßaj quilal</w>
cab ezas</w>
bi lidad</w>
beb é</w>
b ri
apo y
amb os</w>
akʼa len
aca k</w>
Y ô
W at
U crania</w>
LA J</w>
D esper
ú m</w>
xko hebʼ</w>
xi w
xb i
xam lel</w>
u el</w>
termin ó</w>
se ß
se mbra
santi fi
s ter
qa junkabʼal</w>
podr ían</w>
per ver
nin k</w>
ma m
kße la</w>
istra dos</w>
in joskßil</w>
f lo
encontra mos</w>
destru ir</w>
de z</w>
de pen
cuikß ib</w>
cab al</w>
bʼanyox ink</w>
bʼ l</w>
besti a</w>
a d</w>
Y ô</w>
Qßu ehomak</w>
Per sia</w>
In formación</w>
C rón</w>
Bi l
9 3</w>
ü en
yô kex</w>
xna j
u ebil</w>
teʼx kanabʼ</w>
tesor os</w>
te bʼ</w>
si tio</w>
ra on</w>
qui énes</w>
queß ril</w>
prob able</w>
pon drá</w>
per dona
pater nas</w>
par ta
nin kße
naq abʼanyoxi</w>
na kanaak</w>
mo de
laaʼ ex</w>
jolo mi</w>
imp i
gra ve</w>
exi ste</w>
entusias mo</w>
do ra</w>
cu c</w>
come tido</w>
chaabʼ ilaq</w>
ca sos</w>
ca ma</w>
arrepen ti
ana bʼ</w>
an s
VAN CE</w>
RU ʼUJIL</w>
R eho
M U
H e
Fa raon</w>
Desper tad</w>
A VANCE</w>
É N
xna kß</w>
xkʼa bʼaʼebʼ</w>
x cua
x b</w>
wan qebʼ</w>
wan kat</w>
ve je
u si
tʼan eʼq</w>
tßan eß</w>
te a</w>
respon der</w>
re qaj</w>
q chiʼ</w>
pro gres
pen semos</w>
pasto r</w>
pa se</w>
ocur ri
obje tivo</w>
gu sto</w>
en cen
e kßela</w>
des can
der ri
con sagra
co lbal</w>
ce bada</w>
caß chßin</w>
cau tivos</w>
bauti zarse</w>
ali men
RI X</w>
P eʼyaal</w>
Nefta lí</w>
Na qa
Mi gu
JALA M</w>
Feli pe</w>
Awabʼ ejilal</w>
1 Pe</w>
1 39</w>
éxi to</w>
z can</w>
xtoj bʼal</w>
xlo qʼ
x tzßak</w>
war k</w>
wan kilal</w>
v ar
su ger
su b
sa car</w>
ro sa</w>
ra kol</w>
prácti cas</w>
profun do</w>
op ía</w>
nin tzßâma</w>
nekeʼx tzʼil</w>
na jolomink</w>
mu l</w>
men tal</w>
j ûn
gu é</w>
expli có</w>
cole kß</w>
cha ß
canti dad</w>
c í</w>
c éis</w>
b in
ancha lebʼ</w>
al co
a pareció</w>
X yuwaʼ</w>
Na abʼal</w>
NAX KʼE</w>
Mâ re</w>
Migu el</w>
Eti opía</w>
Cho o
B aa
xtuqu bʼankil</w>
xna ß
x jun</w>
x canab</w>
ul ón</w>
ten dremos</w>
sobre vivi
ro mp
re el</w>
qui sukßi</w>
qa kuyum</w>
pre dijo</w>
po cos</w>
plan eta</w>
par ó</w>
p untos</w>
ni mobresi</w>
nax jultika</w>
mo y</w>
mari do</w>
le o</w>
laa junkabʼal</w>
fun da
fortale za</w>
f on
es par
er ía</w>
er lo</w>
dé ci
don os</w>
discip lina</w>
dar les</w>
da te</w>
d í
cuacl îk</w>
con vi
chê rix</w>
chi cuânk</w>
car tas</w>
ar le</w>
ama mos</w>
a parte</w>
Zab ulón</w>
Yo ur</w>
X CHʼO
Sime i</w>
Sab es</w>
RI Kʼ
N íni
Mo qon</w>
LOBʼ ANKIL</w>
LE C
J ab
DI OS</w>
DES CRI
Cor é</w>
Awabʼ ej</w>
ó s</w>
xcßajo leb</w>
xb e</w>
xa ki
ví cti
vi dad</w>
trans mi
tra j</w>
ta xaq</w>
ta das</w>
segui dores</w>
sa ci
ro keb</w>
r los</w>
ora l</w>
numtaje naq</w>
na kʼamok</w>
mensaj eros</w>
mayej ak</w>
mag istrados</w>
maakʼaʼ ebʼ</w>
lí deres</w>
jos qʼ</w>
is in</w>
guar dia</w>
g al
esfuer zo</w>
escri ba</w>
emp i
emo ciona
de termina
cui dar</w>
cu eß
conse cuen
con seguir</w>
chß eb</w>
anum si</w>
an da</w>
amorre o</w>
abi er
aban dona
XCHʼO LOBʼANKIL</w>
P CIÓN</w>
Níni ve</w>
N e</w>
Mi que
M ac
Jez reel</w>
H er
DESCRI PCIÓN</w>
Ama sías</w>
8 2</w>
14 5</w>
0 9</w>
xna ʼajebʼ</w>
xca cuilal</w>
x tij</w>
x qßuial</w>
x er
un el</w>
tâ sachekß</w>
teß raj</w>
ter cera</w>
si hebʼ</w>
santo bres
sa ra</w>
re des</w>
quix qßueheb</w>
pâb ânk</w>
oxlo qʼ
on k</w>
ojari bâl</w>
nekeʼ xkʼulubʼa</w>
nekeʼ ok</w>
menti ra</w>
ma kß</w>
le vadura</w>
le es</w>
kix naw</w>
kin um
jar ubʼ</w>
ir se</w>
gen tiles</w>
fal sos</w>
en seguida</w>
do y</w>
deber íamos</w>
de mia</w>
cu bier
cu bi
consecuen cias</w>
bʼee lomej</w>
ble mente</w>
a xtes
T AN
S n
QU I
Jo ß</w>
Jeho b</w>
H I
CI ONES</w>
Bʼa r</w>
20 21</w>
yee chiʼ
xkʼ eebʼal</w>
xca ß</w>
ven cer</w>
vege tal</w>
u b</w>
tu ve</w>
ti f
te mp
pu diera</w>
pro cu
partici par</w>
o ye</w>
nin ra</w>
na t</w>
na chʼok</w>
monta ñosa</w>
mat cß</w>
llu via</w>
la ana
ki kʼanjelak</w>
jo kße</w>
fuer an</w>
fi de
di ez
destru ido</w>
cueß ej</w>
constru ir</w>
chʼi nal</w>
chʼ ik</w>
châ cuix</w>
aß al</w>
a h
L á
â tenkßa</w>
yucuaß eb</w>
xyeechiʼ om</w>
xnaw om</w>
xkutan kilebʼ</w>
xin kʼoxla</w>
xaq abʼa
ut besi</w>
tê cßul</w>
tzolo nel</w>
tro pe
tqa naw</w>
teß câmk</w>
ta res</w>
sum su
se d</w>
sacri fi
re as</w>
raq ok</w>
r la</w>
queß sukßi</w>
qabʼa anu
pri sión</w>
per fecto</w>
peque ños</w>
nekeʼ xkʼam</w>
nec es
neces ari
naʼ ilmank</w>
muer e</w>
ki tzʼaqlok</w>
ka mâc</w>
jo ʼebʼ</w>
i z
i ga</w>
hacer se</w>
gobernan tes</w>
es tra</w>
er é</w>
con tó</w>
chʼinaʼ u
au men
a dores</w>
T u</w>
Qu in
Mi z
M ex
Gaba a</w>
G en
ESI S</w>
D o
Cuán do</w>
Chancha nakeb</w>
AN Q</w>
1 18</w>
xkawu bʼ</w>
xho ona
xeʼx kanabʼ</w>
ver á</w>
v ara</w>
tê tzaca</w>
tz ßu
te za</w>
sexu al</w>
sa dos</w>
religi osos</w>
raz ona
qa naʼaj</w>
oybʼen i</w>
opini ón</w>
o este</w>
nekeʼ tzʼaqonk</w>
na ron</w>
na go
kʼabʼaʼ ej</w>
imp li
i bʼil</w>
ha yan</w>
for mas</w>
estre llas</w>
er ilaq</w>
enfer mo</w>
empez aron</w>
de cre
con de
chßutu beb</w>
chiq ibʼil</w>
carn ero</w>
b es</w>
a mbi
T he</w>
Sina í</w>
M ER
C la
Be na
An ti
A ser</w>
A don
6 4</w>
19 14</w>
ó r
xcha mal</w>
wan jik</w>
w p
w 10</w>
visi ones</w>
univer so</w>
tâ ril</w>
tra tado</w>
tin q</w>
tin kʼe</w>
tien das</w>
ti j
teß osokß</w>
ten eb
si nago
sa i</w>
rei nar</w>
recor dar</w>
re d</w>
qßui la</w>
qui qßu
progra ma</w>
pasto res</w>
nekeʼx sikʼ</w>
mucha cho</w>
maye jac</w>
laayu waʼ</w>
l v</w>
in cßajol</w>
hil ânc</w>
her ed
gra ti
fu ente</w>
fe cha</w>
e kʼa
deci dir</w>
da da</w>
cßox lac</w>
cuan cat</w>
chi roybeninquil</w>
ce d</w>
can de
c tamente</w>
bân un</w>
ar lo</w>
alcan zar</w>
alaban za</w>
al tos</w>
actu alidad</w>
acab ará</w>
Sn t</w>
Si dón</w>
Josu e</w>
J EL</w>
Ho mbre</w>
Ba lac</w>
û ch</w>
É ste</w>
yul bʼilebʼ</w>
yu go</w>
yaj er
xb ok
x qʼ
ul man</w>
tu des</w>
teß xcßam</w>
tex cuânk</w>
taaw oksi</w>
res plan
quiqßu el</w>
permi tió</w>
pen a</w>
pan es</w>
p len
or k</w>
ne lio</w>
muxu k</w>
llev an</w>
ki ló
keʼ wulak</w>
inmedia to</w>
hier ba</w>
ga da</w>
eli mina
des po
des ani
cßame kß</w>
cul to</w>
cre er</w>
con tar</w>
compañ ero</w>
ch er
auto ri
anali zaremos</w>
an cho</w>
a las</w>
Y ork</w>
Y al</w>
TR OS</w>
SU T</w>
Reho bo
Mique as</w>
Lá zaro</w>
Lev ántate</w>
K ix
Isa í</w>
IN KIL</w>
EE BʼAL</w>
E sta</w>
DA D</w>
Ama lec</w>
A k</w>
1 Ti</w>
û queb</w>
î g</w>
x chaabʼil</w>
wii bʼal</w>
val e</w>
ue hek</w>
u la</w>
u cßa
ti vas</w>
ti nan</w>
te bin
sa q</w>
s te
s la
resul tados</w>
qʼe qchiʼ</w>
qui cuacli</w>
precurso r</w>
pedi rle</w>
or ó</w>
na cido</w>
monta ña</w>
min a</w>
mi tad</w>
mi as</w>
menu do</w>
li ci
in ta</w>
impor tar</w>
iden tifi
hab le</w>
gener al</w>
g aron</w>
fra tes</w>
fo d</w>
fide lidad</w>
escla vos</w>
enfer mos</w>
e fod</w>
do lo
di na
dar se</w>
cßaß ut</w>
coro na</w>
car án</w>
car le</w>
ca mic</w>
bra zos</w>
bo mak</w>
at rio</w>
Z o
To jo</w>
To dopoderoso</w>
Se ma
S on</w>
Po tif
No e</w>
Mica ías</w>
Isa car</w>
H es
Es te
EN ES</w>
Cor nelio</w>
A na</w>
8 1</w>
ô quil</w>
â bên</w>
x têpaleb</w>
ven drán</w>
ve o</w>
tâ cu
tßan ekß</w>
ti erras</w>
superi or</w>
sig los</w>
ru i
quin ix
qa metzʼew</w>
po m</w>
paci ente</w>
nekeʼ xloqʼoni</w>
ne ga
na xik</w>
na qßuehoc</w>
na kʼutunk</w>
mi sion
ma taron</w>
lo kß
laana ʼ</w>
keʼx kanabʼ</w>
habi lidades</w>
f recu
es tru
en tos</w>
ek tâna</w>
difer encia</w>
di rás</w>
cuân kex</w>
cuar to</w>
corre cto</w>
chiʼ ubʼej</w>
bʼ resink</w>
aspe cto</w>
ar o
an si
am aba</w>
ala lbej</w>
ab rió</w>
X a
W A
U rías</w>
T ar
Mi qa
L le
Es cue
Cana an</w>
1 Cr</w>
yo t</w>
y al
xy u</w>
xkʼ irta
x xamlel</w>
vi vos</w>
ven ta
va cas</w>
tâ rakok</w>
te kß</w>
t kʼe
t bal</w>
so ciales</w>
se mi
sa le</w>
ru qʼebʼ</w>
queß camsîc</w>
pued an</w>
obje to</w>
o posición</w>
medi tar</w>
lí mi
lá gri
ki rekʼa</w>
ki kʼ
jos qʼo
jos kß</w>
j an</w>
ho mebʼ</w>
har án</w>
g ón</w>
f g</w>
du re
cßacßa len</w>
che q</w>
TEN Qʼ
R ab
Ne queß
JU AN</w>
J wal</w>
IN K</w>
Estu dio</w>
DI C
Al lí</w>
ʼabʼ inq</w>
é stas</w>
xti bʼel</w>
x ô
vi entre</w>
va da</w>
tin cuânk</w>
t num
t k</w>
so cor
si ga</w>
si ento</w>
ser piente</w>
saha qebʼ</w>
sa cheß</w>
resu men</w>
ra kßeb</w>
qʼet qʼe
pe or</w>
pa do</w>
naqa yal</w>
mâ cßaßak</w>
mode lo</w>
memo ria</w>
lo n
laa tzolom</w>
ki sahoʼk</w>
ki kʼeheʼk</w>
ka ʼan</w>
ja q</w>
glo rifi
en tal</w>
dej aron</w>
cß ûb</w>
cu ânkeb</w>
cu esta</w>
cu aj
chß eß
cal ma</w>
c esos</w>
az ul</w>
acu abej</w>
aa qʼe</w>
XY EEBʼAL</w>
Se a</w>
S erá</w>
Rehobo am</w>
K U
IMP OR
Ho y</w>
H ana
G ran
Eze q</w>
E LI
C é
A su
â cuanquil</w>
ya mos</w>
xyo ʼ
xyo bʼtesihom</w>
xtzʼa q</w>
x â
x takla</w>
ti cas</w>
teß sachekß</w>
st á
sic los</w>
roybʼen inkil</w>
respon der
quin bânu</w>
pú r
pro nun
orgu llo
ob stante</w>
nequeßxcß oxla</w>
nekeʼx tzol</w>
na risi</w>
monta ñas</w>
mo k</w>
maa kʼe</w>
lo b</w>
lle ga</w>
len tos</w>
laj ak</w>
justi fi
in sensa
i das</w>
esfuer zos</w>
entrega do</w>
enseñ an</w>
e cuu</w>
deb ía</w>
de cer</w>
dar án</w>
culp able</w>
comp ro
can o</w>
ca ki</w>
bi ch
ar pa</w>
ah í</w>
agradeci dos</w>
a di
Y ee
S E</w>
Raj lal</w>
Necesi dades</w>
Jo a
IMPOR TAN
Bi ble</w>
A ustra
8 5</w>
5 00</w>
y en</w>
xu tâ
xnaß lebeb</w>
xjunes eb</w>
w 16
ven tu
tre inta</w>
ter il</w>
t w
t kanaaq</w>
super ar</w>
sa da</w>
ri xeb</w>
queßx chßutub</w>
queß rabi</w>
pro ce
ox lanquil</w>
o re
nin kʼe</w>
nin bʼaanu</w>
necesi taba</w>
naʼ ilok</w>
nax waklesi</w>
na ch</w>
na cana</w>
muk lebâl</w>
mo o
kix chʼolobʼ</w>
ki tijok</w>
jultico kß</w>
je qßui</w>
iglesi a</w>
hu esos</w>
cuâr c</w>
co pa</w>
bus cando</w>
ayudar án</w>
ayudar lo</w>
apoya r</w>
ans wer</w>
ani mar</w>
anali zar</w>
ac t
aa naʼlebʼ</w>
a proba
a cos
N aj
J ES
H an
F l
ENSEÑ ANZ
E lla</w>
10 5</w>
0 6</w>
xy aßal</w>
xmâ l
tê nau</w>
tzßektâ nan
too ʼaatinaq</w>
to k</w>
tix cßam</w>
ti tu
t ßu
sab et</w>
s án</w>
refu gio</w>
reci be</w>
queß xlokßoni</w>
qa kʼabʼaʼ</w>
púr pura</w>
oy eron</w>
ofre ce</w>
nekeʼx kanabʼ</w>
me ta</w>
les c
le as</w>
la ron</w>
ka chßôl</w>
ji lok</w>
is îc</w>
hor no</w>
gen ero
g or
fi cia</w>
expi ación</w>
esta d</w>
esco gido</w>
ena ventu
eje cu
deci dió</w>
câ mun
cuer nos</w>
cub rió</w>
comp rar</w>
cla jic</w>
bʼa an
bene ficia</w>
anti ʼ</w>
a pari
a da
Kʼ OX
Escue la</w>
DI CE</w>
B ânu</w>
A kʼ</w>
20 18</w>
êleli k</w>
ßa jej</w>
xu cub</w>
xti clajic</w>
xkʼulu bʼankil</w>
xbê nil</w>
x jultikankil</w>
x camsi</w>
un gido</w>
un ca</w>
tâ tz</w>
tenqʼa aq</w>
sali do</w>
s eb</w>
ri m</w>
rep ente</w>
qui s</w>
qui cß</w>
qa chʼutam</w>
qa chʼaʼajkilal</w>
pregun te</w>
po se
peca dores</w>
pasa n</w>
ob stá
nokoo tijok</w>
nekeʼ xkʼutbʼesi</w>
naqa sikʼ</w>
naka abʼaanu</w>
naj teril</w>
na xkʼul</w>
materi ales</w>
lo gr
lle vado</w>
la bo
ko k</w>
ki chʼaʼajkoʼk</w>
i tas</w>
en e</w>
empe cé</w>
e cß</w>
cón yu
cuu lajak</w>
chee k</w>
c lan</w>
bi s
bala kß
al ta</w>
ab ajo</w>
Z e
Ver dad</w>
Potif ar</w>
O bed</w>
Na ßajej</w>
N unca</w>
H EBʼ</w>
Fl p</w>
Co mi
Asu ero</w>
AN OS</w>
3 000</w>
2 4
z ona</w>
xnum sinquil</w>
xeʼ kamk</w>
x xiw</w>
x xiu</w>
x wulak</w>
w eʼ
tê ril</w>
sola mente</w>
so me
sig an</w>
ser emos</w>
rii tzʼin</w>
quix cßul</w>
qa kʼehaq</w>
pondr é</w>
podr íamos</w>
pa lo
ni do</w>
ne u
na ye
mu ro</w>
lla mar</w>
li ba
l ink</w>
kʼa lebʼaal</w>
ko lebʼ</w>
ju ven
hi lank</w>
gar é</w>
fron tera</w>
famili ar</w>
ech al</w>
da le</w>
cßamo k</w>
cti tud</w>
chaki c</w>
caß chßi
bi ch</w>
ar reg
apare cen</w>
X eʼ
Tz o
Sema ías</w>
Po demos</w>
O r
Jun elik</w>
D ar
Cé sar</w>
A ri
A atin</w>
0 4</w>
üen za</w>
ân uhak</w>
yi jach</w>
xyuwaʼ il</w>
xii kʼ</w>
xa qßue</w>
x María</w>
weʼ ej</w>
u wak</w>
tar je
taa patzʼ</w>
su je
s êb</w>
roc si</w>
qßu ehok</w>
qui cßanjelac</w>
queß chal</w>
puktes inq</w>
prome tió</w>
pien san</w>
pe dir</w>
ox i
ori gen</w>
o keb</w>
na les</w>
mo vi
me tros</w>
lu l</w>
le p</w>
laa paabʼal</w>
laa kokʼal</w>
l v
kʼ antiʼ</w>
ko monil</w>
kix tzol</w>
ki k</w>
ke kß</w>
inter pre
impresi ona
i bʼk</w>
humi lla
genera ciones</w>
envi dia</w>
en tras</w>
difer ente</w>
descen dió</w>
dar ás</w>
cua lidad</w>
contes tó</w>
con so
chix lokßoninquil</w>
cambi ado</w>
bʼaanu hom</w>
bar co</w>
ac ß</w>
X BʼE
RU U
RIKʼ IN</w>
Qui ri
Mala ui</w>
M AA
BÍBLI CO</w>
B ar</w>
xwan jikebʼ</w>
xkʼe hebʼ</w>
xjun xaqalil</w>
x tumin</w>
w 17
tân ume
tâ k
to rios</w>
tin c</w>
ti qibʼ</w>
te mi
suce de</w>
ser éis</w>
ser a
re pu
queß numta</w>
quedar on</w>
pos tra
parti eron</w>
oscu ridad</w>
nîn keb</w>
nume cß</w>
nin tzol</w>
nekeʼ xyuʼami</w>
natu ral</w>
musi kß</w>
manda miento</w>
ko leʼk</w>
ka qa
ju eces</w>
is mo</w>
in cli
fu imos</w>
for d</w>
fo no</w>
er ror</w>
eji hom</w>
e d</w>
dis tribu
den ó</w>
dej e</w>
debi li
cre ado</w>
compren der</w>
ca ído</w>
c ó
ba do</w>
awabʼej inq</w>
ar ran
aju lti
ab lemente</w>
a parece</w>
OX IBʼ</w>
Miz pa</w>
Maa kanabʼ</w>
K aw
I MA
Es cu
E ra</w>
Ca da</w>
10 4</w>
1 27</w>
éndo se</w>
xoo ʼaatinak</w>
vivi ó</w>
ve amos</w>
tzacaê mkeb</w>
tu los</w>
to có</w>
t xik</w>
suger encias</w>
sir ve</w>
sin cer
señ ales</w>
sexu ales</w>
se creto</w>
se ba</w>
sa cu
râ tin
presen tar</w>
pres entes</w>
pasa rá</w>
obje ción</w>
num er
naw oksi</w>
naw bʼil</w>
mu rieron</w>
mo tivo</w>
logra rlo</w>
kʼa jol</w>
kʼa akʼalen
ki sutqʼiik</w>
ka r</w>
k r</w>
indi ca</w>
ima gi
holocaus tos</w>
hi lan</w>
fal sas</w>
f ac
es inkilebʼ</w>
entra ron</w>
en ca
dese an</w>
des car
cuoch ben</w>
con tiene</w>
ci m</w>
chix tzßâmanquil</w>
chix q</w>
che qßuehak</w>
caß cßâl</w>
c lo
ban que
ar co</w>
ado lesc
a presu
a cam
X O
Si lo</w>
Mu chos</w>
La aʼin</w>
I SA
G at</w>
EM P
E mpi
A la
5 ,
3 9
3 8
ʼawabʼ ej
xkʼanje lebʼ</w>
xka wilal</w>
xeʼ xtaw</w>
x kanabʼ</w>
vi vía</w>
vi cto
tzʼeqtaana nk</w>
tz ʼaj
segui mos</w>
segu ía</w>
se para
re l
raa xiikʼ</w>
qui ri
qui e
pru dente</w>
pro s
pon erse</w>
pi el</w>
parábo la</w>
oy entes</w>
man ia</w>
le emos</w>
la s
keʼ kamk</w>
ka xlan</w>
in oc
im posible</w>
he ʼ</w>
es temos</w>
ej er
ech ó</w>
dis per
dedi cación</w>
decre tos</w>
deci dido</w>
d ro
conten tos</w>
co se
ci mientos</w>
bi om</w>
be leb</w>
ar i</w>
agu ante</w>
acab ar</w>
abʼa nan</w>
a mo</w>
Yu waʼbʼej</w>
Yee chiʼi</w>
S í
Nim la</w>
L es</w>
Este ban</w>
E so</w>
Colo l</w>
C a</w>
Ba ra
B ri
Ayu kex</w>
Acu abej</w>
10 6</w>
xqßui aleb</w>
xa kib</w>
x chʼaʼajkilal</w>
uxta ana
tris te</w>
to xic</w>
tix jal</w>
teʼ xkʼam</w>
tendr ía</w>
tan te</w>
tak si</w>
ta miento</w>
t kamq</w>
su cesos</w>
siʼ eent</w>
sa ho</w>
re kʼa
re b
r te</w>
plan es</w>
on ia</w>
ofici ales</w>
nakaa kʼe</w>
maaw aʼebʼ</w>
lí celo</w>
lee k</w>
is inbʼil</w>
in hermân</w>
in cen
ho spi
ho b
ha bʼ</w>
gun os</w>
escri tos</w>
ee heʼ</w>
ech aron</w>
d le</w>
culti var</w>
cubi erto</w>
cu x</w>
cor dero</w>
convir tió</w>
con sue
cole k</w>
co di
can ciones</w>
bra zo</w>
aque llas</w>
abʼ i</w>
a compañ
X IN
R am
PRI N
PRIN CI
Ju e</w>
Hi l
Eli sabet</w>
Be t
Al gunos</w>
A qu
20 12</w>
1 Jn</w>
1 20</w>
ên c</w>
z aba</w>
xyu cuaß</w>
xtes inkil</w>
xsach bʼal</w>
xloqʼ bʼal</w>
x laj
x chaabʼilo
x Rut</w>
vivi mos</w>
ver dades</w>
tra ído</w>
tqa paabʼ</w>
tix toj</w>
teʼ oq</w>
te mb
taq lan
tak lanquil</w>
sum ʼaatin</w>
sigui endo</w>
ri to</w>
ri ca</w>
recompen sa</w>
recibi eron</w>
quix xakab</w>
qa hermaan</w>
pro hi
prepara r</w>
peque ña</w>
parti ó</w>
pare cía</w>
pan demia</w>
oli vo</w>
nax k</w>
na lem
na kʼemank</w>
mis mas</w>
may ibʼk</w>
man ente</w>
ló gi
le che</w>
lan za</w>
kix qʼaxtesi</w>
kamsi iq</w>
kabʼ lal</w>
joʼ nimal</w>
iz quier
han án</w>
h al</w>
glo ri
fe cción</w>
di rán</w>
deb ían</w>
cumpli do</w>
cui xakil</w>
cui siheb</w>
cristi anas</w>
com por
chʼu t
cal deos</w>
ca cuil</w>
an dar</w>
a z</w>
a p
Se era
Qui énes</w>
PU E
Mi entras</w>
Mar ta</w>
KʼAN JE
Ha i</w>
Ha dad</w>
Ger són</w>
ENT O</w>
ENT E</w>
D ur
Bara c</w>
Asi a</w>
ê lc</w>
xyo ß
xwakl esinkil</w>
xbʼa la
x nak</w>
w o
v ani
tô n</w>
tra tó</w>
tra j
tom ará</w>
teß ril</w>
tes oro</w>
t én
se bo</w>
ru xtân</w>
re di
re b</w>
ra c
pón gase</w>
píri tus</w>
pres a</w>
pr ín
per fección</w>
pe tu
pasa ron</w>
pare zca</w>
p lo
p al</w>
obedi entes</w>
mu q</w>
mayej eb</w>
ma estros</w>
ma estro</w>
laa kʼanjel</w>
kʼ eho
kinum eʼk</w>
je bu
i yaj</w>
har ina</w>
extranj ero</w>
esi hebʼ</w>
en tr
deci mos</w>
de li
da do
cuu xtâna</w>
contro lar</w>
co pi
chßinaßu sal</w>
bʼichan k</w>
bi en
ar los</w>
ana lícelo</w>
an terior</w>
agra d
T QA
So bre</w>
Sa qʼe</w>
O n
Naa mán</w>
N aʼa
Ma g
KI X
Jun es</w>
Joa cim</w>
Ja co
Gil gal</w>
G ra
Empi ece</w>
E f</w>
C uu
C ON</w>
ê mâc</w>
ê chan
â mal</w>
ÉN ESIS</w>
y aa
xta ubal</w>
wa qibʼ</w>
ven za</w>
tê c</w>
tâ sahokß</w>
taa tzol</w>
ta ble</w>
st en</w>
somb ra</w>
se j</w>
ris inquil</w>
reb eli
raq ol</w>
ra za</w>
qʼax onk</w>
quix camsi</w>
quer idos</w>
por tada</w>
po zo</w>
per petu
pen sando</w>
oso ʼk</w>
neu tra
naru hank</w>
nan do</w>
minis tra
miemb ro</w>
menti ras</w>
m ero</w>
limpi o</w>
lec tores</w>
kʼu bʼanbʼil</w>
kikʼ el</w>
ki kubʼeek</w>
keʼ xtaw</w>
ka wu
ka leb</w>
k ut</w>
juven tud</w>
j ine
ho maq</w>
fir mes</w>
estable cido</w>
espe cífi
escu cha
equi vo
des cien
cumpli miento</w>
cuaß eb</w>
consi go</w>
chʼinaʼ us</w>
chʼina aq</w>
chaa wix</w>
ch oo
caßchßi nak</w>
cau resi</w>
came llos</w>
bʼ eʼk</w>
acer có</w>
aa haʼ</w>
a lam</w>
TA W</w>
Quix qßue</w>
PRINCI PI
N úm
MA TEO</w>
M on
Lo kßon
Jaco bo</w>
H eeheʼ</w>
G ÉNESIS</w>
Dur ante</w>
DI S
6 ,
î ba</w>
z i</w>
xb a
x pâbanquil</w>
x mayej</w>
w 18
vi mos</w>
vi das</w>
vesti dos</w>
ter os</w>
tak lan
sâ jeb</w>
su m</w>
sier va</w>
ri k</w>
resuci tado</w>
represen ta</w>
ren o
raa tinankil</w>
qßu ir
pu dieron</w>
pregun taron</w>
pa ces</w>
pa c</w>
oc ci
nekeʼ naʼlebʼak</w>
nax tenqʼahebʼ</w>
mp a</w>
moo sej</w>
mani f
man to</w>
lu vio</w>
logra r</w>
len to</w>
laje ebʼ</w>
ku y
kix tenqʼahebʼ</w>
ki xyal</w>
keʼ ril</w>
im puro</w>
há bi
ho l</w>
h eʼq</w>
gue v</w>
fa vo
ex cel
escuch ó</w>
en or
ele gido</w>
edu cación</w>
d il</w>
cuu bresi</w>
cumpli rá</w>
co me</w>
capi tán</w>
aspe ctos</w>
asig nación</w>
al dea</w>
a pla
Y oo
R ut
Pre pare</w>
P ar
N O</w>
KʼA ʼ</w>
F ine
A pren
A geo</w>
- Li</w>
án donos</w>
zar nos</w>
y ehom</w>
xxi uheb</w>
xnaj til</w>
x tzʼii
vo lu
vi va</w>
ul mânk</w>
tz ek
tra er</w>
tqa loqʼoni</w>
tin cuisi</w>
ten gas</w>
tar an</w>
t é
su yo</w>
sepulc ro</w>
rupupi c</w>
re cto</w>
nume nak</w>
ne bʼaʼ</w>
nax kawresi</w>
na rabʼi</w>
mu tz</w>
min o</w>
maravillo so</w>
m ara</w>
loqʼ laj</w>
la men
la h</w>
l ías</w>
kʼu bʼ</w>
kʼojkʼ ooq</w>
kʼa m
ki yeemank</w>
josqʼo ʼk</w>
is las</w>
i ada</w>
her ford</w>
f án</w>
cor deros</w>
con ser
campa ña</w>
b al
an he
afren ta</w>
ac tos</w>
aa leek</w>
Rut herford</w>
K anabʼ</w>
ER A
Austra lia</w>
Asa f</w>
A R</w>
ßa nak</w>
É XO
ÉXO DO</w>
y iibʼ</w>
xhoona lil</w>
xca cuil</w>
volun ta
vivi rá</w>
ven tana</w>
va dor</w>
v ó</w>
ucßa c</w>
tâ ra
tris teza</w>
ticßti ß</w>
teʼ xkʼoxla</w>
taq laak</w>
sue ños</w>
socor ro</w>
si vo</w>
si gamos</w>
sal vo</w>
saho ʼq</w>
sab éis</w>
sa cho
ro ke
res ol
re le
qʼ la</w>
quixye chißi</w>
qu qʼ</w>
q ech</w>
prove cho</w>
pensa ba</w>
peli gro</w>
pa tzß
p ción</w>
obedi encia</w>
nue vos</w>
ni mo
na âtinac</w>
na coloc</w>
mor ra</w>
mi iwil</w>
men os
kʼ ii
ko lbʼal</w>
kitzʼii bʼamank</w>
ki naʼlebʼak</w>
ka ma
im perfectos</w>
i cha
gran o</w>
gran de
goberna dor</w>
ga s
ga ción</w>
g ando</w>
exten dió</w>
escri bas</w>
en tan</w>
en q</w>
en kil</w>
diez mo</w>
dej ará</w>
d me</w>
câmun quil</w>
cßoj cß
cor ne
cien tos</w>
chʼo lan
ca ciones</w>
bʼo q
bʼala qʼ
bene ficios</w>
b t</w>
autori dades</w>
apren diendo</w>
ansi edad</w>
agra dar</w>
Tâ ye</w>
T OS</w>
Ri q</w>
Pu es</w>
Ni lo</w>
Jo el</w>
Ja p
Go g</w>
Fi lis
Eli faz</w>
Cha abʼ
As era</w>
â canab</w>
yô quil</w>
xqʼa xtesinkil</w>
xak xo</w>
w ech
vuel va</w>
ven ía</w>
ve ía</w>
v ac
ume ß</w>
uir tes
ue heb</w>
tra jo</w>
to tal</w>
to l
tin g</w>
ticßti ß
ti xkʼul</w>
tenkß anquileb</w>
ta remos</w>
so los</w>
se áis</w>
se xo</w>
sab es</w>
rela tos</w>
re f
queß cßanjelac</w>
pres entó</w>
pasa ba</w>
parta mento</w>
pa cßa
oj c</w>
ob tes
nu bes</w>
nequeß xlokßoni</w>
nax tau</w>
naca ye</w>
manten erse</w>
mam á</w>
l te
kʼut unel</w>
kʼ o
ki tiklaak</w>
ka tenamit</w>
juz gar</w>
ji queb</w>
izquier da</w>
inmora lidad</w>
i le
har ía</w>
for tifi
el mente</w>
dra c</w>
cßut un</w>
cumpli ó</w>
châbi lal</w>
cha ca
cari ñ
ca dá
ba mos</w>
b á
ano che
amorre os</w>
afli cción</w>
Ya al</w>
TA T
Se amos</w>
SAL MOS</w>
Res puesta</w>
Mâ c</w>
Mer ari</w>
Hi ram</w>
F u
D é
Cana dá</w>
Ca ín</w>
Al tísimo</w>
3 7
10 2</w>
â ch</w>
Ú S</w>
yo tß
xeß xbânu</w>
xchaabʼilo bʼresinkil</w>
x numeß</w>
verg üenza</w>
tzʼa a
tu qubʼ</w>
tsach q</w>
tix taw</w>
ta reas</w>
sum wank</w>
so s
si len
si enta</w>
rega los</w>
ra heb</w>
queß raj</w>
qa tzolom</w>
pâ y</w>
prote ge</w>
pacßa lil</w>
mi r
mencion a</w>
m ba</w>
lla mar
kix kol</w>
in cßabaß</w>
hici era</w>
her encia</w>
ha ces</w>
ex per
estudi ando</w>
es píritus</w>
entí fi
enga ño</w>
ena lte
ecß an</w>
dar ía</w>
cu osobtes
conta mina
comp la
ca mina
bo tín</w>
b âk</w>
ayudar los</w>
anun cios</w>
amo c</w>
a sus
a i
XBʼE EN</w>
U S</w>
T u
T ran
T ES</w>
Se ol</w>
RE VI
PRINCIPI O</w>
O seas</w>
Nab ot</w>
M A</w>
LEC CIÓN</w>
JES ÚS</w>
Hes bón</w>
Go morra</w>
G ri
G ran</w>
Cuán to</w>
Aß in</w>
Am nón</w>
20 13</w>
î ch</w>
ê nk</w>
y q</w>
xu kß</w>
xin kanabʼ</w>
xb e
xaqabʼan bʼil</w>
x ʼa
tâ sachk</w>
tzʼa j</w>
tqa yuʼami</w>
too naʼlebʼaq</w>
teʼ xik</w>
teri ores</w>
tar éis</w>
tan ías</w>
salv ar</w>
regres ar</w>
ra mien
r era</w>
qui tijoc</w>
queß cßameß</w>
pâban elil</w>
pu se</w>
oy ben
oo l</w>
nekeʼx tenqʼa</w>
ne go</w>
mos tr
mal dición</w>
libra do</w>
l ón</w>
l é</w>
kʼabʼaʼ iik</w>
kix waklesi</w>
kix sume</w>
keʼ xkʼul</w>
ho gar</w>
hacer nos</w>
ex presión</w>
escribi r</w>
er ta</w>
encontra rá</w>
el qʼa
eb ânuhak</w>
e o</w>
cu ya</w>
cu y
con tento</w>
ci a
chßi c</w>
bi enes</w>
anoche cer</w>
alco hol</w>
acu sa
a ver
Y a</w>
X W
Ta mar</w>
TZ ʼA
Si las</w>
Se gun
Sa drac</w>
S I</w>
Q O
Pa ra
P E
O ʼ
Mes ac</w>
KʼAN JEL</w>
HAC ER</w>
E vangeli
CHI RIX</w>
B RE</w>
14 1</w>
ʼ AN
ñ ol</w>
xq abʼaanu</w>
x kabânu</w>
vivi endo</w>
valo ra</w>
ut ʼ
tu s
trabaj ic</w>
tra erá</w>
tix canab</w>
teʼx tzol</w>
tarje ta</w>
se manas</w>
repo so</w>
rele bʼl</w>
rei nado</w>
reali zar</w>
qʼ un
qa junes</w>
pâb âleb</w>
permi ti
oqu en</w>
novi llo</w>
nin tz</w>
ne qu
na roybʼeni</w>
lágri mas</w>
levan taron</w>
labo res</w>
kʼe bʼil</w>
kutan kil</w>
ki ʼabʼink</w>
ki xyeechiʼi</w>
kawresin bʼi
j yq</w>
j er
in mun
in justicia</w>
i to</w>
i g
h el</w>
grati tud</w>
gober nar</w>
gi eron</w>
fal sa</w>
f i</w>
est áis</w>
er r
envi aron</w>
discípu lo</w>
di ciéndo
cßa mbal</w>
con qui
chʼinaʼu sal</w>
cauti vidad</w>
ca d</w>
c entí
bʼe lebʼaal</w>
al tares</w>
acam paron</w>
Sí sara</w>
PRI MER
NA XYE</w>
M E
J ER
IN KʼAʼ</w>
Eu ropa</w>
Es d</w>
D ER
Che erilaq</w>
Aj si</w>
Adon ías</w>
3 00</w>
20 14</w>
2 Ti</w>
ú tiles</w>
xwan kilal</w>
xwakl esinkilebʼ</w>
xku bʼ
xkabʼ lankil</w>
xeʼ wulak</w>
x Sara</w>
wan qo</w>
um ta</w>
ul un</w>
to l</w>
tix takla</w>
ti u</w>
ten éis</w>
sukß isi</w>
si rios</w>
sal drá</w>
ri tos</w>
reci ben</w>
que mada</w>
pro ye
po ʼk</w>
po damos</w>
per segui
o cho</w>
o b</w>
ne a</w>
nax rahebʼ</w>
natura leza</w>
naq o</w>
na ticla</w>
na cional</w>
na ba</w>
mi qa
maravi llas</w>
man á</w>
man da</w>
la keb</w>
kʼaakʼalen el</w>
ki tenqʼaak</w>
kam sink</w>
juntakß êt</w>
in to</w>
impor ta</w>
ho mb
her ramien
genero sidad</w>
eter no</w>
encon tró</w>
en o</w>
dor mi
domin io</w>
dis poni
des tro
cutan ob
cu bre</w>
conven cidos</w>
con stitu
con stan
chßo chßeb</w>
chß eß</w>
chi ki
ca paz</w>
ca p
bi lo</w>
apli cación</w>
X chaqʼrabʼ</w>
Testi go</w>
Si kʼ</w>
SE ERA
S ar
Quiri at</w>
Pro póngase</w>
O li
Ma laj</w>
Lokßon inbil</w>
I mag
Gen esis</w>
En señ
E no
Dar ío</w>
Cor into</w>
BI OS</w>
A j</w>
ú til</w>
óni ca</w>
xtzʼii bʼankil</w>
xni m</w>
xin bʼaanu</w>
xcßa mbal</w>
x ê
tʼ u</w>
tâ risi</w>
tzʼ ilaq</w>
tro ksi</w>
tra mpa</w>
tqa yal</w>
tooʼ elq</w>
toje ʼ</w>
tin eßx
tar me</w>
tal mente</w>
taa q</w>
t remos</w>
t re</w>
t bʼaanu
tbʼaanu manq</w>
sach bal</w>
sa les</w>
rosobtes i</w>
ron es</w>
rela ciones</w>
re be
quix canabeb</w>
quix canab</w>
qui xakli</w>
qui mukeß</w>
queß numeß</w>
públi ca</w>
osobʼtes ink</w>
nokoo kamk</w>
ni sán</w>
nequeß tenkßan</w>
nequeß oc</w>
nekeʼ xyal</w>
nax paabʼ</w>
naw mank</w>
naqa loqʼoni</w>
nan ías</w>
na lmente</w>
na cabânu</w>
mu e
m ará</w>
lla r</w>
l tes
l b</w>
kʼutbʼ esi
kße k</w>
ka laak</w>
hal ló</w>
h un
espa l
ele gir</w>
e chado</w>
de fecto</w>
d on</w>
cuî tz</w>
cubier ta</w>
comba tir</w>
cion a</w>
cin cuenta</w>
ci entífi
choxa chʼochʼ</w>
c áis</w>
bo l</w>
banque te</w>
aña dió</w>
aproba ción</w>
ab înk</w>
Tzo lok</w>
Se lah</w>
R S
Me jo
MA L</w>
E C
C H</w>
Ale mania</w>
Abi homak</w>
1 34</w>
1 26</w>
1 ,000</w>
- 2</w>
xti bel</w>
xkʼu bʼankil</w>
x ma
x choxahil</w>
vi ña</w>
ve in
ue la</w>
u kʼa
tânume kß</w>
tqa tzʼeqtaana</w>
teʼ roksi</w>
ter remo
tan tas</w>
ta an</w>
sumsu kebʼ</w>
sera kßi</w>
senti rse</w>
se pa</w>
ruu chil</w>
rue das</w>
ru haq</w>
reuni ó</w>
publica dor</w>
prote cción</w>
produ ce</w>
prob ablemente</w>
pro vin
poder osos</w>
permane ce</w>
per dón</w>
pap el</w>
ori gi
orgu llo</w>
ok enq</w>
nax patzʼ</w>
na tzo
na rá</w>
na mente</w>
médi co</w>
mu ros</w>
mos le</w>
mer e
medi das</w>
ma dero</w>
li la</w>
laa komon</w>
la abʼ
l y
ki risi</w>
ka xeßtônil</w>
jekʼ i</w>
ja chal</w>
im pu
i w
gra ves</w>
fi elmente</w>
emo cional</w>
e go
des ast
desast re</w>
cónyu ge</w>
cui da</w>
cuer da</w>
cuak xakib</w>
cla ramente</w>
cio nan</w>
chal kebʼ</w>
cha cal
canane os</w>
can ción</w>
bes îc</w>
bauti zado</w>
aten der</w>
asamb leas</w>
ar me</w>
aprove char</w>
ani mó</w>
ale gra</w>
adver sa
acep ta</w>
abi hak</w>
X oo
Se na
Se gún</w>
Ram á</w>
QA CHʼOOL</w>
Na xye</w>
Mun dial</w>
LA ʼAN
I AS</w>
Eli as</w>
Da lila</w>
CA M
An tes</w>
20 17</w>
1 50</w>
- Kâcua</w>
ʼ elk</w>
â ban</w>
yii bʼanbʼil</w>
ye chi</w>
xyu m</w>
xu wa</w>
xti i
x mu</w>
x cua</w>
x chal</w>
w eent</w>
vi vían</w>
vein te</w>
ukʼa k</w>
tzʼe q</w>
tor menta</w>
ti xkʼulubʼa</w>
ti endo</w>
teneb anbil</w>
t chʼinaaq</w>
saq enk</w>
s á
ro ca</w>
ra mas</w>
ra i</w>
quix patzß</w>
quix cßutbesi</w>
por no
po ne
peca dor</w>
pa gar</w>
on inquil</w>
ofreci ó</w>
ob âleb</w>
o dia</w>
numta ak</w>
neke ʼabʼink</w>
naqa kʼam</w>
mora les</w>
llen os</w>
li sta</w>
la mi
ki yobʼtes
k an
in s
hi ik</w>
hermo so</w>
equi po</w>
dire cción</w>
cßamo l</w>
chi kß</w>
chacal teß</w>
ch eʼ
bʼi ha
bi r</w>
arre ba
antiox i</w>
an t</w>
ada p
a so
Ve an</w>
VER BIOS</w>
V e</w>
SA L</w>
Qßu e</w>
PRO VERBIOS</w>
O ri
Núm eros</w>
Kʼ Aʼ
IMPORTAN TE</w>
H u
Gran de</w>
Es t</w>
Bo az</w>
Be er
A ß</w>
5 000</w>
1 15</w>
yî bâc</w>
yoo qo</w>
xʼ Ester</w>
xu tân</w>
xeʼ ruuk</w>
x ok
x nimajwal</w>
x karneer</w>
x chʼinaʼusal</w>
x S
w 19
victo ria</w>
vi endo</w>
tâ isîk</w>
to c</w>
ter ror</w>
te lé
taq la
tan ta</w>
t ßa
su ra</w>
sic so
saho b</w>
resuci tó</w>
respon sab
rein os</w>
refu gi
qui cßamoc</w>
pe ʼ</w>
pe car</w>
palo ma</w>
paci entes</w>
o do</w>
nequeß cuan</w>
nekeʼ kʼamok</w>
naʼ okenk</w>
nari lebʼ</w>
n do</w>
mal kaʼan</w>
ma keb</w>
ma cho</w>
m ó
limp ia</w>
kʼii la</w>
je naq</w>
indi g
in os</w>
hil ânk</w>
frecu encia</w>
fec tos</w>
er me</w>
em pa
edifi có</w>
dis te</w>
de cí
da lías</w>
cue chß
cua ßak</w>
cu be
comen tarios</w>
colum nas</w>
cion ó</w>
carn eros</w>
cabal lo</w>
bo set</w>
bar ro</w>
as no</w>
amo t</w>
aj e
V u
Ru sia</w>
Na ciones</w>
M I</w>
Comi té</w>
C OR
Bʼa anu</w>
Bar uc</w>
8 ,
1 24</w>
zar án</w>
xutâ nal</w>
xni mobresi</w>
uxtaana nk</w>
uni dos</w>
toqʼo bʼank</w>
teʼ kʼanjelaq</w>
teßx col</w>
ten tación</w>
taa kanabʼ</w>
servi rme</w>
regres ó</w>
re para
rahobʼtes ink</w>
ra k
quix cßameb</w>
qui cuabi</w>
queßx camsi</w>
queß êlelic</w>
qabʼaanu hom</w>
pre juicios</w>
por ción</w>
po n</w>
pe ti
oo r</w>
ni ña</w>
nekeʼ xik</w>
nax tenqʼa</w>
naw il</w>
naqa rahebʼ</w>
naqa kanabʼ</w>
nak ano
na rahok</w>
na ció</w>
mo tivos</w>
me lo</w>
lám pa
llev aban</w>
li leb</w>
laje e
la i</w>
kʼa jo
kix tzʼaama</w>
ki yeheʼk</w>
jine tes</w>
in justi
in f
i nak</w>
ha gas</w>
fí sico</w>
fortale ce</w>
encuen tra</w>
een s</w>
e tas</w>
di les</w>
di ciones</w>
da me</w>
cre y
cono cen</w>
con sola
comple tamente</w>
cla mor</w>
chaqi chʼochʼ</w>
cha po
ch u</w>
cas ting</w>
can dil</w>
bʼe laj</w>
bʼa k</w>
bʼ in</w>
ba ses</w>
ba se</w>
as te</w>
aque llo</w>
ame na
ad casting</w>
a mane
a go
XW ANKIL</w>
V en
U N</w>
Tz ʼ
T al</w>
So l</w>
SI LAL</w>
Nehe mias</w>
Mu chas</w>
Jo hanán</w>
JU N</w>
CU RS
CHA Q</w>
C ab
Bro adcasting</w>
7 ,
1 35</w>
1 23</w>
í r</w>
x camsinquil</w>
wi mq</w>
wabʼ i</w>
vi e
vani dad</w>
v el
ulu b</w>
ui al</w>
u cßal</w>
tâ cuil</w>
trans g
tin ê
teʼ xtenqʼa</w>
termina r</w>
tendr ás</w>
te jworg</w>
sum lâk</w>
subi eron</w>
su yos</w>
so nido</w>
si entan</w>
si as</w>
servi rle</w>
sa qʼe</w>
s tencia</w>
ru bʼelaj</w>
reta lileb</w>
rahobtes îc</w>
quixb ok</w>
quix ch</w>
porno grafía</w>
po k
pla to</w>
pareci da</w>
or dina
or denó</w>
or ando</w>
nokoo ʼaatinak</w>
nequeßx cßul</w>
nekeʼ tenqʼank</w>
nekeʼ jolomink</w>
nax kol</w>
naw om</w>
n te</w>
mâ usi
min u
materi al</w>
mal vados</w>
ma mos</w>
l una</w>
kix uwak</w>
kix kuy</w>
ki xyobʼtesi</w>
ki ru</w>
ka wilal</w>
j ón</w>
inte gri
integri dad</w>
injusti cias</w>
in qʼe</w>
imp edi
hu mana</w>
hi rió</w>
habi taban</w>
gru pos</w>
g aba</w>
escu chado</w>
escri be</w>
enor me</w>
ejérci tos</w>
e qʼla</w>
dona tejworg</w>
di fun
deb es</w>
cri ado</w>
conoz co</w>
colab orar</w>
chiki x</w>
chi xyîbanquil</w>
chan quin</w>
car ro</w>
apren dió</w>
apar tó</w>
a lo
a abʼ
Y âl</w>
XK A
T ER
SA B
R elik</w>
PRIMER A</w>
Jo ya
Jo tam</w>
Jo iada</w>
Che ß
C esa
A nanías</w>
20 15</w>
últi ma</w>
ê chani</w>
â li
ß laju</w>
z aban</w>
yucuaß bej</w>
xyu ßam</w>
xsaho b</w>
xakab eb</w>
x rahobʼtesi</w>
vi van</w>
ver lo</w>
ver as</w>
var ones</w>
van o</w>
uu tzʼu
tâ ye
tra ho
teʼ koleʼq</w>
su l
ri cos</w>
res er
qui eres</w>
qui cu
queßx canab</w>
queß pletic</w>
presen tación</w>
pi la</w>
paabʼa jel</w>
oj la</w>
o lor</w>
nin qßue</w>
natzo lmank</w>
na tenkßan</w>
na numeß</w>
mision eros</w>
me mos</w>
lo nes</w>
lin junkabʼal</w>
le er
ki ri
keʼ raj</w>
in c
i p</w>
fu ér
estuvi era</w>
estatu tos</w>
especi almente</w>
esp ías</w>
esco gidos</w>
em án</w>
dig no</w>
di vino</w>
di a
d re
cß û
con centra
co mon</w>
ciona r</w>
chaki k</w>
cam sin</w>
cal les</w>
bʼay k</w>
asegu ra
aqu ín</w>
antigu os</w>
adul terio</w>
X TENQʼ
W il
SI TA</w>
RU LAʼAN
RULAʼAN INKIL</w>
REVI SITA</w>
RA R</w>
PRO F
MA R
Ju ec</w>
Jo nas</w>
Jo h
Ha mat</w>
Ge dalías</w>
G abri
Eno c</w>
Dis curso</w>
CH OS</w>
Beer seba</w>
An dr
Abi sai</w>
4 9
3 6
10 7</w>
10 1</w>
î b</w>
ándo les</w>
yâba k</w>
xoo ʼeʼ
xko lbʼalebʼ</w>
xin ix
x chßa
x ca</w>
wu la
vol v
ver án</w>
un ci
tê tau</w>
tâ taklânk</w>
tâ ch</w>
tzo loq</w>
tor re</w>
to me</w>
ti xkʼoxla</w>
ten íamos</w>
te ʼaatinaq</w>
taa sikʼ</w>
taa kʼut</w>
ta lentos</w>
ta ak</w>
t á
so c</w>
si mb
sa rá</w>
roch bʼeen</w>
qßu ebil</w>
qa sutam</w>
qa junxaqalil</w>
qa choxahil</w>
obede cer
naka t</w>
mú sica</w>
mu era</w>
mo c</w>
misericor di
manten ernos</w>
kix numsi</w>
kabʼ lak</w>
intro du
i mank</w>
ga nas</w>
estre me
espa ñol</w>
en veje
e lec
destru ir
der án</w>
cßa y
cump le</w>
cu áles</w>
cau hak</w>
casa rse</w>
car nos</w>
ayudar on</w>
ayudar le</w>
arro yo</w>
al el</w>
W y
U ste
Tran sla
No sotros</w>
JER EM
F ue</w>
Cre e</w>
Ci er
Cha a
Ch â
Cesa rea</w>
Abi ga
A YU
19 19</w>
í s</w>
z co</w>
yoo qat</w>
yan mar</w>
xsa hi
xpa abʼalebʼ</w>
xkʼu tu
xja yal</w>
xin chal</w>
visi tar</w>
tâ tenkßânk</w>
tra ducción</w>
telé fono</w>
sukß îc</w>
signifi cado</w>
ser ak</w>
se x
reuni eron</w>
ra ch
qʼ u
qßue ß</w>
qßu ehol</w>
quix nau</w>
quer ían</w>
qa q</w>
pronun ci
posi tiva</w>
po cas</w>
pe lig
ob tener</w>
o pi
no tas</w>
nikin xtenqʼa</w>
naqa yuʼami</w>
logra do</w>
levan ta</w>
le yendo</w>
laa kʼabʼaʼ</w>
ki t</w>
ki rahoʼk</w>
ki maakobʼk</w>
jal j
jalj ôquil</w>
ja lok</w>
j ese</w>
in haʼ</w>
ima g
ik lees</w>
hermo sa</w>
fi estas</w>
experi encias</w>
esper aba</w>
es nal</w>
elqʼa k</w>
ej a</w>
ego í
edifi car</w>
cubri r</w>
consi dera</w>
comple ta</w>
comen tario</w>
chika junilo</w>
chape ß</w>
chape kß</w>
ch es</w>
cariñ oso</w>
car rera</w>
ca dena</w>
antigu o</w>
ani lak</w>
al ma
aj manq</w>
a se
a al</w>
TA N</w>
R OM
Q ayu
Ma estro</w>
M yanmar</w>
JO B</w>
IMA G
Gabri el</w>
Des de</w>
D R
Cier tamente</w>
1 33</w>
1 31</w>
1 16</w>
- -
ô nac</w>
ô lej</w>
â cuiq</w>
É stos</w>
xʼ E
xsum lajik</w>
xka ßal</w>
xjolo mil</w>
x metzßêu</w>
x jalanil</w>
wii tzʼin</w>
vuel ta</w>
va yan</w>
v as
usa n</w>
um tâk</w>
u ra</w>
tâ ux
tâ ke</w>
tâ ilok</w>
tzek a</w>
tro pi
tra to</w>
to talmente</w>
ti da</w>
terri torios</w>
t ril</w>
sikʼ ok</w>
sent ó</w>
sak ônac</w>
rui nas</w>
ru mb
ro mpi
recibi mos</w>
raj bʼal</w>
rahobtes iheb</w>
qʼ an
queß taklan</w>
quer ib</w>
que de</w>
qa kokʼal</w>
prof ana
pondr ás</w>
podr án</w>
pensa mos</w>
pa dos</w>
ora mos</w>
och bʼen
neque c</w>
nekeʼ wank</w>
nakano bʼresink</w>
na u
na kabânu</w>
lleg ará</w>
lig encia</w>
le ones</w>
lajee tqil</w>
laa naʼlebʼ</w>
l ía</w>
ki xkʼojobʼ</w>
keʼ xkʼam</w>
keʼ kanaak</w>
keʼ elk</w>
ka yânk</w>
julti k</w>
ju di
in bileb</w>
i ta</w>
h í
gra das</w>
f fe</w>
eter nidad</w>
esfor zamos</w>
enseñ arles</w>
ek tâ
dó lares</w>
do c
dis tan
di gan</w>
di ces</w>
deci rle</w>
cuer pos</w>
cli ffe</w>
canane o</w>
can te</w>
bʼee tak</w>
bʼan q</w>
ayu d
apren dí</w>
abomina ciones</w>
X nimajwal</w>
Wy cliffe</w>
Wat ch</w>
V en</w>
To wer</w>
T EM
Sena querib</w>
S eba</w>
QATZO L</w>
L E</w>
Ja lan</w>
H IL</w>
Ab ías</w>
A ra
5 0
1 11</w>
ér date</w>
É S</w>
xwan jik</w>
xeʼ raj</w>
x tee
x huhil</w>
wa lal</w>
w w
w ochoch</w>
vi le
tân âk</w>
tuvi era</w>
tra eré</w>
to rs</w>
tix cuy</w>
super fici
su bʼ</w>
se lo</w>
saho k</w>
sa sar</w>
s ê
rula ʼani</w>
ru ego</w>
rekʼa si</w>
r r</w>
qui yîban</w>
qui m</w>
prepara dos</w>
pod remos</w>
pen só</w>
ocur rió</w>
nequeß xtau</w>
nakaa tzol</w>
na zare
na roxloqʼi</w>
mo t</w>
li cio</w>
la rá</w>
la lebʼ</w>
l u</w>
l ero</w>
kʼ iiq</w>
ji loq</w>
in quie
in naßleb</w>
in ju
in gl
impli ca</w>
ha remos</w>
gu í
ga nar</w>
fon do</w>
fal le
f ora
ex clu
especi ales</w>
e pi
des preci
des pla
des as
des af
de le
da ñ
chʼaʼaj kaq</w>
chßiß chßiß
chi ch</w>
centí metro</w>
ca lor</w>
bar ca</w>
ba sado</w>
au xi
apari encia</w>
an du
afron tar</w>
acab ó</w>
a tar</w>
Transla tors</w>
Salo nes</w>
O c
NA QA
Mi rad</w>
Mi ra</w>
LOBʼ AAL</w>
L ES</w>
Jeho safat</w>
I l
I A</w>
Ha za
Eu frates</w>
D a</w>
Cu áles</w>
Con o
Chi qa
20 23</w>
20 11</w>
2 00</w>
ín te
ándo lo</w>
xyaabʼa si</w>
xy o</w>
xta w
xcßa ßux</w>
xbʼ oq
xaqabʼa ak</w>
xakab âc</w>
x cuulac</w>
x Rahab</w>
ven ida</w>
utʼ i
utʼi haʼ</w>
tâ cßamok</w>
tzʼe jwal</w>
tzßektâ naheb</w>
tribu nal</w>
tix camsi</w>
tin rakok</w>
tin ix
teßx canab</w>
ten ta</w>
te er
ta jer
tajer jes</w>
sopor tar</w>
sicß oc</w>
salv aje</w>
sagra do</w>
sagra das</w>
rab á</w>
queßx camsiheb</w>
qa kolbʼal</w>
q ilaq</w>
poder osa</w>
per ci
p h
ocur re</w>
naka ltes
nakaltes ink</w>
mostra do</w>
me z
llen ó</w>
llan to</w>
le ña</w>
le p
kʼa maq</w>
kß ej</w>
ju ez</w>
jolomin el</w>
is teis</w>
inoc ente</w>
in ânk</w>
ho b</w>
halla r</w>
h s</w>
ga na
extranj eros</w>
ed onia</w>
dé bi
de por
cto res</w>
cre ía</w>
conven cido</w>
continu ación</w>
ci en</w>
chßo lob</w>
chi wix</w>
chee kebʼ</w>
chan ruhaq</w>
can quil</w>
bʼtes ihebʼ</w>
bʼer esink</w>
b hs</w>
amis tades</w>
abi lidad</w>
abando nado</w>
a van
a su
a an
X qa
X ka
X i
V ol
Salu m</w>
Sal vador</w>
Sa fán</w>
QA L</w>
P res
O s</w>
O TROS</w>
O B
Ne que</w>
Mac edonia</w>
KʼANJE LOBʼAAL</w>
I glesi
G re
G e</w>
Fran cia</w>
Estu di
Es pa
Chixjun ilebʼ</w>
Ca des</w>
Ar tajerjes</w>
AN I
A PO
4 8
ô nk</w>
í a
êchan înk</w>
xy oo
xchßa mal</w>
xbʼer esinkil</w>
xbʼ oq</w>
x chap</w>
va ras</w>
u dad</w>
ti c</w>
tendr ían</w>
tar los</w>
taq eʼk</w>
ta ble
sufri endo</w>
su puesto</w>
so lici
sin tamos</w>
see bʼal</w>
rápi damente</w>
ru xta
roxlo qʼinkil</w>
rob abel</w>
ro llo</w>
respon diendo</w>
resis tir</w>
ree difi
re du
raí z</w>
raho ß</w>
ra ban</w>
quixb okeb</w>
queß qßueheß</w>
q ochoch</w>
pu dieran</w>
prote ger
pri vile
posi tivos</w>
po ß</w>
pla ga</w>
p el
oso ʼq</w>
oqu ía</w>
o ßlaju</w>
o cul
nikin eʼ
nekeʼ roxloqʼi</w>
ne b
naʼ ux
na tiklaak</w>
na jalaak</w>
mâcob k</w>
ma das</w>
lee chʼool</w>
le m</w>
la das</w>
kʼeho q</w>
kʼam eʼk</w>
kawu bʼresi</w>
i lu
hu yeron</w>
h in
gu ra</w>
gri tó</w>
gi a</w>
fun ciona
fu ese</w>
fora ster
exa mina
espiritu almente</w>
dr ía</w>
des arro
conversa ciones</w>
consue la</w>
cla ra</w>
cams înc</w>
ca qßue</w>
c û
aʼ ut</w>
arrepen tido</w>
apar tado</w>
aj es</w>
agra da</w>
a co
Zo robabel</w>
V o
SEERA Qʼ</w>
R amot</w>
Pu bli
N é
N un</w>
Mes u
LI N
Ju lti
Jes úa</w>
E Z
E QUI
DIS CURS
Ci udad</w>
C au
C OS</w>
Bʼ I
Anti oquía</w>
4 6
1 21</w>
- 3</w>
xy i
xtii kilal</w>
xkʼaʼ ux
xkʼaʼux ebʼ</w>
xka mk</w>
xa t</w>
x in</w>
wakl esihebʼ</w>
vo to</w>
vi ñas</w>
trope zar</w>
to x
to n</w>
tin â
teß êlk</w>
te le</w>
ta c</w>
t kamsiiq</w>
superinten dentes</w>
so n
si ona
senci lla</w>
satis fe
ri lbʼalebʼ</w>
recuer de</w>
ras il</w>
ra x</w>
qʼe q</w>
quix tzßâma</w>
quix sicß</w>
quin umeß</w>
qa wanjik</w>
preocu p
peda zos</w>
pa ltil</w>
p bʼal</w>
osobtes înk</w>
noti cia</w>
nequeß rupupic</w>
ne cio</w>
nax tzʼil</w>
nax cßul</w>
mú sico</w>
ma leb</w>
m é</w>
logr ó</w>
llev ará</w>
lengu aje</w>
kßu s
kiʼ oksimank</w>
kaw resi
kaqa link</w>
invi te</w>
ingl és</w>
he cha</w>
hacer le</w>
habi tada</w>
g ante</w>
g ana</w>
fi j
f ina</w>
expli car</w>
ex hor
eri bʼil</w>
en erg
débi les</w>
dis cursos</w>
dis cu
den tal</w>
dar éis</w>
cßoj la</w>
cß anti
cßanti ß</w>
cuân kin</w>
cu ello</w>
cru el</w>
cor ru
conf ía</w>
cie gos</w>
cie go</w>
chix sic</w>
chaca ch</w>
cha alel</w>
ce los</w>
cams inquileb</w>
ca cuubresi</w>
c é
bʼer esi</w>
bʼan lebʼaal</w>
bʼaan unk</w>
b os
b las
b aj</w>
a an</w>
Yô quin</w>
Su sa</w>
S of
S an</w>
Qui xbânu</w>
N úm</w>
LU CAS</w>
K u
Haza el</w>
E lam</w>
Con go</w>
C R
C OM
Bʼ IL</w>
Baa sa</w>
B rasil</w>
Ani me</w>
Abi atar</w>
20 16</w>
xê bu
xxu tân</w>
xw ekʼa</w>
xb ala
x ok</w>
wi qʼ
ven g
veng anza</w>
v il</w>
utili za</w>
tzßa k
tra te</w>
ticßtiß ic</w>
teʼx paabʼ</w>
ten q</w>
te me</w>
tat wanq</w>
ta anaw</w>
t í</w>
sé ñ
suf ren</w>
sobre llevar</w>
see y</w>
santo bresi</w>
recor demos</w>
re paso</w>
ra na
quin umta</w>
qa tasal</w>
pok s</w>
perfec ta</w>
p lan</w>
ori lla</w>
obstá culos</w>
o f</w>
nu jenak</w>
nin qi</w>
nekeʼ elk</w>
nax kuy</w>
n ías</w>
mâusi laleb</w>
mura lla</w>
mo ß</w>
mat kʼ</w>
maaj e
m baleb</w>
levan tado</w>
kßaxtes inbil</w>
kix kamsi</w>
ki wakliik</w>
ka x</w>
jûn kaleb</w>
julti canquil</w>
ja lo
ina cti
hi go</w>
habi tar</w>
ha z
guar dar</w>
gu es</w>
gr ani
gener oso</w>
gar se</w>
escon dido</w>
energ ías</w>
encan ta</w>
en quil</w>
eho maq</w>
dá frica</w>
div or
div ina</w>
destru yó</w>
deso lación</w>
der é</w>
da ías</w>
cßulu c</w>
corre cta</w>
chix tz</w>
celebra r</w>
ca erán</w>
bê lomej</w>
bur la
bon dado
ayu dando</w>
an teriores</w>
acer caron</w>
a fuera</w>
XTENQʼ A</w>
TE X
Su dáfrica</w>
Segun da</w>
San ed
S eb
S U</w>
RESPON DER
RA HO
Qu i</w>
Para íso</w>
PUE DE</w>
NA K
Mesu lam</w>
Maa ca</w>
KI LAL</w>
Jeho ás</w>
I d</w>
I I
HE CHOS</w>
De partamento</w>
4 ,000</w>
20 10</w>
14 3</w>
14 2</w>
1 12</w>
yoß yôquil</w>
yan q</w>
yajer k</w>
y clo
y ab
yab âl</w>
xêbu l</w>
xyan qil</w>
xpa ltil</w>
xmâl caß
x wil</w>
x kikʼel</w>
x chßinaßusal</w>
wakl es
ven gan</w>
v arón</w>
tê cßam</w>
tzß un</w>
tu yo</w>
trabaj ando</w>
too kʼanjelaq</w>
tix chap</w>
tin canab</w>
tikʼti ʼ
tenqʼan el</w>
taa kʼoxla</w>
sinago ga</w>
sal va</w>
râtin obâleb</w>
res inbil</w>
reci b
r âlal</w>
quilaj e</w>
qui yoßla</w>
qui joskßoß</w>
queß cam</w>
pros per
prohi bi
po bre
pare d</w>
oí d</w>
oke bʼaal</w>
obje tos</w>
o per
naye man</w>
na xyal</w>
na rahoʼk</w>
na kex</w>
muchí si
mi rar</w>
lími te</w>
lin kʼanjel</w>
li sto</w>
len a</w>
in sta
in men
in bʼi
i manq</w>
i d</w>
hici ste</w>
hici eran</w>
herramien tas</w>
habla mos</w>
ha ced</w>
go g</w>
est ábamos</w>
escu do</w>
escri tas</w>
en tra</w>
ej cua
destru irá</w>
cump la</w>
cue va</w>
cub s
cu ok</w>
cono cía</w>
comer án</w>
come tió</w>
chßinaßu s</w>
bʼiha jik</w>
bʼ i</w>
ar mas</w>
an e</w>
amane cer</w>
ala bar</w>
T on
RESPONDER ÍA</w>
Pen te
O xi
NO K
NEKEʼ XYE</w>
Li b
LI P
Ki xye</w>
Cla ro</w>
Chaabʼ il</w>
- Lâin</w>
í da</w>
é s
ßaj lâc</w>
yâ ba</w>
yaa bʼ</w>
xʼA na</w>
xmâlcaß an</w>
xlo qʼ</w>
xjun ta
xbʼ e</w>
x rahobʼtes
x mâtan</w>
x ju
x jalam</w>
x cßulbal</w>
ux man</w>
uutzʼu ʼuj</w>
uni ón</w>
uni c</w>
un q</w>
tâ yehok</w>
tzo l
tu c</w>
trans fu
tq ekʼa</w>
tix kuy</w>
tii kaq</w>
ti a</w>
teßx mayeja</w>
te men</w>
sum laaq</w>
sucur sales</w>
si cas</w>
se tenta</w>
se llo</w>
ru cß</w>
resul ta</w>
raa tinobʼaal</w>
qʼ us
quiye he</w>
qui ru</w>
prote ger</w>
prof es
presen taciones</w>
pren da</w>
podr ás</w>
plan ta</w>
pasa mos</w>
pare ja</w>
ofreci eron</w>
o mak</w>
nequeß cam</w>
naʼ ulaʼanink</w>
nax sikʼ</w>
nax qʼax</w>
naka awil</w>
naj e</w>
musi qʼ</w>
mostr ando</w>
mi sach</w>
mi ró</w>
me e
mb o
mal vado</w>
m aba</w>
lla mados</w>
lin naʼlebʼ</w>
levan tará</w>
le v
la qebʼ</w>
la bra
l ân
kʼa yi
kß es</w>
ki tawmank</w>
ka wa
k m</w>
inter esa</w>
in kʼaʼuxl</w>
in bi
i xaki
har éis</w>
h ón</w>
ga stos</w>
fo sa</w>
emp leo</w>
desas tres</w>
costu mbres</w>
co x
cier tas</w>
chʼaʼaj ki</w>
chßu t
chi qʼ
bʼa aq</w>
aña de</w>
az u
awabʼ ejihom</w>
ani mar
ama dos</w>
ad ministra
a tar
a lebʼ</w>
TEM A</w>
TA R</w>
Queß côeb</w>
Miqa kanabʼ</w>
KʼUTU K</w>
Joya da</w>
IMAG EN</w>
H arán</w>
Eli ezer</w>
D O
Co mp
Chiqa junilo</w>
C AN
Bena ía</w>
B oo
As á</w>
A CIÓN</w>
7 000</w>
2 2
14 4000</w>
10 9</w>
í sti
yu m
yal bʼaʼ
yalbʼaʼ ix</w>
xyeechiʼ inkil</w>
xy aʼa
wa kax</w>
vol vi
vali osa</w>
va mente</w>
va le
ustra ción</w>
us tʼu</w>
uni ce</w>
ula ʼani</w>
u hom</w>
tʼ ustʼu</w>
tzʼeqtaana nkil</w>
tu kß</w>
tqa kʼulubʼa</w>
ti q</w>
teß qßuehekß</w>
te ʼabʼinq</w>
te xinqßue</w>
tar les</w>
tak eß</w>
t ér
t tenqʼaaq</w>
su bʼeʼk</w>
so b
semi lla</w>
sagra da</w>
sab rán</w>
ru ina</w>
respe tar</w>
resol ver</w>
repu tación</w>
refle xi
refi ere</w>
re mi
ram îg</w>
rahobtes in</w>
quin u
públi co</w>
perdon a</w>
per dió</w>
nor mal</w>
nin c</w>
neque cßoxla</w>
nax rahi</w>
na yoʼlaak</w>
mer ece</w>
mayej anbil</w>
llo rar</w>
lib ró</w>
ka pâbâl</w>
ka c</w>
ju ró</w>
ixaki lbej</w>
israeli ta</w>
in lokßal</w>
ilo q</w>
habi tan</w>
ha yas</w>
gu era</w>
for mar</w>
fer encia</w>
f el</w>
escu che</w>
erg encia</w>
en cu
em ergencia</w>
elec tr
do ras</w>
diri gi
de cep
d rones</w>
cßul un</w>
cun ci
cuer das</w>
cre cer</w>
corre r</w>
confi amos</w>
chßô lejil</w>
cen i
ca yeron</w>
ca lum
ca iga</w>
c edro</w>
bʼ uu
bauti zó</w>
bauti zados</w>
b ânk</w>
ayudar a</w>
ayu den</w>
as nos</w>
ar te</w>
ar ra
ante mano</w>
alcan ce</w>
ala lbʼej</w>
aj wi</w>
aca cia</w>
aban don
aa tinan</w>
a ßanak</w>
a gar
UN A</w>
Qʼ E</w>
KʼOX LA</w>
Ju da</w>
Jab es</w>
J AL
F esto</w>
Es tas</w>
D escu
CAM BI
B EN
A mi
ê k</w>
xkʼutu m</w>
xcßa yi</w>
xcua heb</w>
xbʼer esi</w>
x tzacaêmkeb</w>
x si
vícti mas</w>
volver án</w>
ve y</w>
ve lo</w>
valo res</w>
u ehomak</w>
tê canab</w>
tzʼa p</w>
tzßû mal</w>
tzßû m</w>
tu mba</w>
toj ba</w>
to ros</w>
ti jeb</w>
te mer
tab las</w>
silen cio</w>
sak en</w>
sa mari
rápi do</w>
ro jos</w>
resin kilebʼ</w>
resi homak</w>
reci ó</w>
re manente</w>
rab le</w>
qßui x</w>
quix jap</w>
quix cßat</w>
qui tó</w>
qui r</w>
queß xb
quedar se</w>
pá jar
presi ones</w>
pertene ce</w>
oso cß</w>
o te</w>
nequeß cßacßalen</w>
nekeʼ okenk</w>
natura les</w>
na nawmank</w>
na jolomin</w>
li ce</w>
ko lok</w>
kitzʼii bʼank</w>
ki q</w>
kamsi ik</w>
jun es
jo c</w>
j ú
inclu ye</w>
in mundo</w>
in esper
hu yó</w>
hebre os</w>
ha lla</w>
ex cep
encuen tran</w>
en os</w>
di bu
d áis</w>
corne ta</w>
confi able</w>
con vo
chix sachbal</w>
bʼi in</w>
bʼanyox inkil</w>
blas fe
bel êb</w>
be cer
auto control</w>
agrade cemos</w>
agrad able</w>
adul tos</w>
acep tó</w>
a donde</w>
X I
Tar sis</w>
Taa yaabʼasi</w>
T eʼ
N aw
KʼU T
KʼAʼ UT</w>
JALA N</w>
Har vey</w>
H aba
C ô</w>
Ben dito</w>
Am én</w>
A un</w>
A rabá</w>
A aron</w>
A B
6 9
2 40</w>
û chin</w>
ê l
âli nac</w>
xra bʼin</w>
xku bʼeek</w>
xin kʼul</w>
xcßa mbaleb</w>
xcaß yabâl</w>
x tzʼeqtaanankil</w>
x tzʼ
x tenk</w>
x naʼ
x mu
x cam</w>
x bʼanyoxinkil</w>
wa q
ven ían</w>
u bej</w>
tû lan
tâ osokß</w>
toqʼo bʼa</w>
tkʼe manq</w>
taka ye</w>
ta rea</w>
t ni
sak lep</w>
sa que
resuci tar</w>
rebeli ón</w>
re vi
re ti
ra ßal</w>
ra r
quix tz</w>
quilajeß xbânu</w>
qui tado</w>
queß xtau</w>
qa rahom</w>
pos ó</w>
pe lo</w>
pari entes</w>
ori ental</w>
nokoo ʼok</w>
nequer aj</w>
nekeʼx numsi</w>
nami t</w>
na ciona
n tes</w>
má tico</w>
mo res</w>
mar ías</w>
lo gía</w>
lle na
lin paabʼal</w>
li c</w>
lep ra</w>
laa sumʼaatin</w>
la ciones</w>
ko j</w>
kiyobʼtes ink</w>
ki xkʼirta
ke k</w>
iglesi as</w>
i lal</w>
he teo</w>
guar di
fí sica</w>
excel ente</w>
esta ría</w>
espo sas</w>
es car
era ías</w>
envi ar</w>
enseñ ando</w>
ej cual</w>
edi ficio</w>
dé bil</w>
de tes
câ laju</w>
cßulu b</w>
cuesti ones</w>
conf li
comen zaron</w>
cip es</w>
cier tos</w>
científi cos</w>
ci pe</w>
came llo</w>
ca erá</w>
bʼi hom</w>
bu los</w>
ar la</w>
acer carse</w>
ac á</w>
aa y</w>
a anu</w>
Te namit</w>
Si g
Qa tzʼilaq</w>
N um
Mes iiy</w>
Ma ri
Ma quir</w>
Ma gog</w>
KʼU T</w>
K en
Ju eces</w>
Jo sias</w>
Jap ón</w>
Ita lia</w>
I O</w>
Heb er</w>
Gra cias</w>
El cana</w>
EZ EQUI
EZEQUI EL</w>
EST O</w>
ENSEÑANZ A</w>
EN CONT
ENCONT RAR</w>
Cu ib</w>
CH AABʼ
A h
4 7
14 7</w>
ê t
ér f
xyu cuaßeb</w>
xkʼu ulaʼal</w>
xku y</w>
xku x</w>
xin â
x hu</w>
x chihabʼ</w>
x Rebeca</w>
w in
ve mente</w>
ve cin
va ri
v est
un es</w>
tßa k
tzßu ßuj</w>
traq oq</w>
transg resi
tix col</w>
tin jal</w>
tij leb</w>
ti sta</w>
teʼ sach
teßx tzaca</w>
teß numtâk</w>
teß cßamekß</w>
su pli
segu ra</w>
royben i</w>
rochbʼen ebʼ</w>
ro di
reba ños</w>
re ún
re conocer</w>
ra ré</w>
ra das</w>
qʼa xtes
qui ta</w>
qui risiheb</w>
po dido</w>
pa cífi
obedeci do</w>
obede cen</w>
o primi
o câk</w>
ne o</w>
nax jal</w>
nakaa paabʼ</w>
naca qßue</w>
naca cuaj</w>
mu r
minis teri
lógi co</w>
lân s</w>
lu chando</w>
lleg an</w>
li do</w>
le era
kix sach</w>
ka yucuaß</w>
jebu seo</w>
jal ânk</w>
ja p
infor me</w>
i tos</w>
hu érf
hospi ta
her e
habla ron</w>
gü edad</w>
esfor zarnos</w>
envi aré</w>
el qʼ</w>
ed es</w>
du das</w>
dro gas</w>
dor mir</w>
devo ción</w>
destru ida</w>
des cubierto</w>
decí s</w>
da os</w>
cßojcß o</w>
cßoj lâk</w>
cuen tas</w>
cue cßa</w>
cu lar</w>
cr í
con segui
con mo
co ma</w>
ci das</w>
chßut chßû
chin âcol</w>
chi re
cele b
capí tulos</w>
can os</w>
ca e</w>
bʼala qʼ</w>
bich ânk</w>
ben dice</w>
aʼa j
atar decer</w>
ape dre
anti güedad</w>
aca z</w>
a wimq</w>
a costu
Wil li
Uste d</w>
Ta ka
TEX TO</w>
Su r</w>
Se m</w>
Sar via</w>
SA HIL</w>
RUU Q</w>
Queß xye</w>
N aʼ
Mar zo</w>
Mala quías</w>
M el
Jo acaz</w>
ISA ÍAS</w>
Ca mer
Boo z</w>
A d
A MI
14 4</w>
ê ta</w>
Ó NI
yoo qebʼ</w>
yeechiʼ om</w>
xsum ʼaatin</w>
xjolo meb</w>
xiw xi
xiwxi wal</w>
xbok bal</w>
x tenkßanquileb</w>
x tenami
wp 16
usa mos</w>
u ira</w>
tî x</w>
tî cob
tzʼa qa
tra sto
tra e</w>
tr ina</w>
tqa j</w>
ti xkʼutbʼesi</w>
ti er
ten te</w>
te c
taa kʼul</w>
sum la</w>
su a
sober bia</w>
san ta</w>
sab ían</w>
raí ces</w>
rak ba</w>
rahobtes i</w>
ra ro</w>
ra bi
r cunci
quix tau</w>
quix sach</w>
quix patz</w>
queß xcßat</w>
prín cipes</w>
pri sion
pre paró</w>
pi so
perse ver
pe dido</w>
pare cen</w>
pap á</w>
pa lo</w>
p ê
p eso</w>
ox laju</w>
nin ruuk</w>
neque x</w>
necesari os</w>
na xkʼubʼ</w>
na taqlank</w>
na cu
na chß
n c</w>
man tenimiento</w>
man cha</w>
m ba
lám para</w>
lle gamos</w>
kßa j
kubʼ e
ke ʼabʼink</w>
interes es</w>
ins cri
influ encia</w>
inci rcunci
in g</w>
hu mo</w>
halla ron</w>
ha gáis</w>
guar dado</w>
gra do</w>
f ran
estu vieron</w>
enten der
encar gado</w>
en vía</w>
ekʼa sink</w>
e cha
diri gir</w>
di ré</w>
desnu dez</w>
desi g
dej an</w>
da d
cumpli endo</w>
cui k</w>
cru ci
con spi
cla ridad</w>
chix cßambal</w>
cer cano</w>
ca rac
c yclo
bus que</w>
bo ra</w>
ba al</w>
aʼaj wiʼ</w>
an dando</w>
amo l</w>
al e</w>
ab îc</w>
a v
a mp
Y ehomak</w>
XY U
U M
T er
SAL MO</w>
S A</w>
ROM ANOS</w>
O g</w>
NOK OO
Maa junwa</w>
Le van
La aʼ
K aʼajwiʼ</w>
Ju lio</w>
Ga za</w>
Fa raón</w>
Es toy</w>
En cyclo
Camer ún</w>
Bel sasar</w>
A ho
A J
6 00</w>
10 000</w>
1 38</w>
, 7
ê rîtzßin</w>
ê naßleb</w>
yoß lâk</w>
xy ânk</w>
xu waq</w>
xraq mank</w>
xra h
xpa lti
xpalti lebʼ</w>
xin ruuk</w>
xeʼx tzol</w>
xa abʼaanu</w>
x jal</w>
wu qʼ</w>
vivi entes</w>
verda der
ve d</w>
vali osas</w>
u qʼ</w>
tê sicß</w>
tzßa p
tzß i
tin âtinak</w>
tin cuaj</w>
ti xkʼut</w>
teʼ rekʼa</w>
teß pletik</w>
teß numekß</w>
ter as</w>
te les</w>
taw ebʼ</w>
taaw ulaʼani</w>
ta os</w>
superfici e</w>
su taq</w>
simb óli
sikʼ ebʼ</w>
señ as</w>
ser ían</w>
se mes</w>
sacho c</w>
sa abʼ
ru ʼuj</w>
ra ar
r ín</w>
qui taklâc</w>
profun damente</w>
pre par
pos tró</w>
poder ío</w>
ora rle</w>
ona r</w>
no ches</w>
ne bʼaʼ
ne ba</w>
nax sach</w>
nan ti
na rakoc</w>
na cimiento</w>
mo ne
mb ró</w>
mar é</w>
ma nanti
m íos</w>
lu b</w>
lis tos</w>
le tz
le pro
laaw ochoch</w>
laa tzʼ</w>
l s</w>
l l</w>
kʼu u
kix qʼet</w>
kix kubʼsi</w>
kaw aay</w>
junta k</w>
joʼ wiʼ</w>
jal jo
ix qi
ha keb</w>
ga les</w>
fru tos</w>
fi nalmente</w>
f re</w>
f ar
extra ordina
estru endo</w>
esper ando</w>
es tr
entreg aré</w>
entre tenimiento</w>
enseñ e</w>
en ví
en v
due ño</w>
dra gón</w>
dolo res</w>
deci do</w>
cuosobtes i</w>
cono cemos</w>
confi ables</w>
comi eron</w>
comer éis</w>
com erá</w>
ci c
chi ß
chap eʼk</w>
chan kiru</w>
ch eribʼil</w>
cer ni
ce ñ
ca de
bʼa alebʼ</w>
bue yes</w>
blan co</w>
bendi ga</w>
awabʼ i</w>
apo yan</w>
ambi ente</w>
am eb</w>
abi erto</w>
ab re</w>
X QATZOL</w>
T ab
ST E
RU SILAL</w>
Qa kʼamaq</w>
Pas wa</w>
PROF UN
Na ta
Lo gros</w>
KI T</w>
ID O</w>
Haba cuc</w>
FI CI
D ES</w>
Ca i
B u
Andr és</w>
A P
4 00</w>
14 8</w>
14 6</w>
û n</w>
ú e</w>
êt kil</w>
éndo le</w>
ÓNI CAS</w>
É sta</w>
za dores</w>
xraq eʼk</w>
xpa tz</w>
xkubʼ sinkil</w>
xiw xiw</w>
xin c</w>
xaqabʼan bʼilebʼ</w>
xaa kʼe</w>
tzʼa k</w>
tzßî b</w>
tuqtuu kil</w>
tomar ás</w>
teʼ elq</w>
tendr é</w>
taka qßue</w>
tak ecß</w>
t bil</w>
su be</w>
servi rá</w>
santi dad</w>
salv ó</w>
s il</w>
regres aron</w>
ree chani</w>
rebel des</w>
qʼa j
quix tzßîba</w>
quix kßaxtesi</w>
quix camsiheb</w>
qui êlelic</w>
qu la
prácti cos</w>
pre para</w>
po ß
pi da</w>
pe cto
pecto ral</w>
pa tio</w>
p ó</w>
origi nal</w>
necesi taban</w>
nax tzol</w>
na ruu
na ba
médi cos</w>
mor tal</w>
mencion ó</w>
maje cua</w>
lu bʼ
lokßon iheb</w>
logra rá</w>
li nas</w>
lengu as</w>
lav ará</w>
laa junxaqalil</w>
ko ʼq</w>
kiló metro</w>
ki ʼajmank</w>
ki xyotʼ</w>
ki sach</w>
ka xe</w>
ir ía</w>
in cre
hábi tos</w>
hu ir</w>
ho mo
ho mi
he x</w>
gri e
estatu a</w>
esta ré</w>
escla vi
er en</w>
ech ßa
eb o</w>
e fa</w>
dó lar</w>
di estra</w>
des gracia</w>
de bió</w>
cßacßa l
cuî n
cuen tan</w>
continu amente</w>
contes ta</w>
conqui s
ci to</w>
chʼiʼchʼiʼ i</w>
chßa ßaj</w>
chun chu</w>
chix tau
cha qßue</w>
cha cuabi</w>
cab río</w>
ca dores</w>
bue y</w>
b ó</w>
ay ûn</w>
an ía</w>
am abilidad</w>
abomina ción</w>
aa junes</w>
Y ES</w>
XCHA MAL</w>
TE NA
TENA MI
Saned rín</w>
Re cor
RE YES</w>
Queßx qßue</w>
Pre di
Na x
Ma aʼ
MO R</w>
Le v</w>
KʼUT Bʼ
KʼU L</w>
Jun xil</w>
Jo aquín</w>
HAC ER
H as</w>
CAMBI Ó</w>
Ata lía</w>
5 8
200 4</w>
1 37</w>
, 9
ín ti
â naßleb</w>
ßa meb</w>
yu mb
xw aj</w>
xcu il</w>
xco lbaleb</w>
x les
wakl esink</w>
vícti ma</w>
ux eb</w>
uni dades</w>
u tzßußuj</w>
tâ âtinak</w>
tâ nan</w>
tro so
traj eron</w>
trabaj an</w>
to que</w>
tix sume</w>
tix mayeja</w>
tix cßat</w>
teʼ kanaaq</w>
teʼ kamq</w>
teß rabi</w>
tex canâk</w>
te lajeß
tan tos</w>
tan ia</w>
taa yeechiʼi</w>
ta bles</w>
sobrevivi entes</w>
santo b
sal ía</w>
sach mank</w>
sa das</w>
res in</w>
re cßa</w>
re cursos</w>
re cuerdo</w>
re chani</w>
re c</w>
ra chi</w>
quira keß</w>
quicu be</w>
qui sach</w>
queß risi</w>
qa teep</w>
pre vale
pre fi
po ʼ
pi s
persona les</w>
per judi
pensa do</w>
o d</w>
nokoo puktesink</w>
nin yehoc</w>
neutra les</w>
nekeʼ loqʼonink</w>
nax kubʼsi</w>
naq anumsi</w>
na r
na naʼlebʼak</w>
na das</w>
muk bal</w>
modes tia</w>
mi rando</w>
mar ca</w>
maa joqʼe</w>
lu cha</w>
lle nado</w>
lib res</w>
lan a</w>
kʼ ehol</w>
kʼ bʼal</w>
kix tzʼeqtaana</w>
kix jultika</w>
jú bilo</w>
jun tamente</w>
jun qʼe</w>
jal mank</w>
j ak</w>
in sul
imp res
im an</w>
i ro</w>
i kʼin</w>
i el</w>
hab erse</w>
h ink</w>
grani zo</w>
for ma
fir me
fe t</w>
ex plo
estudi os</w>
estable ció</w>
esp len
encontra ron</w>
en rique
empa tía</w>
echßa lal</w>
e char</w>
déci ma</w>
do cu
distin tas</w>
diseñ o</w>
dis cerni
detal le</w>
descubri r</w>
des vi
des pier
dedi car</w>
de go
da tos</w>
cßa yi</w>
cß ojaribâl</w>
comi ó</w>
comi do</w>
come te</w>
codi cia</w>
ciona do</w>
chan quex</w>
cha mal</w>
cen a</w>
cari ote</w>
ca ye</w>
c tas</w>
bis leb</w>
aso mbra
al tura</w>
al ter
a heb</w>
a caso</w>
Uni das</w>
Teß x
TAT RUUQ</w>
T esta
SI S</w>
Qa kʼu
PROFUN DIC
PROFUNDIC EMOS</w>
OR IA</w>
NA RU</w>
N aba
MÁ G
MÁG ENES</w>
M in
KIX JA
Is cariote</w>
I MÁGENES</w>
H or
EST A</w>
CR ÓNICAS</w>
C her
Bi enaventu
Ar nón</w>
AL GUN
A Ñ
A nu
A MOR</w>
2 3
1 17</w>
1 14</w>
1 1,
- Relic</w>
ʼA J
zi el</w>
z o
xyal bal</w>
xtaq enkil</w>
xqa kʼe</w>
xlaj êtkil</w>
xin naw</w>
x ko</w>
x ka</w>
x Jezabel</w>
we chʼ</w>
visi tas</w>
vie jo</w>
vi g
ut un</w>
u ehok</w>
tân umtâk</w>
tâ sukßîk</w>
truu k</w>
to mq</w>
tnum taaq</w>
tix waklesi</w>
tix tenqʼa</w>
teʼ xyal</w>
teʼ sutqʼiiq</w>
ter tô
tat cuânk</w>
taa wanq</w>
ta vo</w>
t ó
su ya</w>
su b</w>
seera qʼ
se ca</w>
sach so</w>
sa heb</w>
roso ß
res e</w>
religi osas</w>
refer irse</w>
re za</w>
r las</w>
qʼa lil</w>
quin to</w>
queßx muk</w>
que bra
qa xiw</w>
qa anm</w>
prostitu ta</w>
produ ctos</w>
pondr án</w>
piso te
permane cer</w>
pe dia</w>
oport unidades</w>
nie ve</w>
nequeßx col</w>
naß bej</w>
naka w
na cßutun</w>
na ab</w>
m aban</w>
lla do</w>
laaw a
kʼi cheʼ</w>
ko hebʼ</w>
kiló metros</w>
ki yii
ki xkʼehebʼ</w>
ki bil</w>
ke tomq</w>
jap j
in si
in bej</w>
gu a</w>
gra ba
flo res</w>
fa ma</w>
esper an</w>
esco gió</w>
entra rá</w>
enter ó</w>
doc trina</w>
diri g
destru idos</w>
dese amos</w>
descan so</w>
de quiera</w>
cur ó</w>
cul tura</w>
cuacl esi</w>
cruci fi
cri sis</w>
consul tar</w>
conocer lo</w>
con tado</w>
châ bileb</w>
chixtau bal</w>
came nakeb</w>
bʼ oq</w>
bre ve</w>
bi o</w>
bendeci do</w>
arrepenti miento</w>
ar os</w>
apla s
amo n
ala bar
afir ma</w>
acu érdate</w>
a propi
a dad</w>
Tâ cuânk</w>
TENAMI T</w>
TA LIL</w>
S te
Ro jo</w>
Qui zás</w>
Nu estro</w>
No koo
Na ticla</w>
Na cuulac</w>
Mi cal</w>
Maa sías</w>
Ma ha
J ac
Il ustración</w>
Iglesi a</w>
I m
Gu ía</w>
G RA
Es tos</w>
Descu bra</w>
Ber e
Al gunas</w>
ALGUN OS</w>
4 5
1 29</w>
ô k</w>
í l</w>
é l
z á</w>
yotß eß</w>
xtenami tebʼ</w>
xtee pal</w>
xqa kʼul</w>
xka wil</w>
xjunta qʼ
x tzßa
x lan
wiqʼ ibʼ</w>
volv í</w>
vesti r</w>
vecin os</w>
valo ramos</w>
vali oso</w>
va si
v ando</w>
ut bal</w>
un u
u kß</w>
tʼ u
tâ qßuehok</w>
tribu to</w>
tra tan</w>
tqa kʼojobʼ</w>
tqa kawresi</w>
to fel</w>
tix sikʼ</w>
tin xtenqʼa</w>
tin xik</w>
tin o</w>
tin cßut</w>
tin cuil</w>
teß sukßîk</w>
tertô quil</w>
ter ísti
tendr éis</w>
te nas</w>
sobre vivir</w>
sin cero</w>
sie ga</w>
si blemente</w>
sak êu</w>
sach s
sa qaq</w>
s ú
râ li
rumb o</w>
ru ch</w>
rosobtes iheb</w>
respon da</w>
rel kßa</w>
re posó</w>
quix cßut</w>
queßx chap</w>
queß mukeß</w>
profun das</w>
prim eras</w>
pri sa</w>
prepara rse</w>
pon gan</w>
pon gamos</w>
pobre za</w>
persona lmente</w>
perdo nado</w>
per ro</w>
pe cho</w>
pa mos</w>
oqu ênk</w>
nombra do</w>
nokoo xkol</w>
nokoo naʼlebʼak</w>
na uhak</w>
na sahoß</w>
na el</w>
mâ k</w>
musi cal</w>
mu ri
mo q</w>
misericordi oso</w>
mis terio</w>
menos preci
me mori
man tiene</w>
ma ma
lu ch
lla res</w>
lla man</w>
li tro</w>
li ar</w>
le el</w>
kʼul unk</w>
ko ʼ
junes al</w>
ji loc</w>
j aron</w>
ir ás</w>
gra tu
for ni
fi jar
fal so</w>
f lor</w>
exten dido</w>
exi stencia</w>
esplen dor</w>
esper amos</w>
encar gó</w>
encar ce
e unu
do mina
dej en</w>
dedi cado</w>
deci de</w>
de u
d éis</w>
cßut bal</w>
cuesti ón</w>
cuacl es
cua c</w>
conver tido</w>
continu o</w>
constan temente</w>
compañ ías</w>
cho ʼ
chix ja
centra l</w>
car ía</w>
cap tu
cande lab
cade nas</w>
ca minar</w>
bʼ resi
bor ra
bo l
bendeci rá</w>
b ó
am én</w>
am ables</w>
al ba</w>
a somb
XK U
X NA
Vi ve</w>
Ti ene</w>
Testa mento</w>
T z</w>
T ob
Ser vi
Seera qʼ</w>
SI G
Ra q
Qui xb
Q U</w>
Publi cación</w>
Nata nael</w>
N or
M aj
L es
Ja iro</w>
Fi le
Eli ab</w>
Che qßuehak</w>
CHI X
Be tania</w>
AABʼ A
A do
ê na</w>
ê cuanquil</w>
â joskßil</w>
â cuukß</w>
á monos</w>
za das</w>
z camos</w>
y áis</w>
xtaq lankil</w>
xeʼ elk</w>
xcha qʼalil</w>
xbʼaanu homebʼ</w>
xbok baleb</w>
xbe heb</w>
x xeʼ
x wank</w>
x sic</w>
x rabin</w>
x julticanquil</w>
x josk</w>
wo tz</w>
vuel ven</w>
vuel van</w>
vivi rán</w>
vi eja</w>
ux tânan</w>
utili zar</w>
ue lo</w>
u cuac</w>
tê rêchani</w>
tzʼaj ni</w>
tu l</w>
tromp etas</w>
trasto r
trabaj adores</w>
toox ik</w>
too lk</w>
ti dos</w>
teʼ k</w>
ta z
sâ ji
simp le</w>
si ß</w>
se de
se c</w>
salv ará</w>
sa chok</w>
roch bʼeen
ro ni
ri ti
raa tino
raa tina</w>
r ano</w>
quix k</w>
qui nak</w>
queß sacheß</w>
pro viene</w>
pres os</w>
preocupa ciones</w>
preocu par
per ez
peli gros</w>
pel í
pe ces</w>
pasa dos</w>
p un
ojari bʼaal</w>
obedeci ó</w>
o í</w>
nazare o</w>
nakat xtenqʼa</w>
najto ʼk</w>
na tzʼaqlok</w>
mo abi
mensaj es</w>
ma ta</w>
ma j
ly n</w>
lo qʼal</w>
llev ando</w>
lec en</w>
la qo</w>
kß un
keʼ xkʼoxla</w>
ju kʼ
jo r</w>
is înk</w>
invi ta</w>
ini cu
in tenkßanquil</w>
i dad</w>
i ca</w>
i a
her idas</w>
hab lo</w>
ha ciéndo
gra to</w>
gra du
ga d</w>
fí jese</w>
fu iste</w>
fortale ció</w>
fle chas</w>
fer i
f er</w>
escuch aron</w>
env ío</w>
eni d</w>
empi eza</w>
electr óni
don dequiera</w>
do ble</w>
distin tos</w>
de presión</w>
cß bal</w>
cre ar</w>
conf es
con fun
comien zo</w>
comen tar</w>
cho q
chixja pbal</w>
cher abihak</w>
carac terísti
car re
car lo</w>
c k</w>
aprove ch
ali ento</w>
afir mó</w>
ad quiri
a tre
a is
X kʼanjel</w>
V enid</w>
Tob ías</w>
Sof on
ST ORIA</w>
SE RI
SA MU
SAMU EL</w>
R ío</w>
Pen semos</w>
Oli vos</w>
Nin nau</w>
Nab at</w>
K ʼam</w>
Jer obo
JAL ANQ</w>
I mi
Ha z</w>
HI STORIA</w>
H an</w>
H ac
H ER
F U
D ina</w>
Co at</w>
CONT EST
C RE
B au
Anu ario</w>
Am ós</w>
1 25</w>
ʼawabʼej inq</w>
ßu xeb</w>
zi lai</w>
xyâ ba</w>
xni ma</w>
xeʼx tzʼeqtaana</w>
xeʼ xkʼutbʼesi</w>
xa tin
x ʼok</w>
x ee
wan qat</w>
wa anm</w>
volver é</w>
tzʼ iʼ</w>
tzß bal</w>
tzac ânk</w>
tq ara</w>
tol er
tikʼtiʼ ik</w>
ti xyîb</w>
ti erno</w>
teʼx ra</w>
ter cero</w>
tat câmk</w>
tan i</w>
t áis</w>
super vi
su el
sor teo</w>
sicso t</w>
sede c</w>
sa hilal</w>
sa da
rochbʼen i</w>
ro t</w>
regu lar</w>
reac ción</w>
re quisi
re ctitud</w>
quix mayeja</w>
qui camsîc</w>
qa haʼ</w>
posi tivo</w>
poni endo</w>
pla at</w>
pi dieron</w>
on g</w>
olo nia</w>
obedeci eron</w>
o kebʼ</w>
nimo bʼresi</w>
nequeß xnimobresi</w>
nekeʼx patzʼ</w>
ne go
nax jolomi</w>
naqa kʼojobʼ</w>
naka ara</w>
naca m</w>
na cieron</w>
na chʼinaak</w>
muq lebʼaal</w>
mori rán</w>
mon ía</w>
maravillo sas</w>
ma tarlo</w>
lokß bil</w>
lf fi</w>
lee kokʼal</w>
laa kʼaʼuxl</w>
kʼa j</w>
ko ʼ</w>
kix paabʼ</w>
ka yu</w>
k la</w>
je qßu
isi mank</w>
i haq</w>
hubi eran</w>
hon rar</w>
ho jas</w>
hi guera</w>
hi gos</w>
habi taron</w>
fer ez
fa ci
eßx tzßektâna</w>
expres ar</w>
exper tos</w>
esti lo</w>
entra do</w>
edifi cado</w>
dr ón</w>
distan cia</w>
diri ge</w>
di tos</w>
demostra do</w>
dar a</w>
d ones</w>
cßut besîc</w>
cß âmal</w>
cuâ m</w>
cuoch beneb</w>
cumpli eron</w>
cre ían</w>
cor responde</w>
con dena</w>
co linas</w>
chßutchßû queb</w>
cande lero</w>
cab lal</w>
cab ello</w>
bu l
bebi da</w>
b antiox
aw ab</w>
asegu ró</w>
as esi
as bej</w>
ar éis</w>
ar ras
apar ta</w>
ak lok</w>
ai re</w>
abund ante</w>
aba d</w>
a y</w>
a mó</w>
a hor
Z a
Willi am</w>
To más</w>
TU M
T oo
T an
S ES</w>
R a</w>
P olonia</w>
Né guev</w>
Na cor</w>
Mâ cuaß</w>
Mâ cua</w>
Musi qʼej</w>
Mica ía</w>
Mi q</w>
Mag da
LE V
KʼUTBʼ ES
In dia</w>
Ec rón</w>
Cai f
C oral</w>
Bar zilai</w>
As do
A gar</w>
3 ,000</w>
1 28</w>
, 5
ía is</w>
ân il</w>
xoc xo</w>
xeʼ ril</w>
xe xin
x tenkßanquil</w>
x patzʼom</w>
x chu
vo tos</w>
vi de
tâ chakik</w>
tzʼii bʼank</w>
tuu lak</w>
tr á
tor men
too tʼaneʼq</w>
ton es</w>
to wer</w>
tix k</w>
tin eʼ
tin cuulak</w>
ti xyal</w>
ti bʼel</w>
teßx camsi</w>
teß xucuak</w>
teß xlokßoni</w>
ter o</w>
ten gáis</w>
tat wulaq</w>
ta pi
ta aʼ
t h
sâji lal</w>
sâ cß</w>
sába dos</w>
santobres inbil</w>
sal ga</w>
sa ron</w>
roke bʼaal</w>
ri s</w>
reta ña</w>
res inquil</w>
remi siblemente</w>
recuper ar</w>
rebel de</w>
r í
qßu ehomak</w>
quixye chi</w>
qui tz</w>
qui eran</w>
quedar án</w>
pro bar</w>
posesi ones</w>
peri odo</w>
per fu
p in
ove ja</w>
or an</w>
occi dental</w>
obedi ente</w>
o kil</w>
o i
nokoo kʼanjelak</w>
nequeß bêc</w>
nekeʼ rahok</w>
necesi te</w>
naʼ osoʼk</w>
nax cßut</w>
nalem tzßun</w>
na qßueheß</w>
na kʼoxlak</w>
na kubʼeek</w>
n er
mi sta</w>
mi ré</w>
mi llas</w>
mi l
medi os</w>
ma di
le e</w>
le b
l bʼa</w>
kʼu bʼ
ko c</w>
ki rosobʼtesi</w>
je mos</w>
ja mos</w>
ja dos</w>
ir remisiblemente</w>
ini dad</w>
i nan</w>
i lak</w>
i do
her ido</w>
ha céis</w>
ga das</w>
g la
g erá</w>
g emi
foraster o</w>
exa ctamente</w>
ex tremos</w>
ex termina
ex terior</w>
escribi eron</w>
es tan
enter o</w>
enten inkil</w>
enseñ aba</w>
eli gió</w>
ektâ nan
ed nego</w>
e volu
e lo
dure za</w>
diciéndo le</w>
di gas</w>
dej é</w>
deci dí</w>
deci didos</w>
de tuvo</w>
d enes</w>
cuar ta</w>
cti va</w>
cristi an
cr ónicas</w>
co st
chʼ eʼ</w>
chê ribil</w>
chix jun</w>
chancha nakeb</w>
cha m</w>
ch tower</w>
ch ebânuhak</w>
ces ar</w>
cer ía</w>
cer é</w>
ca os</w>
ca dor</w>
bos que</w>
bien estar</w>
bi chan</w>
avergon zados</w>
aver igu
asegu ra</w>
as es
ar res
anali cemos</w>
an d</w>
am able</w>
acep tado</w>
aa hoonal</w>
X e
X CHʼOOL</w>
Wat chtower</w>
V í
U r</w>
Tz ß
TUM IN</w>
Sa rai</w>
Qa kʼehaq</w>
Q IBʼ</w>
PA SA
P RES
O fi
Medi ter
La quis</w>
LIP SIS</w>
L is
Ja el</w>
HACER LO</w>
Escri tura</w>
Eli a
EN CI
Dé bora</w>
Deb emos</w>
D EMOS</w>
Chancha nak</w>
CHI HA
CA LIPSIS</w>
B retaña</w>
B U
B RE
Asdo d</w>
Aqu í</w>
Ab ednego</w>
APO CALIPSIS</w>
A quis</w>
14 9</w>
10 8</w>
ó lo
éxi co</w>
è le</w>
ándo los</w>
á gui
É f
Éf eso</w>
yo x</w>
xok bʼal</w>
xkawu bʼresinkil</w>
xbʼala qʼi</w>
x tel</w>
w0 3</w>
w 99</w>
vo ces</w>
ve os</w>
tân eb</w>
tâ yî
tâ tßanekß</w>
tâ cßul</w>
tâ cßojlâk</w>
tzßi ß</w>
tsach manq</w>
tsach eʼq</w>
tqa kol</w>
to mando</w>
tix tenqʼahebʼ</w>
tin e</w>
teß xnau</w>
te ʼawabʼejinq</w>
taqlan q</w>
t única</w>
t ías</w>
sí mbo
sufri mos</w>
sue len</w>
sub ía</w>
su al</w>
sikʼ bʼilebʼ</w>
sic lo</w>
si ti
si homak</w>
si emb
señ ala</w>
san o</w>
sak ba
sakba ch</w>
sa ma
sa hak</w>
sa ca</w>
sa ant</w>
ru s</w>
rodi llas</w>
resin bileb</w>
resi lal</w>
recono ció</w>
rebel ó</w>
qßui heb</w>
quix chßutubeb</w>
qui qßuehoc</w>
queßx sach</w>
queß rêchani</w>
que dar</w>
privile gio</w>
presen ta</w>
polí ticos</w>
pe ña</w>
partici p
paabʼa al</w>
pa tri
oso k</w>
olvi dado</w>
nokoo ʼ
nin ʼok</w>
nega tivos</w>
necesi tado</w>
naʼa laak</w>
naw ebʼ</w>
naka j</w>
na saho</w>
na raqeʼk</w>
much edu
mu tzʼ</w>
mu l
mora das</w>
minis tros</w>
mi sión</w>
lle vados</w>
libra rá</w>
levan tar</w>
lar nos</w>
lan dia</w>
la ba</w>
ko b</w>
keʼx qʼet</w>
keʼ sutqʼiik</w>
kaq koj</w>
ka lal</w>
jun sutaq</w>
iw án</w>
in visi
in naʼlebʼ</w>
ido la
i la</w>
habi tó</w>
g antes</w>
fo men
fi co</w>
exa ctitud</w>
engañ ar</w>
ej wa
e os</w>
disponi ble</w>
dij era</w>
dibu jo</w>
cé lu
cßut ûnk</w>
cui leb</w>
cre es</w>
cono cidos</w>
compa sivo</w>
comp li
ciu dad
chix lok</w>
che er
bʼee lom</w>
bû lic</w>
asi b</w>
ar monía</w>
ajulti kaq</w>
aj câmunquil</w>
ador an</w>
ab îk</w>
a ra
a de
Z ac</w>
V amos</w>
Tin qßue</w>
Ta mpoco</w>
Ta iwán</w>
TEN Qʼ</w>
T Eʼ
So lo</w>
Se hón</w>
SERI E</w>
Q ajultikaq</w>
Naʼa jej</w>
Naba leb</w>
Na die</w>
Na dab</w>
Mi c
Me fi
Mari e</w>
MI ENTO</w>
M éxico</w>
L in</w>
In forme</w>
IN TI
Hana nías</w>
Ge org
Ex pli
Estudi antes</w>
Eli hú</w>
Eli asib</w>
DISCURS OS</w>
D ej
Cu i
Cor dero</w>
Chin â
CHIHA Bʼ</w>
C oo
BEN E
Ari n</w>
Ani hebʼ</w>
A ʼ</w>
A lej
0 ,000</w>
ú l
ór denes</w>
ínte gro</w>
áni co</w>
z er</w>
yoʼ laaq</w>
xrahobʼtes inkil</w>
xoc bal</w>
xnaʼ il</w>
xna ß</w>
xcha pbal</w>
x propeet</w>
x jolomin
x ha</w>
vir gen</w>
ve te</w>
v é
um bra
tâux mânk</w>
tzʼa p
tzß e</w>
tzolo l</w>
tus tu</w>
traq eʼq</w>
tra m
tix qßueheb</w>
tin cuy</w>
tien den</w>
teʼx jal</w>
teß rêchani</w>
teß colekß</w>
terremo tos</w>
ten ebʼ</w>
tem po
te la</w>
taqla hebʼ</w>
superi ores</w>
sum lâc</w>
sufri ó</w>
su lul</w>
sti ó</w>
sir vieron</w>
sinti eron</w>
si bʼaal</w>
ser vían</w>
sen tencia</w>
sen das</w>
sal ían</w>
sa du
ro m
ri xaki
recono ce</w>
re parti
raq lebʼaal</w>
raa y</w>
ra rán</w>
ra cuî
queßx xakab</w>
q in</w>
proye cto</w>
primi cias</w>
pres o</w>
predi camos</w>
precurso rado</w>
plan e
pi ezas</w>
permi ten</w>
pen sé</w>
pele ar</w>
par cial</w>
p este</w>
opi nan</w>
ofici al</w>
oc tavo</w>
no ven
ni ñ
nekeʼx jal</w>
nekeʼ ulaʼanink</w>
nekeʼ taqlank</w>
nebʼaʼ il</w>
naʼa bʼ
naß lebeb</w>
nacat qßuehoc</w>
n in</w>
multi tudes</w>
mon tón</w>
mensaj ero</w>
men cionan</w>
me x
mb ra</w>
mal mente</w>
madi ani
ma kachʼin</w>
ma chos</w>
m ânc</w>
lí nea</w>
lí der</w>
lle gué</w>
li as</w>
le ído</w>
lar ga</w>
la d</w>
kix kawresi</w>
kix ja
ki kʼehok</w>
ka junes</w>
jo r
interpre tación</w>
inmora l</w>
im ri</w>
hici mos</w>
habi ta</w>
guardi as</w>
goberna rá</w>
g aban</w>
fra g
extra ño</w>
expul sado</w>
estre cha</w>
esfuer zan</w>
es pan
enten dido</w>
ent ía</w>
en gran
en fu
en en</w>
e wu</w>
e dom</w>
di ese</w>
deja mos</w>
de fectos</w>
dar me</w>
cuan tos</w>
cost és</w>
corre gir</w>
consider ado</w>
confi ado</w>
conf ines</w>
con for
com unidad</w>
com en</w>
cole ß</w>
co t</w>
co do</w>
cla ve</w>
chanchan ebʼ</w>
cau resinbil</w>
car ás</w>
calum ni
cadá ver</w>
ca lami
bio maleb</w>
bi enaventu
ar ena</w>
antigu a</w>
ancha leb</w>
ale gre</w>
adora rlo</w>
ado p
ad vir
act úa</w>
aabʼ een</w>
a anilak</w>
T RA
Si empre</w>
Se ir</w>
Pente costés</w>
O f
NAX KʼUT</w>
Mex xucuac</w>
M oo
M ee
M EN
M ANK</w>
L AN
Jun ta
Ju d</w>
Jer o
Hil cías</w>
Espa ña</w>
Di luvio</w>
DIC EN</w>
Chʼ olo
Ch an</w>
Ca per
CH ʼU
CH ʼA
Bena ías</w>
BENE FICI
AA N</w>
1, 0
1 36</w>
1 32</w>
ß cßâl</w>
Í CU
ya leʼk</w>
xsach bal</w>
xoo ʼok</w>
xna qʼ</w>
xkaw resinkilebʼ</w>
xe ye</w>
xak aban</w>
x tzʼejwal</w>
x sa</w>
vi erte</w>
veje z</w>
ve ían</w>
us to</w>
un e</w>
tâ cßam</w>
tâ cuabi</w>
tzo lebʼ</w>
tzo laq</w>
trabaj os</w>
tr ía</w>
too rosobʼtesi</w>
too puktesinq</w>
toma mos</w>
tkʼe heʼq</w>
tin colok</w>
ti ß
ti tas</w>
teʼsach eʼq</w>
tex cßanjelak</w>
terri ble</w>
tau man</w>
t y</w>
solu ción</w>
sinago gas</w>
sepul taron</w>
sent í</w>
senci llo</w>
satis fac
sa ba</w>
rê chan
rá neo</w>
rochoch ebʼ</w>
ro mano</w>
ris te
respon derá</w>
ren unci
recha zar</w>
raq oq</w>
racuî mkeb</w>
raar o</w>
r genes</w>
quix lokßoni</w>
quisi era</w>
qui yo</w>
qui sedec</w>
qui rêchani</w>
qui cßutbesîc</w>
que ßajlâc</w>
q o
pí dale</w>
pal mera</w>
pa usa</w>
ox lok</w>
on e</w>
obser var</w>
nu me</w>
nokoo x
ninkße i</w>
nin q</w>
nek ex
naʼ chin</w>
naka truuk</w>
na cuil</w>
me o</w>
mar án</w>
ma tado</w>
ma les</w>
laaw aatin</w>
kʼulu bʼ</w>
ku x</w>
ki tʼaneʼk</w>
keʼ ruuk</w>
ke t</w>
kawa qebʼ</w>
ju stas</w>
jalo l</w>
influ ir</w>
in va
in gen
ho ra
habla ban</w>
hab lé</w>
gri tos</w>
ez uela</w>
esti ma</w>
espa das</w>
esil kʼanjel</w>
esclavi tud</w>
er los</w>
ent riste
en tiende</w>
en oja
el kß
eb in
e m</w>
e dades</w>
dr é</w>
domin go</w>
di chos</w>
descri be</w>
derra mó</w>
debi lidades</w>
deber ían</w>
d lo</w>
câ x</w>
cán cer</w>
cua r</w>
cua kß</w>
cri a
cre emos</w>
converti ré</w>
conf ían</w>
con ferencia</w>
comi endo</w>
comen cé</w>
co lina</w>
ci licio</w>
ci encia</w>
ci dad</w>
chix colbal</w>
chi julticokß</w>
chap bal</w>
chaabʼilo bʼresi</w>
car an</w>
ca yechißi</w>
blan cos</w>
ay ú
apren de</w>
apa cen
ano a</w>
al mas</w>
agradeci do</w>
aa kʼaʼuxl</w>
Y A</w>
Ven ezuela</w>
Tâ cuulak</w>
Ti m
S eraías</w>
S er</w>
S O</w>
Rab sa
R EN
Pi ense</w>
P al
O xloqʼ</w>
Na cuaj</w>
Mel quisedec</w>
Mejo re</w>
M en
LA K</w>
Kaw resi</w>
Jo pe</w>
J ar
Ita mar</w>
INTI OS</w>
I l</w>
Ezequi as</w>
Evangeli zadores</w>
EN SES</w>
E se</w>
E L
Do min
Câ hib</w>
Ch ris
Ch ebânu</w>
COR INTIOS</w>
CON VER
BʼE J</w>
AÑ O</w>
Ana to
Ab días</w>
ANA W</w>
A D
17 5</w>
, 6
yajer q</w>
xyâba k</w>
xxu tâneb</w>
xqa taw</w>
xoo xtenqʼa</w>
xkʼa tq</w>
xeʼ xkʼut</w>
xb is
xaa kʼoxla</w>
x ôqueb</w>
x cuanquilal</w>
wula jaq</w>
vio lento</w>
tzßap tzß
tzac anquil</w>
tuvi eran</w>
tr é</w>
tqa patzʼ</w>
tom é</w>
tnum eʼq</w>
tix tau</w>
tix kol</w>
tix jolomi</w>
tin kanabʼ</w>
teʼx tzʼeqtaana</w>
testi monios</w>
tar la</w>
ta qʼa</w>
t sahoʼq</w>
sut s
suf re</w>
sue le</w>
su pi
su erte</w>
sor presa</w>
simp lemente</w>
si ik</w>
si ho
si cos</w>
servi do</w>
se cre
satis f
sabi endo</w>
s ten
roc ío</w>
ro sos</w>
rixaki leb</w>
reuni do</w>
relaciona dos</w>
reg is
re ver
re o</w>
rar ô
quix cut</w>
queßx tiquib</w>
queß chakßoc</w>
qa naʼ</w>
puer til</w>
pu chß</w>
po stol</w>
peri o</w>
perdon ó</w>
paabʼa je
oy en</w>
osobʼtes iik</w>
ok lyn</w>
oc é
obli gación</w>
no vio</w>
no bles</w>
nequeß chal</w>
nekeʼ tzolok</w>
nekeʼ puktesink</w>
necesi tados</w>
nakaa taw</w>
mê bânu</w>
muxb ilak</w>
mu s
medi o
mar cha</w>
maa kanabʼ</w>
lo ch
lle guen</w>
lla maron</w>
lin tij</w>
kʼa am</w>
kʼ ee
kßus bal</w>
kß bal</w>
kixja lebʼ</w>
kiri lebʼ</w>
ke ch</w>
kan ser</w>
ka xlan
ju rado</w>
isi iq</w>
ini cia
inicia tiva</w>
inc lin
in feri
in e</w>
idola tría</w>
i homebʼ</w>
i hak</w>
hob bal</w>
habla ré</w>
grande za</w>
frag mento</w>
evolu ción</w>
escri tor</w>
esco ger</w>
encen dió</w>
en da</w>
em ba
e zo</w>
e le</w>
dur os</w>
do mi
distin gui
di ari
descen der</w>
des anima
dedi carse</w>
cutanob resi</w>
cu encia</w>
cre yeron</w>
consi ste</w>
conse j
consagra do</w>
con viene</w>
comen ta</w>
colum na</w>
cla mó</w>
châ lel</w>
chßeß bal</w>
chire kabʼlal</w>
chanchan ex</w>
cen tro</w>
cana bâc</w>
can tar</w>
ca ña</w>
c ta
ban dera</w>
baj a</w>
ba sta</w>
avergon zado</w>
ari m</w>
apli car</w>
aj sibʼaal</w>
aj eb</w>
adversa rios</w>
acostu mbra
aborre cen</w>
a u</w>
a man
XYU ʼAM</w>
Vu el
Ton y</w>
Ti r
Ten ía</w>
Taa taw</w>
T us</w>
T qa
Sig nifi
Se ír</w>
SO L</w>
SA QʼE</w>
Ruu chich</w>
RE HEBʼ</w>
Qui enes</w>
Queß xyîb</w>
O m
Num ta
NA S</w>
Mediter ráneo</w>
Maaʼ ani</w>
MAR COS</w>
M is</w>
Lo qʼ
KI Y
K SI</w>
Imi temos</w>
Haz te</w>
Gre cia</w>
Es per
En ero</w>
E res</w>
E len
E la</w>
DA TOS</w>
D ía</w>
CONVER SA
BʼI CH</w>
Bʼ utʼihaʼ</w>
BÍBLI CAS</w>
Bro oklyn</w>
Alej an
8 9
6 000</w>
1 40</w>
ʼ in</w>
ûn c</w>
î bac</w>
ê rukß</w>
ê ban</w>
yô ko</w>
xqa kʼoxla</w>
xni mo
xna ubal</w>
xb en
xaq xo
xa cuil</w>
x xokbʼal</w>
x tuqtuukilal</w>
x maatan</w>
x jekʼ
vide o
ven cido</w>
utili zó</w>
tû b</w>
tê lokßoni</w>
tâ cßu
tzʼ ejwa
tram pas</w>
tra tamos</w>
to ca</w>
tix kßaxtesi</w>
tin quil</w>
ti xkʼojobʼ</w>
ti el</w>
teʼ wulaq</w>
tenqʼa q</w>
ten cias</w>
tem áis</w>
tan quil</w>
ta ste</w>
ta se</w>
t ándose</w>
t ábamos</w>
suce dido</w>
su po</w>
si bʼil</w>
señ ora</w>
semej antes</w>
segu ían</w>
sa ma</w>
sa la</w>
s tra
s inq</w>
rompi ó</w>
ro manos</w>
reve la</w>
regoci jo</w>
re pi
re emp
rahobtes inbil</w>
ra qʼ</w>
ra q</w>
r íamos</w>
qui zá</w>
queßx takla</w>
que dan</w>
q el</w>
provin cia</w>
predi ca</w>
preci osas</w>
pon go</w>
po tencia</w>
po j
pi tzʼ</w>
pelí cu
pe j</w>
orde nan
on itas</w>
oksi haq</w>
obtes in</w>
o las</w>
nue ve</w>
niquin ê
niquin â
neque qßue</w>
nekeʼ xyiibʼ</w>
nekeʼ paabʼank</w>
nekeʼ kamk</w>
nax takla</w>
naq oybʼeni</w>
naca cßoxla</w>
na ve
mi llares</w>
menciona do</w>
me tió</w>
ma d</w>
m îg</w>
lin kʼaʼuxl</w>
lin kokʼal</w>
limp ios</w>
limi taciones</w>
libra r</w>
liba ción</w>
le yó</w>
laa Yos</w>
la drón</w>
l ló</w>
kʼi hebʼ</w>
kix seeraqʼi</w>
kix chap</w>
ki xkʼubʼ</w>
keʼx paabʼ</w>
ka toolk</w>
jun laju</w>
ju kʼ</w>
in un
in tzolom</w>
in tenqʼankil</w>
in fi
impi edad</w>
hu ido</w>
ho be
histo ri
gar anti
gan se</w>
fi ja</w>
estatu to</w>
en ojo</w>
emp le
eer ikʼin</w>
derro tó</w>
demostra ron</w>
decla ró</w>
de tenga</w>
de do</w>
da remos</w>
cßa tekß</w>
cßa heb</w>
cß ot</w>
cua rib</w>
cua mîg</w>
cu ra</w>
cu este</w>
cre cimiento</w>
cre ciendo</w>
cre a</w>
cose cha</w>
cor rió</w>
conte mp
con diciones</w>
comien ce</w>
colab ora
cin to</w>
ci era</w>
cho k
cen so</w>
casa dos</w>
candelab ro</w>
cab ríos</w>
ca mi
ca cuilal</w>
bor de</w>
bi lex</w>
becer ro</w>
be c
ban bileb</w>
auto r</w>
at k</w>
arre pi
ar der</w>
an dan</w>
ak l
acep te</w>
ac ci
abʼ ebʼ</w>
abier tos</w>
a ter
a poder
a ec</w>
X eß
Vo sotros</w>
To das</w>
Tix qßue</w>
Tat xic</w>
Su cot</w>
SO BRE</w>
Ri ta</w>
PAABʼ AL</w>
Oc tubre</w>
O tros</w>
O K</w>
Ne queßx
M as
Loqʼ laj</w>
LIN YUʼAM</w>
I LAL</w>
Ho reb</w>
Hebre o</w>
Ha sab
Ha ce</w>
Filis teo</w>
Filis tea</w>
Escu cha</w>
En tre</w>
Elia quim</w>
EE TALIL</w>
Co hat</w>
Chʼolo bʼ</w>
CONVERSA CIÓN</w>
CHI RU</w>
C ß
C e
Anato t</w>
Abi ram</w>
Ab ril</w>
5 9
û ch
ô r</w>
ó bulos</w>
î tzß
îtzß inbej</w>
â tin
â mâc</w>
â l
yii bʼru</w>
xâ b</w>
xw enteninkil</w>
xti q
xti j
xkʼa y
xin ê
xbʼe lebʼaal</w>
xaqabʼan kil</w>
xak xô
xaa tzol</w>
x taklan</w>
x Noemí</w>
w as</w>
volun tarios</w>
vivi ente</w>
vi les</w>
ver ás</w>
ver io</w>
v án</w>
tô nal</w>
tê mayeja</w>
tzʼaa maq</w>
tuk tu</w>
troso bʼtesi</w>
tra s
tra baj</w>
toox kol</w>
to man</w>
to cuânk</w>
tix mux</w>
tin ra</w>
ti q
ti llo</w>
teʼx sikʼ</w>
teʼ xkʼulubʼa</w>
teʼ xkʼojobʼ</w>
teß ilok</w>
teer il</w>
te levi
tat x
tar te</w>
tal ón</w>
taaw ekʼa</w>
sufri do</w>
subi do</w>
so p
si hom</w>
seʼ e</w>
ser vía</w>
sepul tado</w>
sen tados</w>
se kʼ</w>
se co</w>
santi lal</w>
san a</w>
samari tan
sal mos</w>
sacerdo cio</w>
sab é</w>
saaj ebʼ</w>
sa cado</w>
ru ido</w>
ru cßaheb</w>
roso bʼtesihom</w>
ro ß</w>
ri es
res titu
reemp la
redi mi
recibi rán</w>
recibi rá</w>
re tribu
re ctos</w>
raatino bʼaalebʼ</w>
r í</w>
quix xoc</w>
quin tal</w>
qui as</w>
qa kʼoxlaq</w>
qa chʼuut</w>
profun da</w>
pro ced
pregun tan</w>
precurso ra</w>
pone mos</w>
pla gas</w>
perso naj
personaj es</w>
pedi mos</w>
patzʼ ok</w>
ox lac</w>
ofre cerá</w>
ofre cen</w>
obede ce</w>
o maq</w>
o iga</w>
nu jenaq</w>
nokoo xik</w>
nokoo tzʼaqonk</w>
niquin eß
nin taw</w>
nin bʼanyoxi</w>
ner vi
nekeʼ risi</w>
nekeʼ chalk</w>
neb aß
nax sahobʼresi</w>
nachß oc</w>
na tauman</w>
na kʼutbʼesink</w>
na cer</w>
mura llas</w>
mora l</w>
ministeri ales</w>
me m</w>
me ex</w>
ma ras</w>
ma qʼ</w>
lo mak</w>
le k</w>
laa sumlajik</w>
kʼutbʼesi haq</w>
ki xyoo
ki xaqabʼaak</w>
ki s
ki jalaak</w>
kana bʼebʼ</w>
kab i</w>
inacti vos</w>
il bʼil</w>
habla rá</w>
habi taba</w>
gus taba</w>
gl óbulos</w>
ga dores</w>
fu mar</w>
for mó</w>
exa cta</w>
ex presiones</w>
espi gas</w>
es tra
es inq</w>
ero t</w>
entre gar</w>
ent era</w>
en temente</w>
ecß ânk</w>
dig nidad</w>
di luvio</w>
di ablo</w>
desaf íos</w>
depen de</w>
dego lla
deci ó</w>
de vas
dar lo</w>
da les</w>
cuak xak
cu mbre</w>
cru zar</w>
cre ído</w>
cono zca</w>
compañ ía</w>
co le</w>
co bre</w>
ci ster
chʼo laak</w>
chʼ mul</w>
chiri lbaleb</w>
cha wu</w>
cha qʼal</w>
cha leb</w>
car éis</w>
car gas</w>
can tores</w>
ca sado</w>
bʼ on
blan ca</w>
b ella</w>
ayu ʼami</w>
ata que</w>
arre p
ar go
apren da</w>
ani heb</w>
afir man</w>
actu ado</w>
acer cará</w>
Y AAL</w>
X TZʼA
W BʼAL</w>
TI CO</w>
T es
Si gamos</w>
Se ptiembre</w>
San son</w>
RA QAL</w>
Quix takla</w>
QO Bʼ</w>
Oxi b</w>
Ne tanías</w>
NA KA
LAA K</w>
JUN ELI
JUNELI K</w>
JEREM ÍAS</w>
IN O</w>
G os
G es
G al</w>
Fine es</w>
F ELI
ENSEÑANZ AS</w>
E li</w>
Di ciembre</w>
D er
C am</w>
Bet sabé</w>
Asa el</w>
7 9
6 8
2 ,000</w>
, 8
, 0
ó gi
ñ ado</w>
â m</w>
â cßabaß</w>
á tica</w>
ß eb</w>
zar me</w>
ye haq</w>
xu w
xsa abʼ
xqʼ us</w>
xnum si</w>
xin yehoc</w>
xeʼ xkʼoxla</w>
xcha ʼal</w>
xbʼ en
xbi o
xaa wil</w>
x sicßbal</w>
x mayejeb</w>
x chʼochʼ</w>
x chßîchß</w>
x chakß
x bʼan
waʼ chin</w>
w 00</w>
vi vamos</w>
ver sión</w>
ver nos</w>
ver es</w>
ver ano</w>
ut ûnk</w>
tâ yîb</w>
tâ cuy</w>
tzʼi lmank</w>
tq ilebʼ</w>
tooʼ oq</w>
too koleʼq</w>
termina do</w>
temp rano</w>
tat tzoloq</w>
ta ria</w>
ta dor</w>
sum su</w>
si b</w>
sepulc ros</w>
senti rá</w>
sachs ôqueb</w>
sache cß</w>
sach ebʼ</w>
sa cß</w>
s esi
râ m</w>
ru xtâna</w>
rosoß jic</w>
ro kik</w>
riti smo</w>
ri yaj
regi onal</w>
re comen
rana b</w>
rahobtes inbileb</w>
ra dor</w>
qʼun il</w>
quilaj xbânu</w>
qui sahoß</w>
qui cßameß</w>
queßx tzßâma</w>
queß xucuac</w>
queß ru</w>
quex cuan</w>
quetô mkeb</w>
querub ín</w>
qu éis</w>
qu é
qa yanq</w>
qa tumin</w>
prof esi
presen tará</w>
por teros</w>
pon ía</w>
pien so</w>
pi den</w>
perpetu o</w>
pari ente</w>
paabʼan elil</w>
p uni
oxi beb</w>
os tas</w>
orgullo so</w>
on ó</w>
o ʼk</w>
no logía</w>
nequeß âtinac</w>
neque tau</w>
nekeʼ rabʼi</w>
ne gó</w>
naʼabʼ ink</w>
naqa patzʼ</w>
nakaw uuk</w>
na xb
na cßamoc</w>
mue ve</w>
muchedu mbre</w>
mo l</w>
mo a</w>
minu tos</w>
minis tro</w>
mez cla
medi cina</w>
man tuvo</w>
mama ʼ</w>
m í
lími tes</w>
len quil</w>
leera lal</w>
le mos</w>
lan bʼil</w>
la drones</w>
kʼay naqebʼ</w>
kßa c</w>
kix taqlahebʼ</w>
ki sumlaak</w>
ki kʼemank</w>
kaxlan wa</w>
kaw uuk</w>
je arim</w>
ja ch
is la</w>
inter nacional</w>
instru cción</w>
infi erno</w>
in stante</w>
in metzßêu</w>
in camsinquil</w>
impu reza</w>
he chi
ha yamos</w>
gl ón</w>
gan chos</w>
g aba
fortifi cadas</w>
fa ti
espal da</w>
escu chan</w>
es fuér
enoj ó</w>
ejcua lej</w>
económi cos</w>
e w
e ca</w>
di cha</w>
desta ca</w>
de le</w>
de ce</w>
dar te</w>
cá maras</w>
cu yos</w>
confir ma</w>
comer ás</w>
come ter</w>
co sta</w>
chʼut lebʼaal</w>
chi wanq</w>
ce la</w>
cauti verio</w>
car les</w>
cana bomak</w>
cal le</w>
ca ída</w>
ca ras</w>
ca len
c ese</w>
bʼan el</w>
bʼ el
bus có</w>
bre vemente</w>
bi soc</w>
ba s
b rin
ar ían</w>
anun ció</w>
ani haq</w>
amo roso</w>
amo ni
ali vio</w>
ajulti ka</w>
acu mu
a yu</w>
Z é
XTZʼA QOBʼ</w>
X o
V al
To da</w>
TU U
TES INK</w>
So y</w>
R AATI
RAATI N
RAATIN ANKIL</w>
Por tu
P reg
Om ri</w>
NEKEʼ X
NA RAJ</w>
N i</w>
Lin e</w>
Laa ʼa
Jor dan</w>
Jo qʼe</w>
Jef te</w>
HE BRE
H usa
H ace
Gri ego</w>
Fa res</w>
F or
E glón</w>
Chi cuânk</w>
CHAABʼ IL</w>
CAN CIÓN</w>
C al
BʼAAN U</w>
Bʼ oq</w>
BENEFICI OS</w>
AA Bʼ</w>
A u
A ro
2, 0
2 50</w>
15 1</w>
1 Te</w>
ê rîtz</w>
ê junes</w>
â cuîtz</w>
Í TICO</w>
za ra
zara dán</w>
yâ b</w>
yoʼ on</w>
yo tʼ
ya loq</w>
y ebil</w>
xu taan</w>
xu c</w>
xsaabʼ esinkil</w>
xlokßon iheb</w>
xkʼu l
xkʼi hal</w>
xka ye</w>
xka a
xjekʼ inkil</w>
xi wak</w>
xeß chal</w>
xcu abi</w>
xca mic</w>
xaq li
xaa bʼ</w>
x wu
w2 20
vivi do</w>
viu das</w>
vigi lan
vi te</w>
ve inti
va yamos</w>
ul unic</w>
uir tesi</w>
transfu siones</w>
trabaj ado</w>
tqa jal</w>
too tzʼaqonq</w>
toma d</w>
tix ra</w>
ti beleb</w>
teʼ xkʼutbʼesi</w>
teʼ naʼlebʼaq</w>
teßx tzßâma</w>
teß xtau</w>
testi fi
te mores</w>
ta cua
sir van</w>
signifi can</w>
siemb ra</w>
si iy</w>
seri e</w>
se la</w>
satisf acción</w>
sadu ce
sa carle</w>
sa c</w>
roybʼen ihomebʼ</w>
ri ón</w>
requisi tos</w>
ren di
ren cor</w>
religi oso</w>
relaciona das</w>
reac cionó</w>
re vel
re h
re cos
ra to</w>
ra laleb</w>
qʼ us</w>
queßx tzßektâna</w>
que mó</w>
qa tenqʼ</w>
puni t</w>
propi edad</w>
produ cir</w>
presen taron</w>
po k</w>
pla ta
pi lares</w>
peti ción</w>
pater na</w>
palto ʼq</w>
pa ja</w>
ocurri rá</w>
occi dente</w>
obede cemos</w>
o presión</w>
novi a</w>
nequeßx sicß</w>
nequeß jolomin</w>
necesari as</w>
ne as</w>
naʼux mank</w>
nax canab</w>
naqa kʼulubʼa</w>
naca t</w>
na xyuʼami</w>
na pâban</w>
na chakic</w>
na a
n ó</w>
n ios</w>
mer ca
men tales</w>
mal nawom</w>
lámpa ras</w>
llo rando</w>
llan ura</w>
laaw ech
l îk</w>
l le</w>
kʼutu q</w>
kʼulu k</w>
kuy ebʼ</w>
ko ho</w>
keʼ rabʼi</w>
kaa x</w>
ka rey</w>
jun qal</w>
ju ego</w>
jaljo okil</w>
ixqi winq</w>
invi tó</w>
inspi rada</w>
in bʼeen</w>
i remos</w>
i chal</w>
hora rio</w>
hermo sas</w>
hered arán</w>
habla remos</w>
golpe ó</w>
gaba onitas</w>
fu isteis</w>
f la
extra ños</w>
esi heb</w>
esca par</w>
es enci
entre n</w>
en du
déci mo</w>
des ánimo</w>
debi lidad</w>
cui lbal</w>
cu ch
cre ció</w>
corru pción</w>
corri endo</w>
cono ció</w>
confi aba</w>
comer ci
com par
chß inânk</w>
chix cu
cha ßa
cha malnawom</w>
car los</w>
can to</w>
ca lidad</w>
bʼi haʼ</w>
bʼa manq</w>
bi lin</w>
ber es
bec bil</w>
beb e</w>
au tén
apren der
apaci bilidad</w>
am bal</w>
ala r
ak ônk</w>
agradeci miento</w>
ag resi
ade cua
ac aba</w>
abʼ oq</w>
abandona ron</w>
a ti
a camp
X ʼa
Ti enen</w>
Taa ye</w>
Ta q
TA R
Su cur
Se fa
Sa m
SO TROS</w>
SE R</w>
Quix cßam</w>
Preg ún
PASA DO</w>
PA R
OB TEN
Noe mi</w>
Nabu zaradán</w>
NO SOTROS</w>
NI M
Ma tanías</w>
L ok</w>
L au
Haz or</w>
G I
Eli ja</w>
D U
Cßa ß</w>
Che x
Chanchan in</w>
CHʼA ʼAJ
Bienaventu rado</w>
Aqu el</w>
Ac án</w>
A marías</w>
A C
- Inc</w>
ʼawabʼej ink</w>
â cuochben</w>
Ó V
ÓV ENES</w>
Ó N
zar é</w>
yô kin</w>
yoʼ yo
xu tânâk</w>
xto qʼo
xrah inkil</w>
xnum ta</w>
xkʼulu bʼebʼ</w>
xka chʼinal</w>
xjolomin kil</w>
xcß oxlanquil</w>
xcua k</w>
xco mon</w>
xchakß al</w>
xcaß bi
xbʼoq bʼal</w>
xat chal</w>
xakab anbil</w>
xa qibʼ</w>
x êb</w>
x seera
x seebʼal</w>
x chʼolan
x Noemi</w>
wakles iik</w>
vu l
volunta rias</w>
vien tos</w>
vi ste</w>
verdader amente</w>
va das</w>
uu q</w>
tân âc</w>
tâ risiheb</w>
tâ nau</w>
tzʼejwa lej</w>
tzʼaqa laq</w>
tzß ocâk</w>
tw ekʼa</w>
tuvi mos</w>
tooʼeʼ xtenqʼa</w>
tomar án</w>
tix chʼolobʼ</w>
tineßx camsi</w>
tin câmk</w>
tik laaq</w>
tebin qßue</w>
te z</w>
te li
tau heb</w>
taa tikibʼ</w>
ta ba
t ían</w>
t éis</w>
t tiklaaq</w>
t rekʼa</w>
t kʼiiq</w>
st ó
sex to</w>
servi rán</w>
senti rnos</w>
sen o</w>
satisfe chos</w>
san os</w>
sal mo</w>
sa la
roybʼen ihom</w>
ro sas</w>
ritu ales</w>
ri lobâl</w>
reve lado</w>
responsab les</w>
ref lej
reci do</w>
reac ciona
re velación</w>
razona ble</w>
raq ik</w>
raj sinkil</w>
ra dio</w>
qʼetqʼe til</w>
qʼ ol</w>
quix kßaxtesiheb</w>
qui yehoc</w>
qui to</w>
qui tas</w>
queßx kßaxtesi</w>
queß chapeß</w>
que bânu</w>
profeti zó</w>
pre juicio</w>
poli siiy</w>
permi so</w>
peque ñas</w>
pensa miento</w>
pe ca</w>
pa ga</w>
p ér
orgullo sos</w>
ora ba</w>
o remos</w>
o fi
nume c</w>
nequeß ril</w>
nequeß numeß</w>
neque q</w>
nequ era</w>
na rahoc</w>
n înk</w>
médi ca</w>
mu estre
muestre n</w>
mir ra</w>
mi endo</w>
mi dió</w>
me tida</w>
maravillo sa</w>
madiani tas</w>
lle vamos</w>
lle nas</w>
li ter
li gente</w>
laje naq</w>
laabʼ eelom</w>
la mento</w>
kʼan k</w>
kßaj câmunquil</w>
kß ob</w>
kiʼ elelik</w>
ki ʼa
ki chʼinaak</w>
keʼ tzʼiibʼank</w>
ka lak</w>
k laju</w>
ju sta</w>
jar ub</w>
j r</w>
inten tó</w>
inten ción</w>
inmora les</w>
ine a</w>
imag ina</w>
i leʼq</w>
i de
hu e
hon ra
histo rias</w>
hi stó
he bʼaal</w>
gu er
gri pa</w>
gobier ne</w>
gi da</w>
gener osos</w>
fun ción</w>
fu ria</w>
fu esen</w>
fi lo</w>
fi ca
faci lidad</w>
f ino</w>
existi r</w>
ex tiende</w>
específi co</w>
espa cio</w>
escu chando</w>
es qui
er nes</w>
er le</w>
enseñ ore
encan taba</w>
en fr
e tal</w>
du mbre</w>
distin ción</w>
destru iré</w>
deso lada</w>
der as</w>
dej ando</w>
defen der</w>
de jemos</w>
de creto</w>
cô in</w>
cß oc</w>
cuî tzßin</w>
cu echßalal</w>
cri ti
crey entes</w>
confi ó</w>
codi ci
cion e</w>
chin â
ch eßx
cau tivo</w>
casti garé</w>
capi tal</w>
capaci tación</w>
cadá veres</w>
c ú
bu tß
bich ânc</w>
bi chan
bi cha</w>
bi bli
balakß ic</w>
ba kel</w>
azu fre</w>
ayu das</w>
asig naciones</w>
ar ru
apo ya</w>
ape nas</w>
ani m
an k</w>
alegr ó</w>
al ónica</w>
adver tencia</w>
aconse ja</w>
abando nar</w>
ab solu
aa wamiiw</w>
Ya lak</w>
XIN TAW</w>
WI IBʼ</w>
WA Bʼ
W al
W ANQ</w>
UM EN</w>
To ma</w>
Tes alónica</w>
Ten emos</w>
T í
Sofon ías</w>
Se jón</w>
Se gu
Sa ch
Ra jom</w>
RES UMEN</w>
Q I
Pa ul</w>
Mâ cßaßak</w>
Medi a</w>
Mat xucuac</w>
Ma aj
M al</w>
Lib na</w>
Les li</w>
LEV ÍTICO</w>
L â</w>
Kʼ u
Junta kß
Joh n</w>
Jo c
Jeri co</w>
Jac k</w>
JU NAQ</w>
J ÓVENES</w>
J aa
I r
Hil quías</w>
H emos</w>
Gu inea</w>
Georg e</w>
Eli sama</w>
E F
Cre es</w>
Chin âtenkßa</w>
Chi ka
Cha twanq</w>
Car melo</w>
Ca m
CHIX JUN
Bʼ an
Bil dad</w>
B A
AN U</w>
AABʼA ANU</w>
A y
A gripa</w>
A g
A ajel</w>
A LI
5 5
17 8</w>
17 3</w>
1 22</w>
1 16
- Cui</w>
ʼ bʼ
ʼbʼ eetalil</w>
ÍCU LO</w>
É u
Éu frates</w>
yu c</w>
y eb</w>
xyaʼa l</w>
xnu me</w>
xka c</w>
xjuntaqʼ ee
xin wulak</w>
xeʼ kubʼeek</w>
xer abi</w>
xbʼe hil</w>
xbis bal</w>
xba lak</w>
x tzacanquil</w>
x cßul</w>
x chi
x camsinquileb</w>
x bʼihomal</w>
w0 2</w>
vig or</w>
venta nas</w>
ve lo
valo rar</w>
usa aq</w>
u ri
tê risi</w>
tê rabi</w>
tâcu ye
tâ cßutûnk</w>
tzʼa q</w>
tuktû quilal</w>
trabaj ador</w>
tra taron</w>
tra tamiento</w>
tqa tenqʼahebʼ</w>
to b</w>
tix tzaca</w>
tix naw</w>
tix kawresi</w>
tin ʼ
tin eß
teʼ xloqʼoni</w>
teʼ tzʼaqonq</w>
teʼ rabʼi</w>
teʼ kubʼeeq</w>
televi sión</w>
tat xik</w>
taa kʼutbʼesi</w>
ta qe</w>
t émonos</w>
su ti</w>
st ía</w>
sir vió</w>
si in</w>
seß e</w>
seri o</w>
segu ramente</w>
sal drán</w>
sak ê
s mal</w>
roso bʼtesihebʼ</w>
rom per
ro ßcßâl</w>
ro jo</w>
riyaj il</w>
ri da</w>
responsab le</w>
respe tamos</w>
res pi
refle ja</w>
reci én</w>
qʼus eʼk</w>
qʼax ok</w>
quixb is</w>
quix ucuac</w>
quix tiquib</w>
qui tar</w>
queß xnau</w>
qa yuwaʼ</w>
qa wankil</w>
profun di
pro visiones</w>
pro por
preocup aba</w>
postra ron</w>
poli s</w>
pla za</w>
permi tido</w>
pa remos</w>
oxlo qʼa
olo nel</w>
oc rá
nokooʼeʼ xtenqʼa</w>
niquin eßx
nin tau</w>
nin paabʼ</w>
nekeʼ roybʼeni</w>
naß oc</w>
nax seeraqʼi</w>
nax cßoxla</w>
naq abʼi</w>
nakaa kʼul</w>
naj al
na kin</w>
na joskßoß</w>
mé todos</w>
mina dab</w>
memori al</w>
mayej âk</w>
matri z</w>
man dad</w>
man d
ma dura</w>
ma as</w>
m íni
m eras</w>
loca les</w>
lo do</w>
llo ró</w>
lleg aba</w>
lin bʼeelom</w>
lib rio</w>
kʼajo lbʼej</w>
kʼa s</w>
kß ojyî
koʼ bʼeetak</w>
ki taqlank</w>
ki bʼaanumank</w>
keʼ xkamsi</w>
ka chʼinal</w>
k î
ju e
jar u
invi tados</w>
hon rados</w>
homb ro</w>
hab íamos</w>
gus tó</w>
goberna dores</w>
go sta</w>
gar án</w>
fu ri
for mado</w>
existi rá</w>
exi sten</w>
exa cto</w>
esta remos</w>
esp inos</w>
esfor z
equi librio</w>
equi librado</w>
en comen
egip cio</w>
económi ca</w>
e tí
e fica
discerni miento</w>
dirig entes</w>
diri gió</w>
di e
dese aba</w>
descien de</w>
des tina
des am
dej es</w>
dej aré</w>
d â
cßacßal ênc</w>
cßa teß</w>
cuakxak laju</w>
cr é
cono ces</w>
con taron</w>
comuni cación</w>
co lor</w>
cic lo</w>
chaß keb</w>
chap eb</w>
chanchan o</w>
ce lo
camin a</w>
calami dad</w>
ca remos</w>
bʼ res
bon ita</w>
ban quileb</w>
b ok</w>
b abilo
ata wank</w>
ar tes
ani hat</w>
amar gura</w>
alrede dores</w>
ali anza</w>
al zada</w>
a divi
WABʼ EJ
W RES
U ziel</w>
U SA
Tê bânu</w>
T ÍCULO</w>
T r
Salu d</w>
Sal mos</w>
SI N
SI EMP
SIEMP RE</w>
Qu im
Q oksihaq</w>
Pala u</w>
P r
Ne guev</w>
N er
M anoa</w>
Laaʼ o</w>
Je tro</w>
H ur</w>
Gos én</w>
Fili pos</w>
FI CA</w>
Evangeli os</w>
Es tamos</w>
E V
DO NA
D ANI
Cuu kub</w>
Cu ac
CONTEST E</w>
CH ʼ</w>
C aldea</w>
Bʼ E</w>
B os
Ala ba
Abiga íl</w>
AR TÍCULO</w>
A minadab</w>
8 0
6 6
1 13</w>
ʼan ebʼ</w>
ándo me</w>
á c
ác ter</w>
yumb ê
yu ßameb</w>
yoß yôqueb</w>
y era</w>
xʼA n
xu cû
xtzʼ uu
xtzʼuu mal</w>
xtaw bʼalebʼ</w>
xseera qʼinkil</w>
xra hi</w>
xmâl ca</w>
xlaj e</w>
xeʼ xkʼulubʼa</w>
xeʼ rekʼa</w>
xeßx cßul</w>
xe ß</w>
xaqabʼan k</w>
xaq xo</w>
xak xôqueb</w>
x tzol</w>
x ex</w>
x chʼina</w>
x chʼaʼajkoʼk</w>
waq xaqibʼ</w>
vuel tas</w>
val entía</w>
uni o</w>
tô n
tí tulos</w>
tê q</w>
tâ a
tzʼi ʼbʼeetalil</w>
tro pas</w>
trans por
tranqui lo</w>
traho bʼtes
tqa kuy</w>
tor mento</w>
to jo</w>
to dopoderoso</w>
to car</w>
tix cßut</w>
tin nau</w>
tin k</w>
tin cßul</w>
teʼ xkawresi</w>
teß xcßat</w>
tex câmk</w>
ter ía</w>
temp estad</w>
taq enk</w>
ta ß
ta lla
ta dores</w>
t ío</w>
t és</w>
suce da</w>
su stitu
su me
sto n</w>
sor dos</w>
so lem
sir va</w>
si q</w>
si lv
señ ores</w>
servi mos</w>
senti miento</w>
segui do</w>
seeraqʼ ik</w>
sal vos</w>
sa qué</w>
sa kʼ
ru eb
reuni rse</w>
respe tu
resi heb</w>
represen tan</w>
re t</w>
raj lan
qʼu suk</w>
qʼetqʼe ti</w>
qʼe hink</w>
queßx letz</w>
queß cßamoc</w>
que mar</w>
qu el</w>
pó cri
profeti za</w>
pro lon
pro ceso</w>
pre cia</w>
posi bilidad</w>
plen a</w>
plan tas</w>
pier da</w>
par to</w>
pala cios</w>
p re</w>
opini ones</w>
op ina</w>
oksi manq</w>
o lla</w>
nokoo ʼabʼink</w>
nokoo ril</w>
no mbró</w>
nekeʼx tzʼeqtaana</w>
nekee kʼe</w>
ne y</w>
naʼ isiik</w>
nax qßueheb</w>
nax ch</w>
nari leb</w>
naqa t</w>
naka c</w>
na bʼeresink</w>
n y</w>
mostra ré</w>
moabi tas</w>
mo dos</w>
mo der
mili tar</w>
me c</w>
mar tillo</w>
lo ß</w>
lle ve</w>
li da</w>
lab oral</w>
la mos</w>
kʼa y</w>
kß ol</w>
kubʼe naq</w>
ku bʼihaʼ</w>
ko ch
ki raqeʼk</w>
keʼx patzʼ</w>
keʼ roksi</w>
keʼ chalk</w>
j l</w>
insensa to</w>
incli na
in josqʼil</w>
impedi r</w>
im perfección</w>
ig nor
ia dá</w>
hu eso</w>
ho sti
hacer les</w>
habla rle</w>
hab rían</w>
gus tan</w>
ga nan
g 16
fu entes</w>
fra u
for mada</w>
f esti
ez an</w>
excep to</w>
exa minar</w>
espo sos</w>
espal das</w>
esfuer za</w>
escri tores</w>
envi é</w>
en t</w>
empe ño</w>
emp ren
emb os
eli minar</w>
ee kʼajol</w>
edi ficios</w>
e la
dur ó</w>
des is
deci dieron</w>
deci d</w>
da das</w>
cuu xtân</w>
culp ables</w>
cos tas</w>
convi erte</w>
conoz camos</w>
conci bió</w>
comien za</w>
co ß</w>
chʼina nk</w>
chok înc</w>
chix pâbanquil</w>
chi sahokß</w>
che nauhak</w>
ch ßaj</w>
cau sado</w>
car ácter</w>
ca só</w>
ca paces</w>
bʼan eʼk</w>
bʼalaqʼ ik</w>
bʼ resin
bol sa</w>
bio grafía</w>
bene ficio</w>
b ru
ayud ante</w>
atra v
as tes</w>
ar wi</w>
ano che</w>
ani hin</w>
agra dó</w>
advir tió</w>
aconte cerá</w>
ac ceso</w>
ab ru
a gi
a fi
Z imri</w>
X u
Tir sa</w>
T or
T emán</w>
So f</w>
Si ba</w>
Se la</w>
S ó
S ER
Re pública</w>
R Á</w>
R eetalil</w>
Qui ril</w>
Queß xcßam</w>
Qayu waʼ</w>
Pro fe
PU K
P ele
Nu estra</w>
Ne que
NAKA ANAW</w>
Mal quías</w>
M ú
Lis tra</w>
La men
KIXJA L</w>
Jona dab</w>
Jo ʼ
Jeho iadá</w>
ISA IAS</w>
Hasab ías</w>
Hab rá</w>
HO M</w>
HEBRE OS</w>
H emán</w>
H E</w>
F lo
En contra
Eclesi astes</w>
DANI EL</w>
Chʼ i
Chi pre</w>
Chanchan ex</w>
Caif ás</w>
CHʼAʼAJ KILAL</w>
B ani</w>
Aro er</w>
Ar fa
Alejan dro</w>
Al é
Ah ías</w>
A ris
7 0
6 0
3 3
200 3</w>
- A</w>
, 3
ên s</w>
é tica</w>
é rica</w>
é gue
égue le</w>
â manquil</w>
águi la</w>
Á N</w>
za mbi
zambi que</w>
yu l</w>
xyâba si</w>
xye chißi</w>
xuw ajel</w>
xsahi lebʼ</w>
xoo xyobʼtesi</w>
xo â
xkʼa yi</w>
xin tz</w>
xeʼ roksi</w>
xer il</w>
xa joc</w>
x takl</w>
x selular</w>
x cßutbal</w>
w b
viaj ar</w>
vesti dura</w>
vest í
v á
uni k</w>
ulu c</w>
u semos</w>
tâ isînk</w>
tuq tu</w>
tropi ezo</w>
trabaj a</w>
tqa sume</w>
tqa jultika</w>
to ria</w>
to kß
tni manq</w>
tin taklaheb</w>
tin sacheb</w>
teß êlelik</w>
tex ruuq</w>
temi ble</w>
tee ye</w>
tee kʼe</w>
tat tijoq</w>
taq l</w>
taka c</w>
tab lones</w>
ta tra
ta laj
ta cuaj
ta aj
su i
sincer idad</w>
sin kilebʼ</w>
sala rio</w>
s ebʼ</w>
ru mp
ro to</w>
ri t</w>
regoci j
ree kʼ</w>
rebe laron</w>
re un
re lámpa
re hex</w>
raho kß</w>
rach rachi</w>
ra ʼal</w>
quix taksi</w>
quix pâb</w>
quisi eron</w>
quin a</w>
qui tenkßan</w>
qui k</w>
quebran tado</w>
qabʼaanu haq</w>
qa bʼ</w>
publi cado</w>
provin cias</w>
procla mar</w>
pregun taba</w>
predi có</w>
preci osa</w>
pon ían</w>
polí tica</w>
persever ancia</w>
pasa rán</w>
pa kʼal</w>
p ese</w>
nin cuy</w>
nequeß xcßayi</w>
nequeß el</w>
neque pâb</w>
nekeʼ rahobʼtesiik</w>
nax col</w>
naw ok</w>
naruu chi</w>
naqa kʼut</w>
naq oxloqʼi</w>
nami ento</w>
naca cuil</w>
na rán</w>
na mos</w>
muq mu</w>
mes í</w>
me tal</w>
mb ri
mananti al</w>
ma dres</w>
m wb
lo ʼk</w>
lle gada</w>
llam aban</w>
limpi eza</w>
lig no</w>
liba ciones</w>
levan taré</w>
lee t</w>
le tra</w>
la ridad</w>
kix tikibʼ</w>
ki josqʼoʼk</w>
keʼx sikʼ</w>
kawresi hebʼ</w>
kabʼ ichal</w>
ka cuanquil</w>
ju rar</w>
joʼ kʼi
jo qʼe
invi tar</w>
inten so</w>
inte ligencia</w>
in justos</w>
imp ri
ile ß</w>
hermo sura</w>
her mandad</w>
halla rá</w>
gra nadas</w>
gol pe</w>
fac tores</w>
f il</w>
esfor zarse</w>
enfren tarse</w>
eb ec</w>
e las</w>
docu mento</w>
dire ctamente</w>
di ría</w>
determina do</w>
descen día</w>
dedi camos</w>
de lin
cuu klaju</w>
cuak laju</w>
cu o
cru eles</w>
corre cción</w>
converti rá</w>
cono cí</w>
con tenido</w>
colo res</w>
cister na</w>
ciona rio</w>
ci mos</w>
ci lmente</w>
chʼ eʼ
chß o</w>
chiri bʼil</w>
chiqa junqal</w>
cer ás</w>
característi cas</w>
car mesí</w>
cana banquil</w>
can sado</w>
ca ste</w>
c ón</w>
bʼi laq</w>
bʼ eet</w>
bichan el</w>
baj ó</w>
babilo nios</w>
ba stante</w>
ba i
ba b</w>
aʼa naq</w>
ayudar me</w>
asi entos</w>
as na</w>
arri es
arrep inti
ar gu
anunci ar</w>
angusti ado</w>
am eri
al bo
adora ban</w>
adolesc ente</w>
abʼa r</w>
aborre ce</w>
aa kʼajol</w>
a remos</w>
a pres
XNA WBʼAL</w>
XIN KʼUL</w>
Tin bânu</w>
Te ma</w>
TA CIÓN</w>
Se le
Sab ado</w>
SIG NI
SIGNI FICA</w>
S é</w>
S en
S aba</w>
Re v</w>
Rabsa ces</w>
R ober
R O</w>
PA Í
Oʼ Q</w>
OBTEN IDO</w>
Na raj</w>
N ebo</w>
Mo zambique</w>
Mi l
Laa sumenk</w>
Kʼa jo
Jef one</w>
Hab ía</w>
Ha b</w>
En tre
Ef eso</w>
ENCI A</w>
E cua
Di ce</w>
D OS</w>
Cu alqui
Ca ki</w>
Ca in</w>
CHIXJUN IL</w>
Bʼ TES
Ama sa</w>
ANA Bʼ</w>
7 ,000</w>
1 18
1 15
- Lâex</w>
û chil</w>
óli ca</w>
ín ese</w>
êl kß</w>
é lix</w>
âl êc</w>
yoß obtesin</w>
yoß lajic</w>
yo c
y b
xyî beb</w>
xo mâcob</w>
xkʼa t</w>
xin kʼulubʼa</w>
xeʼ najtoʼk</w>
xcu b
xbala kß
xak lîk</w>
xaa w
x teep</w>
x qʼe
x ji
x Yos</w>
ww w
wii bʼank</w>
wi si</w>
w 98</w>
vin os</w>
ver los</w>
va yas</w>
u se</w>
tê letz</w>
tzßektânan bil</w>
tz bʼal</w>
tro n
transmi tir</w>
tranqui li
tra taba</w>
tra sla
tor cido</w>
tin cuisiheb</w>
tin canabeb</w>
ti tz</w>
ti pos</w>
teʼ xyuʼami</w>
teʼ roxloqʼi</w>
teß chapekß</w>
ten taciones</w>
taz ones</w>
ta i</w>
t taqlanq</w>
t keb</w>
t kaw
t chaabʼilo
sum lajic</w>
su mu
spi ca
so tras</w>
so bor
sikʼ bʼil</w>
si mank</w>
se pan</w>
sal vado</w>
sab réis</w>
rupupi k</w>
roke bʼl</w>
ri nam</w>
ri do</w>
resuci tados</w>
respon día</w>
resplan dor</w>
rei nará</w>
reg istra
rabi heb</w>
quix te</w>
qui sakêu</w>
qui pletic</w>
queßx xoc</w>
qa yehaq</w>
qa tzolbʼal</w>
prote gerá</w>
pregun té</w>
predi can</w>
ple namente</w>
plata forma</w>
plan te
pla zo</w>
permi tir</w>
permi ta</w>
permane cerá</w>
per sua
per seguir</w>
pensa ban</w>
patzʼ mank</w>
pal meras</w>
p lí
p eʼyaal</w>
oyben i</w>
ox cßâl</w>
orde nado</w>
on in</w>
ofrecer éis</w>
ocu pado</w>
obstá culo</w>
o re</w>
nokooʼeʼ ril</w>
ni o</w>
ni mank</w>
ni ca</w>
nequeß xyîb</w>
nequeß rahobtesin</w>
nequeß qßuehoc</w>
nekeʼ xkʼubʼ</w>
naq ik</w>
na tzolok</w>
na kʼabʼaʼiik</w>
na im</w>
na i</w>
musi qʼan
musi kßej</w>
menti roso</w>
matri monios</w>
manda tos</w>
maj estad</w>
ma li
lá sti
lo w</w>
lo jik</w>
lle nar</w>
lin hoonal</w>
levan tarán</w>
le q</w>
lan q</w>
la zos</w>
la ju
l era</w>
kʼi ra
kʼay i</w>
ko kʼaj</w>
ki kʼiik</w>
ki koleʼk</w>
ka k</w>
ka cßajol</w>
ka colbal</w>
k la
joʼ chʼinal</w>
jolomin q</w>
ja cho
infor maron</w>
in xiu</w>
in bʼilebʼ</w>
impresi ón</w>
hor ror</w>
hon rado</w>
hob oc</w>
ho yo</w>
her ida</w>
he cho
ha yáis</w>
h f</w>
guar dan</w>
gri to</w>
gan cia</w>
fortale cer
flu jo</w>
fij émonos</w>
fi eras</w>
f ér
expli cación</w>
estr és</w>
esenci al</w>
escon dió</w>
es enta</w>
er la</w>
entra rán</w>
engen d
ejer ci
e t
e q
e chan</w>
do ctor</w>
dis positivos</w>
di le</w>
di ario</w>
des peda
des falle
deci rse</w>
de fi
cßa jo
cß ojo
cuu silal</w>
cump len</w>
cuak xak</w>
cri ados</w>
compara ción</w>
comp ra</w>
chanchan in</w>
chancha nat</w>
cha qi</w>
ch era
cen tin
ce tro</w>
can taré</w>
cams înk</w>
ca o</w>
ca i
c ándose</w>
c ris
bô ls</w>
bu lo</w>
bondado so</w>
bo k
ble le</w>
bauti cé</w>
bar cos</w>
aten tos</w>
arras tra
argo llas</w>
aqu él</w>
aman tes</w>
adversa rio</w>
adora ron</w>
adolesc entes</w>
ac la
a p</w>
XKA Bʼ</w>
XBʼAAN U</w>
W in
VER DAD</w>
U za</w>
T at</w>
Su rinam</w>
Sa la
Re fa
Re cab</w>
Rab á</w>
RAHO K</w>
R imón</w>
Qu er
Qu ebec</w>
Qa kʼutbʼesihaq</w>
PAÍ S</w>
Ori ental</w>
Magda lena</w>
M AN
Laaʼa t</w>
Ken ia</w>
Jo se
ID A
H ez
H en
H EM
G ue
G ezer</w>
File món</w>
F élix</w>
F OR
Esa u</w>
D EM
Chancha nakex</w>
Ch ebânuhak</w>
Ca t
Ca mino</w>
CH OʼQ</w>
Bau tista</w>
Bar rab
A cer
A bed</w>
9 00</w>
200 9</w>
200 2</w>
2 Pe</w>
1, 3
í tas</w>
ßu cßa
za te</w>
xʼA bi
xʼ ánjel</w>
xʼ Elisabet</w>
xyoʼ lajik</w>
xy ehoc</w>
xu lub</w>
xtu min
xto k</w>
xta ana</w>
xsikʼ bʼalebʼ</w>
xsahi leb</w>
xqʼ us
xqa ye</w>
xqa tzʼil</w>
xnum taak</w>
xnu mik</w>
xma ril</w>
xin yechißi</w>
xeʼ xkʼam</w>
xeʼ kʼanjelak</w>
xe c</w>
xbʼ on
xbi ch
x tzacaêmk</w>
x pê
x ox
x musiqʼ</w>
x jalaak</w>
x Dani
wa si</w>
w0 1</w>
vol vía</w>
vali osos</w>
utu k</w>
ut ch</w>
univer sidad</w>
uni do</w>
u kʼ</w>
tê p</w>
tâyî bâk</w>
tâk en</w>
tzʼii bʼak</w>
tzßî bâc</w>
tu el</w>
tri to</w>
tri iw</w>
too ʼabʼinq</w>
to on
to nia</w>
tix tzol</w>
tix tuqubʼ</w>
tin tzßâma</w>
tin kßaxtesi</w>
ti cto</w>
teʼ xkuy</w>
teßx chßutub</w>
teß cuaßak</w>
ter ra</w>
tec nología</w>
te ocrá
tan eb</w>
t he
suce der</w>
so cial</w>
seʼ ek</w>
segu í</w>
saq lep</w>
santob resin
santifi cado</w>
sama ib</w>
sali da</w>
sal mista</w>
sabi a</w>
sa rio</w>
rê t</w>
ru cßa</w>
ru c</w>
ri sa</w>
restau ró</w>
res tos</w>
repren sión</w>
repara r</w>
re cubrió</w>
rajlan quileb</w>
ra u</w>
ra te</w>
ra rse</w>
ra mi
ra les</w>
r é
qßui aleb</w>
quinu jac</w>
qui yâbac</w>
queß oquen</w>
queß cßacßalen</w>
qa naʼchin</w>
pájar os</w>
prín cipe</w>
progra mas</w>
pre mo</w>
pr és</w>
pon ernos</w>
pla cer</w>
pi ado
perdon e</w>
pasa je</w>
pare des</w>
p ut</w>
p es</w>
or é</w>
op ción</w>
on ce</w>
ocu pados</w>
numer oso</w>
ninkße îc</w>
nin sikʼ</w>
nin qʼe
ni co</w>
nego cios</w>
necesa ria</w>
nax loqʼoni</w>
nara taw</w>
naqa puktesi</w>
na z</w>
na wbʼal</w>
na ré</w>
na ce</w>
n í
mé lec</w>
má ticas</w>
mu tzß</w>
mori rás</w>
modes tos</w>
miqa kanabʼ</w>
mi chʼinaak</w>
me tieron</w>
me ent</w>
man dé</w>
ma duros</w>
ma duro</w>
m el</w>
lâ inak</w>
lu ya</w>
loqʼ ok</w>
lla ga</w>
liber ación</w>
le en</w>
laa chʼuut</w>
la ban</w>
kʼayi bʼaal</w>
kßa leb</w>
kßa b</w>
kß esnal</w>
ki taqeʼk</w>
ki puktesink</w>
ki chapeʼk</w>
keʼ xuwak</w>
k rus</w>
juz gará</w>
jura meent</w>
jun xi
jultico ß</w>
ju naqik</w>
jo ven
japj ôqueb</w>
ja te</w>
ja chok</w>
j ab
ini cio</w>
indi can</w>
in tenamit</w>
in justo</w>
in in</w>
impul sa</w>
il manq</w>
i endo</w>
hu r</w>
hu manas</w>
han q</w>
habi do</w>
hab rán</w>
h er</w>
gu err
guerr eros</w>
gla terra</w>
gal e</w>
forta lecen</w>
expul sión</w>
eter namente</w>
esta bilidad</w>
especi ali
espe cias</w>
entreg ará</w>
enfren tan</w>
en séñ
en gor
emociona nte</w>
elimina rá</w>
ech ará</w>
dul ce</w>
diri gen</w>
descen dieron</w>
des tino</w>
des menu
der echos</w>
def in
deci da</w>
de primi
de mostrando</w>
d ándole</w>
cá mara</w>
cß och
cuy eb</w>
cristian ismo</w>
co bra
cla g</w>
ci prés</w>
ci ar</w>
chʼ bʼal</w>
chßo lan
chu p
choq l</w>
chix camsinquil</w>
chi risinquil</w>
chan inkil</w>
cer eb
car rêt</w>
car ritos</w>
ca lla
ca ka
ca cu
bʼan kilebʼ</w>
bân ûnk</w>
bus caba</w>
bres inquil</w>
bienaventu rados</w>
ba i</w>
ayudar ía</w>
au dio</w>
ar mados</w>
anje lob</w>
anali za</w>
an ías</w>
an cla</w>
ama sada</w>
am érica</w>
alcan zar
al ó</w>
aj us
aj quilal</w>
agra dan</w>
adora ba</w>
ado ra</w>
actu al</w>
act úe</w>
aconte cido</w>
aa w
a dentro</w>
Yo ß
Yo vi
Xʼa postol</w>
X Bʼ
WABʼEJ ILAL</w>
Ver da
Ta w</w>
TZ ʼ</w>
TA SAL</w>
TA D</w>
T îc</w>
Sucur sal</w>
Su bi
Ste ph
Rober t</w>
Re uel</w>
RUU CHI
RUUCHI CHʼO
RUUCHICHʼO CHʼ</w>
RI O</w>
Quim kex</w>
Qui lajeß
Qu ed
Qa tzolaq</w>
Pa m</w>
PREGUN TA</w>
PER SO
On é
O tra</w>
O so
Naa man</w>
NA CI
N er</w>
Me gui
Mal dito</w>
Maaj un</w>
Ma yo</w>
LO K</w>
Juntakß êt</w>
In glaterra</w>
In cluso</w>
Her món</w>
Gu erra</w>
G eba</w>
F ebrero</w>
F E</w>
Expli que</w>
Es co
E sa</w>
DE B
Cu b
Colo nel</w>
C en
Be za
B at</w>
Aß ut</w>
Apren damos</w>
Abiga il</w>
19 23</w>
1, 8
1 20
, 4
û tal</w>
úni cos</w>
zo nas</w>
z ín</w>
yu leʼk</w>
y lal</w>
xʼAbi ga
xtzʼaq lojik</w>
xtzʼa a
xtzßa kob</w>
xti beleb</w>
xqʼe tbʼal</w>
xoo wulak</w>
xnu bʼaal</w>
xkʼu u
xin tijok</w>
xin takla</w>
xin sicß</w>
xeʼ xkʼubʼ</w>
xeʼ rabʼi</w>
xcßa tbal</w>
xb an
x xaqabʼankil</w>
x tîquilal</w>
x sutam</w>
x su
x muq
x chʼuut</w>
x Raquel</w>
www jworg</w>
wech paabʼanel</w>
ví rgenes</w>
ut bes
usa ron</w>
uni ó</w>
un g</w>
ula ʼ</w>
ue bileb</w>
u eb</w>
tâye hekß</w>
tâk enquil</w>
tâ tzßak
tâ rosobtesiheb</w>
tâ rabi</w>
tâ cßamekß</w>
tâ abîk</w>
tzßaptzß o</w>
tranqui lidad</w>
tranqui la</w>
tqa yeechiʼi</w>
toox u
tix tz</w>
tix puchß</w>
tix jach</w>
tin lokßoni</w>
ti dad</w>
ti bʼ</w>
teßx toj</w>
terremo to</w>
termin e</w>
tchaabʼilo ʼq</w>
table ta</w>
taba co</w>
taa naq</w>
taa kawresi</w>
ta mientos</w>
ta bʼiʼ</w>
sol dâ
simbóli co</w>
si hak</w>
servi cios</w>
semi llas</w>
san ó</w>
s esenta</w>
rêchan inquil</w>
romp er</w>
rode ado</w>
ro ci
rique za</w>
ri seey</w>
revi stas</w>
revel ó</w>
resul te</w>
respon dí</w>
reno mbre</w>
reco mien
recha zó</w>
reali zado</w>
re pe
razona bles</w>
raz o
rahobʼtes iiq</w>
rabʼ in</w>
quix cuy</w>
quix cuikßib</w>
qui xakabâc</w>
qui coloc</w>
queßx mux</w>
queß yoßla</w>
queß sahoß</w>
que j</w>
que daba</w>
qu ía</w>
qa atin</w>
pu de</w>
progres ar</w>
produ cen</w>
pri vado</w>
podr éis</w>
podr é</w>
po ʼq</w>
per í
per siguieron</w>
pasa ban</w>
pareci eron</w>
pa sen</w>
pa s
p inter
p h</w>
organi zado</w>
ore ja</w>
on inbil</w>
olo c</w>
obli ga
o kß</w>
o ba</w>
nekeʼ xkʼojobʼ</w>
ne mos</w>
nax kolebʼ</w>
naqa tenqʼahebʼ</w>
na paltoʼk</w>
na abʼa
mus lo</w>
mun di
mundi ales</w>
muer en</w>
mu cuy</w>
moti vación</w>
mori mos</w>
mo ra</w>
mo da</w>
mo cr
mocr ática</w>
mila g
mb as</w>
mb ab
mbab ue</w>
mayor do
mal hecho
ma abʼar</w>
lokßon in</w>
lin tenamit</w>
lej ana</w>
lee yuʼam</w>
laa tij</w>
laa rahom</w>
la ta</w>
la rse</w>
la a</w>
kʼutbʼesi mank</w>
kʼti ʼ</w>
kʼ u</w>
kßu s</w>
kßaxtes îk</w>
kixyoo bʼtesi</w>
kixkʼirta si</w>
kix qʼax</w>
ki kʼu
kana ßaj</w>
ka lajenaq</w>
junjun qal</w>
jun ch</w>
ju día</w>
ju cß</w>
jebu seos</w>
ja me</w>
ix ki</w>
invi tado</w>
interes ante</w>
iniqui dades</w>
infor mó</w>
impres cin
imprescin di
imp lo
im puestos</w>
i fi
há blele</w>
huérf ano</w>
hi rieron</w>
he veo</w>
habla rles</w>
habi tación</w>
go z
ga nados</w>
g ámonos</w>
g ostas</w>
g es</w>
fun dición</w>
for man</w>
fe la</w>
fal tará</w>
ex pe
ex al
estre lla</w>
esta b
est ri
especi e</w>
escu dos</w>
escri b
entra ñas</w>
enfr entó</w>
enfer ma</w>
enalte cido</w>
emo ciones</w>
emb ri
em pu
ed án</w>
divor ci
di visión</w>
di co</w>
di c
dese chado</w>
desanima dos</w>
des pe
derra mado</w>
deci dimos</w>
de muestre</w>
de dos</w>
d aran</w>
cán tico</w>
cuân kat</w>
cub ina</w>
cre yó</w>
conmo vió</w>
con junto</w>
con cubina</w>
comp ró</w>
com partir</w>
col baleb</w>
co mente</w>
ci ste</w>
chê quel</w>
chßî chßeb</w>
cheß el</w>
chapo c</w>
chancha nak</w>
cha t
ceni za</w>
ce der</w>
cau san</w>
cau resinbileb</w>
car pinter
car me</w>
c ente</w>
bo da</w>
besti as</w>
ben i</w>
ba días</w>
avi ón</w>
averigu ar</w>
atrav es
arro gante</w>
ar rui
apaci ble</w>
ani mo
anhe lo</w>
an á
an kla</w>
am aban</w>
ali vi
alaban zas</w>
al erta</w>
a por
a mi</w>
a ho
a fri
Zi mbabue</w>
Z of
X nawbʼal</w>
TI V
TI MO
TIMO TEO</w>
T om</w>
T ENTO</w>
T ANKIL</w>
Se fela</w>
Sa li
SE GUN
Re p</w>
RI L</w>
QʼA X
Qui xyîb</w>
Queß xbânu</w>
Qa yos</w>
Pu edes</w>
Pro nto</w>
Pa riseey</w>
PO DEMOS</w>
PA TZʼ</w>
O ho
Ni m</w>
Naʼ lebʼ</w>
Naj ter</w>
NE HEM
ME DI
La mec</w>
K O
Jose ph</w>
Jo z
J on</w>
Gede on</w>
Es fuér
ESI OS</w>
EF ESIOS</w>
E len</w>
De mocrática</w>
Da tán</w>
DES PU
DE U
Cu ânk</w>
Cu ak
C risti
Bʼ e</w>
Bri tan
Be la</w>
Barrab ás</w>
Ale luya</w>
Ac ér
A ʼanebʼ</w>
A TA
A ST
7 8
4 50</w>
ûch înk</w>
û c</w>
ú s
ú an</w>
â uk</w>
â uc</w>
á i</w>
yum bʼeetak</w>
yeechiʼ inbʼil</w>
y k</w>
xʼE unice</w>
xʼ elk</w>
xsa c</w>
xoo ruuk</w>
xo j</w>
xkʼ ojaribʼaal</w>
xko ʼ</w>
xka ʼ
xka qa
xeʼx qʼet</w>
xeʼ numeʼk</w>
xe pâb</w>
xcu xeb</w>
xbân u
xb antiox
xa tzßâma</w>
x tzekemq</w>
x mux</w>
x mo
x jap</w>
x Marta</w>
vivi remos</w>
vi vas</w>
ver éis</w>
ver se</w>
ux manq</w>
utu c</w>
ulu l</w>
ue nas</w>
u tan</w>
u lmank</w>
u d</w>
tî nk</w>
târa kekß</w>
tâ sumlâk</w>
tâ mâcobk</w>
tri un
tradu ce</w>
tqa tzʼaama</w>
tq oxloqʼi</w>
tor ce</w>
tooxu waq</w>
too jiloq</w>
ti tzʼ
ti ta</w>
ti m</w>
ti bʼe
teʼx tzʼiibʼa</w>
teʼ tenqʼaaq</w>
teʼ reechani</w>
teßx chap</w>
teß taklânk</w>
terri bles</w>
ter res
te ca</w>
taw ok</w>
tar ían</w>
ta teʼxtenqʼa</w>
ta blemente</w>
t ún</w>
t un</w>
t ko
t he</w>
sobor no</w>
si qßueb</w>
san da
sa caron</w>
s úa</w>
s tamente</w>
ruxta an</w>
ron el</w>
rochbʼeen ebʼ</w>
ro ri
ro bado</w>
regu laridad</w>
regres o</w>
refer ía</w>
recor dó</w>
reali sta</w>
ra ra</w>
r eras</w>
qßui m</w>
quix cßoxla</w>
qui rosobtesi</w>
queß isîc</w>
quer er</w>
que daban</w>
pó stol</w>
pér dida</w>
proye ctos</w>
prote gió</w>
proba do</w>
prob ó</w>
presen tan</w>
prepara rnos</w>
poj tzʼ</w>
plen o</w>
plen i
pleni tud</w>
pier nas</w>
pi diendo</w>
perpetu a</w>
per manente</w>
per dieron</w>
pasa jes</w>
parti do</w>
paabʼan q</w>
olvi dar</w>
ochbʼen ink</w>
ob tesi</w>
o x</w>
o la</w>
numer osos</w>
nokoo xkʼe</w>
nin yal</w>
nequeß cuulac</w>
nekeʼx chʼutubʼ</w>
naʼle bʼa</w>
nax sicß</w>
naqa tzʼaama</w>
naqa kawresi</w>
naka pâb</w>
nacat coloc</w>
na kolok</w>
na ban</w>
menciona da</w>
men sual</w>
medio día</w>
mbi a</w>
mar ás</w>
ma sa</w>
ma go</w>
lo u</w>
lo mos</w>
llo ver</w>
lleg ara</w>
laju heb</w>
laaʼa miiwil</w>
laa tumin</w>
kʼira ak</w>
kʼan kil</w>
kix kolebʼ</w>
kix juntaqʼeeta</w>
keʼx tzʼiibʼa</w>
keʼ sahoʼk</w>
juntaqʼee tebʼ</w>
jun paa
julti ca</w>
joʼkʼi hal</w>
joskß ileb</w>
jar uj</w>
j mank</w>
invi erno</w>
inten te</w>
instru mentos</w>
inmun da</w>
indi có</w>
incre í
in fidelidad</w>
in fa
in emos</w>
in bilak</w>
il le</w>
i cio</w>
hu pu
ho bʼ
hi pócri
glori oso</w>
ga dor</w>
fí sicas</w>
funda mental</w>
fortale cerá</w>
flo re
fi jó</w>
exper to</w>
estable cer</w>
er tes</w>
eq ta
entr éguele</w>
enfren tamos</w>
encon tré</w>
emba raz
electróni cos</w>
egoí sta</w>
due le</w>
du tún</w>
dr ás</w>
do minar</w>
disponi bles</w>
di réis</w>
di lla</w>
determina r</w>
descien den</w>
descen dido</w>
desarro llar</w>
des pidió</w>
des en
der ía</w>
defen sa</w>
de l
célu las</w>
cui dará</w>
cube c</w>
cub i</w>
corre n</w>
cor tó</w>
conta gi
consul ta</w>
consider an</w>
con tiendas</w>
co a</w>
ci ta</w>
ci rá</w>
cha cuuxtâna</w>
cal cu
ca torce</w>
bʼuu r</w>
bó set</w>
bien venida</w>
azo tea</w>
auto mó
au bil</w>
ase dio</w>
arro jó</w>
arro gantes</w>
apó sta
apren den</w>
andu vo</w>
an dado</w>
alco h
al turas</w>
adora mos</w>
ad úl
actu ali
acer carnos</w>
acer can</w>
acab e</w>
ac to</w>
abʼa anu
ab raz
ab ismo</w>
a tormen
a se</w>
a laaq</w>
Z eb
Yoo kebʼ</w>
Yoo k</w>
X A
Uni do</w>
U STE
Tz ßa
To davía</w>
Te coa</w>
TER ON
TERON OM
TERONOM IO</w>
T aré</w>
So ba</w>
Si clag</w>
Seb na</w>
ST A</w>
SEGUN DA</w>
SAB ER</w>
SA S</w>
S é
S y
Q E</w>
Pro medio</w>
Portu gal</w>
Po dría</w>
PUK TESINK</w>
Oʼ LAAK</w>
Nu estros</w>
Naʼa jmank</w>
NU EV
NIM LA</w>
NAK AA
NACI MIENTO</w>
N IN
Mú sica</w>
KU YU
KIY OʼLAAK</w>
Julti koʼq</w>
Ju icio</w>
Je dutún</w>
Ja zer</w>
Ja fet</w>
JUN CHʼO
JUNCHʼO L</w>
J unio</w>
Ha zar</w>
G ol
F al
En séñ
EJ EMP
Di jo</w>
DEU TERONOMIO</w>
DESPU ÉS</w>
Cuán tos</w>
Cu a
Cono zca</w>
Chin âcol</w>
Car mel</w>
Be tuel</w>
Ara bia</w>
Am ram</w>
8 8
6 5
3 32</w>
2 14</w>
19 18</w>
17 1</w>
1 19
û m</w>
î banquil</w>
í dos</w>
ê xutân</w>
én tate</w>
Ô b</w>
z ón</w>
yumbê tac</w>
yotʼ eʼk</w>
yoo bʼtes
y t</w>
xy oobʼ</w>
xu cu
xta sal</w>
xra m</w>
xqßui ra</w>
xpa tzßbal</w>
xo x</w>
xles eens</w>
xkʼiha lebʼ</w>
xkaa xil</w>
xin kʼanjelak</w>
xin k</w>
xi qßueb</w>
xeʼ xyal</w>
xeʼ kanaak</w>
xe cßul</w>
xcu tanquil</w>
xcha pbʼal</w>
xbio mal</w>
xbich ânk</w>
xbala kßi</w>
xba kel</w>
xb alba</w>
xaqli ik</w>
xaa kʼul</w>
x wabʼi</w>
x tzßûmal</w>
x qßuehoc</w>
x maaʼusilal</w>
x cßulu
x an</w>
we chʼ
volu men</w>
vi embre</w>
venta ja</w>
vasi ja</w>
ux q</w>
ul ûnk</w>
u lak</w>
u kʼaq</w>
tî co
tér mino</w>
tâ canab</w>
tßan tß
tßan ecß</w>
tzßa m</w>
transgresi ón</w>
tradu cciones</w>
tqa kubʼsi</w>
tor no</w>
tomar la</w>
tix tzʼil</w>
tix sachebʼ</w>
ti to</w>
ti kib</w>
ti emb
teʼx patzʼ</w>
teʼ xkamsi</w>
teʼ risi</w>
teß yâbak</w>
teß sahokß</w>
termin a</w>
tenkß âc</w>
te cho</w>
taq si</w>
taa chʼolobʼ</w>
t sutqʼiiq</w>
t jolominq</w>
sí n
su ceso</w>
st ón</w>
so ʼq</w>
si va</w>
si mi
si k
sent ían</w>
sal il</w>
sach c</w>
saaj ilal</w>
sa kße
sakße hil</w>
sa el</w>
s pe
rue da</w>
ri amente</w>
resu el
recuer dos</w>
recono cen</w>
rebeli ones</w>
re den
re cur
ras gó</w>
ra t</w>
ra pi
ra la
ra aro
ra anm</w>
r eros</w>
qʼa bʼaak</w>
qßuir âc</w>
qula ʼani</w>
quix muk</w>
quin yechißi</w>
qui rahoß</w>
qui cuacles
queßx kßetkßeti</w>
queß iloc</w>
qa tzʼaamaq</w>
purifi cado</w>
purifi cación</w>
puktes imanq</w>
propi cia
propicia torio</w>
proce de</w>
pro dig
prodig ios</w>
prim eri
pregun tarle</w>
predi cado</w>
pre fer
posi tivas</w>
polí tico</w>
po ʼ</w>
po quito</w>
persegui dos</w>
per si
per p
perp ôquil</w>
pelícu las</w>
parti cular</w>
pareci das</w>
pa f
pa c
ofrecer ás</w>
océ ano</w>
ob an</w>
nokooʼeʼ xrahobʼtesi</w>
ninkße îk</w>
nekeʼx waklesi</w>
nekeʼ ileʼk</w>
ne cios</w>
naw bʼilebʼ</w>
najal mank</w>
na waklesink</w>
na tßaneß</w>
na rosobʼtesi</w>
na dab</w>
mé sti
mé rito</w>
movi do</w>
moti v
modes to</w>
mo tzo
mi so</w>
mi co</w>
menciona r</w>
ma ta
ma res</w>
m esi
lubʼ lu
lo kßlaj</w>
llev en</w>
limpi ar</w>
le gal</w>
la mank</w>
kʼe heʼq</w>
kʼajo ʼaq</w>
kʼa mebʼ</w>
kßu seb</w>
kßetkße teb</w>
kß ên</w>
ku yaq</w>
ku kß</w>
kix tochʼ</w>
ki taqlaak</w>
keʼx chap</w>
kama ʼin</w>
kama ʼ</w>
juz ga</w>
junpaa taq</w>
jun tas</w>
ju bi
jolo meb</w>
jo re
ji ʼ</w>
ix bʼej</w>
is inbil</w>
invi taron</w>
investi gación</w>
insensa tez</w>
inmen sa</w>
identifi ca</w>
iden tidad</w>
hospi tal</w>
ha dad</w>
gi endo</w>
ger ia</w>
g í</w>
g ios</w>
funciona rios</w>
forma to</w>
fi nales</w>
fa cul
experi men
estuvi eran</w>
esta rás</w>
escucha d</w>
er esi</w>
entra ba</w>
enoj a</w>
enfren tar</w>
el kßac</w>
ejemp lar</w>
e fectos</w>
dr os</w>
dormi do</w>
do mésti
diver siones</w>
disfru tamos</w>
dis tra
dij iste</w>
di gi
desper tó</w>
descar gar</w>
desa parecido</w>
des esper
des cubrió</w>
den se</w>
cßu tuc</w>
cßoch lebâl</w>
cßa si</w>
cuán tas</w>
cu yas</w>
cu ente</w>
cox tal</w>
con fu
compro miso</w>
come tieron</w>
co ronel</w>
co mand
cli c</w>
cin tu
ci dio</w>
chʼut laak</w>
chßi nan</w>
chi rêchaninquil</w>
chex cuânk</w>
ch ex</w>
cer rado</w>
cari as</w>
cal ón</w>
cab ra</w>
c án</w>
bʼa hom</w>
bʼ q</w>
bá sicas</w>
bendi to</w>
ba stón</w>
ba k
ay i</w>
asegura rnos</w>
anu al</w>
ani m</w>
an el</w>
alter na
ale g
ale bâl</w>
alcoh óli
alcan zado</w>
al zó</w>
afli gido</w>
acab ado</w>
abʼ inq</w>
abri r</w>
ab înc</w>
aa kuyum</w>
a mas</w>
a ga
a campa
Zof ar</w>
Zi f</w>
Ze lo
Vuel ve</w>
Tr inidad</w>
Ten go</w>
Tab or</w>
TU Q
T ro
Só lo</w>
Steph en</w>
Sefa tías</w>
Sala tiel</w>
SU M
Recor demos</w>
RE INO</w>
R us
Pa kis
No viembre</w>
Ni geria</w>
N Ú
Min is
Mi ke</w>
Mefi bóset</w>
Maa waʼ</w>
M IN
Le vi
LA YA</w>
KʼUTBʼES INK</w>
K o
K e
Jero baal</w>
JEREM IAS</w>
I z
I si</w>
Husa i</w>
Hi zo</w>
Han ún</w>
HA Q</w>
H á
H el
H amor</w>
Gu ar
Ges ur</w>
Es tán</w>
E unice</w>
E paf
Domin go</w>
Di bón</w>
Da gón</w>
DONA CIONES</w>
D anos</w>
Cßa mo
Cub sihom</w>
Co men
Chʼi naʼ
Ca rea</w>
Bʼan yox</w>
Britan nica</w>
Bil ha</w>
B uenas</w>
Ayu de</w>
As calón</w>
Ale x
Al lá</w>
Ahi tofel</w>
AYU DA</w>
ATA LAYA</w>
7 00</w>
20 8</w>
15 2</w>
1, 9
1 28
1 2000</w>
ú cia</w>
óni ce</w>
éndo lo</w>
á ramos</w>
ÓN DE</w>
z cáis</w>
ya leʼq</w>
xʼa póstol</w>
xy ok</w>
xtzʼaa mankil</w>
xta qe</w>
xin tau</w>
xin q</w>
xeß xye</w>
xcßulu beb</w>
xco cßal</w>
xchʼolan inkil</w>
xcaßbi chaleb</w>
xa mân</w>
x wa</w>
x chʼutu
x chʼutam</w>
x cho
x chak</w>
x Dalila</w>
w eb</w>
w anabʼ</w>
uu ch
un ción</w>
u va</w>
u tam</w>
tî cak</w>
tê cuy</w>
tâtzßak lok</w>
tân ânk</w>
tâ sach</w>
tâ qßueheb</w>
tâ colekß</w>
tzʼap tzʼ
tzʼ un
tzß oca
tzß ejcual</w>
tur ban
tradu ctores</w>
to ß</w>
to joßnak</w>
to câmk</w>
tix sacheb</w>
tix patzʼ</w>
tina n
tin yîb</w>
tin wanq</w>
tin taw</w>
tin sukßîk</w>
ti xb
ti vamente</w>
ti c
teßx sach</w>
teßx patzß</w>
teß oquênk</w>
te to</w>
tapi ces</w>
ta kil</w>
ta ara</w>
t kʼehoq</w>
suts ûqueb</w>
sus tento</w>
sue gro</w>
su alidad</w>
spica cia</w>
si vos</w>
si k</w>
si haq</w>
sepul tura</w>
senti remos</w>
se ʼ</w>
se lec
san tísimo</w>
san guí
sabi as</w>
sa nado</w>
s î
ruxta ana</w>
ro d</w>
ri lo
reún en</w>
reún e</w>
res îc</w>
regoci jar
recib í</w>
recha zaron</w>
re ce</w>
ra li
ra keß</w>
qßue leb</w>
quix sume</w>
quix coleb</w>
quiri leb</w>
quinix cßam</w>
qui qßueleb</w>
qui la</w>
qui l
qui ja
queßx mayeja</w>
queß âtinac</w>
que lon
que den</w>
qabʼ e</w>
qa miiwil</w>
prácti co</w>
profeti zan</w>
pres ta</w>
pregun tado</w>
posi bles</w>
pod éis</w>
po pu
ple ti</w>
pla zas</w>
pes ado</w>
parábo las</w>
palto k</w>
p ee
ofreci do</w>
ofre cía</w>
ofi siin</w>
o ridad</w>
o pe</w>
o irán</w>
o irá</w>
nu jak</w>
nokoo ʼelk</w>
nikin xra</w>
nequeßx tzßâma</w>
nequeß xcßam</w>
neque xin
nekeʼx kubʼsi</w>
nekeʼ xyotʼ</w>
nekeʼ kʼehok</w>
naʼ ekʼasink</w>
nax qʼet</w>
nara moc</w>
naqa kubʼsi</w>
nakat xra</w>
nakaa sikʼ</w>
naka ye</w>
najto bʼresi</w>
na toj
na kʼutbʼesimank</w>
na kʼu
na cßulman</w>
n án</w>
mé rica</w>
muri era</w>
mu és
mostra ron</w>
mostra rles</w>
mo ʼk</w>
mo tiva</w>
mencion e</w>
medi tando</w>
me ter
me los</w>
mar fil</w>
maa tani</w>
maa kebʼ</w>
ma gos</w>
lí cito</w>
lásti ma</w>
lokßon înc</w>
lo n</w>
lo ch</w>
llev arán</w>
lla mas</w>
lin kachʼinal</w>
letz bʼil</w>
laa hoonal</w>
la dri
kʼojo bʼank</w>
kʼay tesi</w>
kʼ ix</w>
ku la</w>
kaʼ pakʼal</w>
ka bʼ</w>
k on
k eho
k ana</w>
junaj ak</w>
je kʼi
j tesi</w>
ir ri
inter esa
inmedia tamente</w>
indig nación</w>
in metzʼew</w>
in hoonal</w>
in bʼaan</w>
im ânk</w>
im pac
ic ri</w>
homb ros</w>
ho bʼresi</w>
habi te</w>
habi tará</w>
ha r</w>
ha mbri
gri ta</w>
gar ás</w>
g ú
fí e</w>
funciona rio</w>
firme za</w>
fal taba</w>
f re
f in
ez i</w>
evi dente</w>
etí ope</w>
estre cho</w>
esper aban</w>
esi a</w>
er ás</w>
enfren taron</w>
encu entre</w>
encontra ba</w>
en de</w>
empi ezan</w>
embos cada</w>
ela ß
ekʼa sinq</w>
edifi ca</w>
e lo</w>
e bre</w>
dá mosle</w>
dure z</w>
du er
do b
diver sos</w>
disfru temos</w>
dig na</w>
difer encias</w>
dia ria</w>
di ligencia</w>
desa pare
des obediencia</w>
der re
defin ido</w>
decla rará</w>
deci den</w>
deb o</w>
de me</w>
de d</w>
cô o</w>
cßanje leb</w>
cun da
cri terio</w>
cos tó</w>
cor to</w>
cor tado</w>
cor ta</w>
contribu ir</w>
conso lar</w>
confli ctos</w>
confli cto</w>
confi emos</w>
confi ando</w>
con tarles</w>
con tamos</w>
compren dí</w>
com unes</w>
co monil</w>
ciudad anos</w>
châbi lat</w>
choʼ eʼk</w>
chi s
chale naqebʼ</w>
cha ßi</w>
ch el</w>
cer se</w>
casti gó</w>
cana bak</w>
cams inel</w>
camina ndo</w>
cambi a</w>
cab ras</w>
ca ra
c esa</w>
bʼanyox inq</w>
bʼa at</w>
bus caron</w>
bi lakeb</w>
bi do</w>
añ as</w>
ay uno</w>
auxi liar</w>
au mento</w>
ate mori
as en
arru ina
arra i
anun q</w>
ani man</w>
ana tema</w>
ame mos</w>
activi dad</w>
aconte cimientos</w>
acci dente</w>
abandon ó</w>
aan il</w>
aa maak</w>
a prueba</w>
a damente</w>
Z icri</w>
Z er
Z al
Xin kʼe</w>
XI Kʼ</w>
X SAHIL</w>
V as
U U
Tz ʼa
Teß xqßue</w>
Tex xic</w>
Ten qʼa</w>
TUQ TUU
Su kß
Su be</w>
Se t</w>
SU S</w>
Re cuer
Pro metida</w>
Pa z</w>
PRES EN
P ris
Ori ente</w>
Numta jenak</w>
Nin tzßâma</w>
Ne w</w>
NA L</w>
N a</w>
Mon te</w>
Levan taos</w>
LI A</w>
L úcia</w>
Kʼajo lbʼej</w>
Kʼ ehomaq</w>
K O</w>
Ju ez</w>
Je daías</w>
J W
IDA D</w>
Gi ezi</w>
F AMI
Escri ba</w>
Encyclo pedia</w>
Ecua dor</w>
EJEMP LO</w>
E xodo</w>
E xi
E t
E bed</w>
DI CA
D ÓNDE</w>
Chʼol chʼooq</w>
Che q</w>
Ce dar</w>
Cab laju</w>
Ca u</w>
Bere quías</w>
Benja min</w>
B abel</w>
Asa mb
Apo los</w>
Ana c</w>
AYU DA
AN DO</w>
AL ES</w>
A dri
3 5
200 6</w>
2, 6
2 12</w>
10 0
- Lâat</w>
ʼan inkilebʼ</w>
ʼa jaq</w>
ʼ EBʼ</w>
ô keb</w>
â t</w>
â junes</w>
á ra
Á S</w>
yî banbileb</w>
yo y</w>
xâ r</w>
xyâba sinquil</w>
xy os
xra ʼal</w>
xra hilal</w>
xpê que
xpêque meb</w>
xnaj to
xmâ taneb</w>
xjun kabʼlal</w>
xin yal</w>
xi lal</w>
xex chal</w>
xcß anjel</w>
x ketomq</w>
x joskßileb</w>
x chßeßbal</w>
w aj
volver ás</w>
vio len
vigilan tes</w>
venta jas</w>
vac ío</w>
vac ía</w>
va cu
usa q</w>
un i</w>
u homak</w>
tâ sahok</w>
tâ osok</w>
tâ julticokß</w>
tß i
tzʼaa mank</w>
tzʼ unk</w>
tza ka</w>
tz o</w>
tw aj</w>
tuu lan</w>
transgresi ones</w>
tor tas</w>
to men</w>
to lo
to chß</w>
tkaw uuq</w>
tix tzʼeqtaana</w>
tix ram</w>
teʼx jultika</w>
tene d</w>
ten ol</w>
tar las</w>
taa kʼam</w>
t sumlaaq</w>
sol ía</w>
sol da
sober anía</w>
so bres
se di
sacu dida</w>
sache k</w>
sach bil</w>
s îk</w>
s ma</w>
rula ʼaninkilebʼ</w>
ru kʼ</w>
rosobtes inquil</w>
ries go</w>
ri ñ
respe tan</w>
religi osa</w>
refi rió</w>
ree kʼa</w>
recha zan</w>
recha za</w>
re quiere</w>
rarô quex</w>
ra rás</w>
qʼa bʼa</w>
quix serakßi</w>
qui tßaneß</w>
qui suk</w>
queßx pâb</w>
queßx jap</w>
queßx cßûb</w>
queb in
que madas</w>
que dé</w>
qi bʼankil</w>
qa yalaq</w>
prê x</w>
provo cado</w>
prostitu ción</w>
prohibi do</w>
pro puso</w>
pro bar
prision eros</w>
poli cía</w>
perí odo</w>
pertene cen</w>
peri ó
per siguen</w>
per ros</w>
pe dí</w>
pe có</w>
par án</w>
pa siones</w>
pa ko</w>
oxloqʼa q</w>
oxloqʼ ihebʼ</w>
ora do</w>
olvi dó</w>
ol vida</w>
och ben
o sidad</w>
o queb</w>
nokoo paltoʼk</w>
nokoo bʼanyoxink</w>
nin ʼaatinak</w>
nin tijok</w>
nin cßul</w>
nim ebʼ</w>
nequex pâban</w>
nekeʼ numeʼk</w>
nekeʼ chʼaʼajkoʼk</w>
nax xucua</w>
nax numsi</w>
naqa yaabʼasi</w>
naq in</w>
nami entos</w>
nakaa kanabʼ</w>
na xyotʼ</w>
na rabi</w>
mé todo</w>
muchísi mas</w>
mos tremos</w>
mi ó</w>
mi nan</w>
medi anoche</w>
mar ch
mal ías</w>
maje cuanquil</w>
ma qebʼ</w>
ma jiʼ</w>
ma durez</w>
lv s</w>
lo cal</w>
llev arnos</w>
lig entes</w>
lev ántate</w>
le años</w>
lar mente</w>
lar gas</w>
lan el</w>
laaw uqʼ</w>
laa kʼuulaʼal</w>
la l
l va
kʼa j
koch ben</w>
kix muq</w>
kix kʼabʼaʼi</w>
kix kut</w>
kix chʼutubʼ</w>
ki xyuʼami</w>
ki rahobʼtesiik</w>
ki ra
ki kawuuk</w>
keʼ xkʼulubʼa</w>
ka tzacaêmk</w>
k aban</w>
juna jo</w>
ju qßu
ja chi</w>
inspi ración</w>
inmen so</w>
inclin ó</w>
in yußam</w>
in t</w>
in kex</w>
impresiona nte</w>
im perfec
ilo maq</w>
igu almente</w>
hu lak</w>
hon da</w>
hi ri
he teos</w>
he chas</w>
hacer me</w>
hab l
hab al
gobier na</w>
glorifi cado</w>
gen e
fí ca
far ero</w>
extraordina rio</w>
eunu cos</w>
estudi e</w>
est ó
es cua
er éis</w>
ena z</w>
en er
emo t</w>
edu car</w>
edi ción</w>
e ven
du dar</w>
distingui r</w>
di visiones</w>
di esen</w>
descen diente</w>
des pedi
des may
der se</w>
demostra rle</w>
def ini
de monio</w>
de co
cump leaños</w>
cuaj b</w>
cu ê
cu án</w>
cu le
cu ero</w>
crey ente</w>
cre o</w>
cre encia</w>
cor tina</w>
cor romp
contro la</w>
continu ar</w>
contes tar</w>
conser var</w>
con texto</w>
con stante</w>
con dición</w>
compor tamiento</w>
com para</w>
colabora dores</w>
cla maron</w>
ci ré</w>
chʼu u
châ l
chßißchßiß inquil</w>
chß bil</w>
chix tzo
chix patzß
chix camsinquileb</w>
chan Ut</w>
cha el</w>
ch ino</w>
cer cana</w>
celesti ales</w>
celeb ran</w>
cau sar</w>
cau hakeb</w>
cana l</w>
ca ß</w>
ca xâr</w>
ca lâk</w>
ca les</w>
ca en</w>
bʼtes inkil</w>
bʼresin bʼil</w>
bʼoq eʼk</w>
bo cas</w>
beb a</w>
be teli
ba sa</w>
ba cß
b r
at óni
asi rios</w>
asegura rse</w>
apropi ado</w>
animo bʼresi</w>
agrad ables</w>
acos tó</w>
acer cado</w>
abʼa si</w>
a preci
Za carias</w>
XBʼ AAN</w>
X huhil</w>
X KʼANJEL</w>
X KʼA
W U</w>
Vas ti</w>
U nos</w>
Too ruuq</w>
T ho
So cie
Sa moa</w>
Sa gradas</w>
S hi
S AA
Re ina</w>
Quix chap</w>
Pre paremos</w>
Pa t
PU ESTA</w>
PAR TE</w>
PA LA
PA CI
P AABʼ</w>
OR ACIÓN</w>
O í
NÚ MER
NÚMER OS</w>
Ne h</w>
Naj t</w>
Na da</w>
Mi chael</w>
Man tén
Mal ta</w>
MEDI TAR</w>
M era
Le ah</w>
LI DA</w>
K ar
Jona tan</w>
Jes sica</w>
Ja más</w>
J en
Inter nacional</w>
IN TER
I HOM</w>
Hebre as</w>
Hana ni</w>
H or</w>
Ge t
F í
Efra ta</w>
Ef rón</w>
E den</w>
De ci
De bir</w>
DR O</w>
D el</w>
D AS</w>
Cßa m</w>
BI LI
Ayu qex</w>
Ayu demos</w>
A tenas</w>
A prove
A a
9 9
4 55</w>
200 8</w>
19 58</w>
1, 5
ʼ o</w>
ñ ó</w>
ído lo</w>
ê uheb</w>
ê rochben</w>
ê cßaßux</w>
ß sol</w>
za pa
za os</w>
za ción</w>
z al</w>
yô kat</w>
yu ʼa
yo k
y eran</w>
xyoʼ laak</w>
xwu q</w>
xtoqʼo bʼaal</w>
xsumen quil</w>
xoo wank</w>
xlo kß</w>
xkʼe bʼalebʼ</w>
xkʼanje la</w>
xineʼ x
xin wank</w>
xin sutqʼiik</w>
xi ke
xeʼ risi</w>
xcßa ßuxeb</w>
xaqxo qo</w>
xakxô k</w>
xa jok</w>
xDani ele</w>
x raj</w>
x mukbal</w>
x malkaʼan</w>
x ebʼ</w>
x cuaj</w>
waʼa q</w>
vi v
vi na
vi lle</w>
ven dido</w>
utili zando</w>
usa do</w>
usa ba</w>
um en</w>
tôn til</w>
tê pâb</w>
tâa tînk</w>
tâ yoßlâk</w>
tâ sicß</w>
tâ mk</w>
tâ cßatekß</w>
tâ cuaclîk</w>
tßu s
tßus tß
tzßektânan quil</w>
tu min
trai ga</w>
tor r
toje ß</w>
to ja
toja ß</w>
to cado</w>
tix sicß</w>
tix nau</w>
tin tz</w>
tin ch</w>
ti xyiibʼ</w>
ti xkʼehebʼ</w>
teʼ xsach</w>
teʼ xkʼut</w>
teʼ xkol</w>
texin canab</w>
tex sukßîk</w>
tee bʼaanu</w>
te or
te ji
tatra kok</w>
tat naʼlebʼaq</w>
tat canâk</w>
taklan bil</w>
taka j</w>
tak ekß</w>
t ß</w>
t yoʼlaaq</w>
t r</w>
sur gen</w>
sober ano</w>
so ßsol</w>
so k</w>
sier vas</w>
sicß bileb</w>
señ a
sen da</w>
see yt</w>
se ver
se cunda
saq ew
santobres inquil</w>
sanda lias</w>
sada c</w>
ros tros</w>
rok sihebʼ</w>
ro pas</w>
ris inquileb</w>
ri am</w>
reuni r</w>
resuci tará</w>
res îk</w>
repren dió</w>
relaciona do</w>
regi ones</w>
reflexi onar</w>
reci ba</w>
reali zan</w>
rami iw
ra ría</w>
ra di
qʼa bʼ</w>
qßue c</w>
quix tzßap</w>
quix jal</w>
quix col</w>
quin iman</w>
quin ce</w>
qui t</w>
qui cuaßac</w>
queß taklâc</w>
queß abin</w>
qu ense</w>
qu en
qa waʼchin</w>
pájar o</w>
pusi era</w>
profesi onal</w>
produ jo</w>
produ cto</w>
pro mo
pro cur
preocupa dos</w>
pre ex</w>
pos tr
polí ticas</w>
ple et</w>
plan ifi
pi ro</w>
pi eles</w>
pi do</w>
per siguió</w>
pen dientes</w>
pelig roso</w>
pe z</w>
pe naz</w>
partici pan</w>
palto ß</w>
pa semos</w>
obedeci endo</w>
o pti
o pres
o culto</w>
novi llos</w>
nokoo xkawresi</w>
nokoo tenqʼank</w>
nima k</w>
ni ki
nequeßx canab</w>
nequeß rahoc</w>
nequeß lokßonin</w>
nekeʼx rahobʼtesi</w>
nekeʼx bʼanyoxi</w>
nekeʼ chʼinaak</w>
necesi ten</w>
ne bʼaʼebʼ</w>
naʼux k</w>
nax chßic</w>
nau m</w>
naq ilebʼ</w>
na tzʼaqonk</w>
na numeʼk</w>
na naßoc</w>
na julti
míni mo</w>
musiqʼan bʼil</w>
mucha chos</w>
mucha cha</w>
moti vó</w>
mo lino</w>
mi es</w>
mer cado</w>
mat qßuec</w>
man sos</w>
mal dades</w>
maako bʼq</w>
m y</w>
lev ante</w>
lepro so</w>
lan gostas</w>
laa kux</w>
laa koʼ</w>
la mente</w>
la kex</w>
la go</w>
kʼamo q</w>
ko ʼk</w>
kiyii bʼank</w>
kixkʼirta sihebʼ</w>
kix toqʼobʼa</w>
kix jap</w>
ki xaqabʼank</w>
ki roxloqʼi</w>
keʼ xkʼutbʼesi</w>
keʼ koleʼk</w>
ka tz</w>
juz gado</w>
juntakß êta</w>
jun ta</w>
joʼ kaʼan</w>
joqʼe qil</w>
jo bʼresi</w>
ji ta</w>
ja pok</w>
j eron</w>
invisi ble</w>
invi tamos</w>
inte ligente</w>
inferi or</w>
inclu ir</w>
in yucuaß</w>
in kʼabʼaʼ</w>
in cßaßux</w>
identifi car</w>
i xi
i qßuin</w>
hu d</w>
ho meb</w>
hi lanq</w>
hab erlo</w>
gü e</w>
guí e</w>
grie gos</w>
grati s</w>
gr ense</w>
gen i
gan cho</w>
fá cilmente</w>
fru stra
fr ío</w>
flu ye</w>
fi ro</w>
fi gu
examina rá</w>
estudi amos</w>
estu ve</w>
est é
espe jo</w>
escucha mos</w>
escu dero</w>
escribi era</w>
escri tura</w>
envi ará</w>
ent ro
enseñ aban</w>
engran decido</w>
ener gía</w>
encar gados</w>
en frente</w>
en dure
en der
emp o</w>
ej ink</w>
ebe deo</w>
e tk</w>
dé cadas</w>
do s
dis trito</w>
dig nos</w>
dificul tad</w>
di s</w>
deu das</w>
destru yeron</w>
destru ye</w>
dese ando</w>
des hon
der ás</w>
deli to</w>
dej arás</w>
de na
da i</w>
cßox lanquil</w>
cßa m
cß âm</w>
cui bak</w>
cub ren</w>
cua cuîmk</w>
cu ênt</w>
cu ri
cu rar</w>
[...]
